#version: 0.2
§ Ù
Ø §Ù
Ù Ĭ
Ø§Ù Ħ
Ġ Ù
Ġ Ø§ÙĦ
Ø ±
Ø ª
Ù ħ
Ù Ĩ
Ø ©
Ø ¹
Ù Ī
Ø ¨
Ø ¯
Ø ³
" :
Ø Ń
ĠÙ ħ
Ù ĥ
Ø ¬
Ø £
Ù ĩ
, "
Ù Ĥ
a r
ĠÙ Ī
": "
" ,"
Ù ģ
Ø µ
Ø ·
l a
{ "
r o
b e
§ Øª
Ø §Øª
p ro
be l
la bel
pro b
9 9
} ,
Ø ´
Ø ®
Ġ Ø¨
ĠÙ ģ
ĠÙ Ħ
§ Ø±
Ø §Ø±
}, {"
ĠØ§ÙĦ Ùħ
ÙĬ Ø©
Ġ Øª
Ġ Ø¹
§ Ø
Ø §Ø
Ġ Ø£
Ù ī
Ø§Ù Ĩ
ĠÙģ ÙĬ
Ø Į
Ø ¥
Ø ²
ÙĬ ÙĨ
Ø§Ù ħ
ĠÙħ ÙĨ
ĠÙ ĥ
Ø °
Ø «
Ø ¶
Ġ ÙĬ
Ħ Ùī
Ù ĦÙī
ÙĬ Ø±
Ø º
e n
ĠØ§ÙĦ Øª
Ġ Ø³
§ Ø³
Ø §Ø³
Ø± ÙĬ
ÙĪ ÙĨ
ÙĪ Ù
ÙĪÙ Ħ
ĠÙĪ Ø§ÙĦ
Ġ Ø¥
Ġ ØŃ
§ Ø¨
Ø §Ø¨
ĠØ§ÙĦ Ø£
2 0
ÙĪ Ø±
Ø¯ ÙĬ
ĠÙĦ Ù
ĠØ§ÙĦ Ø¹
Ø§Ø ¡
ĠÙĦÙ Ħ
o n
Ùĩ Ø
ÙĩØ §
. \
ĠØ§ÙĦ ØŃ
Ħ ÙĬ
Ù ĦÙĬ
ĠØ¹ ÙĦÙī
ĠÙ Ĩ
Ø¨ ÙĬ
ĠÙ ĩ
§ Ø¹
Ø §Ø¹
§ Ø¯
Ø §Ø¯
Ġ Ø¬
ĠÙ Ĥ
en t
Ø§Ø± Ø©
u l
Ø§Ø ¦
Ø´ Ø±
ĠØ§ÙĦ Ø³
w ar
Ħ Ø©
Ù ĦØ©
§ ØŃ
Ø §ØŃ
war c
ul l
n ull
Ù İ
99 9
Ø¹ Ø¯
Ġ Ø®
Ø§Ù Ĭ
a t
ÙĪ Ùħ
Ø§Ù ģ
e r
0 0
Ø ¸
Ùħ Ù
Ø³ Øª
ÙħÙ Ħ
Ġ Ø±
ĠØ§ÙĦ Ùĥ
ĠØ§ÙĦ Ùģ
Ø ¢
i d
§ Ø¬
Ø §Ø¬
Ø§Ù Ĥ
Ùħ ÙĬ
Ø³ Ø§Ø±Ø©
Ġ Ø·
i n
Ġ Ø¯
â Ģ
Ù ĭ
ĠØ§ÙĦ Ø¬
Ø¨ Ø±
Ġ Øµ
Ø¯ Ø©
9 8
ĠØ£ ÙĨ
n Ø§ÙĦ
Ø¹ Ø±
ØŃ ÙĨ
Ġ 1
ĠØ§ÙĦ Øµ
Øª Ø±
Ġ (
ĠØ¨ Ø§ÙĦ
Ø¯ Ùħ
99 8
Ø¬ Ø±
ĠØ§ÙĦ Ø±
Ġ 20
Ġ Ø´
ÙĬ Ø
ĠÙħ ØŃ
ĠØ§ÙĦ ÙĨ
Ġ .
Ùħ ÙĨ
Ġ ØĮ
ÙĬ Ù
ĠØ¹ ÙĨ
2 2
o r
c on
ÙĪ ÙĤ
Ù ĳ
ÙĬÙ Ħ
ĠØ§ÙĦ ÙĤ
Ø± Ø©
ĠØ§ÙĦ Ø¥
e s
ĠÙħ Ø¹
ĠÙĥ Ø³Ø§Ø±Ø©
Ø§Ù ĥ
Ùħ Ø
, {"
9 7
Ø¹ Ø©
ÙĬØ §
Ø§Ù Ī
Ħ Ùĥ
Ù ĦÙĥ
ĠØ§ÙĦ Ø¨
ĠØ§ÙĦ Ø®
ĠØ§ÙĦ Ø¯
ÙħØ §
Ø± Ø¨
ÙĬ Ø¯
s h
Ø§Ø³ Øª
Ù Ģ
ÙĤ Ø©
ÙĨ Ø
ÙĬ Ùģ
ÙĨØ §
Øª Ùħ
2 1
ÙĪ Ø¯
con t
Ùĩ Ùħ
Ø§Ù ĩ
cont ent
Ùĥ Ø©
u r
i on
§ Øµ
Ø §Øµ
Ħ Ùħ
Ù ĦÙħ
Øµ ÙĨ
8 4
i c
Ġ Ø¢
\ "
ĠØ¥ ÙĦÙī
Ù ı
Ø± ÙĪ
ĠØ§ÙĦ Ø´
99 7
e t
3 0
Ġ -
Ø ¦
ÙĨ Øª
Ø° Ùĩ
Ø§Ø± Ø§Øª
9 6
3 1
a d
Ø· ØŃÙĨ
n Ùħ
ÙĪ Ø¨
Ø³ ÙĬ
Ø° Ø
Ø°Ø §
2 5
3 5
er s
ÙĪ ÙĬ
Ùħ Ø©
Ùĥ ÙĨ
Ù Ĳ
ĠØ£ ÙĪ
8 5
3 4
3 6
t y
ĠØ§ÙĦ Ù
ĠØ§ÙĦÙ Ħ
1 1
9 5
i f
Ġ Øº
2 4
Ø§Ø ²
8 6
8 7
Øµ Ù
ØµÙ Ħ
Ø¹ Ù
Ø¹Ù Ħ
Ø¨ÙĬ Ø¹
r e
2 6
Ø§Ø ¶
a l
Øª ØŃ
2 7
id ent
ident if
": {"
Ø·ØŃÙĨ Ø©
9 4
ĠØ§ÙĦ Ø·
Ø¨ Ø©
ÙĪ Ø¹
Ùģ ÙĬ
1 6
ÙĤ ÙĬ
ĠÙħØŃ Ø·
Ùĥ Ù
ÙĥÙ Ħ
ØŃ Ùħ
1 4
Ħ Ø
Ù ĦØ
Ġ Ø§ÙĨ
3 7
Ø³ Ùħ
Øª ÙĬ
1 5
ĠØ§ÙĦØª ÙĬ
a n
ÙĦØ §
ĠÙħ Ø
§ Ø®
Ø §Ø®
99 6
Ġ âĢ
ÙĨ ÙĬ
Ġ Ø´Ø±
ĠØª ØŃ
. .
1 7
Øª ÙĪ
Ø¯ÙĬ Ø¯
0 6
Ø§ÙĨ ÙĬ
ÙĨ Ø¯
Ø¬ Ùħ
0 5
Ùħ Ø±
ĠØ§ÙĦØŃ Ø¬Ø±
t h
§ Ø·
Ø §Ø·
0 4
ÙĬ Ø³
ĠÙħ Ø·ØŃÙĨØ©
e d
ÙĪ Ø¬
ÙĬ Ø¹
Øµ Ø±
at ion
ĠÙĪ Øª
Ø± Ùĥ
Ø³ Ù
Ø³Ù Ħ
0 7
p e
ĠÙħØŃØ· Ùħ
ÙĬØ± Ø©
ĠØ¨ ÙĨ
ĠØ§ÙĦ Ùĩ
ØµÙĨ Ø¹
Ġ Ø°
at e
Ø¯ Ø±
Ù Ĵ
ÙĪ Ùģ
1 2
Ø¹Ø¯ Ø§Øª
4 7
Ùĥ Ø³
ÙĢ ÙĢ
ĠØª Ø¹
Ø® Ø±
ĠÙħØ §
Ø³ Ø¨
ĠØ§ÙĦ Ø«
ÙĬ Ùħ
in g
ĠØ§ÙĦ ÙĪ
8 8
Ùģ Ø©
n Øª
Ùĥ Ø±
Ø§ÙĦ Ùħ
Ø¨ Ù
Ø¨Ù Ħ
t l
ur n
ĠØ¹ ÙĦÙĬ
ĠØ¢ ÙĦØ©
ĠÙĦ Ùħ
ĠØ§ÙĦ Ø°
5 7
ic ation
ĠÙĪ Ùħ
ty pe
ĠÙĦÙĦ Ø¨ÙĬØ¹
u id
Ø² ÙĬ
Ø« Ø±
Ùħ Ø§ÙĦ
Ġ Ø§Ø³Øª
Ø® Ø¯Ùħ
":" <
identif ication
u uid
} ,"
ØŃ Ø©
tl sh
Ø¨ Ø¯
ĠÙĦ Ø
ĠÙĦØ §
2 3
ĠÙħ Øª
4 6
Ø ¤
ĠØ§ÙĦÙħ ÙĨ
Øª Ø¨
ÙĤ Ø¯
ÙĪ Ø³
Ġ |
Ġ Ø«
Ħ Ø§Øª
Ù ĦØ§Øª
ØŃ ÙĤ
Ø§Ø± ÙĬ
t o
ĠÙĪ Ø£
8 3
t e
Ħ Ø§ÙĦ
Ù ĦØ§ÙĦ
n Ø£
": [
5 6
ĠÙĥ Ù
ĠÙĥÙ Ħ
ĠÙĩ ÙĪ
Ġ. .
n Ùĥ
ĠØ£ Ùĥ
Ħ Ø¨
Ù ĦØ¨
§ Ø´
Ø§Ø¯ Ø©
Ø §Ø´
> ","
B F
c e
1 0
ĠÙħ Ø®
ĠØ£ ÙĬ
a g
Ø§Ø¹ Ø©
Ùĩ Ø±
ØŃ Ø¯
Ø§Ø «
Ø§ÙĬ Ø©
Ùĥ ÙĪÙĨ
Ø§ÙĦ ÙĬ
B D
- %
ÙĪØ± Ø©
h t
9 3
ĠÙĩ Ø°Ø§
Ħ Ø³
Ù ĦØ³
ĠØ· ØŃÙĨ
h e
Ùģ Ø±
Ø¹Ø¯ ÙĬÙĨ
Ø® Øµ
ĠØ§ÙĦ ÙĬ
1 3
l o
Ø°Ùĩ Ø¨
Øª Ùĩ
ĠØª ÙĤ
Ġ P
Ġ :
Ħ Ùģ
Ù ĦÙģ
ĠØ§ÙĦØ£ Ø³
Ø· Ø©
ĠÙħ ÙĪ
4 4
6 7
ĠØ§ÙĦÙħ ÙĪ
Ùģ Ø¶
1 8
p p
en g
99 5
ĠØ§ÙĦÙĦ Ùĩ
Ø· Ø±
ÙĤ Ù
ÙĤÙ Ħ
Ùĥ Ø§Øª
Ġ M
ÙĨ Ø©
ÙĪ Ø
ĠÙĪØ§ÙĦ Ùħ
Ùħ ÙĥÙĨ
1 9
Ùĥ ÙĬ
s ent
ĠØª ÙĨ
ĠÙĥ Ø§ÙĨ
c o
2 8
Ø§ÙĨ ÙĬØ©
ĠØ§ÙĦÙħ ØŃ
sent en
ĠÙħ Ø³
i g
ÙĪÙĤ Ø¹
Ùĥ Ùħ
Ø§ÙĦ ÙĬØ©
ÙĪ Ø§Øª
ĠÙħ Ø¬
Ø³Øª Ø®Ø¯Ùħ
Ø±ÙĬ ÙĤ
ĠÙħ ØµÙĨØ¹
0 3
4 5
Ø¯ Ø¯
Ġ S
ĠØ§ÙĦÙģ Ùĥ
Ġ A
ĠØ§ÙĦ Øº
ĠÙĪ Ùĩ
t p
ĠØ§ÙĦ Ø´Ø±
Ø¯ ÙĬÙĨ
Ġ Ø²
Ġ.. .\
ĠÙĩ Ø°Ùĩ
Ġ \"
ĠØ¨ ÙĬÙĨ
ĠØ§ÙĦÙħ Øª
ÙĪ Øª
20 22
Ġ C
ÙĪÙĦ Ø©
Ø¹ Ø§Ø±
ĠØ§ÙĦØ³ Ø¹Ø±
Ø§Ùģ Ø©
Ø§ÙĦ Ø©
E F
ĠØ§ÙĦ Ø°ÙĩØ¨
Ø¨ Ø§Ø±
ĠØ³ ÙĬ
q u
Ø¹ Ùħ
Ø Ł
ĠØ¹ ÙħÙĦ
ÙĪØ §
ĠÙĩ ÙĬ
ĠØ¨ Ø±
Ġ Ø¶
Ø§Ùħ Ø©
Ø£ ÙĨ
ĠÙħ Ø±
ÙĤ Ø±
7 6
ÙĪ Ø§ÙĨ
Ùĥ Øª
he ad
3 3
5 5
c k
Ùģ Ø³
ĠØ® Ø§Ùħ
ĠØŃ ÙĬ
0 8
ÙħÙĬ Ø¹
ÙĨ Ø³
g et
es t
2 9
i s
Ø¬ Ø©
ĠÙĪ ÙĬ
ĠØ§ÙĦÙĥ Ø±Ø©
Ø¨ ØŃ
ĠÙĬ ÙħÙĥÙĨ
ÙĨ ÙĬØ©
ĠØ£ Ø³
Ġ Ø§Ø³
ĠÙĦ Øª
Ġ p
i es
Ø´ Ø§Ø±
ĠØ¨ Ø¹Ø¯
/ /
ÙĪ Ùĥ
n g
ag e
ÙĪÙĨ ÙĬ
Ġ Â
Ø¦ ÙĬØ³
Ġ s
Ùħ ÙĪ
0 9
ĠØ§ÙĦØ° ÙĬ
ĠØ§ÙĦ Ø¢
ĠØ® ÙĦØ§ÙĦ
ĠÙħ Ø¹Ø¯Ø§Øª
Ø±Ø¨ ÙĬØ©
ĠØ§ÙĦÙħ Ø±
ar a
Ġ 5
ht tp
Øµ ÙĪÙĦ
Ø· Ù
Ø·Ù Ħ
ĠØ¥ ÙĨ
: //
Ø® Ø¯
Ø« ÙĬØ±
Ġ m
ØŃ ÙĬ
7 5
ÙħÙĨ Øª
Ø§ÙĪ Ù
Ø§ÙĪÙ Ħ
Ø¬ Ùĩ
i ty
4 3
6 6
h ar
Ùħ Ø¯
or d
ĠØ§ÙĦØ¹ ÙħÙĦ
ĠØ° ÙĦÙĥ
ÙħÙĬ Ù
ÙħÙĬÙ Ħ
Ø¥ ÙĨ
x t
ĠØ´Ø± ÙĥØ©
Ġ 3
ÙĬ Ùĥ
ÙģØ¶ Ù
ÙģØ¶Ù Ħ
ĠØ§ÙĦ Ø²
Ø¹ Ø¶
ÙĬ Ø¨
ĠØ§ÙĦ Ø§ÙĨ
ĠÙħ Ø³Øª
ÙĬ Øª
Ġ20 22
ĠØ³ ØŃÙĤ
t ar
Ø®Ø¯ Ø§Ùħ
ĠØ§ÙĦØ³ ÙĬ
l e
b lo
Ø± Ø¶
ĠØª Øµ
at a
p la
ÙĪ Ø¹Ø©
ate g
v ers
ateg or
http s
Øª Øµ
7 4
Ø§Ùħ Ù
Ø§ÙħÙ Ħ
Ùĩ Ø¯
Ø« Ù
Ø«Ù Ħ
Øª Ø¯
Ø² Ø©
re c
ĠÙħ ØµØ±
} }
0 1
n ÙĪ
ĠØª Ùħ
Ġ 4
A A
c ategor
ÙĪÙĨ Ø©
ing s
ĠÙħ ÙĤ
Ø± Ø¯
Ø§Ø °
m et
ĠØ³ Ø¹Ø±
re f
sh a
ÙĪ ÙĬØ©
i ed
Ħ Ø§Ùħ
Ù ĦØ§Ùħ
Ø± ÙĤ
ÙĪØ¯ ÙĬØ©
te xt
eng th
ur i
har m
Ø§ÙĨ Ø©
d ate
d ig
la ng
al ity
ĠØ§ÙĦØµ ÙĬÙĨ
ĠØ¨ Ø¯
ĠØ£ Ùħ
a c
Ø³ Ø©
l ength
Ø° ÙĦÙĥ
f ul
u age
blo ck
Øª Ù
ØªÙ Ħ
ĠÙĪ ÙĤ
Ø³ Ø§Ø±Ø§Øª
qu ality
vers ion
ĠØ£Ùĥ Ø«Ø±
Ø§Ø¦ ÙĬ
lang uage
tar get
ĠÙĬ Ø¹
rec ord
Ġ T
categor ies
pla in
ÙĪ Ø±ÙĬ
war n
ad ata
head ers
con version
ref ers
dig est
senten ce
harm ful
] }}
met adata
warn ings
identification s
" },"
identif ied
Ø¬ Ù
Ø¬Ù Ħ
Ø¹ Ø¨
Ġ Ø§Ø¨
Ø§Ø¦ ÙĬØ©
ĠØ§ÙĦÙĩ ÙĨØ¯
ĠÙģ Ùī
co m
ĠØª Ø±
99 4
ĠØ§ÙĦØ¹ Ø§ÙĦÙħ
ĠÙĪ Ø¨
ĠÙĪ Ø³
ĠØµ ÙĨ
":[ {"
w w
ĠØ§ÙĦØ£ Ùħ
Ø±ÙĪ Ø·
ØŃ Ø±
âĢ Ŀ
ĠØ§ÙĦÙħ Ø¹
ĠÙĪ Ù
ĠÙĪÙ Ħ
6 5
ĠÙĦÙĦ Ùħ
Ùĳ Ùİ
ĠØ§ÙĦÙħ Ø³
ĠØ§ÙĦØª Ø¹Ø¯ÙĬÙĨ
a s
7 7
Ø¨ Ø§Øª
ĠØ§ÙĦØ³ Ø¹
Ø±ÙĬ Ø§Ø¶
} ]}}
Ġ /
Ġ .\
Ø¬ Ø§Ø±
ĠØ§ÙĦÙĬ ÙĪÙħ
ĠÙĪ Ùĥ
ĠÙĪØ§ÙĦ Øª
Ø£ Ø³
o o
ĠÙħ Øµ
ÙĪ Ø¯Ø©
ĠÙĤ Ø¯
ĠØ¨ Ø´
i t
0 2
ĠØ¨ Ùħ
ĠØŃÙĬ Ø«
8 1
ĠØ¹ Ø§Ùħ
ĠØ¨ Ù
ĠØ¨Ù Ħ
ĠØ¹ Ø¯Ø¯
ÙĦÙĬ Ùħ
ÙĪ Ø²
8 9
Ġ 2
Ùģ Ø¹
Ø® Ù
Ø®Ù Ħ
Ø¨ Ø
ĠØª Ø³
Ġ Ø§ØŃ
6 4
o u
Ø¨Ø §
ÙĪÙħ Ø§Øª
ĠØ§ÙĦØª Ø¹
ĠØ§ÙĦ Ø§Ø³
Ø¸ ÙĬÙģ
ÙĪ Ùī
ĠØŃ Ø¬Ø±
§ Ø©
Ø §Ø©
- -
Ø§Ø¨ Ø©
ĠÙħ Ø´
Øª Ùī
Øµ Ø©
Ø² ÙĬØ¯
ĠÙħ Ùĥ
ÙĤ Ø·
Ø§Ùħ Ø¬
Øª ÙĩØ§
ĠØ§ÙĦÙħ Ø³Øª
Ø§ÙĦ Ø§Øª
ÙĨ ÙĤ
ĠØª Ø¯
ÙĪ Ø©
Ø±ÙĬ Ø¯
ÙĪÙĦ ÙĬ
Ġ th
Ø§ÙĨ Ø§Øª
Ħ ÙĬØ©
Ù ĦÙĬØ©
ĠØª Ø´
ĠØ§ÙĦ Ø§Ø³Øª
Øµ Ùģ
Øº ÙĬØ±
Ùĥ ÙĬØ©
i l
nÙĥ Ø³Ø§Ø±Ø©
a m
Ġ Ø§ÙĪ
6 3
Ġ Ø§Ø®
Ġ ÙĬÙĨ
ÙĬ Ø§Øª
ĠØ¨ ÙĬ
ĠÙĬ ÙĤ
Ø· Ø¨ÙĬ
ĠØ¨ Øª
Ġ Ø¯ÙĬ
Ø¯ÙĬ Ø¯Ø©
Ġ f
Ø§ÙĤ Ø©
00 00
Ø³ Ø§Ø¨
ĠÙħ Ø¯
" ]
":[ "
"] ,"
ĠØ¹ Ø¨Ø¯
ĠØª Ø£
A D
ĠØ£ Ø¨
a b
ĠÙĬ Øª
ĠÙĦ Ùĩ
ĠÙħØ® Ø±ÙĪØ·
Ø¬ Ø§Øª
ĠØ§ÙĦÙħ ÙĨØª
§ Ø¯ÙĬ
Ø §Ø¯ÙĬ
ĠØ® Ø·
Ġ c
ĠØº ÙĬØ±
ĠØ§ÙĦÙħ ÙĤ
ÙĪ Ø§Ø±
ÙĨ Ø§Ø¡
Ġ ,
Ø¹ ÙħÙĦ
ĠÙĥ ÙħØ§
Ø± Ø³
Ø§Øµ Ø©
ĠØ§ÙĦØŃ Ø¯ÙĬØ¯
ic e
8 2
ĠâĢ ľ
t er
Øº ÙĬØ±Ø©
ÙĪ Ø§Ø¹
nØ§ÙĦ Ùħ
Ø¬ Ø¨
ĠØ§ÙĦ Ø¨ÙĬ
ĠØ¬ ÙħÙĬØ¹
ĠØ§ÙĦØ¹ Ø±Ø¨ÙĬØ©
Ġ d
A F
ĠØ§ÙĦÙħ ØªØŃ
Ø´ Ø©
Ø¨ ÙĬØ©
ï »
ĠÙĦ ÙĬ
ĠØ§ÙĦÙģ ØŃÙħ
Ġ 6
ÙĤ Ø§Øª
Ø§ØŃ ÙĪÙĨØ©
ÙĦÙĬ Ù
ÙĦÙĬÙ Ħ
Ø¶ Ø¹
ÙĨØª Ø§Ø¬
ĠÙĤ Ø¨ÙĦ
3 9
Ø¸ Ø§Ùħ
Ùĩ Ù
ÙĩÙ Ħ
or t
ĠâĢ ĵ
Ġ B
3 8
ĠÙĥ Ø¨
ÙħÙĬ Ùħ
ĠØ¬ ÙĨ
Øª Ø²
ĠÙĪ Ø§ØŃ
Ø§Ø º
Øª Ùĥ
Ø¹Ø± Ùģ
Ġ. ..
Ø· Ø¨
5 4
Ø§Ø¦ Ù
Ø§Ø¦Ù Ħ
Ġ G
ĠÙĬ ØªÙħ
Ø¯ÙĬ Ø«
ĠÙĪ Ø¬
Ġ Ø§ÙĬ
ĠÙĪ ØŃ
ï ¿
ï¿ ½
) \
ĠÙħ Ù
ĠÙħÙ Ħ
n Ø§ØŃ
s t
ÙĤ Ùħ
Ø§Ø³ Ø©
ĠÙħ ÙĪÙĤØ¹
ĠÙĪ Ø¹
Øª Ùģ
ĠØ¹ Ùħ
Ġ20 21
A C
Ġ o
ĠØ§ÙĦÙħ Ø¬
ĠØª Ø¬
Ħ ÙĤØ©
Ù ĦÙĤØ©
Ġ Ø§Ø¹
ĠÙĬ ÙĪÙħ
ÙĥØ³ ÙĬØ±
ĠÙĥ Ø³Ø§Ø±Ø§Øª
ĠØ· ÙĨ
ĠØ§ÙĦÙħ ØŃÙħ
ĠÙĪØ§ÙĦ Ø£
Ø§Ø±ÙĬ Ø®
ĠØ§ÙĦÙħ Ø®
ÙĬØ± ÙĬ
Øª Ø§Ø¨
ÙĪ Ø·
ĠØ§ÙĦÙĤ Ø±
ĠØ¹ÙĦÙĬ Ùĩ
ĠÙħØŃ ÙħØ¯
Ø® ÙĪØ±
Ø¯Ùħ Ø©
Ø§ØŃ Ø©
ĠØ¨ Ùĩ
Ø² Ù
Ø²Ù Ħ
ÙĬ Ø²
ĠÙĬ ØŃ
Ġ H
ĠØ¹ Ù
ĠØ¹Ù Ħ
or e
Ø³ Ø±
Ø¯ÙĬÙĨ Ø©
Ġ F
c es
ĠØ§ÙĦØ³Ø¹ ÙĪØ¯ÙĬØ©
Ġ D
Ġ L
8 0
Ø± Ø¨ÙĬ
an d
ĠØª Ø±Ùĥ
ĠØ§ÙĦ Ø¨Ø±
ÙĢÙĢ ÙĢÙĢ
Ø ¡
Ø´ Ùģ
ÙĬ Ø¬
Ø± Ùģ
: \
Ġ Ø§Ø±
Ġ w
ĠØ¨ Ø¹Ø¶
Ø§Ø¦ Ø±
ĠØŃ ØªÙī
r ice
ĠØ£ ÙģØ¶ÙĦ
ĠØ£ Ùģ
Øª Ø¹
ĠÙĪ ÙĨ
Ġ Ø§Ùħ
ĠØ§ÙĦ Ùī
Ø±ÙĬ Ùħ
Ø¯ Ùī
ĠØ§ÙĦÙħØªØŃ Ø¯Ø©
ĠÙģ Ø±
ĠØ¹ÙĨ Ø¯
Ø§Øµ Ù
Ø§ØµÙ Ħ
A E
Ġ Ø§Øª
ĠØ³ Ø¨
5 3
o w
Ħ Ùĩ
Ù ĦÙĩ
ĠØ¨Ø´ ÙĥÙĦ
Ø§Ø¡ Ø©
Ġ I
ĠÙĪ ÙħÙĨ
4 1
Ø¹Ø± Ø¶
nØ§ØŃ ØµÙĦ
Ø§Ùħ Ø¹Ø©
ÙĬÙĨ Ø©
Ø´Ø± ÙĪØ¹
999 7
Ùģ Ø§Øª
ĠÙĦ Ùĥ
ĠØ¨ Ø£
ĠØ¯ Ø±
ĠÙĥ ÙĬÙģ
Ø¬Ùħ ÙĪØ¹Ø©
ĠØ§ÙĦ Ø§Øª
ĠØ¹ÙħÙĦ ÙĬØ©
9 1
ĠØ£ÙĬ Ø¶
ĠØ³ ÙĨ
ĠØ¹ Ø¨Ø±
ĠØŃ ÙĪÙĦ
c h
ĠØ¨ ØŃ
ØªØ± ÙĨØª
ĠØ¨Ø§ÙĦ Ùħ
Ø§ØŃ ÙĨ
ĠØ§ÙĦØ¹ Ù
ĠØ§ÙĦØ¹Ù Ħ
Ø®Ø± Ùī
ĠÙĤ Ø·
Ø§ÙĬ Ø±
n Ø¥
Ø±ÙĬ ÙĤØ©
Ø§ÙĬ Ø§Øª
Ġ Ø§Ùģ
ÙĪ ÙĬØ±
Øª Ø§Ø¬
Ġ E
n Ø¨
Ø® Ø·
Ø§Ø¹ ÙĬ
ĠÙħ Ø«ÙĦ
Ġ R
Ø§Ø¹ Ø¯
ĠÙĦ Ø£
ÙĪØ± Ø¯
ĠØ¨ ÙĬØ¹
ĠÙĪ ÙĦØ§
Ø³ Ø·
ĠÙĪ Ø¥
Û Į
Ø´ ÙĬ
c t
9 0
ĠØ¥ Ø°Ø§
ÙĨÙĤ ÙĦØ©
Ø¹ ÙħØ§ÙĦ
l i
Ø§Ø¹ ÙĬØ©
ĠØ§ÙĦ Ø¶
Ø Ľ
ÙĪ Ø¶
Ø· Ùģ
ĠØª Øª
ÙĤÙĬ ÙĤ
Ġ W
Ġ in
999 6
Ø¯ÙĬ Ùħ
ĠØ¬ Ø¯
Ùħ Ø§Ø±
ØµÙĨ ÙĬØ¹
ĠÙĪ Ùģ
ĠØ§ÙĦØµ Ø®ÙĪØ±
Ùħ ÙĬØ©
u s
Ġ b
ĠØ§ÙĦØª ÙĨ
Ġth e
Ġ1 0
Ø± Ø¬
3 2
Øº Ø©
ĠØ§ÙĦÙħ Øµ
Ø´Ø± ÙĥØ©
Ø¹ ÙĬ
Ø¬ Ø²
Â »
ÙĨ Ø§ÙħØ¬
Øª ÙĤ
ĠØ§ÙĦØª ØŃ
u n
ÙĪØ± ÙĬØ©
ĠÙħØ ¤
ĠØ· Ø§ØŃÙĪÙĨØ©
Ø§ÙĨ Ø¹
Ø·Ø¨ÙĬ ÙĤ
Ø¸ Ø±
ĠØ¹ Ø§ÙĦÙĬØ©
Ø§Ø³ ÙĬ
D B
ĠØ§Ø³Øª Ø®Ø¯Ø§Ùħ
Ø¦ Ø©
n ÙĨ
e l
ĠØ§ÙĦØ¥ ÙĨ
Ø§ÙĨ ÙĬØ§
Ø§Ø³ ÙĬØ©
999 5
7 8
Øµ Ø¯
ĠÙħ Ø§Ùĥ
ĠÙĪ Ø²
ĠÙĬ ÙĥÙĪÙĨ
Ø³ÙĦ Ø§Ùħ
Ø´Ø± Ø©
ĠÙħ Ø·
ÙĪ Øµ
Ù į
ÙĨ Ø§Ùĥ
ĠØ£ ØŃØ¯
ĠÙĨ ÙĤ
Ø±ÙĬÙĤ ÙĬØ§
ÙħÙĬ Ø²
Ħ ÙĤ
Ù ĦÙĤ
ÙĦÙĥ ØªØ±
Ġ Ø§Ùĥ
Ø® Ø¨Ø§Ø±
n Ø³
Ø¨ ÙĨ
ĠÙĪ Ø±
f a
âĢ ı
ĠØ¬ÙĨ ÙĪØ¨
sh ort
9 2
ĠÙĤ Ø±
F D
ï º
Ø§ÙĤ Ø¹
ĠØ¨ Ùĥ
4 8
ĠØ¨ ÙĪ
senten ces
ĠØ³ Øª
ĠØ§ÙĦØ¯ ÙĪÙĦ
ĠØ§ÙĦÙħ Øº
ĠÙħÙĨ Øª
ĠØ§ÙĦØ¹ Ø§Ùħ
B E
Øª Ø¨Ø±
Ø§Ø¹ Ø§Øª
6 8
Ġ 7
ĠØ§ÙĦÙħ Ø´
ÙĬØ ¦
ĠÙĤ Ø§ÙĦ
ØŃÙħ Ø¯
ĠÙĪÙĩ ÙĪ
ĠØ± Ø¦ÙĬØ³
ĠØ£ÙĨ Ùĩ
ĠØ§ÙĦØ¬ Ø²
ĠÙĦÙĦ Øª
4 2
n ÙĬ
Ùģ Ù
ÙģÙ Ħ
Ø§Ø¬ ØªÙħ
Ø§Ø¦ ÙħØ©
Ùħ Ø³
Ġ a
Ùħ Ø§ÙĨ
ĠÂ «
Ùħ Ø¹
ÙħÙĦ ÙĥØ©
ĠØ£ Ø¯
Ġ Ø²ÙĬ
n ÙħÙĨ
Ø§Ø± Ø³
ÙĪ Ø§ÙĦ
v e
Ġ20 20
Øº Ø·
ØŃ ÙĪÙĤ
ĠØª Ùģ
ĠØ¨ ÙĩØ§
/ %
ĠØ§ÙĦÙħ Ø¯
Ø§Ø¨ Ø¹
n ØŃ
4 9
ÙĬÙĨ ÙĬ
Ø¶ Ø±
ÙĦØ³ ÙĦØ©
Ø§Ø¬ Ùĩ
ØŁ \
ÙĦÙĥ ÙĨ
ĠØ« Ùħ
Ø¯Ùħ Ø§Øª
ÙĪ Ø§Ø¡
ĠØ§ÙĦØ£ ÙĪÙĦ
ĠØ§ÙĦØµ ÙĨ
ĠØ§ÙĦ Ø±ÙĬØ§Ø¶
Ù ł
Ø§ÙĬ Ø
Ø§ÙĬØ §
Ø¬ Ø§Ø±Ø©
ĠØ´Ø± ÙĥØ§Øª
ĠÙģ Ø¥ÙĨ
ĠØª Ø¹Ø¯ÙĬÙĨ
Ø§Ø¯ Ø±
ĠØ§ÙĦÙħ Ø²ÙĬØ¯
ĠØ± Ø³
ww w
ÙĪ ØŃ
Ø§Ø± Ø¬
Ø· ÙĤØ©
Ø¹ ÙĨ
ĠØ¨ Ø·
ĠØª Ø³ØªØ®Ø¯Ùħ
Ø±Ùĥ Ø²
Øº Ø±
Ø¶ Ø§ÙģØ©
Ø¯ÙĬ ÙĪ
ÙĬ Ø§Ø±
Ø¶ Ù
Ø¶Ù Ħ
E D
Ġ [
n Ùģ
Ø¨ Ùĩ
Ø¬ Ø¯
ĠÙĨ ÙĪØ¹
Ġ h
Ø§ÙĦ ØŃ
Ùħ Øª
Ġ1 00
ĠØ§ÙĦÙģ Ø±
ÙĥÙĦ ÙģØ©
Ø§ÙĨ ÙĪÙĨ
Ùĥ Ø
ÙĥØ §
Ø³ ÙĨ
r u
Ùĩ Ø±Ø¨
5 0
Ġ Ø¸
ĠØ³ ÙĦØ³ÙĦØ©
98 7
Ø¯ Ø«
Ġo f
ĠØ° Ø§Øª
Ø§ÙĨ Ø
Ø§ÙĨØ §
h at
ĠÙĥØ§ÙĨ Øª
ĠÙĦÙĦ Ø£
5 8
Ġ Ø§ÙĤ
ĠØ§ÙĦØ¨ Ù
ĠØ§ÙĦØ¨Ù Ħ
ĠØ§ÙĦØ¬ ÙĬØ±ÙĬ
ĠØª ÙĥØ³ÙĬØ±
ĠØ§ÙĦÙħ Ø¤
ĠØ§ÙĦÙħ ØµÙĨ
ĠØ¯ ÙĪÙĦ
n Ù
i a
ĠØ§ÙĦØ¢ ÙĨ
ĠÙĪ ÙĦÙĥÙĨ
i m
âĢ Ĥ
Ø® Ø§Ùħ
nÙ Ħ
Ø¨ØŃ Ø«
ĠØªØŃ ÙħÙĬÙĦ
ĠØ§ÙĦØ± ÙħÙĦ
ĠØ§ÙĦØª Ø¯
Ùĥ Ø§ÙĨ
n ÙĤ
ĠØ§ÙĦÙħ Ø³ØªØ®Ø¯Ùħ
ĠÙħ Ø¬ÙħÙĪØ¹Ø©
Ø§ÙĦ Ø¬Ø©
Ø³Ø¨ Ø¨
ĠØª ÙĪ
ĠØµÙĨ Ø¹
Ġ and
ĠØ§ÙĦØ´Ø± ÙĥØ©
ĠØ¢ ÙĦØ§Øª
Ø° ÙĬØ©
Ġ to
Ø§Ø¦ Ø¯
ĠÙĦ Ø£ÙĨ
Ø§Ø± ÙĬØ©
Ø² Ø±
ĠØ§ÙĦØ± Ø¦ÙĬØ³
ĠØ§ÙĦØ¨ ØŃ
Ħ Ø§Ø«
Ù ĦØ§Ø«
ÙĥØª ÙĪØ±
ĠØ§ÙĦÙħ Ø¹Ø¯Ø§Øª
ĠØ¬ Ùĩ
ĠÙħØŃØ· Ø©
Ø³ ÙĬÙĨ
Ø§Ùħ ÙĦØ©
ĠØ§ÙĦØ¥ ÙĦÙĥØªØ±
ĠØ§ÙĦØŃ Ø±
7 3
Ø¹ÙĦ ÙĪÙħØ§Øª
ÙĪÙĬ Øª
Ø§ÙĦ Ùĥ
Ġ N
ĠÙĨ Ø³
ĠØ§ÙĦØª ÙĤ
7 1
ĠØ£ ØŃ
4 0
ĠÙĦ Ø¥
Ø¨ Ø¹
ĠÙĨ ÙģØ³
n Ø¢
Ġ n
d e
Ø·Ø± ÙĤØ©
o l
ÙĬ Ùĩ
o m
Ø¬ ÙĬÙĦ
Ø¯ Ø§Ø±Ø©
ĠØ¬ Ø¯ÙĬØ¯
Ø¹ Ø¨Ø©
nØ§ÙĦ ØŃ
ĠØªÙĨ Ø¸ÙĬÙģ
7 0
99 3
ĠØ§ÙĦÙħ ÙħÙĦÙĥØ©
ĠØ§ÙĦ ÙĪÙĤ
e w
Ùħ Ùĩ
ÙĬØ§ Ø©
ĠØ§ÙĦÙĪ Ø·
Ø¸ Ø©
Ø¨ Ø§Ø¨
Ø±ÙĬ Ùģ
ĠØ§ÙĦ Ø§Ùħ
Ġ t
ĠØµ ØºÙĬØ±Ø©
r a
ĠÙģÙĬ ÙĩØ§
ĠØ£Ùģ Ø±ÙĬÙĤÙĬØ§
Ø± Ø£
ĠØ§ÙĦØ® Ø§ØµØ©
ĠÙĦÙĦ ØŃ
ÙĬ Ø§ÙĨØ©
ĠØ¥ ÙĦØ§
ĠØª ØµÙĨÙĬØ¹
Ø¹ ÙĦÙī
ÙĬ Ø·
Ġ O
ĠØ£ ÙĪÙĦ
ĠØ§ÙĦØ® Ø§Ùħ
ÙĪÙħ Ø©
. ","
ÙĬÙĨ Ø§Øª
7 2
ĠØ¥ ÙĨØªØ§Ø¬
7 9
Ø§ÙĦ Ø¨
ĠØ¥ ÙĦÙĬ
ĠØªØµ ÙħÙĬÙħ
ĠÙģ ÙĤØ·
Ġ g
ĠØ§ÙĦÙħ Ø·
ĠØ§ÙĦ ÙĪÙĦ
Ø¸ Ùħ
Ġ )
ĠÙĬ Ø¯
ĠØŃ Ø³Ø§Ø¨
Ġ 8
ĠÙĦ ÙĩØ§
999 4
ÙĪ ÙĬÙĦ
Ø¬ ÙĨ
ĠØ§ÙĦØ¯ Ø±
ĠØŃ ÙĤ
ÙĪ Ø§Ø¨
Ġ 25
ĠØµ ÙĪØ±
Ø² Ø§Ùħ
ĠÙĪ ÙģÙĬ
ĠØ§ÙĦ Ø§ØŃ
Ø§Ø¬ Ø±
ÙĪÙĦ ÙĪØ¬
Ø± Ø§ÙĤ
ĠØª ÙĥÙĪÙĨ
ĠØ§ÙĦÙĤ ÙĬ
Ùħ Ø¨Ø±
ĠÙĦ ÙĪ
Ġ #
ĠØ¢ Ø®Ø±
âĢ ¦
6 9
ĠÙĦ ÙĨ
ĠÙĪÙĩ ÙĬ
ĠP rice
ĠØ§ÙĦØŃ ÙĦÙĤØ©
Ø§Ø´ Ø©
Ø§ÙĦ Øª
Ø§ÙĦ Ø«
ÙĦÙĬ Ø§Øª
Ø¹ Ø§Øª
ĠØ§ÙĦØª Ø³
ĠØ¬ Ø¯ÙĬØ¯Ø©
Ø§Ø® Ù
Ø§Ø®Ù Ħ
ÙĨ ÙĬÙĨ
ĠØ¨ Ø¥
ĠÙĬ Ø¬Ø¨
Ùĥ ÙĪ
ĠÙĪØ§ÙĦ ØŃ
5 1
ĠÙĩ ÙĨØ§Ùĥ
Ø±ÙĬ Ø¨
ĠÙħØ³ ØŃÙĪÙĤ
Ø§Ø¯ ÙĬØ©
F C
Ġ| --
ĠÙħ Ø¨Ø§
ĠØ§ÙĦ Ø§ÙĤ
Ø§Ø³Øª Ø®Ø¯Ø§Ùħ
Ø¶ ÙĪØ¹
Ø± Ø§Øª
ÙĬ Ø´
Ø§Ø¦ ÙĤ
E B
ĠØ§ÙĦØ± ÙħØ§ÙĦ
in e
ĠØ§ÙĦØ¹ Ùħ
ĠØ· Ø±ÙĬÙĤ
ĠØ¨ Ø£ÙĨ
Ø§Ø³ Ùħ
Øº ÙĬ
ĠÙĦ ÙĥÙĨ
Ø¨ Øª
A B
ĠÙģÙĬ Ùĩ
5 9
ĠØ§ÙĦÙħØµÙĨ Ø¹Ø©
e b
ĠÙĪØ§ÙĦ ØªÙĬ
Ùĩ ÙĬ
Ġ e
n ÙģÙĬ
ĠØ§ÙĦØª ÙĪ
ØªÙĦ ÙģØ©
ĠØ§ÙĦØ¹ Ø¯ÙĬØ¯
ĠØ§ÙĦÙħ Ù
ĠØ§ÙĦÙħÙ Ħ
ĠØªØŃ Øª
Ø¹ Ø§Ø¯Ø©
ĠØ£ Øµ
Ø§ÙĨ Øª
Øµ Ùī
ĠØ£ Ø®Ø±Ùī
ĠØ§ÙĦØ£ ÙĪ
ÙĪ Ø¯ÙĬ
ĠØ§ÙĦÙħ Ùĩ
99 99
ĠØ§ÙĦØ¥ Ùħ
ĠØŃ Ù
ĠØŃÙ Ħ
Ø§Ø± Ø¯
ĠÙħØª ÙĨÙĤÙĦØ©
ĠØ£ÙĬØ¶ Ø
ĠØ£ÙĬØ¶Ø §
ĠØ§ÙĦÙħ ÙĪÙĤØ¹
ĠÙĬ Ø³
ĠØ§ÙĦØ³ Ù
ĠØ§ÙĦØ³Ù Ħ
Øµ Ø§ÙĦ
ÙĪÙģ ÙħØ¨Ø±
Ùĥ Ø«Ø±
ĠÙĨ ÙĤÙĦ
Ø¯ÙĬ Ù
Ø¯ÙĬÙ Ħ
ĠÙĬÙħÙĥÙĨ Ùĥ
ĠØ¨Ø± ÙĨØ§ÙħØ¬
ĠØ§ÙĦØµ Ùģ
ĠØ¨ ÙĨØ§
ĠØŃ Ø±
ĠØ§ÙĦÙĨ ØŃ
ĠØ£ Ø´
Ø§Øª Ùģ
Ø¯Ùħ Ø
Ø¯ÙħØ §
5 2
ÙĨ Ùī
ÙĪ Ø«
ĠØ§ÙĦØ£Ùħ Ø±ÙĬ
a y
6 0
ĠØ± ÙĤÙħ
6 1
Ġ 0
ĠØ§ÙĦÙħØŃÙħ ÙĪÙĦ
Ø¨ Ø³
Ø£ Ø©
Ø° ÙĬ
u m
ĠØ´ Ø®Øµ
Ġ Ø±ÙĬ
ĠÙħ ÙĦÙĬ
Ø§Ø° Ø
Ø§Ø°Ø §
ĠØª Ø®
Ø§Ùĩ Ø¯
Øµ ÙĪØ±
Ø¨Ø¯ Ø£
ÙĬØ± Ø§ÙĨ
ĠØ¹ÙĦÙĬ ÙĩØ§
ĠÙĦ Ø¯ÙĬ
Ø§Ø³ Ø¨
ÙĨ Ø§ÙĨ
n G
ĠØ¬ Ø±
ĠÙħ Ùģ
ĠØ¨ ÙĤ
ĠØ§ÙĦØ¨ØŃ Ø«
ĠØ£Ø³ Ø¹Ø§Ø±
ĠÙĪ ÙĤØ¯
ï¿½ \
i r
Ġ â
ĠÂ »
ĠÙħ ÙĬ
ĠØ§ÙĦØ« Ø§ÙĨÙĬ
ĠÙĪ Ø°ÙĦÙĥ
ĠØ§ÙĦØ£ ÙĨ
97 4
Ġ 30
ĠØ§ÙĦØ¥ Ø³ÙĦØ§Ùħ
Ø³ÙĬ ÙĤ
ĠÙĪØ§ÙĦ Ø¥
f oo
ĠØ³ Ø§Ø¹Ø©
ĠØ§ÙĦØ´Ø± ÙĥØ§Øª
Ø±ÙĪ Ø¶
Ø§Ø¨ Ù
Ø§Ø¨Ù Ħ
ĠÙħÙĨ ÙĩØ§
999 8
ÙĪØ¨ Ø©
ĠØ§ÙĦÙĨ Ùģ
d f
ĠØ® Ù
ĠØ®Ù Ħ
hat s
Ø§Ø¨ Ø³
Ø¨ ÙĬØ±
Ġ20 16
ÙĦÙħ Ø©
Ġ20 19
ÙĬØ¦ Ø©
ĠÙħ Ø´Ø±ÙĪØ¹
ĠM ore
Øª ÙĦÙģ
Ø¸ ÙĩØ±
ĠØ§ÙĦØ¹ Ø§ÙħØ©
ĠÙĥØ¨ ÙĬØ±Ø©
ĠØ¯ ÙĪÙĨ
999 0
Ġ y
ĠØ¨ Ø¬
ÙĤÙĬ ÙĤØ©
ĠØªØ£ Ø«ÙĬØ±
foo ter
Ø§Ø¦ Ùģ
ĠÙĨ Ø¸Ø§Ùħ
ĠÙĤ Ø³Ùħ
ĠÙĤ ÙĬ
r i
Ø· ÙĦØ¨
ĠØª Ø·Ø¨ÙĬÙĤ
Ø§Ø³ Ø§Øª
Øº ÙĬÙĦ
ĠÙĥØ¨ ÙĬØ±
Ø·Ùģ Ø§ÙĦ
ĠØ® Ø¯ÙħØ©
ĠÙĥ ØªØ§Ø¨
.. .\
ĠÙĪØ§ÙĦ Ø¹
ĠØ§ÙĦØ¥ÙĨ ØªØ±ÙĨØª
ĠØ§ÙĦØª Ùģ
ĠØ§ÙĦÙĥ Ø«ÙĬØ±
Ø§Øµ ÙĬÙĦ
ĠÙĦ Ø¬
Ġ v
Ø³ÙĦ Ø³ÙĦ
ĠÙħ Ø§ÙĬ
ÙĪ Ùĩ
m l
n Ø´
ÙĬÙĨ Ø
ÙĬÙĨØ §
Ø´ Ø§Ø¡
98 6
Ø³ Ø³
ĠØ§Ø¨ ÙĨ
Ø§Ø¯ ÙĨ
ĠØ§ÙĦØŃ ØµÙĪÙĦ
ØªÙĪ Ø¨Ø±
Ø³Ùħ Ø¨Ø±
Ġ1 2
Ø¬ ÙĦÙĬ
ÙĬØ ¡
Ø§Ø¶ ÙĬ
Ø¹ Ø§Ùħ
ĠÙħ Ø²
ĠØ£ Øº
ĠÙĥ Ùħ
ĠØ§ÙĦØ® Ø·
00 0
ĠÙĪØ§ØŃ Ø¯
Ø¨ Ø·
ĠØ§ÙĦØ£ Ø¯
ÙĪØ¬ Ø¯
Ø§Ø¯ Ø§Øª
a f
ĠÙĤØ· Ø¹
ĠØµÙĨ Ø§Ø¹Ø©
/ ","
998 7
ĠØ§ÙĦØ¬ Ø±
ĠÙħ Ùĩ
Ø· ÙĪÙĬØ±
Ùĥ Ø¯
Ø· ÙĪØ±
Ùģ ÙĤ
ĠØ§ÙĦØµ ØŃ
ĠØ¨ Ø³
ĠØ§ÙĦØ¹ Ø±Ø§ÙĤ
ĠØ£ÙĨ ÙĪØ§Ø¹
ĠÙħ ØªØ±
ĠØŃ Ùħ
ĠØ§ÙĦØ± Ø³
) .
ĠÙĬ Ø³Øª
ĠØ³ Ù
ĠØ³Ù Ħ
ĠØ¹ Ø¨
Ùİ Ùĳ
Ø® ÙĬ
ĠØ§ÙĦØ´ Ø®Øµ
ĠØŃ Ø¯
m a
Ġ U
Ø§Ø¦ Ùħ
ĠÙħÙĨ Ø°
Ø¹Ùħ ÙĦØ©
ĠØ§ÙĦØ´ ÙĬ
ĠØª Ùĩ
Ø¹ÙĦ Ø§Ùħ
C A
ĠØ§ÙĦÙħÙĪ Ø§Ø¯
ĠØŃ Ø³Ø¨
ĠÙĥ ÙĨØª
ht ml
ĠÙħØ¹ Ø§ÙĦØ¬Ø©
ĠØ® Øµ
Ø· ÙĨ
ĠØ§ÙĦ Ø§Ø¬ØªÙħ
Ġ V
Ø¶ Ø§Ø¡
Ø§Ø¨ Ø§Øª
Ø§Ø² Ù
Ø§Ø²Ù Ħ
Â ·
ĠØ§ÙĦÙĥ Ø³Ø§Ø±Ø©
ÙĪÙģ Ø±
Ø§ÙĦ ÙĬØ§
_ _
ĠÙĥÙĬÙģ ÙĬØ©
Ø±ÙĬ Ù
Ø¶ Ø©
Ø±ÙĬÙ Ħ
ĠØ§ÙĦØ¥ÙĦÙĥØªØ± ÙĪÙĨÙĬ
nØ§ÙĦ Ø£
ÙĥÙĨ ÙĪÙĦÙĪØ¬
Ø§Ùģ ÙĬØ©
ĠØª Ø³Øª
Ø§ÙĬ ÙĨ
ĠØ§ÙĦÙħØŃÙħ ÙĪÙĦØ©
Ø® Ø°
8 30
ĠØº Ø³
ĠØ§ÙĦØµ ØºÙĬØ±Ø©
Ø® ÙĪÙĦ
ØŃ ÙĦØ©
ĠØ§ÙĦ Ø§Ø¹
ÙĪÙĨ ÙĬØ©
ĠÙĨ ÙĪÙģÙħØ¨Ø±
ÙĤÙĬ ÙĦØ©
ĠØ± Ùħ
Ġ >
ĠÙħØ¬ ÙĦØ³
ĠÙħ Ø¨
ÙĪÙĨÙĬ ÙĪ
ÙģØ³ ÙĬØ±
ĠØ§ÙĦÙĪÙĦ Ø§ÙĬØ§Øª
ĠØ§ÙĦ Ø§Ø®
ĠØ§ÙĦÙħ Ø·Ø±ÙĤØ©
ÙĦØ³ Ø·
ĠØ£ ÙĤ
6 2
ĠØ¬ Ø§ÙħØ¹Ø©
Ùħ ÙĬÙĨ
Ø§Ùģ ÙĬ
Ø¬Ùħ Ø¹
Ø¹ ÙĬØ¯
Ø§Ø¹ Ø¯Ø©
n Ø§Øª
ØŃ ÙĪ
ĠØ£ ÙĩÙħ
99 1
ĠÙĪØ§ÙĦ Ø¯
ĠØ§ÙĦØª Ø±
Ø´Ø§Ø± ÙĥØ©
ĠØ§ÙĦÙĪÙĤ Øª
ĠÙĪØ§ØŃ Ø¯Ø©
Ø¹Ø± ÙģØ©
Øª ÙĬÙĨ
f f
Ù Į
m ent
ØªØ± Ø©
Ġ20 18
ĠÙĦ ØŃ
ĠØ§ÙĦØ§Ø³ ÙħÙĨØª
e c
Ùĥ Ø³Ø§Ø±Ø©
Ġ1 5
Øº Ù
Ø¬Ø§Ø± ÙĬØ©
ØºÙ Ħ
ĠØ§ÙĦØ¹ ÙĦÙħ
head er
Ø§ÙĤ Ù
Ø§ÙĤÙ Ħ
ĠÙĬ Ø¬
ÙĨØ¯ Ø
ÙĨØ¯Ø §
ĠØ¬ Ø²
ÙĬÙĨ ÙĬØ©
ĠØ§ÙĦØ£Ø³ Ø¹Ø§Ø±
Ø§Ø ¸
Ġ 24
ĠØ§ÙĦØ° ÙĬÙĨ
Ġ 9
ĠÙĬ Ø´
Ġ J
Ø§ÙĨÙĬ Øª
98 5
ac t
Ø§ÙĦ Ùģ
ĠØ§ÙĦØ¬ Ø¯ÙĬØ¯Ø©
n d
Ø¬ ÙĬ
ĠØ§ÙĦØ® Ø§Øµ
Ø· ÙĬ
ĠØ£Ø¨ ÙĪ
ĠØ§ÙĦÙħØ³ØªØ®Ø¯Ùħ Ø©
ĠØ§ÙĦÙĥ Ø³Ø§Ø±Ø§Øª
ĠØ£Ùĥ Ø¨Ø±
Ø±ÙĪ Ø³
ĠÙħØ®Ø±ÙĪØ· ÙĬØ©
ØªÙħ Ø¹
Ø§Ùģ ÙĤ
E E
Ø§ÙĨ Ø¯
ĠÙĨ Ùĩ
nÙħ Ø·ØŃÙĨØ©
Ø· Ø§ÙĤ
Ø¬Ø± Ø§Ø¡
ĠØ§ÙĦØ¥ ÙĨØ³
Ø³Øª Ø§ÙĨ
ĠØ§ÙĦ Ø§Ø¨
ĠØ§Ø³ Ùħ
ØªÙĬ Ø§Ø±
ĠÙĪ ØªØŃ
ĠØ§ÙĦØŃ Ùĥ
ĠÙĪØ§ÙĦ ÙĨ
ÙĪÙĨ Ø§Øª
ĠØ§ÙĦØª Ø´
ÙĪ Ø¨ÙĬ
ĠÙĪ Ø¯
ĠØ§ÙĦØ¹ Ø±Ø¨ÙĬ
ĠØª ÙĦÙĥ
ĠØ§ÙĦØ³ Ø§Ø¹Ø©
A pp
Ø§ÙĪ ÙĬ
Ø´Ø± Ø§Øª
Ø§Ø¨ Ø¹Ø©
Ø±Ø¨ Ø¹
ĠØ§ÙĦÙħ Ø¹ÙĦÙĪÙħØ§Øª
ĠÙħ Ø¯ÙĬÙĨØ©
20 21
n Ø¹
ĠØ§ÙĦØªØ¹ ÙĦÙĬÙħ
ĠØµ Ùģ
Ø¬ Ø§Ø¬
ĠØ§ÙĦÙĨ Ø¨Ø§Øª
ĠØ§ÙĦÙĨØŃ Ø§Ø³
B C
ØµØ± ÙĬØ©
E C
o t
ĠÙĪ Ø´
ĠØ· Ø±ÙĬÙĤØ©
ĠØª Ø¨
ĠÙĬ Ø±
ĠØ§ÙĦØ¬ Ùĩ
ĠÙĩ ÙĨØ§
Ø¬Ùĩ Ø²Ø©
Ø§ÙĪ ÙĨ
ĠØ§ÙĦØ£ Ø®
ÙĤ Ø
ÙĤØ §
ĠÙħÙĨ Ùĩ
nG et
Ġ on
ĠØ´Ø± Ø§Ø¡
ĠØ¨Ø§ÙĦ Ø¥
Ø¨ Ø§ØŃ
ĠÙĪÙĤ Øª
ĠØ¯ÙĬ Ø³ÙħØ¨Ø±
Ø§Ø³ Ø¨Ø©
Ø¬Ùĩ ÙĬØ²
Øª ÙĨ
ĠØ§ÙĦØ¬ ÙĨ
ĠÙģ ÙĥÙĬØ©
ru sh
Ø¸ ÙħØ©
Ø° ÙĥØ±
ĠØ§ÙĦØ¨ ØŃØ±
n C
ĠØ¹ ÙĦÙħ
ĠØ§ÙĦÙħ Ùĥ
ĠØ´ Ø¨
ÙĤ Ø¨
ÙĥØ³ Ø§Ø±Ø§Øª
nÙĥ ÙĬÙģ
ĠØ¯ Ø§Ø®ÙĦ
998 4
es s
99 0
D E
n Ø¬
Ø§Ùĩ Ø¯Ø©
Ø§Ùĩ Ø±Ø©
hats App
ĠØ® Ø¯ÙħØ§Øª
ĠÙħØ¬ Ø§ÙĦ
ÙĪØ¬ Ùĩ
ĠØª ÙĥÙĦÙģØ©
ĠØ§ÙĦØ£ÙĪ ÙĦÙī
998 6
ĠÙĤ Øµ
Ø§ÙĬ Ù
Ø§ÙĬÙ Ħ
ĠØ¨ ÙħØ§
ÙĬÙħ ÙĥÙĨ
ĠØ§Ùģ Ø¶ÙĦ
Ġ +
b a
u t
ØŃØ¯ Ø«
n R
ĠÙĦ ÙĬØ³
Øµ ØŃ
98 4
t in
ĠÙħ ÙħØ§
Ø¢ ÙĨ
ĠØªØ¹ ÙĦÙĬ
ĠØ¬Ø¯ Ø
ĠØ¬Ø¯Ø §
Ø³Øª Ø±
ĠÙĪØ£ ÙĨ
Ġ1 1
Ġ Y
ĠØ§ÙĦØ¬ Ùħ
ĠÙħ Ø¶
s e
ĠØ§ÙĦØ« Ø§ÙĦØ«
Ø± ÙĬØ±
Ø¯Ø± Ø¯
ĠØ¯ ÙĪØ±
Ø§ÙĨ Ø¨
ĠØ§ÙĦØ£ Ù
ĠØ§ÙĦØ£Ù Ħ
ĠÙĦ ÙĥÙĦ
Ùĥ Ø§ÙĦ
al l
ĠØª Ø§Ø±ÙĬØ®
n Ø§ÙĤ
ĠØ§ÙĦØŃ Ø¯ÙĬØ«
n Ø¯
ØªØ¯ Ùī
ÙĥÙĨÙĪÙĦÙĪØ¬ ÙĬØ§
Ø§ÙĦ Ø¯
ĠÙĩ Ù
ĠÙĩÙ Ħ
Ġ20 17
Ø®Øµ Øµ
ĠÙĦ Ø³
ĠØ§ÙĦØ¯ ÙĥØªÙĪØ±
ĠÙħ Ø±ÙĥØ²
Øº Ùħ
ĠØ§ÙĦÙħ ÙĬ
ØŃ Ø§Øª
Ø· ÙĪØ§ÙĨ
Ø§Ø¨ Ø·
998 5
Ġ Ø§Ø´
Ø¸ ÙĬÙħ
Ġ K
ĠØ§ÙĦ Ø§Ø±
ĠÙĤ Ø§Ø¦ÙħØ©
ĠØ¹ Ø±Ø¶
e e
n Ø´Ø±ÙĥØ©
ĠÙĪ Ø§Ø³
Ġ l
ØªØ¨ Ø§Ø±
in d
ĠØ£ Ø±
ØªÙħ Ø¨Ø±
\ ":
ĠØ³ ÙĨØ©
97 6
Ø§Ø¦ Ø¨
Ø§ÙĦ Ùī
ĠØ¯ÙĪÙĦ Ø§Ø±
) ØĮ
ĠØ§ÙĦØ£ ÙħØ±
ĠØ« ÙĦØ§Ø«
ĠØ§ÙĦÙħ Ùģ
ĠØ§ÙĦÙĨ Ø§Ø³
Ġ *
ĠØ³ Ùħ
Ùĥ Ø±Ø©
ĠØª Ù
ĠØªÙ Ħ
ĠÙħÙĨØª Ø¬Ø§Øª
Ø²ÙĬ Ø²
Ø¨ÙĦ Øº
ĠØ£Ùĥ ØªÙĪØ¨Ø±
Ø± ØŃ
ĠØ§ÙĦØ£ Ø±Ø¶
ĠØ§ÙĦÙĨ Ø³
ÙĬÙģ Ø©
ĠÙħÙĨ ØªØ¯Ùī
Ø¯Ø±Ø¯ Ø´Ø©
ĠØ§ÙĦ Ø¯Ùħ
ĠØ£ Ø«
ĠØ¹ÙĨ Ø¯ÙħØ§
ĠØ± ÙĪ
ĠÙģ Ùĩ
n Ùĩ
ØŃ Øµ
ĠØªØ±Ùĥ ÙĬØ¨
ĠØ§ÙĦÙĥ ÙĩØ±Ø¨
ĠØ§ÙĦØ¨ ÙĨØ§Ø¡
ÙĪÙĨ Ø
ÙĪÙĨØ §
99 2
Ġf or
Ø¶ ÙĬ
ĠØ§ÙĦØ¨ ÙĨ
ĠÙħ ØªÙĪ
ÙĤ ÙĬØ©
ĠØ£ ØŃÙħØ¯
ĠØº Ø±
ÙĬØ¯ Ø±
Ġ1 9
Ġ is
ÙĪ ØªØ±
ĠØ§ÙĦØŃ Ø¬Ø§Ø±Ø©
Ø·ÙĦ ÙĤ
E A
ĠØ§ÙĦØ¬ Ø¯ÙĬØ¯
ĠÙħØ¹ Ù
ĠÙħØ¹Ù Ħ
ÙħØ ¤
ĠØ§ÙĦØ§ÙĤ ØªØµ
ĠØ¨Ø¯ ÙĪÙĨ
ÙĪÙĤ Ùģ
Ùĥ Ø§Ùħ
Ø« ÙħØ§Ø±
ØªØ± Ùĥ
ĠÙĥ Ø±
ĠØ§ÙĦÙĤ Ø·
ĠØ® Ø§ØµØ©
ĠÙĪØ§ÙĦ Ø³
ĠØ£ Ø¬ÙĦ
ĠØ§ÙĦØª Øµ
nÙħ ØŃ
ĠÙģ Ù
ĠÙģÙ Ħ
ĠÙĪ Ø¶Ø¹
Ùĭ ØĮ
ĠÙĪ ØºÙĬØ±
ĠØ§ÙĦØ±Ø¦ÙĬØ³ ÙĬØ©
ĠÙĦÙĦ Ø¥
ĠØ§ÙĦØ£ÙħØ±ÙĬ ÙĥÙĬØ©
nØ¢ ÙĦØ©
Ø· ÙĬØ¹
v er
ÙĪÙĦÙĬ ÙĪ
ĠØ§ÙĦØ¹ ÙĤ
Ø¯ Ø§Ø¯
ĠØ§ÙĦØ´ÙĬ Ø®
Ø¨ÙĬ Ù
Ø¨ÙĬÙ Ħ
ĠÙħ ÙĦÙģ
ĠÙģ ÙĤØ¯
D A
Ġ Ø§Ø¬
Ø§ÙĤ Ø§Øª
ĠØŃ Ø§ÙĦØ©
ĠÙĨ Øª
Ø² ÙĬØ©
98 8
ĠØ§ÙĦØ´ Ø¹Ø±
ĠØ§ÙĦÙĥ ÙĪÙĬØª
\ \
ĠÙħØª ÙĨ
ÙĪØ±ÙĬ Ø
ÙĪØ±ÙĬØ §
ĠØ¨ Ø³Ø¨Ø¨
ĠÂ ·
n S
ĠØ¨ Ø§Ø±
tin y
ĠØ§ÙĦØ¬Ø² Ø§Ø¦Ø±
Ùĩ ÙĪØ±
ĠÙĪ Ø®
ĠØµ ØŃ
Ø§Ø¦ Ø¹
ĠØ¨ÙĨ Ø§Ø¡
Øª ÙĪÙĬ
Ø¸ Ø§Ø¦Ùģ
ÙĦÙħ Ø§Øª
999 1
Ø¶ Ùħ
nÙħ ØµÙĨØ¹
Ġ pro
ĠØ§ÙĦØŃ ÙĤ
ĠØ¯ Ø¨ÙĬ
ĠØ§ÙĦÙħ ÙĦÙĥ
ĠØ´ ÙĩØ±
D F
n Ø±
Ùĳ ÙĲ
Ġ k
e ad
Ġ1 4
Ø§Ùģ ØŃØ©
ĠØ§ÙĦÙħÙĨØª Ø¬Ø§Øª
ĠÙħ Ø§Ø±Ø³
Ġ20 0
ĠØ§ÙĦØ£Ø³ ÙħÙĨØª
ĠØ§ÙĦÙħ ØµÙĨØ¹
ĠØ§ÙĦØ¯ ÙĬÙĨ
ÙĪ Ø§Ø¬
Ø§Øª Ùĩ
nØª Ø³
ĠÙĥ Ø§ÙħÙĦØ©
nÙħ Ø¹Ø¯Ø§Øª
ĠØ§ÙĦØ¹ ÙĨ
ĠØ§ÙĦØ· Ø§ÙĤØ©
n ØªØŃ
Ø·ÙĪØ§ÙĨ Ø©
ĠØ· Ø¨
ĠØªØ¹ ÙħÙĦ
ĠØ§ÙĦØ¥Ùħ Ø§Ø±Ø§Øª
Ø§ØŃ ÙĬØ©
Ø® Ø¨
ĠØ§ÙĦØŃ ÙĬ
ĠØ§ÙĦÙħ Ø¹Ø¯
ĠØŃ Ø¬Ùħ
ĠØ§ÙĦÙģ ÙĬ
Ø§Ø¦ Ø¯Ø©
Ø¹ Ø§Ø¨
ĠÙĦ Ùģ
ĠØ£ ÙĪØ±
ÙĪØ ¡
oo k
ĠØŃ Ø¯ÙĬØ«
Ø§ÙĦ ÙħÙĬ
Ø¯ ÙĬØ©
tp h
ĠÙĨ ÙĬ
Ø§Ø¨ ÙĤ
ÙĤ Ø¨ÙĦ
ĠØªÙĤ Ø¯Ùħ
ĠØµ ØºÙĬØ±
ØªØ± Ø§Øª
ĠØ§ÙĦÙħ ØªÙĪ
Ø¨ÙĬ ÙĪØªØ±
n Ø·
Ø² Ùħ
b d
Ø¹ ÙĬØ©
ØªÙģ Ø§Ø¹
Ø±Ø¯ Ø´Ø©
nØ§Øª ØµÙĦ
ĠÙĦ ÙĥÙħ
ĠØ§ÙĦØ¹ÙħÙĦ Ø§Ø¡
] \
b c
Ġ 21
Ø³Ø· Ø³
ĠØ§ÙĦÙħØ¹ Ø§Ø¯ÙĨ
ĠØ§ÙĦØª Ø¬Ø§Ø±ÙĬØ©
Ø¹Ø¯ Ø§Ø¯
ĠÙħØ· Ø§ØŃÙĨ
98 9
Ġp rice
C B
ØŃ Ø§Ø¯
a e
Ø§Ø¬ Ø©
Ø³ Ø§Ùħ
ÙĪ ØªÙĬ
ÙĪØ± ÙĥØ³
998 8
ÙĪ Ø§ÙĤ
ÙĤ Ø§Ø¡
ĠÙĥ ØªØ¨
ÙĪÙħ ÙĬ
ĠØ£ Ø¨ÙĬ
Ø® Ø©
ĠÙĤ Ø·Ø±
Ø´Ø§Ø± Ùĥ
ĠØ³ Ø±
ÙĨÙĬ Ùĩ
Ø¶ Ø
Ø¶Ø §
Ø¦ ÙĬ
ĠØ¬ ÙĬ
ĠÙĪØ§ÙĦ Ùģ
ĠØ§ÙĦÙĦ ØºØ©
ĠØ§ÙĦÙħØª ÙĨÙĤÙĦØ©
ÙĪØ± Ø¯ÙĬÙĨ
ĠØ³ ÙĬØ±
ĠØ§ÙĦØ® Ø§Ø±Ø¬
Ø±Ø³ Ø§ÙĨØ©
p l
ĠÙħØŃ Ùħ
ĠØ£ Ù
ÙĪÙĨ Ø¯
! \
ĠØ³Ø¨ ØªÙħØ¨Ø±
ĠØ£Ù Ħ
Ùĥ Ø±ÙĬ
ØªÙħ Ø¯
ĠØ§ÙĦØª Ø¬
a k
ĠØ£ÙĨ ÙĩØ§
ØªÙĪ Ùī
Ø§ÙĦ Ø£
ĠØ§ÙĦØ³ÙĬ Ø§Ø±Ø§Øª
Ø® Ø§Øµ
ĠØ§ÙĦØª Ø£
ĠØ§ÙĦØ£ ØŃ
ĠØ³ÙĨ ÙĪØ§Øª
ØºÙĬ ÙĬØ±
ĠØ§ÙĨ Øª
ÙĬ ÙĤ
ĠÙĪ ÙħØ§
o ur
ĠÙĬ ÙĪÙĨÙĬÙĪ
ĠÙĬÙĨ Ø§ÙĬØ±
ĠÙĨ Ø·Ø§ÙĤ
Ø§Ùĩ Ùħ
ĠØµ ÙĬØ§ÙĨØ©
ĠØ§ÙĦØ¹Ø§ÙĦÙħ ÙĬØ©
ĠÙĪ ÙĦÙĬ
Ø§Ùģ Ø¸
ĠØ§ÙĦÙħÙĨØª Ø¬
ĠØ§ÙĦÙĥ Ø±
ĠØ¹ Ø±ÙĪØ¶
Ø¹ ÙĦÙħ
nØ§ÙĦ Øª
ĠØ§ÙĦÙĥ Ù
ĠØ§ÙĦÙĥÙ Ħ
Ùģ Ø§ÙĤ
> "},"
ĠØ¹ ÙħØ±
i te
ĠÙħ Ø«
999 3
ĠØ§ÙĦØ§ÙĨ ØªØ±ÙĨØª
8 34
ĠØ· ÙĦØ¨
ĠØ³ ÙĪÙģ
ĠØ¹ Ø§ÙĦÙħ
Ø¯ÙĬ Ø§Øª
ÙĩØ¯ Ùģ
Ġ1 8
ĠØ§ÙĦØ³ ÙĪÙĤ
u b
ĠÙĦ Ø¹Ø¨Ø©
ĠØ§ÙĦÙħ Ø¨
Ø¨Ø± Ø§ÙĬØ±
ĠÙĦ ØªØŃ
Øµ ÙĬ
ĠÙħÙĨ Ø·ÙĤØ©
ÙħÙĪ Ø°
ĠØ§ÙĦØŃ ÙĬØ§Ø©
il l
ĠØ§ÙĦØ£ ÙĪØ±
Ġ 22
i p
F E
Ø² ÙĬÙĦ
ĠØ§ÙĦØ³ ÙĪØ¯
ØŃÙĬ ØŃ
Ġ5 0
97 5
Ø¨ ÙĪ
ĠÙĪØ¬ ÙĪØ¯
Ø· Ø§Ø±
n ÙħØ§
o p
Ø§Ø¨ ÙĬ
.. .
ĠØ¹ Ø¯Ùħ
nÙĪ Ø£
ĠØ§ÙĦØ« ÙĤ
1 00
ÙĬÙĥ ÙĬØ©
Ġ Ø§Ø¯
Ġ co
ÙĬØ± Ø
ÙĬØ±Ø §
ĠØ¬Ùĩ Ø§Ø²
ĠØ´ ÙĬØ¡
ĠÙħ Ùħ
ÙĤ Ø§ÙĦ
ĠØŃ Ùģ
ĠØ§ÙĦØª Ø±Ùĥ
o s
Ø®Ø± Ø§Ø¬
Ø² Ø¨
ÙĤ ÙĤ
ĠØ§ÙĦØ£ Ø®Ø±Ùī
Ø¹ Øª
ou t
Øª Ø´
ĠÙħØ§ÙĬ ÙĪ
ĠÙĨ ØŃÙĨ
ĠâĢ ¦
b f
ĠØ§ÙĦØ³ ÙĨ
Ùĩ ÙħØ§
n M
ĠÙħ Øº
ĠÙģ ØªØŃ
Ø§Ø¯ Ù
Ø§Ø¯Ù Ħ
i k
on t
ĠØ§ÙĦÙħÙĬ Ø§Ùĩ
Ø§Ùħ ÙĬ
Ø®Ø¯Ùħ Ø§Øª
ac h
a a
ĠØ§ÙĦØ· Ø¨
Ø§Ø² Ø§Øª
ĠØ§ÙĦØ¥ÙĨØ³ Ø§ÙĨ
ĠØ§ØŃ ØµÙĦ
ĠÙħØ§Ùĥ ÙĬÙĨØ©
Ø¨Ø§Ø± Ø§Ø©
ĠØ§ÙĦØ£ Ø´
ĠØ§ÙĦÙħ Ø§ÙĦÙĬØ©
nØ§ÙĦØŃ ØµÙĪÙĦ
Ø² ÙĨ
ÙħÙĪØ° Ø¬
ÙĤ Ø¯Ùħ
ĠØ³ ÙĪÙĤ
ĠÙħ Ø§Ø±
ĠÙĪÙĦ Ø§ÙĬØ©
Ùĥ ÙĪØ±
C E
Ùģ ÙĬØ±
Ġ us
ĠÙħØ¹ÙĦ ÙĪÙħØ§Øª
, \"
Ø§Ø¬ Ø§Øª
Ø·ÙĦ Ø§ÙĤ
Ġ1 6
Ø§Ùĥ Ù
Ø§ÙĥÙ Ħ
Ø¬ ÙĬØ±
ĠØª Ùĥ
ĠÙħØµ Ø§ÙĨØ¹
ÙĤ ÙĪÙĦ
ĠØ¶ Ø¯
Ø¶ ÙħÙĨ
ĠØ§ÙĦÙĨ Ùĩ
Ú ©
ĠØ§ÙĦÙĨÙģ Ø·
ÙĪØ¨ ÙĬØ©
ĠÙħÙĥ Ø§ÙĨ
ĠØ¥ Ø¯Ø§Ø±Ø©
ĠØ§ÙĦØ± Ø³Ùħ
Ø· ØŃ
ĠÙĬ Ø¤
Ø§Ùģ Ø±
Ø§Ø± Ùĩ
o st
ĠÙħ Ø§ÙĦÙĬ
997 7
ÙĪ Ø§Ø¯
Ø§Ùħ Ø
Ø§ÙħØ §
ĠÙĪ Øµ
Ġ r
D D
B A
ĠØ§ÙĦØ· Ø¨ÙĬØ¹
e f
ĠÙĥ Øª
ĠØ§ÙĦ Ø·ØŃÙĨ
ĠÙĬ ÙĪÙĦÙĬÙĪ
Ø§Ø¦ Ø¬
ĠØªÙĤ Ø¯ÙĬÙħ
97 7
99 57
an g
c c
ĠÙĪØ² Ø§Ø±Ø©
ĠâĢ ı
Ġ $
Øª Ø§ØŃ
ĠÙĥ Ø§ÙģØ©
ĠØ£ ÙĦÙħ
ĠÙĪ Ø§Øª
ew s
ĠØ§ÙĦÙħØŃ Ø¬Ø±
ĠØ§ÙĦØ£ Ø¹ÙħØ§ÙĦ
Ø§ÙĬ Øª
d d
Ùģ Ø§Ø¡Ø©
ĠÙħ Ø¹Ø¯
ĠÙĪÙħ Ø¹
Ø´Ø± ÙĥØ§Øª
ĠÙħ Ø±Ø©
ĠÙģ ÙĨ
31 6
ÙĪ Ø§Ø¦Ø¯
ĠØ§ÙĦØ¬ ÙĪØ¯Ø©
Ø§Øµ ÙģØ§Øª
Ø· ÙĤ
Ø¤ ÙĬØ©
Ø§Ø¦ ØŃ
ĠØ¨ Ø§Ø³ØªØ®Ø¯Ø§Ùħ
99 56
Ø³ Ø³Ø©
Ùģ Ø´
Ø¹ ÙĬÙĨ
Ø¨ÙĬ Ø
Ø¨ÙĬØ §
Ø§Ùĥ ÙĨ
Ø³Ø¨ ÙĪØ¹
Ø§Ø³ Ø·Ø©
998 9
ct ion
ÙĦÙĬ Ùģ
ĠØ¹ÙĦÙĬ Ùĥ
Ø¨ÙĬ Ø¨
ĠØ§ÙĦØ³ ÙĨØ©
Ø· Ø§Øª
ÙĪØ¹ Ø§Øª
ĠØ´ ÙĨ
nØ§ÙĦ Ø±
n A
ĠØ§ÙĦØ¯ ÙĪÙĦÙĬ
Ø¯ Ø
Ø¯Ø §
ĠÙĥ ÙĪØ±
Ùģ Ø§Ø¹
ĠÙĥ Ø«ÙĬØ±
Ø±ÙĬ Ø·
ĠI n
ĠØ¹Ø¨Ø¯ Ø§ÙĦ
ĠÙĦ Ø°ÙĦÙĥ
ĠØ§ÙĦÙħ Ø§ÙĦ
ĠØ³ÙĬ Ø§Ø±Ø§Øª
ĠØ¬ ÙĪØ¯Ø©
30 6
ĠØ§ÙĦØ± ØŃ
ÙĪ ÙĬÙĨ
Ø´ Ø¨
ÙĨØ³ ÙĬØ©
ĠÙģ Ø¨Ø±Ø§ÙĬØ±
ĠÙĪ Ø§Ø³Øª
ĠØ§ÙĦØªÙĪ Ø§ØµÙĦ
ĠÙĪÙĩ Ø°Ø§
ĠØ£ ÙħØ±
ĠÙħØ¨Ø§ Ø´Ø±
ĠØ¹ÙĨ Ùĩ
Ø´Ø± Ø§Ø¡
ĠØ§ÙĦØ¯ ÙĪÙĦØ©
Ø¬Ø² Ø§Ø¡
Ø³ÙĬ Ø·
ĠØ§ÙĦØ® Ø±Ø³Ø§ÙĨØ©
Ġ1 3
Ġ Ø±ÙĬÙħ
ĠÙĦÙ Ģ
Ħ Øª
Ù ĦØª
d a
ĠØ§ÙĦÙģ ØµÙĦ
ĠØ¨ ÙĢ
ĠÙĪ Ø¬Ùĩ
ĠÙħØ® ØªÙĦÙģØ©
ĠØ§ÙĦØ® Ø¯ÙħØ§Øª
ĠØ§ÙĦØ« Ø§ÙĨÙĬØ©
ĠØ§ÙĦÙħØµ Ø±ÙĬ
ĠÙĨ Ø¬
ĠØ£Øº Ø³Ø·Ø³
u p
ĠØ¶ ÙħÙĨ
ĠØ§ÙĦÙħÙĪ Ø¶ÙĪØ¹
Øº Ø°ÙĬØ©
Ġ Ø§Ø·
ØŃ Ø¨
ÙĪÙĨ Ø³
ĠÙħØ³Øª ÙĪÙī
ĠØ´ ÙĬ
ĠÙĪ Ø§ÙĨ
Ġ be
Ø¤ ÙĪÙĦ
âĢ İ
Ġ 26
Ġ Ø§Ø«
ĠØ§ÙĦ ÙĦÙĬ
ĠØ§ÙĦÙĤ Ø§ÙĨÙĪÙĨ
Ø® Ùģ
Ùĥ Ø§Ø±
ĠÙģ Ø¹
Ø®Ø± Ø¬
e m
Ø¨ ÙĪÙĦ
Ġ20 15
ÙħÙĬ Ø²Ø©
ĠÙħÙĦÙĬ ÙĪÙĨ
Ø±ÙĬ Ø¹
Ø·Ø¨ÙĬ ÙĤØ§Øª
ĠØ§ÙĦØª ÙĥØ³ÙĬØ±
Ø¨Ø± Ø©
96 6
Ø±ÙĪ Ùģ
ĠÙĪØ§ÙĦ ÙĤ
ÙĨØ§ Ø©
ĠØ¨Ø§ÙĦ Ø£
ĠØªÙĤ ÙĪÙħ
a p
Ġ Ø±ÙĬØ§Ø¶
n T
ĠØ§ÙĦØª Ø§Ø±ÙĬØ®
ĠØ° ÙĥØ±
ĠØ§ÙĦØ§Øª ØµØ§ÙĦ
n Øµ
ĠÙħØ¨Ø§ Ø´Ø±Ø©
Ø¨ÙĬØ¹ Ø§Øª
ĠØ§ÙĦ Ø²ÙĬ
ÙĨØ³ Ø¨Ø©
ĠØ§ÙĦØ« ÙĤÙĬÙĦØ©
ÙĪØ¨ Ø
ÙĪØ¨Ø §
ĠØ§ÙĦØ¹ Ø±Ø¨
ĠÙĬ Ø
ĠÙĬØ §
ĠØ§ÙĦØ´ Ø§Ø´Ø©
ĠØ£Ùħ Ø§Ùħ
ĠÙħÙĪ Ø§ÙĤØ¹
Ø§Ùģ Ø¸Ø©
99 37
ĠÙĨ Øµ
ØªØ± Ø§Ùĥ
ĠÙĨ Ø´Ø±
96 7
ÙĤ Ùĩ
is t
Ø¹ÙĦ ÙĨ
Ø¹Ø¯ Ø¯
n ÙĪÙĤ
ĠØ¨Ø§ÙĦ Ùĥ
ĠØ¨ Ø§Ùĥ
Ø§Ø¹ Ø¨
ĠØªØ±Ùĥ ÙĬØ§
Ø¯ÙĬÙĨ Ø
Ø¯ÙĬÙĨØ §
Ø² ÙĬÙĨ
Ø§Øµ Ø±
ĠØ§ÙĦØµ ÙĪØ±
ĠØ§ÙĦØµÙĨ Ø§Ø¹ÙĬØ©
ĠÙĬØ¹ ÙħÙĦ
ĠÙģÙĬ ÙħØ§
ĠØ§ÙĦÙħ ÙĪØ±Ø¯
Ø¬ Ø§Ø¨
Ø¬ÙĦÙĬ Ø²ÙĬØ©
ĠØ§ÙĦØŃ Ù
ĠØ§ÙĦØŃÙ Ħ
ĠØ¹ Ø´Ø±
ĠØ® Ø§Øµ
ĠØ§ÙĦØ£Ø³ Ø·ÙĪØ§ÙĨØ©
ĠÙĦÙĦ ÙĨ
Ø¹ÙĦ ÙĤ
Ùĥ ÙĦØ©
ĠØ£Ø¨ Ø±ÙĬÙĦ
Ġ20 14
ÙģÙĬ Ø°
Ġ20 13
ĠØ§ÙĦÙħØ± Ø£Ø©
ĠØ§ÙĦØ® Øµ
ĠØ§ÙĦØŃ Ùħ
ĠØ¨Øª ÙĨ
ĠØ§ÙĦÙħ ÙĨØ§
ĠØ¨ Øµ
ĠØ§ÙĦØªØ¯ Ø§ÙĪÙĦ
ÙĪÙĬ Ùħ
Ø§Ø¯ Ø±Ø©
ĠØ§ÙĦÙħ Ø«
ĠÙħ Ø³ÙĦØ³ÙĦ
ĠÙĬÙĤ ÙĪÙħ
ÙģÙĬ Ø§Øª
ĠÙħØ³Øª Ø¹ÙħÙĦØ©
u d
ĠÙĪØª Ø¹
nØ§ÙĤ Ø±Ø£
84 7
ĠÙħØ§Ùĥ ÙĬÙĨØ§Øª
ĠÙĪ Ø¥ÙĨ
ĠÙĦ Ø§ÙĨ
ĠØ§ÙĦØ³ ÙĦØ§Ùħ
ĠØ¹ ÙĤ
Ø§Ø¦ Ø¹Ø©
ĠÙĪØ§ÙĦ Ø´
ĠÙħÙĥ Ø§ÙģØŃØ©
ÙĪ Ø§ØŃ
ĠØ¬ Ùħ
Ø· Ùħ
u be
ĠØ§ÙĦØ¹ÙħÙĦ Ø§Øª
ĠØ¨ÙĨ ÙĩØ§
ĠØ§ÙĦÙħÙĨ Ø²ÙĦ
ĠØ§ÙĦØ« ÙĦØ§Ø«
ĠØ§ÙĦÙĤ Ø¯
ar t
Ùģ Ø§ÙĦ
ØµÙĨ ÙĬÙģ
ĠÙħØŃ Ø¬Ø±
d u
Ø§Ùĩ Ø±
ĠÙĪØŃ Ø¯Ø©
ĠÙĪØ³ ÙĦÙħ
ÙĪÙĦ Ø
ÙĪÙĦØ §
ĠØ± Ø£
Ø¬ Ø§ÙĦ
Ġ1 7
Ø§Ùĩ ÙĬÙħ
ĠØªØ¯ Ø§ÙĪÙĦ
Ø² ÙĬØ§
ĠØ§Ø³ Ø¹Ø§Ø±
ĠØ§ÙĦØ´ Ø¹
Ø§Ø¨ Øª
ĠÙĥ ÙĬ
Ø° Ø±
Ġ &
ÙĢÙĢÙĢÙĢ ÙĢÙĢÙĢÙĢ
ĠØ¨ ÙĬØª
Ø¯ÙĬ Ø
Ø¯ÙĬØ §
Øª Ø±ÙĬ
ĠØŃ ÙĬÙĨ
ÙĩÙħ Ø©
ĠØ§ÙĦØ³ Ø±
b b
on e
ĠØ§ÙĦØ® ÙĬ
ĠØ§ÙĦÙĨ Ø¸Ø§Ùħ
Ġ {
ĠØ´ Ø§Ø±
Ø³ Ø§Øª
Ø§Ø¶ ÙĬØ¹
ĠØ§ÙĦÙĤØ± Ø¢ÙĨ
ĠØ§ÙĦÙĪØ· ÙĨÙĬ
95 6
94 7
ĠØ§ÙĨ Ø¯
ĠÙĦ Ø¯Ùī
ÙĪ Ø§Ø±Ø§Øª
ĠØµ ÙĦÙī
997 5
ĠØŃ Øµ
ĠØ§ÙĦØ¬Ø± Ø§ÙĨÙĬØª
Ġ Ø§Øµ
ĠØ§ÙĦØ« Ø§ÙĨ
ĠÙĤ Ø§Ùħ
Ø¨ ÙĪØ¨
ĠÙģ Ø±ÙĬÙĤ
ĠØ§ÙĦØ¯ Ø§Ø®
Ġ 27
ĠØ¯ ÙĦÙĬÙĦ
ĠâĢ ¬
e a
ĠÙĦÙĦ Ø³
ĠØ§ÙĦØ³ Ùħ
ĠØ£ ÙĦÙģ
11 4
ÙĪØ¬ Ø©
ĠÙĨ Ùģ
ĠØ§ÙĦÙĨ ÙĤ
ĠÙħÙĦ Ø§Ø¨Ø³
ĠØ§ÙĦØŃ Ø¯
ØŃ ÙĦÙĤØ©
ĠØ¥ Ù
ĠØ¥Ù Ħ
ÙĪÙĨ ÙĬØ³
ĠÙĬ Ùģ
ĠÙĥ Ø§ÙħÙĦ
Ġ: \
ĠØ¥ Ø°
ÙĦØ§ Ø©
Ø¯Ø± Ø³Ø©
997 6
ĠØ³ Ø¹
Ġ Ø§Ø¶
ĠØ¯ ÙĪÙĦØ©
ĠØ§ÙĦØ· Ù
ĠØ§ÙĦØ·Ù Ħ
o c
ĠØ¯ Ø¹
ĠÙĨ ØŃÙĪ
ĠØ§ÙĦÙģ ÙĪØ±ÙĥØ³
ÙĬØ± ÙĬØ§
ÙĪÙĬ Ø§Øª
ÙĨ Ø¨
ĠØ£ Ø®
ĠØ¨Ø§ÙĦØ¥ Ø¶Ø§ÙģØ©
ĠØ§ÙĦØ¬ Ø§ÙħØ¹Ø©
Ø¯ Ø§Øª
ĠÙħ ÙĦÙħ
Øº Ø±Ø¨
ĠÙĦ Ø¨ÙĨ
n Ø§ÙĨ
s s
Ùģ ÙĬØ©
Ġ re
ĠØ§ÙĦØ¨ Ø¯
ÙĦÙĬ Ø
ÙĦÙĬØ §
ÙĪÙĬ ÙĤ
Ø± Ø´
20 2
p h
ÙĥÙĬ ÙĬÙģ
ØªØ±Ø§Øª ÙĬØ¬
Ø® Ø±Ø©
o k
ĠØ§ÙĦ ÙĢ
ĠÙĨ Ø´
Ø§Ø¦ ÙĬÙĦ
ĠÙ Ģ
ĠÙĥ ÙĦÙħØ©
rush er
n P
ĠØº Ø³ÙĦ
ĠÙĪ Ø¢
ĠØ£ Ø¹ÙħØ§ÙĦ
Ø¬ Ø§ÙĨ
ĠØ¥ Ø¹Ø§Ø¯Ø©
ĠØ§ÙĦØ¯ÙĪÙĦ ÙĬØ©
97 9
i e
ĠØ´Ø¨ ÙĥØ©
Ø§Ø¬ Ùħ
97 8
ĠØ§ÙĦØ¬Ùĩ Ø§Ø²
ĠØ¯ ÙĪØ±Ø©
ĠÙĦ ÙħÙĨ
ÙĪØ§Ø± ØªØ²
Øµ ÙĬÙĨ
ĠÙĤ Ø¶
ĠØ§ÙĦÙħØ® ØªÙĦÙģØ©
ĠØ§ÙĦØ£ Ø·ÙģØ§ÙĦ
ĠØª ÙģØ³ÙĬØ±
Ø° Ø©
ĠØ§ÙĦØ¥ ÙĨØªØ§Ø¬
ĠØ§ÙĦÙĤ Ø§ÙĩØ±Ø©
ĠØ§ÙĦÙħ Ø´Ø±ÙĪØ¹
ĠÙĤØ¯ Ø±Ø©
ĠØ¨ ÙĥÙĦ
ĠØ§ÙĦØŃ ØµÙī
ĠØ§ÙĦÙĥ ØªØ§Ø¨
ĠØ§ÙĦÙĬ ÙħÙĨ
Ø³Ø¨ Ø§Ø¨
06 41
Ø³ ÙĬØ©
ÙĤÙĬ Ùħ
Ġd e
Ù ¡
Ø§Ø² ÙĬ
98 3
Ù ¢
ĠØ§ÙĦ Ø¸
p t
ĠÙĪ Ø·
Øª ÙĩÙħ
Ùĥ ÙĬÙĦ
be r
ĠØ§ÙĦÙħØ¬ ØªÙħØ¹
ĠØ´ ÙĥÙĦ
Øª ÙĪÙĨ
ĠÙĪ ÙĦÙħ
ĠÙĦÙĦ Ø´
ĠØ£ Ø¹
Ġ ØŁ
ĠÙĤ ÙĪØ©
ĠÙĬ ÙĪØ¬Ø¯
Ø¹Ø¶ Ø§Ø¡
ig ht
99 47
ĠÙĪ ØªÙĪ
ĠÙĩ Ø¯
974 0641
Ø¬ ÙħØ©
998 1
ĠØ§ÙĦØ¬ Ø³Ùħ
ĠÙĬ Ø®
n et
Ø¨ Ø§ÙĦ
ĠØ§ÙĦÙħÙĨ Ø·ÙĤØ©
Ø§ÙĬ Ùģ
ĠØ¨ ÙĪÙĦ
ĠØ§ÙĦÙħ Ø§Ø¡
Ùĩ Ø§Ø¨
= =
) .\
Ø« Ùħ
14 5
Ø§Ø¨ ÙĤØ©
ĠØªØ¹ Ø§ÙĦÙī
Ø¦ ÙĦØ©
âĢ Ń
ØªÙħ Ø§Ùħ
Ø¶ Ø§ÙĨ
ĠØ§Ø® ØªÙĬØ§Ø±
Ø§Ø± Ø¦
Ø¹ÙħÙĦ ÙĬØ©
Ùģ ÙĬÙĨ
96 5
ĠØ¨Ø§ÙĦ ÙĤ
Ø§Ùĩ Ø
Ø§ÙĩØ §
ĠØ£Ø« ÙĨØ§Ø¡
ĠØªÙĩ ØªØ²
ĠÙģÙĬ Ø¯ÙĬÙĪ
95 7
Ø§Ø¦ Ø±Ø©
Ø®Ø¯Ùħ Ø©
ÙĪØ³ Ø©
ĠÙĤ Ø¯Ùħ
Ùħ ØŃ
31 7
Ø± Ùī
20 0
nØªØ³ ÙĪÙĤ
Ø¶ Ø§Ùģ
Ø§ÙĦ Ø³ÙĬ
ĠØ§ÙĦÙħ Ø²
ĠØª ÙĪÙģ
o d
ĠÙħØ§ÙĦÙĬ Ø²ÙĬØ§
i ve
-- --
i z
i th
ÙĪØ¬ ÙĪØ¯
ĠÙĪØ§ÙĦ Ø±
ĠØ¨ Ø§Ø¨
Ø® ÙģØ¶
Ùģ ÙĪ
Ġ 23
Ø§ÙĦ Ø¬
Ø§ØŃ Ù
Ø§ØŃÙ Ħ
Øº Ø§ÙĦ
ÙħÙĬ Ø³
ĠØª Ø¬ÙĩÙĬØ²
ĠØ¨ÙĪ Ø§Ø³Ø·Ø©
Ùĳ Ùı
ĠÙħÙĪ Ø§Ø¯
ÙĪÙĦ Ùĩ
ĠØª ØªÙħ
Ø¤ Ø§ÙĦ
ĠØ§ÙĦÙĨ Ø§ÙĤÙĦ
ĠÙħØ® ØªÙĦÙģ
Ø¹ÙĦ Ø§ÙĨ
Ùł Ùł
c a
ĠÙĦ ÙĤ
ĠØ§ÙĦØµÙģ ØŃØ©
Ø« ÙĬ
ÙħÙĩ ÙĪØ±ÙĬØ©
ĠØ§ÙĦÙģ ÙĦØ³Ø·
36 7
ĠØ§ÙĦØ³Ø¹ ÙĪØ¯ÙĬ
ĠØ±ÙĬ Ø§ÙĦ
20 6
ĠÙĬ Øµ
ÙħÙĨØª Ø¬Ø§Øª
ĠØ§ÙĦØ¹ Ø¯
\" ØĮ
ĠØ§ÙĦØ¬ Ø¨Ø³
ĠÙģ Ø£
ĠÙĪØª ÙĨ
ĠØ´ Ø¹Ø±
ĠÙĦ Ø´
a ce
ÙĪÙħ ÙĬØ©
ĠØ§ÙĦØ£ ÙħÙĨ
ĠØµ Ù
ĠØµÙ Ħ
Ø§ÙĪ ÙĦØ©
ĠØŃ Ø§ÙĦ
ĠØºØ³ ÙĬÙĦ
ĠØ® Ø§Ø±Ø¬
ĠØ²ÙĬ Ø§Ø¯Ø©
Ø´Ø§Ø± ÙĬØ¹
ar e
h a
ĠÙĤ Ø§ÙĨÙĪÙĨ
ĠÙĪØ§ÙĦ Ø°ÙĬ
ĠØ¨Ø§ÙĦ Øª
ĠØ¬ ÙħØ¹
ĠØ²ÙĬ Øª
ØµÙĦ Ø§ØŃ
ĠØ¬ ÙĬØ¯
b ook
Ø±ÙĬ Ùĥ
ĠØ§ÙĦÙģÙĬ Ø¯ÙĬÙĪ
ĠØ§ÙĦØ§Ø¨ ØªØ¯
Ùĩ Ø§Øª
Ø§Ø· Ø±
ĠØ§ÙĦØ£ ÙĥØ«Ø±
ĠÙħØ´ Ø§ÙĩØ¯Ø©
ĠØ§ÙĦØµ Ø§ÙĨØ¹
ØªØ± ÙĥÙĬ
ĠÙħÙĤ Ø§Ø¨ÙĦ
ĠØ§ÙĦÙĪØ· ÙĨÙĬØ©
r an
Ġs t
ĠØ§ÙĦØ³ ÙĬØ¯
âĢ ¬
ĠØ¯Ø± Ø¬Ø©
ĠØ¥ Ùħ
ĠØ§ÙĦÙĤ Ø¯Ùħ
ĠØ§ÙĦÙħÙĨ ÙĪØ±Ø©
997 4
ĠØ§ÙĦØ¯ Ø®ÙĪÙĦ
ĠØ¨ ÙĪØ±
35 6
n ÙĥØ³Ø§Ø±Ø§Øª
id e
ÙĪÙĨÙĬØ³ ÙĬØ§
Øª ÙĨØ§
ĠØ¹ÙĦ Ø§Ø¬
ĠÙĪÙĥ Ø§ÙĨ
ÙĢÙĢ ÙĢ
ĠØ¢ Ù
ØªÙħ Ø±
Øº Ø¨
ĠØ§ÙĦØ§Ø¬ØªÙħ Ø§Ø¹ÙĬ
Ø±Ø³ Ø§ÙĦ
ÙĬØ± Ø§Øª
ĠØ¢Ù Ħ
ĠØ³ ÙĪØ§Ø¡
ÙĪÙĦ Ø§Øª
ĠØ§ÙĦÙħ ØµØ±ÙĬØ©
ĠØ§ÙĦÙħ Ø¯ÙĬÙĨØ©
l ine
ĠÙĦÙĦ Ø¹
ĠÙģ ÙĦØ§
ĠØ¹ Ø¯Ø©
Ø· Ø§ÙĨ
Ø¬Ø± Ø©
ÙĥØ± ÙĬØ©
ĠØªØ´ ØºÙĬÙĦ
Ø¹ Ùī
ĠÙĨ Ø¸
Ø¹Ø± ÙĪÙģ
ĠØ§ÙĦØ® Ù
ĠØ§ÙĦØ®Ù Ħ
ĠØ§ÙĦÙĥ Ø±ÙĬÙħ
ĠÙĦ Ø¯
ĠØ§ÙĦÙģ ÙĨ
nØ³ Ø¹Ø±
ĠÙĨ Ø¸Ø±
87 6
ĠØ§ÙĦØ£Ø³ ÙĩÙħ
nØ§ÙĦ Ùģ
ĠØ¬ Ø¹ÙĦ
ĠØ§ÙĦÙħØº Ø±Ø¨
ĠØ± Ø£Ø³
ĠÙĪØ§ÙĦ Ùĥ
Ø² ÙħØ©
ĠØŃ ÙĪ
ĠØª Ø·ÙĪÙĬØ±
Ġ5 00
Ø±ÙĬ Ø³
ĠÙĪØ§ÙĦ Ø¨
n ow
Ø£ Ù
Ø· Ø¹
Ø§Ø¹ Ùħ
ĠØ§ÙĦØ³ÙĬ ÙĦÙĬ
Ø« ÙĤ
ĠØ§ÙĦØ¨ÙĬ Ø§ÙĨØ§Øª
ØªÙĬ Ø¬Ø©
n ÙĩÙĦ
ĠÙ ¢
c f
ĠØª Ø¹Ø±Ùģ
* *
ÙĪØ³ ÙĬØ§
ĠÙĥ ÙĩØ±Ø¨
ĠØ£ Ø®Ø¨Ø§Ø±
ĠÙĪ Ø³ÙĬ
ĠØ£ Ø¹ÙĦÙī
Ø¯ Ùĩ
99 46
ĠØ§ÙĦÙħ Ø±Ùĥ
ĠÙĦ Ø¯ÙĬÙĨØ§
ĠÙĦÙĦ Ø¬
ÙĤÙĬ ÙĬÙħ
Ø§ÙĪ ÙĬØ©
21 6
21 2
Ø§Øª Ø¨
n t
Ġb y
ĠÙĥ Ø§Ø±
ĠØ§ÙĦØ¨ Ø±ÙĬØ¯
ĠØ£ÙĦÙħ Ø§ÙĨÙĬØ§
Ø§Ø¯ ÙĤ
ĠØ§ÙĦØ¹ Ø§ÙĦÙħÙĬ
W hatsApp
997 8
Ø§Ø±ÙĬ Ø§Øª
Ø¹ Ø§ÙĬØ©
35 7
Ø§Ø¬Ùĩ Ø©
Ø£Ù Ħ
Ùĩ ÙĪÙĦØ©
ĠÙĬÙĤ ÙĪÙĦ
Ø¬ Ø§Ùĩ
Ø§ÙĬ Ø¯
ĠØ§ÙĦØ± ÙĪ
ĠØ£ØŃØ¯ Ø«
ĠØ§ÙĦØº Ø°
ÙĦÙĬ Ùĩ
ĠØªÙĤ Ø±ÙĬØ±
ĠÙĪØ§ÙĦ Ø®
Ø´ ÙĨ
ĠÙĪØ¹ ÙĦÙī
ĠÙĪØ² ÙĬØ±
\" .\
ĠØŃÙĤ ÙĪÙĤ
Ø· Ø§ÙĦ
Ø¬Ø± Ø¨Ø©
ĠØ¨ ÙĬØ±
Ø®ÙĦ Øµ
r y
Ø§ÙĨ Ùĩ
ĠØªØŃ ÙĤÙĬÙĤ
ĠØ§ÙĪ ÙĨ
BF D
Ġ20 12
_ %
Ġ25 0
ĠØ¥ Ø¬Ø±Ø§Ø¡
ĠØ¹ Ø±Ø¨ÙĬ
9 34
ĠÙĪ ÙģØ±
ÙĬÙĨ ÙĬØ§
ma il
ĠØ§ÙĦØ´ Ø¹Ø¨
ĠÙĬ Ø£
ĠØ¬ ÙĪ
9 31
ĠÙĦÙĦ Øº
ĠØ¨Ø§ÙĦ Ø±ÙĬØ§Ø¶
ĠØ¬ ÙĨÙĬÙĩ
or g
ĠØ¯ Ùħ
Ø±ÙĬ Øª
1 04
ĠØ§ÙĦÙħ Ø±ÙĥØ²
ĠØ£ÙĬ Ø§Ùħ
Ġ j
ĠÙĦÙĦ Ùģ
ĠØ§ÙĦØ± ÙĤÙħ
ĠØ§ÙĦØ± Ùħ
Ø±ÙĪ ÙĬØ¯
ĠØªÙĪÙģ ÙĬØ±
Ø§Ø² Ùħ
ÙĥØª Ø¨Ø©
Ø§Øª ÙĩØ§
ĠÙħØ¬ Ø§ÙĨÙĬØ©
ĠØ®Øµ Ùħ
) ;
ĠØ¨Ø± Ø§ÙħØ¬
ĠØ± Ø¨
9 25
Ġ 28
n Ø§Ø³Øª
Ø±Ø¨ ÙĪÙĨØ§Øª
BF C
ĠØ§ÙĦØ¢ Ø®Ø±
ĠØ¯Ø± Ø§Ø³Ø©
Ø´Ø± ÙĬÙĨ
p r
96 4
ĠÙĦ ÙĨØ§
ĠØ§ÙĦØŃÙĥ ÙĪÙħØ©
ĠÙħÙĪ Ø¶ÙĪØ¹
ĠØ§ÙĦÙħØ· Ø§ØŃÙĨ
ĠØ§ÙĦØ´ Ùĩ
00 4
âĢ¦ \
e ar
ĠØ£ ÙĤÙĦ
Ø² ÙĦÙĬØ©
nR ead
95 4
ĠØ§ÙĦ Ø§Ø´
c d
30 7
ĠØ§ÙĦØº Ø±
Ġ Ø§Ùĩ
ĠØ· Ø±ÙĤ
a h
ÙĦÙħ ÙĬÙĨ
ð Ł
Ġâ Ŀ
ĠØ£Ùħ Ø±ÙĬ
Ħ Ø§Ø¡
Ù ĦØ§Ø¡
0 36
ĠØ¨ ÙħÙĨ
Øª Ø§Ø±
ĠY ou
ont act
D C
ĠØ§ÙĦÙħ Ø§Ø¶ÙĬ
ØŃ Ø§Ø¨
ØªØ± ÙĪÙĨÙĬ
ĠÙĥ ÙĪÙĨ
Ø§Ø¬ Ø¹
ĠÙģ ÙĪÙĤ
ĠØª Ø¤
ĠÙĦ Ø¨
ÙĨ Ø§Øª
ĠÙĦ ÙĩÙħ
o v
ĠÙħ ÙĬÙĦ
ÙĤ Øª
ĠÙĪØ§ÙĦ Øµ
ĠØ§ÙĦØ± Ø®Ø§Ùħ
996 7
Ø§ÙĦ Ø³
Ø§Ø¦ ÙĦØ©
ĠØ§ÙĦØª Ùī
20 3
ĠØ§ÙĦØ² Ø±
ĠÙ ¡
ĠØº Ø±Ø¨
ĠA l
n Ø§Ø®
9 36
ĠØ£ Ø¬
ĠØ§ÙĦØ¬ Ø§Ùħ
Ø³ ÙĪÙĨ
ĠØ³ ÙĪØ±Ø©
ĠØ§ÙĦØ³ Ø¨
ĠØ§ÙĦØ¨ Ø·
ĠØŃ Ùĥ
ĠÙĥÙĦ ÙĬØ©
94 5
ĠØ£Ø´ ÙĩØ±
ĠØ§ÙĦØ¯ ÙĪ
ÙĨ Ø¯ÙĬ
ĠØ§ÙĦÙĥ Ùħ
ĠØº ÙĬØ§Ø±
ĠØ§ÙĦ Ø§Øµ
ĠØ§Ø± ØªÙģØ§Ø¹
2 35
ĠØ§ÙĦØ¥ Ø¹ÙĦØ§Ùħ
ĠÙĤ Ø¯Ø±
ĠØªØŃ Ø¯ÙĬØ¯
ĠÙĨÙģØ³ Ùĩ
ĠÙħØ¬ Ø§ÙĨØ§
v i
nÙĥÙĬÙģ ÙĬØ©
Ø² Ø§ÙĦ
ĠØ§ÙĦØ± Ø·Ø¨
Ø§Ø¬ Ø¯
ĠØ§ÙĦÙĥ ÙĪØ§Ø±ØªØ²
ÙĪÙħ ÙĬØª
Ø´ ÙĤ
la t
98 1
ĠØ¬ Ø¯Ø©
ĠØ§ÙĦÙħ ÙĪØ±Ø¯ÙĬÙĨ
ĠØ±Ùħ Ø¶Ø§ÙĨ
ĠÙħ ÙĪØ³
ĠÙĪÙĥ Ø°ÙĦÙĥ
ĠØ£ Ø¬Ø²Ø§Ø¡
ĠØ§ÙĦÙħÙĨØª Ø¯Ùī
ĠØ¥ Ø¶Ø§ÙģØ©
Ġ Ø§Øº
ĠÙħØ¯ ÙĬØ±
0 26
n ÙĦØ§
ĠÙĨØ³ Ø¨Ø©
ÙĩØ¯ Ø§Ùģ
en d
ĠÙĥ Ø£Ø³
ĠÙĦ Øº
Ġ4 00
Ġ com
ĠØ§ÙĦÙĤ Ø§Ø±Ø¦
95 5
Ġ3 00
ĠÙħ Ø¨Ø§Ø±Ø§Ø©
f e
8 31
ĠØ§ÙĦØ¹ÙĦ ÙĪÙħ
ĠØµ ÙĪØ±Ø©
f or
Ø±ÙĪ Ø©
Ġ i
ÙħÙĬ Ø¯
ĠØ¨Ø§ÙĦ ÙĨØ³Ø¨Ø©
ĠØ§ÙĦØ£ Ø±
ĠØ§ÙĦÙħØ¹Ø¯ ÙĨÙĬØ©
Ø§ÙĦ Ùĩ
ĠØ§ÙĦØ¥ Ø³
Ø¹Ø± Ø§Ø¶
ĠØ¬Ø² Ø¡
Ø¬ Ø§Ø²
Ø§ØŃ Ø¨
Ġ tph
ĠÙĪØ³ Ø§Ø¦ÙĦ
Ø« Ø§Ø±
Ø³ ÙĬÙĦ
ĠÙĪØª ÙĤ
ĠÙĦÙĦØŃ ØµÙĪÙĦ
ÙĪ ÙĬØ¯
84 5
Ħ Ù
Øµ ÙĬÙĦ
l y
nØª Ø¹
Ùĥ Ùĩ
9 35
998 3
ØµÙĨ Ø§Ø¹Ø©
ĠØ§ÙĦ Ø§Ø«
ĠÙĨÙĩ Ø§ÙĬØ©
ĠØªØŃ ØªØ§Ø¬
Ø¬ ÙĦØ©
Ø§Ùħ Ø§Øª
94 6
ĠØ§ÙĨ ØªØ§Ø¬
ĠØªØ¹ Ø±ÙĬÙģ
Ø¶ ØŃ
ĠÙĦÙĦ Ùĩ
20 5
n F
Ø±ÙĪ Ø¬
Ø¯ÙĬ ÙħØ©
ÙĤ Ùī
Ù ĦÙ
ĠT he
ĠØ¹Ùħ ÙĦÙĬØ§Øª
ĠØ´Ø± ØŃ
ĠÙĨ ÙĬØ¬
ĠØ¹ÙĨ ÙĩØ§
__ __
ĠÙĬ Ùĥ
nÙħ ÙĤ
Ø§Ø¡ Ø§Øª
ÙĦÙ Ħ
ĠØ§ÙĦØ£ Ø±Ø¯
ĠØ§ÙĦØ¥Ø³ÙĦØ§Ùħ ÙĬØ©
ĠØ± ÙħÙĦ
ĠÙģ Øª
ĠØªØ³ Ø¬ÙĬÙĦ
ĠÙĦÙĦ Ø¯
ĠØ§ÙĦØ® ÙĦÙĬ
nØª Ø³ØªØ®Ø¯Ùħ
Ø¯ÙĬ ÙĤ
ĠØ¨ Ø®
ÙħØ± Ùĥ
ĠÙĦ ÙħØ§
86 7
b ab
ĠÙĬ Ù
ĠÙĬÙ Ħ
Ø®Ø· ÙĬØ·
996 5
nØ§ÙĦ Ø³
ĠØ§ÙĦØ¹ Ø³
ĠÙĥ Ø«
ÙĬ ÙĬÙĨ
Ø±ÙĬ Ø¹Ø©
Ø±ÙĬ ØŃ
ĠØ§ÙĦØ´Ø®Øµ ÙĬØ©
ĠØ¨Ø§ÙĦÙħ Ø¯ÙĬÙĨØ©
ÙĦÙĬ Ùĥ
ĠØ¨ØŃ Ø«
ĠÙĬÙĤ Ø¯Ùħ
Ø³Ø± Ø§Ø¦ÙĬÙĦ
Ġ Ø§Ø¬ØªÙħ
ĠØ§ÙĦØª Ø·Ø¨ÙĬÙĤ
ĠÙĬØ¹ ÙĨÙĬ
Ø§Ø¯ Ùĩ
ĠØ§ÙĦ Ø¯ÙĬ
ĠØ¹ Ø¯
ĠÙģ Ø§ÙĦ
n Ø³ÙĬ
ro m
ĠØ§ÙĦ ÙĪØ±
Ġ X
99 36
998 0
ĠÙĪ ÙĬÙħÙĥÙĨ
30 3
ÙĪØ¨ Ø§Øª
i al
98 0
Ã ©
ĠÙĪ ØŃØ¯
ĠØ§ÙĦØ¢ ÙĦØ§Øª
ĠØ¬ ÙħØ§ÙĦ
Ø¨ÙĬ Øª
ĠÙĦ Ø§Ø¨
Øµ Ø§Ø¨Ø©
Ø§Ø· ÙĤ
ĠØ§ÙĦØ£ Ùģ
ÙĪÙĬ ÙĦØ©
ĠÙĪØºÙĬØ± ÙĩØ§
ĠØ§ÙĦÙĤ Øµ
u g
ĠØ§ÙĦØ® Ø¯ÙħØ©
97 3
c b
27 5
ĠØ§ÙĦØ£ ÙĦÙħ
ĠØ¥ÙĦÙĬ Ùĩ
30 5
f r
ĠÙĪØ§ÙĦ ÙħÙĨ
ĠØ· Ø¨ÙĬØ¹
ĠÙĬ Ø³ØªØ®Ø¯Ùħ
Ùģ Øª
Ø³ Ø§ÙĨ
ĠÙĦØ¨ÙĨ Ø§ÙĨ
ĠØ« ÙĤ
ĠØ£Øµ Ø¨ØŃ
Ø¨ Ø§Ø¡
li sh
âĢ ¢
999 2
ØªÙĬ Ø¨
ĠØ§ÙĦÙĨ Øµ
ĠÙĨÙĤ Ø¯Ùħ
ĠØ¹ ÙģØ´
ØŃÙĬ Ø«
ĠØ§ÙĦØ¬ Ù
ĠØ§ÙĦØ¬Ù Ħ
ĠØ² Ø±
ĠØ¨ Ø¹
Ø³ Ø·Ø©
9 24
ĠØ§ÙĦÙĤ Ø¶
ĠÙĦ ÙģØ©
20 7
s p
ĠÙĦÙħ Ø¯Ø©
ĠÙĬ ÙĪ
996 6
ĠÙģÙĩ ÙĪ
nØ£ Ø®Ø¨Ø§Ø±
Ø¦ÙĬ Ø³ÙĬ
ĠØ§ÙĦØ®Ø§Ø±Ø¬ ÙĬØ©
Ġ ï»
ĠÙģ Ø¹ÙĦ
Ø³Ùħ Ø§Ø¡
20 20
i v
ÙĪÙĬ ØªØ±
Ø¸ÙĬÙģ Ø©
96 3
Ø§Ø ¤
ĠØ§ÙĦÙĥ Ø¨
i an
ĠØ¹Ùħ Ø§ÙĨ
ÙĦÙĬ Ø¨
ÙĩØ§ Ø¯Ø©
n K
ĠØ£ÙĪØ± ÙĪØ¨Ø§
ĠØ± ÙĪØ³ÙĬØ§
ĠA r
ĠÙĨ ÙħÙĪØ°Ø¬
ĠÙĪ ÙĥÙĦ
ĠØ§ÙĦÙĥ Ø§ÙĦØ³ÙĬ
ĠØ£Ø³ Ø§Ø³
Ø§Ø¯ ÙħÙĬØ©
Ø³ÙĬ Ø³
ÙĬÙ Ģ
ĠØ§ÙĦÙħ Ø·ÙĦ
47 6
21 5
Ø¬ Ø¹
Ġ4 0
ĠØµ Ø¨Ø§ØŃ
Ø¹Ø¯ Ø¯Ø©
ĠØŃ Ø³ÙĨ
ĠW hatsApp
Ø· Ø§Ø¡
ĠØ§ÙĦØ§Øª ØŃØ§Ø¯
25 4
ĠØ§ÙĦØ¹ Ø¶
Ø« Ø©
Ø±ÙĬ Ø¯Ø©
Ġp df
C D
87 4
ĠØ§ÙĦÙħ ÙĦÙģ
ĠG et
ĠÙĨÙĬØ¬ ÙĬØ±ÙĬØ§
07 6
ĠÙħØ® Ø·
ĠÙģ ØªØ±Ø©
ĠØ§ÙĦÙħØŃ Ø§Ø¬Ø±
ï¿½ ï¿½
Ø¨Ø± Ø²
g le
ĠØ¨ Ø§Ø³Ùħ
ĠÙĥ Ø³
âĢĿ .\
U S
ĠØ¥ Ø«Ø±
ĠÙģ ØµÙĦ
Ġ }
ĠØ§ÙĦÙĨ ÙĪØ¹
22 4
ĠØ§ÙĦØ³ÙĬÙĦÙĬ ÙĥØ§
ĠØ§ÙĦ Ø§ÙĪ
Ø¶ ÙĪØ±
30 2
ĠÙĪØ§Ø³ Ø¹
20 4
Ø· Ø§ØŃÙĨ
8 35
ĠØ¬ Ù
ĠØ¬Ù Ħ
n Ø®
ÙĪ Ø´
ĠØª ÙĨØª
Ġ al
ĠØ§ÙĦØ§Ø³Øª Ø«ÙħØ§Ø±
ĠØ¨Ø§ÙĦ Ùģ
ĠØ§ÙĦÙĩ Ø§ØªÙģ
ĠâĢ Ŀ
ĠØ§ÙĦØµ ØŃØ©
34 6
r am
Ø¹Ø± ÙĪØ¶
er v
Ùģ Ø¸
ĠØªÙĨ Ø²ÙĬÙĦ
ĠÙĦ Ø§ÙĬÙĨ
Ú ¯
ÙĨ ÙĬØ§
ĠØ§ÙĦØ§Ùħ Ø§Ø±Ø§Øª
ĠØ³ ÙĪØ±ÙĬØ§
ĠØ§ÙĨ Ùĩ
ĠØ§ÙĨ ÙĪØ§Ø¹
Ø±Ø¨ Ø©
ĠØ¥ÙĨ Ùĩ
ĠØª Ø±ÙĬØ¯
ĠØ¨Ø¯ Ø£
ĠØ§ÙĦØ³ Ø§Ø¨ÙĤ
ĠØ§ÙĦØŃ Ø²Ø§Ùħ
ĠÙĪØ§ÙĦ Ø¬
ĠØªØ¯ ÙģÙĤ
ĠØ§ÙĦØ´ ÙħØ³
Ø§Ø± ÙĨØ©
Ø§Ø¨ Ùĩ
ĠØ±Ø³ ÙĪÙĦ
ĠØ§ÙĦØ· Ø±ÙĤ
Ø®ÙĬ Øµ
ĠØ§ÙĦØ¹ Ø¨
ĠØ£ ÙĩÙĦ
ĠØ§ÙĦØ¹ÙħÙĦ ÙĬØ©
ÙĪØ± Øª
ĠÙĨ ØªÙĬØ¬Ø©
ĠÙĪÙģ ÙĤ
ĠØ¹ Ø¶
ĠØ§ÙĦØª Ø±Ø¨ÙĬØ©
Ø·Ø± ÙĤ
ĠØ§ÙĦØ¬Ø² Ø¡
n Ø§Ø³
f d
ÙĪØ¬ ÙĪØ¯Ø©
i re
ĠØ§ÙĦ Ø§ÙĦÙĥ
ĠØ§ÙĦÙĨ Ø¨ÙĬ
ĠØ§ÙĦØ£ ØŃØ¯
ĠØ¥ÙĨ Ø´Ø§Ø¡
Ø¹ÙĦ Ø§Ø¬
ÙħÙĬØ² Ø§Øª
ĠØ§ÙĦØªÙģ Ø§ØµÙĬÙĦ
ĠÙħ Ø¹Ø±ÙģØ©
Ġ 29
ĠÙģ ÙĨÙĬ
07 4
ĠØ§ÙĦÙĪ ØµÙĪÙĦ
ĠØ¬ Ø§Ø¡
Ø± Ùħ
ÙĬ ÙħÙĬ
ĠÙĪ ØµÙģ
w it
Ø² Ø§ÙĦØ©
ĠÙħ Ø¬Ùħ
Ø´ Ø§Ø±Ø©
ĠÙĪ ÙĬÙĨ
ĠØ§ÙĦØ£ Ø®Ø¨Ø§Ø±
ÙĪÙħ Ø
ÙĪÙħØ §
ĠØ§ÙĦØµ ÙĦØ¨
ĠØ§ÙĦØµØŃ ÙĬØ©
34 5
21 7
ĠØ§ÙĦ ÙĬØ¯
96 8
ĠÙĥ Ø´Ùģ
ĠØ§ÙĦØ¹ Ø§Ø¨
ĠØ§ÙĦØ¨ Ø´Ø±
ĠØ¹ Ø§ÙħØ©
I n
ĠÙħÙĦÙģ Ø§Øª
Ø§ÙĦ Ø¥
27 4
ĠØ¥ Ø¯
Ø·Ø¨ Ø®
ØªÙĤ Ø§ÙĦ
Ġ20 11
Ø° Ø¨
ĠØ§ÙĦØ´ ÙħØ§ÙĦ
B B
ĠØ¨ Ø«
nØ£ Ùĥ
ØªØ¨ Ø§Ø³
ĠÙĦØ¯ÙĬ Ùĥ
84 6
ĠÙĤ Ùħ
Øª ÙĦÙĥ
ÙħØ± Ø§Ø±
97 1
ÙĤØ± Ø§Ø¡Ø©
Ø³Ø³ ÙĪØ§Ø±Ø§Øª
ĠÙħ ØªØŃ
Ø§ÙĦ ÙĤ
ĠÙħÙĦÙħ ÙĪØ³Ø©
9 05
04 5
Ø§Ùģ Ø§Øª
ĠØ§ÙĦÙĥÙĩØ±Ø¨ Ø§Ø¦ÙĬØ©
ĠÙĤØ± Ø§Ø¡Ø©
ĠØ§Ø³Øª Ø®Ø±Ø§Ø¬
ĠÙĨ Ùħ
ĠØ¯ ÙĪ
31 5
Ø§Ø¹ Ø±
ÙĨ ÙĪØ§Øª
ĠâĢ ¢
Ġ: :
ĠÙĪØ§ÙĦ Ø§Ø³Øª
ĠÙħØ¹ ÙĨØ§
nØ§ÙĦ Ø¥
Ø¨ Ø«
ĠÙģ ÙĦØ³Ø·
ĠÂ» \
ĠØŃ Ø¯Ø«
Ø¯ ÙĬØ±
ĠØ¨ Ø±ÙĪ
ÙĬ ØŃ
ĠÙħØ³ Ø§Ø¡
Ø³Ø³ Ø§Øª
ĠØ² ÙĪØ¬
ĠØ§ÙĦØ¹ ÙĬÙĨ
ÙĪØµ ÙĬØ©
ØªÙħ Ø§Ø¯
26 5
34 3
Ø³ØªØ± Ø§ÙĦÙĬØ§
ĠØ§ÙĦØ§ØŃ Øª
Ø§Ø² ÙħØ©
Ø®Øµ ØµØ©
ĠØ§ÙĦ Ø§Ùĩ
Ø¢ ÙĦØ©
ĠØ¯ ÙĬÙĨ
Ø§Ùħ ÙĬÙĥ
ĠØ£ ÙħØ§
ĠØ¹Ø¨ Ø§Ø±Ø©
ĠØ§ÙĦØªØ¹ ÙĦÙĬ
ĠØ¯ Ø§Ø±
u e
ÙĤØ· Ø¹
Ø§ØŃ Ø¸
ĠØ§ÙĦØ£Ø® ÙĬØ±Ø©
ĠØ± Ø¤ÙĬØ©
ĠØ¹ ÙĤØ¯
ĠØ¬ Ø§ÙĨØ¨
ĠÙĥÙĪØ± ÙĪÙĨØ§
ĠØ§ÙĦØ£ ÙĪØ³
ĠØ§ÙĦ Ø§ÙĦ
ĠØ«ÙĦØ§Ø« Ø©
ÙĦØ§ Ø·
Ùĥ ÙħØ©
Ø´ Ø·Ø©
ar y
ĠØ£ Ø¬ÙĩØ²Ø©
Ø§Ø¨ ÙĬØ©
ĠÙĦÙĦ ÙĤ
ĠØ§ÙĦØŃ ÙħÙĦ
n Ø¥ÙĨ
Ùģ Ø§Ø¸
ĠYou T
Ø§ÙĪ Ø±
ĠØ§ÙĦØ¯ ÙģØ§Ø¹
0000 6
Ġ =
ĠØ§ÙĦØ¯Ø§Ø® ÙĦÙĬØ©
ĠØ¬Ùĩ Ø©
ĠØ§ÙĦØ· ÙĦØ¨
Ø³Ùħ Ùī
ĠØª ØºÙĬÙĬØ±
ĠØ§ÙĦ Ø§ÙĪÙĦ
a w
ĠØ¨Ø§ÙĦ ØŃ
ĠØ§ÙĦØ¯ Ø±Ø¯Ø´Ø©
25 6
ĠØ§ÙĦØ¹Ùħ ÙĪØ¯ÙĬØ©
Ø§Ø± Ø¨
34 7
94 4
Øª ÙģØ¹
ĠØ³ Ø§Ø¹Ø§Øª
ĠØ¨ÙĬ Ø§ÙĨØ§Øª
ÙĬØ¯Ø± ÙĪÙĦ
ÙĨ Ùĩ
ÙĪØ§ÙĨ Ø§Øª
nØ£ ÙģØ¶ÙĦ
ĠØ§ÙĦØŃ Ø¬Ùħ
ĠØ¨ Ùģ
nÙĥ ÙħØ§
37 5
ÙĨ Ùĥ
ÙĪØ± Ø§Øª
Ġ li
ĠØ¨Ø§ÙĦ Ø³
ĠÙĪ ÙĪ
17 6
ĠÙħÙĥ ØªØ¨
ĠØ¥ ØŃØ¯
n ÙħÙĦ
ĠÙħ Ø§Ø¯Ø©
Ø¹ÙĦ Ø§ÙĨØ§Øª
Ø§Øµ ÙħØ©
Ø§Ø¦ ÙħØ§
ĠØ¥ÙĦÙĬ ÙĩØ§
ĠØªØ¹ÙĦÙĬ ÙĤ
ĠØ´ Ø§Ø´Ø©
ĠØ¨ Ø±ÙĬØ¯
Øº ÙĨÙĬ
d c
Ø§ÙĪ ÙħØ©
ĠÙĤÙĬ ÙħØ©
ĠØŃ Ø²
ØªØµ Ø§Ø¯
ĠÙĪØ§ÙĦØª Ø¹
ĠØª ÙĪÙģØ±
n ÙĪØª
ĠØ§ÙĦØ¥ÙĦÙĥØªØ± ÙĪÙĨÙĬØ©
ĠØ§ÙĦØ¹ÙĦ ÙħÙĬ
ÙĨ Ø¬
87 5
p er
Ø³Ùħ ØŃ
Ø§ÙĤ ÙĬ
ÙĪØ§Ø¹ Ø¯
Ø±ÙĪ Ø¨
ĠØªØ¹ ÙĦÙĬÙħ
ĠØ£ØŃ Ø°ÙĬØ©
a in
ØµØ¯ Ø§Ø±
21 4
Ø§Ùĥ Ø±
ÙĪØ³ ÙĬØ©
99 45
ĠØ¨Ø´ Ø£ÙĨ
ĠÙĥ Ø§Ùħ
ĠÙĤ Ù
ĠÙĤÙ Ħ
Ùģ ÙĬÙģ
F A
ĠØªØµ Ø§Ø¯ÙħÙĬØ©
ÙĪØªÙĬ ÙĪØ¨
ĠØ® ÙĬ
34 76
ĠØ¨ Ø¨
ĠØ¨ Ø§Øª
ÙĥÙĪ ÙĬÙĨ
ĠØ³ ÙĥØ³
Ø§Ø¦ ÙĩØ§
9 27
Ø§Ùĥ Ùħ
ĠÙĬØ¹ ØªØ¨Ø±
ĠS t
ĠØ§ÙĦØ£Ø³ Ø§Ø³ÙĬØ©
ØŃ Ø§Ø¡
ĠÙĤ ÙĨØ§Ø©
ĠØ¸ ÙĩØ±
ÙĦÙĬ ØŃ
Ø§Ø¬Ùĩ Ø²Ø©
ĠØ¨ Øº
Ġ '
ĠÙĥ ÙĨØ¯Ø§
Ø³Ø¨ ÙĪÙĥ
Ø§Ø¦ Ùĩ
ĠÙĩ Ùħ
ĠØ¯ Ø±Ø¯Ø´Ø©
ĠØªØ¹ ØªØ¨Ø±
24 6
36 5
n ÙĬÙħÙĥÙĨ
) ,
ĠØ§ÙĦ Ø§Ùģ
i le
ĠØ±Ø³ Ø§ÙĦØ©
Ø³Øª Ø§Ø°
Ġ pe
ĠØ§ÙĦÙħ ØŃØ¯
ĠÙĪ Ø¸Ø§Ø¦Ùģ
nC ontact
ØŃ Øª
ĠØ§ÙĦØ´Ø± ÙĤ
ĠÙĤ ÙĪØ§Øª
n e
g y
Ġ 35
Ùģ Ø±Ø©
ÙĲ Ùĳ
ÙģØ± Ø§Ø¯
n E
ĠÙĥ Ø§ÙĦ
ĠØ§Ø¨ ÙĪ
ĠØªØ¹ ÙĦÙħ
ĠØ± Ø¯
99 44
ÙħØª Ø§Ø²
996 4
ĠØº Ù
ĠØºÙ Ħ
Øª ÙĬÙĦ
Ø¬ Ø±ÙĬ
ĠÙĥ ÙĬÙĦ
ĠØ§ÙĦÙħØ± ØŃÙĦØ©
ĠØ¯ Ø¹Ùħ
ĠØª ÙĥÙĬÙĬÙģ
. .\
ĠÙĬ Ø¹Ø¯
bab a
ĠØ´ÙĨ Ø·
ÙħÙĨ ÙĬ
S I
ĠØ§ÙĦØ· ÙģÙĦ
ĠÙĦ Ø±
ĠØ§ÙĦÙĨØ³ Ø§Ø¡
ĠØ§ÙĦØ´ Ø¨Ø§Ø¨
ØªØ¨ Ø¹
ĠØ« ÙĤÙĬÙĦØ©
ĠØ§ÙĦÙĥÙħ Ø¨ÙĬÙĪØªØ±
1 06
05 5
ĠØ§ÙĦÙĨ ÙģØ³
ĠØ® Ø·Ø©
Ø§Ø¦ Ø·
ĠØ± ÙģØ¹
\": \"
ĠØªÙģ Ø§ØµÙĬÙĦ
ÙĩØ§ Ø¯
Ø§Ùĥ Ø²
ĠØ¹ Ø±Ø¨ÙĬØ©
ĠØ¥ Ø³Øª
ĠØ³ÙĬ Ø§Ø±Ø©
ĠM P
ace book
85 5
ÙĨÙĬ Ø§Øª
oo gle
9 16
ĠÙĬ Ùħ
o b
Ø¬ ÙĪ
ĠØ¨Ø§ÙĦ Ù
ÙĪÙĦ Ø¯
ĠØ¨Ø§ÙĦÙ Ħ
ĠØ§ÙĦØ£ ÙĤ
37 4
ĠØ§ÙĦØ¬Ùħ Ø¹Ø©
ĠØ¹ÙĨ ÙĪØ§ÙĨ
ĠØ§ÙĦØª ÙĥÙĨÙĪÙĦÙĪØ¬ÙĬØ§
Ùĭ \
ĠÙĪ ØªÙħ
ĠØ§ÙĦÙħØ® Ø±ÙĪØ·
ĠØ§ÙĦÙĬ Ø§Ø¨
ĠØŃÙĪ Ø§ÙĦÙĬ
Øª Ø§Ùħ
ĠÙĦØ¬ ÙħÙĬØ¹
in k
ĠØ³ ÙĪ
ÙĥÙĪÙĨ Ø§Øª
ĠØ§ÙĦØ´ ÙĩØ±
C F
Ġ as
Ø¯ Ø§ÙĨ
ĠØ§ÙĦØ± Ø¯
Ø¨ÙĬ Ø¶
ÙĪØ¨ Ø§ÙĬÙĦ
Ùĩ ÙĦØ©
Ġ6 0
ØªÙĪ Ø§ØµÙĦ
an t
d b
ĠÙħØ¬ Ø§ÙĨÙĬ
ĠÙĤØ· Ø§Ø¹
22 5
Ùĩ ÙĪØ©
22 6
ÙħÙĨ Ø©
f c
n Ø¹ÙĨ
35 5
84 4
o g
Ġ sh
93 3
ĠØ¨ÙĨ Ø³
ĠÙĦÙĩ Ø°Ø§
Ø±ÙĬ Ø¶
ĠØ§ÙĦÙĤÙĬ Ø§Ùħ
ĠA li
Ġy ou
ĠU S
ĠØ£Ø¯ ÙĪØ§Øª
ØªØ±ÙĥÙĬ Ø¨
ĠØ§ÙĦØµÙĬÙĨ ÙĬØ©
ĠÙĬØŃ ØªÙĪÙĬ
ĠÙĪÙĤ Ø§ÙĦ
Ø§Øª ÙĬ
) :
ĠØ³ Ø¨ÙĬÙĦ
ĠØ§ÙĦØ³ÙĪØ¯ Ø§ÙĨ
ĠØ¨ØªÙĨ Ø³ÙĬÙĤ
ĠÙĦ Ø·ØŃÙĨ
11 6
ĠØ§ÙĦØ¬ Ø¯
ĠØ§ÙĦØ¥ ÙĤ
er y
ĠÙĦ ÙĤØ¯
ĠØ§ÙĦØµ ØŃÙĬ
Ġ con
27 6
ĠÙĦ Ø§Ø³Øª
ĠÙģ Ø¶
wit ter
ara b
ĠØ§ÙĦØ£Ùħ ÙĬØ±
ĠP ro
ĠÙĥ Ø°ÙĦÙĥ
ĠØ§ÙĦØ¨Ø± ÙĨØ§ÙħØ¬
ÙĬØ¯Ø±ÙĪÙĦ ÙĬÙĥÙĬØ©
99 14
ĠØ§ÙĦÙħÙĤ Ø§ÙĦ
36 6
AA E
ĠØ§ÙĦØ£ Ø³Ø¨ÙĪØ¹
ĠØ± Ø³Ùħ
ĠØ§ÙĦØ¨ÙĦ Ø§Ø¯
37 6
Ø¨Ø¯ ÙĪ
999 46
ØŃÙĤ ÙĪÙĤ
ĠØ§ÙĦØ£Ø´ Ø®Ø§Øµ
ĠØ§ÙĦØ´ Ø§Ø±
f b
ĠØ§ÙĦØ«Ø§ÙĦØ« Ø©
ĠØ§ÙĦÙħØ¬ ÙĦØ³
ĠØ´ ÙħØ§ÙĦ
ĠÙĥ Ø±Ø©
06 6
ĠÙĬØ¬ Ø¹ÙĦ
Ø³ÙĬ Ùħ
34 4
Ø³ÙĬ Øª
Ø±ÙĬ Ø¨Ø©
95 3
ÙĤØ± Ø§Ø±
Øº Ø§Ø¡
85 4
ĠÙħØµ Ø¯Ø±
ÙĦØ¨ ÙĬØ©
ĠØµ Ø¨
Ø¬Ø± Ø¯
17 5
Ø§ÙĪ Ùī
ĠØ¥ ÙĬ
ĠÙĩ ÙĬØ¦Ø©
ÙĪØ³ Ùģ
Ø§Ø¦ ÙĨ
Ø§ÙĪ Ø²
Ø« ÙħØ±
ĠØ§ÙĦÙħÙĨ Ø§Ùħ
ĠÙĬ ØªØŃ
.. ..
ĠØ¨Ø¯ Ø§ÙĬØ©
24 7
Ø§Ø¦ ØŃØ©
Ø§Ø¶ ÙĬØ©
Ø² Ø¹
999 16
ÙħÙĬ ÙĦØ©
ĠØ§ÙĦØ³ Ø§Ø¯
Ø´Ø§Ø± ÙĥØ§Øª
ĠØ§ÙĦØªØ´ ØºÙĬÙĦ
Ġw ith
Ø£Ø³ Ø¹Ø§Ø±
ĠØª ØµÙĦ
ĠØ§ÙĦØª Ø§ÙĦÙĬØ©
Ø·ÙĦØ¨ Ø§Øª
ĠØ§ÙĦÙħÙĪ Ø§ÙĤØ¹
Ø£ Ùĥ
ĠØ§ÙĦØ· Ø¨ÙĬØ©
Ùħ Ùħ
ĠØ¹ ÙĬØ¯
ĠØ±ÙĬÙħ ÙĪÙĨØ¯
ĠØŃ ÙĬØ§Ø©
ĠÙĪ Ø¨Ø±
ĠØ¨Ø§ÙĦ Ø¨
ĠØ§ÙĦØ£ÙħØ±ÙĬ ÙĥÙĬ
nØ§ÙĦØ± Ø¦ÙĬØ³
ĠØ§ÙĦØ§Ø¬ØªÙħ Ø§Ø¹ÙĬØ©
ĠØ§ÙĦÙĩ ÙĪØ§Ø¡
Ġ at
9 15
ĠØ§ÙĦÙĪ ØŃ
Ø§Ø· Ø¹
ÙĬÙĦ Ùĩ
24 4
Ø§Ø¨ ÙĦØ©
ĠØ£ Ø³ØªØ±Ø§ÙĦÙĬØ§
Ø´Ø± Ùģ
ĠØ§ÙĦØ³ Ø§Ø®
Ø¹Ø¯ Ùħ
Ø¶ Ùī
ĠØ§ÙĦÙĥ Ø¨ÙĬØ±
ĠÙħØµÙĨØ¹ ÙĬÙĨ
Ùĥ ÙĬÙĨ
ĠÙħØŃ Ø±Ùĥ
Ø¬ÙĦÙĬ Ø²ÙĬ
ĠØ§ÙĦÙģ Ø±ÙĤ
ĠØ§ÙĦÙģ Ù
ĠØ§ÙĦÙģÙ Ħ
ĠÙĦÙĦ Ø¨
ĠØ§ÙĦØµ ÙĦØ§Ø©
âĢĿ ØĮ
ĠÙĦ Øµ
ÙĦÙħ Ø§ÙĨ
h o
Ø¹ÙĦ ÙĪÙħ
Ø±ÙĬ Ø§Øª
ĠØªØ³ Ø§Ø¹Ø¯
Ø± Ø±
am e
ĠØªÙĨ Ø§ÙĪÙĦ
ĠØ§ÙĦÙĤØ± Ø§Ø¡Ø©
37 1
Ġth is
Ġ1 50
Ø§ØŃ Ø§Øª
ĠâĢ¦ \
Ġm ore
a v
Ġ Q
86 6
ĠØ· ÙĪÙĬÙĦØ©
ĠÙĪÙħ ØŃ
nØªØŃ ÙħÙĬÙĦ
n Ø±Ø¯
Ø§ÙĤ Ø¨Ø©
ĠÙĪ Ø§Ø¶
36 4
ÙĤØ± ÙĬØ±
ĠØ´ Ø¹Ø¨
ĠØ¹ ÙĬ
ĠØ¨ Ø§Ø³Øª
ĠÙħØ¹ Ø¸Ùħ
ĠÙģÙĬ ÙĦÙħ
n ÙĪÙĬ
88 3
ĠÙĦÙĬ Ø³Øª
ØµÙģ ØŃ
ĠÙĩ Ø§ØªÙģ
un ction
ĠÙĪ ØªØ±
Ø¬ Ø§Ø¨Ø©
ĠØ§ÙĦØ¶ ØºØ·
ĠØ§ÙĦØª Ø§ÙĦÙĬ
ĠØ§ÙĦØ¯ Ùĩ
ĠÙĪ ÙĬØ¹
ĠÙħØª Ø¬Ø±
ÙĨ Ø²
Ġ 05
9 30
ĠÙĦÙĦ ÙħÙĪ
nK now
ĠÙģ ÙĩÙĬ
Ù ª
ÙĬÙģ ÙĬØ©
ĠØ¨Ø§ÙĦ Ø¬
ÙĥØ§Øª Ø¨
ĠØ§ÙĦÙĥ ØªØ¨
ĠØ§ÙĦØ³ÙĬ Ø§Ø³ÙĬØ©
nÙħ Øµ
ÙĤ Ø§Ùħ
ĠØ³ Ø§Ùħ
Ġ> >
Ùĥ ÙĬØ±
ĠÙĪÙĦÙĬ Ø³
ØªØ¨ Ø§Ø·
n L
Ħ ÙĪÙĦ
Ù ĦÙĪÙĦ
Ø§Ø¯ Ùħ
ĠØ§ÙĦÙħØµÙĨØ¹ ÙĬÙĨ
Ø¨Ø± Ùī
31 4
a pp
ĠÙħØªØ± Ø¬Ùħ
ĠÙĪ ØµÙĦ
ĠØ£ÙĨ Øª
ĠØ§ÙĦØº Ø§Ø²
ĠØ¶ Ø¹
ĠØ§ÙĦØ± Ø£
8 05
ĠØŃ Ø¨
8 16
Ø§ÙĦ Ø
Ø§ÙĦØ §
98 2
ÙĦØ¨ ÙĬÙĨ
9 14
I N
ĠØ§ÙĦØ±ØŃ ÙħÙĨ
ĠØ§ÙĦÙħ Ø§Ø±
ĠØ§Øª ØµÙĦ
97 2
Ø¯ Øª
ĠØµ Ø®Ø±Ø©
ĠØ§Ø® ØªØ±
ĠØŃ ÙĥÙħ
ĠØ§ÙĦÙĨØ¨Ø§Øª Ø§Øª
21 3
999 56
ĠØ§ÙĦ Ø§Ø¯
ĠØµ ØŃÙĬØŃ
ĠØ§ÙĦÙħÙĨØ§ Ø·ÙĤ
04 1
ĠØ§ÙĦØ·Ø¨ÙĬØ¹ ÙĬ
Ġ x
ĠÙĦÙĦ Ø§Ø³Øª
ĠØ§ÙĦØ³ÙĬ Ø§Ø±Ø©
ĠØ· Ù
ĠØ·Ù Ħ
n Ø¹Ø±Ø¶
ĠØ§ÙĦØŃØ¯ÙĬØ« Ø©
Ġ100 0
ĠØ§ÙĦÙħØŃ ÙĦÙĬØ©
ĠØ§ÙĦÙĨ Øª
ĠØ§ÙĦ Ø§Ø·
86 4
ĠÙĦÙĪ ØŃØ©
Ø±ÙĬ ÙħØ©
ĠØ± Ø¬
Ø³Ø± Ø¹Ø©
Ø§Ø´ Ø§Øª
ĠØ§ÙĦØª Ø¬Ø§Ø±Ø©
9 26
Ø³ÙĬ Ø·Ø©
ØŃÙħ Ø±
ĠÙĦÙĦØº Ø§ÙĬØ©
31 2
ĠØ§ÙĦØ³ ÙĬØ±
ĠØª Ø¹Ø¯
ĠØ§ÙĦÙģ ØªØ±Ø©
22 7
Ø¨Ø± Ø§ÙĩÙĬÙħ
ĠØ§ÙĦØµÙĨ Ø§Ø¹ÙĬ
Ø¨ ÙĬÙĨ
ĠØ¨Ø§ÙĦ Ø¹
ĠØ§ÙĦÙĪ Ø²
ĠØ§ÙĦÙĨ Ø¬
ĠØ¯ ÙĤÙĬÙĤØ©
ĠØµÙģ ØŃØ©
ĠØ§ÙĦØŃ Ø±Ø¨
ĠÙħØ®Ø· Ø·
ĠØ¨Ø§Ùĥ Ø³ØªØ§ÙĨ
ĠØ® Ø¨Ø±
ĠØ¨ÙĬÙĨ ÙħØ§
Øª Ø³
ĠØ§ÙĦØ¹ ÙħØ±
35 4
Ġ Z
0 96
ĠØ¯ Ø§Ø¦ÙħØ§
17 4
86 5
ĠØŃ Ø²Ø§Ùħ
ĠØ§ÙĦÙĨ ÙĤÙĦ
ĠØ§ÙĦÙħÙĨ Ø´
ĠÙĪØ³ Ø·
Ø§Ø¹ Ù
Ø§Ø¹Ù Ħ
Ġ Ã
ĠÙħ ÙĪÙĨ
Øµ Ø§ÙĦØ§Øª
ĠÙĥ ÙĪØ¨
ĠØ¥Ø«Ø± Ø§Ø¡
u st
Ø§Ùģ Ø¶ÙĦ
ĠØ§ÙĦÙħØ³Øª ÙĪÙī
ĠØ® Ø²
Ø¶ ÙĬØ±
ĠØ§ÙĦØ· Ø¨ÙĬ
85 6
ĠÙĦØª ÙĨ
ĠÙģ ÙĪØ±
ĠØ§ÙĦØµ ÙĪØ±Ø©
ĠØ§ÙĦØ® Ø¨Ø±
Ø° Ùģ
999 67
ĠØ§ÙĦØ£ Ø¬ÙĨ
ĠÙĦÙĦ Ø¹ÙħÙĦ
Ø¸ Ø¨ÙĬ
C C
Ø´ Ù
Ġ6 00
Ø§Ø± ÙĬØ±
ĠÙħØ± Ø§Ø¬
Ùĩ Ø§Ø±
Ø´Ù Ħ
Â «
ĠØ§ÙĦØŃ Ø´Ø±Ø§Øª
27 1
\\ /
ĠØ³ Ø¹ÙĬØ¯
Ø¹ÙĦ ÙĤØ©
A R
25 5
ÙĨØ³ Ø
ÙĨØ³Ø §
n ÙĪÙħ
Ġ ØĽ
ĠØ± ØŃ
Ø®Ùģ Ø§Ø¶
ĠC om
ÙĪØŃ Ø§Øª
ĠYouT ube
ĠÙĬ ÙĥÙĨ
s i
Ø§ÙĦØª Ø§ÙĦÙĬ
ĠØ§ÙĦØ£ Ø±Ø¨Ø¹
ÙħÙĨ Ø
ÙħÙĨØ §
ĠÙĦØ£ÙĨ Ùĩ
O N
ÙĪÙĤ Ø§Øª
Ù ¬
ĠØ§ÙĦÙĥ Øª
ØªØ¯ Ø§Ø¡
Ġ an
ĠØ§ÙĦØµ Ù
ĠØ§ÙĦØµÙ Ħ
ĠÙĬ ØµÙĦ
ĠÙħÙĨ ØµØ©
11 5
ĠØªØŃ Ø¯ÙĬØ«
ĠØ§ÙĦÙĪ Ø§ÙĤØ¹
ĠR e
\" ,\"
ÙħØ±Ùĥ Ø²
ar z
Ø§ÙĦÙĬ Ø§Øª
47 5
ĠØ§ÙĨ ØªÙĩ
ĠØŃ Ø³ÙĬÙĨ
ĠØ¬ÙĬ Ø¯Ø©
ØµØ± Ùģ
Ġ 31
Ø²ÙĬ Ø§Ø¡
f t
6 30
ÙĤØ± Ø§Ø·
ĠÙħØŃÙħ ÙĪØ¯
86 3
ĠØ§ÙĦØªØŃ ÙĥÙħ
ĠØ§ÙĦØªØ³ Ø¬ÙĬÙĦ
ĠØ§ÙĦØŃÙĤ ÙĪÙĤ
ul t
ÙĪ Ø§Ùģ
Ø§Ø¨ Ø±
ĠØµ Ø¯
998 27
ĠØ§ÙĦÙħÙĪ Ø§Ø·
ĠØ§ÙĦØ£ Øµ
ĠÙĪØ¨ Ø¹Ø¯
ĠØ¨ ÙĨÙĬ
Ġ20 10
ĠÙĪØª Ø´
ÙĨØ¯ ÙĤ
ĠÙħØ´ ÙĥÙĦØ©
ĠØ§ÙĦÙĤ Ø¯ÙĬÙħØ©
( '
Ø§Ø± Ø
Ø§Ø±Ø §
ĠØ§ÙĦØ± ÙĤ
n Ø¨Ø±
Øª Ø
ĠØµ Ø§ØŃØ¨
ĠØ§ÙĦØ¹ Ø±Ø¶
ØªØ §
ĠC h
ØªØ±Ø§ØªÙĬØ¬ ÙĬØ©
ĠÙħ Ø·ÙĦ
ĠØ§ÙĦÙĨ Ø¸Ø±
ÙħÙĦ Ùĥ
Ø¦ Ø§Øª
Ø±ÙĪ Ø¹
ĠØ§ÙĦØ¥ Ø¯
Ø¬ ÙĦØ³
ĠØªØŃØª ÙĪÙĬ
Ø¶ Ø§Øª
ĠÙģ Ùĥ
ĠØªÙĨ ÙģÙĬØ°
Ùĩ ÙĬÙĦ
ĠØ§ÙĦ ÙĪØ¬Ùĩ
9990 3476
Ø·Ùģ Ùī
ĠØ¥ØŃØ¯ Ùī
ĠÙĪÙĬ ÙĥÙĬ
Ø¬ ÙĨØ©
ĠØ§ÙĦÙħÙĦ Ø§Ø¨Ø³
nØ§ÙĦ Ø¯
Øµ Ø¨ØŃ
ĠØ§ÙĦØ¹ÙĦ Ø§Ø¬
ig n
ĠØ® Ø§ÙĦØ¯
ĠØŃ ÙĦÙħ
Ø¤ ÙĪÙĨ
ĠÙħÙĨ ÙĩÙħ
ĠØ§ÙĦØ±ÙĬØ§Ø¶ ÙĬØ©
ĠØ¶ ØºØ·
ĠÙĦÙħ ØŃ
Ø« ÙĪØ±
ĠØ§ÙĦØ® ÙħÙĬØ³
ĠAli baba
Ùģ Ø§Ùģ
Ø´ Ø§ÙĩØ¯Ø©
26 4
Ø¨Ø§Ø± Ùĥ
ĠÙħØ¤ Ø³Ø³Ø©
ÙĪØ§ÙĨ ÙĬÙĨ
00 6
ĠØ± Ø´
ĠØ¥ ÙĬØ±Ø§ÙĨ
31 3
a la
ĠØ§ÙĦÙħØ³Øª Ø¹ÙħÙĦØ©
nÙħ Ø¹
m an
ĠÙĨ Ø§ÙĤÙĦ
ĠÙģ ÙĪØ§Ø¦Ø¯
ĠØ£ÙĨ Ø
ĠØ£ÙĨØ §
Ø³ÙĦ ØŃØ©
995 5
ĠÙĨØª Ø§Ø¦Ø¬
ĠÙĬ ÙĦÙĬ
n ÙĦÙħ
9 07
Ø¹ ÙĪ
Ùĥ Ø§Ø¡
ĠØ§ÙĦØ§ÙĤØªØµ Ø§Ø¯ÙĬØ©
ĠØ§ÙĦÙĪ Ø²ÙĨ
nØ§ÙĦ Ø¨
Ġc rusher
ĠØ§ÙĦØŃ Ø³Ø§Ø¨
Ø§Ø¨ ÙĪÙĨ
Øµ Ø¨
Ø´ÙĬ Ø§Ø¡
ĠC o
ÙħÙĪ Ø§ÙĦ
Ø§Ø¦ Ø©
ĠØ¹ Ø´
ĠØ§ÙĦØ· Ø±ÙĬÙĤ
ĠØ¹Ø§Ùħ Ø
ĠØ¹Ø§ÙħØ §
Øº Ø§Ùħ
ĠÙħØª Ø¹Ø¯Ø¯Ø©
24 5
Ġ @
ĠØ§ÙĤ Ø±Ø£
ÙĪØ¬ Ù
ÙĪØ¬Ù Ħ
ĠØ§ÙĦÙĤØ± ÙĨ
26 6
Ø§Ø¦ Øµ
ĠØ¨ÙĨØ³ Ø¨Ø©
ÙĬ Ø§Ùħ
ĠØ¯ Ùĩ
ĠØ§ÙĦØ£ÙĪØ³ Ø·
ÙĪ Øº
ĠØ§ÙĦØ£ Ùĥ
2 34
Ø± Ø§Ø¡
ĠØ³ Ø·ØŃ
ĠØ¥ Ø³
05 6
nØ¥ Ø°Ø§
ĠØ§ÙĦØ¨ØŃØ± ÙĬÙĨ
ĠØ¨ ØŃØ±
ĠÙħØ¹ ÙĨÙī
ÙĪ Ø³Øª
ĠØ§ÙĦÙħÙĩ ÙĨÙĬØ©
Øµ ÙħÙĬÙħ
Ùĥ Ø§ÙĨÙĬØ©
99 35
nÙħ ÙĪ
ĠÙħÙĨ Ø²ÙĦ
Ø§Ùĩ ÙĬØ©
27 7
ĠÙĥ ÙĪÙĦ
86 8
Øº Ø±Ø©
ÙĤ Ø¯ÙĬÙħ
97 0
ĠÙħØµ Ø§Ø¯Ø±
85 7
00 5
ĠÙħ Ø¹Ø±Ø¶
nØ£ Ø³
ĠâĢ Ķ
ĠØ§ÙĦ Ø§Ùĥ
AF C
Ġ 01
ĠØ¨ Ø§ÙĨ
Ø¥ Ø°Ø§
30 4
ĠØ§ÙĦØ± Ø¬ÙĦ
ÙĪÙĨ Øº
ĠØ¨Ø§ÙĦ ÙĦÙĩ
ĠØŃØ² ÙĬØ±Ø§ÙĨ
ĠØª Ø¶
Ø§Ùħ ÙĬØ©
Ġ or
\" .
Ø¯Ø± Ø§Ø³Ø©
nÙĪ ÙģÙĬ
ĠØ£ÙĩÙħ ÙĬØ©
ĠÙĩ ÙĨØ¯
ĠØ§ÙĦØ³ ÙĪØ±ÙĬ
16 6
ĠÙħØªÙĨ ÙĪØ¹Ø©
87 7
ĠØ§ÙĦÙĪ Ø²Ø±
ĠÙħÙĨ Ø§Ø²ÙĦ
Ø¯ÙĬ Ø§ÙĦ
ĠÙĪ ÙħØ±
Ø§ÙĤ ÙĬØ©
ĠØ³ ÙĦÙĬÙħ
Ùģ Ùĩ
n ÙĪÙĦ
nØ§ÙĦØ±Ø¦ÙĬØ³ ÙĬØ©
ĠØ§ÙĦÙģ ÙĨÙĬ
ĠØ´ Ùĩ
Ø«ÙĦ Ø§Ø«
ÙĪÙĨ Ùĩ
ĠÙĬØ³ Ø§Ø¹Ø¯
ĠØ¥ ÙĤ
ĠØ§ÙĦØ· Ø¹Ø§Ùħ
âĢ ĵ
n o
Ø¹ÙĦ ÙĨØª
Øµ Ø§Øª
ĠÙĥ Ø±ÙĬÙħ
ĠÙħÙĦÙĬ Ø§Ø±
ØŃÙħ Ø§ÙĬØ©
ĠÙĦØ³ ØŃÙĤ
67 4
F F
ĠØ¯ ÙģØ¹
31 1
i o
9 04
ĠØ§ÙĦØ± ØºÙħ
ĠØ§ÙĦÙĪØ²Ø± Ø§Ø¡
ĠØ§ÙĦØ± ÙĪØ³ÙĬØ©
ĠÙħØŃ Ø¯
ĠØªØ¯ ÙĪÙĬØ±
Ù ¥
ĠØ§ÙĦÙħ Ø¶
Ø¨ÙĬ Ùĩ
re e
Ġ* \
ĠØ§ÙĦØ¹ÙĦÙħ ÙĬØ©
ĠØ§ÙĦÙĥÙĩØ±Ø¨ Ø§Ø¡
n ØªÙħ
ĠØ¨Ø§ÙĦ Ø´
ĠÙĪØ§ÙĦÙħ Ø¹
Ø³ Ø¯
9 06
Ø§ÙĦ Ø±
Ø§Ùħ ÙĨ
37 7
ĠØ§ÙĦÙģ ÙĦØ¨ÙĬÙĨ
15 5
ĠØ§ÙĦØªØµ ÙħÙĬÙħ
ĠÙģ ÙĤØ§ÙĦ
ÙĪ ØªÙĪ
ĠØ§ÙĦØ§Ø³Øª Ø®Ø¯Ø§Ùħ
15 7
ĠØ§ÙĦØ¥ Ø¯Ø§Ø±Ø©
as t
Ø¶ Ùģ
1 24
nØ§ÙĦ ÙĨ
Ġ ïº
ĠØ¨ÙĦ Øº
ĠØ¹ Ø²
ĠÙĬ Ùĩ
Ġ ab
ĠØ® ÙĦÙģ
ĠØ§ÙĦØ®Ø§Ùħ Ø³
ĠØ§ÙĦÙħØ±Ùĥ Ø²ÙĬ
1 25
ÙĬÙĦ Ø
ÙĬÙĦØ §
ĠØª Øº
Ġy our
ĠØ§ÙĦÙħ Ø³ÙĬ
Ø§ÙĨ Ø³
n ews
n ÙĪÙĥ
ĠØ§ÙĦØ§ÙĨ Øª
ĠØ§ÙĦØ«Ø§ÙĨ ÙĪÙĬØ©
ĠØ¨ ÙĤÙĬ
al e
ØªÙĬ Ø§Ø¬Ø§Øª
ĠÙģÙĦØ³Ø· ÙĬÙĨ
Ø® Ø§Ø¨Ø§Øª
ĠÙħ Ø´Ø§Ø±ÙĥØ©
ĠØ§ÙĦØº ÙĬØ§Ø±
nØ§ÙĦ ØµÙĬÙĨ
ĠØ§ÙĦØ´ Ø¨
Ø±ÙĬ Ø
Ø±ÙĬØ §
ĠØ§ÙĦØ¯ Ø¹
Ùģ Ø§Ø²Ø§Øª
997 3
15 6
ar k
Ø§ØŃ Ø«
Ø§ÙĦ Ø¹
996 8
ØªÙĬ ØŃ
ĠØ¬ ÙħÙĩÙĪØ±ÙĬØ©
ĠÙĥ ÙĦÙħØ§Øª
Ø· Ø§ÙĤØ©
ĠØ¨Ø§ÙĦ ÙĨ
11 7
ĠØ§ÙĦØ´Ø¹ Ø¨ÙĬ
ĠØ« Ø§ÙĨÙĬØ©
om e
ĠØ³ ÙĬØ¯
ĠØ§ÙĦØªØ¹ Ø§ÙħÙĦ
Ø´Ùģ Ùī
ĠØª Ø²
ĠØ¬ Ø²Ø±
ĠØ§ÙĦÙĦ Ø¨ÙĨ
ĠØª ÙĪÙĬØªØ±
999 66
Ø± ÙĥØ©
ĠØ§ÙĬ Ø¶Ø§
Ø§ÙĬ ÙĪ
n B
ĠØ§ÙĦØŃ Ø§ÙĦÙĬ
ÙģÙĬ Ùĩ
a il
ĠØ§ÙĦØ·Ø¨ÙĬØ¹ ÙĬØ©
Ġ| |
ÙĥØ± Ø§ÙĨÙĬØ§
ĠØ§ÙĦÙĥØ§ÙĦØ³ÙĬ ÙĪÙħ
ĠØ§ÙĦØ¯ ÙĪØ±ÙĬ
or a
ĠØ§ÙĦØ± Ø¦ÙĬØ³ÙĬ
nØ· Ø§ØŃÙĪÙĨØ©
46 6
ĠØ¥ Ùģ
AF D
05 7
ĠÙģ ØŃØµ
Ġe x
ĠÙĬØŃ ØªØ§Ø¬
, ,
ĠÙĬ Ø¹Ø±Ùģ
ĠØ§ÙĦÙģØ± ÙĨ
Ø± Ø¹
Ø® Ùħ
O S
ĠÙħØ³ Ø¤ÙĪÙĦ
ĠØ¹Ùħ ÙĪØ¯ÙĬØ©
ÙħÙĨØª Ø¯Ùī
ĠØŃØ± ÙĥØ©
57 5
Ø£ ÙĦØ©
ĠØ§ÙĦØ¯ ÙĪØ±
ÙĪÙĬ Ø³
ĠØ£ Ø±Ø¶
ĠØ£ Ø¹Ø±Ùģ
ÙĪ Ø§ÙħÙĦ
n N
nØ§ÙĦ ÙĤ
85 3
ĠØ¨ÙĬ Ø§ÙĨ
ĠÙĨ ÙĪØ±
ĠS h
ĠØ§ÙĦØ± Ø§Ø¨Ø¹
ur e
ĠØªØŃ ÙĪÙĬÙĦ
25 7
ĠØ§ÙĦØ¥Ùħ Ø§Ùħ
ĠØ§ÙĦØ£ Ùĩ
ĠØ£ÙĨ ØŃØ§Ø¡
ĠÙħ ÙĦÙĥ
Ø§Ùħ Ø±
ï» Ł
ĠÙħÙĨ Ø¬Ùħ
ic k
Øµ Ø§Ø±
ĠØ§ÙĦÙħ Ø§Ø¯Ø©
âĢ ľ
94 3
Ø§ÙĦ ÙĨ
ĠØ®Ø· ÙĪØ·
ĠØ· Ø±
Ø³ Ø§Ø¡
ĠØ§ÙĦØ³ Ùģ
nØ§ÙĦ Ø¯Ø±Ø¯Ø´Ø©
2 36
ĠØ¹ÙĦÙĬ ÙĥÙħ
ĠÙĪØ§ÙĦ Ø«
ĠØ§ÙĦ Ø¨ÙĬØ¹
ar d
nØ§ÙĦÙħ Ø²ÙĬØ¯
ÙĪØ¶ ØŃ
E R
ĠØªØ¹ÙĦÙĬ ÙĤØ§Øª
Ø³ ÙĦØ©
ĠØ£ Ø±Ø¨
ÙħÙĪ Ø¯ÙĬ
ĠØ§ÙĦØ³ÙĬ Ø§Ø³ÙĬ
9 17
ĠØ§ÙĦØŃ Ø¨
ĠØ¨Ø§ÙĦ Ø¯
ĠÙĥØª Ø§Ø¨Ø©
ÙĬØ± Ùĩ
ĠØ§ÙĦØ¬ ÙħØ¹
ĠØ´ Ø¨Ùĩ
ĠØªØ³Øª Ø·ÙĬØ¹
ĠØ§ÙĦØ«ÙĦØ§Ø« Ø§Ø¡
ĠØ¨ Ø±ÙĬ
Ø¦ Ø§Ø³Ø©
ĠØ§ÙĦÙĤ ÙĦØ¨
ĠÙĦÙħ Ø³
ĠÙĤ ØµØ©
Ø²ÙĬ Ø§Ø¯Ø©
ĠÙĬÙĨ Øª
ĠØ¯ Ø®ÙĪÙĦ
Ħ ÙĪ
ĠÙħ Ø§ÙĨ
Ù ĦÙĪ
94 8
ĠØ§ÙĦÙĥ ÙĬÙħÙĬ
ĠÙħ Ø§Ø³
04 4
F B
ĠØºØ³ Ø§ÙĦØ©
ĠØ§ÙĦÙħ ÙĪØ¬ÙĪØ¯Ø©
ĠØª ØªØŃ
ÙĬØ± ÙĬØ©
ĠØµ Ø§ÙĦØŃ
ĠØ¨Ø· Ø±ÙĬÙĤØ©
r ess
ÙĨØ¯ ÙĪÙĤ
9 00
ĠØ§ÙĦÙħØ®Ø±ÙĪØ· ÙĬØ©
ĠØª Ø¨ØŃØ«
ĠØ§ÙĦØ¹ ÙĦÙĬØ§
ÙħÙĬ Ø§Øª
04 6
ÙħÙ Ģ
n D
ĠØ³ ÙĬÙĨ
Ø§Ø¯ Øª
ĠØ¨ÙĨ Ø§Øª
ĠÙĬ Ø¨
Ø´ Ø§Ø±Ø§Øª
ØªÙĪ ÙģØ±
ĠØ§ÙĦØ¹ ÙħØ§ÙĦ
ĠØ§ÙĦØ¨ÙĬ Øª
ĠÙĤØ· Ø¹Ø©
ĠÙĨ Ø§Ø¦Ø¨
ĠØ§ÙĦØ¯ÙĪÙĦ ÙĪÙħÙĬØª
16 4
ĠØ§ÙĦØª Ùħ
ĠØ³ Ø¨ØŃ
ĠØ§ÙĦÙĦ Ø§Ø²ÙħØ©
ĠØ¨ Ø´Ø±
0 14
ĠÙĦÙĦ Ø±
ĠØ¨ Ø°ÙĦÙĥ
ĠÙĦ ØªØ±
999 57
ĠØ§ÙĦÙĩ Ø¯
Ø§Ùģ Ø¹
ĠØ¥ Ø¨Ø±Ø§ÙĩÙĬÙħ
ĠØªØ± ØªÙĬÙĦ
ĠØ§ÙĦØ®ÙĦÙĬ Ø¬
16 5
ÙĦÙĬ Ø³
ÙĨØ¯ Ø³
ÙĨ Ø§Ø¦ÙĬØ©
ĠØ´ Ø¹
ĠØ§ÙĦØ¬ ÙĬØ´
Ġ Ð
ĠÙģ ÙĪÙĦ
20 19
ĠØ§ÙĦØ¯ ÙģØ¹
ĠÙģ Ø§ÙĨ
Ùģ Ø§Ø¯Ø©
r ad
1 36
07 5
l l
95 8
ĠØª ÙĪØ¬Ø¯
ĠØ§Ùĥ Ø«Ø±
ĠØ§ÙĦØ¥ Ø³Øª
ĠØ§ÙĦØ£ÙĪØ± ÙĪØ¨ÙĬ
ces s
Ø±ÙĬ Ø¬
ĠÙħØ´ Ø§ÙĥÙĦ
ĠØ§ÙĦØ£ Ø¬ÙĩØ²Ø©
ĠØ± Ø¬ÙĦ
ÙĨØ³ Ø§Ø¡
ĠØ§ÙĦÙģ ÙĨÙĬØ©
ĠØ§ÙĦØ¯ ÙĪØ±Ø©
ĠØ¸ Ù
Ø² Ø
Ø²Ø §
ĠØ¥ ÙĦÙĥØªØ±
ÙĤ Ùģ
ĠØ¥ Ø·Ø§Ø±
ĠØ§ÙĦØ³ ÙģØ±
ĠØ¸Ù Ħ
ĠÙĪØ§ÙĦ ÙħØ±
ĠØ§ÙĦØ¹ Ø¯Ø¯
15 4
ĠÙĦ Ø¹
ĠØ§ÙĦÙħØŃ ØªÙĪÙī
ĠØº Ø±Ùģ
ÙĪ Ø®
ion s
p ort
ĠØ§ÙĦØª Ø¨
ĠÙĪØ¹ ÙĨ
ĠÙħØªÙĪ Ø³Ø·
m in
ØŃÙĤ ÙĤ
Ø³ Ùĥ
ĠØ´ ØŃÙĨ
ĠÙĪ Ø³Øª
Ġ 45
ĠØºØ± ÙģØ©
ĠØ¨Ø¯ Ø¡
Ø¸ Ùģ
Ø¯Ø± Ø§Øª
ÙĬ Ø¶
ĠØ§ÙĦÙħØ³ ÙĦÙħÙĬÙĨ
ĠØµ ÙĪØª
ĠØ¨ ÙĪÙĥ
nØ£ ÙĨ
ĠØ§ÙĦÙħÙĪ Ø³Ùħ
Ġ ad
ĠØ§ÙĦØ³ Ø¨Øª
Ø¶ ÙħØ§ÙĨ
1 05
ĠØ§ÙĨØ¯ ÙĪÙĨÙĬØ³ÙĬØ§
ĠÙħØµÙĨØ¹ ÙĬ
ĠØ§ÙĦØ±ÙĤÙħ ÙĬØ©
ĠØŃÙħ Ø§ÙĬØ©
lo ad
Ùĥ ØªØ¨
ÙĨÙĬ ÙĪÙħ
ĠÙĤØ± Ø§Ø±
l d
ÙħÙĪ Ø²
999 77
Ø´ Ø§Ø·
Ø¯ÙĬ ÙĤØ©
y s
ĠØµ ØŃØ©
ĠÙĪØª Ø³
26 7
ĠØ§ÙĦØ£ ØµÙĦ
ĠØ§ÙĦØªÙĨ Ø¸ÙĬÙģ
Ø§ÙĪ ÙĦØ§Øª
ĠØ§ÙĦØ¨ÙĨ Ùĥ
n ÙĪØ¨
ĠØ§ÙĦ Ø±ÙĬ
ĠØ¨ÙĨ Ùĥ
Ø·ÙĦ Ø§Ø¨
Ø¢ Øª
ĠÙħ ÙħÙĥÙĨ
ĠÙħ ÙĩÙħØ©
ĠÙĬ ØŃØ¯Ø«
ÙĬÙħ Ø§ÙĨ
n Ø´Ø§Ø±Ùĥ
ÙĪÙĬ Ø¨
ĠØ¬ Ø§Ùħ
Ø® Ø§Ø±
ĠØ³Ø¨ Ø¨
998 2
ĠØ§ÙĦØº Ø³ÙĬÙĦ
ĠØ§ÙĦÙĥØ¨ ÙĬØ±Ø©
ĠØ§ÙĦÙģÙĦØ³Ø· ÙĬÙĨÙĬ
ÙĦØ§Ùħ Ø§Øª
9 21
ĠÙħÙĨ Ø§Ø·ÙĤ
ĠÙĤ ÙĦØ¨
ĠØ¨Ùĩ Ø°Ø§
ĠØ§ÙĦØ£Ø±Ø¯ ÙĨ
ĠØªØŃ ÙħÙĦ
06 8
Ù ©
ĠØ§ÙĦ Ø°Ùĩ
ĠØ§ÙĦØ¯Ø± Ø§Ø³Ø§Øª
10 3
ÙĤ Ø±Ø©
Ġ1 44
Øª ÙĤØ¯
Øº Ùĩ
ĠØ§Ø¹ Ù
ĠØ§Ø¹Ù Ħ
ow n
ĠÙħ ÙĪÙĦ
98 24
Øª Ø§Øª
n Ø®Ø·
Ġf rom
ĠØ§ÙĦÙħ Ø·ØŃÙĨØ©
ĠØ§ÙĦØ¨ÙĬ Ø§ÙĨÙĬ
ĠØ§ÙĦÙĨ ÙĬ
ĠÙĬ Ø±Ø¬
ĠØ§ÙĦØ®Øµ ÙĪØµÙĬØ©
ĠÙħØ¯ Ùī
Ø§Øª Ùĥ
ĠØ§ÙĦØ§ÙĨ ØªØ§Ø¬
ic al
ĠØ±ÙĬØ§Ø¶ ÙĬØ©
67 5
ÙĪÙĦ ÙĬØ©
ct ed
ĠÙĨ ØŃ
ÙĪ ÙģÙĬ
ĠØ®ÙĦ ÙģÙĬØ§Øª
ĠÙĬØŃ Ø¨
ĠØªØ¬ Ø¯
Ġ ï
ĠØª Ø¬Ø±Ø¨Ø©
s a
ĠØ§ÙĦÙĪ Ø§ØŃ
9 37
ĠØª ÙĪÙĨØ³
ĠØ§ÙĦØ¥Ø³ÙĦØ§Ùħ ÙĬ
ĠÙĦÙĦ ÙħÙĨ
14 6
Ø±ÙĤ Ùħ
Ġ Ø§Ø²
99 34
ĠØ® ÙĦÙĬ
ĠØ§ÙĦØŃ ÙĥÙħ
ĠÙħØŃ Ø§ÙģØ¸Ø©
ĠØŃ ØµÙĦ
Ġ Ø°ÙĩØ¨
ØªØ² Ø§Ø²
ĠÙĪÙĬÙĥÙĬ Ø¨ÙĬ
nØ§ÙĦ Ø¨ØŃØ«
ĠØ§ÙĦØ² Ø¬Ø§Ø¬
ĠH D
Ø§Ø¯ Ø«
nØ³ ØŃÙĤ
nÙĪÙĤ Ø§ÙĦ
Ø§Ø³ Ù
n Ø®Ø§Ùħ
995 4
ĠØ§ÙĦØ§ÙĤØªØµ Ø§Ø¯
999 76
Ø§Ø³Ù Ħ
Ø¦ ÙĬÙĨ
O R
ĠÙĪÙħ Ø¹Ø¯Ø§Øª
ĠØ§ÙĦØµÙĨ Ø§Ø¹Ø©
Ùĭ .
Ġ ;
T M
ĠØ¨ÙĨ ÙģØ³
14 4
m e
Ø° ÙĪØ±
99 25
ĠØª Ø¬Ø§Ø±
99 27
w e
ÙĨØ§ ØµØ±
ĠØ§ÙĦÙģØ± ÙĨØ³ÙĬØ©
ĠØ§ÙĦØ¨ÙĬ Ø¦Ø©
ĠØ§ÙĦÙħ ÙĥØ§ÙĨ
ĠØ§ÙĦØ¨ Ø¹Ø¶
ÙĥØ§ÙĦ ÙĬÙģ
ÙĬ Øµ
Ù ¤
ĠÙĥ Ø±ÙĪ
ĠÙħ Ø¸
Ù £
ÙħØ§Ø± Ø³Ø©
ĠØ¹ Øµ
8 36
ĠØ§ÙĦØµ ÙĪØª
ĠÙĪØ§Øª Ø³Ø§Ø¨
ĠØ§ÙĦÙħ Ø¬ÙħÙĪØ¹Ø©
ĠØ§ÙĦÙĨ Ø´Ø±
ĠØ§ÙĦØ¹ Ø§ÙĦÙĬ
i en
14 7
s o
ĠØ§ÙĦÙħ Ø´Ø§Ø±ÙĥØ©
Ġ un
ĠØ¹ Ø³
nØª ÙĨ
ĠÙĨÙĤ Ø·Ø©
67 7
Ø§Ø· Ø©
ĠØ§ÙĦØ¯Ø± Ø§Ø³Ø©
Ø¯ Ø§Ø¡
ĠÙĬØ¤ Ø¯ÙĬ
n Ø·ØŃÙĨ
ĠØ§ÙĦØ¬ ÙħÙĬØ¹
ØªÙĦ Ø§Ùģ
Ùĩ Ø°Ø§
ĠØ¯ Ø§Ø¦Ùħ
ĠâĢ «
Ø¶ ØºØ·
ĠØ§ÙĦÙħØ¬ Ø§ÙĦ
ĠÙĪ Ø±Ø¯
Ġ la
Ø±ÙĤ Ø§Ùħ
ĠÙĬØª Ø¹ÙĦÙĤ
ĠÙħ Ø¨Ø¯Ø£
Ø§Ø° Ø¬
ĠØ§Ùĥ Ø³Ø³ÙĪØ§Ø±Ø§Øª
for m
Ø« Ø¨ÙĬØª
ĠÙħ Ø·Ø±ÙĤØ©
ĠÙĦ Ø¹Ø§Ùħ
ĠØ§ÙĦØªØ¹ Ø§ÙĪÙĨ
Ġm ill
ĠØ´ Ø§ÙĩØ¯
ĠØ§ÙĦØ£ Ø¹ÙĦÙī
t d
A N
999 35
ĠÙĦÙĦ ØªØ¹
Øµ Ø¯Ø±
ĠØªÙĨ Ø¸ÙĬÙħ
Ø´ ØŃ
ÙĨØ§ Ø·ÙĬ
Ø¢ ÙĦØ§Øª
ÙĥØª ÙĨØ§
ĠØ§ÙĦØ· Ø±ÙĬÙĤØ©
Ø® Ø§ÙĦ
1 35
ĠØ§ÙĦ Ø§Ø¬
n Ø¨ÙĬØ¹
99 17
ĠÙĦ ØªÙĪ
ĠÙĦØ¬ ÙĨØ©
ÙĥÙĨ Ø¯Ø±
ph p
Ø¬Ø±Ø§Ø¡ Ø§Øª
ĠØ§ÙĦØ³ Ø§Ø¨ÙĤØ©
ĠØª Ø¹Ø±Ø¶
ĠØµ ÙĬ
ÙĦØ§ÙĦ Ø©
ÙĪÙĦ ÙĬØ¯
ĠØª ÙĬ
nØ¢ ÙĦØ§Øª
ĠØŃÙĦ ÙĪÙĦ
ĠØ§ÙĦØºØ° Ø§Ø¦ÙĬØ©
ĠÙĨ ØµÙģ
ÙĦÙģ Ø²ÙĬ
ĠØª Ø·Ø¨ÙĬÙĤØ§Øª
ĠØ¨Ø± Ø¬
Ġ Ø§Ø°Ø§
83 2
Ø² Ùĩ
ĠØ§ÙĦÙĤ Ø³Ùħ
ĠØ§ÙĦØ± Ø§Ø¦Ø¯Ø©
87 8
ĠÙĪ Øº
ĠØ¬ Ø§Ùĩ
ĠÙĪØ§ÙĦØª ÙĨ
ĠÙĦÙĦ ÙħØ±
67 9
ØµÙģ ØŃØ©
a z
98 88
ĠÙĪØª Øª
ĠÙĪ Ø«
Ø§Ø± ÙĤ
du ct
Ø¶ ÙĬÙģ
ĠØŃØµ Ø§ÙĨ
ĠØ¹ÙĦÙĬ ÙĩÙħ
ĠØ§ÙĦÙĪ Ø³
Ø³ÙĬÙĤ Ùī
ĠâĢ İ
Ø§Ø¹ Ùĩ
ĠÙĦ Ø°Ø§
ĠØ§ÙĦØ®ÙĬ Ø§Ø±Ø§Øª
ĠØ§ÙĦÙħ Ø°
ĠØ¨ ØªØŃ
ĠØ¹ Ø§Ø¯Ø©
Ø¬ Ø§Ø¯
Ø¯ Ø§Ø±
ĠÙĬ ÙĪØ³Ùģ
ØºÙĨÙĬ Ø²
Ø§ÙĬ ÙĬØ±
ÙĨ Ø§Ùĩ
ĠÙħ ØµÙĨ
Ùģ ÙĬØ¯
99 996
nØ· Ø±ÙĬÙĤØ©
ÙĤÙĬ ÙĤÙĬ
p an
ĠØ§ÙĦÙĤØ¯ Ø±Ø©
ĠØ§ÙĦÙħ Ø¨ÙĬØ¹Ø§Øª
ÙĤ Ø§Ø¦ÙĤ
ĠØªØ¹ Ø¯ÙĬÙĦ
as s
ĠØ§ÙĦØ¬ ÙĬ
ÙĪØ± ÙĪ
ĠØ§ÙĦÙħØ« Ø§ÙĦ
ĠÙĪØ§ÙĦ ØªØŃ
Ø· Ø±Ø©
n Ø§Ø±
ĠØ§Øª ÙģØ§ÙĤ
ĠÙĥ ÙĬÙĨÙĬØ§
ĠØ¬ ÙĪØ¬ÙĦ
ĠØ§ÙĦØ¹ ÙħÙĬÙĦ
ĠØ§ÙĦÙĤØ· Ø§Ø¹
ĠØ« Ø§ÙĨ
ĠØ§ÙĦØŃØ± Ø§Ø±Ø©
ĠØ£Øµ ØŃØ§Ø¨
ÙĩÙĦ Ø§Ùĥ
ĠØ« Ø§Ø¨Øª
ĠØ§ÙĦØ¬ ÙĪ
ĠØ§ÙĦØ§Ø¨ØªØ¯ Ø§Ø¦ÙĬ
06 4
ĠÙĪÙĬ ØªÙħ
ĠÙĪÙģ ÙĤØ§
997 19
t ag
ĠØ§ÙĦØ·ÙĦ Ø§Ø¨
nÙħ Ø§Ùĥ
ĠØ§Ùģ ÙĦØ§Ùħ
ĠØ³ Ùĥ
ĠÙħØ¹ Ùĩ
ĠÙĥ ÙĨ
Ø² ÙĪ
ĠØ§ÙĦØ¨Ø± Ø§ÙħØ¬
Ø§Ù ī
ĠØ§ØŃ Øª
999 25
Ø§Ø³Øª ÙĬÙĥ
Ø£ Ø«ÙĬØ±
ĠØ§ÙĦÙĪØ· ÙĨ
ĠØª ØºØ°ÙĬØ©
Ø¯ÙĬÙħ ÙĤØ±Ø§Ø·
or k
99 16
99 04
23 9
Ø´ Ø§Øª
ĠØ§ÙĦØªÙĨ ÙħÙĬØ©
ĠÙĦÙĩ Ø°Ùĩ
Ø¹ Ùĩ
on g
ĠÙĬÙĪÙħ ÙĬØ§
ĠØ§ÙĦØ¨ Ø±ÙĬØ·
ÙĨØ§Ø·ÙĬ Ø³ÙĬ
07 7
ĠØ§ÙĦØ±Ø³ ÙħÙĬ
ĠØ§ÙĦÙħ Ø¨Ø§
ĠØ¥ Ø¹
ÙĪ Ø§Ùĥ
Ùĩ ÙĢ
Ø§ÙĦ Øº
ã Ģ
57 6
22 74
ĠØªØŃ Ø³ÙĬÙĨ
ÙĪ ÙĬØ§
ĠØ§ÙĦØ£Ùħ ÙĪØ±
ĠØ§ÙĦÙħØ³Øª ÙĤØ¨ÙĦ
Ø±ÙĬ Ø¨ÙĬØ©
9 09
n Ø´Ø±
ĠØ« Ø§ÙĨÙĬ
en s
997 0
76 4
ĠØ§Ø« Ø§Ø«
Ø´ Ø§Ø¨
ĠØ§ÙĦØ§Ø³ ÙĦØ§Ùħ
ĠÙĪØ§ÙĦ Ù
nÙħÙĤ Ø§ÙĦØ§Øª
ĠÙĨÙĤ ÙĪÙħ
99 26
e y
ĠÙħÙĪ Ø§ØµÙģØ§Øª
ĠÙĪØ§ÙĦÙ Ħ
Ø° ÙĨ
ÙĦØ³ Ø©
ow er
ÙĤØ± Ø£
Ø¨ ØªØ¯
11 8
Ġ 75
93 2
999 64
ĠØ§ÙĦÙĨ ÙĪÙħ
57 7
nR e
ĠØ§ÙĦÙħ ØµØ±
ÙĤ ÙĪÙħ
Ø§Ø² ÙĬÙĦ
999 88
ÙĪØµ ÙĬÙĦ
Ø¨ ÙĪØ±
ĠÙħØ¯ Ø§Ø±
ĠØ¥ Ø³Ø±Ø§Ø¦ÙĬÙĦ
ĠØ§ÙĦÙħØ± ÙĪØ±
ĠØ¨ Ø³Ø±Ø¹Ø©
ĠØ¨Ø³ Ø¹Ø±
ÙģÙĬ Ø¯ÙĬÙĪ
ĠÙĥ ÙģØ§Ø¡Ø©
ĠØ§ÙĦÙĥ ÙĦÙĬ
ĠD e
ĠØ§ÙĦØ¯ÙĪÙĦ Ø§Ø±
ĠØ²ÙĬ Ø§Ø±Ø©
ĠØ§ÙĦ Ø
ĠØ§ÙĦØ §
ĠØ§ÙĦØ¬ÙĨ ÙĪØ¨ÙĬØ©
3 35
ĠÙħ ÙĤØ±
ĠØ§ÙĦ Ø§ÙĬ
Ø§Ø³ ÙħÙĨØª
ĠØªØ³ ÙĪÙĤ
Ġ 36
99 24
Ġ !
06 5
Ø²Ùħ Ø§Øª
Ø§ÙĦ Øµ
ĠÙĦÙĦÙħ Ø¹Ø¯Ø§Øª
1 26
m s
56 7
Ø±Ø¬ Ø§ÙĦ
ĠÙħØ± ØŃÙĦØ©
9 10
Ø¦ ÙĬØ©
in a
Ø§Ø¦ Ø²Ø©
ĠØ¨ ÙĥÙħ
ĠØ¨ ØŃÙĬØ«
ĠØ§ÙĦØ£Ø±Ø¨Ø¹ Ø§Ø¡
Ġ are
ĠÙĦÙĦ Ùĥ
ĠØª ÙĤÙĬÙĬÙħ
ĠÙĬ ÙĪÙģØ±
Ø§Ø¦ ÙĨØ§
Ø± Øª
Ø¬ ØªÙħ
Ø§Ø¨ ØŃ
ĠÙģØ± ÙĨØ³Ø§
ĠØ§ÙĦÙĥ ÙģØ§Ø¡Ø©
Ġ it
ĠØ§ÙĦØ£ Ø¨ÙĬØ¶
ĠÙħØŃØ· Ø§Øª
00 7
Ùĩ ÙĨ
ĠÙĥ ÙĬØ±
ĠØ§ÙĦÙħ ÙĬÙĥ
Ø§ÙĪÙĦ ÙĬÙĨ
ĠØ³ÙĬ Ø§Ø³Ø©
ĠØ¥ Ø¹Ø¯Ø§Ø¯
8 87
Ø¹ ÙĪÙĨ
ĠØ¥ Ø·ÙĦØ§ÙĤ
ĠØ§ÙĦØªÙĤ ÙĨÙĬØ©
ÙĪÙĤ ÙĬØª
ach in
ĠÙĥÙĬÙĦ ÙĪ
ĠÙĪ Ø§Ø®
Ø±Ø¨ Ø§Øª
ĠÙĪØ¨ Ø§ÙĦØªØ§ÙĦÙĬ
ĠÙħØ² Ø¯
11 0
ĠØ£ Ø·
ÙĪØ§ØŃ ÙĬÙĨ
ĠØ§ÙĦØªØ¬ Ø§Ø±ÙĬ
ĠØ§ÙĦØ£ Ø¨
ĠÙĥ ÙĪØ¯
at or
ÙĪ ÙĥÙĬ
Ø±ÙĬ Ø¨Ø§
ĠØ§ÙĦØ£Ø³ ÙĪØ¯
ĠØ´ ÙĩØ§Ø¯Ø©
Ø§Ø¦ÙĬ ÙĦÙĬ
ĠØ¸ ÙĩÙĪØ±
ĠÙĪØ§ÙĦ Øº
ĠÙĦØ¯ÙĬ ÙĩØ§
93 8
n Ø§Ùħ
ĠÙĥØ« ÙĬØ±Ø©
a i
ĠÙħØ¨ Ø§Ø±ÙĬØ§Øª
Ø§ÙĬ ÙĬÙĨ
99 31
ĠØ³ÙĬ ÙĥÙĪÙĨ
Ø±ÙĪ Ø
Ø±ÙĪØ §
nØ§ÙĦ Ø¹
ÙĬÙĨ ÙĪ
ĠÙĬØ£ ØªÙĬ
ÙĪØ± Ùĥ
Ø¯Ø± Ø§Ø³Ø§Øª
ï» ¿
ĠØªØŃ ÙĦÙĬÙĦ
la y
ĠÙħÙĪ Ø¹Ø¯
ĠØ§Ø® ØªØ¨Ø§Ø±
ĠØ§ÙĦØŃ Ø¬
ĠÙĪØŃ ØªÙī
er e
ÙĤØ¯ ÙĬØ±
Ġpro te
ĠÙħØ± Ø¶
ÙĪÙĤ Ø©
Øª Ø©
Ø®ÙĬ ØµØ©
y r
ĠÙĦ ÙĥÙĬ
ĠØ¹Ø¨Ø¯Ø§ÙĦ ÙĦÙĩ
Ġ 80
Ø§Ø¦ ÙĤØ©
ĠÙħÙĬ Ø§Ùĩ
ĠØ¹ÙĦ ÙĪÙħ
ĠØ§ÙĦØªØ±Ùĥ ÙĬØ©
Ġ ØŁ\
999 84
ĠÙĪØ§ÙĦ Ùĩ
ĠØ§ÙĦØ¹ Ø§ØµÙħØ©
ĠÙĥ ÙĪØ±Ø©
ĠÙħØµ Ø·ÙģÙī
ÙĨ ÙĪÙĨ
à ¸
ĠÙĨÙĬ ÙĪØ²
Øµ Ø§Øµ
ĠØ§ÙĦÙħ ÙĤØ¯
ÙĪØª ÙĬÙĨ
Ø§Ùĩ ÙĬ
ĠØ£ Ø³Ø¨Ø§Ø¨
ĠÙĦÙĦØ£ Ø·ÙģØ§ÙĦ
ÙħÙĨ ØŃ
) {
ĠÙħØ³ Ø§ØŃØ©
ĠØ§ÙĦÙħ Ø§Ø¶ÙĬØ©
ĠØ§ÙĦØ³Ø§Ø¯ Ø³
ng lish
0 25
ĠØ§ÙĦØŃ Ø§ÙĦØ©
57 9
Ø± ÙĬÙĨ
Ø§Ø²ÙĦ Øª
ĠØ§ÙĦØµ Ø±
nM ore
ĠØ³ÙĬ ØªÙħ
05 4
ĠØ§ÙĦØ§Ø³ Ùħ
ĠØ§ÙĦØª ØµÙĨÙĬØ¹
Ø§Ø¯ Ùī
ĠÙħÙĨ Ø®ÙģØ¶
Ð °
Ø§Ùĥ Ø©
ĠØ§ÙĦØ¯ Ø¹Ùħ
ĠØµ ÙĦØ©
ĠØ£ Ø³Ø¨ÙĪØ¹
22 3
ĠØ§ÙĦØº Ø±Ø¨ÙĬØ©
ĠØ§ÙĦØ£Ø¬ÙĨ Ø¨ÙĬØ©
ĠØ§ÙĦØ¨Ø´Ø± ÙĬØ©
Ġth at
im e
1 30
ÙĬØ¯ Ø±ÙĪ
ĠÙħ Ø¹Ø±Ùģ
ØªØŃ Ø§ÙĨØ§Øª
ĠÙĤ Ø§Ø¹Ø¯Ø©
ĠÙģ ÙħÙĨ
ĠG oogle
ĠØº Ø§ÙĨØ§
ĠØ§Ø³ ØªØ±
ĠØ¨Ø· Ø§ÙĤØ©
ĠØŃ ÙħÙĦ
a ve
et e
ou s
ĠØ´ Ùĥ
1 34
ĠØª Ø¨Ø¯Ø£
11 2
an k
ĠØ§ÙĦØ¥ Ø±
ÙĤØ¨ Ø§ÙĦ
ĠØ§ÙĦÙģÙĥ ÙĬØ©
ĠÙĦ Ø§ØŃ
06 7
ĠØ§ÙĦÙģ Ø±ÙĬÙĤ
ĠØ§ÙĦØ´Ø§Ø± ÙĤØ©
Ø¯Ø± Ø¬Ø©
Øª ÙħÙĦ
ÙĬ Ø¬Ø§Ø±
Ø¨Ø¯ Ø§ÙĦ
ĠØ£ Ø¨Ø±Ø²
ĠØ§ÙĦ Ø§Ø±Ø¯
ØªØ¨ Ø§Ø±Ø§Øª
57 4
ĠØ¶ Ø±
ĠÙĦ ÙĪÙĨ
ÙĬÙģ Ø§Øª
ĠØ§ÙĦÙĩÙĨØ¯ Ø³Ø©
ĠØ§ÙĦØ° Ø§Øª
20 18
ĠØ£ÙĬ Ø§Ø±
ÙĪØ³ ÙĪØ¹Ø©
ĠÙĬ Ø±ÙĬØ¯
ĠØ± ÙĪØŃ
ĠØ¨ ÙĨØª
Ø¯ ÙĪØ§Øª
ĠØ³ ÙĩÙĦØ©
ÙĪ Ø§Ùħ
ĠÙĪØ§ÙĦ ØªØ±
ĠÙħÙĤ Ø§Ø±ÙĨØ©
ĠØ§ÙĦØŃØ± ÙĥØ©
ĠØªØŃ Ø¯Ø«
20 1
ÙĥÙĦ Ø§Øª
96 2
ĠÙĦØ¥ ÙĨØªØ§Ø¬
ÙĬÙĦ Ùħ
ĠØŃ Ø´Ø±Ø§Øª
ĠØ§ÙĦØ¹ Ø²ÙĬØ²
ĠØ§ÙĦÙħ Ø¹Ø±ÙĪÙģ
87 3
ĠØ± Ø§Ø¦Ø¹Ø©
Ø±Ùĥ Ø§Øª
ĠÙĪØ¨ ÙĬÙĨ
Ø§Ø¦ Ø²
21 1
nÙĤ Ø§ÙĦ
998 04
ĠØ§ÙĦØ¥ ÙĬØ±
ĠØ§ÙĦØ§Ø´ ØªØ±Ø§Ùĥ
S S
as e
Ø« ÙĦØ©
ÙĥÙĨØ¯Ø± ÙĬØ©
17 7
Ø¹ÙĨ ÙĪØ§ÙĨ
ĠØ§ÙĦÙħ Ø´Ø±
ĠÙĪØ§ÙĦÙħ ØŃ
ĠØª Ø·
n In
Ø¬ Ø§Ùħ
ĠØªØ£ Ø¬ÙĬØ±
ĠØ§ÙĦØªÙĤ ÙĦÙĬ
ĠØ§ÙĦØ³ÙĦ Ø·Ø©
ĠÙĦÙħ Ø¹
Ø§Ø¦ Ùĥ
ĠÙĪ Ø±ÙĤ
nØª ÙĥÙĦÙģØ©
Ø° Ø§Ø±
ĠØ£Ø¯ Ø§Ø¡
ĠÙħØŃ Ø§ÙģØ¸
ĠØ§ÙĦÙĦ ÙĪÙĨ
m er
ĠØ§ÙĦÙħØŃ ÙĦÙĬ
ĠØ£ ØµÙĦ
ĠÙĦ Ø®Ø§Ùħ
ĠØ§ÙĦÙĩ ÙĬØ¦Ø©
ĠØ± Ùĥ
ĠÙħ ÙĥØªØ¨Ø©
ĠÙĦÙĦ Ø¨ÙĨ
ĠØ§ÙĦÙĥØ± ÙĪÙħ
ĠÙħÙĨ Ø§Ø³Ø¨Ø©
ØªØµ Ø§Ø¯ÙĬØ©
ĠØ¹ ÙĬÙĨ
ĠØ· Ø±Ùģ
ĠØ§ÙĦØ§Ø± ØªØ¨Ø§Ø·
ĠØ§ÙĦØ® Ø¨Ø«
ĠØ§ÙĦÙĥ Ø¨Ø±Ùī
Ġ20 09
nÙĤ Ø§Ø¦ÙħØ©
Ø§Ùģ ÙĤØ©
Ġ- -
ĠØ³ Ø¹Ø¯
ĠÙĪÙĦ ÙĪ
ĠØ¨Ø§ÙĦÙĥ Ø§ÙħÙĦ
11 3
ĠØ§ÙĦØ£ ØŃÙħØ±
ĠÙĦØ§Ø¨ ÙĨ
ØºÙĦ Ø§ÙĤ
ĠØ´Ø± ÙĤ
08 1
ĠÙħ Ø±Ùĥ
ĠÙħ Ø³Ø¨
ĠÙĪ Ø§Ø¹
Ø§Ø¯ ÙħØ©
ÙĬ ÙĪÙĨ
ĠÙģ ÙĩÙħ
ĠÙĪÙĥ Ø§ÙĨØª
ĠØºÙĦ Ø§ÙĬØ©
§ Ø´Ø±
ĠØ§ÙĦØ² ÙĪØ¬
ĠØ¨ ÙĥØ±
ĠÙĪ Ø§Ø±
Ùĩ Ø¬
Ø¬Ùĩ Ø§Ø²
ĠØª Ø¸ÙĩØ±
Ø §Ø´Ø±
Ø± Ø²
ĠØ§ÙĦØ£Ùħ Ùħ
i b
n ØªØ±
ØªÙĪ ØŃ
31 8
Ø¹ÙĨ Ø§ÙĬØ©
Ø§ÙĨ Ùī
nÙĦ Ù
ĠÙĪÙĬÙĥÙĬØ¨ÙĬ Ø¯ÙĬØ§
nÙĦÙ Ħ
Ġw h
Ø¦ ÙĪÙĨ
ĠØ§ÙĦØ§ÙĦÙĥ ØªØ±ÙĪÙĨÙĬ
ĠØ§ÙĦØ³ ÙĪØ±ÙĬØ©
999 47
ĠØ§ÙĦØ¬ ÙĬØ±
ĠÙĦ ÙĬÙĨ
999 55
16 7
Ġ %
nØ§ÙĦ Ùĥ
ĠÙĪÙħ Ø³
ĠÙĦÙĬ Ø¨ÙĬØ§
n ÙĥÙĦ
ĠØ§ÙĦÙĦ Ø¹Ø¨Ø©
Ġprote cted
ĠØ§ÙĦÙģ Ø¹
S T
ĠØ§ÙĦÙĤ Ø§Ø¦ÙħØ©
f o
ĠØ§ÙĦØ£ Ø²
ĠÙĦÙĦ ØªØŃ
ĠØ¹ Ø§ÙĦÙĬ
ĠÙħ ÙĩÙħ
ØªØ± Ùģ
10 2
ĠØ§ÙĦØ´Ø®Øµ ÙĬ
ĠØ§ÙĦØ¹Ø³ ÙĥØ±ÙĬØ©
ĠÙģØ¥ÙĨ Ùĩ
ĠØ§ÙĦØŃ Ø³
ĠØ§ÙĦØ£ ÙģØ¶ÙĦ
Ø® Ø§Ø°
Ø® ØªÙĦÙģ
ĠØ§ÙĦÙĦ ØŃ
ĠØ§ÙĦÙħØª Ø¹ÙĦÙĤØ©
1 07
84 3
U R
ĠØ´Ø± ÙĪØ·
ĠT h
ĠÙħ ÙĥØ©
ĠØ§ÙĦØ¹ÙĨ Ø§ÙĬØ©
ĠØ§ÙĦØ´ ØŃÙĨ
ĠÙħÙĨ Ø²ÙĦÙĬØ©
Ø§Ø±ÙĬ Øª
20 15
ĠÙĤ ÙĦÙĬ
ïº İ
995 8
ĠØ§ÙĦÙģÙĦØ³Ø· ÙĬÙĨÙĬØ©
ĠØ§ÙĦØ¹ Ø§ÙĦÙĬØ©
Ð ¾
ĠØ¨Ø³ ÙĩÙĪÙĦØ©
Ùĭ .\
ĠÙħØŃ ÙģÙĪ
ÙĥØª Ø§Ø¨
ĠØ¨ Ø¹ÙĬØ¯
ĠØ§ÙĦÙĤ ÙĩÙĪØ©
ĠØ§ÙĦØ³ ÙĥØ±
. âĢı
in ing
Ø¸ Ø§Ø±
ĠØ§ÙĦØ¹ÙĦ Ø§ÙħØ©
ĠØ§ÙĦØ· ÙĪØ¨
e p
ed ia
24 3
ĠØ§ÙĦÙħ ÙĬÙĦ
ĠØ³ Ø±ÙĬØ¹
12 3
ĠÙ¢ Ùł
ĠØ§Ø® Ø¨Ø§Ø±
999 36
ĠÙħØ¬ ÙĦØ©
ĠÙĪ ÙĬØ±
ĠØ¯ Ø§Ø®
Ø¢ Ø®Ø±
Øº Ø§Øª
s ite
ĠÙħØŃÙħ ÙĪÙĦØ©
ĠÙħ ÙħÙĬØ²Ø©
ĠØ§ÙĦÙħÙĪ Ø§Ø¶ÙĬØ¹
la ss
ĠÙħÙĪÙĤØ¹ ÙĨØ§
ĠÙħ ÙħØªØ§Ø²
Ġ 00
Ø±ÙĬ Ø·Ø©
ĠÙĥ ÙĪÙħ
Ù «
nØ¨ Ø¹Ø¯
ĠÙĪ Ø§Ø´
Ġco ok
25 3
ÙĪØ§Øª Ùģ
ĠÙģ ØŃÙħ
ĠØªÙĤ ÙĨÙĬØ©
ĠØ¯Ùħ Ø´ÙĤ
ĠØ§Ø® Ø±
Ùģ ÙĨ
ĠØ§ÙĦÙħÙĨ ØºÙĨÙĬØ²
ÙĬ ÙĪÙħ
ĠØ§ÙĦØªØ¹ÙĦÙĬÙħ ÙĬØ©
ĠÙĨ Ø§Ø¯ÙĬ
ĠØ§ÙĦÙĨ Ø¨
ÙĨØ¯ ÙĬØ©
ĠØª ÙĦÙĤ
nØ§ÙĦ ÙħÙĪ
ĠØ§ÙĦØ± Ø§Ø¨Ø¹Ø©
ĠØ¥ ÙĬØ¬
ĠØ§ÙĦÙħØ³ Ø¤ÙĪÙĦ
ĠÙħØª Ø®ØµØµ
ĠÙħ ÙĬØ²
ĠØ§Ø¹ Ø±Ø¶
37 3
ĠÙĨ ÙĪÙħ
Ġ le
ag es
ĠØª Ø´Ø±ÙĬÙĨ
ĠØ£ÙĪ ÙĥØ±Ø§ÙĨÙĬØ§
ĠØ§ÙĦÙħÙĨ Ø§Ø³Ø¨
ÙĪØ¹ ÙĬØ©
ĠØ§ÙĦØ±Ø³Ùħ ÙĬØ©
ĠØ±ÙĬÙħ ÙĪÙĨ
Ø² Ø§Ø¡
ĠØŃ Ø³
ĠØ§ÙĦØµ ÙĬØ§ÙĨØ©
ĠØª ØªØ±
ĠÙĦ ØºØ©
s c
83 3
ĠØ§ÙĦØ±ÙĬØ§Ø¶ Ø©
Ġc rush
04 7
ĠØ§ÙĦØ¨ Ø§Ø¨
ĠØ±ÙĪ Ø§ÙĬØ©
ĠØ£ÙħØ±ÙĬ ÙĥØ§
Ġ https
96 1
ÙĪØ± Ø¬
ĠØ´ ÙĩØ¯
ĠØ¨ ÙĦØ§
n Ø¹ÙħÙĦÙĬØ©
ĠÙĪ ÙħÙĦ
Ø± Ø§ÙĨ
ĠØµ ØŃÙĬ
ĠØ§Ø¬ØªÙħ Ø§Ø¹
ĠØ¨Øª Ø§Ø±ÙĬØ®
ĠÙħ ÙĪØ¨Ø§ÙĬÙĦ
ĠØ§ÙĦØªØ³ ÙĪÙĬÙĤ
35 3
Ùģ Ø§Ø¡
Ø§Ø² ÙĨ
96 9
ØªØ± Ø
ØªØ±Ø §
ĠÙĪÙĬ Øª
Ø· ÙĬÙĦ
Ġ20 08
Ø§Ø¯ Ø¦
ĠÙĬ Ø²ÙĬØ¯
ĠØ¹ Ø·ÙĪØ±
ĠØ´Ø§Ø± Ø¹
22 8
27 3
n O
ĠÙħØŃ Ù
ĠÙħØŃÙ Ħ
ÙĪØ² ÙĬØ¹
ĠØ§ØŃ ÙħØ¯
lo w
Â» ØĮ
ĠÙĥ Ø±Ø§Øª
e xt
Ġ qu
Ø§Ø± Øª
ĠØ§ÙĦØ£ Ø¹
ĠÙĪÙħ Øª
ĠØ¨Ùĩ Ø°Ùĩ
ĠØ§ÙĦØ¥ÙĨ Ø¬ÙĦÙĬØ²ÙĬØ©
ĠÙĦØª Ø¹
f unction
Ġ Ø§ÙĪÙĦ
28 9
ĠÙĪØ§ÙĦ Ø·
ĠÙħ ÙĥØª
ĠØ§ÙĦÙĨÙģØ· ÙĬØ©
ĠÙħ Ø§ÙĦ
Ø¹ Ø
ĠØ§ÙĦÙĨ ÙĤØ¯
ĠØ§ÙĦØ§ØŃØª ÙĦØ§ÙĦ
Ø¹Ø §
Ø² Ø§Ø²
n ÙĤØ¯
Ø¬ ÙĬÙĨ
ĠÙħØ¹Ø¯ Ù
ĠÙħØ¹Ø¯Ù Ħ
Øª Ø¨Ø©
ĠØ¨Ø£ÙĨ Ùĩ
ĠØª Ø§ÙĬ
Ùħ Ø§Ùħ
Ø³ Ø¬ÙĬÙĦ
Ø®Øµ Ø©
ÙĨ ÙĥØ±
un t
99719 25
ĠÙĬØ¬ ÙĪØ²
ĠÙħØ¤ Ø´Ø±
ĠÙĨ Ø¨
ĠÙĥ Ø±Ø¨ÙĪÙĨØ§Øª
ĠØ§ÙĦØª Ùĥ
ØªØ¨ Ø·
Ø¬Ùħ Ø§ÙĦÙĬ
12 8
999 26
23 3
ĠÙħØµ ØºØ±Ø©
Ø£ ÙĥØ¯
n ÙĤØ±Ø§Ø¡Ø©
ĠØ§ÙĦÙħ Ø¹Ø±ÙģØ©
Ø³Ø¨ Ø§Ø±
999 85
Ø¨ØŃ Ø§Ø«
93 9
ĠØ£ ÙĪÙĨ
ÙĪØ§Ø¨ Ø·
nÙħ Ø¹ÙĦÙĪÙħØ§Øª
ÙĤØ· Ø§Ø¹
\" \
ĠØ£ Ø¹Ø¶Ø§Ø¡
4 36
ĠØŃ Ø§ÙĦØ§Øª
Ø§Ùĩ ÙĬØ±
ĠØª ØµÙĨÙĬÙģ
Øµ Øµ
ĠØ§ÙĦØ´Ø± ÙĤÙĬØ©
Ø¨ ÙĦØ©
ĠØ¬ ÙĬÙĨ
ĠØ§ÙĦÙħØª ÙĨ
ĠØ± ØºÙħ
ØªÙĪ ØŃØ©
ĠØ¨Ø§ÙĦ Ø§ÙĨ
or ld
ĠØ§ÙĦØ¨ Ø§Ø±
ĠØ£ ÙħÙĨ
ØªØ± ÙĪÙĨÙĬØ©
ĠÙĪØ§ÙĦ Ø§ÙĨ
ĠØ³ Ø¤Ø§ÙĦ
n H
ĠØ¥ Ø¶
Ø²ÙĬ Ø§Ø±Ø©
ĠØ³Ø± Ø¹Ø©
ind ow
ĠÙħØŃ ØªÙĪÙī
ĠØ±Ø£ ÙĬ
ĠØ§ÙĦÙħÙĨ Ø²ÙĦÙĬØ©
âĢ Ļ
ol d
ĠØ§ÙĦÙĨ Ø§Ø±
ĠØ§ÙĦØ§ÙĤØªØµ Ø§Ø¯ÙĬ
Ġ ]
Ø¹ ÙĪØ¯ÙĬØ©
e mail
ĠØ¨Ùħ ØŃ
ĠØ¨ØŃ Ø³Ø¨
20 8
ĠÙĨ Ø²
ĠØ£ÙĨ Ùĥ
ÙĩØ± Ø¬Ø§ÙĨ
ĠØ¢ Ø³
ĠØ± Ø§Ø¨Ø·
ÙģÙĬ ÙĤ
Ø³ÙĬ Ùĥ
83 8
ĠÙĪØ§Ø³ Ø¹Ø©
ĠØ¨Ø§ÙĦ ÙħÙĨ
ĠØ§ÙĦØ· ÙĬÙĨ
ĠØ§ÙĦØ® Ø²
A T
E N
ĠØªØ± Ùħ
ĠØ¨Ø£ ÙģØ¶ÙĦ
ro w
ĠÙħØ³Øª Ø¹ÙħÙĦ
22 2
ĠÙĪÙħ Ø³Øª
ĠØ§ÙĦÙĪ Ø³Ø·
ĠØ£Ùħ Ø³
ĠØ§ÙĨ Ø
ĠØ§ÙĨØ §
56 4
Ùĩ ÙĦÙĥ
25 0
ĠØªÙĤ Ø¹
Ùħ Ø³Ø©
ĠÙĥ Ø±ÙĬ
Ø§ÙĪ Ø©
ĠØ§ÙĦÙħÙĨ Ø§Ø³Ø¨Ø©
n Ø±ÙĪ
ĠØªÙħ Ø§Ùħ
ĠÙģÙĬ Ø±ÙĪØ³
Ø®Ø· Ø·
9937 2274
ĠØ¥ Ø²Ø§ÙĦØ©
ØŃ ÙĬØ©
Ø§ÙĬ Ùĥ
ĠØªØ´ ÙĥÙĬÙĦ
ĠØ§ÙĦØ§Ø¨ØªØ¯ Ø§Ø¦ÙĬØ©
ĠÙħÙĨ Ø§Ø¬Ùħ
ĠØ§ÙĦÙħØ·ÙĦ ÙĪØ¨Ø©
te m
Ø± Ø§Ø±
Ø¯Ø± Ø§ÙĨ
ÙĥØ± Ø
ÙĥØ±Ø §
ĠØ§ÙĦØ£Ø³ ÙĨØ§ÙĨ
ÙĬØ± Ø§Ø¯
ĠØ§ÙĦØ£ ØŃÙĬ
ĠØ´Ø± ÙĥØªÙĨØ§
ĠØ§ÙĦÙĦ Ø¬ÙĨØ©
Ø±ÙĬØ§Ø¶ Ø©
ÙĨØª ÙĬÙĨ
ÙħÙĪ ÙĬÙĦ
Ø¹ÙĨ Ùī
ĠØ§ÙĦØ¹ÙĦ Ø§ÙĤØ§Øª
ĠØ§ÙĦØ¨ Ø´Ø±Ø©
ĠØ± Ø¤
n line
Ø¹Ø± Ø¨ÙĬØ©
ÙĪÙĥ Ø³ÙĬØª
Ø§Ùģ Øª
ĠØ§ÙĦØª Ø®
n ØªÙĪ
Ø´ ÙĬØ±
Û ©
ĠÙĤ ÙĪÙĦ
ĠØ§ÙĦØª Ø¹Ø¨
ĠØ§ÙĦØ¬ÙĦ Ø¯
ĠØ¨Ø§ÙĦ ØªØ¹
ĠØ³ Ø¬ÙĦ
Ġ ðŁ
Ġ1 20
ÙĪØ¬ ÙĬÙĩ
m o
ĠØ´Ø®Øµ ÙĬØ©
999 37
ĠÙĨ Ø¹
ĠÙĪØ§ÙĦ ØªÙĪ
ĠØ£ÙĦ Ø¹Ø§Ø¨
99 21
Ġ ag
ĠØŃÙģ Ø¸
E T
99 30
47 4
ĠØ§ÙĦØ±ÙĪ Ø³ÙĬ
999 15
nØ§ÙĦ ØªØ¹
ĠÙĦØ£ ÙĬ
ÙĪÙĬ Ùĩ
r ind
ĠØ¨Ø¬ Ø¯Ø©
00 1
ĠØ§ÙĦØŃÙĬ ÙĪØ§ÙĨØ§Øª
ĠÙĨØ´ Ø§Ø·
2 30
ĠÙģØ± ØµØ©
ĠØ¨ Ø§Ø¹
ÙĪ Ø§ÙĨÙĬ
ĠØ§ÙĦØŃ ÙĪØ§Ø±
G P
qu ire
ĠØ§ÙĦÙĥ Ø±Ø¨
ÙĤ Ø³
ĠØª Ø·ÙĪØ±
ĠØ§ÙĦØ£ÙĦÙħ Ø§ÙĨÙĬØ©
Ø¬ ØªÙħØ¹
n ØµÙĪØ±
999 86
Ùħ ØµÙĨØ¹
ĠÙģ Ø§ØµÙĦ
ÙĨØ¯ ÙĨ
ĠÙĬ ÙĪØªÙĬÙĪØ¨
ĠØ§ÙĦÙħÙĤ Ø§ÙĦØ§Øª
ĠØ§ÙĦØ£ Ø«
ĠØ®ÙĦØ§ÙĦ ÙĩØ§
ment s
ĠØ§ÙĦÙħØ³ ØŃÙĪÙĤ
10 8
ĠØ§ÙĦØ§Øµ Ø·ÙĨ
Ø§Ø¯ ÙĪ
Ġw eb
( \"
ĠÙĪØ¥ Ø°Ø§
ĠØ§ÙĦØªØ³ ÙĪÙĤ
Ùĩ Ø§Ùħ
ĠØ§ÙĦØ§Øª ÙģØ§ÙĤ
Ø§ÙĦ Ø´
ĠØµÙĦ Ø§ØŃ
ĠØ£Ùħ ÙĬØ±
Ø±Ø´ ÙĬÙģ
ĠÙĪÙĨ ØŃÙĨ
ĠØ² ÙĬÙĨ
ĠØ§ÙĦÙħ Ùħ
an u
ĠÙĦÙĦ Ø³ÙĬ
ĠÙħÙĨ Ø¸
Øµ Ø±ÙĬ
Ġ 03
ĠÙĦÙĦØª ÙĨ
14 3
ĠÙĥØ«ÙĬØ± Ø
ĠÙĥØ«ÙĬØ±Ø §
ĠØ¥ Ø±Ø³Ø§ÙĦ
ĠÙĦ Ø´Ø±ÙĥØ©
ĠØ· ÙĪÙĬÙĦ
Ġ20 23
ĠØ§ÙĦØ¹ÙĦÙħ Ø§Ø¡
n l
ĠØ§ÙĦØ¬ ÙħÙĩÙĪØ±ÙĬØ©
Ġ en
ĠÙħÙĨ Ø¹
ÙĪÙħ ÙĨÙĬÙĪÙħ
44 5
ĠØ® ÙĦÙĤ
ØŃØ± Ùģ
ĠØ§ÙĦÙģ ÙĨØ§ÙĨ
ĠØ§ÙĦ Ø¯ÙĬÙħÙĤØ±Ø§Ø·
ĠØ³ Ø§ÙĨ
ĠÙħ ÙĬÙĥ
ĠØ§ÙĦÙħ ÙħÙĥÙĨ
ach ine
2 31
ĠÙĪ Ø³ÙĦ
999 45
ĠØªØ´ ÙħÙĦ
ĠØ§ÙĦØª ÙĥÙĦÙģØ©
ĠØ§ÙĦÙħØŃØ¯ ÙĪØ¯Ø©
99 15
ĠÙĥØ³ Ø§Ø±Ùĩ
ĠÙĤ ØªÙĦ
n Øº
ĠØµ ÙĨØ¯ÙĪÙĤ
nÙħÙĨ Ø°
ĠÙĩØ¯ Ùģ
ÙĬÙħ Ø§Øª
ĠØ§ÙĦÙħØ¯ ÙĨÙĬ
22 1
ĠÙħ Ø§Ø°Ø§
ĠÙĦ Ø§ÙĬÙģ
a ck
ÙģØ± ÙĤ
16 8
ĠÙĪ Ø§ÙĤ
Ġc h
ĠÙħÙĨØª Ø¬
Øº Ø§ÙĨ
ĠØ¨Ø§ÙĦ Ø±
ĠÙĨ Ø§ÙĤ
ØŃ Ù
ØŃÙ Ħ
b o
ĠØ§ÙĦÙģ ÙĪÙĦ
999 34
Ø§Ø¯ÙĬ ÙħÙĬØ©
achin ery
ĠØ§ÙĦÙħ Ø¹Ø§Ø±
ĠØªØ¬ Ø¹ÙĦ
ĠØ§ÙĦØª Ø§Ø¨Ø¹Ø©
ĠÙħÙĨ Ø¸ÙħØ©
ĠØ® ÙĬØ±
la nd
Ø´ÙĬ Ø®
ĠØ¯ÙĬ ÙĥÙĪØ±
Ġn ow
Ø±ÙĬ ØŃØ©
ĠØ£ÙĪÙĦ Ø
ĠØ£ÙĪÙĦØ §
ĠÙĪ Ø´Ø±
Ġ 08
Ø´ Ø¯
Ġ 02
ĠØ§ÙĦÙĦ Ø§Ø¹Ø¨
Ùĥ Ø°Ø§
ĠØ¬ Ø§ÙĨ
ĠÙĦØª Ø¬ÙĩÙĬØ²
ØªØ§Ø¨ Ø¹Ø©
ĠÙģ ÙĥØ±Ø©
ĠÙĨÙģØ³ ÙĩØ§
95 1
ĠØ³Ø¹ ÙĪØ¯ÙĬ
0 85
ĠÙĪÙĥ Ø§ÙĦØ©
ØºÙĩ Ø§ÙĬ
ĠØ· Ùģ
Ø³Ø± Ø§Ø¦ÙĬÙĦÙĬ
ĠØ§ÙĦ ÙĪÙĬØ¨
ÙĦÙĬ ÙĤ
ĠÙħ Ø§Øª
ĠØŃØ¯ ÙĪØ«
13 8
ĠØªØ± ØºØ¨
ĠÙĪ ØµÙĪÙĦ
Ø¹Ø¯ Ù
Ø¹Ø¯Ù Ħ
Ø§ÙħÙĦ ÙĬÙĨ
00 8
Ø· ÙĪØ±Ø©
Ø§Ø¦ Ø±ÙĬ
ĠØ´ ÙĬØ¦
ÙħØ ¦
ĠØ§ÙĦØ± Ø¬
nØŃ Ø¬Ø±
Ġ Ú©
ĠA d
ĠÙĪÙħ ÙĪ
ĠÙħØ¹ ÙĬÙĨØ©
ĠAr ab
ĠØ§ØŃ ØªØ±
ĠÙħ Ø±Ø¨Ø¹
ÙĤ Ø¯ÙħØ©
ĠØ§ÙĨ Ø®ÙģØ§Ø¶
ĠØ§ÙĦØªÙĨ ÙģÙĬ
ĠØ§ÙĦÙĨ ÙĪ
95 9
Ġ ac
ĠØ£ Ø«Ø±
ĠØ¬Ø¯ÙĬØ¯ ÙĨØ§
ĠA nd
ĠÙĩ ÙĬÙĦ
ĠØ¨ ØªÙĪ
Øª ØµØ±
ĠØ· Ø§ÙĦØ¨
Ø§Ø³ Ø¨Ø§Øª
27 8
is e
ĠØ§ÙĦØ® Ø±
Ø¨ÙĬ Ø§ÙĨ
ĠÙĨ Ø§ØµØ±
ar ch
nÙħØŃ Ø·Ùħ
g e
ĠÙĪ Ø·ØŃÙĨ
ĠØŃ Ø²Ø¨
erv ice
23 8
ĠØªØ¬ Ø§Ø±Ø©
999 75
ĠÙĦ Ø¥ÙĨ
ĠØ§ÙĦØ£Ø³ ÙĪØ§ÙĤ
Ġ et
ĠØŃ Ø§Ø±
ĠØ§ÙĦØ¹ Ø±ÙĪØ¶
ĠP E
ĠØ§ÙĦØª ØŃØ±
ĠØŃ Ø¯ÙĬØ¯
Ġ 04
ĠÙĪ Ø§Ø¬
ĠØ§ÙĦØ³ Ø±ÙĬØ¹
ĠØ¯ Ø®ÙĦ
Ø¬ ÙĦØ§Øª
ĠØ¹Ø§ÙĦÙħ ÙĬØ©
Ø¬ ÙĪÙħ
13 9
ĠØ¥ÙĦ ØºØ§Ø¡
ĠØ§ÙĦØ¹ Ø«ÙĪØ±
ĠØ§ÙĦÙĬÙĪÙħ ÙĬØ©
ĠØ§ÙĦØ´Ø± Ø§Ø¡
Ø«ÙĤ Ø§ÙģØ©
ĠØ§ÙĦØ³Ø¨ Ø¨
998 84
ic s
ĠØ§ÙĦØ£Ø¯ Ø§Ø¡
ĠØ§ÙĦÙĥ Ø§ÙħÙĦ
âĢ¦ âĢ¦
ĠØ§ÙĦØ¯ ÙĤÙĬÙĤ
ĠÙħÙĨ Ø²
998 85
99 997
ĠØªØµ ÙĦÙĬØŃ
ÙĬÙĨ Øº
ĠØ§ÙĦÙĬØ§Ø¨ Ø§ÙĨ
ĠÙĬ Ø¨ØŃØ«
ĠØ¨Ø· ÙĪÙĦØ©
ĠØ¨ Ø³ÙĬØ·Ø©
Ġ 07
ĠØ§Ø³ØªØ®Ø¯Ø§Ùħ ÙĩØ§
ĠØ§ÙĦÙħÙĥ ØªØ¨
ÙģØ¹ ÙĬÙĦ
ÙħÙĨ Ø¹
ĠØ§ÙĦØª Ùĩ
Ð ¸
17 3
ĠØ®ÙĦ Ø·
ÙĬÙħ Ø¨Ø§Ø¨
ĠP M
Ø§ÙĪ Ùħ
ĠÙħÙĨØª Ø®Ø¨
ĠØ§ÙĦÙĤÙĬ ÙħØ©
nØª Ø¹Ø±Ùģ
ĠØ¬Ø¯ ÙĪÙī
ĠØ§ÙĦØª Ø®ÙĦØµ
Ħ Ø§ÙĬÙĨ
Ù ĦØ§ÙĬÙĨ
ĠÙĦØªØŃ ÙĤÙĬÙĤ
Ø´ Øª
ÙĨ Ø§Ø¦ÙĬ
ĠÙĦ Ø¹ÙħÙĦ
ĠÙħ Ø´Ø§Ø±ÙĬØ¹
Ø³ÙĦ ÙĪØ¨
ĠØ§ÙĦØ® Ø¨Ø±Ø©
s k
ĠÙĦÙħ ÙĪ
ÙĬ ÙĪÙĨÙĬÙĪ
ĠØ¹ Ø§ÙĦÙħÙĬ
ĠØ§ÙĦÙħÙĨ Ø§Ø²ÙĦ
ĠØ· ÙĪÙĦ
ĠØª ÙĥÙĨÙĪÙĦÙĪØ¬ÙĬØ§
ØªÙĥ ÙĪÙĬÙĨ
30 1
ĠØ®ÙĬ Ø§Ø±Ø§Øª
i x
ĠØŃ Ø±Ùģ
ĠØ¨ ÙĩØ¯Ùģ
ĠØ§ÙĦØ± Ø£Ø³
15 3
Ø¨ Ø§ÙĨ
ØªØµ ÙħÙĬÙħ
ĠØŃ Ø§ÙĦÙĬØ§
ĠÙĦØ¯ÙĬ Ùĩ
9 03
Ø·Ø¨ Ø§Ø¡
ÙģÙĬ Ø¯Ø©
Ø¹ Ø§Ø¡
ĠÙĥÙĦ Ø§Ùħ
ĠØ§ÙĦÙħÙĤ Ø¯ÙħØ©
Ø£ Ùħ
Ø§Ø¹ ÙĬÙĦ
ĠÙĪØ§ÙĦÙħ Ø³
36 3
A S
ÙħØ§ Ø´
ĠØ§ÙĦÙĬ Ùĩ
ĠØ§ÙĦÙħÙĨØª Ø®Ø¨
P T
ĠÙĦÙĥ Ø±Ø©
24 2
56 6
âĢ «
ĠÙĨØ³ Ø®Ø©
Øª Ø§ÙĨ
I D
Ù ¨
ĠÙħ ÙĪØ±Ø¯
ÙĪØ¹ ÙĬ
999 05
ĠÙĪ Ø§ÙĬ
55 5
ĠØºØ± Ø§ÙħØ©
ĠØ§ÙĦØ° Ø±Ø©
ĠØ¥ ÙĦÙĩ
ĠÙĦÙħ Ø§Ø°Ø§
ĠØ§ÙĦÙħØª Ø¯
99 07
ĠÙĪ Ø°
ĠØ§ÙĦØ¬ ÙĨØ³
Ùĩ Ø©
ĠÙĤØ§Ùħ Øª
ÙĬÙħ ÙĪÙĨ
e u
ĠØ§Ùĥ Øª
ĠÙĪ Ø¸ÙĬÙģØ©
ÙĤ Ø³Ùħ
47 7
ÙĬØ¯Ø±ÙĪ Ùĥ
17 8
ĠØ§ÙĦØ£ ÙĤÙĦ
ĠØ¹ Ø²ÙĦ
ĠÙĥ ÙĪ
Ħ ÙĨØ¯Ø§
Ù ĦÙĨØ¯Ø§
57 8
ĠØ¨Ø¯Ø£ Øª
ĠØ§ÙĦÙĤÙĬ Ø§Ø¯Ø©
ĠØ§ÙĦØ± Ø¬Ø§ÙĦ
Ùħ Ø¹Ø¯Ø§Øª
nÙĪÙħ ÙĨ
5 00
44 4
ĠØ£ ÙĩØ¯Ø§Ùģ
nØ§ÙĦ Øµ
ĠØ§ÙĦØ§Ø« ÙĨÙĬÙĨ
ĠØ§ÙĦÙħØº Ø±Ø¨ÙĬ
ĠØ§ÙĦØªØ¹ ÙĪÙĬÙħ
ĠØ° ÙĪ
27 9
ĠÙĩ Ø¤
ÙĪÙĨ ÙĬØ§
Ø§Ø¨ Ø®
ĠÙĪØ§ÙĦ Ø³ÙĬ
ĠØ§ÙĦÙĪ Ø¶Ø¹
ĠØ£Ø³ Ø§Ø³ÙĬ
56 5
ĠØŃ Ø±Ø¨
ĠØ§ÙĦØª Ø§Ø³
Ø§Ùħ ÙĬÙħ
ĠØ¨Ø§ÙĦÙģ Ø¹ÙĦ
b u
ĠÙĤ ÙĪÙĬØ©
ĠØ§Ø³Øª Ø®Ø¯Ùħ
ĠØ¨Ø§ÙĦ Ø®
Ø¬Ùħ ÙĦØ©
ĠÙħÙĨ Ø´
ĠØ´ ÙĤÙĤ
ĠØ£ Ùĩ
Ġ 09
999 65
Ġ 06
nÙħ Ø³
at ch
Ø§Øª ÙĩÙħ
ĠÙĪÙĬ ØŃ
ĠÙĦØ£ÙĨ ÙĩØ§
ÙĥÙĬ Ø§Ø¬
ĠÙģ Ø§Ø±
Ø« ÙħØ§ÙĨ
ĠÙĥØ§ÙĨ ÙĪÙĨ
ĠT e
45 5
s er
ĠÙĩØ¤ ÙĦØ§Ø¡
n W
25 8
c l
26 8
ĠØ§ÙĦØ¨ Ø§ØŃØ«
ÙĥÙħ Ø¨ÙĬÙĪØªØ±
09 36
ĠØ¥ ÙĨØ¯
ĠÙĪ Ø¹Ø¯Ùħ
n Ø§Ø´
ĠØª ÙĥÙĨ
---- ----
ĠÙħÙĨØª Ø¯ÙĬØ§Øª
Ġ get
hats app
n Ø¯Ø±Ø¯Ø´Ø©
blo g
ĠØ§ÙĦØ£ÙĦ ØºØ§Ùħ
1 94
à ¤
ĠØ£Ø¯ Ø§Ø©
ĠØ§ÙĦÙĥ ØªØ±ÙĪÙĨÙĬ
ĠØ§ÙĦØ£Ø³ Ø§Ø³ÙĬ
0 35
ØºØ· ÙĬØ©
in t
ĠÙĨØ¬ Ø§ØŃ
n Ø¨ØŃØ«
ĠØ£ Ø·ÙĦÙĤ
ĠC on
ĠØ¯ ÙĤÙĬÙĤ
46 5
ĠØ§ÙĦØ³ÙĨ ÙĪØ§Øª
ĠØ±Ø³ Ø§Ø¦ÙĦ
6 35
ÙĩÙħ ÙĬØ©
999 06
ÙĪÙħ Ø§ÙĨ
ĠÙĪÙĩ Ø°Ùĩ
nØ§ÙĦØŃ Ø¬Ø±
ĠÙħ Ø¨ÙĬØ¹Ø§Øª
ĠØ§ÙĦØ¯Ø± Ø§Ø³ÙĬ
Ġ ro
e g
ĠØ®Ø² Ø§ÙĨØ§Øª
Ø¯ ÙĪØ²
ĠØ§ÙĦÙħ ÙĤØ±
n a
ĠØ§ÙĦØŃ ÙģØ§Ø¸
ĠÙĦ Ø·
1 86
26 3
ĠØ£ Ø³ÙħØ§Ø¡
ĠÙħØŃÙģÙĪ Ø¸Ø©
ĠÙĤ Ø¨
ĠÙĥØ§ÙĨ ÙĪØ§
67 6
ĠØ³ ÙħØ¹
it ion
55 3
ĠÙĤØµ ÙĬØ±Ø©
Ùħ Ø±Ø©
0 86
ÙĨØ ¦
Ø§Ø¯ÙĬ Ø«
Ùħ Ø·ØŃÙĨØ©
ĠØ§ÙĦØŃ Ø§ÙĦØ§Øª
y a
A M
Ø§Ùĥ Ø±Ø©
Ħ Ø§Ø¹
Ù ĦØ§Ø¹
ĠØ§ÙĦØµ Ø¯
n Ø´Ø±ÙĥØ§Øª
Ø§Ø· ÙĨ
ĠØ§ÙĦÙĩ ÙĬ
ĠØªÙħ Ø§ÙħØ§
Ø£ Ø¬ÙĬØ±
ĠØ¥ÙĨ ÙĩØ§
ĠÙģØ± ÙĨ
ĠØ£ Ø®Ø°
ĠR ead
ĠØ§ÙĦØ®ÙĬ ÙħØ©
ĠØ± Ø®ÙĬØµØ©
Ø¨ÙĬ Ø¯
ĠØª Ø®Ø·ÙĬØ·
ĠØ§ÙĦØª Ù
ĠA M
ĠØ§ÙĦØªÙ Ħ
46 7
nÙħ ÙĪÙĤØ¹
Ø§Ø¬ Ù
ĠÙĬ ØªÙĪ
Ø§Ø¬Ù Ħ
999 04
Ġ lo
ĠØ§ÙĦÙħ Ø§Ø³
ÙĬØ· Ø§ÙĦÙĬØ§
ĠØ§ÙĦØ£ Ø´ÙĬØ§Ø¡
n Ø¹ÙĦÙī
Ø¨ ØºÙĬ
Ø§Ùħ ÙĦØ§Øª
ÙĤÙĬÙĤ ÙĬØ©
nÙĩ Ø°Ø§
ĠØ§ÙĦÙĤ ÙĪÙĦ
ĠÙģ Ø³
Ø§Ø® Ø±
ĠÙĪØ§ÙĦ ÙĦÙĩ
95 2
ĠØ§ÙĦØ£ÙĦ Ø¹Ø§Ø¨
Ø§ÙĪ ØŃ
ĠÙĦÙĦ ØµÙģ
ĠØ§ÙĦÙĤ ÙĪØ§Øª
Ù ¦
ĠØµ Ø®ÙĪØ±
9 23
ĠØ§ÙĦØª Ø·Ø¨ÙĬÙĤØ§Øª
98 42
b le
ĠÙĤ ÙĪÙĦÙĩ
Ø¹ ÙĪØ¯
ro id
ĠØ·Ø¨ÙĬØ¹ ÙĬ
ĠØ§ÙĦØ¹ Øµ
ĠØª Ø³Ø¨Ø¨
ĠØ§ÙĦØ± Ø¨
ĠØ§ÙĦØ¯ ÙĤÙĬÙĤØ©
Ùı Ùĳ
ĠØ® Ø±
Ø§ÙĪ ÙĬÙĨ
ĠØ§ÙĦÙħØªÙĪ Ø³Ø·Ø©
ĠØ§ÙĦØ³Ø± Ø¹Ø©
ĠØ§ÙĦÙĤØ§ÙĨÙĪÙĨ ÙĬØ©
ĠÙĪ ÙĬØ³
ĠÙħØ± Ø§Øª
N C
9 12
20 17
ÙĬ Ø§Ø¨
Ġ im
ĠÙģØ± Øµ
ĠØ¥ ØµØ¯Ø§Ø±
999 17
ĠØ§ÙĦØ¹ Ø¸ÙĬÙħ
Ø§Ùĥ ÙĬ
ĠØ§ÙĦÙħØµ Ø¯Ø±
996 3
ĠØŃØ¯ ÙĪØ¯
ĠÙĪØ£ Ø³
ĠØªØ¹ Ø²ÙĬØ²
ĠØ§ÙĦØµ ØºØ±
Ø®ÙĦ Ø§Øµ
ØªÙĤ Ùī
ĠØ§ÙĦØ· Ø§ØŃÙĨ
ĠØ§ÙĦÙĨ Ø§Øª
ĠÙĩ ÙĢ
ĠÙĪ ØºØ±Ø¨
Ġp la
ĠØ§ÙĦØŃÙĬ ÙĪÙĬØ©
56 3
ĠØ§ÙĦÙħ Ø§ÙĦÙĬ
ĠØ³ ÙĪÙī
ÙĤ Ø¹
ĠØ§ÙĦØ£ Ø³ØªØ§Ø°
Ø§ÙĦ Ù
ĠØ´ ÙĬØ±
ĠÙĤØµ Øµ
ÙħØª ÙĦÙĥ
ïº Ķ
Ø¯ÙĬ Ùĩ
Ġd es
999 07
Ġ Ø§Ø¬ÙĩØ²Ø©
ØŃ ÙĬÙĨ
ĠÙĥ ÙħÙĬØ©
Ø§ÙĦÙ Ħ
ĠØ¯ ÙĤØ§Ø¦ÙĤ
1 84
Ø´ ÙĥÙĦ
ĠØ§ÙĦØ¢Ø®Ø± ÙĬÙĨ
1 85
ĠØ§ÙĦÙħÙĤ Ø¨ÙĦ
ĠØ§ÙĦÙĩ ÙĬØ¯Ø±ÙĪÙĦÙĬÙĥÙĬØ©
e ct
ĠØ§ÙĨ Ùģ
ĠØ§ÙĦØ¨ÙĦ Ø¯
ĠØ§ØŃ Ø¯
ĠØ§ÙĦÙħØªÙĪ Ø³Ø·
ĠØ¥ ØµÙĦØ§ØŃ
ĠØµØŃ ÙĬÙģØ©
999 44
ĠØ³ÙĦÙĬÙħ Ø§ÙĨ
ĠÙħØ² ÙĪØ¯
ĠØª ÙĪÙĥ
ĠÙħØ± Ø§ÙĥØ²
ĠØ§ÙĦØ® Ø´Ø¨
999 24
ÙĬØ¯Ø±ÙĪÙĥ Ø±Ø¨ÙĪÙĨØ§Øª
9 13
ĠØ® ÙĬØ§Ø±
ÙĨØª ÙĬ
ĠØ§ÙĦØ¨ ÙĪØ±
ĠÙĬØ³Øª Ø·ÙĬØ¹
ĠØ§ÙĦØ§Ø±Ø¯ ÙĨ
art ic
ĠØ¨ ÙĩÙħ
ĠØ§ÙĦØ² ÙĪØ§Ø¬
Ġab out
ĠØ§ÙĦÙĤØ¯ Ø³
Ø§ÙĨ ÙĪ
ÙĪØ² Ø§Ø±Ø©
l es
ĠØ£ØŃ ÙĥØ§Ùħ
20 16
ĠØ± Ø¬Ø§ÙĦ
ĠØ§ÙĦØ´ÙħØ§ÙĦ ÙĬØ©
ĠØ§ÙĦÙĤ Ø¶Ø§Ø¡
Ø¬Ùħ Ø§ÙĨ
Ùħ Ø²
ĠØ§ÙĦØ³ÙĬØ± Ø§ÙħÙĬÙĥ
ÙĦÙĬ ÙĤØ§Øª
47 8
âĢĿ \
ĠØ§ÙĦØº Ø±Ø¨
ĠØ±Ø¨ ÙħØ§
ĠØ§ÙĦØ¨ Ø§Ø²ÙĦØª
ĠÙĪØª Ø¯
Ø¬Ø± Ø¨
ĠØ§ÙĦØ§Ø± Ø¶
ĠØ§ÙĦØ® ÙĬØ±
Ġ Ø§Ø°
ĠØ§ÙĦÙħ Ø¯Ø±
ĠØ³ ÙĪØ±ÙĬØ©
ÙĬÙħØ¨Ø§Ø¨ ÙĪÙĬ
Ø¬ Ø§ÙĪØ²
Ø£ Øª
ĠÙħØµ Ø±ÙĬ
Ø§ÙĦØŃ ØµÙĪÙĦ
I M
ĠÙĨ Ø³Øª
T H
ĠÙĦÙĦØª Ø¹Ø¯ÙĬÙĨ
ad e
n Ø¯ÙĬ
63 9
nØª Ø§Ø¨Ø¹
ĠØ¨ Ø§ÙĬ
Ġcook ies
ĠØ§ÙĦÙĨØª Ø§Ø¦Ø¬
ro up
ide o
Ø®Øµ ÙĪØµ
34 8
ØªØ± ÙĪÙĦ
ĠØ§ÙĦØ¬ Ø§ÙĨØ¨
es e
ĠØ§ÙĦØ±Ùħ ÙĦÙĬ
999 87
85 65
an ce
999 21
ĠØ± Ø§Ø³
999 27
Ġ _
ĠØ³ Ø±ÙĬ
ÙĥÙĬ Øª
999 14
Ø·Ø± Ø§Ùģ
ĠØ§ÙĦÙħØ¤ Ø³Ø³Ø©
88 8
ØªØ´ Ø§Ùģ
ĠØ§ÙĦØ¹ ÙĤÙĦ
ĠØ®Ø· ÙĪØ§Øª
ĠØ§ÙĦØŃÙĥ ÙĪÙħÙĬØ©
ĠØ§ÙĦØŃ Ø³ÙĨ
Ø§Ø± Ø¨Ø©
ĠÙĦÙĦÙħ Ø³
ĠØ§ÙĦÙĤ ÙĪØ©
ĠØ¥ ÙĥØ³
ĠÙĥ Ùģ
ĠÙħ Ø¯Ø©
ĠØ£ØµØ¨ØŃ Øª
18 9
nØ£Ø³ Ø¹Ø§Ø±
ĠØ§ÙĦØ³Ø§Ø® ÙĨ
to p
ĠØªØ± ØªÙĬØ¨
ĠØ§Ùģ Øª
36 8
ĠØ± ÙģØ¶
ØªØ± ÙĥØ©
ĠØ¥Ùģ Ø±ÙĬÙĤÙĬØ§
ĠC hat
ĠØ® ÙħØ³
ĠØ§ÙĦØ´Ø± Ø·Ø©
ØŃ Ùĩ
ĠØ§Ø¬ ÙħÙĦ
ĠØ· Ø¨ÙĬ
ĠØ£ ÙĬÙĨ
ĠØ¨Ø¬ Ø§ÙħØ¹Ø©
ØªØ² Ø§Ùħ
ĠU n
ÙĪÙĤØ¹ Ø§Øª
ĠØ¹ÙĦ Ø§ÙĤØ©
ĠØ§ÙĦØ³ Ø¤Ø§ÙĦ
Ħ ÙĬÙĨ
Ù ĦÙĬÙĨ
ĠØ§ÙĨØª Ø´Ø§Ø±
ĠØ§ÙĦØª Ø¬Ø§Ø±
ĠØ§ÙĦØ³ ÙĬÙĨ
Ñ ģ
ĠØ§ÙĦÙħ Ø·Ø¨Ø®
ĠØ§ØŃ Ø¯Ø«
2 85
ĠÙĦÙĦÙħ ØŃ
ĠÙĦÙĦ Øµ
ĠØ¨Ø§ÙĦ ØµÙĪØ±
ĠØ§ÙĦØ±Ø³ Ø§Ø¦ÙĦ
ĠØ§ÙĦØµÙĨ Ø§Ø¹Ø§Øª
â Ĺ
99 11
Ùħ Ø¬Ø©
ĠØ« Ù
ab le
ĠØ«Ù Ħ
§Ø §Ø
ear ch
ĠÙĬ ÙĦØ§
ÙĨØ¯ Ø§Øª
ĠØ§ÙĦØ° ÙĥÙĬØ©
ÙħÙĦ Ùģ
ĠØŃ ÙĬØ¯Ø±
37 8
ĠL td
ĠÙĬ Ø¨ÙĦØº
Ø³ Ø¹Ø±
99 05
ĠÙĬÙĤ Ø¹
95 0
ĠØ§ÙĦØªØ¹ÙĦÙĬ ÙĤØ§Øª
ĠØ§ÙĦØ£ Ø¹Ø¶Ø§Ø¡
Ø¶ Ø¨
Ø® Ø±ÙĪØ·
A L
Ø£ ØªÙĬ
ĠØ§ÙĦØ¥ÙĨØ³ Ø§ÙĨÙĬØ©
I S
87 9
Ø· ÙĬØ¨
ĠØ¶ ÙħØ§ÙĨ
ĠØ§ÙĦØŃ Ø¨ÙĪØ¨
E S
Ø° Ù
Ø§Ø¦ÙĬ Ø§Øª
Ø°Ù Ħ
ĠÙħ ÙĬÙĨ
Ø±ÙĪ ÙĬØ¬
99 38
Ø§ÙĦÙĬ Ø¨
ØŃ ÙĥØ§Ùħ
99 43
96 0
ĠÙĦÙĦ Ø®
ØµØ¯ ÙĤ
ĠØ£ÙĨ Ø¯
ĠÙħ Ø¯Ø±Ø³Ø©
ĠØ§ÙĦÙħÙĪØ§Ø· ÙĨÙĬÙĨ
Ø· Ùĩ
ĠØ§ÙĦÙĤØ± Ø§Ø±
Ùģ Ùģ
Ø±Ø£ Ø©
ĠØ§ÙĦØ£ Ø¬
Ø³Øª ÙĬØ±
Ø¸ Ù
ĠØ§ÙĦØº Ø¨Ø§Ø±
ĠØ§ÙĦØ¨ ÙĪÙĥØ³ÙĬØª
u pp
ĠÙĪØ® Ø§ØµØ©
ĠØ§ÙĦÙĤ Ø¯ÙĬÙħ
ÙĤÙĬ Ø§Ùħ
ÙĢ Ø©
16 3
n ÙĬØ¹
ha i
ĠØ§ÙĦØµ ØŃÙĬØŃ
Ø¬ ÙĪÙĨ
ĠØ³ Ùģ
ÙĤØ± Ø§Ùħ
ĠØ§ÙĦÙħØ¯ ÙĨ
Ø« Ø±Ø©
ĠÙĤ ÙĬÙħ
ar n
ĠÙĥ ÙĪØ±ÙĬØ§
Ø§ÙĪ Ø¯
ĠØª ØºÙĬØ±
ÙĬ Ø¨Ø©
ĠØ§ÙĦÙĩ ÙĬØ¯Ø±ÙĪÙĥØ±Ø¨ÙĪÙĨØ§Øª
ĠØ¬ Ø³Ùħ
34 2
ĠØ§ÙĦÙħØ´ Ø§ÙĥÙĦ
Ø§Ùħ ÙĬÙĦ
ĠØ§ÙĦÙħØ¨Ø§ Ø´Ø±
ro n
ĠØ¹ ÙħØ§ÙĦ
ĠØ§ÙĦØ£Ø³ Ø±Ø©
ØªØµ Ø§Øµ
ĠÙĪØ§ÙĦ Ø¨Ø±
Ġ7 0
ĠØ· Ø±ØŃ
Ø§Ø· Ø¦
ĠÙģ Ø±ÙĬ
Ùħ ØªØ¹
Ø¬Ø± Ø§ÙĨÙĬØª
ĠØª Ø®ØµØµ
21 8
ĠØ§ÙĦÙħÙĪ Ø§Ø±Ø¯
ĠØ§ÙĦÙĥ Ø§ÙħÙĦØ©
ĠØ± Ø§Ø¦Ø¹
Ùĩ ÙĪÙħ
ĠÙĦÙĦ ÙĪ
ÙĦÙģ Ø§Øª
ĠØ§ÙĦØŃ Ø¶
ĠØ§ÙĦØ³ÙĬ Ø§ØŃØ©
ĠÙħØ± ÙĪØ±
ĠÙĨÙĪØ¹ ÙĬØ©
ĠÙħ ÙĬØª
Ø¥ ÙĥØ³
00 3
own load
ĠØ§ÙĦØ¥ ØµØ§Ø¨Ø©
ÙĩØ± Ø§Øª
ĠØ± Ø¶ÙĬ
ĠØ¹ Ø±Ùģ
ÙĪØ± Ø¯ÙĬ
i sh
th is
ĠÙĪØ§ÙĦØ¯ ÙĥØªÙĪØ±
ÙĤÙĬ Ø§Ø³
Ø¨ÙĨ Ùī
ĠÙĤ ÙĪØ§Ø¹Ø¯
ĠÙħ ÙĪÙĤÙģ
n ÙĬØª
ĠÙħÙĤ Ø§ÙĦØ§Øª
âĢ ĭ
ĠØ¨ÙħÙĨ Ø§Ø³Ø¨Ø©
ĠÙĦÙħ ØµÙĨØ¹
nØ§ÙĦ ÙĥØ±Ø©
p s
ĠØŃØ³Ø§Ø¨ Ùĥ
ĠØ¹ Ø¯ÙĬØ¯Ø©
ĠØ§ÙĦØ± Ø§Ø¨Ø·
ÙĪØ¬ Ø¨
99 06
ĠØª ÙĪØ²ÙĬØ¹
9 22
Ø±ÙĬ ÙĥØ§
ĠØ§ÙĦØ£ ÙħÙĪØ§ÙĦ
ĠØ´ Ø¨Ø§Ø¨
Ø§Ùħ ÙĬÙĨ
0000 4
Ø¸Ù Ħ
ĠØ§ÙĦØŃ Ø§Ø¬Ø©
T W
ĠØª Ø¬Ø§Ø±ÙĬØ©
ĠØ¨Ø§ÙĦÙĦ ØºØ©
Ø« Ø§ÙĦ
ĠØ£ Ø·ÙģØ§ÙĦ
ĠØµ Ø±
ÙĬÙĨ Øª
Ø¨Ø¹ Ø§Ø¯
ĠÙħÙĤ Ø¯ÙħØ©
ĠØ¹Ø¶ ÙĪ
ĠØ¹ÙĦ Ø§ÙħØ©
ĠØ§ÙĦØ¨Ø± Ø§Ø²ÙĬÙĦ
ÙĤÙĬ Ø¨
1 20
ĠØ§ÙĦÙħ Ø¬Ùħ
Ø² ÙĪØ¬
ĠØ§ÙĦØ±Ø³ ÙĪÙħ
ĠÙĬ Ø¸ÙĩØ±
ÙĪ Ø§Ø¦ÙĬØ©
Ø¨ÙĬ ÙĦØ©
13 3
Ø¹ Ø¬Ø§Ø¨
G M
ĠØ§ÙĦØ«ÙĤ Ø§ÙģØ©
Ø³ ÙĪ
Ø§ØŃ ÙĬ
ĠØ¹ÙĦ ÙĬÙĨØ§
24 8
Øª ÙĬØ©
ĠØ§ÙĦÙħØº ÙĨØ§Ø·ÙĬØ³ÙĬ
Ùĭ :
ĠØª ÙĥØ±
nÙħ Ø·Ø§ØŃÙĨ
ĠØ§ÙĦØ¬ ÙĨØ³ÙĬØ©
04 2
ĠF acebook
ĠÙĪØ± ÙĤØ©
nÙħØŃ Ø·Ø©
Ø§Ø± Ø¹
e x
ĠØ± ÙĪÙĥ
ĠÙĦÙĥ Ø³Ø§Ø±Ø©
ĠØ² Ø¬Ø§Ø¬
Ø³ÙĪÙĨ Ø¬
ĠÙĪØ± Ø§Ø¡
ĠÙħÙĨ Ø§Ùģ
998 76
O M
P H
ĠØªÙĨ Ø³ÙĬÙĤ
ĠØ¨Ø§ÙĦÙħ ÙĪØ±Ø¯
2 84
ĠØ§ÙĦÙħ Ø´Ø§Ø±ÙĬØ¹
999 20
ĠØ§ÙĦÙħÙĦÙģ Ø§Øª
ĠØ§ÙĦØ£ÙħØ± Ø§Ø¶
ĠÙĪ ÙĩÙħ
ĠØ¨ ÙħØ±
ĠØªØ¬ Ø§Ùĩ
as ia
999 11
ĠØ§ÙĦÙĥ Ø§Ùħ
ÙĨØ³ Ø§ÙĨ
ØªØµ Ùģ
ĠØ³ Ø§Ø¨ÙĤ
ĠÙĨÙĤ Ø§Ø·
ĠØ¥ Ø±
ĠÙħÙĪ Ø§Ø¬ÙĩØ©
ĠØ´ ÙħØ³
Ø§Ùĥ Øª
ĠØ§ÙĦØŃ Ø±Ø©
ĠØ¨Ø£ ÙĬ
44 1
ĠØ§ÙĦØ¥ Ø¹ÙĦØ§ÙĨ
ĠÙĪØ§ÙĦ Ø¹ÙħÙĦ
ĠØ§ÙĦÙħ ÙħÙĬØ²Ø©
ĠP DF
86 9
ĠÙĪØ§ÙĦÙħ Ø³Øª
ĠÙĪÙħ ÙĤ
ĠØ§ÙĦØ¬ ÙħØ§ÙĦ
n Ø§ÙģØ¶ÙĦ
ĠÙĪ Ø§Ø¨
Ùħ Ø¬
ĠÙĬ Ø¨Ø¯ÙĪ
ĠÙĦÙĦ Ø£Ø³
Ø¨ÙĦ ÙĪÙħ
1 37
ĠÙĥ Ø³Ø±
pl y
Ø§Ø± ÙĬÙĨ
ĠÙĪ Ø¶
ic es
ÙĪÙĤ ÙĬØ¹
ÙĪØ± Ùĩ
ĠØ±Ø³ ÙĪÙħ
Ø§Ùģ ÙĬØ§
ØªÙħ Ø¯Ø©
ĠÙĦ Ø§ÙĬ
Ø¸Ùħ Ø§Øª
ĠÙĪ Ø¨Ø¯
ĠØªÙĪ Ø§ØµÙĦ
ĠÙħ Ø¯ÙĬÙĨ
99 33
0 37
ĠØª Ø§Ø¨Ø¹
Øµ Ø§Ø¨
ÙħØ§ÙĦ Ùĥ
ou nd
Ø¸ ÙģÙĬÙĨ
ĠÙħØ¹ ÙĩØ§
999 74
Ø· Ø¨Ø©
ĠÙĪÙĦ Ø¯
ÙĬØ¯ Ø
ÙĬØ¯Ø §
25 2
ĠÙĦ Ø¹Ø¨
ÙģØ§Øª ÙĬØŃ
Ø¨Ø± ÙĨØ§ÙħØ¬
oo d
ĠÙħ ÙĤØ¯
ĠØ§ÙĦØµÙĦ Ø¨Ø©
Ġ 90
ĠÙĪÙĩ ÙĨØ§Ùĥ
45 4
ĠÙĪØ§ÙĦØªØ¹ ÙĦÙĬÙħ
46 4
ĠØ§Ø³ ØªØ±Ø§ØªÙĬØ¬ÙĬØ©
00 2
ĠØ§ÙĦØ£Ø® ÙĬØ±
ĠØ§ÙĦØ« Ù
ĠØ§ÙĦØ«Ù Ħ
I T
ĠÙĬ Øº
ĠØ§ÙĦØŃÙħ Ø§Ùħ
ĠØ§ÙĦÙħÙĪ Ø§ÙģÙĤ
n Ø§Ø¶
ĠØ¨Ø§ÙĦ Ø¯Ùħ
15 0
Ø¨ÙĬ Ø§ÙĨØ§Øª
ĠÙĪØ§ÙĦÙħ ÙĪ
ĠÙħ ÙħÙĬØ²
ĠØ§ÙĦØ¯ ÙĨÙĬØ§
ĠØ§ÙĦÙĪ Ø¸Ø§Ø¦Ùģ
999 31
ĠÙĦØª Ø¹Ø¯ÙĬÙĨ
ĠÙħØ¹ ÙĬÙĨ
ĠÙĬØ±Ø¬ Ùī
Ġ3 2
9 11
ĠØ§ÙĦØª ÙģØ³ÙĬØ±
ĠØ§ÙĦÙħÙĨ Ø¸
ĠÙħØ³Øª ÙĪÙĬØ§Øª
Ø§Ø¬ ÙĬ
ĠØ£ Ø¹ÙĦÙĨØª
ĠØº Ø°
998 94
ĠÙĨ Ø¯
ĠØ® Ø¨Ø±Ø©
le ct
ĠØ§ÙĦØµ Ø±Ùģ
ĠØ¨Øµ ÙĪØ±Ø©
ĠØ§ÙĦØª Ø±Ø¬
ĠØ±Ø³ ÙħÙĬ
ĠØ§ÙĦÙĥ Ø§ØªØ¨
ĠØ§ÙĦØ¨Ø¯ Ø§ÙĬØ©
ig h
Ø±ÙĪ Ø±ÙĬ
Ø¯ Ø§Ø¨
ĠØ¥ ØŃ
Ġ20 00
Ùĥ ÙħØ§ÙĦ
ĠØ§ÙĨ ÙĩØ§
ĠØŃ ÙĤÙĬÙĤØ©
Ø§Ùĩ ÙħØ©
Ø¨ Ø§Ø¹
99 28
ĠØ§ÙĦØ£ ÙĬØ§Ùħ
ĠÙħ Ø²ÙĬØ¯
m m
ĠÙĩ Ùī
ÙĪØ¯ Ø
ÙĪØ¯Ø §
ÙĪ ØŃØ©
ĠØ§ÙĦØªØ¯ Ø±ÙĬØ¨
ĠØ§ÙĦØ¬ ÙĪØ§ÙĦ
ĠØ´ Ùģ
nØªØ³ÙĪÙĤ ÙĪØ§
ĠØ² ÙĬÙħØ¨Ø§Ø¨ÙĪÙĬ
ĠØªØ¹ Ø¨
ĠØ¬ ÙħÙĬÙĦ
ĠØ§ÙĦ ÙĪÙģ
ĠØªØ¨ Ø¯ÙĬÙĦ
ĠØ£ ØŃÙĬ
ĠØ¨ÙĦ Ø¯
99 20
ĠØ§ÙĦ Ø©
ĠØµ ÙĦØ§Ø©
Øª Ø§ÙĦ
am p
ĠØ¥ÙĨØ¯ ÙĪÙĨÙĬØ³ÙĬØ§
nØ´ Ø§ÙĩØ¯
94 2
Ø§ÙĨ ÙĪÙĨÙĬ
ĠÙħÙĨ ØŃ
ØªÙĥ Ø§Ø±
u k
O P
ĠÙĩØ¯ Ø§ÙĬØ§
ĠØ§ÙĦØ¨ Ø§Ø±ÙĬØª
ÙĬÙĥ Ø
ÙĬÙĥØ §
35 8
99 995
Ø§Ø· Ø¹Ø©
ĠØ· Ø¨ÙĬØ©
Ùĥ Ø§ÙģØŃØ©
ĠØ§ÙĦØ£ÙĪÙĦ ÙĬØ©
ĠÙĥÙĩØ±Ø¨ Ø§Ø¦ÙĬØ©
ĠØ§ÙĦØ£ÙĪØ± ÙĪØ¨ÙĬØ©
ĠØ± ØŃÙħ
Ø§Ø¬ Ø¹Ø©
ĠØ§ÙĦØ¨ÙĬ Ø¶Ø§Ø¡
5 36
Ħ Ø¹
ĠØ§ÙĦÙģ ÙĬØ³
Ù ĦØ¹
ĠØ§ÙĦØ£Ø¯ ÙĪØ§Øª
at er
Ø¬Ùħ Ùĩ
at h
ĠØ§ÙĦÙħØ´ ÙĥÙĦØ©
U M
ĠØ§ÙĦØ£Ø® Ø¶Ø±
ĠØ§ÙĦØ¹Ø±Ø§ÙĤ ÙĬ
ĠÙĩ ÙĨ
ĠØ§ÙĦÙħØ¤ Ø³Ø³Ø§Øª
ĠØ§ÙĦÙħ ØªØ±
43 9
ĠØ³Ø¨ ÙĪØ±Øª
ĠØ¥Ø¬Ø±Ø§Ø¡ Ø§Øª
Ø§Ø¨ ÙĬØ¨
et ail
Ø·Ø± ÙĬØ©
ĠØ§ÙĦØ¬Ø§Ùħ Ø¹Ø§Øª
998 87
0 15
Ø² ÙĤ
r es
ĠØ§ÙĦÙĥ ÙĦÙħØ§Øª
ĠÙĦÙĦØ¨ÙĨ Ø§Øª
ĠØ§ÙĦÙģ ÙĤÙĩ
ĠØ¯ ÙĥØªÙĪØ±
ÙħÙĨ Ùī
ĠØ§ÙĦØ¹Ùħ ÙĦÙĬØ§Øª
nØ³ÙĬ Ø§Ø³Ø©
ĠØ³ ÙģØ±
c y
ĠØ§ÙĦÙħ Ø¯Ø±Ø³Ø©
! !
ĠØ§ÙĦÙħØŃ Ø±Ùĥ
ĠØ§ÙĦ Ø§Ø¹Ø¯
ĠÙĦ Ø¨ÙĬØ¹
999 30
99827 72
9824 0936
ĠÙħØ±Ø§Ø¬ Ø¹Ø§Øª
ĠØª ÙĪØµÙĬÙĦ
ĠØªØ¹ ØªÙħØ¯
Ġ Ø§ÙĩÙħ
ĠØ¹ Ø§ÙħÙĦ
Ø§Ùĩ ÙĪ
ĠØ§ÙĦØ¹ ØµØ±
ĠØ§ÙĦÙĨÙĩ Ø§Ø¦ÙĬ
ĠØ§ÙĦÙħØ¯ ÙĬØ±
Ã Ĺ
Ä ±
ĠÙģ ÙĪ
ĠØ§ÙĦÙĨ Ø§ÙĤ
nÙĪÙĤ Ø¯
ĠØ§ÙĦØ¨ Ø®
ĠØ¹ Ø·
ĠÙĪÙĥ ÙĬÙģ
ĠØ® Ø·Ø±
ØµØ¯ ÙĬØ±
998 86
ĠØ¬ ÙħÙĬÙĦØ©
ĠØ¢ Ø¨
ĠØª ØªÙĪ
O L
Ùģ Ø§Ø±
ĠØ§ÙĦØ¥Ø¯ Ø§Ø±ÙĬØ©
ĠÙĪØ§ÙĦ Ø£Ø³
ĠV SI
ĠÙħØ³ Ø§Ø¹Ø¯
ĠÙĨ ØµØ±
847 46
Ġ z
Ø® ÙĬØ±
ĠØ§ÙĦØ¯Ùĩ ÙĪÙĨ
ĠØ¬ ÙĪØ±Ø¬
Ø§Ùĥ Ø³
Ġ ar
ĠØ§ÙĦØ¬ ÙĪÙĬØ©
ĠÙĪØŃØ¯ Ø§Øª
nØ£Ùĥ ÙħÙĦ
ĠØ« Ø§ÙĦØ«
ĠØ§ÙĦØ· Ø¨ÙĬØ¨
Ùĥ Ø§ÙĨÙĬ
ĠØ³ ÙĥØ§ÙĨ
ĠÙ £
ĠØ¨Ø§ÙĦÙĤ Ø±Ø¨
ĠØ£ ÙĥØ³
ĠÙħ Ø§Ø¡
Ùħ ØŃÙħØ¯
Ø§Ø¶ Ø§Øª
ĠÙħØ¬Ùħ ÙĪØ¹
ĠØ§Ùĥ Ø¨Ø±
Ø¯Ø± Ø³
ĠØ§ÙĦÙħ ÙĬØ²
ĠØ§ÙĦÙģ Ø±Ø¯
ĠØ§ÙĦØ£ Ø±Ø¨
nÙĪØ£ Ø¶Ø§Ùģ
1 27
99 22
Ġ:: :
03 3
98 86
Ø¨ÙĬ Ø¦Ø©
08 2
ĠÙĦ ÙĨØ¯ÙĨ
Ø·Ø¹ ÙħØ©
ĠØ± Øº
ran s
ÙĬØ± ÙĪØ³
ĠØºØ±Ø¨ Ø§ÙĦ
ĠØ· ÙĪØ§ÙĦ
ĠØ§ÙĦÙĨ Ø¸
E M
Ùħ ÙĪÙĨ
ĠØ¥ Ø¹ÙĦØ§ÙĨ
ĠØ¨Ø¯ ÙĦØ§
05 1
0000 5
ĠØ§ÙĦØŃ Ø§ÙĦ
ĠØ² ÙħÙĨ
Øµ ÙĪØ±Ø©
ĠØ§ÙĦØ± Ø¨ØŃ
ĠØ§Ø® Ø±Ùī
Ùħ Ø§Ø¹
qu ip
ÙĥÙĦ Ùģ
Ø§ØŃØ¸ Ø§Øª
ĠØ¢Ø³ ÙĬØ§
ĠF or
ĠØ§ÙĦØµ ØºÙĬØ±
Ø¹Ø¯ Ø§Ø¯Ø§Øª
nIn quire
ĠØ§ÙĦÙĤ ÙĨÙĪØ§Øª
ĠØŃØ¯ Ø§Ø¦ÙĤ
ĠØ§ÙĦØ¬ÙħØ¹ ÙĬØ©
17 9
80 84746
: âĢı
ĠÙĬØŃ ÙħÙĦ
ĠØ§ÙĦØ¹ ÙĨØ§ØµØ±
47 9
nØ¬ ÙħÙĬØ¹
1 87
Ø²ÙĬ Øª
ĠØ¥Ùħ ÙĥØ§ÙĨÙĬØ©
ĠØ§ÙĦÙħ ÙĩÙħ
n s
ĠØ³ÙĨ Ú¯
ĠØ¢ÙĦ Ø§Ùģ
ag ram
ØªØ§Ùħ ÙĬÙĨ
âĢ Į
1 97
8 14
ĠØ§ÙĦØ´ ÙĥÙĦ
la m
ØĮ \
ÙĪØ¯ Ø§ÙĨ
ĠÙĦØ¯ÙĬ ÙĩÙħ
ÙĪØ± ÙĬÙĨ
ĠØ§ÙĦØ± ÙĪØŃ
ĠÙħØ¬Ùħ ÙĪØ¹Ø§Øª
ĠÙĪØ£ ÙĬ
ĠØ±Ùħ Ø²
ĠÙĬ ØªØ±
ÙģÙĬ Ø¶
ĠØ§ÙĦÙĥ ÙĦÙĬØ©
ĠÙĦ Ø¶ÙħØ§ÙĨ
ĠÙĪØ³ ÙĪÙģ
ĠØ§ÙĦÙģ Ø¶
67 8
ĠØ§ÙĦØ¥Ø³ ÙħÙĨØª
ĠÙħ Ø¹Ø±ÙĪÙģ
ĠØ§ÙĦØŃ Ø§ÙĦÙĬØ©
ĠÙĦ Ø´Ø±Ø§Ø¡
ĠÙħØ± Ø§ÙĤØ¨Ø©
P S
nØ§Ùħ ØªÙĦÙĥ
ĠØ´ Ø±ÙĬÙĥ
ĠØ§ÙĦÙħ ÙĩÙħØ©
Ġv si
Ø§Ø¯ Ø
nØª ØµÙħÙĬÙħ
Ø¬ Ø§ØŃ
Ø§Ø¯Ø §
Ùģ ÙĪÙĨ
Ħ Ø§Ùģ
Ù ĦØ§Ùģ
ĠØª Ø°
Ø§Ø¦Ø± Ø§Øª
ĠØ§ÙĦØ« ÙĨØ§Ø¦ÙĬØ©
ĠØ§ÙĦØ² ÙħÙĨ
ĠØ§ÙĦÙħØ³ØªØ®Ø¯Ùħ ÙĬÙĨ
ĠØµÙĨ Ø§Ø¹ÙĬØ©
998 77
. [
ĠØ³ Ø¹Ø©
ĠØ´ Ø£ÙĨ
R I
Ø« ÙĬÙĦ
ĠØ§ÙĦÙģØ±ÙĨ Ø³ÙĬ
ĠØ§ÙĦØ³ ÙĪ
Ø± Ø
Ø§ÙĨ Øº
Ø§Ø¯ ÙĦØ©
ĠÙĤ Ø§Ø¯Ø±
ĠØ§ÙĦØ¬ Ø§Ùģ
Ø±Ø §
ĠØŃÙĥ ÙĪÙħØ©
Ø¶Ø± Ø§Ø±
Ġn ot
ĠØ§ÙĤ ØªØ±
Ø§Øµ ÙĦØ©
ĠÙģ Ø¥Ø°Ø§
ĠÙĥÙĩØ±Ø¨ Ø§Ø¦ÙĬ
ØªØµ Ø§Ø±
ĠØ° Ø±ÙĪØ©
ĠØ¬ÙħØ¹ ÙĬØ©
n Ø§Ø³Ùħ
ĠÙĦ Ø§Øª
un d
ĠØ£ÙħØ±ÙĬ ÙĥÙĬ
ĠØ±Ùħ ØŃ
ĠØ§ÙĦÙĤ Ø§Ø¯ÙħØ©
ĠÙĪÙģ Ø§Ø©
ĠÙĥØª ÙĦØ©
ĠÙĦ Ø§Ø¹Ø¨
13 2
ĠÙĪØ§Øª Ø³
a sh
ĠÙĪØ§ÙĦ Ø°
ĠØ§ÙĦØ° Ùī
ĠÙħ Ø°
ĠØ§ÙĦØª Ø®ØµØµ
05 3
ÙĬØ ¤
Ø§Ø± Ùģ
ĠÙħØª Ø§Ø¨Ø¹Ø©
99 994
ĠØ§ÙĦØª ØºØ°ÙĬØ©
nÙħ Ø±
te ch
ĠâĿ Ŀ
Ħ Ø²ÙħØ§Øª
Ù ĦØ²ÙħØ§Øª
ĠÙĤ ÙģØ§Ø²Ø§Øª
ĠØªØ£ ØªÙĬ
ĠÙĪØ§ÙĦ Ø®Ø¯ÙħØ§Øª
ĠØ§ÙĦÙħØ¯ Ø§Ø±Ø³
ĠØ¥ ÙĬØ·Ø§ÙĦÙĬØ§
ent s
ĠØ§ÙĦÙĪØŃ Ø¯Ø©
ÙĪØ± Ø
ÙĪØ±Ø §
ĠÙĪÙĬ Ø¨
ĠÂ ©
ÙĪÙĨÙĬ Øª
9842 8565
ĠÙħØ³ ÙĦÙħ
ĠØ§ÙĦÙħØ¤ ÙħÙĨ
ĠØ´ÙĨ ØºÙĩØ§ÙĬ
995 3
ĠØ§ÙĦÙħØ¯ ÙĨÙĬØ©
ĠØ§ÙĦÙħÙĥ Ø³ÙĬÙĥ
ĠØµ Ø±Ùģ
0 24
ĠØŃ Ø§Ø¬Ø©
ic h
C M
ÙĪØª Ø
43 8
ÙĪØªØ §
ĠØ§ÙĦØ· ÙĬØ±Ø§ÙĨ
ĠÙĨ Ø¹Ùħ
Ġ 55
1 95
Ø´ Ø±ÙĬ
ÙħØ± Ø§Ø¡
ĠØ§ÙĦØ¨ÙĦ Ø§Ø³ØªÙĬÙĥ
ĠØ§ÙĦØŃ Ø³ÙĬÙĨ
Ġr es
Ø§Ø¨ ÙĬØ¹
Ø¯ÙĬ ÙĦØ§Øª
arab ic
46 8
Ø¬ Ø¹ÙĦ
ĠÙĪØ§ÙĦ ÙĪ
ĠI nd
ĠØªØª ÙħÙĬØ²
Ùĩ Ø§ÙĨ
ĠÙĬ Ø¨Ø¯Ø£
ĠâĿ ŀ
998 95
ĠØ§ÙĦØ£ÙĦ ÙĪÙħÙĨÙĬÙĪÙħ
ÙģØ¶ ÙĦØ©
n ÙĪØ¹
998 66
n J
ĠÙģÙĩ Ø°Ø§
ÙĤ Ø³Ø§Ùħ
ĠØ³ ÙĩÙĦ
ĠØ¹Ùħ Ø±ÙĪ
h am
ÙģÙĦ Øª
a j
ĠØ§ÙĦØ³ÙĦ Ø·Ø§Øª
nØª Ø§Ø±ÙĬØ®
' ,
ĠÙĦØ£ ÙĪÙĦ
n c
ĠØ£ ÙĦØ§
ĠÙĨ Ø§Ùģ
co unt
ĠØ§Ø¶ ØºØ·
4 00
Ø¬Ùħ Ø§ÙĦ
ĠØ§ÙĦØª ÙĦÙĤ
ĠÙħ Ø§ÙĦÙĬØ©
ÙĪØ¯ Ø±
Ø¬ Ø
ĠØ§ÙĦØ§Ø« Ø§Ø«
u to
84 8
Ø¬Ø §
998 97
ÙĬØ³ Ùī
ØªØ¯ Ø§ÙĪÙĦ
ĠØ§ÙĦØŃ ÙĤÙĬÙĤØ©
ĠØŃ ØµØ±ÙĬØ©
lo g
04 3
ĠE x
998 47
ĠÙĬ ÙĤÙĦ
ĠÙĬØŃ ØµÙĦ
ĠØ£ Ø¨Ø¯
ĠØ¨Ø§ÙĦ Ø¬ÙħÙĦØ©
ĠÙĦÙĨ ÙĤÙĦ
ĠÙĦÙĪ Ø§Ø²Ùħ
ĠØ§ÙĦØ²ÙĬ Øª
ĠØ£ Ø²
33 9
Ø² ÙĬØ¹
ĠØ£ÙĨ Ø¸ÙħØ©
ĠÙĪÙħÙĨ ÙĩØ§
Ø§Ø¹ ÙĬØ¯
ĠØ§ÙĦØµØŃ Ø§ÙģØ©
ĠØ´ ÙĪØª
ĠÙħØ¬ Ùĩ
ĠØ§ÙĦÙħÙĪ Ø§ØµÙģØ§Øª
ÙĦÙĬ ÙĪÙĨ
ÙĪÙĦ Ø§Ø±
Øµ ÙĬØ¯
ĠÙģØ± Ø¹
Ġ20 07
ĠÙħ ÙĬØ¯
ĠØŃØ± Ø§Ø±Ø©
ĠÙħÙĥ Ø¹Ø¨
E L
ĠØ§ÙĦÙĪØ§ØŃ Ø¯
ÛĮ ÙĨ
ĠØ§Ø¹ ÙħØ§ÙĦ
ĠØ´Ø¹Ø¨ ÙĬØ©
ĠØµ Ø¯ÙĬÙĤ
ĠØ§ÙĦØŃØ± Ø§Ø±ÙĬØ©
ĠØ§ÙĦØ¥ Ø³Ø±Ø§Ø¦ÙĬÙĦÙĬ
ĠÙģ ÙĨØ¯ÙĤ
ĠÙĪÙģØ± Ø¥ÙĥØ³
ĠØ¹ Ø´Ø±Ø©
ÙĪØ¨ÙĬ Ø
ÙĪØ¨ÙĬØ §
Ø² ÙĪÙĨ
ĠØ¹Ø¨ Ø§Ø³
ĠØ§ÙĦÙģ Øª
st agram
21 9
Ø¹Ø¯ Ø©
ĠÙĪØ£ ÙĥØ«Ø±
ĠÙĥÙħ Ø¨ÙĬÙĪØªØ±
ĠØ§ÙĦÙħÙĨØ§ Ø®
85 8
ĠØª ØªØ¨Ø¹
ĠÙĦ ÙĤØ§Ø¡
Ø«ÙħØ± ÙĬÙĨ
ĠØ§ÙĦÙĥÙĦ ÙĨÙĥØ±
ĠØ·Ø¨ Ø§Ø¹Ø©
ĠØ§ÙĦØ§Øª ØµØ§ÙĦØ§Øª
Ø±ÙĪ ØŃ
ÙģØ³ Ø§Ø±
ĠÙĦÙĦ Ø§Ø³ÙħÙĨØª
ĠØ§ÙĦÙħÙĪ Øª
ĠØ§ÙĦØ²Ø± Ø§Ø¹Ø©
ĠÙħ Ø¬Ø±Ø¯
ĠØ§ÙĦÙħØ³ Ø§Ø¹Ø¯Ø©
ĠØ§ÙĦØ¨ØŃØ± ÙĬØ©
nØ¨ Ø§ÙĦ
P K
ĠØªÙĪ Ø§Ø¬Ùĩ
9888 096
ĠÙĥ ÙĪÙĥ
ĠÙĨ Ø¨Ø§Øª
Ġm p
âĢı .âĢı
ĠØ£ Øª
ĠØ®Øµ ÙĪØµ
Ø§ÙĬ Ø¬Ø§Ø±
ĠÙĪØ¨ Ø§ÙĦ
ĠØ§ÙĦØªØ±Ùĥ ÙĬ
Ġ //
ĠØ§ÙĦØŃØ¯ ÙĪØ¯
el l
ĠØªØŃ ØµÙĦ
Ø±ÙĬ ÙĤÙĬ
ÙĥØ³ Ø±
ØµÙĨ Ø§Ø¹Ø§Øª
ĠØ¬Ø² ÙĬØ±Ø©
ĠØµØŃ ÙĬØ©
ĠØ§ÙĦÙħ Ø¯Ùī
ĠÙģ ØŃ
ĠØ§ÙĦØ¯Ø§Ø® ÙĦÙĬ
ĠØ§ÙĦØ§ØµØ·ÙĨ Ø§Ø¹ÙĬ
ĠØ§Ùģ Ø±ÙĬÙĤÙĬØ§
ĠÙģ Ø±ÙĤ
ĠØ¹ÙĨ Ø§ØµØ±
ÙĤ ÙĪØ·
Ø® ÙħØ©
ĠÙħÙĪ Ø§Ø¶ÙĬØ¹
ĠÙħØ¤ Ø®Ø±
Ø§Ø³ ÙĬØ±
996 0
ĠØ¯ ÙĪØ±ÙĬ
Ø¯ Ø§ÙħØ©
ÙĦØ§ÙĦ Ø§Øª
ĠÙĦÙĦ Ø±Ø¬Ø§ÙĦ
56 8
98 94
Ø· Ø§Ø¹
ĠØ§ÙĦØ´ Ø±ÙĬÙģ
ĠØ³Ø¨ØŃ Ø§ÙĨ
ĠØµ Ø¯Ø±
Ùģ Ø
Ø±ÙĬ Ø¨ÙĬ
ĠØ¨ Ø³ÙĬØ·
Ġon line
ÙģØ §
ri v
ĠØ£ÙĤ Ø¯Ùħ
ĠØ³Ø§Ùħ Ø³ÙĪÙĨØ¬
ĠÙħÙĨ Ùĥ
nF acebook
ĠÙĨ ÙħÙĪ
ĠØ§ÙĦØ¹ÙĦ Ø§ÙĤØ©
Ø³Ø¨ Ø§ÙĨÙĬØ§
r et
ĠÙĩ Ø§Ùħ
ĠÙģ Ø§ÙĬ
Ñ Ģ
ĠØ§ÙĦ ÙĦÙĬÙĦ
ĠÙħØ¯ Ø±ÙĬØ¯
ĠÙħØ® ØªØ¨Ø±
al k
ĠØ§ÙĦØ³ ÙĪÙĬØ¯
ĠØ³ ÙĦÙħØ§ÙĨ
ÙĬØ¦ Ø§Øª
ĠØ§ÙĦØµ ÙĬØ¯
ĠØ¨ Ø±ÙĬØ·
nØ§ÙĦ Ø¬
ĠØ§ÙĦØ¬Ø² ÙĬØ±Ø©
ĠÙģ Ø±Ø¶
n Ø¹Ø±ÙĪØ¶
ĠØªØª Ø¶ÙħÙĨ
2 87
ĠØ·Ø¨ÙĬØ¹ ÙĬØ©
Ø¹ ÙĬÙħ
ØŃ ÙħØ©
ĠØ£Ø³ Ø¦ÙĦØ©
ĠØ§ÙĦÙĩ ÙĨØ¯ÙĬ
ĠÙĬ ØŃÙĬ
nØ§ÙĦÙģ Ùĥ
O T
ĠØ¹ Ø±Ø¨
ØªÙħ ÙĥÙĨ
10 9
ÙĬÙģ Ø±
ĠÙĦ ØµÙĨØ§Ø¹Ø©
Ø¶Ø± Ø§Ø¡
ĠÙħØŃ Ø§Ø¬Ø±
ĠØ¨ Ø£Ø³Ø¹Ø§Ø±
ĠØ¨ÙĬØ± ÙĪØª
Ġ he
ÙĦØ³ ÙģØ©
ĠÙĪ ÙĨÙĤ
ĠØ§ÙĦÙĤ Ø§Ø¦Ùħ
âĢı :âĢı
ĠØ§ÙĦØ¥ Ø®
ÙĥØª Ø§Ø¨Ø©
ĠÙĬÙĨ Ø¨ØºÙĬ
Ġli k
ĠØ§ÙĦØ¢ ÙĦÙĬ
ĠÙĦÙĦ ÙĨØ³Ø§Ø¡
ĠØ§ÙĦÙĨÙģ Ø§ÙĬØ§Øª
20 9
ĠØ§ÙĦØ§Ø¬ØªÙħ Ø§Ø¹
ĠØ£ Ø±Ø¯
ĠØ¹ Ø«ÙħØ§ÙĨ
998 67
ĠÙĦ ÙħØ±
nÙħ Ø³ÙĦØ³ÙĦ
ĠØ§ÙĦÙħØ¤ ØªÙħØ±
ĠØ¨Øº Ø¯Ø§Ø¯
11 9
ĠØ³ Ø±ÙĬØ¹Ø©
ĠØ± ÙĤ
ÙĪØ±ÙĬ Ø¯
ĠØ¹ ØµØ±
Ø³Ùħ Ø¹
ĠÙħØ¬ ØªÙħØ¹
ĠÙĤÙĬ Ø§Ø³
ĠØ§ÙĦØ£ÙĪØ± Ø§ÙĤ
ĠÙģ ÙħØ§
ĠØ¨Ø§ÙĦ Ø·
998 96
11 1
ĠØ§ÙĦØ´Ø¹Ø¨ ÙĬØ©
2 37
ĠØ§ÙĦÙĤ ÙħØ±
ĠÙħÙĪ Ø«
Ø·Ø± ØŃ
ĠØ§ÙĦØ¥ Ø¬Ø±Ø§Ø¡Ø§Øª
ĠÙĪØ§ÙĦ Ø´Ø±
ĠØ¯ Ø§Ø¦Ø±Ø©
ĠØ§ÙĦØª ÙĤØ±ÙĬØ±
ĠØ§ÙĦØŃ ÙħØ¯
10 1
ĠØ§ÙĦÙĥÙĬÙħÙĬ Ø§Ø¦ÙĬØ©
ĠØªØŃ ÙĥÙħ
ĠØ£Ø±Ø¨ Ø¹Ø©
07 3
ĠØ§ÙĦÙħ ÙĥØ±
nÙĬÙħÙĥÙĨ Ùĥ
Ø± ÙĬØ©
ÙĬØ§ Ø·
ÙħÙĩ ÙĪØ±
Ùħ ØµØ±
ĠØ§ØŃ ØªÙĬØ§Ø¬Ø§Øª
ĠØ§ÙĦÙģ Ø¬
ĠÙĨÙģØ³ Ùĥ
ĠØ§ÙĦÙħØ¬ Ø§ÙĦØ§Øª
Ø¹Ø± Ø¨ÙĬ
\" ,
ĠÙħØŃ ÙĦØ§Øª
ÙĪØ§Ø¯ Ø«
ĠØ¬ Ø¨ÙĦ
ĠØ§ÙĦØµ ÙĦØ©
Ø¹Ø± Ø¨
ĠØ§ÙĦÙĩØ¯ Ùģ
ĠØ§ÙĦÙĥ ÙĦØ§Ùħ
ĠØª ÙħØ±
98 95
Ø§Ùĥ Ø§Øª
Ġ. .\
ĠØ§ÙĦØ£Ø³ Ø¦ÙĦØ©
ĠØ¨Ø¬ ÙħÙĬØ¹
or y
ĠØ§Ø¹ ØªÙħØ§Ø¯
ĠÃ Ĺ
ĠØ¨ØŃ Ø§Ø¬Ø©
Ø«Ùħ Ø§Ø±Ø§Øª
Ø´ ÙĬÙģ
ĠØªØ± Ø¬ÙħØ©
ĠN o
ĠÙħØ¤ ØªÙħØ±
ĠÙħØª Ø·ÙĦØ¨Ø§Øª
ÙĬ Ø§Ø¡
ik i
ĠØ§ÙĦØ¶ ÙĪØ¡
ĠØª Ø§Ø¬Ø±
Ø§Ø® Ø±Ø©
Ø´ ØºÙĬÙĦ
30 8
Ø« ÙĨÙĬÙĨ
te l
ØºØ± Ø§Ø¶
ĠØ§ÙĦØ®Ø§Ùħ Ø³Ø©
at ed
Ø§Ø¬ Ø³ØªÙĬØ±
Ø¨Ø¯ Ø¡
ĠØ§ÙĦÙħØª Ø§ØŃØ©
ĠØ£ÙĨ ÙĩÙħ
15 8
ĠØ¥ Ø³ÙĦØ§Ùħ
87 1
in ter
ĠØ§ÙĦØ¹Ø¶ ÙĪ
ĠØ§ÙĦÙħØŃ ÙĬØ·
ĠØª ÙĪÙĦÙĬØ¯
ÙģØ± Ø¯
ĠØ§ÙĦÙĥ Ø´Ùģ
th er
Øº ÙĦØ§ÙĦ
ĠØª Ø®Øµ
46 3
ĠÙħÙĨÙĩ Ø¬
s u
ĠØªØŃ ÙĤÙĤ
____ ____
ĠÙĨ Ø§ØŃÙĬØ©
Ø·Ø¨ ÙĤ
Ø¹Ùħ ÙĦÙĬØ§Øª
ĠÙĪÙĥ Ø³Ø§Ø±Ø©
ĠØª Ø¨ÙĦØº
ĠÙĦØª Ø³
Ø§Ø± Ùī
ĠØ§ÙĦÙħ ÙĪØ³ÙĪØ¹Ø©
al la
ÙĤÙĦ Øª
ÙĪÙĦ Ø§ÙĬØ§Øª
999 22
ĠØ¯Ø± Ø¬Ø§Øª
ĠØº Ø§ÙĦ
ÙĦÙģØ²ÙĬ ÙĪÙĨ
ĠÙĪØ¬ Ø¯
nØªØ³ÙĪÙĤ ÙĬ
Ø§Ùĥ ÙĬÙĨØ§Øª
ĠÙĪØ§ÙĦ ÙħØ¤
ĠÙħØŃ Ø§ÙĪÙĦØ©
nØ¨ ÙĪ
88 1
Øº Ø§Ø±
nØ§ÙĦ Ø®
Ø² Ø²
ĠØ§ÙĦÙħ Ø¨Ø§Ø±Ø§Ø©
ĠØ£Ø¬ ÙħÙĦ
ic a
997 64
999 00
ĠØ£Ø¨ Ø§Ø¯
Ø³ÙĦ Ø³ÙĦØ©
nØª ÙģØ³ÙĬØ±
ĠÙħØ± Ø§ØŃÙĦ
ĠØ§ÙĦÙĩ ÙĪØ§ØªÙģ
ĠØµ Ø§Ø±
ĠØ§ÙĦÙģØ± Ø²
AD E
ĠØ§ÙĦØŃ ÙĤÙĬÙĤÙĬ
Øµ ÙĦØ©
ÙĦÙģ Ù
ÙĦÙģÙ Ħ
ĠÙħÙĪØ³ Ùī
Ø§Ø¦ ÙĬØ§
ĠØª ÙĪØ±
AD B
Ø£Ùĥ ÙĬØ¯
ĠØ£ÙĨ ÙĨØ§
06 3
ĠØ§ÙĦÙħÙĤ Ø§ÙĦØ©
ĠÙĩ ÙĪÙĦ
lo gy
ĠØ£ ÙĬØ©
nÙħØµÙĨØ¹ ÙĬ
I C
ĠÙĪÙĥ ÙĬÙĦ
83 9
Ø· Ø§ÙĦØ¨
Ø¨ÙĬ Ø¯Ø§Øª
Ø¶ Ø§Ø±
nÙħ Ø´Ø§ÙĩØ¯Ø©
ĠØ¬ ÙĪØ²
Ø¬ÙĨ Ø¨
ĠØŃ ÙĦÙĤØ©
0 84
Ùģ Ø§ØµÙĬÙĦ
Ø¨Ø± Ø
Ø¨Ø±Ø §
ĠØªØŃ Ø¶ÙĬØ±
ĠØ§Ø¨ Ø±
ĠØ¨ÙĬÙĨ ÙĩØ§
ĠØ§ÙĦØ£Ùĩ ÙĦÙĬ
ĠØ§ÙĦØ¹Ø³ ÙĥØ±ÙĬ
a x
ĠØ¯ÙĬÙĨ Ø§Ø±
nØ§ÙĦ Ø´
ĠØ³ ÙĨØª
Ø§ÙĦ ÙĬØ¯
ĠØ§ÙĦØ¹ ÙģØ´
n Ø®Ø¯ÙħØ§Øª
Ø§Ø¯Ø± Ø§Øª
ĠØ®Ø· ÙĪØ©
94 9
har e
ĠØ£ Ø¹Ø±Ø§Ø¶
Ø± Ø³ÙĦ
ang hai
ĠØ§Ø³Øª Ø¹ÙħØ§ÙĦ
ĠØ§ÙĦÙħÙĤ Ø¨ÙĦØ©
ĠØ¥ Ø®
ÙĪ ÙĩØ§
ĠÙĦÙĬ ÙĦØ©
Ø¨ Ø²
ĠØ¬ Ø§Ùĥ
ĠÙģ Ø§Øª
ĠØ§ÙĦÙħØ³ ÙĦÙħ
Ø§ØŃ ØµÙĦ
p x
Ø§ÙĩØ¯ Ø§Øª
ĠØ§Ø· ÙģØ§ÙĦ
ĠØ§ÙĦØ¹ ÙĪØ¯Ø©
999 54
ĠØ´ Ø§Ø´Ø§Øª
ĠØ¶ Ø¨Ø·
ĠÙĬÙĪÙħ Ø
ĠÙĬÙĪÙħØ §
ĠÙĬ Ø³ÙħØŃ
' s
ĠÙĪØ§ÙĦ Ø§ÙĤ
nØ§ÙĦ Ùĩ
ĠØ´ Ø¹Ø§Ø±
ĠØªØµ ÙĪÙĬØ±
Ġweb site
998 56
ĠÙħØ·ÙĦ ÙĪØ¨
ĠÙħÙĨØ®ÙģØ¶ Ø©
ĠØ¹ Ø¬ÙħØ§ÙĨ
ĠØ§ÙĦØ±Ø£ Ø³ÙĬ
23 2
Ùģ Ø°
ÙĨ Ø·ÙĨ
ĠÙĤØ¶ ÙĬØ©
Ùĩ Ø±Ø©
ĠØ§ÙĦØ· Ø±Ùģ
Ø§ÙĨÙĬ ÙĬÙĨ
Ø§Ø± Ø¶
ĠØ§ÙĦØ£ Ø³Ø¨Ø§Ø¨
Ø§ÙĦ Ø¯Ø±Ø¯Ø´Ø©
ĠØ§ÙĦØ¶ Ø±
Øª Ø§Ø¡
ĠÙħ Ø§ÙĦÙĥ
out ube
ĠØ¨Ø±ÙĬØ¯ Ùĥ
nÙĥ Ùħ
u al
ĠØ¨Ùħ Ø³
ÙĪÙĬ ÙĪØ±Ùĥ
ĠØ§ÙĦØ£ Ø±Ø¬
ĠÙħ Ø´Ø±
94 1
ĠØ¨ Ø¹ÙħÙĦ
Ø® ÙĬÙĦ
I L
E DB
Ø£ ÙĬ
H M
ĠÙħ Ø³ØªØ®Ø¯Ùħ
Ø¹Ùħ Ø§Ø±
ĠØªØ® ØªÙĦÙģ
ĠØ§ÙĦÙħØ® ØªØµ
24 9
Ø§Ùħ Ùĩ
ĠØ§Ø¹ ØªØ¨Ø§Ø±
ĠØ§ÙĦØºØ± ÙģØ©
ÙĪÙĬ Ø¶
Øµ Ø§ÙĨ
ation al
ĠØ§ÙĦØ´Ø± ÙĪØ·
27 2
Ġof f
ĠÙĪ Ø§ÙĤØ¹
ĠÙģÙĬ Ø³
ĠØ§ÙĦÙħÙĬÙĦ Ø§Ø¯
ĠÙģØ¶ ÙĦØ§
31 64
ĠØ± ÙĥÙĨ
ÙĩØ§ Ø¯Ø§Øª
ĠØ§ÙĦØ£Ø« Ø§Ø«
ĠØº Ø§Ø²
ĠÙĩÙĬ ÙĥÙĦ
ĠÙħØ²Ø¯ ÙĪØ¬Ø©
d er
ĠÙĪ Ø§Ø³ØªØ®Ø¯Ø§Ùħ
ĠØ§ÙĦØ¹Ùħ ÙĦØ©
Ùħ ÙĥØ§ÙĨ
Ùģ ÙĪØ±
ĠØ§ÙĦØ³Ø§Ø® ÙĨØ©
h one
ĠØ¬ÙĬØ¯ Ø
ĠØ¬ÙĬØ¯Ø §
T K
ØªØ¨ Ø·Ø©
m ber
indow s
ĠÙĪØ§ÙĦ Ø³ÙĦ
34 9
Ġs e
ĠÙĦÙĦ ÙĥÙħØ¨ÙĬÙĪØªØ±
ĠØ§ÙĦØµ ØŃØ±
Ùħ Ø§ÙĬÙĪ
ĠØ§ÙĦÙģÙĦ Ø³Ø¨Ø§Ø±
ĠØ§ÙĦØ§Ø® Ø¨Ø§Ø±
** **
Ġ[ âĢ¦
nØ§ÙĦ Ù
ĠØ£ Ø±Ø¨Ø¹
ĠØ§Ø¨ ØªØ¯
87 2
ĠØ§ÙĦØªØŃØ± ÙĬØ±
Ø· ÙĨØ©
nØªØ³ Ø¬ÙĬÙĦ
nØ§ÙĦÙ Ħ
ØµÙĦ ØŃØ©
ĠÙĪ ÙĬÙĦ
ĠØ§ÙĦØ³ ÙĥÙĨ
ĠÙĦØ³ ÙĨØ©
ĠØ§ÙĦÙģ Ø¹ÙĦ
ĠØ§ÙĦÙĨØ¬ Ø§ØŃ
994 8
nØ£ ØŃØ¯Ø«
ĠØ§ÙĦØ£ØŃÙĬ Ø§ÙĨ
p ost
98 96
Ø¯ÙĬØ¯ Ø§Ø³
ĠØ§ÙĦØ´Ø± Ø¹ÙĬØ©
ĠØ´ Ø§Øª
ĠP ost
ĠÙħ ÙħØ§Ø±Ø³Ø©
ĠÙĬØ¯ Ù
ĠÙĬØ¯Ù Ħ
ØªÙĪÙĬ Ø§Øª
ĠÙħØ±Ø§Ø¬ Ø¹Ø©
ĠÙĤØ§ÙĦ Øª
ĠÙĬØ¹ ÙĬØ´
ĠØ§ÙĦØ¯ ÙĤØ©
ĠÙģ Ùħ
de x
{ \"
nØ§ÙĦØ¨ Ø±ÙĬØ¯
ĠÙħØ¸ ÙĦØ§Øª
ĠØ§ÙĦØ±Ø³ ÙĪÙĦ
Ø®Ø¨Ø§Ø± ÙĬØ©
pr ess
ĠØ® ÙħØ³Ø©
Ø¬Ø² Ø¡
Ø« Ø¨Øª
98 76
ĠØ§ÙĦØªÙĤÙĦÙĬ Ø¯ÙĬØ©
Ø´Ø± Ø§Ùģ
ÙĪÙģ Ø©
Ġ )\
ĠØ§ÙĦØ¢ ÙĬØ©
ĠÙĬØ¹ ØªÙħØ¯
34 1
ĠÙĨ Ø§Ø¬
ĠØ§ÙĦØ´Ø¨ ÙĥØ©
ĠØ§ÙĦØ¨ÙĦ Ø¯Ø§ÙĨ
25 9
ĠØ§ÙĦÙħØ§Ø± ÙĥØ§Øª
18 2
quip ment
ĠØ§ÙĦØ± ØµØ§Øµ
ĠØ¬Ø¯ ÙĪÙĦ
ØŃ Ø¶Ø±
07 9
Ø³ Ø
ĠØ§ÙĦÙĤ ÙħØŃ
d it
Ø³Ø §
Ùĩ Ùĩ
ĠØ§ÙĦØ£ Øº
ĠØ§ÙĦÙħØº Ø±Ø¨ÙĬØ©
Ø·ÙĨ Ø¨ÙĪÙĦ
ĠØ§ÙĦØ¯ Ø³Øª
ĠØ§ÙĦÙĨ Ø²
§ ï»Ł
ĠÙģ ÙĦÙħ
ĠØ§ÙĦØ« ÙĪØ±Ø©
nØ¢ Ø®Ø±
Ø±ÙĬ ØŃØ§Øª
Ġ 65
ĠØ§ÙĦÙĥ ÙĪÙĥ
Ø§Øª Ùħ
P N
ĠØ§ÙĦØ£Ø± Ø²
9 28
b r
ĠØ¨Ø§ÙĦ Øº
Ø §ï»Ł
ĠØ§ÙĦØ®Ø· ÙĪØ§Øª
: :
ĠØ¨ÙĪ ØµØ©
ĠØ¬ ÙĪÙĨ
ĠØ§Ø¨ÙĪ Ø¸Ø¨ÙĬ
ÙĪ Ø°
ÙĪÙĬ Ø³Ø±
Ø¬Ø± Ø§Ùħ
ĠÙĬ Ø²
Ø·ÙĦ Ø¹
26 2
99 39
ĠÙģÙĬ Ø³Ø¨ÙĪÙĥ
ĠØ¨ÙĪ Ø§Ø¨Ø©
Ø« ÙĨØ§Ø¡
ĠÙĤ ÙĨ
T S
ĠØ¨Ø§ÙĦØ¯Ùħ Ø§Ùħ
ĠØ° ÙĪÙĬ
ĠØ§ÙĦØ¯ ÙĬÙĨÙĬØ©
ĠØ§ÙĦØº ÙĬØ±
G B
Ùģ ÙĬÙģØ©
ÙĲ ØĮ
nØ§ÙĦ Ø°ÙĩØ¨
ĠØ§ÙĦÙħ Ø³ÙĦØŃØ©
Ø¹Ø± Ø§ÙĤ
ĠØªØ® Ø²ÙĬÙĨ
ĠØ§ÙĦØ§Øª Ø¬Ø§Ùĩ
ĠØ¨ Ø¯Ø±
ĠÙĬØ¹ ÙĪØ¯
ÙĤ ÙĪÙĦØ©
Ø·Ùģ Ù
ĠØ§ÙĦÙħØ³ Ø§Ø±
Ø·ÙģÙ Ħ
nØ§Ø® Ø¨Ø§Ø±
Ø¯ ÙĪÙĨ
ĠØ¨Ùħ Ø¯ÙĬÙĨØ©
) )
ĠØª Ø²ÙĬØ¯
ĠØ³Øª ÙĥÙĪÙĨ
Ġc an
35 2
55 4
Ø¸ ÙĬ
ĠØ§ÙĦØ±ÙĬØ§Ø¶ ÙĬØ§Øª
P R
nÙĥ ØªØ¨
ÙĪ Ø§ÙĨÙĬØ©
ĠØ§ÙĦÙħØ± Ø¶
ĠØ£Ø´ ÙĥØ§ÙĦ
ĠØ§ÙĦØ§ÙĨØª Ø®Ø§Ø¨Ø§Øª
ark et
ĠÙħÙĪ Ø¯ÙĬÙĦ
ĠÙħ ÙħÙĨ
65 3
ĠØ¨Ø§ÙĦÙĥ ÙĪÙĬØª
ÙĬ ÙĪØ±
98 31
ĠÙĬ Ø§Ø³
ĠØ§ÙĦØµ Ø¨Ø§ØŃ
Ùĥ ÙĪÙħØ©
ĠØ§ÙĦØ³ÙĪØ¯ Ø§Ø¡
ĠØ§ÙĦØ¥ Ø¹
ĠØ§ÙĦÙħ Ø³ÙĦØ³ÙĦ
Ø§Ø· Ùģ
§ ÛĮ
Ġh as
Ø §ÛĮ
ĠÙħØªØŃ Ø±ÙĥØ©
Ø£Ø³ Ø³Øª
ĠØªØ¯ Ø®ÙĦ
ØªØ± Ø¶
98 75
ĠÙħÙĨ Ø§Ø³Ø¨
ØµÙĨÙĬÙģ Ø§Øª
ĠØ§Øª Ø¬Ø§Ùĩ
er t
0 27
ĠØ§ÙĦØ¥ Ùģ
ĠØ¥ÙĦÙĬ Ùĥ
ĠØ§ÙĦÙĪØ² Ø§Ø±Ø©
ĠØ¨ ÙĪØª
ĠØªÙĤ Ø±ÙĬØ¨Ø§
09 1
Ø¬ Ø§Ø¹
Ø² Ø§Ø¨
ÙĬØª ÙĩØ§
ĠÙĦ Ø§Ø³ØªØ®Ø¯Ø§Ùħ
ĠÙĩ Ø§ÙĬ
ĠØ¨ Ø§Ø³
ĠØ« ÙħÙĨ
Ø§ØŃ Ùģ
14 8
ÙĪÙĤ Øª
ĠÙħØªÙĪ Ø³Ø·Ø©
ĠØ¹Ùħ ÙĦØ©
ĠØ§ÙĦØŃ ÙĦÙħ
ĠØ§ÙĦØ§Ø³ Ø¹Ø§Ø±
ĠØ§ÙĦØ± Ø¨ÙĬØ¹
nÙĪ Ø²
ĠÙĬÙĪÙħ ÙĬ
Ø§ÙĤ Ùģ
997 45
ĠÙħØ± Ø³
ÙĢÙĢÙĢÙĢÙĢÙĢÙĢÙĢ ÙĢÙĢÙĢÙĢÙĢÙĢÙĢÙĢ
Ġ Ġ
ĠÙĤ ÙĪÙĬ
Ø³ Ø¹
Ø¥ÙĨ Ø¬ÙĦÙĬØ²ÙĬØ©
Ø° ÙĬØ¨
ĠØ³ ÙĬÙģ
ÙĪØ§ÙĦ Ø¨
ØŃØ¯ Ø§Øª
ĠØ§ÙĦØ«Ø§ÙĨ ÙĪÙĬ
Ø±Ø¨ ÙħØ§
ĠÙĦ ÙĬÙģ
ĠØ§ÙĦØ® Ø´
ĠØ§ÙĦØ¨Ø± Øª
20 11
ĠÙĬ Ø²Ø§ÙĦ
ĠØ§ÙĦØ£Ùħ Ø§ÙĥÙĨ
ĠØ§ÙĦÙħÙĤ Ø§ÙĪÙħØ©
ĠÙħØª Ø®ØµØµØ©
ĠØ³ÙĬ Ø§Ø³ÙĬØ©
997 1
¸ ı
ĠØ§Øª Ø®Ø§Ø°
O V
ĠÙĪØ§ÙĦ Ø²
ad a
n Ø«
35 1
Ġs c
ĠÙĪØ§ÙĦØª ÙĤ
Ø§ÙĪ Ø³
ĠØ§ÙĦØ¯ÙĬÙħÙĤØ±Ø§Ø· ÙĬØ©
ĠØ§ÙĦØ¹Ø±Ø§ÙĤ ÙĬØ©
Ø·Ø¨ Ø¹
Ø® ÙĬÙĨ
ĠØ§ÙĦØª ØºÙĬÙĬØ±
ĠØ§ÙĦÙĨ Ø´Ø§Ø·
nÙģÙĬ Ø³Ø¨ÙĪÙĥ
ĠØ¬ ÙĪÙĦ
ĠØ´ ÙĪ
ĠØ£ Ø³Øª
37 2
07 8
Ùĥ ÙĬØ¯
Ø± Ø§Ø¶
ĠØ§ÙĦØ³ Ø§Ø¨Ø¹
ĠØ£Ø¨ÙĪ Ø¸Ø¨ÙĬ
ĠØ§ÙĦØ±Ø³ Ø§ÙĦØ©
ĠØ§ÙĦØ³ÙĦ Ø¹
ĠØ± Ø®Ø§Ùħ
um b
Ø¨ Ùĥ
47 3
nØ£ ÙħØ§
Ø³ Ø§ÙĦØ©
vi ew
ĠØ§ÙĦØ® ÙĬØ§Ø±
ĠÙħØª Ø§ØŃØ©
ĠØ§ÙĦØªØ±Ø¬ ÙħØ©
03 8
Ùģ Ø²
ĠØ§ÙĦØ¨ ÙĪÙĦ
ĠØ§Ø³ØªØ®Ø¯Ø§Ùħ Ùĩ
ØªØµ Ø§Ø¯ÙĬ
ĠÙĪØª Ø·ÙĪÙĬØ±
Ø´ ÙĬØ¯
ĠØ§ÙĦÙĤ Ø¨
ĠØ§ÙĦØ¹ ÙħÙĪØ¯ÙĬ
ĠØªÙĨ ÙħÙĬØ©
18 1
Ġg rind
âĢ Ķ
D DB
ĠØ§ÙĦØª Ø·ÙĪØ±
ĠØ¨ ÙĬÙĥ
Ġ20 06
ĠØŃÙħ ÙĦØ©
ÙħØ¤ Ø³Ø³Ø©
ĠØ§ÙĦÙħÙĦÙĥ ÙĬØ©
ĠØ§ÙĦØ· Ø§ÙĦØ¨
ĠÙħÙĤ Ø§ÙĦ
ĠØ¹ ÙĦØ§ÙħØ§Øª
ĠØ§ÙĦØ§ÙĤ ØªØ¨Ø§Ø³
Ø®ÙĦ Ø§ÙĤ
ÙĨØ¯ Ø³ÙĬÙĨ
ĠØ§ÙĦØ¬ ÙĪÙĦØ©
ĠØ¶Ø± ÙĪØ±Ø©
Ø¶Ø± ÙĪØ±Ø©
Ø¶ Ø§Ø¹
ĠØ§ÙĦÙĬ ÙĪÙĨ
98 87
45 3
ĠÙħØ³ Ø§Ø¹Ø¯Ø©
ĠØ§ÙĦÙĥØ±Ø¨ ÙĪÙĨ
nØ§ÙĦ Ø´Ø±ÙĥØ©
ĠØ§ÙĦÙħØŃ ÙĥÙħØ©
ĠÙĦÙĦÙħ Ø³Øª
ĠØº Ø²Ø©
ĠØ§ÙĦØªÙĦÙĤ Ø§Ø¦ÙĬ
ĠÙĤÙĬ Ø§Ø¯Ø©
ĠÙħÙģ ÙĩÙĪÙħ
Ø§Øº Ø©
ĠØ§ÙĦØ±Ø£ ÙĬ
ĠØ¨ ÙħÙĪ
etail s
ĠÙĬ ÙĪÙĨ
Ø¹Ø± ÙĥØ©
ĠØ¥ Ø¹ÙĦØ§Ùħ
ĠØ§ÙĦØ¨ ÙĨØª
ÙĪÙĦ Ø§Ø¯
0 16
Ø§ÙĤ Ø´Ø©
ĠØŃ Ø¨ÙĪØ¨
Ø®Ø· Ø§Ø¡
ĠØ§ÙĦ ÙĩØ§
Ø³Ø§Øª ÙĬÙĨ
co in
§ Ø¯ÙĬØ¯Ø§Ø³
Ø §Ø¯ÙĬØ¯Ø§Ø³
ĠØ§ÙĦØªØŃ ÙħÙĬÙĦ
m ed
ĠØ¢ Ø«Ø§Ø±
ĠØ§ÙĦØ£Ùĥ Ø¨Ø±
ob ile
ĠÙĪ Ø§Ùĥ
ĠØ¥ÙĦÙĥØªØ± ÙĪÙĨÙĬ
22 9
nØª ÙĤ
Ø³ Ø§ÙĦ
98 66
ĠÙĬØª ÙĨ
ÙĤ ÙĦØ©
ĠØ§ÙĦØ§ÙĦÙĥ ØªØ±ÙĪÙĨÙĬØ©
ĠÙĦÙĦØ¥ ÙĬØ¬Ø§Ø±
ĠÙħÙĩ ÙħØ§
ØªØ±Ø§ØªÙĬØ¬ ÙĬØ§Øª
ĠØ¹ÙħÙĦ Ø§Ø¡
ĠØª Ø±ÙĬ
ĠØ± Ø¨ÙĬØ¹
Ø±Ø¨ ØŃ
ĠÙĪØ§ÙĦÙħ Ø¹Ø¯Ø§Øª
ĠÙģ Ø§Ø¦ÙĤØ©
ĠØ¨Ø§ÙĦ Ø´Ø±ÙĥØ©
ĠØ± ØŃÙĦØ©
ĠØ§ÙĦØ¥ Ø³Ø¨
ĠØ²Ø± Ø§Ø¹Ø©
ĠØ´ÙĬ Ø®
998 57
830 2
ĠØŃ ÙħØ¯
Ø´ Ùĥ
Ø±ÙĪ Ø§Øª
ĠÙħØ¬ Ø§ÙĦØ§Øª
yr ight
| |
t r
ĠØ§ÙĦØªÙĤ Ø¯Ùħ
ĠÙĪØ§ÙĦ Ø¢
9 20
Ø£ ÙħÙĬÙĨ
Ø¹ ÙĪØ¨Ø©
ĠØ§ÙĦØªÙģ ÙĥÙĬØ±
ĠØ§ÙĦØ¬ ÙĬÙĦ
ĠØ§ÙĦÙģ ÙĪØ±
ĠAnd roid
ĠØª ÙĪÙĤÙģ
Ø´ Ø·
nØ§ÙĦ ØµÙģØŃØ©
Ø±Ø³ Ø§ÙĦØ©
ĠØ§ÙĦÙĨ Ø§Ø´
Ø§ØµÙĦ Ø§ØŃ
ĠØ§ÙĦØ²Ø± Ø§Ø¹ÙĬØ©
ĠØªÙĤ ÙĪÙĦ
ĠØ£ ÙģØ±Ø§Ø¯
ĠÙĦÙħ Ø¹Ø±ÙģØ©
ĠÙĦÙĦ Ø§ÙĬØ¬Ø§Ø±
997 97
ud i
Øµ Ø§ÙĨØ¹
29 2
ĠØ«Ø§Ø¨Øª Ø©
ĠØ§ÙĦØª Ø¹Ø±Ùģ
ĠØ§ÙĦÙħÙĬÙĥ Ø§ÙĨÙĬ
ĠÙĪØ§Ø¶ ØŃ
ĠØŃÙĬ Ø§ØªÙĩ
ĠØ³Ø¨ ÙĤ
Ùĥ ÙĪØ±Ø©
ĠØ¨Øª ÙĤØ¯ÙĬÙħ
ØµØ¯ ÙĤØ§Ø¡
ĠØ§Øª ØµØ§ÙĦ
ĠÙĪØ± Ø´Ø©
ĠØ¨Ø£ÙĨ ÙĩØ§
43 2
ÙĬ Ø¯Ø©
nØ§ÙĦÙħ ØŃ
ĠØ§ÙĦÙĪØŃ ÙĬØ¯
ĠÙĪÙĦ Ø°ÙĦÙĥ
ĠÙĦ ØŃÙħ
I V
ĠØ¨ Ø¹ÙĨÙĪØ§ÙĨ
ĠÙĪ Ø¹ÙĦ
nÙħ Ø±ÙĥØ²
n Ø´Ø±Ø§Ø¡
ĠØ¹ÙĨ Ø
ĠØ¹ÙĨØ §
U N
. ,
ĠØ§ÙĨ Ø´Ø§Ø¡
ĠÙĩ ÙĬØ¯Ø±ÙĪÙĦÙĬÙĥÙĬØ©
n Ø§Ø¹
ĠÙĨ Ø¬Ø¯
ÙĪÙħ ÙĬÙĨ
Ø± Ùĩ
ØªØ² Ùħ
ĠØ¹ÙĤ ÙĪØ¯
ĠÙĨÙĩ Ø§Ø¦ÙĬ
ĠØ§ÙĦØ£Ø¯ Ø¨
ĠØ®Øµ Ø§Ø¦Øµ
ÙĬÙģ Ø
ÙĬÙģØ §
nÙħ Ø³Øª
ĠØ§ÙĨ Ø³Øª
Ø´ ÙĩØ¯
Ø¬ ØŃ
Ø§Ø¦ ÙĩÙħ
Ø§ÙģØ¸ Ø§Øª
ĠØ§ÙĦÙĨØ³ Ø®Ø©
ĠÙĨ ÙĪ
25 1
ĠØªØ¤ Ø«Ø±
ĠØ§ÙĦØ¥Ø± ÙĩØ§Ø¨
ĠØ¨ ÙĪØ±Ø¯
ÙĪ Ø£
ĠØ§ÙĦØ¥ Ø¹ÙĦØ§ÙĨØ§Øª
ĠØ§ÙĦØ¬ Ø§Ø±ÙĬ
ĠØ§ÙĦØª Ø®Ø·ÙĬØ·
ĠA pp
ĠØ§ÙĦÙħØ® Ø§Ø·Ø±
ĠØ«Ø§ÙĨ ÙĪÙĬ
Ġn ew
995 0
998 65
ĠØ§ÙĦØ¹ ÙĤØ¯
ĠØ§ÙĦØªØ±Ùĥ ÙĬØ²
ĠØ§ÙĦØ«ÙĤ Ø§ÙģÙĬ
ĠÙħ Ø´Ø§Ø±ÙĥØ§Øª
Ø§Ø± Ùĥ
ĠØŃ ÙģÙĦ
ĠØ¨ÙĦ Ø§Ø¯
ĠØ§ÙĦØ± Ùĥ
ĠØ§ÙĦØ³ÙĬ Ø§Ø³Ø©
ØŃØ¯ Ø¯
ĠØ¨Ø§Ø± ÙĬØ³
ĠÙħØª Ùĥ
86 2
ĠØ§ÙĦ ÙĬÙħ
3 34
lo p
ĠØªØ±Ùĥ ÙĬØ²
ĠØªØª ÙĨ
19 2
Ġ4 8
Ø¨ØŃ ÙĪØ«
84 1
ĠØ§ÙĦØ¬Ùħ ÙĦØ©
ĠØ¨ÙĤÙĬ ÙħØ©
ØªÙĩ Ø§Ø¡
ĠØ§ÙĦØ¨ÙĬ ØªÙĥÙĪÙĬÙĨ
ĠØ§ÙĦØ«ÙĤ Ø§ÙģÙĬØ©
n ame
Ø¨ Ø±ÙĬÙĦ
ĠØŃØ¯ÙĬØ« Ø©
ÙĪØ³ ÙģØ§Øª
ĠØ§Ø³Øª Ø«ÙħØ§Ø±
e ed
ĠØ§ÙĦÙħØ´ ØªØ±Ùĥ
ĠØ§ÙĦØªÙĨÙģÙĬ Ø°ÙĬ
ĠÙĨ ÙĩØ±
Ø´ Ø¹
ĠØ§ÙĦØ³ÙĬ Ø§ØŃÙĬØ©
ĠØ§Ø³Øª ÙĩÙĦØ§Ùĥ
Ġ <
ĠØ¥ Ø³Ùħ
ĠØ³ÙĬØ± Ø§ÙħÙĬÙĥ
ÙĤØ¯ Ø±Ø©
n in
ĠØ§Ùĩ ØªÙħØ§Ùħ
ĠØ¯ Ø±ÙĪØ³
ĠØ· Ø¨ÙĬØ¨
ĠÙĪØ§ÙĦÙħ ÙĤ
ĠØ§Ø³Ùħ Ø§Ø¡
ĠØ¥ ÙħØ§
ĠØ§ÙĦØ§ØŃ ØªØ±
Ø¹ Ø²ÙĬØ²
ĠØ· Ø§ÙĤØ©
ĠØ§ÙĦØ± ÙĥØ§Ùħ
Ġo ur
ĠØªÙħ Øª
Ø· Ø§ØŃÙĪÙĨØ©
ĠØ§ÙĦØ£ ÙħØ©
ÙĬØ³ Ø§ÙĨ
ĠØ§Ø³ Ø·ÙĨØ¨ÙĪÙĦ
ĠØ¬Ø± Ø§Ùħ
ĠØ§ÙĦØ¬ Ø§ÙģØ©
998 46
ĠØ§ÙĦØ«ÙĤ ÙĬÙĦÙĩ
ĠØ§ÙĦØ°Ø§Øª ÙĬØ©
ĠÙĨÙħ Ø§Ø°Ø¬
ĠÙħÙĤ Ø§ÙĪÙħØ©
ĠØ¹ ÙĩØ¯
Øº ÙĪÙĦØ§
ĠÙħÙĪÙĨ Ø¯ÙĬØ§ÙĦ
ĠÙĪÙĬ Ø³Øª
ĠÙĥÙĦ ÙĩØ§
ÙĪ Ø³ÙĬ
Ø´ Ø§Ùģ
ĠØ§ÙĦØ« Ø§Ø¨Øª
ĠØ§ÙĦØ¬Ø¯ ÙĪÙĦ
ĠÙĪØ² ÙĨ
§ ï»
ĠÙģÙĦ Ù
ĠØ± ÙĪØ¨
ĠÙģÙĦÙ Ħ
ĠØ§ÙĦØ±ÙĤ ÙħÙĬ
m all
Ø§ÙĤ Ø¨
ĠÙĥ Ø§Ø¨
ĠØ§ÙĦÙĨ ÙħÙĪØ°Ø¬
ĠØªØ£ Ø³ÙĬØ³
ĠØ¨ Ø£Ø³
p ar
ĠØ§ÙĦØ¨ÙĨ ÙĪÙĥ
nÙĬ ØªÙħ
ĠÙĦ ÙĪØŃØ§Øª
ĠØ§ÙĦØª Ø±Ø¨
ĠØ³ÙĦ Ø§ÙħØ©
ĠØ¯ Ø¨
ĠS c
ĠØ§ÙĦØ¥ Ø¬ØªÙħ
ĠØ³ Ø§ÙĦÙħ
ĠÙħ ÙĥÙĪÙĨ
ÙĦÙĬ ÙħÙĬ
ĠØ¹ Ø§Ø¦
r en
Ø§Ø± ÙĥØ§Øª
ĠØ¶ ÙĪØ¡
ĠÙĬÙħÙĥÙĨ ÙĨØ§
ĠØ§ÙĦØŃ Ø¨ÙĬØ¨
ĠÙĪØ£ Ùħ
i ew
98 77
Ø§Ùĩ Ø¨
ĠÙħ ÙģØ±
Ø±ÙĬ Øº
ØŃØ¯ Ø§Ø«
88 2
T C
84 2
nØ± Ø¦ÙĬØ³
Ø§Ùħ Ø¨
P M
ĠÙħ ÙĥÙĪÙĨØ§Øª
ĠÙĥ Ø¬Ùħ
ĠØ¨Ø¬ ÙĪØ¯Ø©
21 0
n ÙĨÙĤ
ĠØ§ÙĦØ¨Ø±ÙĬØ· Ø§ÙĨÙĬØ©
ĠÙģ Ø¦Ø©
Ùĥ ÙħÙĦ
ĠÙĬÙħ Ø«ÙĦ
ĠÙĨØ³ Ø®
ÙĤÙĬ Ø¨Ø©
Â» .\
26 1
3 00
Ġ- \
ĠÙĦÙħ Ø·ØŃÙĨØ©
ØªÙĬ Ø§Øª
ĠÙħØªÙĨ ÙĤÙĦ
ĠØªØŃ Ø±ÙĬØ±
ur es
at ing
n V
16 9
Ġcrush ing
ĠÙĦØ´ Ø¦ÙĪÙĨ
ĠØ§ÙĦØ§Ø³Øª ÙģØ§Ø¯Ø©
ĠØ§ÙĦØ§ÙĨ Ø³Ø§ÙĨ
ĠÙħØ· Ø¹Ùħ
ĠØ§Ø³ Ø¨
ĠÙħØªØ± Ø¬ÙħØ©
Øº Ø§Ùģ
Ø§Ø¬Ùĩ Ø§Øª
997 85
ĠØ§Ùħ Ø±Ø£Ø©
p g
n Ø±ÙĤÙħ
ĠØ§ÙĦØªØ§Ø±ÙĬØ® ÙĬØ©
ĠØ¯Ø± Ø§Ø³Ø§Øª
ĠØ¯Ø± ÙĩÙħ
ĠØªØ¯ Ø±ÙĬØ¨
ĠÙĦ Ø®
ĠI m
nÙĩ ÙĨØ§Ùĥ
ÙĨÙĬ Ø³Ø©
ĠØ¨ÙĬÙĨ ÙĩÙħ
ĠØ§ÙĦØ²ÙĬ ØªÙĪÙĨ
ĠÙĪØ§ÙĦ ÙħÙĦ
ĠÙĦÙĦ Ø·Ø§ÙĤØ©
ĠÙħØŃ ÙĦÙĬØ©
ĠØ§ÙĦØ¬Ùĩ Ø§Øª
1 31
ĠØ§ÙĦØ° ÙĥØ±
ĠÙĪØ§ÙĦØŃ ØµÙī
ĠÙĨÙĤ Øµ
05 2
ĠÙģ ÙĤ
ĠÙĨ ÙĨ
H D
ĠØªÙħ Ø«ÙĦ
ĠÙħØ· Ø§Ø±
ĠØªÙħ ØªÙĦÙĥ
ĠØ§ÙĦØ§Ø¹ ÙĦØ§Ùħ
f act
ÙĤ ÙĦØ§ÙĦ
ĠØª Ø¬ÙħØ¹
ĠØ§ÙĦØ¨ ÙĪ
Øº ÙĦÙĬÙģ
ĠØ¨ Ø§Ø®
ĠØ§ÙĦÙħ ÙĪØ¬ÙĪØ¯
830 6
ĠØª Ø«Ø¨ÙĬØª
ĠÙĪØºØ±Ø¨ ÙĦØ©
Ġ am
ĠØŃ ÙģØ±
ĠT witter
ÙĪ ÙĪ
ĠØºØ³ Ø§ÙĦØ§Øª
ÙĪÙĨ Ø¯ÙĬØ§ÙĦ
n ÙĪÙĨ
44 3
ĠÙĪÙĦ Ùĩ
ĠØ§ÙĦÙĨ ÙĪØ§Ø¨
Ø®ÙĦ ÙĤ
Ùģ Ùī
I R
ĠØ§ÙĦØ£ÙĪ ÙĥØ±
ĠØ§ÙĦÙħØ¤ ÙĦÙģ
ĠØ§ÙĦÙĤ ÙĪÙī
ĠØ¨Ø¹Ø¶ ÙĩØ§
ĠØ§ÙĦØŃÙħ Ø§ÙĬØ©
ĠØ² ÙĪØ§Ø¬
Ø¨ Ø¹Ø¯
ĠØ£ Ø¹ÙĦÙĨ
oo l
X X
ĠØ§ÙĦØªØ¬ ÙħÙĬÙĦ
ĠÙĥ Ø§Ø±ÙĬ
ĠØºÙĬØ± ÙĩØ§
Ø£ ÙĪ
ĠØ§ÙĦÙħ ÙĥÙĪÙĨØ§Øª
ĠÙħ ÙĪØ¬ÙĪØ¯
ĠØ§ÙĦØ¬ ÙħÙĬÙĦØ©
ĠØ§ÙĦØªØ£ ÙħÙĬÙĨ
Ùģ Ø§Ø±Ø©
03 2
ĠÙħØ« ÙĦØ§
56 9
ĠØ§ÙģØª ØªØ§ØŃ
Ú© ÙĨ
P C
I G
Ð º
ĠØ§ÙĦÙĪÙĦ Ø§Ø¯Ø©
ĠÙĨØµ Ø§Ø¦ØŃ
S D
ĠÙħØ¯ Ø§Ø±Ø³
ÙĬØ¬ Ø
ÙĬØ¬Ø §
Ùĩ ÙĪ
ĠØ· ÙģÙĦ
ĠÙĪØ¨ Ø¹Ø¶
ĠÙĥ Ø¨Ø§Ø±
Ð »
ĠØ§ÙĦØ£ØŃØ¯ Ø§Ø«
Ø´ Ø¹Ø±
x y
ĠÙĪØ§ÙĦÙħ Øª
ĠÙĬ Ø³ÙħÙī
nØ§Ø³ Ø¹Ø§Ø±
ĠØ§ÙĦØ¹Ø§Ùħ ÙĦØ©
n Ø¹Ø¯Ø¯
V K
ĠØª Ø§ÙĬÙĦ
ĠÙĦ Ø¹ÙĦØ§Ø¬
nØ§ÙĨ ÙĤØ±
ĠØ· Ø§ÙĦ
Ġ9 00
ĠÙģØ¹ Ø§ÙĦÙĬØ§Øª
ĠØ§ÙĦØ·Ø¨ÙĬ Ø¹Ø©
op yright
L L
Ø§ÙĬÙģ ÙĪÙĨ
s et
ĠM ar
Ø¬Ùħ Ø§Øª
form ation
' ).
ĠØª ÙħÙĥÙĨ
ĠÙħØ¬Ø§ÙĦ Ø³
ĠØ£Ùħ Ø§ÙĥÙĨ
ĠØ§ÙĦØ£Ø± Ø§Ø¶ÙĬ
ĠÙĨ Ø³Ø¨
Ø§ØŃ Ø¸Ø©
B M
ĠØ§ÙĦÙĥ Ø§ÙĪÙĦÙĬÙĨ
ĠÙĦÙĥÙĨ Ùĩ
ĠØ·ÙĦØ¨ Ø§Øª
ĠÙĦØª ÙĤØ¯ÙĬÙħ
ĠØ§ÙĦÙģ ÙĬÙĦÙħ
19 1
Ø±ÙĬÙĤ ÙĬØ©
ĠØ£Ø³ ÙĩÙħ
998 74
Ġ all
t s
ĠÙħØ³Øª Ø´ÙģÙī
ĠØªØ¬ Ø§Ø±ÙĬ
ĠÙħØª Ø§Ø¨Ø¹
Ġ cont
ĠØ§ÙĦÙħØ³Øª ÙħØ±
85 1
a u
n ÙĪØ³
ĠØ§ÙĦÙħØ±ÙĥØ² ÙĬØ©
ĠØª ÙĥØ§ÙĦÙĬÙģ
nÙĨ ØŃÙĨ
/ "},"
ĠØ§ÙĦÙĨ ÙħÙĪ
nÙħØµ Ø§ÙĨØ¹
i j
ĠØ§ÙĦØ£Ø¯ ÙĨÙī
ĠØ£ Ø²ÙħØ©
Ø§ØŃÙĨ Ø§Øª
ĠÙĤ Ø§Ø¨ÙĦØ©
nÙĬ ÙĤÙĪÙĦ
ĠØ§ÙĦÙĨ ÙĩØ±
Ø´Ùģ Ø±Ø©
nÙħ Ø´Ø±ÙĪØ¹
ĠÙĪ Ø¬ÙĦ
998 98
ĠÙĤ Ø§Ø¨ÙĦ
ĠA n
ĠØ§Ø´ ØªØ±
Ã §
ĠØ§ÙĦØ§Ø³ Ø¨
Ùħ Ø«ÙĦ
ĠÙĬØ¯ Ø®ÙĦ
ĠØ§ÙĦØ§Ø· ÙģØ§ÙĦ
ĠØª Ø¹ÙĦÙĨ
30 9
ĠÙĪØ¥ÙĨ ÙħØ§
ĠÙħÙĦ Ø§ÙĬÙĬÙĨ
ĠØ§ÙĦÙħØªØŃ Ø±ÙĥØ©
ÙĪÙħØ§Øª ÙĬÙĥ
ĠØ£Ùħ Ø¨ÙĬØ±
ĠÙĤ ÙĨÙĪØ§Øª
n U
14 1
ĠÙĪØ§ÙĦØª Ø·ÙĪÙĬØ±
ĠÙĪÙĦ Ù
ĠØ§ÙĦØ¬ Ø§Ùĩ
ĠÙĪÙĦÙ Ħ
ĠÙĨÙĬ ÙĪÙĬÙĪØ±Ùĥ
ØºØ· ÙĬ
Ø§Ø¶ Ø±
ĠØ¥Ø¶ Ø§ÙģÙĬØ©
ĠØ£Ø³ ÙĪØ§ÙĤ
ĠÙĦÙĦ ØªØ±
29 1
pe c
31 24
Ø³Ø¨ ÙĤ
26 03
ÙģÙĬ Ø¶Ø§Øª
ĠØ¯ Ùģ
ÙĤÙĬ Ø¯Ø©
ĠØ´Ø§Ø± Ùĥ
ĠØ§ÙĦØ¹ÙĤ ÙĪØ¯
Ġ Ø§ï»Ł
F W
ĠÙħÙĪØ³ ÙĪØ¹Ø©
15 2
ĠÙħØ² Ø§ÙĬØ§
ĠØ¹ÙĨ ØµØ±
ÙĪÙģ ÙĬØ¯
ĠØ§ÙĦÙħØ·ÙĦ ÙĪØ¨
Ø§Ùĥ Ø
Ø§ÙĥØ §
r it
ĠØ§ÙĦØ³ÙĪØ¯ Ø§ÙĨÙĬ
85 2
nÙĥ ÙĪØ¯
12 9
ÙĢÙĢÙĢÙĢ Ø©
ÙĪØ§ÙĨ Ø¨
99 08
ĠÙĪÙĦÙĥÙĨ Ùĩ
ĠØ§ÙĦØ§ØŃ ØªÙģ
ĠØ§ÙĦÙĤØ· Ø¹
ĠØ¬ Ø¨Ø³
ĠØ§ÙĦØ¯Ùħ Ø§Ùħ
ĠØ§ÙĦØ§ÙĪ ÙĦÙī
ĠØªØµ Ø¨ØŃ
ÙĪÙĨ ÙĩØ§
ĠØ§ÙĦØ¥ ÙĬØ·
ĠØ§ÙĦØ£ØŃ Ø¬Ø§Ø±
artic le
ĠØ´ÙĬØ¦ Ø
ĠØ´ÙĬØ¦Ø §
Ġ8 00
ĠØ£Ùħ ÙĬÙĨ
ØŃØ± ÙĥØ©
ĠÙħÙĬ Ø¯ÙĬØ§
ĠØ§ÙĦØ£ÙħÙĨ ÙĬØ©
Ø´ ÙĬÙĨ
ĠØ§ÙĦÙģ Ø¦Ø©
36 9
Ø¬Ø² Ø§Ø¦Ø±
ÙĪÙĦ ÙĬÙĨ
O K
37 9
ĠØ§ÙĦØµ ÙĬÙģ
Ġ Ø§Ø¯ÙĬØ¯Ø§Ø³
Ùģ ØªØŃ
or s
Ø±Ø¨ Ø·
ĠÙģ ÙĪØ±ÙĬ
ÙĪ Ø§ÙĬ
US D
Øº Ø±ÙĤ
âĢĿ .
O W
Ø¨Ø¯ Ø§Ø¹
duct s
ĠØ³ Ø§Ø®
ĠØ§ÙĦØ¹ ÙĦØ§ÙħØ§Øª
15 9
ĠC rusher
ĠØªØ¹ ÙĬÙĬÙĨ
ĠÙĦÙĦ ÙĥØ³Ø§Ø±Ø©
ĠÙĪØ§ÙĦØ¹ Ø§ÙĦÙħ
6 34
ĠØ§ÙĦØ¹ÙĨ Ùģ
ĠØŃØ³Ø§Ø¨ Ø§Øª
ĠØ§ÙĦØ· ÙĤØ³
ĠO nline
ĠØ£ÙĤ ØµÙī
ÙĪØ² ÙĬØ±
ĠØ³ Ø§Ø¨
ÙĪÙģ ÙĬØ©
ĠØ¹ Ø¬ÙĦØ©
998 26
ĠØ³Ø¹ ÙĪØ¯
ĠØ¯ Ø§ÙĪØ¯
5 39
ub lish
ÙĦÙģ ÙĬØ©
Ø¹ Ø§Ø¯
998 75
33 3
ĠÙĦ Ø§Ø¹
ĠØªØ³ Ø±Ø¨Ø§Øª
5 35
T R
nØª Ø¹Ø¯ÙĬÙĨ
ĠØ§ÙĦÙħØª Ø®ØµØµØ©
ĠØ± Ø¹Ø§ÙĬØ©
g ram
Ø§Ø² ÙĪÙĨ
n Ø²
ĠØ¶Ø¹ Ùģ
ĠÙĥ Ø§Øª
ĠØ§ÙĦØª Ø¶
Ø§Ø¶ Ø±Ø§Øª
998 60
ĠØ§ÙĦØ¹ ÙĩØ¯
ĠÙĤØ§ÙĨÙĪÙĨ ÙĬØ©
ĠÙĥÙĩØ±Ø¨ Ø§Ø¡
oc al
Ø§ÙĦÙģ ÙĨ
ĠØ§ÙĦØ´ Ø§Ø¹Ø±
ĠÙħØªÙĨ Ø§ÙĩÙĬØ©
Ø´Ø± Øª
Ø¬ÙħÙĩ ÙĪØ±ÙĬØ©
ØªØŃ Ø¯Ø«
nÙĬ Ø¬Ø¨
ĠØ£Ùĥ Ø¯
20 14
998 22
ĠØ§ÙĦÙħÙĩ ÙĨØ¯Ø³
Ùĥ Ø´Ùģ
ĠØ§ÙĦØ± Ø¦
ĠÙĦÙĦØ´ Ø¹Ø±
ĠØ¹ Ø±
ĠØ¥ Ø¹ÙĦØ§ÙĨØ§Øª
Ø´ ÙģÙĬØ§Øª
Ø§Ø¨ Ø·Ø©
ĠØ§ÙĦÙĨÙģØ³ ÙĬØ©
98 65
9981 074
ĠÙĤÙĬ Ø§Ùħ
ĠÙĪØª Ø®
ĠÙħÙĤ Ø§Ø·Ø¹
ĠØ§Ø¯ Ø§Ø±Ø©
Ø§ÙĦ Ø®
999 28
ĠØ· Ø§ØŃ
ĠÙĬØµ Ø¨ØŃ
ĠØ¬Ùĩ ÙĪØ¯
16 2
ĠØ§ÙĦØ£ ØµÙĪÙĦ
nØ£ Ø¶Ùģ
pan y
I P
36 2
ĠØ³ ÙĩÙĪÙĦØ©
Ø§Ø³ ØªØ±
ĠØªØ¤ Ø¯ÙĬ
ĠØ§ÙĦØ· Ø§ØŃÙĪÙĨØ©
09 2
46 9
ĠØ§ÙĦÙħØª ÙĤØ¯Ùħ
0 95
0 97
3 31
ĠØ§ÙĦÙħÙĨ Ø§Ùģ
Øº ÙĪØ·
ĠØ§ÙĦÙħ Ø§Ø¦Ø©
ĠÙħÙĥ Ø§Ùģ
ĠÙħ ÙĩØ±Ø¬Ø§ÙĨ
Ø¯ Ø¨
ĠÙħØ³Øª ÙĤØ¨ÙĦ
Ø´Ø± ØŃ
ĠØ£Ø¯ ÙĨØ§Ùĩ
ĠÙĪØ¬ ÙħÙĬØ¹
ĠØ§ÙĦØ¬ÙĨ ÙĪØ¨
ĠØ§ÙĦØ§ÙĨ Ø¬ÙĦÙĬØ²ÙĬØ©
ĠØ§ÙĦØ¢ Ø«Ø§Ø±
ĠØ§ÙĦÙĥØª Ø§Ø¨Ø©
ĠØªØ³ Ø¹
ĠÙĪÙĥ ÙĬÙģÙĬØ©
ĠØ§ÙĦÙħØ³ÙĬ ØŃ
ĠÙĦÙĦ Ø·
99 00
14 2
ĠØ§ÙĦÙĨ Ø§Ø¬
24 1
ĠØªØªÙħ ÙĥÙĨ
Ø³ ÙĪÙĤ
Ø·Ø¨ Ø§Ø¹Ø©
ĠØ§ÙĦÙĦ ÙĤØ§Ø¡
ĠØ¹ Ø§Ø´
Ġ1 200
ĠÙĦÙħØ¹ Ø§ÙĦØ¬Ø©
Ø¹Øª ÙĤØ¯
Ø´ Ø§Ø±ÙĬ
ØªØŃ Ø§ÙĨ
ĠØ§ÙĦÙĨ Ùħ
ĠØª Ø³ÙħØŃ
ĠÙĬÙħÙĥÙĨ ÙĨÙĬ
Ø¶ ÙĪÙĨ
ĠÙĪØŃØ¯ Ùĩ
ĠØ§ÙĦÙĪÙĤ ÙĪØ¯
p age
nØ£ÙĨ ÙĪØ§Ø¹
ĠØ§ÙĦÙħØ¹ Ø§ÙĦØ¬Ø©
ÙĤ ÙĬÙĨ
ï¿½ï¿½ ï¿½ï¿½
nØ¥ Ø±Ø³Ø§ÙĦ
ĠØª ÙĪÙħÙĬ
ĠÙĨÙģ Ø³ÙĬ
ÙħÙĬ ÙĪÙħ
O C
g er
w a
ĠØ§ÙĦÙģ Ø¶Ø©
ĠÙĪØ§ÙĦ Ø£ÙĨ
is s
ĠØ´ Ø§ÙħÙĦ
ĠÙĪ ØªØ±ÙĥÙĬØ¨
0 34
- \
Ġm an
ub l
ĠÙħÙĩ Ø§Ø±Ø§Øª
ĠØ¹ÙĦÙħ Ø§Ø¡
ĠÙĪÙĦ ÙĨ
Ø¨ Ø§ÙĬ
ØŃ Ø¨Ø§
ĠØ§ÙĦÙĨÙĩ Ø§ÙĬØ©
ĠØ§ÙĦØ¹ ÙĪØ§ÙħÙĦ
8 85
997 66
L M
ĠØªØ³ ÙĪÙĬÙĤ
ÙĨÙĬ ÙĬÙĨ
ĠÙĤ ÙĦÙĬÙĦ
O U
ĠØŃ Ø§ÙĪÙĦ
Ñ Ĥ
98 97
ĠØ¨ Ø¥ÙĨ
ĠØ¹ ÙħÙĪØ¯ÙĬ
ØŃ Ø§Ø³
ØŃ Ø¯Ø©
== ==
Ġâ Ĩ
ĠØ§ÙĦØµ Ø¯Ùħ
ĠØŃ ØªÙĬ
ĠØ¨Ø± Ø¦Ø§Ø³Ø©
ĠØ§ÙĦØ¯Ø± Ø§Ø³ÙĬØ©
36 1
ĠØ§ÙĦØ£Ø³ Ø§Ø³
ĠÙĦÙĦ Ø§Ø·
ĠÙĨÙĬ ÙĪ
ĠØ£ Ø®Ø±
on d
ÙħØ± Ø§Ø¶
Ø· Ø§Ø±Ø§Øª
ĠØ¥ Ø¬ÙħØ§ÙĦÙĬ
Ġus ed
nØ¯ ÙĦÙĬÙĦ
ĠØ§ÙĦÙĦØ¨ÙĨ Ø§ÙĨÙĬØ©
Ġm achine
ĠØ§ÙĦ ÙĬØ³
26 9
Ø§ÙĦ Ø²
ĠØª ÙĥÙĪÙĬÙĨ
ĠØ§ÙĦ Ø¸ÙĩØ±
ĠØ§ÙĦ Ø§Ø¶
ĠÙħØª Ùī
ÙĪ Ø§Øµ
ĠØ§ÙĦ ÙĪØ¬
ĠØ§ÙĦØ¯ Ø§Ø®ÙĦ
ĠÙģ ÙĪØ±ÙĥØ³
85 03
ĠØ§ÙĦØ² ÙĨÙĥ
ĠØª ÙĦÙģ
ĠØ§ÙĦØ§Ùĩ ØªØ²Ø§Ø²
ĠÙģ ÙĪØ²
ĠØ¹ÙĦÙħ ÙĬØ©
Ø´ Ø£
ĠØ¬Ø± Ø§ØŃØ©
ĠØ§ÙĦØ³Ùħ Ø§Ø¡
oo t
1 21
57 3
ĠÙĪØª Ù
Ø§Ùĩ ØªÙħØ§Ùħ
ĠÙĪØªÙ Ħ
ĠØ§ÙĦØ³Ø¹Ø± WhatsApp
ÙģØ± Ø§Øª
ĠØ£ÙĥØ³ ÙĬØ¯
ĠØ§ÙĦØ¥ Ù
A G
ĠØ§ÙĦØ¥Ù Ħ
ĠÙħÙĨ ÙĬ
ĠØ§ÙĦØ³ ÙĪÙĬØ³
t on
ĠØ¯ Ø±Ø³
ĠÙħØ¹ ÙĦÙħ
998 36
tl e
ĠØ§ÙĦØ£ ÙģØ±Ø§Ø¯
ĠÙĦ ÙĪÙĥ
Ø´ Ø§Ùħ
ĠØµØ¨Ø§ØŃ Ø
ĠØµØ¨Ø§ØŃØ §
nÙħ Ø´
ĠØ§ÙĦØ³ ÙĥØ§ÙĨ
ĠØ§ÙĦØŃ Ø²Ø¨
Z M
ĠØ§ÙĦØ§Ùĩ ØªÙħØ§Ùħ
ĠØ£ Ø°
ĠÙĥØ¨ÙĬØ± Ø
ĠÙĥØ¨ÙĬØ±Ø §
ĠÙĥØ§Ùħ ÙĬØ±Ø§Øª
ĠÙĥ Ø§Ø´
Ùĩ Ø¨
ent er
ÙģØ± Ø¶
nØ§ÙĦ ÙħÙĨ
ØŃØ± Øµ
ĠÙħ Ø´Ø§Ø±
ĠØ§ÙĦØ´ Ø§Ø¦Ø¹Ø©
ÙĬ Ø§ÙĨ
ĠØ£ÙħØ± Ø§Ø¶
ĠØ§Ùĥ ØªØ´Ø§Ùģ
ĠØ¹ Ø±Ø§ÙĤ
ĠØ§ÙĦÙħ Ø¹Ùħ
O D
Ùĥ Ùĥ
ĠÙĪÙĬÙĨ Ø¯ÙĪØ²
ĠØ¨ØŃ Ø¶ÙĪØ±
ĠØ§ÙĦØª ÙĩØ§Ø¨
ac y
ĠØ§ÙĦØ£Ø¯ ÙĪÙĬØ©
v ar
ĠÙĪ Ø§Ùħ
99804 145
ĠC re
ĠÙĪ ÙħØ¤
nÙĦÙħ Ø§Ø°Ø§
97 47
nÙĨ ÙĪÙģÙħØ¨Ø±
04 8
ĠØ£Ø³ Ø±Ø¹
ĠØ§ÙĦØ¥ Ø¨ØªØ¯
ĠØªØ¬ Ø§ÙĪØ²
ĠØ£ ÙħÙĦ
ÙĤ Ø§Ø°
ĠØ° ÙĬ
nØ§ÙĦ Ø§Ø³Ùħ
Øµ ÙĪØµ
ÙĥÙĬ Ùĩ
28 1
ĠØ§ÙĦØ¹ÙĨ ÙĪØ§ÙĨ
Ø²ÙĬ Ø¬
oc um
ĠØªØ¬ ÙħÙĬÙĦ
31 476
28 2
ĠØ¨ ØŃÙĤ
998 55
n Y
ĠØ§ÙĦØª ÙħØ±
ĠØ§Ø³Øª ÙħØ±Ø§Ø±
ÙĦÙĬ Ø¯
âĢı.âĢı \
nÙĪ Ø§ÙĦ
47 97
ĠØ§ÙĦÙħØ³ Ø¬Ø¯
ÙĪ ÙĬÙģ
31 9
ĠÙĦÙĦ Ø²
76 6
ĠØ§ÙĦØ± Ø¹Ø§ÙĬØ©
ĠØ§ÙĦÙħØŃ Ø§ÙģØ¸Ø©
ĠØª Ø¶Ùħ
ri pt
ĠØ§ÙĦØ³ÙĦ Ø§ÙħØ©
Ø§Ùģ Ùĩ
nÙģÙĬ Ø¯ÙĬÙĪ
ĠÙĤ Ø¨ÙĬÙĦØ©
ĠÙĪ ÙĬØ¯
ĠØªØ´ ÙĬØ±
20 13
ĠØ£ÙĨ ØºÙĪÙĦØ§
ĠÙĩÙĨØ¯ Ø³Ø©
ĠØªØ± Ø¯Ø¯
ĠØ¬ ÙĦØ³Ø©
ĠÙĬØ± ØºØ¨
Ø¨Ø± Øª
ĠØ§ÙĦÙħØª ÙĤØ¯ÙħØ©
ÙĥÙĬ ÙĦØ©
ĠØ£ÙĨ ÙģØ³
33 8
ĠØ§ÙĦØ£ÙĨ Ø´Ø·Ø©
ÙĥØ± ÙĪÙĨ
ĠØ§ÙĦÙĦ ÙĩÙħ
Ð ½
ĠØ® Ø±Ø¬
ĠÙħØ¹ Ø
ĠÙħØ¹Ø §
ĠÙħ Ø¬ÙħØ¹
ĠÙĨ ÙĤØ¯
Ð µ
Ø³ Ø§Ø¦Ø±
ĠØ±ÙĬØ§Ø¶ Ø©
998 45
b m
ĠÙĤ Ø±Ø¨
ĠÙĦØ§ÙĨ ÙĥØ§
ĠØ§ÙĦØ°ÙĩØ¨ ÙĬØ©
ĠØ§ÙĨØªÙĩ Ø§Ø¡
Ø³Øª ÙĪÙĨ
ÙħÙĬ ÙĬØ²
Ùĳ Ùĭ
ĠØ§ÙĦÙĥÙĩØ±Ø¨ Ø§Ø¦ÙĬ
ĠÙĬØª ÙħÙĬØ²
Ø¶Ø¹ Ùģ
ĠØ§ÙĦÙģ Ø§Øª
ver t
867 31476
ØŃ Ùģ
Ø¹ ÙĤØ©
Ø³ Ø§Ø¯
ĠØª ÙĪØ¬ÙĬÙĩ
ï» ´
998 35
Ùģ ØŃ
Ø¹ Ø¨Ø¯
nØ§ÙĦ Ø§Ø³Øª
ĠØ¨ ÙģØ¶ÙĦ
Ùħ ÙĬØ±
ĠØ§ÙĦØ£ Ø³Ùħ
ĠØ§ÙĦØ± Ø§Ø¦Ø¹Ø©
17 2
ĠØ§ÙĦÙħ Ø´ÙģØ±Ø©
ĠØ¨Ø§ÙĦØ§ÙĨ Ø¬ÙĦÙĬØ²ÙĬ
qu e
98 84
Ġ... ","
0 12
ĠÙģ Ø±ÙĬØ¯
998 37
ĠÙĪØªØª ÙħÙĬØ²
Ø¬Ø± Ùī
ĠÙĨ ÙĬÙĥ
ĠØ§ÙĦØ£Øµ ÙĦÙĬ
ĠÙĩ Ø²Ø§Ø²
ĠØ³ ØŃØ¨
Ø´ ÙĪ
ĠØ´ Ø¯ÙĬØ¯
ÙĬÙģ ÙĪØ±
Ġi P
ĠØ³ Ø§Øª
ĠØ§ÙĦÙĥ ÙĦÙħØ©
N G
ĠÙħÙĪ Øª
ĠÙĨØ¬ ÙĪÙħ
ĠØ¨Ø§ÙĦØªØ¹ Ø§ÙĪÙĨ
ĠØ§ÙĦØ±ÙĬØ§Ø¶ ÙĬ
ĠØ® Ø°
ÙĪÙĦÙĬ ÙĥÙĬ
ĠÙĬØ´ ÙĬØ±
67 026
E X
Ø§Ø¨ Ø¯
ØŃ ÙĪÙĦ
ĠØ§ÙĦØ£Ø³ Ø¯
Øµ Ø§Ø¯Ø±
ĠÙħ ÙĬØ³
ĠØ·ÙĦ Ø§Ø¨
nÙħØ§Ùĥ ÙĬÙĨØ©
ĠØ£Ø´ Ø®Ø§Øµ
ĠÙĨ ÙĬØ³Ø§ÙĨ
ĠØª ØªØ¹
Ø§ÙĦ ÙģØ©
ĠØ§ÙĦØµØŃÙĬ ØŃØ©
ĠØ£ Ø¹ÙĦ
Ø¬ ÙĬØ©
ĠÙĤ ÙħØª
Ø§ÙĨØ¯ Ø±ÙĪÙĬØ¯
ĠØ§ÙĦÙĥØ§ÙĦØ³ÙĬ Øª
ĠØ§ÙĦØªØ§Ø³ Ø¹
ĠÙħÙĥ ÙĬÙģØ§Øª
ĠØ£ ØµÙĪÙĦ
ĠÙħÙĨ Ø
ĠØ´ Ø§Ø¡
ĠÙħÙĨØ §
Ø§Ùĩ Ø¬
n Ø§Ùĥ
ĠØ§ÙĦØ§Ø³ÙĦØ§Ùħ ÙĬØ©
ĠÙĦØ¯ Ø¹Ùħ
an c
Ùĥ ÙħØ§
ĠÙĬØ± Ùī
ĠÙĩ Ø±
ĠØ§ÙĦØ¥ Ø·ÙĦØ§ÙĤ
ØŃÙĨ Ø
ØŃÙĨØ §
86 1
ĠØ¹Ø¨Ø¯Ø§ÙĦ Ø¹Ø²ÙĬØ²
ĠÙĬØ¹ ÙĦÙħ
ĠÙĪÙĤ Ùģ
Ġ. ","
99 18
Ġy ear
ĠØ£ÙĤ ÙĪÙī
ÙĤÙĬ Ùĩ
6 00
ad d
Ġag o
ĠÙģÙĨ Ø§Ø¯ÙĤ
ĠØŃ Ø§Ø¯Ø«
ØºÙĬØ± Ø§Øª
Ø§Ø³ ÙĪØ¨
Ø´Ø± ÙĪÙĨ
ĠØ§ÙĦØ§ÙĨ Ø¯
Ø§Ø¨ Ø
Ø§Ø¨Ø §
ĠÙĦÙģ ØªØ±Ø©
nRe ply
ĠÙĦ ØŃÙĤÙĪÙĤ
ĠÙĪØ§ÙĦØª Ø¹Ø¯ÙĬÙĨ
ĠÙĥÙĦ Ùĩ
ĠØªØŃ ÙĪÙĦ
98 85
ĠØ§ÙĦØ« Ø¯ÙĬ
ĠÙĦØ¥ Ø¹Ø§Ø¯Ø©
ĠØ§ÙĦÙħØ¬ Ø§ÙĨÙĬØ©
35 9
ĠÙĪØ¬Ùĩ Ø©
998 15
C S
ĠÙĪØ§ÙĦ Ø§Øª
ĠÙĩ ÙĬØ±
17 1
ĠØ§ÙĦÙħÙĨ Ø¸ÙħØ©
ĠØ£Ø¨ ÙĨØ§Ø¡
ÙĪØ§ Ø©
ĠØ³ ÙĥÙĨ
ĠØ§ÙĦØµÙĬÙĨ ÙĬ
ĠØªØ¹ ÙĪÙĬÙħ
03 9
ĠØ§ÙĦØºØ° Ø§Ø¦ÙĬ
Ø§Ùģ Ø¹Ø©
ĠØ§ÙĦÙĤ ÙĦÙĬ
ĠØ§ÙĦØ¥ ØŃ
ĠØ§ÙĦÙħÙĦ ØŃ
ĠØ§ÙĦÙĤØ¶ ÙĬØ©
ĠØ§ÙĦØªØŃ ÙĦÙĬÙĦ
ĠÙĬ Ø®Øµ
ĠØ§ÙĦÙĦ Ø¹Ø¨
ĠØªÙĤ Ø§Ø±ÙĬØ±
EF C
ĠW indows
ĠØ£ØŃØ¯ Ø§Ø«
ĠÙĪ Ø§Ø·
Ġ( (
Ø§Ø± Ø¯Ø©
ĠÙħ Ø¯Ø±
ÙħÙĬ Ø§Ùĩ
ĠØ§ÙĦÙĤ ÙĪÙħÙĬ
ÙĢÙĢÙĢÙĢ ÙĢ
Ø¹ÙĬ Ø´
ĠØ§ÙĦÙħØ¹Ø¯ Ø©
ĠØ§ÙĦØŃ ÙģØ±
ĠØ§ÙĦÙģ Ø¶Ø§Ø¡
ĠØ¨Ø§Ø¹ ØªØ¨Ø§Ø±
ÙĥØ± Ø±
= \"
Ġm e
ĠØ¨ ÙĪØ¯
il d
ÙħØª Ø§Ø¹
ĠÙĬ Ø³Ø¨Ø¨
ĠØ³Ø¨ØŃ Ø§ÙĨÙĩ
ÙħÙĨÙĬ ÙĪÙħ
re ad
ĠØ³ Ø§ÙĨØª
ien ce
ĠØ³ ÙĥØ±
nØ§Ø³ Ø£ÙĦ
ÙĨØª Ø§Ø¦Ø¬
ĠÙħ ÙģÙĬØ¯Ø©
ho to
Ħ Ø§ÙĤ
Ù ĦØ§ÙĤ
Ġ Ø°Ø§
ĠØ§ÙĦØŃÙĦ ÙĪÙĦ
ĠØ² ÙĬØ¯
ØªØ± Ø§Ùģ
ĠØ£Ùģ ÙĦØ§Ùħ
ĠÙĪØ§ÙĦ ÙģØ±
n Ø³Ø¨
ĠÙħ ÙħÙĬØ²Ø§Øª
ĠØ§ÙĦØ£ Ø²ÙħØ©
ĠØªØ¬ Ø¯ÙĬØ¯
ĠE nglish
ĠØ¹ Ø§Ø¯ÙĦ
88 9
ĠØ§ÙĦÙħØº Ø°ÙĬØ©
o y
ĠÙĥ Ø£
14 9
08 0
ÙĥØª ÙĪØ±Ø©
ĠÙĦÙĦ Ø¹Ø§Ùħ
ĠØ§ÙĦØ² ÙħØ§ÙĦÙĥ
05 8
ÙĪØ¬ Ø§Øª
al s
ĠÙĦÙĦ Ø§ÙĨ
ĠØ¹ Ø·Ø±
ĠÙģ ÙģÙĬ
Ùĥ ÙĪÙħ
Ġ20 05
44 2
Ø§Ùħ Ø¨ÙĬØ§
A W
nØ¨Ø± ÙĨØ§ÙħØ¬
ĠI s
ĠØ§ÙĦØ£ØµÙĦ ÙĬØ©
ĠØ¨Ø¯ ÙĤØ©
Ø§ÙĤ Ø¯
ĠØªÙĨØª Ø¬
Ø¹ÙĬ Ø¯Ø©
an n
ed u
G T
nØ£Ùĥ Ø¨Ø±
ĠØ§ÙĦÙĤ Ù
ĠØ§ÙĦÙĤÙ Ħ
ĠØ§ØªÙģØ§ÙĤ ÙĬØ©
Ø§Ø¹ ÙħØ©
998 17
ĠQ u
Ø° Ø§Ø¡
ĠØ±ØŃÙħ Ùĩ
ĠØ§ÙĦØ°Ùĩ Ø¨ÙĬ
ĠØ§ÙĦØ´ Ùħ
O X
ĠØ§ÙĦØ´ Ùģ
âĢı /
998 58
ĠØ® ØªÙħ
ĠØ§ÙĦØ¬ Ø¯Ø¯
ĠØ§ÙĨ Ø³
ĠØ´ Ùħ
Ø§ÙĤ Ø´
ĠØ³ÙĨ ØªØ±
ĠØ®Ø§Ø±Ø¬ ÙĬØ©
8 96
ĠØ§ÙĦØ¹ ÙĬØ¯
909 2603
ĠØ§Ø¹ÙĦ Ø§ÙĨØ§Øª
ĠØ¨Ø±ÙĬØ· Ø§ÙĨÙĬØ§
nÙħ Ø§Ø±ÙĥØ§Øª
99 29
ØºØ± Ø§Ùħ
ĠØ§ÙĦÙħØ§Ø± ÙĥØ©
ĠØ§ÙĦØ£ ÙĦÙĬ
999 39
re en
ĠØ¯ ÙĬØ±
anu fact
Ø²Ø± Ø§Ø¹Ø©
ĠØ§ÙĦÙĥØª ÙĦØ©
ÙĤØ± Ø§Ø¡
ĠØ£ Ø±ÙĤØ§Ùħ
ĠÙħØ¹ ÙĩØ¯
P Y
ĠØ§ÙĦÙģØ¬ ÙĬØ±Ø©
ĠØ£ÙĪØ± Ø§ÙĤ
ĠÙĦØª ÙĤ
997 2
ĠØ§ÙĦØª Ø±Ø¨Ø©
Ùħ Ø§Ø±Ø§Øª
ĠØ§ÙĦÙħ Ø·Ø¨
Øª Ø§Ø¯
ĠØªØ´ ÙĥÙĦ
ĠØ§ÙĦØ¨ÙĬ Ø¶
ĠØ§ÙĦØ§Ø³ ØªØ±
8 84
ĠØ¹ Ø§ÙĦ
Ø¬ ÙĪØ²
our ce
ĠØª Ø²Ø§ÙĦ
ĠØ± Ø§Ùħ
ĠØ® Ø´
ĠØ±Ø¦ÙĬØ³ ÙĬØ©
at es
ĠØ¨ ØªØ±
ĠØ§ÙĦÙħ Ø±Ø©
in dex
ĠØ³ÙĬ ØªÙĬ
ĠÙģ Ø±Ø¯
ØŃ Ø«
Ø§Ø´ Ø¯
? ?
998 16
ĠØ¹ ÙĬØ³Ùī
Øº ÙĪ
ĠØ³ ÙĬÙĦ
ĠÙħØŃ ÙĥÙħØ©
ĠØ¨ Ø¶
ĠÙģÙĬ ØªØ§ÙħÙĬÙĨ
j ect
ĠØ§ÙĦØªÙĨ Ø¸ÙĬÙħ
ĠØºÙĬØ± Ùĩ
ĠØ®Ø¨Ø± Ø§Ø¡
ï ¸ı
ÙĨØ§ Ø¯ÙĬÙĤ
ÙĪÙĨ Ø³ÙĬ
ĠØµÙģ ØŃØ§Øª
Ġw e
ĠØ§ÙĦÙĤ ÙĨØ§Ø©
ĠØ§ÙĬ Ø±
ĠÙĪÙĬ ÙĥÙĪÙĨ
ĠØ§ÙĦÙħ ÙħÙĬØ²Ø§Øª
ĠØ· Ø¹Ø§Ùħ
ĠÙĨØ¸Ø± Ø
ĠÙĨØ¸Ø±Ø §
e v
n k
Ø¤ Ø§Ø¯
Ø±ÙĪ ÙĬ
ĠÙħØŃØ¯ Ø¯Ø©
ĠÙħØ¯ ÙĨ
76 5
nÙĦ ÙĤØ¯
1 22
U B
.... ....
ÙĪÙģ Ø
ÙĪÙģØ §
ĠØ§ÙĦØ¸ Ø±ÙĪÙģ
ĠØ§ÙĦØµØŃ ÙģÙĬ
ĠØªØ± Ùī
63 8
998 05
ĠØ£Ùģ ÙĥØ§Ø±
998 06
ĠØ§ÙĦØŃ Ø§Ø³Ø¨
ĠØ§Ø¨Ø± Ø§ÙĩÙĬÙħ
Ġ 34
ĠØ§ÙĦØ£ÙĦ ÙĪØ§ÙĨ
K D
ĠØª ÙģØ¹ÙĬÙĦ
ĠØ³ ÙĦÙħ
ĠØ¹ ÙĤØ¨
ĠØ§ÙĦÙħ Ø¸
98 56
ĠÙĦÙĦ ØªÙĪ
ĠØ§ÙĦØ¨Ø¯ Ø¡
ĠØ¥Ø¯ Ø®Ø§ÙĦ
ĠØ§ÙĦØ¯Ø± Ø¬Ø©
ĠØªØ¹Ø¨ Ø¦Ø©
ĠØ² Ø§ÙĬØ¯
Ġw as
98 67
Ø§Øª Ù
ĠØ¨ ÙĬØ¦Ø©
Ø§ØªÙ Ħ
Ø¬ ÙħÙĬØ¹
ĠØ§ÙĦØ³ÙĬ Ø·Ø±Ø©
Ø§Ø¹ Ø´
999 08
we et
ĠÙģ Ø³Ø§ØªÙĬÙĨ
ĠÙģ Ø¶ÙĦ
b out
ĠØ§ÙĦØŃØ¯ÙĬØ¯ ÙĬØ©
ĠÙĨØ¸ Ø±Ø©
Ø¹ ÙģØ±
ĠØ´ Ú©ÙĨ
ØŃ ÙĬÙĦ
ØºØ§Ùģ ÙĪØ±Ø©
ĠØ§ÙĦØ³ÙĬ Ø¯Ø©
ĠÙĤØ± ÙĬØ©
998 31
ĠÙĤ Ø±ÙĬØ¨
ĠÙĩÙĪ Ø§ØªÙģ
ĠØ§ÙĦÙħØ· Ø§Ø·
ĠØª ÙħÙĪØ²
ĠØ§ÙĦØ´ Ø§Ùħ
ĠØª ÙĬÙħ
nÙħ ØŃÙħØ¯
ĠÙĦØ¨ Ø¹Ø¶
ÙħÙĦ Ø§Øª
ÙĨØ¯ Ø±
Ø§Ø¬ Ø¦ÙĬÙĨ
1 96
ÙĦÙĬ Øª
ĠØ§ÙĦÙģ ÙĥØ±
ĠØªØ£ ÙħÙĬÙĨ
996 764
Ø§Ø¤ ÙĩØ§
ĠØª ÙĪØ¨
ĠÙĪ ÙĦÙĥ
ĠØ£Ø³ ÙĪØ¯
Ø§Ø¨ØŃ Ø«
ĠÙ¢Ùł Ù¢
Ġï» ¿
on s
O G
ĠØ± Ø§ÙĬ
75 4
Ø¶Ùħ Ø§Ùħ
N D
ĠÙĦÙĦ Ø´Ø±ÙĥØ§Øª
Ø¯ÙĬ Ø§ÙĨ
ĠØ¹ ÙħÙĬ
ĠØŃ Ø±ÙĪÙģ
ĠØ§ÙĦØ¨ÙĪØ± ØµØ©
ĠØ§ÙĦØ¨Ø® Ø§Ø±ÙĬ
ĠØ§ÙĦÙĪØ³Ø· Ùī
Ġ Ø©
ĠØ§ÙĦØ§Ùģ ØªØ±
Ø¬ ÙĬØ¨
z h
Ġ$ )
ĠØªÙĤ Ø·ÙĬØ¹
AC E
ĠÙħØ¯ Ø¨ÙĦ
ĠÙħÙģ ØªÙĪØŃØ©
ĠØ§ÙĦÙħÙĨ Ø²
ĠØ§ÙĦØ±ØŃ ÙĬÙħ
nT witter
ÙĬÙĦ ÙĪÙĦ
ØŁ ØŁ
ĠØ§ÙĦÙħ Ø±ÙĬØ¶
998 34
ĠØ³Ùħ ÙĬØ±
\" ).
ĠØ§ÙĦÙĩ Ø¬Ø±Ø©
ĠØ¥ÙĤ Ø§ÙħØ©
15 1
ĠM achinery
Ġus e
Ġ 33
ĠØ§ÙĦØ¹ Ø§ÙħÙĦÙĬÙĨ
84 9
ĠØ§ÙĦÙħØ´ ØªØ±ÙĥØ©
ĠØ¨Ùĥ Ø«ÙĬØ±
it al
ĠÙĪØ§ÙĦÙħØ¹ Ø§Ø¯ÙĨ
ÙĬØ¯Ø± ÙĪÙĦÙĬÙĥÙĬ
ĠØŃ Ø°Ùģ
ĠØ§ÙĦØ¥ ÙĬÙħØ§ÙĨ
C H
ĠØ§ÙĦØ® Ø¶Ø±Ø§Ø¡
ØµÙģ Ø§Øª
ĠÙĪÙħ Ø¯
999 29
ĠØ§ÙĦØ±Ùħ Ø§Ø¯
n ÙģØ±
ĠP ol
iz e
ĠÙĨØ§Ùģ Ø°Ø©
66 6
Ġw ill
ĠØ³ ÙĩÙħ
8 94
nØ¨ÙĪ Ø§Ø³Ø·Ø©
nØ§ÙĦØª Ø¹Ø¯ÙĬÙĨ
Y R
998 25
ĠØ³ ÙĪØ¯
ÙĨØ¦ Ø©
ĠÙĦÙĥÙĨ ÙĩØ§
ĠØ· Ø¨Ø¹
ĠØ¹ÙĦ Ø§ÙĤØ§Øª
ĠÙĥ ÙħØ§ÙĦ
ÙĬØ§ Ø·Ø©
Ø±ÙĬ Ø¨Ø§Øª
ĠØªÙĤ ÙĦÙĬÙĦ
Ġâ ľ
ĠÙħ Ø¨ÙĦØº
ĠØŃØµÙĦ Øª
ÙĦÙĬÙħ ÙĬØ©
999 48
F FC
ĠØ®Ø· Ø·
Ġli ve
T D
ĠØ¨ÙĨØ§ Ø·ÙĬÙĦ
0 87
ĠØ®Ø· Ø£
n https
P L
830 5
07 2
Ø±ÙĤ ÙĬØ©
ĠØ§ÙĦØ¯ ÙĪØ§Ø±
ĠØ§ÙĦØ®Ø· ÙĪØ·
I F
ĠØªØªÙħ ØªØ¹
ĠØ§ØŃ ØªÙģ
nØ§Øª Ø±Ùĥ
20 89
Ġd o
ĠÙ ¤
ĠÙĥ Ø§Ø²
ÙĬÙĨ Ùĩ
ĠØ§Ø¨ØªØ¯ Ø§Ø¦ÙĬ
ĠØ§ÙĦØ£ØŃ ÙĥØ§Ùħ
ĠØªØ³ ÙĦÙĬÙħ
ĠÙĬØª Ø·ÙĦØ¨
Ø«ÙĬ ÙĪØ¨ÙĬØ§
77 7
Ø§Øª ÙĨØ§
ĠÙĪ ÙħÙĨØªØ¬Ø§Øª
ĠØ§ÙĦÙħØª Ø¬Ø±
Ġpro du
998 44
ĠÙĬ Ø·ÙĦÙĤ
Ø§Ø¦ Ùī
Ø³ÙĬ Ø¬
ĠÙĦ Ø£Ø³
ĠØ³ ÙĪØ³
ang e
Ùĩ Ø§Ø¡
Ø´ Ø¹Ø§Ø±
ÙĬØ¯ Ø§Ø¹
ĠØ§ÙĦØ³ÙĬ Ø³ÙĬ
ÙĬØ· Ø§ÙĨ
o f
Ø·ÙĦ ØŃ
U L
ØªØ¨ Ø§Ùĩ
ĠÙĦÙĦØ¬ ÙħÙĬØ¹
ÙĨ Ø·
ĠØ¨Øª ÙĪÙĤÙĬØª
ĠÙĪØ§ÙĦ Ø§ØŃ
ĠØ§ÙĦØ® Ø±ÙĪØ¬
ĠØ§Ø¶ Ø·Ø±
ĠØ§ÙĦØ¨ Ø±ÙĬ
ĠØ¨ Ø®Ø·
ĠØ¨ ÙĬÙĦ
ĠØ§ÙĦØª Ø·
ĠØªÙĤØ¯Ùħ ÙĩØ§
Ġp r
06 2
ĠØ§ÙĦØ§Ø® ØªÙĬØ§Ø±
ĠÙĦÙĦØ¹ÙħÙĦ Ø§Ø¡
999 38
997 87
n ÙĪØ±
ĠØ± Ø¦ÙĬØ³ÙĬ
996764 84
ĠÙĦ Ø§Ùħ
ĠØ§ÙĦØ£Ùģ ÙĦØ§Ùħ
ĠÙħØ³Ø¤ÙĪÙĦ ÙĬØ©
ĠØªØ´ ÙĬÙĨ
ĠÙĪÙĬ Ø¬Ø¨
Ø±Ø³ Ø§ÙĨÙĬØ©
85 9
ĠÙĥÙĬ ÙħÙĬ
ĠØ¨Ø§ÙĦ Øµ
Ġex per
ÙĪØ§Øª Ø±
ĠÙĨ Ø¸Ùħ
ĠØ§ÙĦØ«ÙĦØ§Ø« Ø©
ĠÙĦ Ø§Ùĥ
ĠÙĪØ§ÙĦ Ø¨ØŃØ«
ĠØ§ÙĪÙĨ ÙĦØ§ÙĬÙĨ
ĠØ´ Ø§ÙħÙĦØ©
ĠØ¨ÙĤ ÙĪØ©
ÙģØ¹ Ø§ÙĦ
ĠØ§ÙĦÙħ ÙģØ¶ÙĦØ©
Ø§Ø±ÙĬ ÙĪ
ĠØ´Ø± ÙĥÙĩ
ĠØ§ÙĦØ£ÙĨ ÙĪØ§Ø¹
ĠØ¬ÙħÙĬØ¹ Ø
ĠØ¬ÙħÙĬØ¹Ø §
ĠØŃ Ø¨ÙĬ
A X
ĠÙĥ Ø§Ùģ
99 23
998 24
ĠØªÙĤ Ù
ĠØªÙĤÙ Ħ
ĠØ§ÙĦÙħ ØªØ¨
ĠØ§ÙĦØ®Ø§Ø±Ø¬ ÙĬ
4 35
Ùĥ ÙĬÙģ
ĠÙħÙĪ Ø³Ùħ
ØµØŃ Ø§Ø¨
ĠØ§ÙĦÙħØµÙĨ ÙĪØ¹Ø©
ĠØ§ÙĦØ± Øº
ÙĪØ± Ùī
ink ed
ĠØ§Ùĥ Ø³
ĠÙĬØª ÙĥÙĪÙĨ
ak e
ĠÙĦØª Ø¯
ĠØŃØ¯ÙĬØ« Ø
ĠØŃØ¯ÙĬØ«Ø §
Z S
Ø·Ø¨ Ø§ÙĤ
ĠÙĥ ÙĦØ§
Ø° Ø§Ø¨
Ġ20 04
ĠÙĪØ§Ø¶ ØŃØ©
ÙħÙĨØª Ø¬
ĠØ´ÙĬ ÙĪØ¹
997 67
Ø¶ ÙĬØ©
ĠØ¥ Ø³Ø¨Ø§ÙĨÙĬØ§
Øµ ÙĬØ±
8 95
ĠØª ÙĥØ³
nØª ÙĤØ±ÙĬØ±
nØ±ÙĪ Ø§Ø¨Ø·
ic t
ĠØ§ÙĦØ¨ Ø·ÙĨ
ĠØ§ÙĦØªØµ ÙĪÙĬØ±
Ñ ĥ
ĠÙĦ ØŃÙħØ§ÙĬØ©
Ùĥ ÙĪÙĦ
8 00
ĠØ§ÙĦØµ Ø§Ø¨ÙĪÙĨ
830 1
n get
ÙĥØ± Ùħ
ĠØ§ÙĦÙĥ ÙĪÙĨ
ĠÙħØ¤Ø®Ø± Ø
ĠÙħØ¤Ø®Ø±Ø §
Ø§Ø¯ Ø«Ø©
ĠÙħÙħØªØ§Ø² Ø©
ĠÙĪ Ø®Ø¯ÙħØ§Øª
ĠÙģ ÙĥØ§ÙĨ
Ø® Ø§Øª
ĠØ§ÙĦÙĥØ± Ø§Ùħ
Ø§Ùħ Øª
Ø³ ÙĪÙĬÙĤ
ĠÙĪ Ø³ÙĬØ·
ÙĬÙĤ Ø§Ùģ
ÙģÙĬ Ø³
ter n
n I
Â ©
ĠØ§ÙĦÙģ ÙĪØ²
H R
ĠØ§ÙĦÙģÙĪÙĦ Ø§Ø°
& &
] [
ĠØ¥ ÙĬØ±
55 14
ĠÙĪØ³ÙĬ ÙĦØ©
Ø§ØŃ ÙĨØ©
ÙħØ§Ø± Ùĥ
ĠÙĪÙĤ Ø¹
ocum ent
Ø«ÙĬ ÙĤØ©
Ø®Ø± ÙĬØ©
ĠØ§ÙĦØ² ÙĩØ±
ĠØ§Ø¯ ÙĪØ§Øª
Ø®Ø¯ ÙħÙĬ
ĠM o
ay s
Ø´ Ùī
ĠØ§ÙĦØ¯ Ø¬Ø§Ø¬
998 07
ĠØ§ÙĦØ± Ø¤ÙĬØ©
ĠØ§ÙĦØ§Ø¹ ØªÙħØ§Ø¯
Ø¬ ÙĬÙĥØ§
gy pt
ĠØ§ÙĦØ¬ ØºØ±
66 4
ĠØ¬Ø§Ùĩ Ø²Ø©
8503 271
ĠØ§ÙĦØµÙĨ Ø¹
ÙĤ Ø§ÙħØ©
Ø§Ø¦ ØªÙħ
Ùĩ ÙĬØ±
ĠØ§ÙĦØ´ ÙĬØ¡
ĠØ¯ÙĪÙĦ ÙĬØ©
ĠÙĪ Ø§ÙĨØª
EF D
ĠØµ Ø§ÙĨØ¹
ĠTe ch
ĠØ¹ÙĦ ÙħÙĬ
0 94
m ar
ĠÙĪÙĩ Ù
ĠÙĪÙĩÙ Ħ
ĠØ§ÙĦÙħØª ØµÙģØŃ
ØªÙģ Ø§ØµÙĬÙĦ
ĠÙħØ· Ø§Ø¹Ùħ
V R
997 94
Ø³ÙĬ Ø¹
Z D
ĠÙĪØ§ÙĦ Ø³ÙĦØ§Ùħ
ĠØ®ØµÙĪØµ Ø
ĠØ®ØµÙĪØµØ §
an s
Q L
ÙĬ ÙĪØ¨
ĠÙĬØ´ Ø¹Ø±
ĠÙħØ³Øª ÙħØ±
nØ§ÙĦ ÙħØ±
Ġ 37
Ø¯ ÙĤ
ĠÙĨØ³ Ø§Ø¦ÙĬØ©
ĠØ£ Ø¯Ùī
ĠÙĪØ¢ ÙĦØ§Øª
ĠØ§ÙĦØ¹ÙĤ Ø§Ø±ÙĬ
nÙĦ ÙĨ
ĠÂ Ń
ĠØ§ÙĦÙħÙĪ Ø¸ÙģÙĬÙĨ
ĠØ§ÙĦÙħØ³Øª ÙĩÙĦÙĥ
ĠØ¨Øª Ø¹
ĠÙĬØŃÙĬ Ùī
ĠØª ØµÙĨØ¹
Ø´ ÙħÙĦ
ĠØ³ Ø£
ĠØªØ± Ø§Ø¬Ø¹
ĠÙĬ Ø¶
ĠØªØª Ø¹ÙĦÙĤ
8 26
Ġ el
ĠØ§ÙĦØ¬Ø² Ø§Ø¦Ø±ÙĬ
Ø¨ÙĦ Ø§Øº
J S
ĠØ§ÙĦØŃ ÙĪØ«
ĠØŃ Ø§Ùħ
ĠØ§ÙĦØ¹ Ø§Ø¯ÙĬ
DB A
3 98
ÙĪØ¶ Ø©
ĠØ§Ø± ØªÙģØ¹
ÙĪØ§Ø± Ø¹
' '
3 26
ĠØ§ÙĦØ´ÙħØ³ ÙĬØ©
ĠØ£Ø³ ÙģÙĦ
ĠØ¨ÙĬ ÙĦÙĬÙĩ
ØªÙħ Ø§ÙĦ
43 97
Ø±ÙĬ Ø§ÙĦ
ĠØ§ÙĦØªÙĤ ÙĨÙĬØ§Øª
ĠØ§ÙĦØ¨Ø± ÙĦÙħØ§ÙĨ
ĠØ§ÙĤ ØªØ¨Ø§Ø³
Ø§Ùħ ÙĨØ©
categor y
ĠÙĥÙĦ Ø§ÙĬÙĨ
ĠØŃ Ø¬Ø²
ĠØ§ÙĨ ÙĤØ±
ÙĥØ± Ø²
nØ¥ Ø¶Ø§ÙģØ©
ÙĩØ§ Ø¬Ø±
ÙħØ³ Ø£ÙĦØ©
ĠÙĪÙĪ Ø¶Ø¹
Ġ if
ĠÙĦØ§Ø¨ Ø¯
ĠØ¨Ø¹Ø¯ ÙĩØ§
ĠØ§ÙĦÙħØª ÙĪÙĤØ¹
ĠØ§ÙĦØ¹Ø¶ ÙĪÙĬØ©
ĠØªØª ÙĥÙĪÙĨ
ĠØ¹ ÙĥØ³
ĠØµ ÙĬØ¯
ĠØ§ÙĦØªØ¹ ÙĦÙħ
ĠÙĤ Ø¨ÙĪÙĦ
ĠØ§ÙĦØ¯ Ø§Ø±
Ġ Û
j pg
ĠØ§ÙĦØº Ø±Ø¨ÙĬ
98 17
nØ§ÙĦ Ø§ÙĨ
Ø¦ Ùĥ
ĠÙĦ Ø¢ÙĦØ©
ĠØ¥ ØµØ§Ø¨Ø©
04 0
ĠØ§Øº ÙĨÙĬØ©
Ø¬ ÙĬØ¹
ĠØ³ ÙĦØ§Ùħ
ĠØ³ÙĪ Ø¨Ø±
ĠØ¹ Ø§Ø¦ÙĦØ©
ĠØ¢ ÙĦÙĬØ©
ĠØµ Ùħ
ĠØ§ÙĦØ³ ØŃØ±
Ø±Ø¯ ÙĪØ¯
ĠØ®ÙĦÙģ ÙĬØ©
Ġp ost
ĠØ¯Ø§Ø® ÙĦÙĬØ©
ĠÙĦ ØµÙĨØ¹
Ø®Ø± Ø³
998 64
ÙĪØŃ ÙĬØ¯
Ġ Ø§Ùī
ĠØª Ø¬Ø±Ø¨
ĠE n
ĠÙħ ÙĥØ§ØªØ¨
Ġ[âĢ¦ ]\
ĠØ§ÙĦØ¹ Ø§Ø¦ÙĦØ©
ĠP re
ĠÙħØ¹ ÙĩÙħ
Ø¹ÙĦØ§Ùħ Ø§Øª
ĠÙĪØ§Ø´ ÙĨØ·ÙĨ
ĠÙħÙĬÙĦ Ø§Ø¯
Ġ ce
ĠÙĤ Ø§Ø¦
ĠØ§ÙĦØªØ± Ø§Ø«
ÙĬØ± ÙĪÙĨ
ĠÙĤÙĦÙĬ ÙĦØ©
ĠÙħØŃÙħ ÙĪÙĦ
ÙĨØ¯ Ø³Ø©
ĠÙĪØ§ÙĦ Ø·ÙĦØ§Ø¨
Ø¹ ÙĤ
ĠØ§ÙĦÙħÙĨØ¸ ÙģØ§Øª
Ġ Ø°Ùĩ
ĠØ± Ø®ØµØ©
ĠØµÙĨ Ø§Ø¹ÙĬ
Ġ 44
ĠØ¬ÙĨ Ø¨
ĠØ§Ø³Øª Ø¦
ĠÙħÙĬ Ø²Ø©
ĠØ¬ Ø§Ø¦Ø²Ø©
ĠØ¬Ùħ Ø§Ø¹Ø©
N N
Ùħ ÙĤ
ĠØ§ÙĦØ´ ØªØ§Ø¡
Ø·ÙĦ Ø§Ø¹
ĠØ§ÙĦÙħ ÙģØ±
ĠØ¨ ÙĬØ¯
ic y
ĠØ· Ø§Ø±ÙĤ
ĠØ§ÙĦÙħÙĬÙĥØ§ÙĨÙĬ ÙĥÙĬØ©
ĠÙĪØ§ÙĦØªÙĨ ÙħÙĬØ©
04 9
ĠØ® Ø´Ø¨
ØªÙħ Ø¹Ø§Øª
0 17
ĠÙħ Ø±ÙĪ
inter est
ĠØ§ÙĦÙģ ÙĬØ±ÙĪØ³
89 2
n Ø±ÙĬØ§Ø¶Ø©
ÙĪØ¯ Ùĩ
ĠØ±Ø£ Ùī
Ø§Ø¨ ÙĬÙĨ
16 1
ØªØ¯ Ø±ÙĬØ¨
ĠÙħ Ø¨Ø§Ø±Ùĥ
A P
ĠØ§ÙĦØµ Ø¨
ÙĪÙĬØ³Ø± Ø
ÙĪÙĬØ³Ø±Ø §
âĢ¬ âĢİ
A Y
ØŃ Ø¬Ø±
ĠØ¨Ùħ ÙĪØ¬Ø¨
ĠØªÙĤ ÙĨÙĬØ§Øª
ĠÙĦÙĦ Ø§Øª
ĠØ´ ÙĤØ©
Ø¨ÙĬ Ø§Ø¡
ĠØ§ÙĦØª ØŃÙĤÙĤ
t al
ĠØ¢ Ø°Ø§Ø±
ĠØ§ÙĦØ± ØŃÙħ
98 57
ĠÙĪ Ø¹Ø¯Ø¯
ĠØ¢ ÙĨ
Ùģ ÙĦØ§Øª
ĠØ¯Ø¹ Ø§Ø¡
nØ§ÙĦÙħ ÙĪÙĤØ¹
K W
Øº Ø³Ø·Ø³
ĠØ§ÙĦØ£ Ø·Ø¹ÙħØ©
m p
Ø§Ø¨ ÙĦØ³
ĠÙĪ Ø§Ø¯ÙĬ
ĠØªØ¹ÙĦÙĬ ÙĤØ§
â Ĥ
ĠÙĪØ£ÙĬ Ø¶Ø§
ĠÙĪØ§ÙĦ Ø§Ø¬ØªÙħ
nØ§ÙĦ ÙħÙĨØªØ¬Ø§Øª
998 54
ĠØ§ÙĦØ¯ Ø§Ø¦Ø±Ø©
ĠØ§ÙĦÙĪ Ø«
Ġm in
n ÙĬÙĨ
ÙĪØ± ÙĩØ§
ĠØ§ÙĦÙĤ Ø¨ÙĪÙĦ
ĠØ§ÙĦØª ÙħÙĪÙĬÙĦ
Ø³Øª Ø§ÙĨÙĬ
ĠÙħÙĨ ØªØµÙģ
T V
ĠØ¨ Ø§ÙĤÙĬ
ĠÙħÙĨ ØµØ§Øª
ĠØ§ÙĦØ¥ÙĬØ± Ø§ÙĨÙĬ
996 2
nÙĥ ØªØ§Ø¨
nØª Ø¯
Ø¨ ÙĪÙĥ
Ø§ÙĬ Ø²
ĠÙĨ Ø¹ÙħÙĦ
ĠØ§ÙĦ Ø§Øº
Ø¬ Ø§Ø²Ø§Øª
ĠÙħØ® Øµ
31 34
ÙĨ Ø¬Ø±
ĠØªØµÙħÙĬÙħ ÙĩØ§
Ġ35 0
998 00
ØŃ Ùī
ĠØªÙĨ Ø²
ĠØ§ÙĦØºØ± Ø§ÙĨÙĬØª
ĠØ§ÙĦØ´Ø¹ ÙĪØ±
ĠØ§Ø« ÙĨÙĬÙĨ
ĠØ± Ø¨ØŃ
Ġpla nt
ĠÙħØ¶ Ø®Ø©
ĠÙħØ¯ Ø±Ø¨
ĠØ® Ø±ÙĪØ¬
ĠØ«ÙĤ Ø§ÙģØ©
998 14
ĠØ± Ø¨Ø·
Ø§Ø« Ø©
Ø³Ùħ ÙĬØ©
0 11
8 86
ĠØ§ÙĦÙĬÙĪÙħ ÙĬ
Ø³ Ø§Ø³
ĠØ§ÙĦÙĨÙĩ Ø§Ø¦ÙĬØ©
ĠÙĦØ¨ ÙĨØ§Ø¡
65 4
ĠØ§ÙĦØ§Ùħ Ø±ÙĬ
ĠÙĤÙĦÙĬ ÙĦØ§
ĠÙĤØµ ÙĬØ±
ÙģØ¶ Ø©
ĠØ¥ÙĨ ÙħØ§
ĠØ¬ ÙĩØ¯
m i
9 18
ĠÙĪÙħ Ø´
47 2
ĠØ§ÙĦÙħØ® Ø·
30 64
ĠØ§ÙĦÙĤÙĬ ÙĪÙĬÙĨ
ve lop
ĠØ§ÙĦØ³Ø¹ ÙĬØ¯
ĠØ§ÙĦØ¬ ÙĨØ©
ĠÙħÙĤ ØªÙĦ
ĠÙĤØ¶ Ø§ÙĬØ§
ĠÙħØ³ Ø§Ø±
ĠØ§ÙĦØªØ£ Ø«ÙĬØ±
ĠØ§ÙĦØ¨ Ø¹
ĠØ§ÙĦÙģ ÙĤ
ĠØªØµ Ø¯Ø±
33 2
Ø´ ÙĬØ±Ø©
ÛĮ Ø©
66 93
ĠÙģÙĤØ¯ Ø§ÙĨ
ØªÙĩ ÙĬ
ÙĩØ± Ø§ÙĨ
ur l
Ø¬ÙĨ ÙĪØ¨
ĠÙĦÙĦØŃ Ø¬Ø±
ÙĦØ³ Ø§Øª
ar i
ĠØª Ø±Ø¨ÙĬØ©
O Y
ĠØªÙĪÙĥ ÙĬÙĦ
Ø§ÙĦ ÙħÙĨ
ĠØ§ÙĦØ¹ Ø§Ø¯ÙĬØ©
Ø° ÙĬÙĨ
ĠØ§ÙĦØ´ Ùĥ
ĠÙĪØ§ÙĦÙħ ÙĪØ±Ø¯ÙĬÙĨ
nÙħ Ø®Ø±ÙĪØ·
n Ø§Ø³ØªØ®Ø¯Ø§Ùħ
Ø· Ø
ĠØ§ÙĦÙħØ± Ø¬ÙĦ
ĠØ§ÙĦÙĦ ØºØ§Øª
ĠØ§ÙĦØŃØ³Ø§Ø¨ Ø§Øª
Ø·Ø §
ĠÙĬÙĥ Ø´Ùģ
ĠÙħØ¹ Ùĥ
ĠÙĪØªÙĤ Ø¯ÙĬÙħ
Ø´ Ø®Ø§Øµ
ol ut
Ġw ork
ĠØ§ÙĦÙģÙĨ Ø§ÙĨØ©
ĠØ§ÙĦÙħØª Ø§Ø¬Ø±
ĠÙĪÙĦÙĥÙĨ ÙĩØ§
ĠØ¹ ÙĪØ¯Ø©
O B
999 83
ĠØ¨Ø§ÙĦ ÙħÙĪ
ĠØ§ÙĦÙģ ÙĪØ§Ø¦Ø¯
ÙĢ Ø±
ĠØ¨Ø· Ø§ÙĨØ©
ic ro
I X
n Ø¯Ø±Ø§Ø³Ø©
ĠØ§ÙĦÙħ Ø³Ùħ
Ø§Øµ Ø±Ø©
ĠØ¨ÙĨ Ø¸Ø§Ùħ
Ġïº į
ĠØ§ÙĦØŃ ÙħØ±Ø§Ø¡
U D
ĠÙĥ Ø§ØªØ¨
Ø§Ø´ ÙĬ
ĠØ§ÙĦØ³ Ø·ØŃ
or n
ØªØ§Ø¨ Ø¹
ĠØµ Ø§ÙĦ
ĠÙĬØ¹ Ø§ÙĨÙĬ
ĠØ§ÙĦÙĨ ØµØ±
ĠØª ÙħÙĪÙĬÙĦ
ĠØŃ Ø¶
anufact ur
8 15
ĠÙĬ Ø¬Ø¯
ĠØ§ÙĦØ§ÙĨ Ùģ
ĠÙħÙĨØ² ÙĦÙĥ
Ħ Ø¹Ø§Ø¨
Ù ĦØ¹Ø§Ø¨
o x
ĠØ§ÙĦØ³ ÙĩÙħ
p os
ĠØ§Øª Ø¨Ø§Ø¹
ĠØ£Ø¨ ÙĪØ§Ø¨
ĠØ§ÙĦØ£Ùħ ÙĬÙĨ
ĠØª Ø§ÙħÙĬÙĦ
ĠÙĬØªØŃ Ø¯Ø«
ĠØ³Øª Ø§Ø±
ĠÙħ ÙĥÙĬØ§Ø¬
ĠØ§ÙĦÙħØª Ø·
997 76
ĠØ§ÙĦØ¨Ø±ÙĬØ· Ø§ÙĨÙĬ
ĠØŃØ¯Ø« ÙĨØ§
ĠØ¨Ø¹Ø¯ ÙħØ§
ĠÙĤ Ø³
U V
Ø® Ø§ÙĨ
ĠØ¯ ÙĤØ©
ĠM ay
Ø· ÙĪÙħ
e at
Ø§ÙĪ Ø§Ø©
ĠØ¨ÙĬÙĨ ÙĩÙħØ§
ĠØ§ÙĦÙħ Ø¨Ø§Ø±Ùĥ
nØ£ ØŃ
27 0
ĠØ¥ Ø¨
Ø¸ Ø§ÙĩØ±
ĠØªØ¹ ÙĨÙĬ
Ø® Ø¨Ø±
ĠÙģÙĪÙĦ Øª
ĠÙģ Ø±ÙĪØ¹
ĠØ§ÙĦØ£ÙħÙĬØ± ÙĥÙĬØ©
ĠÙĪØªØŃ Ø¯ÙĬØ¯
ÙĨØ§ Ø·
ĠÙĪØ§ÙĦ Ø·ØŃÙĨ
ĠØª Ø£Ø³Ø³Øª
ĠØ§ÙĦØ®ÙĦ Ø§ÙĬØ§
ĠØ§ÙĦÙħ ÙĬØª
* \
ĠØ§ÙĦÙĩ ÙĦØ§ÙĦ
ÙĨ Ø§Ùģ
ĠÙĤ ÙĪ
ĠØ§ÙĦØ¨ÙĨØª ÙĪÙĨÙĬØª
98 46
998 11
ĠÙģ ÙĥØ±
ĠÙħÙĦ Ø®Øµ
ĠØº ÙĬÙĨÙĬØ§
Ġst one
ĠØ§ÙĦØ³Ø¹Ø± Ø§ÙĦØŃØµÙĪÙĦ
8 97
ĠØ³Øª Ø©
ĠØªÙĥ Ø´Ùģ
ĠÙĬ ÙħØªÙĦÙĥ
ĠØ§ÙĦØ´ Ø§ÙħÙĦ
t i
ĠØ§ÙĦÙģ ØŃØµ
ĠØ§ÙĦÙĦØ¨ÙĨ Ø§ÙĨÙĬ
ĠH ome
E W
Ø§Ùĥ ÙħØ©
ĠÙħØ® Ø§Ø·Ø±
ĠØ¥ Ø«
Ø¬ ÙĬÙĩ
K S
ĠØ§Ùħ ØªØŃØ§ÙĨØ§Øª
ĠÙĥ Ø§ÙĦÙģÙĨ
ĠØ«ÙĤ ÙĬÙĦÙĩ
c at
ĠÙħ ÙĢ
ĠØ¨ ÙĬØ³
05 9
ĠÙĬØ´ ÙħÙĦ
7 30
ØŃØ¶Ø± Ø§Øª
Ġ Ú
ĠØ§ÙĦØªØ¯ Ø±ÙĬØ³
Ù §
ĠÙħ Ø¨Ø±
ĠÙĨ Ø§Ø³
BD E
ĠØ± Ø¨Ø¹
ĠÙĬØª Ø¶ÙħÙĨ
ĠÙĥ Ø´
O H
ĠØ¨ Ø°
ĠØ§ÙĦÙħØ³ Ø§Ø¹Ø¯
ĠØªØ¹ ÙĪØ¯
ĠÙĬØ¤ Ø«Ø±
ĠÙĦØ¬ Ø¹ÙĦ
Ø±ÙĬ Ùĩ
ÙģØ³ Ø§Ø±Ø§Øª
ĠÙĦÙĦ Ø§Ø³ØªØ®Ø¯Ø§Ùħ
ĠØ§ÙĦÙĥ Ø³
ĠÙĬ Ø¶Ùħ
ĠØ§ÙĦÙĨÙģ Ø³ÙĬ
nÙħ ØµØ±
ĠÙĦÙĦÙħ Ø´Ø§Ø±ÙĥØ©
Ø· ÙĪÙĦ
Z N
ĠÙĥ ÙĨØ¨
E G
ĠØ§ÙĦØ³Ø§Ø¯ Ø³Ø©
ÙħÙĨØª Ø¯ÙĬØ§Øª
999 18
ĠØ¨ÙĬØª ÙĥÙĪÙĬÙĨ
ĠØ§ÙĦØ¥ Ø¶
ĠØªÙĨ Ø§Ø³Ø¨
ĠØ§ÙĦØ®Ø¨Ø± Ø§Ø¡
Ġh ave
ĠØ¨Ø£ Ø¹ÙħØ§ÙĦ
nÙĩ Ø°Ùĩ
ĠÙħ Ø·Ø¨Ø®
85 13
910 2089
ĠÙĨ ÙĪÙĨ
Ø§Ø¯ ÙĬÙĨ
ÙĦÙĬ Ø´
ÙĪØ§Ø± Ø¨
ĠØ¨Ùħ Ø«
ĠØ§ÙĦØ£Ùģ ÙĥØ§Ø±
ĠØ§ÙĦØ¬ ÙħÙĩÙĪØ±
ĠØ§ÙĦÙĦØ§Ø¹Ø¨ ÙĬÙĨ
ĠØ§ÙĦØµ Ø¹Ø¨
999 81
ÙħØ§Ø± Ø³Ø§Øª
ĠÙĪØ£ ÙĨØ§
Ø§Ø° Ø¨ÙĬØ©
ÙĬØ¨ Ø
ÙĬØ¨Ø §
Ø¯ÙĬ Ø³
Ø§Ùĥ ÙĬÙĨØ©
ĠØ§Ø¬ ÙĨ
Øµ Ø§Ø¨Ø§Øª
ĠØ§ÙĦÙħØ³Øª Ø«ÙħØ±ÙĬÙĨ
985 35
J M
Ø« Ùģ
Ø±ÙĬ Ø²
ĠØ§ÙĦØª Ø§Ø¨Ø¹
ĠâĿ Ģ
ĠØ¨ Ø§ØŃ
Ø §ï»
ĠÙħØ¹ ÙħÙĦ
ĠØ§Ø³Øª ÙĬØ±Ø§Ø¯
L C
Ġ4 2
ĠÙĪØ± ØŃÙħØ©
ĠØ¨Ø· Ø§ÙĤØ§Øª
ĠØªØµ Ø±ÙĬØŃ
t a
ĠØ¬ ÙĬØ¨
ØºØ± ÙģØ©
ĠÙĬÙĨ Ø§Ø³Ø¨
ĠØ§ÙĦØ³ Ø¯
ÙĨ Øº
Ġ 64
ĠØŃ Ø¶ÙĪØ±
á ĥ
ĠØ§ÙĦØ« Ø§ÙħÙĨ
ĠØ¨Ø§ÙĦÙħÙĪØ±Ø¯ WhatsApp
ĠÙĨ ÙĪÙģØ±
816 6693
ÙĪØ§Ø¬ ÙĨ
ĠØ¨Ùħ Ø¬Ø±Ø¯
Z W
20 12
Ø¬ÙħØ¹ ÙĬØ©
ĠØ§Ø± ØªØ¯Ø§Ø¡
ĠØ§ÙĦØ¹Ø¯ Ù
ĠØ§ÙĦØ¹Ø¯Ù Ħ
ĠØ¬ ÙĬØ±
n ÙĤØ·Ø¹
Ø³Øª ÙĬ
ĠØ¨Ø¬ Ø§ÙĨØ¨
an a
Ø§Ø³ Ø¹Ø§Ø±
ĠØ§ÙĥØª Ø´Ùģ
ĠØ®ÙĦ Ø¹
ĠÙĦÙĦ Ø§ÙĨØ¯Ø±ÙĪÙĬØ¯
n Ø§Ùģ
ĠÙĬØªÙħ ÙĥÙĨ
Ġk ora
ĠØ¬ÙĬÙĨ Ø²
ĠØ§ÙĦØªØŃ ÙĤÙĬÙĤ
ĠÙħØ³ÙĦØ³ÙĦ Ø§Øª
ĠÙĦ Ø§Ùģ
Ø¹ Ø§ÙĨ
Ħ ÙĪØ§ÙĨ
Ù ĦÙĪØ§ÙĨ
nØ¯ÙĬ Ø³ÙħØ¨Ø±
ĠØ§ÙĦØ§Ø¹ Ù
ĠØ§ÙĦØ§Ø¹Ù Ħ
ĠØº Ø±ÙĬØ¨
ĠØ§ÙĦØ£ Ø·Ø¨Ø§Ø¡
ĠÙĪÙĬ Ø³ØªØ®Ø¯Ùħ
ĠØ§ÙĦØ§ÙĨ ØªÙĩØ§Ø¡
nØª Ø£Ø«ÙĬØ±
Ġ 46
ĠØ¨Ø§ÙĦØ¨ Ø®Ø§Ø±
998 21
d ay
ĠØ§ÙĦØ¥ Ø´Ø§Ø±Ø©
ĠØ§ÙĦÙĨØŃ ÙĪ
Ø¬ Ø¯ÙĬØ¯
A H
I Y
nØ§ÙĦ Ø³ÙĬ
ĠØŃ Ø¨ÙĬØ¨
ol low
Ø§Ø¯ ØªÙĩ
Ø¨ÙĬ Ø§Øª
Ø§Ø² Ø©
ĠØªØ´ Ø¹Ø±
ĠØ§ÙĦÙĤ ÙĪÙĬØ©
ĠØª ÙĩØ¯Ùģ
ĠØ§ÙĦØ¬ ÙĪÙĬ
ĠØ§ÙĦÙĥ Ø§Ø´
ĠØ§ÙĦØ´Ùĩ ÙĬØ±Ø©
ĠØ§Øª ØŃØ§Ø¯
67 0
( )
ĠØ§ÙĦØ³ ÙĥØ±ÙĬ
ĠØ¨ ÙĦØ³
k a
ĠØ§ÙĦÙħØ¬Ùħ ÙĪØ¹Ø§Øª
ĠØ¸ Ø±ÙĪÙģ
ĠÙħØ¹ ÙĬ
98 74
Ø¹ ØªØ¨Ø±
ĠÙħØ¯ ÙĪÙĨØ©
ĠÙħØ¹Ø¯ ÙĨ
ĠØ´Ø¨ ÙĥØ§Øª
ĠØ£ÙĪ ÙĦÙī
Ùĥ Ø§Ø©
ĠØ§ÙĦØ¥ Ø®Ø¨Ø§Ø±ÙĬØ©
ĠÙĪØ± Ø¦ÙĬØ³
nØ§ÙĦÙħ ØŃÙħ
Ø´ÙĬ Ø·
Ġt ra
98 47
ØµÙĦ Ø§Ø©
ĠÙĪ Ø¨ØŃ
K M
nØ¬ ÙĪØ¯Ø©
el d
Ø® Ø§Ø¨
to m
068 93
75 3
U Y
K R
ĠØ§ÙĦØ¹ ÙĬÙĪÙĨ
ĠØ§ÙĦÙĤØ¶ Ø§ÙĬØ§
u ro
ĠØ§ÙĦÙĤ Ø§Ø¯Ùħ
j a
ĠØ§Ø± ÙĤØ§Ùħ
ÙĢÙĢÙĢÙĢ ÙĢÙĢ
Ø¬Ùħ Ø§ÙĦÙĬØ©
ĠØª ÙĬØ´
Ø³ ÙĥÙĬ
ĠÙĪ Ø¹ÙħÙĦ
no logy
ĠÙħ ÙĪØ¬ÙĪØ¯Ø©
ĠØ£ Ø¬ÙĨ
Ġw orld
nØ§ÙĦ Ø§Øª
ĠÙħØŃØ±Ùĥ Ø§Øª
06 9
Øª Ø³ØªØ®Ø¯Ùħ
ĠÙĬÙģ Ø¹ÙĦ
it ed
n y
ĠØªÙĪ Ø§ÙģÙĤ
ĠØªØ§ÙĬÙĦ Ø§ÙĨØ¯
Ġ 85
ĠØªØ³ ÙĦÙĬÙĥ
ĠØ·Ø± Ø§Ø²
6 31
979 06893
ĠØ§ÙĦÙħØµ Ø§ÙĨØ¹
ĠÙħ Ø±Ø¨
9914 5514
ĠÙĦÙĦ ØŃØ¯
ĠØ®Ø§Ùħ Ø§Øª
ĠØ£ÙĤ Ø±Ø¨
ĠØ§ÙĦØ¨ÙĬ Ø§ÙĨ
ĠL ive
ØŃ Ø§ÙĤ
ĠØ§ÙĦØ¬Ø§Ùħ Ø¹ÙĬØ©
ĠØ® Ø±Ø³Ø§ÙĨØ©
ïº ĺ
Ġ15 00
ĠØ¨ÙħØ« Ø§Ø¨Ø©
nÙħØ§Ùĥ ÙĬÙĨØ§Øª
Ġs a
ĠÙ ¥
Q M
ĠØ§ÙĦØ£ Ø«Ø±
ĠØ§ÙĦØŃ ÙĦÙĬØ¨
ÃĹ \
ĠØ§ÙĦØ± Ø·Ø¨Ø©
ĠØ¹ ÙħØ§
ÙĦÙĩ ÙĬ
Ø¦ Ø§Ø¨
ĠÙĩÙĪÙĦ ÙĨØ¯Ø§
8 27
i vers
ĠØ¨Ø§Ø³Øª ÙħØ±Ø§Ø±
ĠØ§ÙĦØ¯ÙĪ Ø§Ø¦Ø±
06 1
Ùĩ ÙĦØ§
Ùĩ Ø°Ùĩ
erv ices
Ġï ´
ĠØªØ±Ùĥ ÙĬ
8 24
ĠArab ic
ĠØ®ÙĦØ§ÙĦ Ùĩ
nÙģ ÙĪØ§Ø¦Ø¯
ÙĬÙģ ÙĪÙĨ
ĠØ§Ø¨ ÙĪØ§Ø¨
nØ§ÙĦ Ø£Ø³
ĠØ§ÙĦØ¥ Ø«ÙĨÙĬÙĨ
ĠÙĤ ØµØ±
Ø§Ø« ÙĦØ©
Ø±Ø§Øª ÙĬØ¬
ĠÙĪØ§ÙĦÙħ Ø´
/ ?
ĠJ un
Ø§Ø± ØªÙĩ
ĠØ§ÙĦÙģ Ø§Ø¦Ø¯Ø©
ĠØ§ÙĦØ§Ø³ ØªØ±Ø§ØªÙĬØ¬ÙĬØ©
00 9
Ø§Ø¶ Ø§ÙģØ©
ÙħØ§ Ø¯ÙĬ
ØŃÙĬ Ø§Ø¡
Ø¨ ÙĩØ§
Ø§ÙĦ ÙĪ
ÙĤ ÙĨ
Ø¸ Ø§ÙģØ±
Ø®Ø±Ø³ Ø§ÙĨØ©
Ø³Ø±Ø§Ø¦ÙĬÙĦ ÙĬØ©
ĠØ§ÙĦÙħÙĨØª Ø¯ÙĬØ§Øª
ĠØ§ÙĤ ØªØµØ§Ø¯
Ø¨ Ø±ÙĬ
ĠØ§ÙĦÙĨ Ø§Ø¯ÙĬ
B S
ĠØ§ÙĦÙĤ ØµØ©
Ø¬ Øª
Ø§Ø¬ Ø¦
ĠØ£ Ø¶Ùģ
ĠÙĨ Ø§Ø¯ÙĪ
ĠØ§Ø¬ Ù
ĠØ§Ø¬Ù Ħ
ĠØ§ÙĦØ¯ÙĬ Ø²ÙĦ
n Ø§Ø·
ĠØ§ÙĦØµ Ø¯Ø±
ĠØ² Ø§Ø¯
ĠØ§ÙĦÙħ ÙħØªØ§Ø²
ĠØ¯ÙĬÙĥÙĪØ± Ø§Øª
Ø¹Ø§Ø± Ø¶
ĠÙĥ ÙģØ±
Ø´ Ø
Ùĩ Ùī
ĠØ³ ØªØŃ
Ø§ÙĨ Ùĥ
Ø´Ø §
ÙĦØ§Ùħ ÙĬ
J W
99 13
999 13
Ø£ ÙĥØ«Ø±
ĠØ¬ Ø±ÙĬØ¯Ø©
G H
ĠÙĪØ§ÙĦÙħ Ø¯
ĠØ³ ÙĬÙħÙĪÙĨ
ĠØ¨ ÙĪØ³
ĠÙĪ Ø¨ÙĬØ¹
ĠØ± Ø§Ø¬
ĠÙĥÙĪÙĦ ÙĪÙħ
ĠÙĦØª ØµÙĨÙĬØ¹
ĠØ§Ø³Øª ÙħØ±
ĠØ¨Ø¨ Ø¹Ø¶
ĠÙĬØ® ØªÙĦÙģ
] .\
C R
ĠØ§ÙĦÙĥ Ø«
47 1
ÙĬÙģÙĪØ± ÙĨÙĬØ§
ĠØ§ÙĦÙģ ÙĪØ³ÙģØ§Øª
ĠÙħØ§Ø± ÙĥØ©
ÙĪÙĬ ØªÙĬ
ĠØŃ ØµÙĪÙĦ
ĠØ¬ ÙĨØ³
qu ir
Z Y
ĠØ¨Ø¥ ÙħÙĥØ§ÙĨ
83 97
ĠÙĬÙħÙĥÙĨ ÙĥÙħ
ĠM ining
ĠP ress
Øµ Ø§Ø¦ØŃ
ĠÙħ Ø«ÙĬØ±
ĠØ§ÙĦØµÙĪØª ÙĬØ©
ĠÙħÙĨ Ùģ
3 94
ĠØ§ÙĦØ¬ÙĨ Ø³ÙĬ
ĠÙħØ± ØŃØ¨Ø§
ĠØ§ÙĦÙĨ ÙĪØ±
Ġlik es
ĠØ§ÙĦØ¹ Ø¸Ø§Ùħ
ÙĩØ¯ Ø§Ø¡
ĠØ§ÙĦØ¹ Ø³ÙĦ
ĠÙģÙĬ ØµÙĦ
X L
ĠØ§ÙĦØ£ÙĤ ØµÙī
9 08
Ø§Ø³Øª ÙĬÙĥÙĬØ©
ĠØ§ÙĦØ¥ ØµØ¯Ø§Ø±
ĠÙĦÙĦ ØµØ¯
Ġ up
Ġ Ø±ÙĬØ¨
ou se
ĠØ® Ø±ÙĬØ·Ø©
ĠÙħ ÙĬØ±
ØŃ Ùĥ
ÙħØŃ Ø·Ùħ
X N
ĠØ± Ø¶Ø§
p o
ĠØ§ÙĦØ£ ÙĨØ¯
ĠØ£ Ø¬Ø±
ĠØ§ÙĦØŃ Ø§Ø¬
Øº Ø
ØºØ §
ĠØ¨ÙĦØº Øª
ÙĪØŃ Ø¯Ø©
Ø·Ø± Ùģ
nÙĪ Ø¸Ø§Ø¦Ùģ
ĠØ§ÙĦÙĪØ² ÙĬØ±
ĠØ§ÙĦØ¯Ùħ Ø§Øº
ĠØ§ÙĦØ³ Ø±ÙĬØ¹Ø©
ĠØ§ÙĦØµ ÙĬ
Q W
998 88
ĠÙĦØªØŃ Ø³ÙĬÙĨ
ĠÙĦÙĦÙħ Ø¹
ĠÙĬ ØªÙĬØŃ
ĠØ§ÙĦÙĥ ÙĨ
ĠÙĪØ§ÙĦ Ø¹ÙĦÙĪÙħ
ĠÙĪ Ø§Ø¯
Z L
ĠØ§ÙĦØ£ Ø·Ø±Ø§Ùģ
ĠØ§ÙĦØ£ Ø¹Ø±Ø§Ø¶
Q R
ĠØªØ¹ Ø§ÙĨÙĬ
ĠØªÙĬØ´ ÙĬØ±
ĠØª ÙĪØ±ÙĬØ¯
ĠÙħÙģ ØªÙĪØŃ
75 8
ĠØ°ÙĥØ± Ùī
16 0
ĠÙĤ ÙĦØª
ĠØ® Ø¯Ùħ
ĠØ§ÙĨ Ø·ÙĦØ§ÙĤ
ĠØ£ÙĨ Ø¨ÙĪØ¨
ĠØ§ÙĦÙħØ¤ÙħÙĨ ÙĬÙĨ
ĠÙĬ ÙĪØ±ÙĪ
ĠØ£Ø® Ø¨Ø±
Ġ 66
ĠØ·Ø¨ÙĬ Ø¹Ø©
Ø¸ÙĩØ± Øª
ĠØªÙĦ ÙħÙĬØ¹
ĠØŃ ÙĤÙĬÙĤÙĬØ©
E AE
Ø´ ÙĩØ±
ÙĬÙĦ Ø§Øª
ĠØ§ÙĦÙĩ Ø§ÙħØ©
Ø® Øª
87 97
ĠN ew
ĠØ£ Ø³Ùħ
Ø³ Ùĩ
K Y
ØŃÙħ Ø§Ùħ
es ign
ĠØ§ÙĦÙħÙĦÙĥ ÙĬ
ÙĤÙĬ ÙĤØ§Øª
Ġf unction
ÙĬ ÙĤØ©
ĠÙĪØ¬ Ø¯Øª
Ø§ØŃ Ùĩ
TM L
ĠÙĪ Ø®Ø·
ĠØ§ÙĦÙħØ± Ø¬
Ø§Ùģ ÙĬØª
Ġ ÛĮ
ĠØ§ÙĦØ®Ø· ÙĪØ©
ĠÙħÙĦ Ø¹ÙĤØ©
3 36
Ø³ Ùī
45 1
ĠØ¯ÙĪØ± Ø§Øª
ĠØ§ÙĦÙĥ Ø±ÙĬÙħØ©
Ø§ÙĪ ÙĬØ§Øª
ĠØ§ÙĦÙĪ Ø§Ø¬
ĠØ¨ÙĪÙĦ ÙĪ
ĠÙħÙĨ ØµÙĪØ±
Ùĥ ÙĦÙĬ
Ã ¼
ĠØ§ÙĦÙģÙĨ ÙĪÙĨ
x x
Ø¨Ùĩ Ø©
G N
Ùĥ Ø´Ø§Ùģ
ĠØªØ¹ Ø¨Ø±
ĠØ§ÙĦØ§ÙĨ ØªÙĤ
ĠØº Ø§ÙĦØ¨
ĠØª ÙĪØ¶
ĠØ§ÙĦØªØ± Ùħ
ĠØ¨Ø§ÙĦ ØªÙģ
ĠÙĩ Ø§Ø´
07 1
98 98
ĠÙħØµØ± ÙĬØ©
ĠØ³ÙĬ ÙħØ§
ĠØ§ÙĦØ°Ùĩ Ø§Ø¨
ĠØ¬Ø§Ø¡ Øª
ĠØ§ÙĦØª ØµÙĨÙĬÙģ
ĠØ¨ Ø°ÙĪØ±
Ø¶ Ø¨Ø·
ĠÙħÙĪ Ø³ÙĬÙĤÙī
ĠÙĦ Ø²ÙĬØ§Ø¯Ø©
ĠØ³ ÙħÙĬ
J R
8 37
Ø±Ùĥ Ø§ÙĨ
ĠØ¯Ø¹ ÙĪØ©
ĠØ§Ø³ ÙħÙĨØª
Ø§ÙĦ ÙħØ±
ĠÙĪØª Øµ
ĠØŃ Ø§Ø¬
ĠÙĦØŃ Ø¸Ø©
67 3
J Y
ĠØªØ¹ Ø¨ÙĬØ±
n ÙĤÙħ
ĠÙĥÙĪØ¨ ÙĪÙĨ
ĠØ§ÙĤ ØªØµØ§Ø¯ÙĬØ©
Ġin formation
ĠØ§ÙĦØ³ ÙĦØ©
ĠØŃÙģ Ø§Ø¶Ø§Øª
ĠÙĦØµ Ø§ÙĦØŃ
Ġs u
ÙĬ ÙħÙĨ
nØµ ÙĬØ§ÙĨØ©
ĠÙħÙĬÙĥ Ø§ÙĨÙĬ
nÙĪØ£ Ø´Ø§Ø±
Ø¨ÙĦ Ø¯
ØµØ¯ Ø§Ø±Ø§Øª
ĠØ¹ÙħÙĦ Ùĩ
O F
ĠØ£Ø·ÙĦÙĤ Øª
ĠØ¶ Ø±Ø¨
ĠÙĦÙĦÙħØ± Ø£Ø©
ĠØ§ÙĦØ£ ÙĦØ¨
nØŃ ÙĪÙĦ
Ùģ ÙĪØ¹Ø©
ĠW e
Ġ1 987
nØ§ÙĦØ£ ÙĥØ«Ø±
E AB
ĠØ§Ùħ Ø§Ùħ
ĠØ§ÙĦÙĤ Ø§Ø¶ÙĬ
riv acy
ĠØ§ÙĦÙħØªÙĨ ÙĪØ¹Ø©
ÙłÙł Ùł
ĠØ§ÙĦØ£ÙĨ Ùģ
Z R
ĠØ§ÙĦÙĨØª Ø±ÙĬÙĦ
U W
s ch
ÙĬÙĨÙĬ Ø«
ÙĪØ³ ÙĪÙħ
ĠØ¨Ø¯ Ù
ĠØ§ÙĦÙħ Ø§Ø¦ÙĬØ©
ÙĤ Øµ
Ø±ÙĪØ³ ÙĬØ§
ĠØ¨Ø¯Ù Ħ
ĠÙĤ ÙĬØ¯
ĠØ§ÙĦÙĨÙĪ ÙĪÙĬ
ĠØªØ¹ÙĦÙĬÙħ ÙĬØ©
ĠØ§ÙĦÙħÙĤØ¯ Ø³
Ø± Øµ
Ø±ÙĬ Ø´
ĠØ³ÙĨ ØºØ§ÙģÙĪØ±Ø©
ĠØ§ÙĦÙħÙĤ Ø§ÙĪÙħ
ĠØ§ÙĦØµ Ø§ÙĦØŃ
ĠÙħØŃ Ø¯Ø¯
ØªØŃ ÙħÙĬÙĦ
ĠÙĥÙĦ ÙħØ§
z z
Ø´ ÙĪØ¨
Ø§Ø· ÙĬ
Ø§Ùģ Ø³ÙĬØ©
ĠÙĦØªÙĪ ÙģÙĬØ±
Ø§ÙĦ ÙĪØ¬
ĠØ§ÙĦØ£ÙħÙĬØ± ÙĥÙĬ
Ø® Ø±ÙĬ
ĠØ§ÙĦØ´Ùĩ ÙĬØ±
ĠÙģ Ø¤Ø§Ø¯
ĠÙĥ Ø§ÙģÙĬØ©
ĠÙħØ¹ Ø§ÙĬÙĬØ±
ĠÙĤ Ø§Ø¦Ø¯
ÙĤÙĬ ÙħØ©
Q Y
Ùģ Ø§ÙĨ
Ġa pp
ĠL ocal
Ġ3 8
al es
ĠÙĪ Ø´Ø±Ø§Ø¡
ĠØ¨ Ø®ØµÙĪØµ
ĠØ§ÙĦÙĤ ÙĪØ§ÙĨÙĬÙĨ
Ġ ×
te p
ĠØ³ÙĬØ± ÙĬÙĨ
H P
ĠØ± Ø¶
ĠÙĤØ¶ ÙĬØ¨
ĠS p
so ft
ĠØ¬ ÙĪØ§ÙĦ
ØµÙĬ ØºØ©
ĠØªÙĨØ² Ø§ÙĨÙĬØ§
ĠÙĪØ¨Ø± ÙĥØ§Øª
ĠÙĪØµ ÙĬØ§ÙĨØ©
ĠÙĦØ¬ Ø§ÙĨ
V C
ĠØ£Øº ÙĦØ¨
ĠØ®ÙĦÙĬ ÙģØ©
ĠØªØ¬ ÙħÙĬØ¹
m en
ĠØ§ÙĦÙħ Ø´Ø§Ø±ÙĥØ§Øª
nØ§ÙĤ ØªØ¨Ø§Ø³
ĠP la
ĠØ§ÙĦÙħÙģ ØªÙĪØŃØ©
nÙĨ Ø¸Ø§Ùħ
ĠÙĤ ÙĪØ§ÙĨÙĬÙĨ
ĠØªØ¹ ÙĬØ´
ĠØ¨Ùĥ Ø§ÙģØ©
ĠÙĦÙĦ Ø°ÙĩØ¨
ĠØ§ÙĦÙĨØ§Øª Ø¬
ÙĦÙĤ Ø§Ø¡
Ø±Ø³ ÙĪÙħ
8 06
ĠØª Ø³ÙħÙī
ĠÙĦÙĦÙħÙĪ Ø§Ø¯
ĠÙħØ³ Ø£ÙĦØ©
ĠØ§ÙĦØ¯ÙĪ Ø§Ø±Ø©
ĠÙĦÙĦÙĪ ØµÙĪÙĦ
ĠØ¸ÙĩØ± Øª
n ÙĪÙģ
ĠØªØŃ Ø§ÙĪÙĦ
ĠÙĪØµÙĦ Øª
G S
ĠØ§ÙĦÙĨ ÙĬÙĦ
ĠØŃÙĬ Ø§ØªÙĥ
ĠØ§ÙĦÙĦ Øº
Ġs ervice
ĠÙħØ¤ ÙĤØª
ĠC S
ØµÙĦ Ø¨
ĠØ§ÙĦØ¯ÙĬ ÙĥÙĪØ±
Ø¬Ø¯ Ø¯Ø©
ĠØ§ÙĦ Ø§Ø¬ÙĩØ²Ø©
ĠN ews
£ ï»
Ø¯ Ø§Ùħ
ĠØªØ± Ø§ÙħØ¨
Ùħ Ø§Øª
Ġl ine
Ġs p
I B
Ø®Øµ Ø§Ø¦Øµ
ĠÙĦÙĦØ³ÙĬ Ø§Ø±Ø§Øª
ĠØ· ÙĪØ§ØŃÙĬÙĨ
Ġ www
n Ø®Ø¯ÙħØ©
ĠØ§ÙĦØ± Ø¤
ĠÙĨ Ø³ØªØ®Ø¯Ùħ
88 31
nÙĥ Ø§ÙĨ
ĠØ§ÙĦÙħØ³ Ø§ÙģØ±
Ùĥ Ø§Ùģ
ÙĥØª ÙĬØ±ÙĬØ§
ĠÙħÙģ ØªØ§ØŃ
ĠÙħØ· Ø§Ø¨Ø®
ĠÙĬØ¯ Ø¹Ùħ
Ø£ ØŃÙħØ¯
ĠØ§ÙĦÙħÙĨ ØµØ©
35 0
nØ§ÙĦ ÙĥØ³Ø§Ø±Ø§Øª
ØºØ§ÙĦ ÙĪØ±
nE nglish
ĠØ¨Ø§ÙĦ Ø¹ÙħÙĦ
ĠØ§ÙĦÙĨ Ø·Ø§ÙĤ
ĠØŃ Ø¯Ø¯
ØŃÙĤ Ø§Øª
Ø· ÙĪØ¨Ø©
ĠØ¥ ØºÙĦØ§ÙĤ
ØªØ± ØŃ
Ùħ ÙħØ©
ĠÙĦØº Ø±Ø¶
ĠØº Ø¶ÙĪÙĨ
ĠØ¨ Ø·ÙĦ
ÙĨØ§Ø· ÙĬØ³
ĠØª Ø°ÙĥØ±
ĠØªØ¹ ÙĤÙĬÙħ
Ø§Ø¯ ÙĬØ±
ĠÙĨ Ø¬Ùħ
ĠØ¬ ÙĦØ¨
ĠÙģ Ø¬
ĠØ§ÙĦÙĨ ÙħÙĦ
ĠØ§ÙĦØ¨ØŃ ÙĪØ«
ĠÙĦÙĦØ§Ø· ÙģØ§ÙĦ
ÙĦÙĬÙħ ÙĪÙĨ
ĠØ§ÙĦÙħØµØ± ÙģÙĬØ©
ĠØªØµ Ø¯ÙĬØ±
Ø±ØŃ Ø¨
0000 3
ĠØ´Ø§Ø± Ø¨
le arn
ĠÙĦ ÙĪÙĦ
ĠØ§ÙĦØ³ Ø§Ø¦ÙĦ
ãĢ ĳ
Ø¬Ø¯ ÙĪÙĦ
46 1
ĠØ§ÙĦØ£Ø±Ø¨ Ø§ØŃ
ĠØ³ÙĬ Ø§Ø³ÙĬ
99 19
ĠØ£Ø±Ø¨ Ø§ØŃ
ĠØ§Øµ Ø¯Ø§Ø±
ĠØ£ÙĨØ¯ Ø±ÙĪÙĬØ¯
c s
I W
ÙĦÙĬ Ø²Ø±
ĠØ´ Ø§Ùħ
ĠØ¹ ÙĪØ§ÙħÙĦ
Ø§ÙĦ ØµÙĬÙĨ
ĠØ§ÙĦØ¥ ÙĬØ¬
id d
ĠØŃ Ø¬
ĠAl l
996 66
ĠÙĦÙħ ÙĪÙĤØ¹
ĠØ² Ø§ÙħØ¨ÙĬØ§
v el
nÙģ ÙĨÙĬ
A r
ĠÙĨ Ø¬Ø§Ø±
nØ§ÙĦ Ø³ÙĦØ§Ùħ
Ø¹Ø¶ ÙĪ
ĠØŃ Ø¶Ø±
G Y
ĠØ§ÙĦÙĬØ§Ø¨ Ø§ÙĨÙĬØ©
â ĸ
ĠÙĬÙĨØª Ø¬
ĠÙĬØ¤ ÙĥØ¯
ĠÙħØµÙĨ ÙĪØ¹Ø©
ĠØ¬ÙĪØ±Ø¬ ÙĬØ§
Ø¯Ùħ ÙĬØ±
998 20
ĠÙĤ Ø¯ÙĬÙħØ©
Ø¨ ÙĪØ·
ĠÙģØ¹ Ø§ÙĦØ©
ĠØ§ÙĦØ³ Ø§Ø¨Ø¹Ø©
Ø³Ø§Ø¨ ÙĤ
ÙĨÙĬ ÙĥØ±Ø²
Ø· Ùī
Ùĳ ØĮ
ĠÙĦÙĦÙħ ÙĤ
ØªÙĩ Ø§Ø¨
ĠØ¥ Ø´Ø§Ø±Ø©
ĠØ§ÙĦØ² Ø¨
ĠØ§ÙĦØ£ÙĦÙħ Ø§ÙĨÙĬ
ĠÙĦØª ÙĥÙĪÙĨ
n Ø«Ùħ
997 84
47 87
Ø¶ Ø§ÙĬØ§
) âĢı
ĠØªØ±Ùĥ ÙĬØ©
ĠØ£Ø³ ÙħÙĨØª
ĠM ill
a is
Ø§Ø² ÙĬØ©
ĠØ§ÙĦØŃØ¬Ø± ÙĬØ©
ĠØªÙĬØ´ÙĬØ± ØªØ§Øª
ĠÙģ ÙĩÙĦ
k e
ĠÙĪØª Ùģ
Ø¬ Ø§Ø¨Ø§Øª
ĠØ¢ ÙħÙĨ
ĠÙĥØ§ÙĦ ÙĬÙģÙĪØ±ÙĨÙĬØ§
ĠØª Ø¶ÙħÙĨ
ĠØ§ÙĦØŃ Ø§Ø±
Ø§Ø¸ Ø±
ĠÙĨ Ø®
ĠØ±ØŃ ÙĦØ§Øª
ĠÙħØª Ø¹Ø¯Ø¯
ĠØ¨Ø§ÙĦ ØªÙĤ
ĠØ§ÙĦÙģ ÙĥØ±ÙĬØ©
99 10
4 34
ĠØª ÙĪÙĤØ¹Ø§Øª
ÙħØ§ Ø·
ĠØ§ÙĦØ« Ø§ÙħÙĨØ©
ĠÙģØª Ø§Ø©
ĠØ§ÙĦØ¨ Ø´Ø±ÙĬ
ĠØ³ ÙĪØ±
ĠÙĦÙĦ Ø¯Ø±Ø¯Ø´Ø©
Ø±ÙĬ Ø§ÙĨ
ØªÙĬ Ø§ÙĦ
re at
997 57
ÙĪØ¬ ÙĬ
ĠÙĦ Ø§Ø®
7 35
ĠØ§ÙĦÙħÙĨ Ø§Ø¬Ùħ
ĠØ§ÙĦÙħØ´ ØªØ±ÙĬ
ĠØ¨ÙĦ Ø¬ÙĬÙĥØ§
7 07
Ø§Ø± Ùħ
U T
Ġ `
ĠØ§ÙĦØ± Ø§ØŃØ©
ru e
ï ¼
ĠØ§ÙĦÙħØ³Øª Ø´Ø§Ø±
nØ§Ø® ØªØ±
ĠØ³ ÙĤÙĪØ·
Ø§ÙĨÙĬ ÙĪÙħ
ĠÙħØ³ Ø§Ø¨ÙĤØ©
Ùĥ Ø¨
Ġ ~
ĠÙĪÙĦ ÙĩØ°Ø§
ĠØ§ÙĬ ÙģÙĪÙĨ
G R
ĠÙĪØ§ÙĦØ¥ ÙĨØªØ§Ø¬
ÙĬÙģ ÙĬ
ĠØ¨ Ø³Ùħ
ĠØ¨ Ø²ÙĬØ§Ø±Ø©
Ø´ÙĦ ÙĪÙĨØ©
ĠØ§ÙĦØ³ ÙĩÙĦ
Ø§ÙĤ Ø·
ĠØ§ÙĦÙģ Ùħ
ĠR es
ĠØ§ÙĦÙĩÙĨØ¯ ÙĬØ©
% \
ĠÙĪØ£ ØŃ
r and
nØ§ÙĦØ£ Ø®Ø¨Ø§Ø±
ÙĥØª Ø´Ùģ
997 96
999 49
98 54
ĠØ§ÙĦØ´ Ø§Ùģ
ĠØ§ÙĦØ³ÙĨ ÙĪÙĬ
Ùħ Ùī
ĠÙħØ¨ Ø§Ø¯Ø±Ø©
20 10
ĠØ§ÙĦØ¹Ùħ ÙĪØ¯
Ø¬Ø¨ Ùĥ
A K
ĠØ§ÙĦÙħØ³Ø¤ÙĪÙĦ ÙĬØ©
ÙĪÙĦÙĪØ¬ ÙĬØ§
-- -
Ù °
ĠØª Ø®Ø±Ø¬
ĠØ¶ Ùħ
ĠØ§ÙĦØ® ÙħØ³
ĠØ® Ø§ÙĦÙĬØ©
ĠØ§ÙĦØª Ø²Ø§Ùħ
ĠØ¨ Ø§Ùħ
ĠØ°Ø§Øª Ùĩ
ÙĪØ¹ Ùĩ
Ø£ÙĨ Ùĩ
V M
98 45
ĠÙĪØ§ÙĦÙħ ÙĪØ§Ø¯
Ø° ÙĬØ±
ĠÙĤ ÙħØ©
ĠG M
Ø°Ùĩ ÙĦØ©
ĠØ¨ÙĬØ± ÙĪ
5 23
ĠØ¥ Ø«ÙĬÙĪØ¨ÙĬØ§
Ġh igh
ĠØ§ÙĦØ¥ Ø³Ø±Ø§Ø¦ÙĬÙĦÙĬØ©
ĠØ§ÙĦÙħÙĪØ§Ø· ÙĨ
ĠØ§ÙĦØ´Ø§Ø± Ø¹
ĠØ±ÙĪ Ø§ÙĬØ§Øª
ĠØ§ÙĦØ· Ùģ
ÙĪØ§Ø± Ø¦
Ùį ØĮ
ĠØŃ ÙĨ
ĠØ§ÙĦÙħ Ø¬Ø±
Ø¹ÙĦ Ø§ÙĤØ§Øª
ĠØ£Ø± Ø³ÙĦ
ĠR o
nØ£ Ø¹ÙĦÙĨ
ĠØ§ÙĦØªÙĤ Ø¯ÙĬÙħ
ĠØ§ÙĦØºØ° Ø§Ø¡
Ġt ime
ØªÙĬ Ùĥ
ĠÙħ ÙģØ§ØªÙĬØŃ
ĠØ´ Ø±ÙĬØ·
ÙħÙĥÙĨ Ùĥ
30 76
Â» \
ĠØ¨Ùĥ Ø±Ø©
ÙĤ ÙĪØ¯
Ø³ÙĬÙħ Ø§Øª
93 31
ĠØ§ÙĦØ« ÙĤØ©
ĠØ£ØŃ Ø¨
Ø§Ø¨Ùĩ Ø©
Ø§Ø³ Ùĥ
ĠØ³Ø§Ø¨ ÙĤØ§
ĠØ§ÙĦÙħÙĪ Ø³ÙĬÙĤÙī
ĠÙĪ Ø·Ø±ÙĤ
Øº ÙĦØ¨
n ÙĦÙĬ
ĠÙĤ Ø¯ÙĬÙħ
Ø§Øµ ÙĬØ±
Ø·ÙĦ ØŃØ§Øª
ĠØ§ÙĦØªØŃ ÙĪÙĬÙĦ
ĠØ§ÙĬ Ø·
ĠÙĪØªØŃ ÙħÙĬÙĦ
ĠØ¨Ùħ Ø¹
nØª Øª
ØŁ .
ÙĤØ¯ Ø§Ùħ
ĠÙħØµØ± ÙģÙĬ
ØªÙĨ Ø§Ùħ
ĠÙģ ÙĨÙĬØ©
h i
ĠÙħÙĨ Ø³
nÙħ Ø¯
Ġp er
vi ous
U X
ĠØ§ÙĦØµØŃØ± Ø§Ø¡
ĠÙħÙĦ Ø¹Ø¨
ĠØª ØªÙĬØŃ
ĠÙĩØ§ØªÙģ Ùĥ
ĠØªÙĪ Ø¸ÙĬÙģ
Ġ 99
ĠÙĤ ÙħÙĨØ§
Ø§Ø¯ÙĬ ÙħÙĬ
ĠØ§ÙĦØ£ ÙĪÙĦÙĬ
fa ce
ĠÙĪØ§ÙĦÙħ Ùĩ
ĠÙĪØ£ ÙģØ¶ÙĦ
30 36
ĠØ§ÙĦÙĪØ± ÙĤ
999 63
ÙĤÙĦ ÙĤ
ĠØ§ÙĦØŃ ÙĨ
Øµ ÙĬØ¨
8 25
44 0
ÙģÙĬØ± ÙĪØ³
ĠØ§ÙĦØªØ¹Ø¨ ÙĬØ±
ĠØ§ÙĦÙħØŃ Øª
ĠÙĬØª Ø¹
v en
ĠÙĨ Ø§ÙĬÙĥ
Z H
Ø¯Ø¯ Ø
Ø¯Ø¯Ø §
Ø§Ø· ÙĨÙĬÙĨ
ĠØ§ÙĦÙĪ Ø§ÙĤ
ĠØ§ÙĦØŃØ± ÙĬØ©
ĠØ« ÙĨØ§Ø¦ÙĬ
ĠÙĦÙħØŃ Ø·Ø©
ĠØªØ³ Ø¹Ùī
ĠØ§ÙĦÙĤÙĬ Ø§Ø³ÙĬØ©
ĠØ¨Ùħ ØµØ±
ĠÙĪÙĨ Ø¸Ø§Ùħ
ĠÙĦØ¥ÙĨ Ø´Ø§Ø¡
ĠØ²ÙĪØ¬ ÙĩØ§
ĠØ§ÙĦØªØ¹ÙĦÙĬ ÙĤ
ĠØªØ¯ Ù
ĠØªØ¯Ù Ħ
C AE
ĠØ§ÙĦØ£ Ø³ÙħØ§Ø¡
ĠØ¨ÙĨ ØºØ§ÙĦÙĪØ±
Ø¯ÙĬ Ùĥ
al og
ĠØ§ÙĦØ³ Ø¬Ø§Ø¯
ĠØªØ´ ÙĬ
Ø·Ø¨ÙĬ Ø¹Ø©
ØªÙģ Ø¸
ĠØ¢ ÙħÙĨØ©
ĠØ« ÙĤØ©
ÙĤØ± Ø¢ÙĨ
ĠÙĦÙĦ Ø¨Ø±
nØ¹ÙĨ Ø¯ÙħØ§
999 82
Z X
h ow
ĠØ§ÙĦÙħÙģ ØªÙĪØŃ
ĠØº Ø§ÙĬØ©
Ø§Ø¶ Ø±Ø©
V D
ÙĪÙħØ§ÙĨ Ø³ÙĬØ©
ĠÙĨ Ø§Ø±
J L
ĠÙĪØª ØµÙħÙĬÙħ
ĠØ§ÙĦØ³ ÙĬØ±Ø©
98 36
ĠÙĦÙĦØŃ ÙģØ§Ø¸
ĠØ¥ÙĦÙĥØªØ± ÙĪÙĨÙĬØ©
Ø§Ùĥ Ø¨
ĠØ§ÙĦØ· ÙĪÙĬÙĦ
E Y
912 8513
ĠØ§ÙĦÙģ Ø³Ø§Ø¯
66 5
89 1
ï» ¤
F FD
ĠÙĬ Ø¶ÙħÙĨ
Ø¯Ùħ Ø¬
Øª Øª
Û ŀ
ĠÙĨÙħ Ø·
ĠÙĦÙĦÙħ Ø³ØªØ®Ø¯Ùħ
ÙħØ§Ø± Ø³
p en
J D
ĠØ¨ÙĦ Ø¯Ø§ÙĨ
06 0
ĠØ§ÙĦÙĤ ÙĬÙħ
Ø§Ø¯ ÙĪØ±
ĠØ§Ø³ ÙħÙĩ
ĠØ§ÙĦØ¬ ÙĬØ²
Ø¸ Ø§Øª
ĠA ug
ĠØ¥Ø³Ùħ Ø§Ø¹ÙĬÙĦ
ĠÙĩ Ø§ÙħØ©
ĠØ£ ÙģØ±
Ø§ÙĬØ¯ ÙĨ
in fo
98 93
ĠÙħØ¬ ÙģÙģ
ĠÙĪÙĬÙħÙĥÙĨ Ùĥ
ĠØ£ ÙĦØ¨
â Ĩ
ĠS a
ĠÙħÙĤ Ø§Ø³
c r
o ve
I K
ĠØ§ÙĦÙģ Ø¬Ø±
Ø®Ùģ ÙĬÙģ
nÙĥ Ø´Ùģ
ĠÙħÙħ Ø«ÙĦ
ĠØ§ÙĦÙĨØ§ÙĤ ÙĦØ©
nØª Ùĩ
nT he
ĠÙĪØ³ ØŃÙĤ
ĠØ§ÙĦÙĪ Ø¸ÙĬÙģ
Q X
ĠØ§ÙĦØ¥ Ø¬Ø§Ø¨Ø©
08 9
ĠØ§ÙĦØµØ± Ø§Ø¹
997 31
ĠØ³ÙĦ Ø·Ø§ÙĨ
ĠÙĬØªÙħ ØªØ¹
ĠÙĤ ÙĩÙĪØ©
Øª ÙĤÙĦ
ĠØ§ÙĦÙħØµ Ø§Ø¯Ø±
Ø³Øª ÙĨ
2 95
ĠØ£ Ø´Ø§Ø±
U K
ĠÙħ Ø£
r ation
ĠØ³ÙĦ Ø·ÙĨØ©
n ØŃÙĬØ«
ĠØ§ÙĦØ³ÙĦ ÙĪÙĥ
lat ed
ØªÙħØ¯ ÙĨ
998 80
ĠÙĪØª Ø£
ĠØ¢ Ø±
P W
ĠØ§ÙĦØ¹ Ø§Ø¦
Ø§ÙĤ Ùĩ
c ript
J X
ret urn
999 43
ĠØ§ÙĦØ®Ø· Ø§Ø¨
% ØĮ
U F
ĠØ§ÙĦÙĦ Ø§Øª
ĠØªØª Ø·ÙĦØ¨
N M
ĠÙģÙĨ ØŃÙĨ
D AE
ĠØªÙģ Ø¹ÙĦ
ĠÙħÙĦ ØªÙĤÙī
ĠØ§ÙĦØªØŃ Ø¶ÙĬØ±
ĠØ£Ø¯ ÙĨÙī
ĠØ£ ÙĪØ¨
T L
nØª Øµ
ĠØº ÙĬ
ĠØ£Ø¨ÙĬ Ø¶
ĠØ³Øª Ø¬Ø¯
37 17
ĠØ¹Ø¨ Ø§Ø±Ø§Øª
Ø· Ø±ÙĬÙĤØ©
ĠØ§ÙĦÙħØŃ ØªÙħÙĦ
nÙħØµ Ø§Ø¯Ø±
ĠÙĦÙĦ ÙħØ¯
ĠÙħØ®Øµ ØµØ©
ĠÙħØª Ø§ØŃ
98 64
ĠÙĦÙĦØµØ¯ Ø£
ĠÙĦØª Ø·ÙĪÙĬØ±
Ġyear s
nØ§ÙĦ ÙĪ
ĠØ§Ø³Øª Ø¨Ø¯Ø§ÙĦ
Â» .
ĠÙĥ ÙĦÙĬ
Ø±ÙĪ Ø¨Ø§Øª
ĠØ§ÙĦØ¨ Ø³ÙĬØ·Ø©
b y
ĠØ¨Ø¹Ø¶ ÙĩÙħ
ĠÙĦÙħ Ø³Øª
ĠØªØ´ÙĬÙĨ Ø§ÙĬ
ĠÙĩ ÙĥØ°Ø§
ĠØ£Ø¨ Ø·Ø§ÙĦ
quir y
Ø²ÙĬ ÙħØ©
ÙĪÙĦÙĪØ¬ ÙĬØ©
ĠÙĪØª Ø³Øª
ÙĩØ§ Ø¬Ùħ
al y
ĠØ£ÙĦ ÙĪØ§ÙĨ
998 30
ÙħÙĬ Ùĩ
l us
ÙĬØ¯ Ø³
ĠØ³ Ø§Ø¦ÙĤ
ĠØ§ÙĦØ¨ ÙĤ
Ø§Ùģ Ù
ĠÙĪØ£ÙĨ ÙĪØ§Ø¹
ĠÙħÙĬØ² Ø§Øª
Ø§ÙģÙ Ħ
ĠØ¨ÙĦ Ø§ÙĬ
ĠÙĨØ§ÙĤ ÙĦØ©
Ġo ver
ĠØ§ÙĦÙħ ÙĥØªØ¨Ø©
ĠØ§ÙĦØ¯ Ùģ
ĠØªØ¹ Ø§ÙĪÙĨ
ĠÙħØ³Øª ÙĦØ²ÙħØ§Øª
ÙĩØ±Ø¨ Ø§Ø¡
Q S
44 9
ĠØŃØ± Ø§Ø¬
iv es
ĠØ§ÙĦØ³ Øª
b al
ÙĪÙĨ Ø¬
n ØªØ±ÙĥÙĬØ¨
ÙĪØ§Ùĥ Ùĩ
Ø±Ø¨ ÙĬÙĨ
ĠÙĪØ§ÙĦ Ø¬Ø±Ø§ÙĨÙĬØª
Ø¹Ùħ ÙĤ
I H
ĠÙħØ´ ØªØ±Ùĥ
ĠÙĬØ¹ ØªÙĤØ¯
Ø¬Ø² Ø±
in ess
ĠØ§ÙĦØ£ Ø¨Ø¹Ø§Ø¯
ĠØ§ÙĦØ¬Ø§Ùħ Ø¹ÙĬ
ĠØ§ÙĦÙħØª Ø®ØµØµ
Ø° Ø§Øª
ĠÙĤØ± Ø§Ø±Ø§Øª
ĠÙħØªÙĪ ÙģØ±
ĠC ontact
ĠØºØ±Ø¨ ÙĦØ©
/ \
ĠØ¬Ùħ ÙĦØ©
ĠÙĪØ¨ ÙĨØ§Ø¡
ÙĥØ³ Ø¨
ĠØ£ ÙĬÙĦÙĪÙĦ
ĠØ§ÙĦØ£Ø±Ø¶ ÙĬØ©
3 95
nØ£ Ùħ
ÙĬÙĨ Ø¬
ÙĤÙĦ Ø§Ø¨
ĠÙĬ Ø®Ø±Ø¬
ĠØ§ÙĦÙħØ¹ ØªÙħØ¯Ø©
ĠØªØ® ÙģÙĬØ¶
ĠØ§ÙĦØ§Ø¹ ÙħØ§ÙĦ
Ġs k
Ø§ÙĤ Ùħ
ĠÙĪØª Ø¨
ĠÙĬØ¬ Ø±ÙĬ
ĠØ£ Ø³ÙĦÙĪØ¨
ĠØ§ÙĦØ´ÙħØ§ÙĦ ÙĬ
ĠÙĬØ¯ ÙģØ¹
6 36
Ø§Ø± ÙĨ
ÙĦØ§ Ø¯ÙĬ
G W
ĠØµ Ø¹ÙĪØ¨Ø©
Ø§ÙĪ Ø§Øª
ĠÙĩ Ø´Ø§Ùħ
ĠØ£Ø³Ø§Ø³ Ø
ĠØ£Ø³Ø§Ø³Ø §
ĠØ¨Ø§ÙĦØ¬ Ø§ÙħØ¹Ø©
ĠC opyright
9997 674
Ø§Ø± ØªÙĥ
ĠØ´ Ø§ÙĥØ±
ĠØ¬ Ø³
ĠÙĦÙħÙĪ Ø§Ø¬ÙĩØ©
ĠØ¹Ø³ ÙĥØ±ÙĬØ©
ĠØ§ÙĦØ· Ø§Ø¦Ùģ
ĠØ§ÙĪ Øª
ÙĦÙħ Ø§ÙĨÙĬØ©
ĠØ§ÙĦØ£ Ø·
ĠÙĨØ¸Ø± ÙĬØ©
ĠØ§ÙĦØ§Ø³ ÙĩÙħ
Ø§ÙĦ Ø¨Ø©
ĠØ§ÙĦØªØ´ Ø±ÙĬ
ĠØ§ÙĦØ±ÙĪ Ø§ÙĬØ©
ĠÙĪØ¨Ø±ÙĥØ§Øª Ùĩ
ĠÙĥ ÙĪØª
ĠØ´ Ø¬Ø±Ø©
nÙħ Øª
ĠØµØŃ ÙģÙĬ
ĠÙħÙĪØ« ÙĪÙĤ
nÙĪÙĥ Ø§ÙĨ
Ġb all
ĠÙĥØ± ØªÙĪÙĨ
ĠÙģØ¹ Ø§ÙĦ
ĠÙĨÙĬÙĪØ² ÙĬÙĦ
Ø£ ÙģØ¶ÙĦ
ĠÙĪØ¹ ÙĨØ¯
ÙĪØ±ÙĬ ÙĪØ³
ĠØ§ÙĦØ¬ Ø¨ÙĦ
ĠØ³ Ø§ØŃØ©
ĠØ§Ø´ ØªØ±ÙĬ
V L
3 30
ĠØª ÙĤØ¯ÙĬØ±
ĠØ§ÙĦØ¶ Ø±ÙĪØ±ÙĬ
Z K
Ġs o
a ir
Ø¬ Ùī
ĠØ§ÙĦÙħÙĤØ± Ø±
ĠÙĪØ§ÙĦ Ø§Ø®
ĠØ¹Ø§ÙĦÙħÙĬ Ø
ĠØ¹Ø§ÙĦÙħÙĬØ §
ĠØ§ÙĦØ¯ ÙĦÙĬÙĦ
ĠÙĪØ¬ Ø¹ÙĦ
ĠØ§ÙĦØ®Øµ Ùħ
Ø§Ùĥ ÙĩØ©
Øµ Ø±Ø©
ĠØ§ÙĦØ£ ÙħÙĦ
ÙĪØ± Ø§ÙĤ
ĠØ§ÙĦØŃØ¯ Ø§Ø¦ÙĤ
ĠÙĦÙĦÙħ Ø¨ØªØ¯
ĠØ§ÙĦØ¥Ø¹ÙĦØ§Ùħ ÙĬ
ĠØ§ÙĦ Ø§Ø²
46 0
ĠØ¨ÙĤ ÙĦÙħ
ight s
2 86
ĠÙĦÙħØ³ Ø§Ø¹Ø¯
99 09
ĠØ£ ÙĤØ±
Ø±Ø¨ ÙĪÙĦ
am es
ĠØ§ÙĦÙĨÙĤ Ø§Ø·
ĠØ§ÙĦØ®Ø§Ùħ Ø§Øª
n ÙĦÙĥÙĨ
ĠØ§ÙĦÙĤØµ Øµ
Ø¦ ÙĪÙĬØ©
ĠÙħÙĨ Øº
Q D
ĠØ§ÙĦØ´ Ø±ÙĬØ¹Ø©
ĠØ§ÙĦÙĪ Ø§Øª
J H
ĠTh is
98 55
ĠØª ÙĤØ¯
Ġa p
ĠØ§ÙĦØ¥ ØµÙĦØ§ØŃ
18 0
Ġd is
ĠÙĬÙĥ ÙģÙĬ
ĠØª ÙĪÙĤØ¹
ĠØ§ÙĦ ÙĪØ¹ÙĬ
Ġ1 80
Ùĥ Ø¨Ø±
998 677
Ø´ Ùĩ
ĠØ£ ÙħÙĪØ§ÙĦ
Ġ} );
ĠØ£Ø³ Ø§Ø¨ÙĬØ¹
sh ow
ÙĩØ± Ø³
ĠØ§ÙĦØ¹ Ø·
83 87
ĠP lay
ĠØ§ÙĦØµ ÙĪÙħ
ÙĬØ§ Ø·ÙĬ
ĠÙĦÙĨ ÙģØ³
ĠÙħÙĩ ÙĨØ¯Ø³
ĠÙĦÙĦ Ø¨ØŃØ«
8 876
ĠÙĬ Ø¹Ø±Ø¶
ÙĬ ØªÙĩ
al m
ĠØªØµ ÙģØŃ
ĠØªØªØ± Ø§ÙĪØŃ
ĠØ§ÙĦÙħØ¨ Ø§ÙĨÙĬ
ĠÙħ ÙĪÙĦØ¯
ĠâĢ ĭ
ĠØª ÙĪÙĬ
Ġf ree
ĠØ´ Ø¦
ĠÙĪØªÙĪ ÙģÙĬØ±
87 87
ĠÙħØ± Øª
Ø¯ Ù
ĠÙĬ Ø·ÙĦØ¨
ĠInd ust
ĠÙĩ Ø§Ø±
57 2
ĠØ¨Ø§ÙĦ Ø¶ØºØ·
ĠØ® ÙĦØ§Ø·
ĠØ§ÙĦØ´ÙĩØ± ÙĬØ©
Ø¯Ù Ħ
997 95
ĠØ§Ø® ØªÙĦØ§Ùģ
ĠØŃ Ø¯ÙĬÙĤØ©
Q H
ĠØ§ÙĦÙĪ Ø§Ø±Ø¯Ø©
Ø§Ø² ÙĨØ©
ĠØ¨ Ø¯ÙĬ
Ø§Ø¶ Ù
Ø§Ø¶Ù Ħ
ĠØŃÙħ Ø§Ùħ
ĠØ§ÙĦÙĥ ÙĪÙĨØº
âĹ Ħ
ĠÙĪ Ø¨ÙĦ
Ħ ØºØ§Ø¡
Ù ĦØºØ§Ø¡
ĠØ§ÙĦØ£Ø³ ÙģÙĦØª
ĠØ§ÙĦÙħØ± Ø¶Ùī
ĠØ§ÙĦØŃ ÙĤÙĬÙĤÙĬØ©
ĠØ£Øµ Ø¯Ø±
ĠØªØ§ÙĬ ÙĪØ§ÙĨ
ĠÙĥØªØ§Ø¨ Ùĩ
ĠØ± Ø§Ø¦Ø¯Ø©
ĠÙĪØ§ÙĦ Ø§Ø¹
G D
ĠÙħØ¹Ø¯ ÙĨÙĬØ©
ĠØ§ÙĦØ¬ ÙĨÙĬÙĨ
Ġ es
ØªØ± ÙģÙĬÙĨ
94 0
ÙĬØ± ÙĪ
nÙħ Ø²
ĠÙĦ Ø¹ÙħÙĦÙĬØ©
ĠØ§ÙĦÙĪ ØŃÙĬ
ĠØ§ÙĦÙħØª Ø¹
9 29
ĠÙĥØ§Ø±ÙĬ ÙĬØ±
Ø¸ ÙĩØ§Ø±
en ce
V W
c he
997 36
ĠØ¨Ø§ÙĦØ¨ Ø´Ø±Ø©
Ø§Ø¶ Ø©
U C
ĠØ§ÙĦÙħ Ø¹Ø±Ø¶
ĠØ§ÙĦÙģ ØªØŃ
ĠØªØ¨ Ø§Ø¯ÙĦ
997 77
ĠØ´ Ø§Ø¨
Ø® Ø§Ø¡
ĠØ§ÙĦØ¯ Ø®ÙĦ
Ø±ØŃ ÙħÙĨ
ØªØ± Ø§Ùħ
ĠØŃ Ø§ÙħÙĦ
ĠØ§ÙĦØ¯Ùħ ÙĪÙĬØ©
B N
ĠÙĬ ÙħÙĨØŃ
ĠØ³ÙĬ Ø¯ÙĬ
ØªÙħ ÙĦØ©
ĠW hatsapp
ĠÙĪØ¥ ÙĦÙī
Ġ3 9
Ġ \\
997 46
ĠØ§ÙĦØ· Ø§Ø¦Ø±Ø©
rad e
Ø¹Ø§Ø± Ùģ
ĠØ¨Ø® Ø§Ø±
ĠØ§Ø¨ ØŃØ«
ĠÙģ Ø§Ø¹
ĠØ§Ø³ ØªØ±Ø§ØªÙĬØ¬ÙĬØ§Øª
nÙĨ ÙĪØ¹
Ø³Ø¨ Øª
Ø§Ùģ Ø³
ĠØ±Ø³Ùħ ÙĬØ©
ĠØ§ÙĦÙħØ´ Ø§ÙĩØ¯Ø§Øª
Ø§Ø¹ Ùī
âĢ ª
S O
le ment
ĠÙĥÙĬØ± Ø§ÙĦØ§
ĠÙĦÙĦØ§Ø³Øª Ø«ÙħØ§Ø±
9984 343
AE D
U H
nÙĪØ£ ÙĥØ¯
ĠÙħØŃØ¯ ÙĪØ¯Ø©
B P
Ø´ ÙĬØ©
99 998
ĠØª Ø¨Ø¹
ĠØ± ÙĪÙĨ
ĠØ§ÙĦÙĤ Ø¯Ø±Ø§Øª
Ø³ Ø§ÙĦØ§Øª
Ø¨Ø§Øª Ø§Øª
ĠØ§ÙĦØ´ Ø§ÙĬ
997 86
ator s
ĠØ« ÙĪØ±Ø©
J N
ĠÙħ Ø¨ÙĬØ¹
ĠØŃ ÙĤÙĬÙĤÙĬ
ĠÙĪØ¹ Ø§Ø¡
ĠØ· ÙĦØ§Ø¡
ĠÙĬ ÙħÙĨØ¹
Øª ÙĩØ±
n ÙħÙĬ
2 97
Ø¦ Ù
Ø¦Ù Ħ
Ùģ ÙĤØ¯
ĠØ¨ÙĪØ± ØµØ©
ĠØ£Ø³ Ø§Ø³ÙĬØ©
G X
n ØºÙĬØ±
Ø¹Ø¯ Ø§Ùħ
Ø§Ø· ÙħØ©
ÛĮ Ø¯
I A
ÙĬ ÙĦØ©
ÙħÙĨØª Ø®Ø¨
ĠØ¨Ø§ÙĦ ØªØŃ
ĠØ§ÙĦØª Ø·ÙĪÙĬØ±
D AB
ĠØ«ÙĦ Ø§Ø¬Ø§Øª
ĠØ§ÙĦØªØ¹ Ø±ÙĬÙģ
ĠØ®Ø· Ø§Ø¨
ĠÙĪØ£ÙĨ Ùĩ
95 37
ĠØ²ÙĪØ¬ ØªÙĩ
ĠÙĪØ¥ Ø¹Ø§Ø¯Ø©
ĠÙĪÙĥ Ø°Ø§
Ø§Ùħ Ø¹Ø§Øª
Ø§Ø¨ ÙĦØ§Øª
ĠØ§ÙĦÙĤ Ø§ÙĨÙĪÙĨÙĬ
ĠØ¬ Ø¯Ø±Ø§ÙĨ
ĠØ§ÙĦÙħÙĨØ² ÙĦÙĬ
ĠØ¬ Ø°
30 24
ĠÙĪØ¹ÙĨ Ø¯ÙħØ§
ĠÙħØ³ Ø§ØŃ
Ø¨Ø§ØŃ Ø«
ĠØ§ÙĦØ¥ÙĤ Ø§ÙħØ©
ĠØ§ÙĦÙħØ± ØªØ¨Ø·Ø©
87 0
ĠÙĬ ÙģØ¶ÙĦ
ĠØ§ÙĦØ² ÙĪØ§Ø±
ĠØ§Ø± Ø¶
ĠØª Ø§Ø¬
999 10
ĠØ§Ø³Øª Ø¹Ø¯Ø§Ø¯
ĠA c
7 34
98 07
ĠØ£Ø¹ÙĦ Ø§Ùĩ
ĠÙĪØµÙģ Ø§Øª
ĠÙĦÙħ Ø´Ø±ÙĪØ¹
id th
ĠØ± ÙĪÙħ
Ø§Ùħ Ø±Ø©
l ick
996 1
ĠÙĦÙĨ Ø¸Ø§Ùħ
Ø§ÙĨÙĬ Ùĩ
ĠG roup
i y
ĠØ¨ÙĨ Ø´Ø±
ÙĬ Ø¯ÙĬ
ÙĪØ¯ Ø¹
n learn
ĠØ§Ø´ ØªØ±Ø§Ùĥ
ĠØ¨ØŃ Ø¬Ùħ
Q N
ĠØ¨ Ø§Ø±Ø¯
ĠØ§ÙĦØŃ Ø¯Ø«
ÙĨØªÙĬ Ø¬Ø©
ÙĨØª Ø¬
à ¹
Ø´ ÙĥØ§ÙĦ
ĠØ§ÙĦÙħØ³ Ø§ØŃØ©
et y
ĠØª Ø¨Ø¯ÙĪ
ĠØ£ÙĨ Ø´Ø·Ø©
ĠØ´ Ø§Ùĩ
ĠØ§ÙĦØª Ø¬ÙħØ¹
G L
T X
ĠÙģØ± Ø²
84 0
ÙĥØ± Ø§Øª
ĠÙĤØ§Ø¦ ÙĦØ§
Ø¨Ø³ Ø§Ø·Ø©
ou nt
ĠØ§Ùħ Ø
ĠØ§ÙħØ §
Øª ÙĥÙħ
ĠØ§ÙĦØ± ÙĪÙħ
ĠØ§ÙĦÙĥ Ø±ÙĬ
933 98535
997 06
ĠØ§ÙĦÙħ ÙĥØª
V Y
ÙĪ Ø§Ø³
Ø¨ Ø§Ø·
re am
ĠØ¨Ø§ÙĦ Ø§Ø³Øª
Ø²Ø¨ Ø§Ø¡
ĠØ¬ÙĪ Ø§Ø²
Ø§Øµ ÙĬ
t v
ĠØ¨Ø¹Ø¯ Ùħ
ĠØ§ÙĦØ¬ Ø§ÙĨ
al th
ÙĬ ÙĬ
ĠØª Ø¶Ø¹
nÙĦ ÙĪ
ĠÙħØ¬ Ø§ÙĨ
ĠÙħØ³ Ø¤
ĠÙĬÙĤ Ø§ÙĦ
ĠØ§ÙĦÙħØ¹ ÙĦÙħ
ĠØ± ÙĪØ§Ø¨Ø·
Ø§ÙĦØŃ Ø¬Ø±
ĠØ§ÙĦØ§ÙĨ Ø³
997 17
05 0
Ø§Ø¨ ÙĬØ±
ĠÙħÙĪ Ø¶Ø¹
ĠØ§ÙĦØ¹ÙĤ Ø§Ø±Ø§Øª
c ed
Ø· ÙĬÙģ
ĠÙħ ÙĥÙĨ
ĠØ® ÙĦÙĬÙĦ
ĠÙħØ¯ÙĬÙĨ ÙĢÙĢÙĢÙĢØ©
99764 466
ØªØ±Ùĥ ÙĬØ§
ĠØ¨Ùħ Ø¹ÙĨÙī
rec t
ĠÙħØ¹Ø¯ ÙĦØ§Øª
Ø§Ø¤ Ùĩ
ĠØ§ÙĦØµ ÙĪØªÙĬ
ĠÙĪ Ø²ÙĬØ§Ø¯Ø©
999 19
ĠØµ Ø§ØŃ
ĠØ¬ Ø§Ø¨Ø±
nÙĥ ÙĦÙħØ©
ĠØŃÙĤ ÙĨ
ĠØªØ¯ ÙĪØ±
995 1
nÙĨ ÙĤÙĦ
98 35
ĠØªØµ Ø±ÙĬØŃØ§Øª
ĠÙĬ Ø¹ÙĦÙĨ
8 23
ĠØ³ ÙĪÙĬØ³Ø±Ø§
ik ip
ĠØªØ¬ ÙĨØ¨
ĠÙĪ Ø¹Ø¯
ĠØ³ ØªÙĪ
ĠØ§ÙĦÙħØ· Ø§Ø¹Ùħ
J F
ul ar
ĠØ§ÙĦØ³Ø± Ø·Ø§ÙĨ
ag s
ĠØ§ÙĦØªØŃ Ø¯ÙĬØ«
Ø£ Ø«Ø±
ĠØ§ÙĦÙħÙĥØ± ÙħØ©
lat ion
ĠØ³ ØªØ±
ĠØ§ÙĦØ§ÙĦ ØªØ²Ø§Ùħ
999 89
Ġ75 0
S L
nØ£ Ø±Ø³ÙĦ
ĠØ§ÙĦØ£ ÙĩØ¯Ø§Ùģ
ĠØ§ÙĦØ³ ØŃÙĤ
ĠØ¨Ø§ÙĦ ÙħØ±
ĠØ§ÙĦÙģ Ø¦Ø§Øª
ĠØ§ÙĦÙĦ ÙĪØ§Ø¡
Ø§Ø¶ ØŃ
ØºØ§ÙĨ Ø³ØªØ§ÙĨ
ĠØ§ÙĦØ® Ø¨Ø²
Ø§ÙĦ ÙĦÙĩ
ĠØ§ÙĦÙħ Ø¨ÙĦØº
Ø« ÙĬÙĤ
95 830
Ø² Ø§ÙĨ
ĠØ§ÙĦÙĥ ÙĨÙĬØ³Ø©
997 55
ĠØ¯ÙĬ ÙĪØ§ÙĨ
ĠØ§ÙĦÙħØ´ ÙĥÙĦØ§Øª
nØ¥ Ø¹Ø¬Ø§Ø¨
ĠØ± Ø¬Ø¨
ĠØ¢ ÙĬØ©
ĠJ ul
ĠØ£Ø« Ø§Ø«
ĠØ§ÙĦÙħØ¨ Ø§Ø±ÙĬØ§Øª
ĠØª ÙĪÙĤÙĬØ¹
Ø§ÙĬ Ùĩ
Ø¬ ÙĪØ¡
ĠØ§ÙĦØ¨ÙĬ Ø¦ÙĬØ©
ÙĥØ± Ùĩ
Ø§Ø´ ØªØ±Ø§Ùĥ
ĠO r
l u
f ter
ĠÙĪ Ø±Ø¨ÙħØ§
ĠØ§ÙĦØ¨ ØªØ±ÙĪÙĦ
8 07
ĠØ³ÙĨ ÙĪÙĬØ§
ĠØ¨Ø§ÙĦ Ø°ÙĥØ±
ĠØ§ÙĦ ÙĩÙħ
Ġ$ (
ĠØ§ÙĦØ· ÙĬÙĪØ±
ĠØ¨Øª ÙĤ
ĠØ§ÙĦÙĤ ÙĨ
95 21
ĠØªØ£ ÙĥÙĬØ¯
ĠØ¸ Ø§ÙĩØ±Ø©
Ø´Ø± ÙĤ
ĠØªÙĥØ³ Ø§Ø³
co l
ĠS e
ĠØ§ÙĦØª ÙĤÙĬÙĬÙħ
ĠØ§ÙĦÙĩ ÙĪÙĬØ©
5 27
Ø²ÙĬ Ø²ÙĬ
ĠØµ ÙĬÙĨÙĬØ©
ĠØ§ÙĦ Ø§Ø¦ØªÙħ
ĠØ§ÙĦÙģÙĨ Ø§Ø¯ÙĤ
ÙĪØ· ÙĨ
ĠØ§ÙĦÙĪØ§ØŃ Ø¯Ø©
ĠØ§ÙĦØª Ø¬Ø±Ø¨Ø©
ĠÙ¢Ùł Ù¡
ĠØ§ÙĦØ¢ ÙĬØ§Øª
ĠØ§ÙĦÙħØªÙĪ ÙģØ±Ø©
ĠØª Ø¹Ø±
Ø¯Ø± Ø¬
70 36
n ÙħÙĨØªØ¬Ø§Øª
7 47
ĠØ§ÙĦÙĥ Ùģ
ĠÙĬÙĪ Ø§Ø¬Ùĩ
ĠÙģ ÙĩØ¯
ĠØ³ Ø¨ÙĦ
ØªÙħ Ø±Ø§Øª
ĠØ§ÙĦÙħÙĨ Ø®ÙģØ¶
nØª Ø·Ø¨ÙĬÙĤ
ĠÙĦÙĦÙħØ¨ØªØ¯ Ø¦ÙĬÙĨ
ĠÙĪÙĨ ÙĤÙĦ
ĠØ§ÙĦØªØ±Ùĥ ÙĬØ¨
Ø¬Ùħ Ø¹Ø©
Ġ ãĢ
Û© Ûŀ
ĠØ³Ø¨ Ø§ØŃØ©
ĠÙĬ Ø°ÙĥØ±
ĠØ§ÙĦØ¹ Ø§Ø´Ø±
Ø¨ÙĬ Ø³
ĠØ§ÙĦÙĥ ÙĪØ¨
ĠØ£Ø± Ø§Ø¯
ikip edia
== =
Ø¬Ø¯ Ø§Øª
ĠÙħØ® ØªØµ
ĠØ§ÙĦÙħÙĨ ÙĩØ¬
Ġdes ign
ĠØ¹ ÙĪØ¯
ĠØªØµ Ø§ÙħÙĬÙħ
ĠØ§ÙĦÙĬ ÙĪØªÙĬÙĪØ¨
ĠÙĪØ§ÙĦØª Ùģ
n ØªÙĪØ§ØµÙĦ
ĠØ§ÙĦØ·ÙĦ Ø¨Ø©
Ġâ Ļ
ĠØ§ÙĦØ´ Ø§ÙħÙĦØ©
ØŃ Ø³ÙĨ
ĠØ¥ Øª
ĠÙĬØŃ Ø§ÙĪÙĦ
ĠØ§ÙĦÙĨ Ø§Ø¦Ø¨
ĠÙĦÙħÙĨ Ø¹
ĠØŃØ± Øµ
ØªÙĬ Ø§Ø²
Ġg o
ĠÙħØª ÙħÙĬØ²
45 2
ØªÙĤ Ø¯Ùħ
98 44
Ġm achinery
ĠØ§ÙĦØ´ Ø¤ÙĪÙĨ
ĠØ§ÙĦØ´ Ø¯ÙĬØ¯
Ġ 47
ĠØ£Ùĥ Ø§Ø¯ÙĬÙħÙĬØ©
ar s
ĠØ§ÙĦØªØ£ ÙĥØ¯
ĠØ§ÙĦÙģ ÙĦÙģÙĦ
4 31
ĠØ§ÙĦØ´ Ø§Ø¨
nØ§ÙĦÙħ ÙĤ
Ø¸ÙĬ ÙħØ©
ĠØ§ÙĦØ£Ø² Ø±ÙĤ
en er
ĠÙĬÙĥ ØªØ¨
997 35
ĠØ§ÙĦØ¯ ÙĬÙĨÙĬ
ÙĦÙĬ ÙĪ
ĠÙħ ÙĤÙĦ
U P
ĠÙĥ ÙħÙĬØ§Øª
3 22
97 00
ÙĪÙĦ ÙĬØ§
ĠÙĦÙĦ ÙĤÙĬØ§Ùħ
ĠÙħÙĤ Ø¯Ùħ
ĠÙĪ Ø±ÙĪ
ĠØ§ÙĦØ¨ Ùĩ
ĠØ§ÙĦØ³ Ø¬
ĠØ§ÙĦÙħÙĩ Ø§Ùħ
Ùģ ÙĥØ§Ø±
Ø¬Ùĩ ÙĪØ¯
Ø±Ø¬ ÙĪ
ĠØ§ÙĨ ØªÙĤ
996 47
Ø´Ø± Ø·Ø©
Ġ 95
7 987
ĠØ§ÙĦÙħ Ø´Ø§Ø±Ùĥ
ĠÙħØ¤ Ø³Ø³Ø§Øª
Ġ 74
ĠØ§Øº Ø§ÙĨÙĬ
ĠÙħ Ø±ÙĬÙħ
ĠÙĩÙĪ Ø§Ø¯Ø©
ĠÙĪØª ÙĥÙĪÙĨ
ĠØ§ÙĦÙħÙĪ Ø²
ÙĨÙĬ ÙĩØ§
ĠÙĥ ÙĦÙħ
ĠØ® ÙģÙĬÙģØ©
ĠØ§Ø± Ø®Øµ
ĠØ§ÙĦØ³ ÙĦØ³ÙĦØ©
Ùİ :
us iness
nØ§Ø± Ø³ÙĦ
ĠÙĪ ØµØŃ
Ø§ÙĪ Ùģ
n i
ĠÙĨØ³ Ø§Ø¡
ĠØªÙĤ Ø³ÙĬÙħ
ĠØ§ÙĦØª ÙĪÙĨØ³ÙĬ
371 98
J K
ĠÙĪ ÙĥÙħ
ĠØ§ÙĬ ÙĨ
ĠØ¬ Ø¹ÙģØ±
( [
Ø·ÙĦÙĤ Øª
ĠØ§ÙĦÙħ ØªÙħØ¯ÙĨ
ĠÙĦÙĦØ¨ Ø´Ø±Ø©
ÙĢ Ù
ĠØ§ÙĦÙĩÙĨØ¯ Ø³ÙĬØ©
Ø§ÙĦ Ø·
ĠØ§ÙĦØŃ Ø¬Ø±ÙĬ
ĠØ®ÙĦ Ø§Ùģ
Ħ Ø§ÙĨØ¯
Ù ĦØ§ÙĨØ¯
ØªÙģ Ø¹Ø©
Ø³ÙĬÙĤ ÙĬØ©
ĠØ² Ø§ÙĪÙĬØ©
ÙĢÙ Ħ
et t
S M
ĠÙĦÙĦ Ø´Ø±ÙĥØ©
ĠÙħØ§Ùĥ ÙĨØ§Øª
ĠØ³ÙĦ Ø·Ø©
ĠÙħÙĨ Øµ
ĠØ§ÙĦØªÙĪ Ø§ÙĦÙĬ
ĠØ§ÙĦÙħØªØ¯ Ø§ÙĪÙĦ
E K
ĠØ§ÙĦØ¯ ÙĪØ§Ø¡
ĠØ§ÙĦØ£ÙĤ Ø³Ø§Ùħ
ĠÙĨ ÙĥÙĪÙĨ
Û©Ûŀ Û©
997 00
iz ed
Ġ$ ('
f er
nØ§ÙĦ Ø±Ø¯ÙĪØ¯
ĠØ§ÙĦØªØ¯ ÙĪÙĬØ±
ĠØ§ÙĦØªØ¹Ø¨ Ø¦Ø©
ĠØŃ Ø¸Ø±
d i
ĠØŃ ÙĪØ§Ø±
ĠÙ ±
ÙĦÙĥ Ùħ
ÙĦÙħ Ø³
ĠIn stagram
45 8
ĠØ§ÙĦÙħØ³Øª Ø´ÙģÙī
ĠØŃ ÙĤÙĬØ¨Ø©
ĠØ§Ø¹ Ø±Ùģ
ĠØªÙĤ Ø±ÙĬØ¨
ĠØ³ Ø§Ùĥ
ĠÙħØ® ØµØµ
\" )
95830 33
nØŃ Ø³Ø§Ø¨
4 30
ĠØ§ÙĦØªØŃ ØªÙĬØ©
st ru
ĠØ¥ Ø¯Ø±
ĠØ§ÙĦÙħ ÙĪÙĤÙģ
nÙħÙĨ ÙĪØ¹Ø§Øª
ĠØ¨ÙħØŃ Ø§ÙģØ¸Ø©
Ø¬ÙĦ ØªØ±Ø§
ĠØ¥ ÙĨØª
ĠØ§ÙĦÙħØ± Ø§ØŃÙĦ
ĠØ´ Ø¯ÙĬØ¯Ø©
ĠÙģÙĬ Ùĥ
8 11
Ø§Ø¯ÙĬ Ø´
ĠÙħÙĪ Ø¸Ùģ
ĠÙĬØª Ø¹Ø±Ø¶
ĠÙĦÙĥ Ø§ÙģØ©
ĠØ§ÙĦØŃÙĤ ÙĪÙĦ
ĠÙĦÙĦÙĨ Ø´Ø±
999 40
Ø§ÙĬ ØªÙĩ
70 14
Ġ 56
ĠÙĦÙĦ ÙħØ¤
ĠÙħØ« Ø§ÙĦ
ĠÙħØ´ ÙĬØ±Ø§
Ø§Ø¨ ÙĪØ±Ø©
w ord
ĠØ§ÙĦÙħ Ø®ØµØµØ©
84 37198
ĠÙĪØªØ¹ Ø§ÙĦÙī
Ø¯ÙĬ ÙĥÙĪØ±
ĠØ¨Ø§ÙĦ Ùĩ
ÙĤØ¯ Ø§Ø±
ĠØ¨ ÙħØ±ÙĥØ²
ĠÙĪØªØŃ ÙĤÙĬÙĤ
nØ§ÙĦ Ø®Ø¯ÙħØ©
ĠØºØ§ÙĦ Ø¨Ø§
ĠØ¬Ø¯ Ùĩ
y d
ĠØŃÙĬ ÙĪØ§ÙĨØ§Øª
ĠØ£ Ø¹Ø¯
ĠØ¹ÙĬ ÙĪØ¨
7 98
65 9
ĠÙħØ¨ Ø§Ø¯Ø¦
ĠØ¥ÙĨ Ø¬Ø§Ø²
ĠØ§ÙĦØ¥ÙĨØªØ§Ø¬ ÙĬØ©
ĠÙĥÙĦ ÙĬÙĨ
Ø±Ø¯ ÙĨ
o ff
ĠØ¨Ø§ÙĦ Ø§Ø¶Ø§ÙģØ©
ĠÙħØ¹ Ø§ÙĦØ¬
ĠØ§ÙĦØ· Ø±
ĠØ§ÙĦØªØ± ÙģÙĬÙĩ
ĠÙĪØ§ÙĦØµ ØŃØ©
ĠØ´ Ø¯
ĠØ§ÙĦØ¹ Ø´Ø±ÙĬÙĨ
ÙģÙĬ Ø²
ĠÙħ ÙĪÙħ
ĠÙĪØ§ÙĦØŃ Ø¬Ø±
k h
u y
z e
ĠÙĪ Ø®Ø§Ùħ
ĠØ§ÙĦØ¯Ø¹ ÙĪØ©
ØªÙĥ Ø±Ø©
C AD
n WhatsApp
ĠØ¬ ÙĦÙĬ
ĠÙĪØ§ÙĦ ØªØµ
ĠÙĦÙħ Ø¹Ø¯Ø§Øª
ĠØŃÙģ Ø±Ø©
Ġgrind ing
ĠØ§Ø³ ÙĦØ§Ùħ
ÙĨ Ø¹
ĠØ´Ø± Ø·Ø©
ĠØ³ ÙĪØ¡
ĠØªØ§Ø±ÙĬØ® ÙĬØ©
Ø³ ØŃÙĤ
Ø±ÙĤ Ø§Ø¡
u ng
997 37
ĠÙħØ²Ø¯ ÙĪØ¬
ĠØª ÙĪØ¬Ùĩ
pla y
ĠØ§ÙĦØ° ÙĥØ§Ø¡
Ø§ÙĦ ØªØ±
ĠÙĪØ¢ Ø®Ø±
ĠØ§ÙĦØ¬Ø²Ø§Ø¦Ø± ÙĬØ©
Ġg t
ĠÙĪÙħ ØµÙĨØ¹
ĠØ´ ÙĥØ±Ø§
ĠØ¯ Ù
ĠØ§ÙĦØ± Ø¶
ĠØ¨Ùħ ÙĥØ©
ĠØ§ÙĦØ£ÙĪÙĥØ± Ø§ÙĨÙĬØ©
Ø« Ùī
ĠØ§Ø® ØªØ¨Ø§Ø±Ø§Øª
ĠØ¨ Ø²
46 2
ÙĪ Ø§Ø·Ø±
nØ§ÙĦ ÙģØ±ÙĤ
ĠØ§ÙĦÙĨ ØªÙĬØ¬Ø©
Ùİ ØĮ
ĠÙħØª ØµÙģØŃ
ĠÙħØ³ Ø¦
ĠØ§ÙĦÙĤ ÙĪØ§Ø¹Ø¯
ĠØ§ÙĦØ¬ÙĬ Ø²Ø©
ÙĢÙĢ Ø©
0 31
ĠØ³ Ø¬Ø§Ø¯
998 61
ĠØ§ÙĦØ«Ø§Ø¨Øª Ø©
999 33
ĠÙĥ ÙĨØ§
d o
ØªÙĪ Ø³Ø·Ø©
ĠØªØ¯ Ø¹Ùħ
ĠØ¹ Ø§Ø¯ÙĬ
ĠØª Ø´Ø§Ø±Ùĥ
ĠØ§ÙĦØ³ÙĦ Ø·Ø§ÙĨ
Ùģ Ø·
ÙĪÙĤ Ø¹Ø©
ĠØ§ÙĦØ¥ÙĬØ± Ø§ÙĨÙĬØ©
ÙĢ Ø¨
ĠØ£Ø³ Ø·
ĠÙĪØ° Ø§Øª
ØµÙĦ Øª
ĠØ¯Ù Ħ
ĠÙĬØ¹ Ø§ÙĨÙĪÙĨ
ĠØ§ÙĦØª ÙĪØ§Ø¨
âĢ¦âĢ¦ âĢ¦âĢ¦
ĠÙģ Ø§Ø®Ø±Ø©
ĠØµÙĨ Ø§Ø¯ÙĦ
ĠØ§ÙĦØµ ÙĩÙĬ
Ø¬Ùĩ Ø©
ĠØ¹ÙĨ ÙĩÙħ
ĠØ³ Ø¯
Ø§ÙĪ Ø¶Ø§Øª
ĠØªØ®Øµ ÙĬØµ
ĠØ§ÙĦÙħØ¹Ø±ÙĪÙģ Ø©
ĠÙĤ Ø§Ø¯Ø±Ø©
ĠØ§ÙĦÙħØ® ÙĬÙħØ§Øª
ÙħØ¬ ÙĬØ§Øª
ĠØ¨ÙĨÙģØ³ Ùĥ
ĠØ§Ø¶ Ø§ÙģØ©
ers on
ĠÙħÙģ ÙĬØ¯
Ø§Ùģ ÙĦØ©
ĠØ§ÙĦÙĨÙĬ ÙĥÙĦ
Q K
ĠÙĤÙĦ ÙĪØ¨
ĠØ§ÙĦØ£ØŃ ÙĪØ§ÙĦ
all y
ĠØ§ÙĦØ¹ Ø¨Ø¯
ĠØ§ÙĦØªÙĬ Ø§Ø±
ĠØ§ÙĦÙħÙĪØ¶ÙĪØ¹ Ø§Øª
Ùĥ ÙĬÙģÙĬØ©
ĠÙĥÙĪÙĦÙĪÙħ Ø¨ÙĬØ§
nÙĥ ÙĦÙħØ§Øª
ĠØªØ® Ø±ÙĬØ¬
ĠÙĦ ÙĬÙħ
ĠØ§ÙĦØ¨ Ø«
ĠØ§ÙĦÙĪØ³ Ø§Ø¦ÙĦ
ĠÙĬØ´ ÙĥÙĦ
98 16
Ġ20 03
998677 43
ĠØ§ÙĦØ´ ÙĪ
ĠØ¨ ÙĦØ§Ø·
ĠØŃ Ø¸
ĠØ¢ ÙĬØ§Øª
ĠØ§ÙĦØ¥Ø³ ÙĥÙĨØ¯Ø±ÙĬØ©
Ø¸ ÙģÙĬ
l ed
ĠØ§ÙĦ ÙĩØ§Ø¯
ĠS o
ĠØ§ÙĦØªÙĪ Ø¸ÙĬÙģ
ĠÙĪØ§ÙĦ ØªÙħ
Øª Ø§Ø±Ø©
Ø¨ ÙĤ
Ø¹ ÙĪØ©
F R
ĠØº Ø¯Ø§
G K
ĠØ§ÙĦØ¬ Ø¯Ø±Ø§ÙĨ
ĠØ§ÙĦØ¥ÙĨ Ø¬ÙĦÙĬØ²ÙĬ
S tep
ĠØ§ÙĦØ¹ Ø«Ùħ
F L
ĠØ§ÙĦØ§Ø· ÙĦØ§Ø¹
ĠØ¬ Ø§Ø²
ĠÙĤ Ø¨Ø±
ĠÙĬØ£ Ø®Ø°
ÙĪ Ø§Ø±ÙĬØ®
997 56
Ø§ÙĦØ¯ ÙĪ
Øµ ÙĦÙĬ
8876 2015
ĠÙĪØ§ÙĦØª Ùī
ĠØ¬ ÙĪÙĦØ©
ĠÙħØªÙĪ ÙģØ±Ø©
nÙħ Ø´Ø§Ø±ÙĥØ©
1 88
ĠÙĦÙĦÙģ ØŃÙħ
ĠÙĥÙĬÙĦ ÙĪÙħ
m at
ĠØ§ÙĦÙħØ³ Ø¦
ĠØ§ÙĦÙĦ Ø§Ø¬Ø¦ÙĬÙĨ
ÙĦÙĥ ÙĬØ©
ĠØ§ÙĦØª ÙĪØµÙĬÙĦ
Ø¯Ø± Ø
Ø¯Ø±Ø §
ĠÙħÙĨØ¸ ÙĪÙħØ©
ĠØªÙĦ ÙĤÙĬ
ĠØªØ´ ÙĩØ¯
ĠØ§ÙĦÙħØ³ Ø±ØŃ
Ø¯ ÙĪÙĤ
ĠØ§ÙĦØ¥ Ø·Ø§Ø±
ÙĦÙħ Ø§ÙĨÙĬØ§
ĠÙĦØ£ ÙĥØ«Ø±
ĠØ§ÙĦÙģ ÙĤØ±
ĠÙĩÙĬÙĦ ÙģÙĬ
ĠÙĪØ§ÙĦØ£ ØŃ
ĠØªØ³Ø¹ ÙĬØ±Ø©
ĠØ§Ø³Øª Ø·Ø§Ø¹
V X
ØŃ Ø§ÙĨ
ĠÙĪØ§ÙĦØ¨ ÙĨØ§Ø¡
m b
, \
ĠØ³Øª ÙĪÙĨ
AA D
B R
ĠÙĪØ§ÙĦØª ÙĥÙĨÙĪÙĦÙĪØ¬ÙĬØ§
ĠØ¹ ÙĬÙĨØ©
ĠØ¢Ø®Ø± ÙĬÙĨ
ĠØ· Ø§Ø¦Ø±Ø©
ĠØ¹ÙħÙĦ Ø§Ø¦ÙĨØ§
7 31
Ø§Øª ÙĬÙĨ
i er
cess ary
ĠØ£ÙĤ Ø³Ø§Ùħ
Ġ1 10
997 21
ĠÙĩÙĬÙĦÙģÙĬ ØºØ±
ĠÙĩ Ø±Ùħ
44 8
ĠÙģ Ø§Ø³
ĠØ§ÙĦÙħØªØ· Ø§ÙĬØ±
9 19
ĠØ§ÙĦØ£ Ø°
ĠØªÙħ Ø§Ø±ÙĬÙĨ
ĠØ§ÙĦÙĥ ÙĦÙī
ĠS ervice
âĤ ª
98 89
0 93
ĠÙĨÙħ Ø´ÙĬ
43 87
Ø§Ø¬ ÙĦØ©
ĠØ§ÙĦÙħØ° ÙĥÙĪØ±Ø©
ØªØ±ÙĥÙĬ Ø²
Ø§Ø´ Ø
ĠØ§ÙĦØ§ØŃ ØªÙĬØ§Ø¬Ø§Øª
ĠØ§ÙĦØ¬Ùĩ Ø©
Ø§Ø´Ø §
ĠÙĬ Ø¬ÙħØ¹
T Y
98 34
ĠØ§ÙĦØ±Ø¯ ÙĪØ¯
ïº ®
ĠÙĤ ÙĪØ§ÙĦØ¨
ĠÙħÙĤ Ø§Ø·Ø¹Ø©
ĠØ§ÙĦØ³ Ø§ØŃ
ĠÙħØ¤ ÙĥØ¯
Ø± ÙĪÙĨ
ĠiP hone
ĠØ¶ ÙĬ
ĠÙ ¾
2 96
in s
ĠØ¨Ø§ÙĦØ´ Ø¹Ø±
ĠÙĪÙĩ ÙĨØ§
nÙħ Ø®Ø·Ø·
ĠØ§ÙĦØ§ÙĨ ØªÙĤØ§ÙĦ
997 15
ÙĪØº Ø§ÙĨ
ĠPE W
ĠØ±Ø¬ Ø§ÙĦÙĬØ©
n er
ĠØ§ÙĦØ£Ùĩ ÙĦÙĬØ©
E EB
nÙħ Ø§Ø°Ø§
2 94
ĠØ§ÙĦØª ÙĦÙĥ
ÙħØ¹ ÙĩØ¯
ĠØ£ÙĨ Ø¨Ø§Ø¡
âĹ ı
E P
Ø¸ Ùī
ĠÙĪ ÙĬÙģ
ĠØ§ÙĦØª ÙĪØ¬ÙĬÙĩ
ĠØ± Ø§Ø¦ØŃØ©
57 0
ĠØ¬ ÙĬÙĦ
ĠØ§ÙĦØ¨ ÙĪØª
ĠØ§ÙĦÙģØ± ØµØ©
ĠÙĬÙĪÙħ ÙĬÙĨ
ĠØ§ÙĦØª ÙĥÙĨÙĪÙĦÙĪØ¬
ÙĪÙĩ Ø§Øª
ĠØ§ÙĦÙħÙĩ ÙĨØ¯Ø³ÙĬÙĨ
S X
Ø¹ Ùĥ
r ic
ĠØ§ÙĦØ¥Ø¹ÙĦØ§Ùħ ÙĬØ©
+ \
ĠÙĦÙĬ ÙĥÙĪÙĨ
Ġm t
ĠØ¨ÙĦ Ø§Ø¯Ùĩ
ĠÙĨ Ø§Ø¹Ùħ
ck s
Ùħ Ø´
ĠÙģ Ø¶ÙĬ
Ø§Ø± ÙĬØ§
ĠØ² ÙĬÙĨÙĬØ«
ĠØ§ÙĦÙĩ Ø±Ùħ
w iki
Ø²Ø± Ø¹Ø©
ĠÙĨ Ø²ÙĦ
ĠØª Ø·ÙĦÙĤ
Øª ÙĨÙĬ
ĠÙĪ Ø¹Ùħ
C h
ĠØ§ÙĦØ· Ø§Ø¦Ø±Ø§Øª
98 11
ĠÙĬ Ø¶Ø¹
99 12
ØªØ¨ Ùĩ
k o
ØµÙĨØ¹ ÙĬÙĨ
ÙĦÙĬ ÙĦØ§Øª
il y
98 15
ĠØ§ÙĦÙħØ´Ø±ÙĪØ¹ Ø§Øª
ĠØ¯ÙĬ Ø²ÙĦ
ĠÙĨ Ø¹Ø±Ùģ
98 81
Ø±ÙĪ Ø¨Ø§
ĠØ§ÙĦÙħØ³Øª Ø¯Ø§ÙħØ©
ĠØ¨ÙĥÙĦ ÙĬØ©
ĠØ§ÙĦÙħØ± Ùģ
ĠØ§ÙĬ Ø§Ùħ
S H
Ø¨Ø§ÙĦ Ø¥ÙĨØ¬ÙĦÙĬØ²ÙĬØ©
F X
nØ§ÙĦÙħ Ø¹Ø¯Ø§Øª
ĠØ§ÙĦÙħÙĪ Ø§ÙģÙĤØ©
ĠÙĪØ£ ØµØ¨ØŃ
ĠØ¨ÙĪ Ø¶Ø¹
ĠÙĦ ØªÙħ
Ø§Ø¨ ÙĤØ§Øª
5 30
ĠØ§ÙĦØªØ¹ÙĦÙĬ ÙħÙĬ
997 27
Ø§Ø® Ø³ØªØ§ÙĨ
ĠÙħØ« Ø§ÙĦÙĬØ©
ØµÙĨ Ùģ
ĠÙĪÙĬØ¹ ØªØ¨Ø±
ĠØ£Ø¨Ø¯ Ø
ĠØ£Ø¨Ø¯Ø §
Ø§Ø® Ø¨Ø§Ø±
ĠØ³Ø¹ ÙĪØ¯ÙĬØ©
ØŃØ± ÙĬØ©
ĠØ® ÙģØ¶
ĠÙħØ³Øª ÙħØ±Ø©
ĠØ¹ ÙĬØ§Ø±
ĠÙģØ£ ÙĨØª
45 9
ĠØ§ÙĦØ´Ùĩ ÙĬØ¯
ĠÙħØ¤ Ø´Ø±Ø§Øª
97 66
ØŃ Ø§ÙĬØ§
ĠØŃ Øª
nØ¬ Ø§ÙħØ¹Ø©
ĠÙĦØªØŃ Ø¯ÙĬØ¯
Ġb row
ĠÙĦÙĦØª Ø¬Ø§Ø±Ø©
ĠØ¬ÙĩØ§Ø² Ùĥ
ĠÙĨ Ø§Ø´
98 26
ver y
ĠÙħØ§Ø± ÙĥØª
ĠØ§Ø³Øª Ø®ÙĦØ§Øµ
75 0
ĠØ¥ÙĬØ¬ Ø§Ø¯
ÙĪÙĨØ¯ Ø§ÙĬ
Ø¹ÙĦ Ø§ÙħØ©
76 3
Ùģ Ø¸Ø©
th e
nÙģ ÙĨ
Ø§ÙĬ Ø¯Ø©
ĠØ§ÙĦØŃ ÙĬØ©
ĠØµÙĬ ØºØ©
ĠØ£ Ø¹ÙĦÙħ
97 16
ĠÙĨ Ø±
Ġ Ø§ï»
ĠÙĪØ£ Ø®
ĠÙĪÙĦÙĬ Ø¯
Ġ ra
Ø§Ø¦ ÙĨØ§Øª
Â °
ÙĬØ§ Ø¯ÙĬ
Ùĥ ÙĬÙħ
ĠØª ØºØ·ÙĬØ©
ĠØ§ÙĦÙģØª Ø§Ø©
ĠØ¨Ø¹ÙĬØ¯ Ø
ĠØ¨Ø¹ÙĬØ¯Ø §
ĠØ§ÙĦÙĩÙĬ ÙĥÙĦ
ĠÙĩ ÙħØ§
Øª Ø¯ÙĬ
alk ing
99 03
ĠØ§ÙĦÙģÙĬØ³ Ø¨ÙĪÙĥ
ĠØ¨Ø§ÙĦ ØªÙĨ
ĠØ§ÙĦØ¬Ùĩ ÙĪØ¯
ĠÙĪØ¯ Ø¹Ùħ
96 925
n Ø³Øª
ĠØ´ ÙĨØª
ÙĪØ³ Ø¹
ĠØ¨Ø§ÙĦ Ø£Ø³
ĠÙĪØ£ ÙĨØª
ĠØ§Ø® Øª
ĠØ§ÙĦØ¯ÙĪØ± Ø§ÙĨ
ĠØ§ÙĦÙħØ² Ø¯
997 25
ĠØ§ÙĦÙĬØ¯ ÙĪÙĬØ©
ĠØ§ÙĦØ£ÙĨ Ø¸ÙħØ©
T N
ÙĬ Ø§Ø³
ir st
ĠØ¹ Ø§Ø¯
ØªØ± Ø§Ø¶
ĠØ§ÙĦØ´Ø± ÙĤÙĬ
ĠØ§ÙĦØªÙĨ ÙģÙĬØ°
94 35
ĠÙģÙĬ ÙĨ
ĠØ§ÙĦÙħØª Ø¹Ø¯Ø¯Ø©
97 56
ĠÙħ ÙĪØ±Ø¯ÙĬ
V H
ĠØ¨Ùħ Ø³Øª
ĠØ§ÙĦØ²ÙĪØ¬ ÙĬØ©
pl ete
ÙĪÙģ Øª
ĠØ§ÙĦØ¹Ø¯ Ø§ÙĦØ©
ĠÙĦ ÙĬØ¨
ĠØªØ£ Ø®Ø°
Ø¯ Ø®ÙĦ
Ħ Ø¯
ĠÙĪÙĤ Ø·Ø¹
98 30
Ù ĦØ¯
ĠØª ØªÙĪÙģØ±
ØµÙĨ Ø¯ÙĪÙĤ
ĠÙĩ ÙĨØ¯ÙĬ
nS hare
ĠØ¨ÙĪÙĦ ÙĨØ¯Ø§
Ø¶ Ø§Ø¦Ø¹
ÙĪØªÙĪ Ø´ÙĪØ¨
Øµ ÙĪØ¯
ĠØ§ÙĦÙħ Ø·Ø±
ĠØ·Ùģ ÙĦÙĥ
ØªØ² Ø§Ø²ÙĬ
Ø³ÙĦ Ø§Ùĥ
ĠØ§ÙĦØ£Ø±Ø¬ ÙĨØªÙĬÙĨ
ĠØ§ÙĦÙĨ ØµÙģ
ĠØ§ÙĦÙĤØ± Ø§ÙĨ
998 68
ĠØ§ÙĬ Ø±Ø§ÙĨ
ÙĤÙĬ Ø§Ø¯Ø©
ĠÙĪ Ø¬Ø¨
Ø§ÙĨÙĬ Ø§Øª
ĠÙĦ ÙĪØ³
ĠØ¯ ÙĪÙĦÙĬ
ur s
es in
> >
T P
ĠÙħÙĨ Ø¯
ĠØ¨ØªÙĪ ÙģÙĬØ±
Ø§ÙĦØ¥ Ø¶Ø§ÙģØ©
ĠH e
B W
nØ£ Ø¹ÙĦÙĨØª
ĠØ§ÙĦÙħØ¹ ÙĨÙĬØ©
ĠD ownload
ĠÙģ Ø±ÙĬØ¯Ø©
ĠØ§ÙĦÙħØ¬ ØªÙħØ¹Ø§Øª
ĠØ¯Ùĩ Ø§ÙĨØ§Øª
ĠØ³ÙĪØ³ Ùĩ
ĠØ§ÙĦØ¨ Ø§ÙĦØº
ĠØ§ÙĦÙħÙĩ Ø§Ø±Ø§Øª
ĠØ§ÙĦØ´ ÙĩØ§Ø¯Ø©
ĠØ£Øº ÙĨÙĬØ©
ĠÙħÙĤ Ø·Ø¹
ĠÙĦ Ø³ÙĬ
ĠØ§ÙĦØ§Ø® ØªØ¨Ø§Ø±
ĠØ¨ÙĪ Ø³Øª
ĠØ¨ØŃ ÙĦÙĪÙĦ
ÙħØ³ Ø
ÙħØ³Ø §
Ġc s
ĠØ´Ø®Øµ ÙĬØ§Øª
ĠØ§ÙĦØ· ÙĪØ§ØŃÙĬÙĨ
ĠØ®Ø§Ø±Ø¬ ÙĬ
V N
ĠØ¨ÙĬ ÙĪØª
ĠØ§ÙĦÙĤØ± Ø§Ø±Ø§Øª
ĠÙĨØ¸ Ø§ÙģØ©
ĠØ§ÙĦÙĥ ÙĦÙĬØ§Øª
ĠØ§ÙĦØ· ÙĬØ¨
nÙħØ³ ØŃÙĪÙĤ
ĠÙĦ Ø§Ø³
ĠÙĪØ§ÙĦØ± ÙħÙĦ
ĠÙģ Ø§Ø±Ø³
ĠØ³ÙĬ ÙĪØ±
ĠØ¨Ø§ÙĦÙħ Ø§Ø¡
Ø¹ÙĬ ÙĬÙĨ
ï» ¨
924 5
g ov
24 0
8 17
ØªØ± Ø¨
ĠÙĬØ¹ Ø·ÙĬ
n m
Ø· Ø§Ø·
C L
Ø² Ø§Øª
99946 475
bo x
g a
ĠØ§ÙĦØ¨Ø· ÙĪÙĦØ©
ĠÙħØŃ ÙĪØ±
ĠB y
7 03
ĠØ§ÙĦØ§ÙĨØ¯ Ø±ÙĪÙĬØ¯
Ġ out
Ø§Ùĩ ÙĨ
u x
ĠÙĪØ§Ø¨ ÙĨ
ĠØ§ÙĦØ¥ÙĦ Ø²Ø§Ùħ
ĠØ¨ÙĤ Ø¯Ø±
ĠØ§Ø³Øª ÙĤØ¨Ø§ÙĦ
d s
nÙħÙĪ Ø§Ø¶ÙĬØ¹
ĠÙĬ Ø·
ĠÙĨ Ø±Ùī
Øº Ø§Ø²
ĠØ§ÙĦØ¹ Ø²ÙĦ
ĠØ¹ÙĨ Ø§ÙĪÙĬÙĨ
Ø§Øº Ø±Ø©
ĠØ¥ Ø¬Ø§Ø¨Ø©
ĠØ¹ÙĬ ÙĪÙĨ
ĠØ³ ØªÙĦ
ĠØ£Ùħ ÙĪØ±
ĠØ§ÙĦÙĪ Ùĥ
Ø´ÙĬ ØŃ
ĠÙĬØ¨ ÙĤÙī
ĠØ¨ Ø¬Ø¯
Ø®Øµ Ø§Ø¦ÙĬ
ĠÙĦÙĦØª Ø£Ø¬ÙĬØ±
le ase
8 21
ĠPost s
ĠØ§ÙĦÙħØ¹ ÙĩØ¯
ÙĪÙĬ ÙĤÙĬØ©
ĠØŃÙĤ Ø
ĠØŃÙĤØ §
ĠØ§ÙĦØ¥Ø¯ Ø§Ø±ÙĬ
ĠÙĪÙħØª Ø§ÙĨØ©
ĠÙĪØ§ÙĦØ¯ Ùĩ
it s
ĠØ¨Ø± Ø´ÙĦÙĪÙĨØ©
ĠØ¹Ø¯Ø¯ Ø
ĠØ¹Ø¯Ø¯Ø §
ĠØ§ÙĦØ° Ø§ØªÙĬ
ĠØ§ÙĦØ£Ùħ Ø§ÙĨ
ĠÙħØ§Ø³ ØªØ±
ĠØ§Ùĥ ØªÙĪØ¨Ø±
ÙĪÙģ ÙĤ
ĠØ£Ø³ Ø³
ĠÙĬÙħÙĥÙĨ Ùĩ
ÙĦÙĥ ÙĬ
Ġm ay
ã ĥ
ĠÙĦÙĦ ØµÙĨØ§Ø¹Ø§Øª
inked In
us s
ĠØ¨Ø§ÙĦØªÙģ ØµÙĬÙĦ
ĠÙħ ÙĪØ±
ĠÙħ Ø²ÙĬØ¬
ĠØ¬Ø§Ùĩ Ø²
ĠØ¨ Ø§ÙĬØ¯ÙĨ
ĠØ§ÙĦØ¬ ÙĬØ¯
ĠØªÙĤ ÙĦÙĬ
ĠÙħØ° ÙĥØ±Ø©
ĠÙħ Ø³ÙĦ
ĠØ§ÙĦØ§Ø® Ø±Ùī
ĠÙĬ ÙħØ±
ÙĪØ§Øª Ø¨
Ø£ ÙĦÙģ
Ġ http
ĠØ³ÙĬÙħÙĪÙĨ Ø²
ĠÙĬ Ø±Ø¯
ĠØ·Ø§ØŃ ÙĪÙĨ
ĠØ¯ Ø³Øª
ĠØªØ¬Ø§Ø± Ø¨
ĠØ§ÙĦØªØ¯ Ø±ÙĬØ¨ÙĬØ©
ĠØ£ ÙĦÙĬ
Ø¹ ÙĪØ¨Ø§Øª
ĠØªÙģ ØµÙĬÙĦ
ĠØ§ÙĦØ«Ø§ÙĨ Ùī
ĠØ§ÙĦØ±Ø¬ Ø§Ø¡
ĠØ§ÙĦØ¢ ÙĦØ©
ĠØ§ÙĦÙħÙĩ ÙĨÙĬ
ĠØ§ÙĦØ´ ÙĪÙĥ
ĠÙħ ÙĪØ¬
ĠØ§ÙĨ Ø¸Ø±
ĠÙĪØ§ÙĦ Ø¥ÙĨ
4 26
nØ¥ ÙĤØ±Ø£
Ø´Ø± ÙĪØ·
ĠØ§ÙĦØ° ÙĥÙĬ
ĠØ§ÙĦÙħ Ø¹ÙĦ
ĠØ§ÙĦØªÙĨ Ø³ÙĬÙĤ
F M
ĠØ§ÙĦØ®Ø² Ø§ÙĨØ§Øª
Ø¬Ø² Ø¦Ø©
ĠØ§ÙĦÙħØ¹ ÙĨÙī
ĠØ· ÙĬØ±Ø§ÙĨ
ÙĤ Ø§Ø·
ĠØ¨Ø§ÙĦÙħ ÙħÙĦÙĥØ©
ÙĥØ§ÙĨÙĬ Ø§Øª
ĠØ³ Ø§Ø¹Ø¯
ĠØ¹Øµ ÙĬØ±
vert ise
97 44
Ħ ÙĪÙĨ
Ù ĦÙĪÙĨ
E H
53 2
Ø®ÙĬ Ø§Ø±Ø§Øª
Ġ 43
ĠØ§ÙĦ Ø§ÙĦÙħ
ÙħÙĬ Øµ
88 0
ication s
ÙĤØ± Ø±
ĠÙħØ§ÙĬ Ùĥ
ĠØ³ ÙĤÙģ
ĠØ§ÙĨØ³Øª ÙĤØ±Ø§Ùħ
ĠØ§ÙĦØ¨ ÙĨÙĬØ©
ĠØ§ÙĦÙħ ÙĬØ¯
ĠØ¨ÙħÙĨ Ø·ÙĤØ©
' )
ĠØ§ÙĦÙħØ±Ùĥ Ø¨Ø§Øª
14 0
ĠØ§ÙĦÙĩ ÙĪÙĦ
ĠØµ Ø¹Ø¨
ĠØ¨Ø± Ø³
ĠÙĤÙĦ Ø¨ÙĬ
er a
57 1
ĠÙħ Ø¸ÙĩØ±
996 86
ĠØ£ÙĪ Øª
ai la
nØª ÙģØ§ØµÙĬÙĦ
ĠØ¨Ø± Ø§Ø¯ÙĬØ´
ĠØ§ÙĦÙĨØµ ÙĪØµ
Ø§Ùģ ÙĬÙĥ
ĠØ¢ Ø¯Ùħ
ĠÙĥ Ø§Ø³
ÙħØ¯ ÙĨ
56 2
ĠØ§ÙĦØ¥Ø¨ØªØ¯ Ø§Ø¦ÙĬ
ĠÙģ Ø´ÙĦ
ĠSh anghai
97 96
ĠØ£ÙĨ Ø³
ĠØ§ÙĦØ£ Ø¨ØŃØ§Ø«
ĠÙĦ ÙĬØ±Ø©
ĠØ¨Ø§ÙĦÙĤ Ø§ÙĩØ±Ø©
Ø±Ø³ Ø§Ø¦ÙĦ
Ø±Ø¬ Ø§Ø¹
ĠÙĦ ÙĬØª
ÙĪØ¶ ÙĪØ¹
ĠØ§ÙĦØ¹ Ø§ÙħÙĦ
Ø£ ÙħÙĦ
ĠÙĪ Ø·ÙĨ
ĠØ¬Ø§Ùħ Ø¹
ÙĢ ÙĬ
Ġ te
ĠØµ Ø§Ø¨ÙĪÙĨ
ÙĬØ¯ Ø§Øª
g o
ĠPol icy
ĠØ§ÙĦØ§Ø¹ ØªØ¨Ø§Ø±
ĠØ¯Ùĩ Ø§ÙĨ
ØªÙĬ Ø´
ÙĤ Ø¯Ø©
ĠÙģ Ø§Ø¦Ø¯Ø©
ĠÙģØ¹ Ø§ÙĦÙĬØ©
ĠD ec
nO nline
98 37
ĠØ§ÙĦØ¶ ÙħØ§ÙĨ
ĠØ¨Ø· Ø§Ø±ÙĬØ©
Ø§ÙĦÙħ Ø§Øª
\" },
ĠØ§ÙĦÙħØ¹ ÙĬ
ĠØ§ÙĦÙĨØ¨ ÙĪÙĬØ©
ĠØ§ÙĦÙħÙĨØ§Ùģ Ø³Ø©
ĠF eb
Ġ !\
ĠØ¹ ÙħÙĬØ¯
ĠØ£ ÙĪÙĤØ§Øª
ĠØ§ÙĦØŃÙĬ ÙĪØ§ÙĨ
ĠÙĪÙĩ Ùī
ĠØ´ÙĩØ¯ Øª
ĠØ§ÙĦÙĨ Ø¬Ùħ
ĠØ§ÙĦØ£ Ø±ÙĤØ§Ùħ
ĠØ± Ø®ÙĬØµ
8 04
ĠØŃÙĤ ÙĤ
ĠØ¨Ø§Øª ÙĪ
ÙĩØ§ Ø¬
Ġd ata
ĠØªØ¨ ÙĤÙī
ĠØ¬Ùĩ Ø§Øª
ĠØ§ÙĦØ¹Ùħ ÙĪÙħÙĬØ©
ĠÙĪØ· ÙĨÙĬØ©
nØ´Ø± ÙĪØ·
ĠÙĪÙħ Ø·ØŃÙĨØ©
ĠØ§ÙĦÙĬÙĩ ÙĪØ¯
nØ§ÙĦÙħ Ø³
ĠØ§ÙĦÙħ ÙħÙĬØ²
ĠØ§ÙĦÙħØŃ Ø§ÙģØ¸Ø§Øª
999 03
ĠØ§ÙĦÙĪ Øµ
ĠØ§ÙĦÙģÙĦØ³Ø·ÙĬÙĨÙĬ ÙĬÙĨ
ĠØ§ÙĦØŃØ± Ø§Ø±ÙĬ
ĠÙĦÙĦØ£ ÙĪÙĦØ§Ø¯
99964 87
ĠØ¨ Ø¯ÙĬÙĦ
ĠØ§ÙĦØ³Ø¹ Ø§Ø¯Ø©
ĠØªØ³Ø§Ø¹Ø¯ Ùĥ
ĠØ§ÙĦØ¬ Ø±ÙĬ
ĠØ¨ÙĦ Ø§Ùĥ
Ø¹ ÙĦÙĬ
ĠØ´ Ø§ØŃÙĨØ©
Ø´ Ø³ØªØ±
ĠÙħÙĥØª ÙĪØ¨
l p
ĠÙĦÙĦØ³ ÙģØ±
ĠÙĦ ÙĤØ¨
ĠÙĬ ÙĪÙĨÙĬ
Ġn o
+ %
ØµØŃ ÙĬÙģØ©
ĠØ¨ ÙĪØ¬ÙĪØ¯
nØ§ÙĤ ØªØµØ§Ø¯
Ùħ Ø¯Ø±Ø³Ø©
ĠM icro
ĠØ§ÙĦØª Ø°
ĠØ§ÙĦØ¹ÙĦ ÙĪÙĬ
Ø± Ø§ÙĦ
Ø§ÙĪ Ø±Ø©
ud io
ĠÙĪØ§ÙĦÙħ Ø¨ÙĬØ¹Ø§Øª
ØµÙĬ ÙĦØ©
997 47
98 05
ĠØ¨ Ø¹ÙĨØ§ÙĬØ©
ĠÙĨ Ø§Øª
ØŃØ± Ùħ
B L
Ø±Ø¬ Ø§Ø¡
ĠØ§Ùħ Ø§ÙĥÙĨ
ĠØ§ÙĦÙĪ Ø§Ø³
ĠØ§ÙĦØ¹ ÙħÙĬ
ou th
Ø¨ÙĬ Ùĥ
ĠÙĪØ¥ Ø¯Ø§Ø±Ø©
Ġad min
Ø¬ Ø£
Ø± Ø§Ø¦ÙĬÙĦ
it ies
ĠÙģØ¥ÙĨ ÙĩØ§
âĢİ .
BC E
ĠÙĥ ÙĪÙģÙĬØ¯
ĠÙĦØªØ¹ Ø²ÙĬØ²
997 75
Ø· ÙĬÙĨ
ĠØŃØ± ÙĬØ©
ĠÙĪØ§ÙĦØ£ Ùħ
n Ø±Ø³Ø§ÙĦØ©
ØŃÙĬ Ø¨
Ġwh ich
ĠØ¨ ÙĦÙĬ
ĠØ§ÙĦØ£ØŃ ÙĦØ§Ùħ
ÙĨØ§ Ø¯ÙĬ
ĠØ§ÙĦÙħØ¬ Ø§ÙĨÙĬ
ĠØ§ÙĦÙĨÙĪ ÙĪÙĬØ©
u th
ĠØ§ÙĦØµ ÙģØ±
ĠØ³ÙĦ ÙĪÙĥ
ĠØªØ± Ø®ÙĬØµ
31 74
ĠÙĦÙĦÙħ Ø±Ø©
ĠÙģØŃ Ø³Ø¨
ĠØ¹ ÙĤÙĦ
ĠØŃÙĦ ÙĤØ§Øª
ĠØªÙĪÙĬ ÙĪØªØ§
ĠÙĪ ÙĨØª
30 95
ĠØ¹ Ø¬
Ø§Ùĩ Ø©
ĠS ep
ÙĢ Ùħ
n ÙĬØ±
ĠØº ÙĬØ§Ø¨
Ø¬ÙĦ Ø¯
nØ§ÙĦ Ø´Ø±ÙĥØ§Øª
ĠØ§ÙĦÙģ ØªØ§ØŃ
n ÙħØ¤
ĠÙĪ ØŃÙĬ
ØªØ¯ Ø§Ø¯
999 80
ĠÙħØ³ Ø±ØŃ
ĠØ§ÙĦÙħØª Ùĥ
ĠÙħÙĪØ³ ÙĥÙĪ
in es
ĠÙĤ ÙĬÙĦ
ĠØ¨ Ø§ÙĨØª
ĠØ¨Ùħ Ø®ØªÙĦÙģ
ĠØ³ÙĬÙĨ Ø§Ø¡
ĠØ§ÙĦØ°ÙĥØ± Ùī
ord er
ÙĪØ¨ Ø§ÙĬ
ĠØ§ÙĦØ´Ø®Øµ ÙĬØ§Øª
âĤª âĢ¢
ĠØ§ÙĦØµ Ø§Ø¯Ø±
ĠØ§ÙĦØ³ Ø§Ø¹Ø§Øª
ÙħØª Ø¹Ø©
ĠØ´ Ø¤ÙĪÙĨ
ĠØ§Ø³Øª Ø¹Ø§Ø¯Ø©
ĠC NC
Ġal so
ĠØ§ÙĦÙĥ Ø¨Ø¯
nØ§ÙĦØ³ Ø¹Ø±
ÙĦÙĬ ÙħØ©
ĠØ§ÙĦÙĤ Ø§Ø¹Ø¯Ø©
ØŃ Ø
ĠØ§ÙĦØ¨Ø§ØŃØ« ÙĬÙĨ
Ø§Ø ¥
ØŃØ §
ĠÙĦØ¥ Ø¯Ø§Ø±Ø©
ĠØ¨Ø§ÙĦØ¹ Ø¯ÙĬØ¯
ĠØ§ÙĦÙħØµÙĨØ¹Ø© WhatsApp
76 8
ĠØ§ÙĦØ·ÙĦØ¨ Ø§Øª
ĠØ§ÙĦÙĤØ± Øµ
ĠØ§ÙĦØ³ÙĥÙĨ ÙĬØ©
Ø³ ÙĪØ±
ĠÙħØ¯Ø¨ÙĦ Ø¬
96925 104
w ork
ĠØŃ ÙĦØ¨
nØªØ¹ ÙĦÙĬÙĤØ§Øª
ĠØ§ÙĦØªÙĪØ§Ø¨ Ù
ĠØ§ÙĦØªÙĪØ§Ø¨Ù Ħ
999 53
ĠE quipment
Ø´ Ø¦
ĠØ§ÙĦÙĤ Ùħ
ĠØ§ÙĦØª ÙĥÙĬÙĬÙģ
tern ational
Ùı ØĮ
998 08
{ {
ĠÙħØ· Ø§ÙĦØ¨
ĠÙĬÙĦ Ø²Ùħ
ĠÙħÙĪÙĤØ¹ Ùĥ
ĠØ¨Ø§ÙĦ Ø§Ø¹
ÙĨ Ø§ÙĩØ§
ĠB e
ĠÙĬØ¯ Ø¹ÙĪ
Ø¨Ø± Ø§Ø¬
ĠØ¨ ÙĪÙħØ§
ĠØ² Ø¨
ĠØ§ÙĦ ÙĪØ±Ø¯
Ġy alla
0 83
ĠÙģ Ø³ÙĬ
ĠØ§ÙĦØµØŃ Ùģ
Ùĥ ÙĨØª
ĠØ¨ÙĦ Ø¯ÙĬØ©
9984 3717
ĠØ§ÙĦÙĨ Ø®ÙĬÙĦ
nØ§ÙĦÙģ ØŃÙħ
ĠØ³Øª Ø§ÙĬÙĦ
ĠÙħ Ø¨ÙĨÙī
ĠÙĥ ÙĬØ³
ĠÙĪØªÙĨ Ø¸ÙĬÙģ
ĠÙģ Ø§ÙĬØ±
ĠØ§ÙĦÙħØŃ Ø±
ĠØ¨Ø± Ø§Ø¨Ø·
ĠØ§ÙĦÙħ Ø¹Ø±ÙĪØ¶
ĠØª ÙĩÙħ
ĠØ³ÙħØ¹ Øª
Ø¬Ø§Ø¬ Ø§Øª
ĠÙħØ« Ø§ÙĦÙĬ
ĠØ£Ø³ ÙĩÙĦ
ĠØ§ÙĦÙħØ± Ø§Ø¯
ĠÙĪÙħ Ø®
Ġon e
20 00
ĠÙħØº ÙĦÙĤØ©
ĠØ¹Ø³ ÙĥØ±ÙĬ
nØ§ÙĦÙħ Ø§Ø¯Ø©
67 1
8 22
Ø£ ÙĩÙĦ
ĠÙĪ Ø°ÙĥØ±
ĠØ§ÙĦØŃ Ø§Ø³ÙĪØ¨
ĠØ§ÙĨ ÙħÙĬ
Ġ Ø§ØµÙĦØ§ØŃ
ĠØ§ÙĦØªØ§Ø³ Ø¹Ø©
ĠØ§ÙĦØª ÙĥØ§ÙĦÙĬÙģ
Ùħ Ø§ÙĨÙĬ
ĠÙĦ Ø¹Ø¯Ùħ
ĠÙĥ Ø§ÙĬ
997 26
Ø§ØªÙģ Ø§ÙĤ
nØªØ§Ø¨Ø¹ ÙĨØ§
ĠØ§ÙĦÙĤØ¶ Ø§Ø¦ÙĬØ©
ĠØ§ÙĦÙĤ Ø¯Ø±
ĠØ§ÙĦÙĨØ§Ø´ Ø¦Ø©
997 24
ĠÙħØ´ Ø§ÙĩØ¯
ØŃ ÙĪÙĨ
ĠÙģ ÙĥÙĦ
ĠØ§ÙĦØ·Ø¨ ÙĤØ©
ĠØ§ÙĦÙħØµØ±ÙĬ ÙĬÙĨ
ĠÙĦÙĦ Ø·ÙĦØ§Ø¨
ĠØ§ÙĦÙĪ Ø¸ÙĬÙģØ©
nØ¹ ÙĨØ¯
ĠØ¨Ø§ÙĦØª Ø£ÙĥÙĬØ¯
Ð ¹
nÙĬ ØŃ
ĠÙĪØ£ ÙħØ§
upp li
an i
ĠØ¶ Ø®ÙħØ©
ĠÙĬÙĤ Ø±Ø¨
ĠØ§ÙĦØµ ÙĨØ¯ÙĪÙĤ
ĠÙĪØ³ Ø¹Ø±
ĠÙĪÙģ Ø¯
Ġ( +
Ø§Ø³ ÙĬÙĥÙĬØ©
Ġv is
ĠØ£ Ø²ÙĬØ§Ø¡
997 74
b ar
ĠØ§ÙĦØŃ Ø§ÙħÙĦ
nØªØ¹ ØªØ¨Ø±
Ø¨ ÙĥØ©
Ùĩ ÙĪØ±Ø©
997 44
ĠØ¹ Ø´Ø±Ø§Øª
0 22
ĠÙħÙĥ Ø§Ø¦ÙĨ
ĠØ§ÙĦØµØŃ Ø§Ø¨Ø©
ĠØ§ÙĦÙĥØ¨ Ø±ÙĬØª
ĠØ±ÙĪØŃ Ø§ÙĨÙĬ
ĠÙħ ÙĪØ±Ø¯ÙĬÙĨ
ĠØ§ÙĦÙģ Ø·Ø±
ĠÙģØ¥ÙĨ ÙĨØ§
ÙĬØ¬ Ø§Ø¨
ĠØ§ÙĦÙĤ ØµØ¯ÙĬØ±
Ø¹ ÙĪÙħØ©
ĠØ£ÙĨÙģØ³ ÙĩÙħ
v is
ĠØ§ÙĦÙĬÙħÙĨ ÙĬ
nØ£Ùĥ ØªÙĪØ¨Ø±
ĠÙĪ Ø³Ø¨
ĠÙħØ±Ø³ ÙĬØ¯Ø³
ĠÙĦÙĦØªÙĨ ÙħÙĬØ©
ÙĬ Ø«
ĠØ¹Ø§Ùħ Ø±
ĠÙħØ³ Ø¬Ø¯
B Y
Ġ7 00
ĠØ§ÙĦØ£Ø±Ø¯ ÙĨÙĬØ©
ĠÙĬÙĩ ØªÙħ
ĠØ¹ Ø§Ø¦ÙĦ
C BF
I Z
ĠÙĦ Ø²
ĠØ¨Ø§Ø± Ùĥ
ØªÙĩ ÙħØ§
ĠF ree
97 86
ĠØ´Ø± Ø·
ĠØ§ÙĦØ¥ ÙĨØª
ĠA pr
ĠØ§ÙĦØªØŃ Ø¯ÙĬØ§Øª
Ø§ÙĬ ÙĨØ©
le an
ĠØ·Ø¨ ÙĤØ©
Ø§Ø¹ ÙĬØ§Øª
3 27
ĠÙĪØªØŃ Ø³ÙĬÙĨ
nØª ÙĪÙĬØªØ±
ĠØ§ÙĦÙħØªØŃ Ø¯Ø«
ĠØ§Ø³Øª ÙĨ
ĠØ§ÙĦØ·Ø¨ Ø§Ø¹Ø©
ĠÙĤ Ø¶Ø§Ø¡
ÙĨØ³ Ø®
ĠØ§ÙĦÙħ Ø³Ø¨
ĠÙĪ ÙĬÙħ
Ġï´ ¿
31 10
ĠØ§ÙĦØ·ÙĦ Ø§ÙĤ
56 1
ØµÙģ ØŃØ§Øª
Ø§Ùħ Ø¹
l r
M W
ĠØ¹ Ø¨ÙĬØ¯
ĠÙĪØµ ÙģØ©
ĠÙĦ Ø®Ø¯ÙħØ©
Ø§Ùĩ ÙħØ§
ĠØ§ÙĦÙħÙĩ Ø¯ÙĬ
99916 905
ĠØ± ÙĪÙĦ
ØªÙģ Ø§Ø¡
nØ£ ÙĥØ¯
ĠÙĬØ³ Ø¹Ùī
ĠØ¬ Ø±ÙĬÙħØ©
Ġt alking
ØªÙĦ Ø§Ùĥ
ĠØµØ¨ Ø§Øº
5 34
ĠØ§ÙĦØªØ± Ø¯Ø¯
ĠØ§ÙĦÙĤØ· Ø·
Ø¯ ÙĪ
ĠÙĪ Ø§ÙĬØª
ØªÙĬ Øª
âĢĶ âĢĶ
now n
ĠÙĪØ§ÙĦÙģ ÙĨ
ĠØªÙĥØ± ÙĬØ±
Ùģ Ø§Ø¯
ĠØ£Ø· ÙĪÙĦ
ĠØ® Ø¨ÙĬØ±
ĠØ¨Ø± ÙħØ¬Ø©
ØŃØ± Ø§Ø±Ø©
ĠØ¨Ø§ÙĦ ÙģØ±
ĠØ§ÙĦØ£ØŃ Ø§Ø¯ÙĬØ«
3 25
ĠÙħØ¤ Ø±
ĠØ§ÙĦÙħØª Ø¬Ø¯Ø¯Ø©
Ġp m
ĠE l
ĠL a
P D
ĠÙħÙĪ Ø§Ø±Ø¯
Ø§Ø¹ Ø§Ø©
ĠØ§ÙĤ ØªØµØ§Ø¯ÙĬ
ĠØ± Ùģ
ĠØ¹ÙĨØ¯ Ùĩ
Ø§ÙĤ ØªØµØ§Ø¯
nÙħÙĦ Ø§ØŃØ¸Ø§Øª
ĠØ¯ ÙĪØ§Ø¡
ÙĪÙħ ÙĨ
ĠØ¹Ùħ ÙĪØ¯
ÙĨØ¯ Ùĩ
AF E
sh ip
ĠØ¸ Ø¨ÙĬ
ĠØ§Ø³Øª ØºÙĦØ§ÙĦ
ĠØºØ° Ø§Ø¦ÙĬØ©
26 0
ĠØ§ÙĦÙħ Ø«ÙĦ
av ig
ĠØ§ÙĨØ¯ Ø±ÙĪÙĬØ¯
ĠØ§ÙĦØ² Ø§ØŃÙģ
ĠØŃ Ø§ÙĦÙĬ
ĠØ§ÙĦÙĤØµ ÙĬØ±Ø©
7 17
ĠØ§ÙĦÙĨÙĩ Ø§Ø±
Ġj aw
Ø± Ø¦ÙĬØ³
J C
ĠØ§ÙĦØ¬ ÙĨÙĬÙĩ
ĠØ§ÙĦÙģÙĬØ¯ÙĬÙĪ ÙĩØ§Øª
Ø§ÙĦ ÙģØ§Øª
ĠØ§ÙĦÙĩ ÙĪØ§Ø¦ÙĬØ©
ĠØ§ÙĦØ²ÙĬ ÙĪØª
98 14
ĠØ§ÙĦØ§Ø¨ ÙĬØ¶
ĠØ§ÙĦØ´ ÙĬØ·Ø§ÙĨ
ĠÙĥ Ø¨Ø±Ùī
ĠÙĪØ£ Ø¶Ø§Ùģ
Øµ Ø§Ø¯
ĠØ§ÙĦØ° Ø§ÙĥØ±Ø©
ĠÙĪØ§ÙĦØ¹ Ø´Ø±ÙĪÙĨ
ĠÙĪØª Ø¬
ĠØ§ÙĦÙħØ¯Ø± Ø³ÙĬØ©
ĠÙħÙĨ ØµØ¨
87 15
ĠØ§ÙĦØ³ Ø¨Ø¹
ĠØª Ø§Ø¨Ø¹Ø©
ĠØ§ÙĦØ³Ùģ ÙĬÙĨØ©
ĠØ§ÙĦÙħØ® ØªØ¨Ø±
P X
U Z
Ø´ ÙĥÙĬÙĦ
ĠØ± ØµÙĬØ¯
ĠØ§ÙĦØ³ ØŃ
Ø§Ø¦ Ø¨Ø©
m ad
ĠØ± Ø§Ø´Ø¯
ÙĬØª Ùĥ
ĠØ§ÙĦÙĥ Ùĩ
ĠØµ Ø¯Ùħ
n Ø§Ø¨
ĠØ§ÙĦÙħØ® Ø¯Ø±Ø§Øª
2 20
ĠÙħØª Ø³
ĠÙĦÙĬÙģ Ø±Ø¨ÙĪÙĦ
Ø¨ÙĨ Ùĥ
nØŃ Ù
nØŃÙ Ħ
Q C
ĠÙĪÙĩ ÙĥØ°Ø§
ĠØ¥ ÙĨØ³
ĠØª ÙħÙĬØ²
ĠÙĦØ§Ø³Øª Ø®Ø±Ø§Ø¬
25 62
ĠØ§ÙĦÙĨÙĩ Ø¶Ø©
ĠØ¥Ø° ÙĨ
nØ§Ø· ÙĦØ¨
ĠØ§ÙĦØ¯ Ø±Ø³
ĠØ§ÙĦØ¥ÙĬØ· Ø§ÙĦÙĬØ©
ĠIm age
ĠÙħ Ø³ÙĬ
od y
ĠØ£ØŃÙĬ Ø§ÙĨØ§
Ġcrush ers
ĠØ¨ ÙĪØªÙĬÙĨ
ĠØ§ÙĦØ£ Ø²ÙĬØ§Ø¡
S W
§ Ø´Ø±Ø©
Ø³Øª Ø®Ø¯Ø§Ùħ
ĠÙĪ Ø§Øµ
ĠØ§ÙĦÙĬÙħÙĨ ÙĬØ©
55 9
id s
ØªÙĦ ÙĤÙī
Ø §Ø´Ø±Ø©
ĠØ±ÙĪ Ø§Ø¯
ĠØ¹Ø¨Ø¯Ø§ÙĦ Ø±ØŃÙħÙĨ
ÙĬØª Ø§ÙĦ
ÙĪÙĦÙĬ Ùĩ
ĠÙħ Ø¦Ø§Øª
ï» ł
ĠN ext
ĠØ§ÙĦØ¯ Ø§Ø¦Ùħ
ĠØ³ÙĨ ÙĨ
Ø¯ÙĬ Ø¨
ĠØ§ÙĦØ±ÙĬ Ø§ØŃ
ĠØ§ÙĦÙħØ± Ø§Ùĩ
ĠÙĬØµ Ø¯Ø±
ĠÙĪØ¬ Ø¨Ø©
ĠØ§ÙĦÙĨÙĤØ¯ ÙĬØ©
Ùģ ÙĦØ§Ùħ
45 0
Ø´ ÙĪØ±
ĠØªØªØ± Ø¯Ø¯
ĠØµÙĨ Ø§Ø¹
ĠØ§ÙĦØªØ®ØµØµ Ø§Øª
ĠÙģØ¹ÙĦ Ø
ĠÙģØ¹ÙĦØ §
ĠÙħÙĨ ØŃØ±Ùģ
-------- --------
z a
ĠÙĦÙĦ Ø¯Ø±Ø§Ø³Ø§Øª
ĠÙħ ÙĤÙĬØ§Ø³
ĠØ§ÙĦØ£Ùħ Ø«ÙĦ
ĠØ§ÙĦØ§Ø¹Ø¯ Ø§Ø¯ÙĬØ©
Ø¹Ø¨ ÙĬØ±
1 83
ĠÙĦ ÙĬÙĦ
ĠÙĪØ§ÙĬ Ø¶Ø§
ĠØ§ÙĦÙĨØµ Ø§Ø¦ØŃ
ĠØ¨ Ø¨Ø³Ø§Ø·Ø©
Ø§Ø¦Ø± ÙĬØ©
ĠØ¥ÙĦ Ø®
ĠØ§ÙĦØ£ Ø³ÙĦØŃØ©
ĠØ§ÙĦØ§ØŃ Ø¬Ø§Ø±
ĠÙħÙĦ Ø§ØŃØ¸Ø©
ĠÙĪØ§ÙĦ Ø§Ø¨
ĠØ´Ø± Ùĥ
Ø±Ùģ ÙĦØ©
et s
ĠØ´Ø± Ø¨
Ùħ Ø§Ø¦ÙĬ
ĠØ«ÙĦØ§Ø« ÙĬØ©
ĠØ¨Ø§ÙĦÙĦ ÙĪÙĨ
ran Ã§
.\ "
ĠØ¬Ø± Ø§Ø¡
ĠØ§ÙĦØ®Ø· Ø£
ĠÙĪØ§ÙĦ Ø§Ø³
ĠÙħ Ø§Ø²
ĠØ§ÙĦÙĨØ¨Ø§Øª ÙĬ
ĠM an
ĠØ§ÙĦØ² ÙģØ§Ùģ
M M
Ø§Ø¶ Ø¹
n Ø¨Ø¯
ï ´
ØŃ Ø°Ùģ
ĠØ§ÙĦØ¥Ø® ÙĪØ§ÙĨ
ĠØªØŃ Ø¨
' );
ĠØ§ÙĦØ¨ ÙĤØ§Ø¡
in o
Ø² Øª
ĠØ¨ØŃØ± ÙĬØ©
nÙĨ Ø¨
ĠÙĪØ§ÙĦØŃ ØµÙĪÙĦ
7 06
36 0
la ck
ĠØ§ÙĦØ¹ÙĤ ÙĪØ¨Ø§Øª
Ġ144 3
ĠØ±ÙĪ Ø§Ùĩ
ĠÙĪØ± Ø´
ĠÙĪØ¹ ÙĦÙħ
99967 85
rush ers
ÙĪ ØªÙĩ
ĠØ¯ ÙĪØª
ĠØ®ÙĦ Ø§ÙĬØ§
ĠØ§ÙĦÙħ Ø§ÙĨÙĬØ§
ĠÙĪØ§ÙĦ ÙħÙĨØªØ¬Ø§Øª
ĠÙĦÙĦ Ø®Ø¯ÙħØ§Øª
ĠØ§ÙĦÙĪØ§ÙĤ Ø¹Ø©
ĠØ¨Ø¥ÙĨ Ø´Ø§Ø¡
ĠÙĤØ§ÙĦ Ø¨
Ø§Ø± ØªÙĩØ§
ĠØºØ± ÙĬÙĨ
996 57
ĠØ£Ø³ Ø±
nØ§ÙĦÙħ Ø´Ø§Ø±ÙĥØ§Øª
ĠØ§ÙĦÙĤ ÙĦÙĤ
ĠØ§ÙĦØ¹Ø¶ ÙĦØ§Øª
ĠØ£Øµ ØºØ±
ĠØ³ ÙĪØ±ÙĬ
4 81
1 93
ĠØ§ÙĦÙħØ¹Ø§Ø± Ø¶Ø©
Ġon ly
ĠØ¹ Ø§Øµ
ĠØ¬ ÙĬØ´
ĠØ§Ø¬ØªÙħ Ø§Ø¹ÙĬØ©
Ħ ÙĩØ§
S t
Ù ĦÙĩØ§
834 6
ĠØ§ÙĦØ¯ Ø¨ÙĦÙĪÙħ
ad ing
ØªÙĪ Ø³Ø·
ĠØ§ÙĦØ¨Ø§Ø± Ø¯Ø©
00006 94
ØµÙĦ ÙĨØ§
ĠÙĪ Ø§Ø¬ÙĩØ©
ĠÙĪÙħ Øµ
ĠØ³ Ø§ØŃ
R L
n Ø¹Ùħ
Ġd i
Ø§ÙĨ Ø¬
ĠÙħØ¹ Ø§Ø¯ÙĨ
ĠØ²ÙĬÙĨ Ø«
ÙĦØ¨ ÙĨØ§ÙĨ
ÙĪØ¬Ùĩ Ø©
Ġ4 1
ĠÙĤØµ ÙĬØ¯Ø©
ĠØ§ÙĦØ« ÙħÙĨ
ĠÙħÙĨÙĩ ÙħØ§
ĠØ¨Ø§ÙĦ Ø·Ø¨Ø¹
ĠØµÙĨ Ø§Ø¹Ø§Øª
ĠØ§ÙĦØ¯Ø³Øª ÙĪØ±
999 41
ÙĩØ± ÙĬØ©
l ist
ĠØ§ÙĦÙħØµØ± Ùī
ĠØ£ ÙĪÙĦÙĬ
998 90
ĠØµÙģ ÙĤØ©
k ey
ĠØ§ÙĦØ¢ Ø¯Ø§Ø¨
ĠP r
8 13
se arch
ÙĬØ¯ Ø²
on es
ĠØ´Ø®Øµ Ø
ĠØ´Ø®ØµØ §
ĠØ³ÙĬ Ø§ØŃÙĬØ©
ĠØ§ÙĦÙħØ¹ Ø§ÙĬÙĬØ±
997 11
A V
ÙĨ Ùħ
ÙħØ¯ Ø§Ø¯Ø§Øª
Ùĩ Ø§ÙĬØ©
ĠØ§ÙĦØ¯ ÙĥØªÙĪØ±Ø©
ĠÙĪ Ø®ÙĦ
ĠÙĦÙħ ÙĥØ§ÙģØŃØ©
37 0
b ig
ĠÙĪØ§ÙĦ Ø¨ØŃÙĪØ«
9 02
ĠÙĪØªØ¹ ØªØ¨Ø±
ĠØ§ÙĦÙĤÙĬ Ø§Ø³
w ay
nØ§ÙĦ ØªØŃ
ĠÙĤ Ø§Ø³Ùħ
ĠØ£ Ø±ÙĬØ¯
nØ´Ø± ØŃ
v b
ĠÙħØ® ÙĦÙģØ§Øª
ĠÙħ Ø¹Ø±ÙĥØ©
997 05
ĠØ³ Ø§ÙĬ
ĠØ§ÙĦØµ Ø§Ø¨ÙĪØ±Ø©
ĠØ§ÙĦØ¨ ÙĤØ±Ø©
67 2
ĠØµØŃÙĬ ØŃØ©
ĠØ§ÙĦÙĦ Ø¬ÙĪØ¡
ĠØª ÙħÙĨØŃ
ĠCh ina
ĠÙĤ Ø§ÙĨÙĪÙĨÙĬ
ĠØ§ÙĬ Ø¬Ø§Ø±
5 57
ĠØ£ ØµØ¯ÙĤ
ĠÙĨØ¸ ÙĬØ±Ùĩ
ĠÙĪ ØŃÙħØ§ÙĬØ©
v al
ĠØ§ÙĦØ¨ Ø§Ø¦Ø¹
Ġat t
Ħ ÙĤÙĬ
Ù ĦÙĤÙĬ
ĠØ§ÙĦØ® ÙĪÙģ
ĠÙĥ ÙĬÙĥ
997 65
Ġ Ø§Ø±ÙĬ
nÙħÙĪ Ø§ØµÙģØ§Øª
nØ£ Ø¯ÙĪØ§Øª
nØª ÙĤØ¯Ùħ
O Z
ĠØ§ÙĦÙĬÙĪÙĨ Ø§ÙĨ
ÙĤÙĬ ÙħÙĬÙĨ
Ø¬Ùĩ Ø§Øª
ÙģÙĩ ÙĪÙħ
AE E
ĠØ¹ÙĤ Ø§Ø±Ø§Øª
ĠãĢ Ĳ
ØµÙĬ ØŃØ©
Ø¨Ø¹ Ø§Ø«
996 06
Ø® Ø²ÙĬÙĨ
r ies
999 23
ĠÙĪØ§ÙĦ ÙħØ§ÙĦ
ĠØ² ÙĪØ§Ø±
ĠÙĬ ÙĩÙħ
ĠÙħÙĩ Ø§Ùħ
ØŃ Ø³Ø¨
ĠØ³Ø¨ Ø§ÙĤ
ĠØ§ÙĦØ¨ØŃ Ø±ÙĬ
Ġ Ø§Ø¬Ø±
997 16
ĠØ£ Ùī
ĠÙħØ§Ùĥ Ø³
ĠØ¯ Ø§ÙĨ
ÙĥÙĬ Ùĥ
ĠØªÙĦ Ø¹Ø¨
w eb
ÙĪØ§Ø± Ø¯
E V
ĠØ§ÙĦÙģØ± Øµ
ĠÙģÙĦ ÙĪØ±ÙĬ
ater ial
nÙĬØª Ø¹ÙĦÙħ
ĠØ¯ÙĪ Ø§ÙħØ©
ĠØ¨Ùħ ÙĤ
ys tem
ĠØ§ÙĦÙħ Ø§ÙĥÙĬÙĨØ§Øª
ÙĨ ÙĪØ¨
N Y
ÙĨØª Ùĩ
ĠÙĪØ· Ø±ÙĬÙĤØ©
ĠØŃ ÙĪØ§Ø¡
ĠØ§ÙĦØ®Øµ Ø§Ø¦Øµ
Ø¨Ø§ Ø¯ÙĬ
ĠÙħÙĨ Ø·ÙĤ
ĠÙĪØªØ¹ Ø²ÙĬØ²
ĠØ§ÙĦØ¬ ÙĦØ³Ø©
ĠJ o
ĠØŃÙĥ ÙĪÙħÙĬØ©
Ø¨ Ø§Øº
ĠØ¨ÙĤ ÙĬØ©
ĠØ´ ÙĥØ±
ĠÙĪ Ø¬Ø±
ĠØ§ÙĦØ£ ÙĥØ³
er n
Ġm y
ØªÙĬ Ùħ
834 2
ØµÙĦ ÙĬØ©
ÙħØ¨Ø± Ø§Ø·
ÙħÙĪ ÙĬØ©
ĠØ§ÙĦÙĩ Ø¶
99956 57
ĠØ®Ø· ÙĬØ±Ø©
ĠØ´ ÙĪØ±Øª
98 27
ĠØ£ÙĪÙĨ ÙĦØ§ÙĬÙĨ
ĠØ£Ø± Ø§Ø¶ÙĬ
J Z
Ø±Ø¨ÙĬ Ø¬Ø§ÙĨ
ĠØª ÙħÙĦÙĥ
ĠØ¹Ùħ ÙĦÙĬ
v id
ĠØªÙģ ÙĤØ¯
ĠØ§ÙĦÙħÙĨ Ø¸ÙħØ§Øª
ĠØ³ Ø§Ø¦ÙĦ
. ØĮ
ĠØ§ÙĦÙħØ¯ ÙĪÙĨØ©
ĠØ§ÙĦÙħ ÙĪØ±
999 09
Ñģ Ðº
ĠØ¬Ø± Ø§Ø¦Ùħ
A BE
ĠÙħÙĬ ÙĥØ±ÙĪÙĨ
ĠØ§ÙĦØ® ÙĦÙģÙĬØ©
i eld
ĠÙ ¦
28 0
ĠØªØ® ØªØ§Ø±
ĠØ§ÙĦÙħØ± ØªØ¨Ø©
ĠÙħØ³Øª Ø´Ø§Ø±
ĠØªÙĪØ¶ ÙĬØŃ
n Ø§ÙĨØª
Ġprodu ction
ĠØ§ÙĦÙħØŃ Ø·Ø©
Ùģ Ø³ÙĬ
Ø¸ ÙĩÙĪØ±
Ã ±
ĠØ§ÙĦØ¨Ø±Øª ØºØ§ÙĦ
ĠØ·Ø¨ ÙĤ
ĠÙĬ ØŃÙĤÙĤ
ĠØ§ÙĦÙĪ ÙĩØ§Ø¨
Ø¶Ø¹ Ø§Ùģ
BF E
ĠÙĪØ§ÙĦØ§Ø¬ØªÙħ Ø§Ø¹ÙĬØ©
ĠØ§ÙĦØ¥ ØŃØµ
ÙĪÙħØ§Øª ÙĬÙĥÙĬØ©
ĠTech nology
ĠÙĤ ÙĪÙī
ĠÙħÙĬÙĨ Ø§Ø¡
ĠÙģ Ø¨
ĠÙħÙĪÙħ Ø¨Ø§ÙĬ
ĠØªØŃ Ø¯Ø¯
ĠØ§ÙĦØ¨ ÙĪÙĦÙĬ
Ġ5 1
ĠÙĦÙħ Ø´Ø§ÙĩØ¯Ø©
ĠØ§ÙĦØ¹ ÙĬØ´
ĠØ¨Ø§ÙĦÙħ ØŃ
Ø³ÙĬ ÙĪÙħ
ĠØªÙĪ ÙģÙĬ
ĠÙĥØ§Ùħ ÙĬØ±Ø§
ĠÙĪØ§ÙĦ Ø´Ø±ÙĥØ§Øª
n ØŃÙĤÙĪÙĤ
ĠØº ÙĨÙĬ
O Q
ĠB ank
ide os
Ø°ÙĥØ± Ø§Øª
997 07
ÙĪØ² ÙĨ
ĠÙħ ØµÙĦØŃØ©
ĠØ£Ø± Ø´ÙĬÙģ
Ġg m
ÙĪØ¶ Ø§Ø¹
Ø§Ø® Ø§Øª
B H
+ +
ĠB it
ĠØ¶ Ø±Ø±
ĠØŃØµ Ø±ÙĬ
Ø±Ø´ Ø§Ø¯
Ø· Ø§Ø¹Ùħ
Ùħ Ø§Ø±Ø©
c ation
ĠM in
ÙĦÙĬ Øº
Ø´Ø¨ ÙĥØ©
ĠØª ÙĪØµ
997 34
Ø¨Ø± ÙĬØ©
ĠØ§ÙĦØ² ÙħØ§ÙĨ
ĠÙĦÙĦ ÙħÙĦ
ĠØ§ÙĦØ²Ø± Ø§Ø¹ÙĬ
ĠØ§Ø± ØªÙĥ
39 2
ĠØ§ÙĦØ£Ø¯ Ø¨ÙĬØ©
ĠW ord
S R
ĠØ§ÙĦÙĤØ· Ø§Ø¹Ø§Øª
ĠÙħÙĪ Ø§ÙģÙĤØ©
ĠØ¨ Ø®Ø¯ÙħØ©
ĠØ§ÙĦØ¨Ø±Øª Øº
ĠÙĪØªÙĨ ÙħÙĬØ©
ĠØªØ¯ ÙģØ¹
n Ø·Ø±ÙĤ
Ø§ÙĦ Ø°ÙĩØ¨
ĠØ§ÙĦØ´ÙĬ Ø¹Ø©
ĠO ff
Ø§Øª Ø
Ø§ØªØ §
nÙĪÙĤ Ø§ÙĦØª
I I
ĠÙĪØ§ÙĦÙħ Ø®
ØªØ±Ø§ØªÙĬØ¬ ÙĬ
ĠØ§ÙĦØº Ø±Ø¶
Ġïºį ï»Ł
998 78
ĠÙĪØ¢ ÙĦÙĩ
97 57
ĠÙĪØ£ ÙĩÙħ
ĠØ§ÙĦÙħØ· Ø§Ø¨Ø®
0 18
ĠÙĪÙĤ Ø¨ÙĦ
ĠØ§Ø³Øª ÙĦØ§Ùħ
ĠØ¹ÙĦ Ø¨Ø©
ĠÙħØª ÙħÙĬØ²Ø©
n Ø¨ÙĬ
( ){
ers ion
ĠØ§Ø¨ ÙĬ
7 75
aila ble
ĠS k
Ø¬ÙĪ ÙĩØ±Ø§Øª
J Q
ĠØ¥Ø¯ Ø§Ø±ÙĬØ©
ĠØ§ÙĦÙĪ Ø³ÙĬØ·
ÙħØ¦ Ø©
âĢ ĺ
ĠØ§ÙĦÙĦ ÙĤ
ĠÙĪØ± ÙģØ¹
ĠØ£Ùĥ ÙħÙĦ
\" );
ĠØ§ÙĦØµÙģ ØŃØ§Øª
998 38
834 1
ĠØ§ÙĦØ£ ØµØ¯ÙĤØ§Ø¡
ĠØ§ÙĦØ£ ÙĪÙĤØ§Øª
ĠØ§ÙĦØŃ ÙħÙĬØ¯
ĠØ´Ùĩ Ø±ÙĬ
ĠÙĨÙĬÙĪØ²ÙĬÙĦ ÙĨØ¯Ø§
ĠØ§ÙĦÙĨØ¨Ø§Øª ÙĬØ©
nØ£ ÙĬ
ĠØ¹ÙĦ ÙħØ§
ĠÙĬØ´ ÙĩØ¯
ĠØ§ÙĦØ´Ùĩ Ø±ÙĬ
Ġac count
nØ§ÙĦ ÙĥØ³Ø§Ø±Ø©
ĠØ´Ø¨ Ø§Ø·
( );
ĠÙħÙĥØª ÙĪØ¨Ø©
Ø§Ø´ ÙĬØ©
ĠØ³ÙĬ Ø§ÙĤ
ĠØ£ Ø´ÙĬØ§Ø¡
ĠÙħØ¯ Ø®ÙĦ
ĠÙĦÙĦØ¯ ÙĪÙĦØ©
ĠØ§ÙĦÙĪ ØŃØ¯Ø§Øª
ĠØ¯Ø§Ø® ÙĦÙĬ
98 58
997 04
Ùĥ Ùī
ĠØ§ÙĦÙĨØ¬ ÙĪÙħ
ĠØ§ÙĦÙģÙĬ Ø²ÙĬØ§Ø¡
S C
ĠØ§ÙĦÙħØ· Ø§Ø±
Ġ5 4
J V
ĠØ¨Ø£ ÙĤÙĦ
3 87
ĠÙĪØ§ÙĦ ÙĨÙĤ
ĠØ§ÙĦØ¬ Ø³ÙĬÙħØ§Øª
ĠÙĪØ§ÙĦÙħ Ø¬ØªÙħØ¹
ĠØ§ÙĦÙħØ³ÙĬ ØŃÙĬ
ĠØ±Ùĥ ÙĪØ¨
ĠØ§ÙĦØ³ÙĬÙĨ ÙħØ§
ĠØ§ÙĦÙĤØ¨ Ø¶
ĠÙħØ³Øª ÙĤÙĦØ©
ĠØ¬ ÙĪÙĩ
ØªÙģ Ù
ØªÙģÙ Ħ
ĠÙĪØ¢ ÙĦØ©
Ø¨Ø± Ø§ÙħØ¬
ĠÙģØ¹ÙĦ Ùĩ
ÙħØ± Ø§Øª
Ø¯ ÙĪÙĦØ§Ø±
ĠØ¯ ÙĦÙĪ
ÙģØ¹ Ø§ÙĦÙĬØ§Øª
on line
Ø§Ø¦ Ø³
Ġb ut
Ø±Ø§ØªÙĬØ¬ ÙĬØ©
ĠØ§ÙĦØ± ÙĪØ¨
ĠØ¨ÙĬ Ø¨ÙĬ
ÙĢ ÙĨ
Ġ u
ĠØ§ÙĦØ± Ø¨Ø¹
ĠÙĬØ³Øª ØŃÙĤ
ĠÙĦØ£ ØŃØ¯
ĠÙĩ Ø¬ÙĪÙħ
ĠØ§ÙĦØ¹ÙĤ Ø§Ø±ÙĬØ©
ĠØ§ÙĦÙĬØ¯ ÙĬÙĨ
ĠØ§ÙĦØ¹Ø¯ ÙĪ
ĠØ¨ÙĨ Ø¬Ø§ØŃ
ĠT er
ĠØ§ÙĦÙħØ¨Ø§ Ø´Ø±Ø©
ĠÙħØµ Ø§ÙĦØŃ
nÙĤ Ø¨ÙĦ
ĠÙĬ Ø´Ø§Ø±Ùĥ
ĠØ§ÙĦÙĪÙĤ Ø§ÙĬØ©
834 5
h er
ĠØ£Ø· ÙĤÙħ
9996 265
ĠØ§Ùħ Ø±ÙĬÙĥØ§
Ø· ÙĪØ¹
ØŃ ÙĪÙħ
ĠØ¨Ø· ÙĦØ¨
ĠØ¥ Ø·
ĠØ§ÙĦØ¬ ÙĩØ¯
Ġ ï¿½ï¿½
ĠØ³Ø± Ø·Ø§ÙĨ
ĠØ§ÙĦÙħÙĬØ² Ø§Øª
ĠØ¥ ÙĨØ³Ø§ÙĨ
Ø§Ø¶ Ùī
Ø¯ÙĬ ÙĩØ§
ØªØµ Ø§Ø¨
p re
ĠÙĨÙĤ ÙĪÙĦ
Ø§ÙĪ Ø¶
ĠÙĤ ÙĪÙħ
97 97
71 24
ĠÙģÙĬ ØªÙĨØ§Ùħ
ĠØ§ÙĦØº Ø±Ùģ
ĠÙĬÙĦ Ø¹Ø¨
Ø¨ Ø§ÙĤ
ĠØ´ ÙĩÙĪØ±
ÙĢÙĢÙĢÙĢ ÙĢÙĢÙĢ
ĠÙģ Ø§Ø·ÙħØ©
ĠØ§ÙĦØ³ Ø§ØŃÙĦ
nØ§ÙĦ ÙĪØ³ÙĪÙħ
ĠØ§ÙĦØ§Ùħ Ø§Ùħ
ĠÙħ Ø¨Ø¯
ĠI t
Ø§ÙĦÙĬ Ùĩ
ĠØ¬Ø± Ùī
ĠØª Ø§ÙħØ±
ĠÙĪØ§ÙĦ Ø«ÙĤ
ĠØ§ÙĦØ¯ ÙĨ
ĠÙħØ´ ØºÙĦ
ĠÙĪØ§ÙĦ ØŃÙħØ¯
Ġ20 02
ĠØ§ÙĦØ¨ Ø¯ÙĬÙĦ
ĠE uro
ĠØ§ÙĦØ¯ ÙĪØ§Ø¬ÙĨ
Ø«ÙĦØ§Ø« Ø§Ø¡
31 0
ĠÙĪÙĤ Ø§ÙĦØª
nØ§ÙĦØŃ Ø¯ÙĬØ¯
ĠÙĥØ±ÙĪ ÙĬØ©
ĠØªÙĤ Ø¨ÙĦ
Ø¦ Ø°
ĠÙĪ ÙĪÙĦ
ĠØ§ÙĦØ¢ Ø¬ÙĦØ©
4 85
Ø§Ø¹Ø¯ Ùĥ
o te
ĠØ§ÙĦÙĥ ÙĨØ¨
ĠÙģØ± ÙĤØ©
ĠØ¹ Ø§ØµÙħØ©
ĠØ® Ø³Ø§Ø±Ø©
B X
ĠØ³ Ø§Ø¨ÙĤØ©
ranÃ§ ais
98 06
ra ph
ĠØ§ÙĦØµ Ø§Ø¯Ø±Ø©
ØµÙĨ Ø§Ùģ
66 3
Ø±ÙĬÙģ ÙĩØ§
Ġ20 01
ĠÙĤ Ø±ÙĬØ¨Ø§
Ø§Ø¬ Ø¹Ø§Øª
F Y
98 25
ĠØ§ÙĦØ£ÙĦ ÙħÙĨÙĬÙĪÙħ
ĠØ§ÙĦØªÙĨ ÙģØ³
Ħ ÙĨ
ĠØ°Ø§Øª ÙĬØ©
ĠÙĪÙħ ÙĪØ§Ø¯
Ø·ÙĦ Ø¨Ø©
ĠØ§ÙĦØ¬Ùħ Ø§Ø¹Ø©
ĠØªÙĩ ØªÙħ
997 14
ĠØ¨Ø§Ø± ÙĥØ±
ĠØ§ÙĦØ¹ Ø´
ĠF ind
ĠÙħØ¹ ØªÙħØ¯Ø©
Q u
997 9
u te
ĠÙĪØª ÙĤØ¯Ùħ
ty le
ĠÙĤØ¯Ùħ Øª
ĠØ¨ Ø§ÙĤ
Ø´Ø± Ø¨
ĠØ§ÙĦØ³ Ø¬ÙĨ
nØ§ÙĦÙħ Ø¹
ĠØ§ÙĦØ¨ÙĨ Ø§Øª
ubl ic
Ø§Øµ Ø¯
ĠÙĦØº Ø§Øª
ĠØ§ÙĦÙħØª ÙħÙĬØ²
ĠS am
ĠØ¨ÙĨ Øº
nÙħØŃ Ø¬Ø±
la n
ĠØ§ÙĦ ÙĦÙĬÙħÙĪÙĨ
Ø±ÙĪ ÙĬØ©
98 04
Ø¨ Ùī
ØµØŃ Ø§ÙģØ©
Ġv ar
ĠÙĥØ« Ø§ÙģØ©
ook s
ĠØ´Ø®Øµ ÙĬ
Ø³ ÙĪØ§Ø±Ø§Øª
ĠØ§ÙĦØ¹ Ø¸Ùħ
ÙĦØ³Ø· ÙĬÙĨ
ĠØ§ÙĦÙħ Ø´ÙĬ
ĠØŃ Ø±ÙĬ
Ġ1 24
Ø± Ø§Ø¹
ĠÙĦÙħ Ø¬ÙħÙĪØ¹Ø©
ĠØ¶ Ø±ÙĬØ¨Ø©
ĠÙħØµ ÙħÙħ
Ùĩ Ø§Ø¨ÙĬ
Ø§ÙĦÙĥ Ø±Ø©
ĠÙĪØ§ÙĦØ¯ Ø¹Ùħ
ĠA s
ĠÙħØª ÙģØ±
Ø¨ØŃ Ø±ÙĬÙĨ
ĠÙħØ±Ùĥ Ø²ÙĬ
ĠØ§ÙĦØ± Ø§Ø¦Ø¹
Ø¸ ÙĦØ§Øª
ĠØ¯ ÙĬÙĨÙĬØ©
Ġf eat
Ø¬Ø¨ ÙĨÙĬ
ĠÙħØ¤ Ø³Ø³
ĠØ³ ÙĨÙĬÙĥØ±Ø²
ĠÙħÙģ Ø§Ø¬
ĠØ§ÙĦÙĤ Ø§Ø¯Ø±
ĠÙĦÙĦ Ø³ÙĦ
ĠØ£Ø³ Ø±Ø©
ĠM et
ÙĬØ³ Ø±
n Ø¨ÙĦ
Ġh d
ĠØ§ÙĦØ§Ø³ ÙĥÙĨØ¯Ø±ÙĬØ©
ĠØ§ÙĦÙģ Ø§Ø¦ÙĤØ©
ĠØ§ÙĦØ·Ø¨ Ø®
ĠÙħØ± Ø´ØŃ
ÙĪØ§ Ø¯ÙĬ
ĠØ§ÙĦØ§Ùħ Ø±
ĠØ§ÙĦØ³ ÙģÙĬØ±
Ø¹ÙĬ Ø§Ø¯
ĠÙĥ Ø³Ø¨
ba ck
ĠØ¨ Ø§ÙĪØ±
ĠØ§ÙĦÙĪØ« Ø§Ø¦ÙĤ
ĠÙĬØ¯ ÙĪÙĬØ©
Ġ 86
ĠÙģÙĩ ÙĨØ§Ùĥ
Ġ{ {
ĠØ§ÙĦØ§Ùħ ØªØŃØ§ÙĨØ§Øª
Ù ĦÙĨ
ĠØ§ÙĦÙħ Ø¶Ø§ÙģØ©
ĠØ§ÙĦÙħØŃ Ø±Ø±
le gram
ĠØ§ÙĦØ¬ÙĨ ÙĪØ¨ÙĬ
n ØµÙĨØ§Ø¹Ø©
ĠÙħØª Ø¹
ĠÙģÙĬØ¯ÙĬÙĪ ÙĩØ§Øª
Ø´ Ø§ÙĨ
99745 46
ĠÙħØ® Ù
ĠÙħØ®Ù Ħ
i um
996 95
ĠØ§ÙĦØªØŃ ÙĪÙĦ
ĠØªØº ÙĦÙĬÙģ
N L
Ø´Ø± ÙĬØ©
4 04
999 845
ĠØ§ÙĦØ¶ ÙĬ
Ø´ ÙĬØ¨Ø§
ĠØ§ÙĦØ¥ÙĦØ²Ø§Ùħ ÙĬØ©
ĠÙĦØŃ Ù
ĠÙĦØŃÙ Ħ
ÙħÙĬ Øª
Ø§ÙĥØ± ØªØ§
Ñ ħ
994 0
ĠÙĪØ£ Ø¬
ĠÙħÙĪ Ø§Ø¹ÙĬØ¯
ĠÙĬØ±Ø¬ Ø¹
Ġ5 2
97 49
AD F
ĠØ§ÙĦØ¶ ÙģØ©
ĠØªØ¤ ÙĥØ¯
nØ£ ÙĩÙħ
ĠÙģ Ø®
ĠØŃÙħ Ø¶
ĠØ§ÙĦØ¬Ø§Ùĩ Ø²Ø©
996 96
ĠØ§ÙĦÙĤ ÙĪÙħÙĬØ©
ĠCre ators
nØ£ ÙĥØ«Ø±
ĠØ¨Ø§Ø¨ Ø
ĠØ¨Ø§Ø¨Ø §
Ø´Ø± Ø²
ĠØªÙĪ Ø§Ø¬Ø¯
31 14
ĠW orld
ĠØ¨ Ø®ÙĦ
ĠØ£ÙĨ ÙĨÙĬ
ĠØ£Ø± Ø®Øµ
97 67
ÙĬÙĨ Ø§ÙĦ
face book
ĠÙĦØª Øµ
n ÙĩÙĬ
ÙĨ Ø§Ùħ
Ġin d
996 15
ĠØ¥ÙĨ Ø´
Ø±Ø¨Ø¹ Ø§Ø¡
K K
ĠØ§ÙĦØ¥ ÙĬØ¬Ø§Ø±
ĠØ§ÙĦØ£ÙĨ Ø¨ÙĬØ§Ø¡
ĠØ§ÙĦÙħØ®ØªØµ Ø©
nØ§ÙĦØ§ÙĨ ØªÙĤØ§ÙĦ
ĠØ§ÙĦØ¥ Ø¬ÙħØ§ÙĦÙĬØ©
Ø§ÙĦ ØªÙĩ
ĠÙĥ ÙĨØ²
N R
ĠØ§ÙĦØ¯ Ø±ÙĪØ³
ĠØ§ÙĦØŃÙĥ ÙĪÙħÙĬ
ĠÙĤ Øª
ĠÙĪØ§ØŃØ¯ Ø
ĠÙĪØ§ØŃØ¯Ø §
ĠØ§Ø³Øª Ø´Ø§Ø±Ø©
ĠØ§ÙĦØ¨ Ø®Ø§Ø±
0000 004
ØªØ¹ ÙĦÙħ
upp ort
T A
ro ll
ĠÙħØ¹ ØªÙħØ¯
ĠØ£ÙĪ Øº
ĠÙĤØ§ÙĦ ÙĪØ§
Ø¯Ùħ Ø§ÙĨ
ÙĪØ¬ Ø§Ø±Ø§Øª
ĠØ® Ø¯
Ø¶ Ø±ÙĪØ§Øª
997 54
ĠÙĦØŃ Ø³Ø§Ø¨
Ø¸ Ø±Ø©
ĠÙħØ¨ÙĬØ¹ Ø
ĠÙħØ¨ÙĬØ¹Ø §
nÙĬØ¹ ØªØ¨Ø±
8 93
ĠØŃ ÙĦÙĬØ¨
ÙĤ ÙĪØ¨
97 94
U G
ĠØªÙĨ ÙģÙĬ
ĠØ¹Ø¨ Ø§Ø¯
ĠØ¹ Ø¬ÙĦØ§Øª
ĠÙĥ Ø£ÙĨ
ma z
ĠØ§ÙĦØ´Ø¹ ÙĪØ¨
ĠØ£ Ø³ØªØ§Ø°
ĠØªÙħ ÙĥÙĬÙĨ
ØŃÙĬ ÙĪØ§ÙĨØ§Øª
97 55
ØŃÙħ ÙĪØ¯
ĠØ§ÙĦÙħØ± Ø§ÙĥØ²
Ø¯ÙĬØ¯ Ø§Øª
ĠØ¶Ø¹ ÙĬÙģ
ĠØ§Ø· ÙĦØ¹
ĠÙĦÙĦ ØªÙĪØ§ØµÙĦ
ĠØ¨Ø§ÙĦ ØªØ±
98 50
ĠØ§ÙĦØªÙĤ Ø§Ø±ÙĬØ±
05 77
ÙĪØ§Ùģ Ø°
com e
ĠØ§ÙĦÙħ Ø¯ÙĬÙĨ
ĠØ§ÙĦÙħ ÙĪØ³
ĠØ¥ ÙĬÙħØ§ÙĨ
ÙĪ ÙĦÙī
ĠØ§ÙĨ Ùĥ
ĠØª Ø·ÙĦØ¨
ĠÙģÙĬ ÙĦØ§
ĠØ§ÙĦÙħÙĥ ÙĬÙģØ§Øª
ĠØ¬ ÙĬÙħ
ĠÙĪØ§ÙĦÙĨ Ø´Ø±
4 56
39 1
ĠÙĨÙĪØ¹ ÙĩØ§
pec ial
ĠØµ Ø§Ø¯ÙĤ
ĠØ§Øª ØµØ§ÙĦØ§Øª
4 86
p ap
Ø§ÙĨ ÙĥØ§
v ent
Ø³Øª ÙħØ±
ĠÙħÙĨØ§Ùģ Ø³Ø§Øª
ĠØ§ÙĦÙĦ ØŃÙħ
ĠØµØ¯ ÙĪØ±
ĠØ§ÙĦØ¨Ø± ÙĬØ©
ĠØ§ÙĦØ£ Ø¬Ø²Ø§Ø¡
ĠØ®Ø¯ÙħØ§Øª ÙĨØ§
ĠØ§ÙĦØ±Øº Ø¨Ø©
ĠØ§ÙĦØµ ÙĪÙĬØ§
ÙĬÙĨ ÙħØ§
ÙĬØª Ø§Øª
ĠØ°ÙĥØ± Ùĩ
ĠØ§ÙĦØ¹ Ø§Ø·
99 993
ĠØ§ÙĦÙħÙĨØ´ ÙĪØ±Ø©
98 21
ĠØ§ÙĦØ¹ÙħØ§ÙĦ Ø©
Ġ 77
ĠØ¨Ø§ÙĦ ØªÙĪ
war e
ĠØ§ÙĦØ³ÙĨ ÙĪÙĬØ©
8 12
ĠØ§ÙĦØ´Ø± Ø¹ÙĬ
997 90
ÙĪÙĤ ÙĬØ©
Ø·Ø± Ø¯
Ø¬Ø§Ø² Ø©
U Q
Ùĥ Ø³ÙĬ
ĠØ§ÙĦØŃ Ø§ÙĥÙħ
ĠÙĪØª Ùĩ
ĠØ§ÙĦÙĨ ÙĤØ±
Ø®Ùģ Ø§Ø¡
ÙħÙĩ ÙĪØ±ÙĬ
ĠØŃ ØµØ©
998 19
ĠØ§ÙĦØ§Øª ØŃ
lo bal
ĠØ§Ø« ÙĨØ§Ø¡
ĠÙĦÙĦ Ø´Ø±Ø§Ø¡
ĠØ¨ Ø¹ÙĬÙĨ
G et
ĠØ§ÙĦØªÙĨÙģÙĬ Ø°ÙĬØ©
ĠØ§ÙĦØ· Ø±Ø¯
996 84
ĠÙĤ ÙĬØ±
ĠØ£ Ø¹Ùħ
ĠØ¨Ø±ÙĬ ÙħÙĬÙĪÙħ
ÙĥØ± Ø±Ø©
I Q
ĠC ar
Ø¬Ø¨ Ø³
ĠÙģ Ø§ÙĦÙħ
Ø« ÙĬÙģ
Ġ144 4
n Ø¹ÙĦØ§Ø¬
ĠØ¥Ø³Øª Ø®Ø¯Ø§Ùħ
ĠØ§ÙĦÙħØ³ÙĬ ØŃÙĬØ©
Ġs ale
nB y
Ø¦ Ø±Ø§ÙĨ
ĠÙĥØ´Ùģ Øª
Ø«ÙĦØ§Ø« Ø©
ĠÙĤØ± Ø±Øª
ĠØŃ ØµÙī
ĠG u
ĠÙĬ ØªÙĪÙģØ±
Ø¸ ÙĨ
nÙĤ ØµØ©
ĠÙĪ Ø®Ø¯ÙħØ©
ĠØ´ÙĬØ± ØªØ§Øª
ĠÙħ Ø·Ø¨
S h
Ġ1 60
ĠØ§ÙĦÙĥÙĬÙħÙĬ Ø§Ø¡
\ ":[
Ġp h
ĠØ¨ÙĦ Ø¯Ø©
966 2562
ĠÙĬÙĤ Ø¨ÙĦ
5 31
c ent
Ø¬Ùħ Ø§Ø¹Ø©
ĠØ§ÙĦÙħ Ø®ÙĦ
ĠØ§ÙĦØ¹ ÙĤÙĬØ¯Ø©
ĠØ¹ÙĦ Ø§Ø¡
ĠÙĪÙĥ ÙħØ§
3 97
ĠØ£ Ø¶Ø±Ø§Ø±
ĠØ§ÙĦØ£Ùĥ Ø§Ø¯ÙĬÙħÙĬØ©
Ùħ Ø³ÙĦØ³ÙĦ
ĠÙħØ´ ØªØ±ÙĥØ©
ĠØ¨ ØºÙĬØ±
Ø® ÙĨ
ĠØ§ÙĦØ³ÙĬÙĦÙĬ ÙĥÙĪÙĨ
ĠÙħØ¹ Ø§Ø±Ø¶
ĠØµÙģ ÙĤØ§Øª
ĠØ§ÙĦØ¨ÙĬ Ø¦ÙĬ
ÙħÙĬ Ø§Ø·
J P
ĠÙĦØŃ Ø§Ùħ
Ø¹ Ø§ÙĨØ©
20 09
ĠÙĪØ¨Ø¯ ÙĪÙĨ
89 31
ĠÙĪÙħ Ø¹Ø±ÙģØ©
ĠÙĦ ÙħÙĦ
ĠØ§ÙĦÙĤ Ø§Ø¨ÙĦØ©
Ùħ Øµ
nØ§ÙĦØªØ¹ ÙĦÙĬÙĤ
ĠØ§ÙĦÙħØ± Ø§ÙĤØ¨Ø©
ĠØŃ Ø±ÙĤ
Ø§ÙĨ Ø§Ø©
ĠØ£ Ø¨Ø§
ĠØ¹ÙĨ Ø¯ÙĬ
ĠØ§ÙĦÙģ Ø§Ø±
ØªØ± ÙĪÙĨ
] ØĮ
Øª Ø¬
ĠØ§ÙĦØ¯Ø¹ Ø§Ø¡
nÙĪÙĦ ÙĥÙĨ
ĠÙĦØªÙĨ Ø¸ÙĬÙģ
ĠT V
sp a
ĠÙĬÙħÙĥÙĨ ÙĩØ§
ĠØ§ÙĦØ¨ÙĦ Ø¯ÙĬÙĨ
ĠØµ ÙģØ±
Ø² Ø§ÙĬØ¯
ĠÙĦÙħ Ø¬ÙĦØ³
ĠÙĪ Ø§Ø«
996 35
ĠØ®Ø§Øµ ÙĬØ©
19 0
ĠØ§ÙĦÙħØµØ± ÙģÙĬ
ĠØµ ÙģØ§Øª
ĠØ§ÙĦÙģ ÙĦØ³ÙģØ©
ĠØ£ÙĪ Ø¶ØŃ
ĠâĢ¢ âĤªâĢ¢
ĠT o
Ø£ Ø®Ø±
ĠØªÙĩ ÙĨØ¦Ø©
nØ§ÙĦÙĤ Ø§Ø¦ÙħØ©
s mall
ĠØŃÙĬ ÙĪØ§ÙĨ
Ø¨Ø± Ø¬
Øª ÙĤÙĬ
ĠÙĪ Ø¹Ø±Ø¶
Ġ q
â Ļ
ĠØ§ÙĦÙĤ ÙĦÙĬÙĦ
ĠØ¯ Ø§Ø¹Ø´
ØªØ± Ø§Ø¹
nÙħ ÙĪØ±Ø¯
ĠN ov
ĠØ¬ ÙĪØ§ÙĨØ¨
Ø±ÙĪ Ø§ØŃ
nØ§ÙĦØ£ Ø±Ø´ÙĬÙģ
ĠØ§ÙĦÙħ Ø¨Ø±
ĠØ§ÙĦÙħØ·Ø¨ ÙĪØ¹Ø©
ĠØ¨Ùħ Ø´Ø§Ø±ÙĥØ©
Ø£ Ø®Ø°
ĠØ§ÙĦÙħÙĨ ØŃ
ĠDe velop
ĠÙħ Ø§Ùĩ
ĠØ® Ø¨Ø«
ĠØ§ÙĦØ³Ø¹ÙĪØ¯ÙĬ Ùĩ
ĠØ³ ÙħÙĪ
ĠÙĪØ§ÙĦÙħ Ø¹ÙĦÙĪÙħØ§Øª
ĠÙĦØª ÙĦØ¨ÙĬØ©
ĠØ§ÙĦØ³ÙĬ Ø§ÙĤ
Ø§Ø¯ÙĬ ÙĪ
v est
ĠØ¥ Ø®Ø±Ø§Ø¬
ĠÙĦÙĬÙĨ ÙĥØ¯
ĠØ¯ÙĬ Ø²
nØŃ Ø²Ø§Ùħ
ÙĪ ÙĩØ±Ø§Øª
nÙħ Ø§Ø±Ø³
ĠØ§ÙĦÙģ ÙĬØª
3 84
Ġ1 30
ĠÙĦÙĦØª Ø®ÙĦØµ
ĠÙĪÙĨ ØµÙģ
Ġan y
ĠÙħØ¯ÙĬØ± ÙĬØ©
ĠÙĦÙħ Ø´
ĠØ§Ùģ Ø±
ĠÙĦÙĦ ÙĪØ¬Ùĩ
ĠÙħ Ø¬Ø±
E O
ĠØ§ÙĦÙĪØŃÙĬ Ø¯Ø©
nØ§ÙĦ Ø«
Ġm ining
ĠÙĪ ÙĬØ¤
nÙĪØ² ÙĬØ±
ĠØ§ÙĦØ§Ø® ØªØ¨Ø§Ø±Ø§Øª
ÙĬØ¹ Ø§Ø¨
ĠØ§ÙĦØ± ÙĪØ§Ø¨Ø·
n Ø§Ø¨ØŃØ«
ÙĪÙĨØ³ ÙĬØ©
... .\
sh op
F T
ĠØ§ÙĦÙħ ØªÙħ
Ø¶ Ø±Ø¨
] .
ĠØ§ÙĦÙħØ¹ Ø§ÙħÙĦØ§Øª
ĠÙĪØ³ Ø±
998 93
ĠØ² ÙħØ§ÙĨ
Ġs tar
ĠØ§ÙĦÙĬ ÙĪØ±ÙĪ
ĠÙĦ Ø®Ø·
A Q
ĠØ§ÙĦØ£ØŃÙĬ Ø§Ø¡
ĠØ§ÙĦØ£ ÙĦÙģ
§Ø§Ø §Ø§Ø
ĠØ¨Ø¨ Ø¬ÙĬ
Ø§Ø± Ø¶Ø©
C lass
s l
ĠØ§ÙĦØŃ ÙĦÙĤ
996 44
ĠØ§ÙĦØ¨ÙĦ Ø§Ø³ØªÙĬÙĥÙĬØ©
Ø¹ ÙĦÙĥ
7 94
Ø§Ø³ ÙĬØ§
ĠØ§ÙĦØ¥ Ø·Ø§Ø±Ø§Øª
ĠØ§ÙĦÙĥ Ø¨Ø§Ø±
s y
998 18
ĠØ§ÙĦÙħ Ø¦Ø©
998 48
3 85
ØªÙĤ Ø§Ø¯
ĠÙģÙĬ Ø±
ĠØ§ÙĦÙĪÙĥ Ø§ÙĦØ©
D L
ĠØ§Øµ Ø¨ØŃ
ĠØ§ÙĦØªÙĪ ØªØ±
nin quiry
ĠÙħØŃØ§ÙģØ¸ Ø§Øª
ĠØ§ÙĦÙħ Ø¯Ø©
D R
996 76
ĠÙĪØ³ ÙĪÙĬØª
ĠÙħØµ Ø·ÙĦØŃ
ĠØ£Ùħ Ø§ÙĨ
ĠØ§ÙĦÙĩØ§ Ø´
ĠÙĦÙħØ³Ø§Ø¹Ø¯ ØªÙĥ
ĠØ¨ÙĤÙĬ Ø§Ø¯Ø©
ĠÙĪØ§ÙĦ Ø¬Ø±
ĠØŃÙħ Ø§ÙħØ§Øª
ĠØ§ÙĦØªÙĤ ÙĪÙĬÙħ
ĠU s
8 08
ĠØ§ÙĦØªÙĨ ÙĤÙĬØ¨
ĠÙħÙĦ ØŃÙĪ
ĠÙĦØ¥ Ø²Ø§ÙĦØ©
ĠÙĪØ¹ ÙĬÙĪØ¨
ÙĪØ§Ùĥ Ø¨
96 956
ï» ®
= âĢĿ
ĠØ§ÙĦÙĤÙĬ Ø§ÙħØ©
ĠØ§ÙĦØ¶Ø± Ø§Ø¦Ø¨
Ø³ÙĬ ÙħØ©
ĠØĮ \
ĠØ¹Ø§Ø¦ Ø´Ø©
Ø¨ØŃ Ø±
Ø¯ÙĬ Ùģ
v o
3 96
n Ø±ÙĬÙħ
m y
ĠÙĪ Ø§Ø¬Ùĩ
ĠØ§ÙĦØª ÙĦÙģØ²ÙĬÙĪÙĨ
ĠÙĦÙĦ Ø§ØŃ
ĠØ§ÙĦØ¬ ÙħÙĬÙĦ
nØ¥ ÙĨØªØ§Ø¬
ĠÙģ ÙĦÙĬ
Ġd u
ĠØ§ÙĦØŃØ¶ Ø§Ø±Ø©
li ve
N T
ĠØ± ØµØ¯
ĠØ¹ Ø²ÙĬØ²
Ø® ÙĬØ±Ø©
nØ§Ø¶ ØºØ·
ĠÙĪØ§ÙĦ ÙĬ
ĠØ· ÙĬØ¨
ĠÙħØŃØ¯ ÙĪØ¯
ĠØ¥ ÙĬÙĤØ§Ùģ
ĠØ§ÙĦÙħØ¹ Ø§ØµØ±
ĠÙĥØ§Ø² Ø§Ø®Ø³ØªØ§ÙĨ
ĠØµÙĦ Ø§ØŃÙĬØ©
ĠØ§ÙĦÙħØ¨ Ø§Ø¯Ø±Ø©
ĠÙĩÙĪ Ø¯ÙĬØ§Øª
ĠÙħÙĪ Ø§ÙĦÙĬØ¯
} \
9831 311
ĠØªØª Ø¹Ø±Ø¶
ĠO ct
996 85
L ive
ĠÙĪÙĥ Ø£ÙĨ
Ùĥ ÙĬØ§
ĠÙħÙĪ Ø§ÙĤÙģ
ĠØŃ Ø§ÙģØ¸
ĠØ´ÙħØ³ ÙĬØ©
Ø§Øª Ø°Ø©
ĠØ§ÙĦØ§Ø³Øª Ø«ÙħØ§Ø±Ø§Øª
n ew
ind ia
ĠØ§ÙĦÙĦØŃ ÙĪÙħ
Ø¢ Ù
Ø§Ùĥ Ø³ÙĬ
ĠÙĬ ÙĦØª
ĠÙģÙĦ ÙĨ
ĠÙĤ ÙĦÙĤ
ÙĪÙĦÙĬ Ø§Øª
ĠÙħØªÙĥ Ø§ÙħÙĦØ©
Ø§Ùĥ Ø§Ø©
ĠØ§ÙĦØ£ ÙĨØª
ĠØ· Ø§ÙĪÙĦØ©
ĠÙħ Ø§Ø¬Ø³ØªÙĬØ±
4 47
ĠÙĪ Ø³Ùħ
ĠØ® ÙĦØ§
ĠØ§ÙĦØªØ·Ø¨ÙĬÙĤ ÙĬØ©
Ùħ ÙĪÙĤØ¹
Ø¹ Ø·
ĠØ¥Ø³ÙĦØ§Ùħ ÙĬØ©
ĠØ¹ÙħÙĦ ÙĩØ§
ĠØ§Ø´ ÙĩØ±
ĠØ¨Ø§ÙĦÙħ ØºØ±Ø¨
ĠØ£ÙĪÙĦ ÙĬØ©
Ø§Ø¦ ÙĥØ©
ĠÙĪ Ø¨Ø¯Ø£
lo s
ĠA ir
ĠÙħ Ø¨ÙĬØ¯Ø§Øª
Ġbe en
ĠØ¨ÙĪ ÙĬÙĨØª
c z
ĠÙĬ ÙĩØ¯Ùģ
ĠØ§ÙĨÙģ Ø¬Ø§Ø±
ØŃÙĬ Ø§Øª
ĠØµ Ø¹Ø¨Ø©
ĠØ§ÙĦÙħØª ÙħÙĬØ²Ø©
ĠØ§ÙĦØ´Ø§Ùģ Ø¹ÙĬ
Ø®Øµ ÙĪÙħØ§Øª
996 56
ĠØ§ÙĦÙħ Ø¨Ø¯
Ø®Øµ ÙĬØµ
ĠØµ ÙģØ©
ce mber
Ø¨ ÙĬØ±Ø©
ĠØ§ÙĦØ£ ÙĨØ³
ÙģØª Ø§Ø¡
ĠÙĪØ§ÙĦ Ø¨ÙĦ
nØªÙĩ ØªØ²
Ø³ÙĬØ· Ø±Ø©
ĠØ¨Ø§ÙĦ Ø¶Ø±ÙĪØ±Ø©
Øµ ÙĦÙī
ĠÙħÙĤØ¯ Ø§Ø±
ĠØ§ÙĦÙħØ´ ÙĩØ¯
i ews
ĠØª ÙĦÙĬÙģ
ĠØ§ÙĦØª ÙĦÙģ
âĢ¦ ","
Ġm esin
ĠÙĥØª Ø§ÙĦÙĪØ¬
ĠÙģ Ø¦Ø§Øª
Ù Ķ
ĠP ower
ĠÙħØ¬ Ø§Ø±ÙĬ
Ø³Ø± Ø·Ø§ÙĨ
nÙĬ Ø¹Ø¯
ĠØ¯ÙĪ Ø§Ø±Ø©
ĠØ¬ Ø§ÙĥØ±ØªØ§
ĠØ§ÙĦØ£Ø´ ÙĩØ±
Ø¬Ø² ÙĬØ±Ø©
ur ing
ÙĪØ³ Ø§Ø¦ÙĦ
ĠØ§ÙĦØ¨ Ø§ÙĦ
ĠØ² Ø§ÙĦ
ĠâĢĭ âĢĭ
nØ£ Ø¹ÙĦÙī
S Y
ĠØ§ÙĦÙħØ³Øª Ø¹ÙħÙĦ
umb lr
nÙĨ ÙħÙĪØ°Ø¬
ĠØ§ÙĦÙĦÙĬ Ø²Ø±
ÙĪÙĦÙĪØ¬ ÙĬ
ĠØ§ÙĦÙĤ ÙħØ©
Ø¸ Ø§ÙģØ©
ĠØªØ¹ Ø·ÙĬ
ĠØªØª Ø¬Ø§ÙĪØ²
nØ£ ØºØ³Ø·Ø³
Ø¨Ø§ØŃ ÙĬØ©
ĠØ°ÙĥØ± Øª
ĠØ§ÙĦØ· ÙĪØ§Ø±Ø¦
ĠM ag
b ut
ĠØ¨ ØªØµ
ĠØªØµ ØŃÙĬØŃ
ĠØ§ÙĦØ¹ Ø±
ĠØ¨ ØªØµÙħÙĬÙħ
n Ø³ÙĦØ³ÙĦØ©
ÙģØ³ Ø±
97 85
ĠÙħÙĪ Ø¶
ĠØ§ÙĦÙģ ÙĨØ¯ÙĤ
Ġm ak
ĠØ§ÙĦØ£ Ø®Ø·Ø§Ø¡
ĠØ¨ Ø¨Ø·
ĠØ± ÙĪÙĬ
ĠØ¬ Ø§Ø¦ØŃØ©
ĠØ³Øª Ø§Ø¦Ø±
ÙĤØ± Ø§Ø±Ø§Øª
S P
5 95
5 38
ĠØ§ÙĦØªÙĨ ÙĤÙĦ
Ġ 57
il i
ĠØ¨ÙĦ ÙĪ
ĠØ§ÙĦØ¨ ÙĦØ§Ø·
630 26
ÙĪÙĤ Ø¯
71 04
ĠÙħØ¬ Ø¯Ø¯Ø§
ĠØ§ÙĦØµ Ø¹ÙĬØ¯
ĠØªÙĨØª ÙĩÙĬ
999 12
ĠØ§ÙĦÙħ Ø§Ø¬Ø³ØªÙĬØ±
G C
ĠØ§ÙĦØ¯ÙĪ ØŃØ©
ĠØ¨Ø¯ ÙĪØ±
ĠØ§ÙĦØ¹ Ø§Ø´Ø±Ø©
B K
ĠÙħ ØªÙħ
if e
ĠØ¬ ÙĪØ±Ø¯
ĠÙĤ Ùģ
nÙħÙĪ Ø§ÙĤØ¹
ĠØª ÙĤÙĬ
ĠØ§ÙĨØª Ø®Ø§Ø¨Ø§Øª
ĠØ§ÙĦÙħØ± Ø´ØŃ
ĠØ³ ØŃØ±
nØª ÙĥÙĨÙĪÙĦÙĪØ¬ÙĬØ§
Ø¢Ù Ħ
Ø§Ø· Ø³
4 23
ĠÙħ Ø·ØŃÙĨ
Ø§Ùħ ÙĪØ³
996 87
ĠÙħÙĪØª ÙĪØ±
ĠØ§ÙĦØ¥ Ø¨Ø¯
Ø±ÙĪ ØŃØ©
Ø§ÙĬ Ø³
F H
ĠØ§ÙĦÙħ Ø¯Ùħ
9747 84
ĠØ³ÙĨ ÙĪÙĬ
land s
m as
ĠØ§Ø³ ÙħÙĬ
ĠÙĪØª Ø§Ø±ÙĬØ®
ĠÙĩ Ø§Ø±Ø¯
ĠØ§ÙĦÙħÙĨØ´ Ø¢Øª
ÙĪ Ø§ÙĦÙĬ
ĠØ§ÙĦØªØ® Ø²ÙĬÙĨ
998 28
nØ±Ø¯ ØŃØ°Ùģ
9245 868
Ġh ow
âĢ ĥ
20 23
ÙĪØ¨ ÙĬÙĨ
nÙģ ÙĩÙħ
ĠÙħØ± Ø§Ø¯
ÙĪØ¯Ø± ÙĨ
ĠÙĪÙĨ Ø´
98 22
ĠØ§ÙĦÙħ ÙģØ¶ÙĦ
97 76
ĠØ² ÙĪØ¬Ø©
ĠØ§ÙĦÙĨØ³ Ø§Ø¦ÙĬ
97 75
ĠÙħØŃ ØªØ±Ùģ
ĠØ§ÙĦÙĤ Ø§Ø¨
ĠØªØ¯ Ø¨Ø±
ĠÙĬØ´ Ø¨Ùĩ
p u
ĠØ¨ ÙħØ¯
90 974784
ĠT ra
ĠØ±ÙĤÙħ ÙĬØ©
ĠÙĥØ§Ø± ÙĨØ§Øª
Ġp ublish
ĠØªØ´ ÙĥÙĬÙĦØ©
ĠÙħØ¨ Ø§ÙĦØº
ĠØ§ÙĦÙĨØ³ Ø®
ĠØ³Ùħ Ùĥ
ĠÙĦØ§ØŃ ÙĤ
ĠÙħØ± ØªÙĬÙĨ
ĠÙħØ® ØªØµØ±
ĠØ§ÙĦÙĤ Ø³
ĠÙĪ Ø§ÙĨØ§
ĠÙĨØ³ ÙħØ©
ĠÙĦØ§Ø³ØªØ®Ø¯Ø§Ùħ ÙĩØ§
ĠØ§ÙĦØ¨ ÙĥØ§ÙĦ
ĠØº ÙĪØ¬Ø§Ø±Ø§Øª
ĠÙĪ Ø¸ÙĬÙģ
ĠØŃÙĬ Ø§ØªÙĨØ§
ĠØ· ÙĬØ¨Ø©
Ø§ÙĦ ØªØŃ
ĠÙħØ¶ Øª
ĠØ§ÙĦ ÙĪØ¯
t ic
ĠØ§ÙĦÙħ Ø³ÙĦ
N W
ĠØ§ÙĦÙħØŃ ÙĪØ±ÙĬØ©
ĠÙĪØ³ÙĬ ØªÙħ
] ,
ÙĪÙĤ Ø§ÙĬØ©
A Z
ÙĨ Ø¨Ø±
ĠØ§ÙĦØ±Ùħ Ø²
ĠÙĪ ØŃÙħ
ĠØ§ÙĦÙħØ± Ø³Ø§ÙĦ
ĠØ§ÙĦØ¹ Ø¬
Ø· ØŃØ©
ĠÙĪ Ø±ÙĬÙģÙĩØ§
h u
ĠØ§ÙĦÙĨØ¸ Ø§ÙģØ©
ĠØ¨ Ø³ÙĬ
ĠØ¨Ø§ÙĦ ÙĦÙĬØ²Ø±
ĠØ§ÙĦØ¬Ø± Ø§ÙģÙĬØª
ĠØ¬ Ø§Ùģ
ĠÙĥØ± ÙĬØ©
ĠØ·Ø¨ ÙĤØ§Øª
ĠØ§ÙĦØŃ Ø¸
ĠØ§ÙĦØª Ø¹Ø±Ø¶
ĠØ¥ ØªÙħØ§Ùħ
Ø·ÙĪØ§ÙĨ Ø§Øª
ĠØ§ÙĦØ£Ø³Ùħ Ø§Ùĥ
o la
Ø¦ Ø±
ÙĤ Ø§Ø¨
Ħ Ø²
Ø§Ø³Ùħ ÙĬÙĨ
Ù ĦØ²
ĠØ³ Ø
ĠØ· Ùĩ
ĠØ§ÙĦØŃ Ø±ÙĪÙģ
ĠØ§ÙĦØª Ø±ÙĪÙĬØ¬
ĠØ³Ø §
Ø±ÙĬ Ø¶Ø©
ĠApp le
Ø§Ø¦ ÙģØ©
nÙħ Ø¬ÙħÙĪØ¹Ø©
ĠØªØªÙħ Ø«ÙĦ
7 27
ÙģØ± Ø§ÙĨ
ĠØªØ£ ÙĦÙĬÙģ
ĠØª Ø§Ùħ
EB A
ÙĦØ§Ø¯ÙĬ Ø´
ĠØŃØ§Ùħ Ø¯
ĠØµÙģ ØŃ
re g
ĠØ¨Ø¹Ø¯ Ø¯
ØŃ ØµÙĦ
Ġ36 0
ØŃ ÙĬÙħ
Ø±Ùĥ Ùħ
ĠØ§Ø± ØªØ¨Ø§Ø·
ĠÙĪØ§ÙĦØŃ ÙģØ§Ø¸
ĠØªÙĪ Ø´ÙĬØ¨Ø§
ĠÙĦØªÙĨ ÙģÙĬØ°
Â ®
ĠØ¨ØŃØ± Ùģ
Ġc ar
ÙĢ ÙĬÙĢ
3 99
ĠØ§ÙĦØ§ÙħØ±ÙĬ ÙĥÙĬØ©
Ø§Ùģ Ø¦
Ø¢ ÙĥÙĦ
98 78
ĠØ§ÙĦØ¨ Ø§Ø±Ø¯
ÙĦØ§Øª Ø±
D M
ĠØ¨ Ø§Ø²
ĠØ§ÙĦÙĥ ÙĬ
ĠØº Ø·Ø§Ø¡
d ata
ĠØ§ÙĦÙĥØ§Ùħ ÙĬØ±Ø§
ĠÙĦ Ø¢Ø®Ø±
ĠØ´Ùĩ Ø±Ø©
ĠØ® ÙĦÙĬØ©
ĠØ¹ Ø²ÙĬØ²ÙĬ
367 114
ĠØ£ÙĪÙĦ Ø¦Ùĥ
ĠØ±Ø³ÙħÙĬ Ø
ĠØ±Ø³ÙħÙĬØ §
ĠØ§ÙĦØ¨ ÙĤØ¹
ÙĢ Ø¯
nØ§ÙĦ Ø³Ø§Ø¨ÙĤ
998 29
ĠØ´ÙĪØ±Øª Ø§Øª
ĠÙħØ³ ÙĬØ±Ø©
Ùħ Ø§Ø°Ø¬
ĠØ¯ÙĪØ± Ø
ĠØ¯ÙĪØ±Ø §
ĠØ¹ÙħØ± Ùĩ
ĠD etails
Ùģ ÙĪØ¹Ø§Øª
ĠØª Ø±Ø¨
ĠÙħ Ø°ÙĩÙĦØ©
Ġ2 20
ĠØ¬Ùħ Ø§Ø¯Ùī
63 2
7 46
ĠØ¨ Ø¹ÙħÙĦÙĬØ©
nÙĪØ£ ÙĪØ¶ØŃ
ĠÙĪÙĬ ÙĤÙĪÙĦ
Ġbe st
j s
ĠÙħØŃ ØªÙĪÙĬØ§Øª
ĠØªÙĤ Ø¯Ø±
ÙĪÙĤ ÙĬ
96956 83
ĠÙĬØª Ø³Ø¨Ø¨
0 21
99 01
ĠØ§ÙĦÙĥØªØ±ÙĪÙĨÙĬ WhatsApp
ĠØ§ÙĦÙĥ ÙĪÙĦ
ĠÙĦÙĦÙħ Ø´
ĠØ§ÙĦÙħØ¤ Ø´Ø±Ø§Øª
99 32
Ø·ÙĦ ÙĪØ¨
ĠÙĪØ£Ø³ Ø¹Ø§Ø±
al i
ĠØ§ÙĦØ£Ø´ ÙĥØ§ÙĦ
ĠÙħØ³Øª ÙĤÙĦ
Ø§ÙĦÙħ ØŃ
nØ¹ Ø¨Ø¯
98 883
Ø² ÙĪØ¬Ø©
ĠØ§ÙĦÙĩ Ø¬ÙĪÙħ
lo se
ĠÙĪ Ø§ÙģÙĤ
ÙĪ ÙĥØ©
ØªØ± Ø·
nC hat
ÑģÐº Ð¸
ĠN et
ĠØ£ÙĬ Ø¯ÙĬ
Ø· ÙĪÙĬ
\": {\"
nØ§ÙĦ Ø®Ø·
ĠÙħÙĪ Ø¶Ø©
ĠØ§ÙĦØ¨Ø±ÙĬØ¯ ÙĬØ©
ĠØ§ÙĦÙħØŃØ¯ Ø¯
ĠØ§ÙĦÙģ ØªÙĬØ§Øª
ĠÙĪØ´ ÙħØ§ÙĦ
ĠÙħØ§Ùĥ ÙĨØ©
ĠÙĪ ØµÙĪØ±
ĠØ§ÙĦÙģØ¹ Ø§ÙĦØ©
p le
Ø³ ÙĪÙħ
ĠØ§Ø® ØªÙĬ
ĠÙħÙĪ Ø±ÙĬØª
4 27
nØ§Ø´ ØªØ±Ùĥ
Ø§ÙĬ Ø´
ĠM e
ĠØ§ÙĦØ¥Ø³Ø¨ Ø§ÙĨÙĬØ©
0 13
ĠØ¬ ÙĬØ¬Ø§
ĠØ§ÙĦÙĥ Ø§ÙģÙĬ
ĠØ§ÙĦÙħ ÙħÙĦ
ĠØ§ÙĦØ§Ùĥ Øª
ĠØ¹Ùħ ÙĪÙħ
C BE
ÙĪÙĦØ§Øª Ø©
ÙĥÙĬ ÙħÙĬ
ĠØ¨Ø§ÙĦ ÙĪ
ĠØª ÙĪØ¯
ÙĪØ± Ø¯Ø©
999 01
ĠØ§ÙĦÙĥ ÙĪ
ĠØ® Ø§Ø¯Ùħ
0 23
ĠØ§ÙĦØ¨ Ø¶Ø§Ø¦Ø¹
ĠÙĪÙģ Ùī
ĠÙĨØ§Ø¬ ØŃØ©
ÙĨ ØŃÙĨ
Ø£Ùĥ ØªÙĪØ¨Ø±
ĠÙĦÙĦØª Ø£ÙĥØ¯
ĠÙħØ¹ Ø§ÙĨÙĬ
Ø£ Ø®Ø¨Ø§Ø±
ro l
Ø§ÙĬ ØªÙĩØ§
us e
ĠØ§ÙĦØ³ÙĬ Ø§Ø³Ø§Øª
ĠØ§ÙĦØ³Ùħ Ùĥ
ĠÙĪØ§ÙĦÙħ ÙĪÙĤØ¹
ĠÙħØ³Øª Ø®Ø¯ÙħÙĬ
Ø³ÙĬ Ùĩ
ĠØ± Ø§ØŃ
ĠH ow
ĠØ± ÙħÙĪØ²
× Ļ
997 88
ĠÙĬÙĤÙĪÙħ ÙĪÙĨ
Ø§Ø¬Ø¯ ÙĪÙĨ
Ø£ ÙĨØ§
ĠØ¨Ø´ Ø¯Ø©
ĠØ§ÙĦÙħØŃØ¯ Ø¯Ø©
ĠÙĪØºÙĬØ± ÙĩÙħ
996 37
ĠØªØ¯ Ø±ÙĬØ¨ÙĬØ©
nØ§ÙĦØªØ¹ ÙĦÙĬÙĤØ§Øª
ĠÙĪØ³ ÙĨ
ĠØ§ÙĦØ¥ÙĨØ³ Ø§ÙĨÙĬ
ĠØ§ÙĦØ³ÙĪØ±ÙĬ ÙĬÙĨ
ÙĦÙĬ ÙĩØ§
Ġo pt
al t
ĠØ§Ø¨ Ø¯
ĠÙģÙĬ ÙĩÙħ
ĠØ§Ø³Øª Ø¶Ø§ÙģØ©
ĠÙģ Ø§Ø²
ĠØ§ÙĦÙģØ¶ Ø§Ø¦ÙĬØ©
L R
ĠÙħØ¹ Ø§ÙħÙĦ
ĠØ§ÙĦØ¯ ÙĪØ±Ø§Øª
ĠØ§ÙĦØ£Ø±Ø¨ Ø¹Ø©
Ø§Ø¬ ÙĬÙĥ
63 98
ĠE gypt
Ġn e
Ø« ÙĬÙħ
ĠØ§ÙĦØªÙĤÙĦÙĬ Ø¯ÙĬ
ĠØ§ÙĦÙħØ± Ø§ÙģÙĤ
ĠØ§ÙĦÙħØ² Ø§ÙĬØ§
ĠØ§ÙĦØ£ØŃ Ø²Ø§Ø¨
ĠÙĥ ÙĬÙĨ
Ø±ÙĬ Ø®
nÙĩ ÙĪ
ÙĦØ ¤
) ","
Ùĭ Ùĳ
996 67
ĠØ§ÙĦØª ÙĪÙĨØ³ÙĬØ©
Ġ tech
ĠØµÙģ ÙĪÙģ
ĠØ¬ÙĦ Ø¯
ĠØ³ ÙĬØ³
ĠÙĦÙĦ Ø£ÙĨ
ĠÙĦØª Ø¬ÙĨØ¨
Ġus er
Ð ²
ĠÙĦÙĬ ÙĪÙħ
ĠÙĨ Ø±ØŃØ¨
ĠÙĦÙĦ ÙħÙĨØªØ¯Ùī
ĠØ§ÙĦÙħØµÙĨ Ùģ
ĠØ³ÙĦ Ø§ØŃ
ation s
l is
97 06
ĠÙĥÙĪØ± Ø³
ĠÙĥØ§Ø±ÙĨØ§Øª Ø§ÙĥØ§
Ùģ Ø¦Ø©
996 26
Ø¹Ø¨ Ø¦Ø©
ĠØ¹ Ø§Ø¦Ø¯
ĠÙ ł
ĠØ£ Ø¹Ø¯Ø§Ø¯
ĠØ£Ø¹ Ø¸Ùħ
ĠØ¨Ø£ ÙĥÙħÙĦ
Ġe quipment
ĠØ¥Ø¹ Ø·Ø§Ø¡
ĠÙħÙĪ Ø§Ø·ÙĨ
ĠØ¥ ØŃØµ
nØ§ÙĦØ® ÙħÙĬØ³
ĠØ§ÙĦØ£Ø¬ÙĨ Ø¨ÙĬ
ĠØ§ÙĦØ¬ÙĬØ² Ø§ÙĪÙĬ
998 69
ĠÙĪØ¬ Ø§Ø¡
ĠØ³Ø¨ Ø¹Ø©
h d
ĠÙĪØ§ÙĦØ£ ÙħÙĨ
ĠØ§ÙĦØ¨Ø· Ø§ÙĤØ©
nØ³Ø¨ ØªÙħØ¨Ø±
H e
n ÙĬØ³
ĠØ§ÙĦØ§Ø³ ÙĨØ§ÙĨ
996 14
ĠÙĬØ§Ø³ ÙĬÙĨ
ÙĨÙĬ Ø³
th umb
Ø°Ø± Ø§Ø¡
ĠÙħØ« Ø¨Øª
ĠØŃ Ø¨Ø©
n ÙĪØ¬
ĠØ§ÙĦÙħÙĨ Ø§Ø³Ø¨Ø§Øª
su ng
ĠÙĬ ÙħÙĦÙĥ
Ø±Ø¨ÙĬ Ø¯
ĠØ§ÙĦØ¹ Ø·ÙĪØ±
ÙģÙĬ Ø§ÙĨ
7 57
ĠÙĪØ§ÙĦÙħØ¤ Ø³Ø³Ø§Øª
Ø·Ø§ÙĤ Ø§Øª
7 16
ÙĬ ÙĥÙĬ
E Z
ĠØ«Ø§ÙĨ ÙĪÙĬØ©
ĠÙĬ ØªØ±Ùĥ
ÙĩØ± Ø§Ø¡
ĠØ§Ø® ØªØ§Ø±
ĠMicro soft
ĠØ§ÙĦØ³ ÙĦÙģ
ĠÙħØª Ùģ
ĠØºØ± Ø§Ùħ
ĠØ§ÙĦÙĨÙĬ Ø§Ø¨Ø©
ĠØ¨ Ø§Ø·
nE mail
7 56
ĠØ£ÙħØ±ÙĬ ÙĥÙĬØ©
nÙĦ ÙĪØŃØ©
! !\
ĠØ§ÙĦØªØ§Ø±ÙĬØ® ÙĬ
Ġin ter
998 89
ĠØ§ÙĦØ´Ø¨ ÙĥØ§Øª
ĠØ§ÙĦÙĥ ØªØ±ÙĪÙĨÙĬØ©
ĠÙħÙĨØªØ¬Ø§Øª ÙĨØ§
P P
Ø§Ùĩ Ù
ÙĦÙĬ ÙĬÙĨ
y m
Ø§ÙĩÙ Ħ
ĠØ£ Ø´Ø±Ùģ
ĠÙĥ Ø±Ø¨
ĠÙĦ Ø§ÙĦ
ĠÙĪØ§ÙĦ Ø±ÙĪ
ĠØ§ÙĦØµ Ø¹Ø¨Ø©
7 28
ĠØªØ³ÙĪÙĤ ÙĬ
ĠÙħØ³ Ø§ÙĩÙħØ©
ĠØ§ÙĦÙĥ Ø±Ø§Øª
ĠØ§ÙĦÙĥ ÙħÙĬØ©
ĠØªÙĨ Ø¸Ùħ
ĠÙĦ ØºÙĬØ±
Ø§ÙĬ Ùħ
ĠØ§ÙĦÙħÙĪ Ø§ÙĤÙģ
ØªÙĦ ÙĤ
m it
nØªÙĤ Ø§Ø±ÙĬØ±
ĠØ§ÙĦÙĦÙĬ Ø¨ÙĬ
ĠØª Ø¨Ø±
ĠÙĪØ§ÙĦ ØªØ¯
ĠØº Ø¯
N H
ĠØ§ÙĦØ² ÙĪØ¬Ø©
ĠÙħØ³ ÙĤØ·
4 14
T T
ĠÙĪÙĤ Ø¹Øª
ĠØ§ÙĦÙĩ ÙĬØ¯Ø±ÙĪÙĦÙĬÙĥÙĬ
ĠØ® Ø³Ø§Ø¦Ø±
ĠØ¨Øª Ø³
Ġl ink
ĠØ§ÙĦÙĤ Ø§Ø¦Ø¯
ĠØªØ± ÙĬÙĨ
ĠØ³ Ø§ÙĪ
ĠØ±ÙĪÙĨ Ø§ÙĦØ¯ÙĪ
if ic
ĠØ§ÙĦØ£Ø² ÙĩØ±
.. .","
ĠØŃ ÙĪØ§Ø¯Ø«
ĠØ®Ø· ÙĪØ±Ø©
ĠØ§ÙĦØ¥Ø³Ø¨ Ø§ÙĨÙĬ
ĠØ¨Ø§ÙĦ Ø¥ÙĨ
Ø¨ Ø§Ø¯Ø¦
3 86
ĠÙĪØ¶Ø¹ Øª
ĠØ´Ø± Ùģ
ĠÙħØª Ø¹ÙĦÙĤØ©
17 0
c u
ĠØ® Ø±Ø³Ø§ÙĨÙĬØ©
ĠØ§ÙĦØŃÙĥ ÙħØ©
4 05
ïº ´
ĠØ§ÙĦØ¥ ÙĦÙĩ
ĠØ§ÙĦØ¹ Ø²Ø§Ø¡
ĠØ¬ ÙĦØ§ÙĦ
ĠØ§ÙĦØ³ ÙĦÙħ
en u
ĠØ§ÙĦÙĥÙĪÙĬØª ÙĬØ©
ĠØ± Ø§Ø¦Ø¯
ĠØ§ÙĦÙħ ÙĥÙĪÙĨ
ĠØ³ Ø¬
in ce
ĠÙĬØ§Ø³ Ø±
ĠÙħØ³Øª ØŃØ¶Ø±Ø§Øª
ĠØ§ÙĦØ´ ÙĪØ±Ùī
998 43
á »
ĠÙħØ³ØªØ¹ÙħÙĦ Ùĩ
ĠØ§ÙĦÙĨ Ø±ÙĪÙĬØ¬
ÙģÙĬ Ø³Ø¨ÙĪÙĥ
ĠÙĪØ§ÙĦ Ø¶
ĠÙģÙĦ ÙħØ§
Ø§ÙĦ ÙĬÙĦ
c ss
ĠØ¬ Ø§ÙĬ
Ø±ÙĬ ÙĥÙĬ
ĠÙĩ Ø§Ø¯
Ø¬ÙĬ Ø§ÙĦ
Ø®Ø± ÙģØ©
à ¥
ĠØ§ÙĦØ¥Ø¬ØªÙħ Ø§Ø¹ÙĬ
n n
Ø§Ùħ ØŃ
Ø¨Ø¹ Ø«
port s
ĠØ§ÙĦÙĥ ÙĪÙĬØªÙĬ
Ġ|| |
ĠØ§ÙĦØ£ ÙĪØª
ĠØŃ Ø¬Ø§Ø±Ø©
ĠÙ ª
ĠÙģ ÙĤÙĩ
ĠØ§ÙĦÙģÙĥ Ø±Ø©
Ùħ Ø³Øª
ĠØ³Ø§Ø® ÙĨ
ĠØ§ÙĦÙĥÙĦ Ø§Ø¨
Ø³Øª Ø·ÙĬØ¹
ĠØ§ÙĦÙĥ ÙĪØ±
ĠÙĤØ± Ø±
af e
ĠØ¨Ø± ÙĤÙħ
ĠØ§ÙĦÙħØ« Ø§ÙĦÙĬØ©
75 9
Ø£Ùĥ ÙĪÙĦØ§Øª
1 98
Ġ4 9
Ùĩ Ø±ÙĬ
m un
ĠP hoto
ĠÙĪÙĨ Ø´Ø±
ĠÙħÙĦÙĬ Ø§Ø±Ø§Øª
ï ¯
D EB
la st
r al
ĠØ§ÙĦÙĨ Ø§ØŃÙĬØ©
ĠØ¨ÙĨ ØŃÙĪ
nØ§ÙĦ Ø¹ÙĨØ§ÙĬØ©
G V
ĠÙĪØª Ø³ØªØ®Ø¯Ùħ
ĠØ¬ ÙĦØ³Ø§Øª
ĠÙĤÙĬÙħ ØªÙĩØ§
ĠM y
996 31
Ùĩ ÙĨØ§Ùĥ
ĠÙĦ Ø§ØŃØ¸
Ø¦ ÙĬØ§Øª
ĠY outube
nØ§ÙĦØ³ Ø¹ÙĪØ¯ÙĬØ©
ĠØ§ÙĦØª ÙĪØ¬Ùĩ
Ġto p
ĠØ§ÙĦØªØ·ÙĪØ± Ø§Øª
ĠÙģÙĩ Ø°Ùĩ
be d
ĠØ£ ÙĥÙĦ
ĠØª ÙĬÙĦ
97 26
ĠØ§ÙĦØ¹ ØªÙĬ
ĠØ§Ø³Øª ÙĤØ±Ø§Ø±
ĠÙħØªØŃ Ø±Ùĥ
ĠØ§ÙĦÙĤ Ø·Ø±ÙĬØ©
ĠØ§ÙĦØ£ÙĨ Ø§Ø¨ÙĬØ¨
ĠÙĤØ¯Ø± Ø§Øª
ĠØ§Ø³ Ø¦ÙĦØ©
ÙĪÙĬ Ø¬
ĠÙħÙĩ ØªÙħ
ĠØ§ÙĦÙĤ ØµØ±
ĠÙĬ ØªØ¨Ø¹
ĠÙħØº ÙĨØ§Ø·ÙĬØ³ÙĬ
ĠÙĬØ³ ÙĪØ¹
ĠØ± Ø¦Ø§Ø³Ø©
ĠÙĪÙĤ ÙĪØ¹
ĠØ® ÙģÙĬÙģ
ĠÙĪÙħ ØªÙĨ
ĠÙĬÙĨ Ø¸Ø±
998 83
Ø®Ø· Ø§Ø±
sp ort
ĠØ´Ø§Ùĩ ÙĬÙĨ
ĠØ¥ÙĤ ÙĦÙĬÙħ
ĠØ§Ø¹ ØªØ¨Ø±
] ,\"
ĠØª Ø±Ø¯
8 28
ĠØª ÙĪÙħ
ĠØ¨Øµ ÙģØ©
4 84
ĠØ§ÙĦØ¬ÙĬ Ø¯Ø©
ĠØ§ÙĦØ§Ø³ØªØ«ÙħØ§Ø± ÙĬØ©
m od
ĠØ§ÙĦÙħÙħ Ø«ÙĦ
3 21
ĠØ¨ ØµÙģ
ĠÙĨØ´Ø± Øª
ĠØ´ ÙħÙĦ
ĠØ§ÙĦØ¹ÙĤ Ø§Ø±
ĠÙĪØ§ÙĦ Ø§Ùħ
ĠØ§ÙĦØªØ´ ÙĥÙĬÙĦ
ĠØ¥Ø¹ Ø¬Ø§Ø¨
ĠÙĦ Ø®Ø¯ÙħØ§Øª
ÙĤØ± ÙĬØ©
Ø³ÙĨ ÙĪØ§Øª
ĠØ§ÙĦØ±ØŃ ÙĦØ§Øª
pro duct
ĠÙħ Ø¦ÙĪÙĬØ©
E AD
ĠØ§ÙĦØº Ø§ÙĦØ¨
Ø« ÙĦØ§
nØ¨Ø± Ø§ÙħØ¬
ĠØ§ÙĦØ· ÙĪÙĬÙĦØ©
ĠØª ØºØ·ÙĬ
ĠÙĪØª ÙĥÙĨÙĪÙĦÙĪØ¬ÙĬØ§
ØªÙĪ Ø±ÙĬØ§
ĠÙħØ§Ø³ ÙĨØ¬Ø±
ĠØ§ÙĦÙħ ÙĪÙĦ
ĠÙĪØ³ Ø·Ø§Ø¡
ĠØ¨ÙĨ ÙĬØ©
r ag
ĠØ´ Ø§ØŃÙĨØ§Øª
ØªØ± Ø§ÙĤ
87 17
ĠÙĪØ§ÙĦØª Ø³
ÙĩØ§Ø¬Ø± ÙĬÙĨ
ĠÙĪÙħØ¹ Ø§ÙĦØ¬Ø©
ÙħÙĬ Ùĥ
97 95
ĠÙħØ³ Ø§ÙģØ©
ĠÙĬ ÙĪØ¶ØŃ
ĠÙĦ ÙĪØ±ÙĬ
ĠØ¹ÙħÙĦ Ùĥ
ĠÙĦØ´ Ø®Øµ
Ø§Ø« Ø±
ĠØ¹ÙħØ± Ø§ÙĨ
T he
ĠØ§ÙĦØ´ ÙĩØ¯Ø§Ø¡
ĠØ§ÙĦØ¬ Ø±ÙĬÙħØ©
ĠÙģÙĬ Ø¬Ø¨
ĠØ§Ø³ØªØ± Ø¯Ø§Ø¯
9 01
ÙĪÙĥ Ø§ÙĦØ©
ĠØ¬Ø²Ø¡ Ø
ĠØ¬Ø²Ø¡Ø §
ĠØ§ÙĦÙħ ÙĪØ¨Ø§ÙĬÙĦ
o de
ĠÙĦØª ÙĥØ³ÙĬØ±
85 0
ĠØ§ÙĦØ£ ØºØ°ÙĬØ©
ĠØ±ØŃ ÙħØ©
cat alog
ĠÙĦ ÙĪØ±ÙĬÙĨ
ĠØ§ÙĦØ§Ø´ØªØ±Ø§Ùĥ Ø§Øª
R ed
ØªØ± Ø§ØŃØ§Øª
ØªØ± Ùħ
ÙĥØ± ÙĪÙĨØ©
ĠÙĪØ§ÙĦ Ø«ÙĦØ§Ø«
ĠÙĦØ§Ùĥ ÙĪØ³Øª
ĠØº Ø²
Ø§ÙĦÙħ Ø¯Ø±Ø³Ø©
Ø·Ø± Ø§Ø¨Ø§Øª
ĠØ¢ ÙĬ
ÙĪÙĬÙĦ Ø
ÙĪÙĬÙĦØ §
ÙĥÙĪ ØªØ±
ĠØ¨ÙĬ Ø¶Ø§Ø¡
t ra
ĠØ¨Ø³ Ø¹Ø©
d ocument
4 25
ĠØ§ÙĦÙĤ ÙĪÙĬ
ĠØ§ÙĦØ§ÙĦ Ø¹Ø§Ø¨
Ø³ ÙĥØ±
ĠÙĬ ØŃØ¯Ø¯
ĠØ§ÙĦÙħØ´Ø§Ø±Ùĥ ÙĬÙĨ
ĠÙĪ Ø«ÙĬÙĤØ©
F K
ĠÙģØ± Ø§Øº
ĠÙĬØ¹ Ø§Ø¯ÙĦ
ĠØ§ÙĦØª ÙħÙĬØ²
ĠP ort
97 07
ĠÙĪÙĬ ÙĤ
Ġ( @
nØªÙĨ Ø¸ÙĬÙģ
ĠØªØ£ ÙĥØ¯
55 2
it es
9936 832
5 46
l er
ØªØ´ ÙĪ
oc ial
ĠÙħÙĪ Ø§ÙģÙĤ
ĠÙĦ Ø¹Ø¯Ø¯
nÙĤ Ø³Ùħ
ĠÙĨ Ø¹ÙĦÙħ
ĠØ· Ø§Ø¨Ø¹
ÙĪØ¶ Ùī
nØ´Ø§Ø±Ùĥ ÙĩØ§
Ø³ ÙĬØ±
ĠØ§Ø¨ ØªØ¯Ø§Ø¡
ĠØ§ÙĦØŃ Ø±Ùģ
Ġ arabic
ĠØªÙĨ Ø§ÙģØ³ÙĬØ©
nØ§ÙĦÙħ ÙĪØ±Ø¯ÙĬÙĨ
ĠS TK
ã ģ
ĠØ³ ÙĬØ¹
ĠØ§ÙĦØ³ Ø±ÙĬ
Ġad d
ĠØ§ÙĦÙĥ Ø±Ø¯
ïº ³
Ġbrow ser
n ÙĨÙĬ
ĠØ¢ ÙĦÙĬ
ĠØ§ÙĦØ¨ ÙĨØ¯
ĠØ£ØŃ Ø§Ø¯ÙĬØ«
ØªÙĤ Ø§Ø¡
Ø±Ø¨ Øª
nÙĦÙĦ Ø¨ÙĬØ¹
ĠØ¹ Ø¸ÙĬÙħ
ĠØ§ÙĦØ± Ø§Ø¬
31 28
ĠÙĪ Ø®ØµÙĪØµ
Ġfeat ures
Ġs ite
29 0
ĠØ§Ø¹ÙĦ Ø§ÙĨ
97 34
ĠØ§ÙĦÙħØ³ Ø§ÙĪØ§Ø©
AA F
ĠÙĪÙħ Ùĩ
ØªØµ Ø§ÙĦ
ĠØ§Ø³Øª Ø¹Ø±Ø§Ø¶
Ø¨ Ø§Ø¯
] )
Ġ 82
ĠØ§ÙĦØªØŃ Ø§ÙĦÙģ
up er
4 46
S K
ĠØ§ÙĦÙħÙĪ Ø¶Ø©
B T
ĠØ§ÙĦØ¨ ÙĬØ±
ĠØ´ Ø§ØºØ±Ø©
ĠØ³ÙĬ Ø§Ø³Ø§Øª
ĠØ§Ø³Øª Ø´Ø§Ø±ÙĬ
4 57
ĠØ§ÙĦÙĪØ± ÙĤÙĬØ©
4 87
ĠØ³ÙĦ Ø§Ø³ÙĦ
Ø° ÙĬØ§Øª
ĠØ§ÙĦØ¹ Ø²
ĠØ¬Ø¯ÙĬØ¯ Ø
ĠØ¬Ø¯ÙĬØ¯Ø §
3 24
ĠÙĬØª Ø¹ÙĬÙĨ
ĠØ§ÙĦØ³ Ø±ÙĬØ±
ĠØ§Ø¹ Øª
Ġ20 30
996 77
5 13
f ile
4 22
67 036
97 87
ĠØ§ÙĦØ® Ø·Ø©
ĠØ±Øº Ø¨Ø©
Q V
nØ® Ø·Ø©
y pe
Ø¨ ÙĨØ§Ø¡
ĠÙħÙģ ØµÙĦ
ĠØ§ÙĦ Ø§ÙĬØ±
Ø±ÙĪØ³ ÙĪÙģØª
2 93
v y
an im
el s
ĠØ±Ø£ ÙĬØª
ĠÙħØ± Ø§Ø¹Ø§Ø©
f as
Ø§Ø¹ÙĦ Ø§ÙĨ
nØ¬ Ø¯ÙĬØ¯
ĠÙĪØºÙĬØ± Ùĩ
ĠØ§ÙĦØªØ± ØªÙĬØ¨
ĠØ¬Ø² ÙĬØ±Ùĩ
ĠØ§ÙĦÙģ ÙĪØ±ÙĬØ©
ĠØ§ÙĦØŃ ÙĪ
Ø§Ùĩ Ø±Ø§Øª
ĠÙĥ Ø±Ø¨ÙĬØ¯
nT h
4 16
n Ø®ÙĦ
ĠÙĬ ÙĪÙĨØ³
8 20
ĠÙĪØ§ÙĦÙħ Ø²ÙĬØ¯
ĠØ¬Ø± ÙĬØ±
ÙĪØ± ÙĨ
ĠØ§ÙĦ Ø¶Ø¹
8 03
ĠĠ ĠĠ
âĢ¬ \
ĠÙĦÙĦ ØªØµ
ĠØ§ÙĦØ§Ø³Øª ÙĤØ±Ø§Ø±
Ø¹ ÙĪØ¯ÙĬ
ĠH TML
Ø· ÙĪ
ĠIndust ry
Ø±ÙĪ Ø´Ø§Øª
Ø±ÙĬ Ø¬ÙĬ
ĠØ§ÙĦØ± Ø§Ùģ
ÙĪØª Ø´
nP ost
4 37
ĠØª ÙĪÙĦ
ĠÙħÙĬØ¯ Ø§ÙĨ
ĠØ§ÙĦÙħØ³Øª Ø´ÙģÙĬØ§Øª
ĠØªØ£ Ø´ÙĬØ±Ø©
97 84
X M
ĠÙģØ± Ø´
d is
996 94
ĠØ§ÙĦÙģ Ø¶ÙĦ
ĠØ§ÙĦÙħÙĪ Ø¸Ùģ
Q Z
ĠØ§Ø³ Ø§Ø³
Ø§Ùĥ ÙĨØ©
ĠØ§ÙĦØµ Ø®Ø±ÙĬ
ĠØ§ÙĦÙħ Ø¨ÙĬØ¯Ø§Øª
Ġe mail
ÙĦÙĤ Ùī
1 000
97 77
ĠÙĪØŃ Ù
G Z
ĠÙĪØŃÙ Ħ
ĠØ§ÙĦØ¨ÙĬ Ø§ÙĨÙĬØ©
ĠÙĦØ§ØŃ ÙĤØ§
ĠÙĬ ØªØ¨
ĠØ§ÙĦØŃ Ø§Ø¶Ø±
J T
ÙĦØ§ Ø´
ĠØ§ÙĦØ§ØŃ ÙĦØ§Ùħ
ĠØŃÙĬ Ø§ØªÙĩØ§
ĠÙħØŃ Ø±
ĠØ§ÙĦØµØ± Ø§ØµÙĬØ±
ĠÙħØ´ ÙĥÙĦ
ĠÙĪØ¨ ÙĨ
Ø§Øº ÙĪ
b an
nØ¹ Ø§ÙĦÙĬØ©
ÙĪ ÙĥØ³
ĠØ§ÙĦØµÙģ ÙĤØ§Øª
ĠØ£Ø« Ø¨Øª
ĠÙĨÙĤ Ø§Ø¨Ø©
ĠØ§ÙĦØ¬Ø§ÙĨ Ø¨ÙĬØ©
X W
ĠÙĤØ¨ Ø§Ø¦ÙĦ
ĠØ§ÙĦÙħØªØŃ Ø±Ùĥ
Ø§ÙĨ ÙĪÙĬØ©
0000 7
ĠÙĥÙĪÙĨ ÙĩØ§
97 73
nÙĥ ÙĪØ¨
Ġis o
ĠØ´ Ø¹Ø¨Ø©
en e
ĠØªØµ ÙģÙĬØ©
ĠØ§ÙĦÙĥÙĪÙĨØº ÙĪ
Ø¬Ùħ Ø§Ø¹
ĠÙĪØ§ÙĦÙħ Ùģ
ess age
c to
ĠØ´ ÙĩØ§Ø¯Ø§Øª
p or
Ø§Ùĥ ÙĪ
ien ces
ĠØ¨Ùģ ØªØŃ
ĠØ§ÙĦØ¬ Ø³Ø¯
ĠÙĦØ£ÙĨ ÙĨØ§
ĠØ§ÙĦÙħØŃ Ø§Ø¶Ø±Ø§Øª
Ã ¡
ĠØ§ÙĦØªØ¬Ø§Ø± Ø¨
ĠØ£Ø³Ø¨ÙĪØ¹ ÙĬÙĨ
ĠÙĨÙĩ Ø§Ø¦ÙĬØ§
ĠÙĬ ØµÙĨØ¹
ĠÙħÙĦ ØŃ
ĠØ¨ÙĪØ¯ Ø±Ø©
ÙĥÙĦ Ø§Ø¡
66 8
Ø® ÙĦØ§Øª
ĠÙħØ¹ ÙĤÙĪÙĦØ©
ĠÙħØ§ÙĨ Ø¬ÙĪ
ĠÙĨØ¨ Ø°Ø©
ĠÙħØ¬Ùĩ ÙĪÙĦ
Ġâľ ¨
ĠÙĥ Ø±ÙĬÙħØ©
Ù §Ù
ĠØ§ÙĦÙħ ÙĪÙĨØ¯ÙĬØ§ÙĦ
p df
ĠØªÙĦÙĤ Ø§Ø¦ÙĬ
ma x
ĠØ§ÙĦØ³Ø¨ Ø§ØŃØ©
ĠÙħØ« ÙĬØ±Ø©
Ġp re
ĠØ¨Ùħ ÙĪÙĤØ¹
ĠØ§ÙĦØ±Ø¬ ÙĪØ¹
Øª ØµÙĦ
Ø§ÙĦÙģ Ùĥ
ĠÙĦÙĦØªØ¹ ÙĦÙĬÙħ
ĠÙĪÙħÙĪ Ø§ØµÙģØ§Øª
ĠØ§ÙĦÙĨØ¨ ÙĪÙĬ
ĠÙĦÙħ Ø²ÙĬØ¯
ÙĪÙĤ ÙĪÙģ
89 0
ĠÙĬØª Ø¬Ø§ÙĪØ²
ĠØ±Ø³ ÙĪÙħØ§Øª
97 25
Ø· Ø±ÙĬ
ĠÙħØªÙĥ Ø§ÙħÙĦ
ĠÙħÙħ Ø§Ø«ÙĦØ©
996 05
ĠÙĦÙģ ØªØŃ
ĠØ§ÙĦØ³Ùħ Ø§ØŃ
ĠØ£Ø³ Ø§ÙĦÙĬØ¨
ivers ity
ÙĪÙģ Ø±Ø©
nÙħ Ø§ÙĬÙĪ
ØªÙĤ Ø§ÙĨ
ĠÙĬØªØŃ ÙħÙĦ
ĠØ£ Ø¨ØŃØ§Ø«
p on
Ġm anufactur
ĠÙĤØ§Ùħ ÙĪØ³
ØªØ± ÙĬÙĨ
cr ete
ĠÙĪØ§ÙĦØ® Ø§Ø±Ø¬
ĠØ§ÙĦÙĦØŃ Ø¸Ø©
ØºØ± Ø§ÙģÙĬØ©
g in
24 17
A BD
ĠØ§ÙĦØª Ø¬ÙĩÙĬØ²
ĠÙħÙĤ Ø§Ø¨ÙĦØ©
ĠØ² ÙģØ§Ùģ
ĠÙĪØ¨ Ø´ÙĥÙĦ
ĠJ an
ĠØ¯ ÙĦÙĩÙĬ
Ø§ÙĦÙħ Ø¹
ĠØµØ¨ Øº
Ø§Ø¯Ø« Ø§Øª
j o
ĠØ¨Ø¹Ø¯ Ùĩ
ĠØ§ÙĦØ¹Øµ Ø¨ÙĬ
ĠØ§ÙĦØ¬ Ø³
Ø±Ø´ Ø§Ø¯Ø§Øª
Ø¶Ø§Ùģ Ø§Øª
5 17
97 36
ĠØ³ØªÙĦ Ø§ÙĬØª
nØ§Øª ØµØ§ÙĦ
ĠØ£ Ø·Ø±Ø§Ùģ
ĠØ§Øª Ø®Ø°
ĠØ§ÙĦØªÙħ Ø«ÙĬÙĦ
ÙĬØª ÙĬÙĨ
ĠØ´ ÙĪØ¨
ĠÙĪØ§ÙĦØ¹ Ø´Ø±ÙĬÙĨ
ĠØ§ÙĦØŃÙħ ÙĦØ©
ĠØµ Ø¯ÙĬ
ĠÙħØµÙĨ Ùģ
H L
ĠÙĪØ« Ø§Ø¦ÙĤ
Ø¹ÙĦ Ø§ÙĤØ©
X R
ĠØ§ÙĦØ¨Ø· Ø§Ø±ÙĬØ©
ĠØ§ÙĦÙħØ¹Ø¯ ÙĨ
ĠØ£ØŃ Ø³ÙĨ
ĠØ§ÙĦÙħ Ø´Ø±Ùģ
Ø¢ Ø©
ĠC ook
ĠØ§ÙĦØ¬ Ø§Ø°Ø¨ÙĬØ©
ĠD is
ĠØ§ÙĦØ± Ø´ÙĬØ¯
ĠÙħØ± ØªÙģØ¹
ĠÙħØ§ÙĨ Ø´Ø³ØªØ±
ĠÙĪØªØ´ ÙħÙĦ
l ink
ĠÙĩÙĪ Ø§Ø¡
ĠØ´ Ø±ÙĬÙģ
ĠL e
ĠÙĦ Ø¹Ø¯Ø©
nÙĬ Ø³ØªØ®Ø¯Ùħ
ĠØ§ÙĦØ³ ÙĦØ¨ÙĬØ©
nØª Ø¹Ø¯
ĠÙĥÙĪÙĨ Ùĩ
ĠØ§ÙĦÙħØ« Ø§ÙĦÙĬ
ĠÙĦØ£ ØºØ±Ø§Ø¶
ĠÙĤ Ø§Ø¯Ø©
Ø§ÙĦ Ø§ÙĨ
ĠØ§ÙĦØªÙģ Ø§Ø¹ÙĦ
Ġ 76
ĠØ§ÙĦØ£Ø±Ø¯ ÙĨÙĬ
9994 3095
ĠC ol
ÙħÙĦ Ø§Ø¡
nÙħ Ø¨Ø¯Ø£
Ø³ÙĬ ÙĤÙĬ
ĠÙĤÙħ ØµØ§ÙĨ
ĠØ³ ÙĦÙĥ
ĠØ§ÙĦØŃ Ø§Ø¦Ø·
ÙĪØ¯ÙĬ ÙĪÙħ
\" ..
ĠÙĪ Ø¨ÙĬ
ĠÙĪÙĬØ¹ ÙħÙĦ
ĠØ£Ø³Ø§Ø³ ÙĬØ§Øª
ĠØ§ÙĬØ· Ø§ÙĦÙĬØ§
ĠÙĦÙĦ ØªÙĤ
ĠØ§ÙĦÙĨØ³ Ø§Ø¦ÙĬØ©
5 04
er ies
Ġs ur
ĠØ§ÙĦØªØ±Ø¨ ÙĪÙĬ
ĠØ° Ø§ÙĥØ±Ø©
Ø¥ Ø¹Ø¬Ø§Ø¨
K ey
Ø´Ø§Ø± ÙĬØ©
ĠØ§ÙĦÙħØª ÙĩÙħ
ĠØ§ÙĨ ÙĬ
ĠÙĦ Ø¨Ø¯Ø¡
ĠØ§ÙĦØ§ÙģØªØ± Ø§Ø¶ÙĬ
ĠØ·Ø±ÙĬÙĤ Ùĩ
C AB
999845 86
Ø´ Ø§ÙĦ
ĠÙĦÙħ ÙĤ
ĠØ¨ ØŃØ¯
Ø§Ø¤ Ù
Ø§Ø¤Ù Ħ
ĠS AR
Ø´ ÙĩØ§Ø¯
Ġexper ience
ĠÙĪØ² ÙĬØ±Ø©
ĠØ§ÙĦØ¥Ø¬ØªÙħ Ø§Ø¹ÙĬØ©
ĠNo ve
998 73
ÙĥÙĬØª Ø´Ø±Ø²
ĠØ§ÙĦØ¥ÙĤ ÙĦÙĬÙħÙĬØ©
ĠØªÙĪ ÙģÙĬÙĤ
ĠØ§ÙĦØªØ¨ Ø±ÙĬØ¯
nÙĦ Ø¹Ø¨Ø©
ĠÙħÙĨ Ø§ÙĤØ´Ø©
ÙĪØµ ÙĬ
ÙĩØ¯ Ø§ÙĬØ§
Ø£ Ø±
ĠØ§ÙĦØ± Ø§ØŃÙĦ
Ġ- ---
ĠØ¨Ø£ ÙĥØ«Ø±
Ġm arket
ĠØª ØªÙģ
ĠØ§ÙĦØµ Ø¯ÙĬÙĤ
ĠÙĦ Ø¹Ø±Ø¶
ĠØ¹Ø´Ø± ÙĬÙĨ
ĠØ¯ÙĬ Ùħ
ĠØ§ÙĦØ¨ÙĪ Ø§Ø¨Ø©
ÙĪ Ø¨Ø±
ĠØ¹ÙĦ Ø§ÙĪØ©
k w
Ġ 67
ĠÙĪØ§ÙĦ ØµÙĬÙĨ
nØ§ÙĦØ± ÙħØ§ÙĦ
995 2
ĠØ£ØŃ ÙĦØ§Ùħ
ĠØ§ÙĦØ¨Ø¯ ÙĨÙĬØ©
ĠÙĪ ÙĪØ±Ø¯
ĠØ§ÙĦØ¨ÙĬ ÙĪØª
ĠÙħØ« ÙĬÙĦ
ic an
ĠÙĪ Ø§Ùģ
ĠØ§ÙĦÙĨ Ø¯
ĠØ§ÙĦØ£Ø¨ ÙĪØ§Ø¨
ĠÙĨØ¯ ÙĪØ©
ĠØ§ÙĦØ¹ ØµÙĪØ±
ĠØ§ÙĦØ£ Ø®ÙĦØ§ÙĤ
ĠW eb
ĠØ§ÙĦØ³ Ø¹Ø©
ĠØ§ÙĦØ¨Ø± ÙħØ¬Ø©
ĠYouT ub
âĢİ \
ĠØ¨Ø§ÙĦ Ø³ÙĬ
o tel
ĠÙĦØª Ùģ
ĠØ§ÙĦÙħ ÙĨÙĬÙĪÙħ
ĠØ§ÙĦØ± ØŃÙĦØ©
9537 112
nÙģ ØªØŃ
Ġsh oot
ĠØ§ÙĦØ§Ø³Øª ÙĩÙĦØ§Ùĥ
997 30
n Ø¬Ø¯ÙĪÙĦ
nØª Ø®
Ø§Ø· ÙĬØ©
ÙĬÙĥ Ø§ÙĨ
98883 95
Ø§ÙĦÙħ Ø³
ĠØ±Ùħ Ø²ÙĬ
ĠÙĪØ§Ø¬ Ø¨
ĠØ¨ ÙģÙĬØ±ÙĪØ³
nÙĪ ØµÙĦÙĨØ§
ĠØ¹ÙĨ Ùĥ
ĠØºØ° Ø§Ø¦ÙĬ
98 91
âĨ ĳ
ĠÙĦ ÙĪØŃ
ĠØ¨Ø§ÙĦ Ø¹Ø±Ø¨ÙĬ
ĠØ² ÙĩØ±Ø©
ĠØµ ÙĨØ§Ø¯ÙĬÙĤ
ĠÙĦ Ø³Øª
ĠØ·Ø¨ Ø®
ĠÙĬÙĪÙĨÙĬ ÙĪÙĨ
ĠØ«ÙĤ Ø§ÙģÙĬØ©
Ø§ÙĦ Ø¯ÙĬÙĨ
ĠÙĤ ÙħØ§Ø´
ĠØ®Ø² Ø§ÙĨ
ĠM obile
ĠØµÙĨØ¹ Ø§Ø¡
ĠØ¨ ØµÙĬØºØ©
ĠØ§Ø³ Ø·ÙĪØ§ÙĨØ©
ĠØ¢ ÙĦÙĬØ§Øª
ĠØªØ² ÙĪÙĬØ¯
Ġ. ::
X Y
n Ø§Ø¯
Ġp art
mo ve
ĠØ§ÙĦÙĨØ§Øª Ø¬Ø©
en se
ĠØ¬Ùħ Ø¹Ø©
ĠØ§ÙĦÙħØ³Øª ÙĪÙĬØ§Øª
Ø¹ Ø¬Ø©
ĠØ§ÙĦÙħØ¹ÙĬ Ø´Ø©
ĠØª ÙĦØ¨ÙĬØ©
ĠØ§ÙĦØªØ±Ø¨ ÙĪÙĬØ©
Ġs ub
ĠØ§ÙĦØ§Ø± ØªÙģØ§Ø¹
ĠØ¨ÙĦ Ø§Ø³ØªÙĬÙĥ
ĠØ³ ØªÙĤ
ĠØ¨Ø±ÙĬ Ø¯ÙĬ
ÙĦÙĤ Øª
ĠØ´ ÙĬÙĥ
E I
ØªØ§Ø¬ Ø±
ĠÙĪØ§ÙĦØº Ø§Ø²
Ġp f
Ġ5 000
ĠØ§ÙĦÙħØ¤ ÙĤØª
ĠØ³ ÙĬØ±Ø©
998 50
Ġ Ø±ÙĬÙģ
ĠØ§ÙĦØ§ØŃ Ø¯
ĠÙħØ§ÙĬ ÙĥÙĦ
Ġ 96
ĠÙĦÙĦ Ø·Ø¨Ø§Ø¹Ø©
S N
ĠÙħØ¤ÙĥØ¯ Ø
ĠÙħØ¤ÙĥØ¯Ø §
Ø±ØŃ ÙĦØ§Øª
ÙĪ Ø·Ø©
ĠØ·Ø± Ø§Ø¨ÙĦØ³
97 74
ĠÙĥØ¨ Ø±ÙĬØª
Ø§ÙĨØª Ø®Ø§Ø¨Ø§Øª
ĠÙĦÙĦ Ø®Ø±Ø³Ø§ÙĨØ©
ra w
ĠØ¨ØŃ ÙĪØ«
ĠÙĨ Ø¨ÙĬ
998 91
ÙĬ ÙĪÙĦÙĬÙĪ
Ġm od
ĠÙħÙĨØ¸ ÙģØ§Øª
Ø§Ø¬ Ø¯Ø©
ĠÙĦØ¥ Ø¬Ø±Ø§Ø¡
ĠÙĦÙħ ØªØ§Ø¨Ø¹Ø©
ĠØ§ÙĦØ²ÙĬ Ø§Ø±Ø©
nÙĨØ¨ Ø°Ø©
Ø±Ø£ ÙĬ
ĠØ±ÙĬØ§Ø¶ ÙĬØ§Øª
ĠØ§ÙĦØªØ¹ÙĦÙĬÙħ Ø§Øª
ĠØ§ÙĦÙĬÙħ ÙĬÙĨ
ĠØ£Ø³ Ø§ÙħØ©
ĠØ§ÙĦØ± Ùģ
nØªØ¹ ÙĦÙĬÙħ
Ã ³
ĠØ§ÙĦØ¨ Ø§Ø·
ĠØ¨ÙĪ Ø´
nØµ ÙĪØ±Ø©
\\ \\
ĠØ§ÙĦØ£ÙĦÙĬ Ø§Ùģ
r ent
ĠÙĥØ±ÙĪ Ø§Øª
Ø§Ø¦ ÙĤÙĬ
9331 99
Øª Ø¶
Øª ÙĥÙĦÙģØ©
ĠØ£ ØŃÙħØ±
ĠÙĪÙĬ ÙĪØ¬Ø¯
ĠÙħØ± Ùĩ
nØ¥Ø¹Ø¬Ø§Ø¨ Ø¥Ø¹Ø¬Ø§Ø¨
( @
Ø¹Ø¯ Ø§Ø¯ÙĬ
ĠØªÙĪ Ø§ÙģØ±
ĠØ³ ÙĨÙĤ
ĠØ§ÙĤ Ù
ĠØ¨ÙĨÙģØ³ Ùĩ
ĠØ§ÙĤÙ Ħ
ĠØ¹ÙħÙĦ Ø§Øª
ĠØ§ÙĦØ±ÙĪ Ø§ÙĬØ§Øª
ĠÙĦÙĦØ£ Ø´Ø®Ø§Øµ
ĠØ¬ÙĪØ±Ø¯ ÙĨ
ĠØ§ÙĦØ¥ÙĤ ÙĦÙĬÙħÙĬ
Ø§Ø« ÙĬØ©
ĠÙģÙĬ Ù
ï´ ¾
ĠÙģÙĬÙ Ħ
Ø§ÙĦ ØªØ¹
ĠÙĪ ÙģØ§Øª
ĠÙħØª Ø¯
ĠØ§ÙĦØ¬ ÙĪØ§Ø¨
98 90
Ùĥ ÙĪÙĥ
97 46
ĠØ´ ØºÙĦ
Ø£ Ø¨ÙĪ
ĠØ§ÙĦÙħØª Ø·ÙĪØ±Ø©
ÙĪ Ø§Ø¦ÙĬ
ĠÙĨØ² ÙĪÙĦ
à ¦
ĠÙĦ ÙĪØ²Ø§Ø±Ø©
ĠÙĪÙĬ ÙĤÙĪÙħ
ĠÙĦÙĦ Ø¹ÙĦÙĪÙħ
ĠØ§ÙĦØ³ ÙĨÙĬÙĨ
ÙħÙĬ ØªÙĩØ§
ĠØ§ÙĦØ® ÙĦÙĤ
ĠØ§ÙĦÙĩ Ø§Ùħ
W D
ĠØ§Ø³Øª ÙĥÙħØ§ÙĦ
ĠØ§ÙĦÙĨ ÙħØ³Ø§
ĠÙĪØª Ø£Ø«ÙĬØ±
ĠÙħØ´ Ø§Ø¹Ø±
ĠØªØ¹ÙĦÙĬÙĤ Ùĥ
ĠØ§Ø¹ Ø§Ø¯Ø©
ĠØ§ÙĦØª ÙĥÙĪÙĬÙĨ
ĠÙĥ ÙĬØª
Ùħ ÙĪØ±
ĠØ³Ø¨ Ø¹
ĠÙģ Ø§ÙĦØ£
ĠÙĦÙĦØ£ ÙħÙħ
nÙħ Ø®
Ø²ÙĬ ÙĬÙĨ
ĠNove mber
ĠØ§Ø´ ÙĥØ§ÙĦ
c ur
Ġ5 3
ĠØ¨Ø¯ Ø¹Ùħ
ĠØ¬ÙĪ Ø§Ø¦Ø²
Ġco l
ĠØ¹ Ø§Ø¬ÙĦ
ĠØ§ÙĦÙħØµ Ø§ÙĦØŃ
ĠØ§Øª Ø´
nØ§Ø® Ø±
ĠÙĦÙĦØ³ ÙĨØ©
ØªÙĩ Ùī
ĠØ¯Ø®ÙĦ Øª
ĠØ§Ø®ØªØ± Ø§Ø¹
ĠØ§ÙĦÙħØŃ ÙĬ
ĠÙĪØ¹ Ø§Ø¯Ø©
ĠØ´ Ø§Ø¦Ø¹Ø©
ĠØ± Ø§ÙĦÙģ
ĠØ§ÙĦØ¢ ÙĦØ§Ùģ
ĠØ§ÙĦÙħØ¹ ÙĦÙħÙĬÙĨ
ĠØ¥ÙĦÙĬ ÙĩÙħ
ĠÙĨ Ø§Ø¯Ø±
ĠØª ÙģØ¶ÙĦ
ĠØ¬ Ø¨
Ø§Ø· Ø¨
ĠÙĨ Ø¶
9987 01
ĠÙĪÙħÙĨ Ø¹
ĠØ§ÙĦØ² Ø§Ø¦Ø¯
Ø¹Ùħ Ø±Ø©
t im
pp ing
98 83
ĠØ§ÙĦØ¥ ÙģØ±
Ø« ÙĨØ§Ø¦ÙĬØ©
ÙĥØ³ ÙĬØ©
ĠØ±Ø¯ ÙĪØ¯
ĠØ³ Ø±ÙĬØ±
ĠØ¥ÙĨÙĩ Ø§Ø¡
ĠÙħØ³Ø¨ ÙĤ
99 357
nÙĪØ² Ø§Ø±Ø©
Ùĥ ÙĦÙħ
ĠÙħØŃ Ø§ÙħÙĬ
Ø¸ Ø±ÙĪÙģ
e k
ĠØ§ÙĨ ØªØ±
as ed
n ÙĥÙĨ
ĠØ§ÙĦÙħÙĤ ØµÙĪØ¯
997 22
a ur
ĠØ£ÙĨ Ø§Ø¨ÙĬØ¨
ĠSa udi
ĠÙĥÙĪÙĥ Ø¨
ĠØ§ÙĦÙĤØµ ÙĬØ±
ĠÙħØ§Ø³ Ùĥ
ĠÙħØ´Ø±ÙĪØ¹ Ø§Øª
uth or
ĠØ§ÙĦØ· ØŃ
ĠÙĪØ§ÙĦØ£ Ø¬ÙĩØ²Ø©
ÙĥÙĦ ÙĬØ©
p to
ĠÙĦÙĦÙħØ³ØªØ®Ø¯Ùħ ÙĬÙĨ
ĠØ£Ùģ ØºØ§ÙĨØ³ØªØ§ÙĨ
ĠØ§ÙĦØ§Ø¯ Ø§Ø±ÙĬØ©
ĠÙħØ¤Ø± Ø´Ùģ
Ùħ Ùĥ
ĠÙĬ Ø³Ø±
ĠØ¨Øº Ø¶
ĠØ§ÙĦØ§Ø³ÙĦØ§Ùħ ÙĬ
Ġ content
nÙħØ¹ Ø§ÙĦØ¬Ø©
ĠØŃ ÙĪØ¶
ĠØªÙĨ Ø³
ĠØ§ÙĦÙħØ³ÙĦÙħ ÙĪÙĨ
ĠØ£Ø¨ ÙĨ
ĠÙĦÙĦØ¬ Ø³Ùħ
996 74
ĠØ§ÙĦÙħØŃØª ÙĦØ©
ĠØ§ÙĦÙĨ Ø®
ĠÙĦÙĦ Ø¨ÙĬØ¦Ø©
ÙĦØ ¡
997 20
nØ§ÙĦ Ø¹ÙĨÙĪØ§ÙĨ
t t
ĠØ§ÙĦØ® Ø¯
ĠØ§ÙĦØ¬ Ø¨Ø§ÙĦ
ĠØ§ÙĦØŃØ± Ùħ
ĠØ¹ ÙĪ
ĠØªØ³Øª ÙħØ±
ĠÙĬÙĤ ÙĪØ¯
Ø¶ ÙĪØ¡
Ġbe in
ĠØ§ÙĦÙħØ´Ø± ÙĪØ¨Ø§Øª
ĠØŃ Ø±ÙĬÙĤ
ÙģÙĬ Ø¸
Ø§Ùħ ÙĬØ±
ĠÙħØ´ Ø§Ø¨ÙĩØ©
0 10
ĠØ¯ Ø¬Ø§Ø¬
ĠØ³ ÙĤØ·
ĠØ¨ ÙħÙĦ
nØ§ÙĦ Ø·
H Y
nØ§ÙĦ Ø«ÙĦØ§Ø«Ø§Ø¡
ÙĪ Ø§ØµÙĦ
ĠÙĪØ§ÙĦØª Ø¬Ø§Ø±Ø©
nØ¨ ÙĨ
ĠØ§ÙĦØ±ÙĤ Ø§Ø¨Ø©
ĠØ® Ø§Ø±
94 65
ĠO ver
ĠÙĩÙĪ ÙĬØ©
ĠØ£Ùħ Ø«ÙĦØ©
ĠØ§ÙĦØ§Ùĩ ÙĦÙĬ
ĠØ§ÙĦØ§Ø³Øª Ø§Ø°
Ø§Ø¸ Ùħ
ĠÙħÙħÙĥÙĨ Ø©
Û ¡
ĠØ§ÙĦØ¯ÙĬÙħÙĤØ±Ø§Ø· ÙĬ
ĠA mer
nØ£ Ø¬Ø²Ø§Ø¡
ÙĬØ± ÙĦÙĨØ¯Ø§
Ø° Ùī
Ġ type
ĠÙĤØ± Ø£
ĠØ¨Ø§ÙĦØªÙĤ Ø³ÙĬØ·
ĠÙģÙĬ ÙħØµØ±
97 847
ĠØ§ÙĦÙĨÙĤ Ø¯ÙĬ
Ġ1 25
ĠØ§ÙĦÙħØ³ØªÙĤØ¨ÙĦ ÙĬØ©
Ã ª
ĠØ¹Ø¯ ÙĨ
ĠØ¹ ÙĬÙĨÙĬ
ÙĪØ§Ø± Ø¶
ĠØ§ÙĦØµ Ø§Ø¯ÙĤ
V V
ĠA g
nØ¹ÙĨ ÙĪØ§ÙĨ
ĠÙĥØ± ÙĪÙħ
ĠÙħØ¶ Ø§Ø¹
ĠÙĬØ¹ Ø¨Ø±
ØªØ¹ Ø§Ø¯
nØ¨ Ø§ÙĦØ¥Ø¶Ø§ÙģØ©
ĠØ§ÙĦÙħØ³Ùħ Ø§Ø±
4 96
ÙĪØ¶ ÙĪØŃ
ĠÙħÙĤ Ø§Ø¹Ø¯
ĠØ§ÙĦÙħÙĨ Ø§Ø¹Ø©
ĠØ§ÙĦÙħØŃ ÙĪØ±
ĠØ´ ÙĤ
ĠR ed
ĠØ£ÙĤ ÙĪÙĦ
ĠÙħØº Ø°ÙĬ
Ġ 97
ĠÙĪØ§ÙĦØ¹ Ø¯ÙĬØ¯
2 88
ĠØ£Ø³ Ø±Ø§Ø±
nA bout
84 57
ĠØªØªØŃ Ø¯Ø«
Ø³Øª ÙĤØ±Ø§Ùħ
ĠÙħØŃ ÙĬØ·
ĠØ¨Ø§ÙĦ ÙħØ¦Ø©
ÙģØ¹ ÙĪÙĦ
ĠØª Ø³ÙĬ
ĠØ§Ø¯ Ø®ÙĦ
Ø· ÙĬØ©
ĠØ§ÙĦÙħ ÙĥØ³
ĠÙģ ÙĤØ±
ĠØ§Ø³Ùħ Ùĥ
nØ£ ÙĨØª
ĠÙĪØ¶Ø¹ ÙĩØ§
ĠØ§ÙĦØµ Ùħ
nØµ Ø®Ø±Ø©
el ete
Ġm on
ĠØ§ÙĦØ³ÙĦ Ø§ØŃ
ĠÙĪØ§ÙĦØª Ø´
ĠØ§ÙĦÙħÙĤ Ø§Ø¨ÙĦ
ĠÙĬØ³ ÙĩÙĦ
nÙĤ ÙģØ§Ø²Ø§Øª
Ø§Ø° ÙĨ
ĠØ§ÙĦØ£ ÙĩÙħÙĬØ©
ĠÙĪØªØ´ ØºÙĬÙĦ
Ø¨ Ø¤
ĠØ³ Ø§Ø±Ø©
ĠØŃ Ø§ØªÙħ
ÙĨÙĬ Øª
ĠÙħØ¶ Ùī
ĠÙĦÙĦ ÙĥØ§ØªØ¨
anu ary
ĠÙĪ Ø§Ø¦ÙĦ
ĠØ§ÙĦÙħ Ø§Ø¯ÙĬØ©
ĠØ® Ø§ÙĦ
ĠØ¨ ØŃÙĬ
$ (
lo ud
Ġth ese
C O
97 65
Ø§Ø²ÙĬ Ø§Ø¡
ĠØªØ± ÙħÙĬÙħ
Ø¯ Ø®Ø§ÙĦ
Ø·Ø¨ÙĬ Ø¨
998 81
ore x
ĠÙĪØ¥ ÙĦØ§
ĠØ« Ø¨Øª
ĠØ§ÙĦØµ Ø§ÙĦ
ĠÙħÙĨ Ùī
ĠÙĦ Ø·ÙĦØ§Ø¨
ĠØ§ÙĦØ± Ø´
ĠØ§ÙĦØ·ÙĦ Ø§Ø¡
ĠÙħÙĪ Ø¶ØŃ
ĠÙħ ÙĥØ³
ĠØ§ÙĦØ§ÙĨØª Ø®
ĠÙĪØª ØµÙĨÙĬØ¹
Ø§Ø¦ Ø¶
ĠØ§ÙĦØ³ ÙĥÙĥ
ĠÙĬÙĤ Ø¯Ø±
Ø§Ø³ Ùĩ
ĠØª ÙħÙĨØ¹
ĠØ¢ Ø±Ø§Ø¡
ÙĪØ± ØµØ©
ÙħÙĬ Ø
nØ§ÙĦ Ø²
Ġâ Ĥ
996 75
ĠØ®Øµ ÙĪÙħØ§Øª
Ã± ol
Ġ 000
ĠØ§ÙĦØŃ Ø§Ø¯ÙĬ
ÙħÙĬØ §
Ø« Ø§Ø±Ø©
Ġre g
ĠS af
J G
ĠØ§ÙĦØªØ³ ÙĦÙĬÙħ
ĠØ§ÙĦÙĥÙĬÙħÙĬ Ø§Ø¦ÙĬ
ĠØ§ÙĦØ¬ Ø¨
ĠØ§ÙĦØŃÙĪØ« ÙĬ
ÙĪØ¬ ÙĪ
Ġ' '
Ġ ip
ĠØ¨ Ø´Ø§Ø±
ĠÙħØ´ ÙĥÙĦØ§Øª
980 35
nØµ ØŃØ©
ĠÙħØŃ ÙĦÙĬ
Ø«Ø± Ø§Ø¡
Øº Ø§ÙĨÙĬ
ĠØ¥ ÙĬÙĩ
ĠØ§ÙĦØ«ÙĦ Ø¬
F P
ÙĥØ±ÙĬ Ø§Øª
ĠØ§ÙĦÙħÙĪ ØŃØ¯
ĠØ¶Ø± ÙĪØ±ÙĬØ©
s m
Ø§Ø³ Ø±
Ø² Ø§Ø±
r l
ĠÙħØ¹Ø±ÙĪÙģ Ø©
Ø· Ø¹Ùħ
ĠØ§ÙĦØª ÙĪØŃÙĬØ¯
Øµ Ø§ØŃ
ĠÙħØ® Ø§ÙĦÙģ
ĠÙĬÙĨØª Ø¸Ø±
am a
ĠØ¬ Ø¨Ø§ÙĦ
Ø§ÙĤ Ø±Ø£
V ersion
Ġpro cess
nØ£ ÙĪ
nØª ØµÙĨÙĬØ¹
ØªØŃ Ø§Ø¯
ĠØ§Ø¬ÙĨ Ø¨ÙĬ
ĠÙģÙĪØ± Ø
ĠÙģÙĪØ±Ø §
ĠØŃÙĬÙĨ ÙħØ§
ĠÙħØª Ø§Ø¬Ø±
ĠØªØŃ Ø±Ùĥ
ĠØ§ÙĬ Ùĩ
ĠØ§ÙĦØ¨ ÙĨÙĬ
ĠØ§ÙĦØ¹ ÙĦÙģ
4 01
Ø§Ø¨ÙĬ ØŃ
ĠD i
9998 24
ĠÙĩ Ø¯ÙĬØ©
M S
ĠØ§ÙĦØ¨Ø§Ø¨ Ø
ĠØ§ÙĦØ¨Ø§Ø¨Ø §
ĠØªØ® ÙģÙĬÙģ
ĠØ§ÙĦÙĨ Ø§ØµØ±
Ø§Ùĩ ØªØ²Ø§Ø²
um ber
ĠØ§ÙĦØ®Ø´ ÙĨØ©
ĠØ§ÙĦÙĤÙĦÙĬ ÙĪØ¨ÙĬØ©
ĠÙĬØ± ÙģØ¹
ØŁ !
ĠØ¨Ø§ÙĦÙħÙĨ Ø²ÙĦ
ĠØ§ÙĦØ§Ø³Øª Ø´Ø§Ø±Ø§Øª
ã Ĥ
Ø¨ Ø§ÙĨÙĬ
ain t
ĠØ¯Ø± Ø§Ø³Øª
Ġk o
ĠØ¨Ø± ÙĪÙĨ
Ġ 87
Ø¦ ÙħØ©
Ø· ÙĦØ©
ĠØ§Ø¹ Ø¯Ø§Ø¯
ĠÙĨØ¸ Ø§Ø±Ø§Øª
ĠØ§ÙĦØŃ Ø¯ÙĬÙĤØ©
ĠØ¢ ÙĦØ§Ùħ
ĠÙĬ ÙħÙĬØ²
ĠÙĦØ³ Ø§ÙĨ
86 0
Ġo ther
ØŃØ± Ø§Ùħ
ĠØ§ÙĦØ¬ ÙĪØ²
2 83
ĠÙĦÙĦ Ø·ÙĨ
ĠØ§ÙĦÙħØ¹Ø§Ø± Ø¶
Ħ ØºØ©
Ù ĦØºØ©
Ġhe lp
77 3
ĠØªØ¹ÙĦÙĬÙħ Ø§Øª
u c
ĠØ§ÙĦØ² ÙĥØ§Ø©
lat form
ĠØ¨ÙĬÙĨ Øª
ĠØ§ÙĦØ¨ Ø¯ÙĬ
ĠØ³ÙĨ Ø§Ø¨
ØŃÙħØ¯ Ùĩ
ÙĪØ§ÙĨ Ø
ÙĪØ§ÙĨØ §
Ø§Ùĥ Ø§ÙĪ
W W
Ġc lass
ĠØ£ Ø®Ø·Ø§Ø¡
ĠØ§ÙĦÙĨØ³ Ø¨Ø©
Ø¨Ø· Ø§ÙĦ
ĠÙĥ ØªÙĦ
Ø¨Ø¹Ø§Ø« Ø§Øª
ĠØ±Ø´ ÙĬØ¯
Z Z
ĠØ§ÙĦÙĨ Ø³Ø¨
ĠØ§ÙĦØ£ Ø±Ø´ÙĬÙģ
ra q
996 34
op le
ĠÙĨØ§ÙĤ ÙĦØ§Øª
ĠØ§ÙĦØ² Ø±ÙĤØ§Ø¡
F N
ĠØ³ Ø§ÙĨØ¯
ĠÙħØª ÙĤ
ĠÙħ Ø§ÙĩÙĪ
ĠØ´ Ø§ÙĬ
ĠØ§ÙĦÙģØ± Ø§Øº
ĠÙģ ÙĪØ±Ø¯
ÙģØ³ Ø§Ø¯
Ġ5 8
ĠØ§ÙĨØª Ø¸Ø§Ø±
ĠÙĦØª ÙĦÙĥ
ØºØ± Ø§ÙģÙĬØ§
Ø° Ø§ÙĨ
ĠÙĨ Ø¤
ØµÙĦ ØŃ
nØ³ Ø¬ÙĦ
ÙħÙĬÙĨ ÙĬØ§
ĠÙĥØ§Ùħ ÙĦØ§
ĠØ§ÙĦØº Ø³Ø§ÙĦØ©
9997 145
ĠÙģ Ø³Øª
ĠØ§ÙĦØ£ ÙģÙĤ
ĠØ´Ùģ Ø·
nØ§ÙĦØŃ ÙĦÙĤØ©
ĠØ§ÙĦØ´ Ø£ÙĨ
ĠØ§ÙĦÙĤ ÙĪ
Ø¹ÙĨ Ùģ
ØªØ¨ Ø§Ø¹
Ø¯Ùħ Ø§Ø¬
ĠØ§ÙĦØªØ¶ Ø®Ùħ
ĠØ§ÙĦØ¬ÙĨØ³ ÙĬÙĨ
ĠØ±ÙĬØ§Ø¶ ÙĬ
ĠØ§ÙĦÙħÙĥ Ø«Ùģ
Y D
r id
ĠÙĦÙĦØ´ Ø¨Ø§Ø¨
ÙĤ Ø·Ø±
ĠÙħ ÙĦØ§Ùħ
ess ion
47 93
n Ø§Ø¬
ul d
ĠØ± Ø¨ÙĬ
ĠÙĦØªØŃ ÙħÙĬÙĦ
ĠÙħ Ø§ÙĩÙĬ
ĠÙħ Ø·Ø±
ĠÙħØ³ Ø§Ø¦ÙĦ
6 12
ĠØ¥Ùħ Ø§Ùħ
nØ± Ø§Ø¨Ø·
76 9
96 95
ĠÙģØ¥ÙĨ Ùĥ
ĠÙĦÙĦÙħ ÙĪÙĤØ¹
ĠØ§ÙĦÙĦÙĬ ÙĦØ©
**** ****
ĠG old
ĠÙħ Ø§Ø±ÙĬ
ĠØ³ Ø¯Ø§Ø¯
ĠÙĥÙħ Ø¨
ĠØ§ÙĦØº Ø§Ùħ
ĠØ´Ø¹Ø¨ Ø§ÙĨ
ÙĨ Ùģ
ĠØ§ÙĦÙĩØ§ Ø¯ÙĬ
Ùģ Ø±ÙĬÙĤÙĬØ§
ĠÙĦ Ø¢ÙĦØ§Øª
Ø§ÙĬ ØªØ¯
ï¼ ļ
ĠØ¬ Ø³Ø±
ĠØ§ÙĦØ£ Ø°ÙĨ
nØ¥ ØºÙĦØ§ÙĤ
ĠØ§ÙĦØª ÙħÙĬÙĬØ²
ĠØ§ÙĦÙĤ Ø§Ø³Ùħ
996 46
ĠØ§ÙĦ ÙĪØ¨
ĠØ§ÙĦØ³Ø¹Ø± Ø§Øª
ĠØ¹ ÙĪØ¶
ĠØµ ÙĬÙĨÙĬ
Ø³ÙĬ Ø§ÙĨ
7 36
ĠØªØªØŃ ÙħÙĦ
ÙĤØ¯ Ø³
ĠØ§ÙĦÙĪÙĤ ÙĪÙģ
en cy
7 87
ĠØ¥ÙĦ ÙĬÙĨØ§
1 99
ĠØ¨ Ø§Ùĩ
Ġit s
M L
ĠØ³ Ø¹Ø§Ø¯Ø©
ĠØ£ÙĪ Ø§Ø¦ÙĦ
ĠØ§ÙĦÙĤÙĦÙĬ ÙĦØ©
n Ø³ÙĦ
ĠØ§ÙĨÙĩ ÙĬØ§Ø±
ĠÙħÙĤ Ø¹Ø¯
nÙĪÙĥ Ø§ÙĨØª
Ø¹ ÙĪØ±
I O
ĠØ³ Ø§Ø¹
nØ§ÙĦ ØªØ±
ÙħØ§ Ø·Ùħ
ÙĢ Øª
38 0
ĠØ§ÙĦØ¥ÙĬØ· Ø§ÙĦÙĬ
998 70
ĠØ§Ø¨ ÙĬØ¶
olut ions
ĠØº Ø±ÙĬØ¨Ø©
ĠÙĬÙĤØ¯Ùħ ÙĩØ§
ĠØ§ÙĦÙħÙĩ Ø¨ÙĦ
Ġst or
20 07
ĠÙĪ Ø¹ÙĦØ§Ø¬
nÙĪÙħ Ø¹
ĠØ¹ÙĨ Ø§ÙĬØ©
ĠÙĦ ÙĥÙĪÙĨ
ĠÙĨ Ù
s w
Ġ3 000
ĠØ§ÙĦ Ø§ÙĬÙģÙĪÙĨ
ĠØ£ Ø¶
ĠØªØ¬ ÙģÙĬÙģ
ĠØªÙģ Ø§Ø¹ÙĦ
Ø¹ÙĨ Ø¯ÙħØ§
ĠØ¯Ùħ Ø¬
ĠÙĪÙĩ ÙħØ§
p c
ĠØ§ÙĦÙħØ³Ø¤ÙĪÙĦ ÙĬÙĨ
7 99
li m
ĠÙħØµ Ø¯
nÙħ Ø¬ÙĦØ³
ĠÙħ Ø§ÙĩØ±
ĠØ§ÙĦÙħØ¹ ØªÙħØ¯
ĠRe al
ĠÙħØ³ Ø¬ÙĦ
Ø§Ø· Ø¦Ø©
18 02
ĠØ§ÙĦÙģ ÙĪØ±ÙĬ
ĠØ´Ø± ÙĪØŃØ§Øª
ĠÙĦÙĬÙĨÙĥØ¯ Ø¥ÙĨ
Ġe u
Q Q
74 2
Ġt rans
Ø¨ÙĦ Ø§Ø¯
36 87
ĠÙĬØ³Øª ÙĤØ¨ÙĦ
ĠØ§Ùģ ØªØ±
ĠÙĪØ§ÙĦ Ø«ÙĤØ§ÙģØ©
ĠØ¬ Ø§ÙĦ
ĠØ²Ø¬Ø§Ø¬ Ø©
Ġ7 2
ĠØ¥ ÙĨÙĬ
99797 57
ĠØ§ÙĦØŃ Ø¬Ø²
nØ§ÙĦÙħÙĪ Ø¶ÙĪØ¹
ĠW atch
ĠÙħØ³ Ø¹ÙĪØ¯
ĠÙħ ÙħÙĦÙĥØ©
ĠØ§ÙĦÙĤØ± Ø¢
ĠÙĨÙ Ħ
i que
ĠØ§ÙĦØ¹ Ø§Ø¦Ø¯
ĠØ§ÙĦØ¶ Ø±Ø±
Ø¹Ø¯ Ø§ÙĦØ©
ĠØª Ø¶Ø±
ĠÙģØ±ÙĬ Ø´
ĠØ§ÙĦÙĪ Ø§Ø¶ØŃ
ĠØ£Ø¯ Ø®ÙĦ
Ùī Ø¡
ÙĪØ± ÙĪØ¨Ø§
998 63
6 15
ĠØ¯ Ø¨ÙĦÙĪÙħ
ĠØ¥ Ø¹Ø¯Ø§Ø¯Ø§Øª
ĠØ§ÙĦØ³ÙĨ ØºØ§ÙĦ
ĠØ§Ùħ Ø±
ĠÙħØ·ÙĦ Ø¹
ĠØ£ÙĨÙĪØ§Ø¹ ÙĩØ§
ĠØ§ÙĦØ§Ø³Øª ÙħØ±Ø§Ø±
ĠØ¨Øµ ÙĪØª
ĠØª Ø¹ÙĦ
Øµ Ø§Ùģ
ĠÙħØªØŃ Ø¯Ø«
ĠØ£ÙĩÙħ ÙĩØ§
ĠØ± ÙģÙĬ
ĠØª Ø«
Ùģ ÙĬÙĦ
ĠØ§ÙĦÙħØ¹ Ø§Ø¯
ĠØ± ÙĪÙī
ĠØ§ÙĦÙĪØ¸ÙĬÙģ ÙĬ
Ú ¾
ĠØ§ÙĦØ² Ø§ÙĪÙĬØ©
ĠØ§ÙĦØ¹ ÙĪ
ĠÙħ Ø®Ø±
E GP
il la
nG oogle
ĠÙĥØ« Ø±Ø©
f il
ÙĨØ§Ø·ÙĬØ³ ÙĬØ©
W idth
ĠÙħÙĪ Ø¸ÙģÙĬ
ĠØ± Ø§Ø¬Ø¹
ĠØ§ÙĦÙĦ ÙĪ
ĠØ§ÙĦÙħ ØŃØ¯Ø«
8 09
ÙĦÙĬØ´ ÙĬØ§Øª
K L
nØ´ ÙĨØ·
ĠØ§ÙĦÙĦÙĬ Ø¨ÙĬØ©
ĠØªØ±ÙĬ ÙĦÙĬÙĪÙĨ
ĠØ§ÙĦÙĪ ØµÙģ
Ġ: -
ÙĤØ¯ Ø§ÙĨ
ĠØ®Øµ ÙĬØµ
ĠÙĪÙģÙĬ ÙħØ§
97 64
nÙĨ Ø¹Ùħ
ïº į
ĠØ£Ø³ ÙĨØ§ÙĨ
999 42
Ħ ÙģØ©
Ù ĦÙģØ©
ĠÙĦÙĦØ¹ Ø¯ÙĬØ¯
ĠÙĥ Ø±Ø¯
ĠâĢı (
ĠÙĪØ® Ø§Ø±Ø¬
Ø± Ø®
4 21
$ -
ĠØ§ÙĦÙħØª Ø§Ø¨Ø¹
Ø´ Ø§ÙĩØ¯
Ġm aterial
ĠÙĪØ§ÙĦ Ø§ÙĦ
ĠÙģ Ø¥
ÙĪÙģ Ø§ÙĨ
ĠØ§ÙĦØ£ ØŃÙħ
ĠØ§ÙĦÙħØ³Øª Ø«ÙħØ±
ĠÙĬØ³Øª ÙħØ±
ĠØ±ØŃ Ù
ĠØ±ØŃÙ Ħ
ĠØ¥ Ø´Ø§Ø±Ø§Øª
6 57
ĠÙĤ Ø§Ø¨
M D
97 15
5 47
ĠÙħ ÙĪØ¯
ĠØ§Ø³ ÙĪØ¯
ĠØªØ¨ ÙĪÙĥ
nØ§ÙĦÙħ ØµØ¯Ø±
Ø±ÙĬØ§Ø¶ ÙĬØ§Øª
ÙĨ Ø±
p act
ra in
ĠÙĦØª ØµØ¨ØŃ
i ent
ĠØ§ÙĦØ® ÙĬØ±ÙĬØ©
ĠCom plete
ØºØ±Ø¨ ÙĦØ©
ĠØ§ÙĦÙħØ³ Ø§ÙĩÙħØ©
Ġin to
ĠAug ust
ĠØ§ÙĦÙģØ±Ø¯ ÙĬØ©
ĠÙĤ Ø§Ø¯
d iv
ĠÙĨ Ø¨ÙĬÙĦ
00006 06
4 93
ĠÙħ ÙĪØ¯Ø±ÙĨ
R C
E AC
ĠØ§ÙĦØ³ ØŃØ¨
Ùĩ ÙĬØ¯
Ø³Øª Ø§ÙĦ
ĠØ§ÙĦØµÙĩÙĬ ÙĪÙĨÙĬ
ĠÙħØµ ÙħÙħØ©
ĠØ§ÙĨØª ÙĤÙĦ
ĠÙĪØ§ÙĦØ¹ ÙĦÙħ
55 8
Ø¶ÙĬ ÙĤ
ĠØ§ÙĦÙħØŃ Ø§Ø³Ø¨Ø©
18 16
ĠØ§ÙĦÙħÙģ ØªØ§ØŃ
ĠÙħÙĪ Ø§Ø·
af f
ĠØ§ÙĦÙħØ±Ùĥ Ø¨Ø©
ĠØ§ÙĦØ± Ø§Øº
ĠÙĤØ± Øµ
998 39
nS ave
ĠØ§ÙĦÙħØ° ÙĥÙĪØ±
ĠØ§ÙĦÙģÙĬØ±ÙĪØ³ Ø§Øª
Ġï ·
ĠØŃ Ø¯Ø©
77 1
ĠÙĪÙĦÙĬ Ø³Øª
ĠØµ ÙĩØ±
ĠD u
ĠØ£ ÙħÙĬ
ĠØªØ´ Ø¨Ùĩ
ÙĢÙĢÙĢ Ø©
Ø³ÙĬ ÙĦØ©
ĠØ¯Ø¨ ÙĦÙĬÙĪ
ĠØ¨Ø§Ø¹ØªØ¨Ø§Ø± ÙĩØ§
ĠØ§ÙĦØª ÙħØ¯ÙĨ
ĠØ¨ Ø´Ø±Ø§Ø¡
ĠØ¶ Ø±ÙĪØ±ÙĬ
ÙħØ§Ø± ÙĬÙĨ
Ø·Ùĩ ÙĬØ±
Ø§ÙĩÙħ Ø§Øª
Ø§Ø³ Ø
Ø§Ø³Ø §
nØª Ø£Ø¬ÙĬØ±
ĠÙĨØª Ø¹Ø±Ùģ
ĠâĢ ª
em ber
ĠØ§ÙĦØªÙĤ ÙĨÙĬ
nØª ØµÙģØŃ
ĠØ§ÙĦØ± Ø·ÙĪØ¨Ø©
ĠÙĤØ± Ø§Ø¡
ØªØ¯ Ø®ÙĦ
ĠÙĦØº Ø²
| --
ĠÙħ ÙħÙĦ
Ø¨ Ø¹Ø©
Ùģ ÙĪØ¹
ĠØ§ÙĦÙĩ Ø¬Ø±ÙĬ
Ø±ÙĬ ÙģØ©
T I
ĠÙĬØ¹ ÙĤÙĪØ¨
20 74
ĠØ§ÙĦØ¹Ø§ÙĦÙħ ÙĬÙĨ
ÙĦØ§ÙħÙĬ Ø°
ĠÙĬØ±ÙĬØ¯ ÙĪÙĨ
ĠØ§ÙĦÙħØ´ Ø§Ø¹Ø±
ĠØ§ÙĦØ£Ø¬ Ø§ÙĨØ¨
ĠØ§ÙĦØ§Ø¯ Ø§Ø±Ø©
ÙĦÙĬ ÙĥØ§
ĠØ§ÙĦØ®Ø· ÙĬØ¨
Ġv ideo
ĠØ´Ø£ÙĨ ÙĩØ§
ĠØ´ÙĩØ± ÙĬÙĨ
nÙĬ ÙĪÙĨÙĬÙĪ
ĠØ§ÙĦØŃÙĤ Ø§Ø¦ÙĤ
Ø§Ø³ Ùī
ĠØ§Ø¨ Øª
ĠØ³ Ø¤
ala xy
ĠØ· ÙĩØ±Ø§ÙĨ
ĠÙĪ ÙĥÙĨ
Ø§Ùĥ ÙĬÙĨ
ĠP h
ĠØ§ÙĦÙĤ Ø±ÙĬØ¨
4 13
ĠØ§ÙĦØ§ØŃØªÙģ Ø§ÙĦ
g h
rad ing
ĠØ§ÙĦØ´Ø± Ø¨
ĠØªØ¨ ÙĬÙĨ
ch ool
Ġn ews
4 11
ĠØªØ³ ÙĩÙĬÙĦ
ÙĪÙĨÙĬ Ùĥ
Ø§ÙĦ Ø£ÙĨ
ĠØ· Ø±Ø¯
ou n
ĠØ§ÙĦÙĨØŃ Ù
ĠØ£ÙħÙĨ ÙĬØ©
ĠØ§ÙĦÙĨØŃÙ Ħ
ĠØ§ÙĦØ£Ø¹ Ø´Ø§Ø¨
Ø§ÙĦ Ø¨Ø§Øª
ĠO ne
nØ§ÙĦØ£ Ø±Ø¨Ø¹Ø§Ø¡
T ag
ĠÙĬ Ø°ÙĩØ¨
ĠØ³ÙĪ ÙĬÙģ
ĠØ¨Ø§ÙĦ ØŃÙĤ
ĠØ§ÙĦØ¯Ùĩ ÙĨÙĬØ©
ĠÙĪ Ø·ÙĦØ¨
ĠÙĦ Ø°
ĠØ§ÙĦÙĪØ§Ø¬ Ø¨
ĠØ§ØŃØªØ± Ø§ÙģÙĬØ©
ĠÙĨØ´Ø± Ùĩ
96 56
ĠØŃ Ø²ÙħØ©
ĠØ¨Ø§ÙĦØ³ Ø¹ÙĪØ¯ÙĬØ©
ĠØ§ÙĦÙħ Ø§ÙĦÙĥ
Ø¨Ø§ÙĦ Øº
Ø§ÙĥØª Ø´Ùģ
Ø¹ ÙĤØ¯
ĠÙħØ³ ØŃ
ĠÙĪØ§ÙĦØªÙĪ Ø²ÙĬØ¹
ĠÙĪÙĦ ÙĩØ§
ut sch
ĠØµ Ø§Ø¯Ø±
Ġcom pany
ĠØ§ÙĦÙħØ® Ø§Ø¨
ĠÙħØ® ØªØ§Ø±Ø©
4 24
ĠÙĪØ¨Ø± Ø§ÙħØ¬
xy z
ĠØ§ÙĦØ« Ùħ
ĠØ§ÙĦØªÙĪ Ø§Ø²ÙĨ
ĠÙĪØ§ÙĦ Ø§Ø±
65 2
ĠØ§ÙĦÙħ ÙģØ§ØªÙĬØŃ
ĠÙĪØ¬ ÙĪÙĩ
ĠØ§ÙĦÙĦ ÙĪØ²
ĠØ§ÙĦÙĨ Ø§Ø±ÙĬØ©
ĠØ§ÙĦÙģØ± Ø¹
Ø¹ ÙĪØ§
ĠØ§ÙĦØ¨ÙĦ Ø¯ÙĬØ©
ĠØªØ® Ø¶Ø¹
ÙĪØ§ØŃ ÙĬ
nØ§ÙĨ ÙĪØ§Ø¹
ĠØ¥Ø³ ØŃØ§ÙĤ
ĠØ³ ÙĥÙĬØªØ´Ø±Ø²
ĠØ§ÙĦÙĨØ¸Ø± ÙĬØ©
ĠØ§ÙĦØ® ÙĬØ§Ø·Ø©
Ø§Øµ ÙĦØ§Øª
ĠØº Ø§Ùħ
ĠØ§ÙĦØ§Ø³Øª ÙħØªØ§Ø¹
n Ø·ÙĦØ¨
ĠÙħØ± ØªØ¨Ø·Ø©
: \"
ĠÙĩØ§Ùħ Ø´
ĠØ¨Ø¥ Ø¬Ø±Ø§Ø¡
ĠØ§ÙĦØ¥ Ø³Ùħ
Ø¨ Ø¨
ĠÙħ Ø¯Ùħ
Ġ 63
ĠL ED
m on
ĠÙĦÙĦÙħØ³ Ø§Ø¹Ø¯Ø©
97 31
ÛĮ Ø±
nØ§ÙĦ ÙħØ¤
ĠÙĥØ´ Ø§Ø´Ø©
ĠÙĪØª Ùĥ
ĠØ§ÙĦÙħØ³Øª ÙħØ±Ø©
ĠØ² Ø§ÙĦØª
ĠØ¨ÙĪÙĦ Ø§ÙĬØ©
ĠÙħÙĪØ±ÙĬØª Ø§ÙĨÙĬØ§
ĠØ³ Ø¨ÙĬ
ĠÙħÙĪ Ø¯ÙĬÙĦØ§Øª
Ø§ÙĦÙħ ÙĪ
ĠØ·Ø¨ ÙĤØ§
ĠØ±ÙĬØ¨ ÙĪÙĥ
ĠØ§ÙĦÙĥ ÙĪØ¯
ĠØ³ÙĬ Ø¯Ø©
ĠÙĪ Ø±Ø³
ĠØª ØªØ±Ùĥ
998 33
ï» £
ĠÙ± Ù
stru ction
âĢ ®
ĠÙ±Ù Ħ
ÙĬÙħ Ø§ÙĪÙĬØ§Øª
ĠÙĦÙĦ ØªØ¯Ø§ÙĪÙĦ
998 79
ĠØ¨Ø§ÙĦÙħ ÙĤ
ĠØ±Ø¦ÙĬØ³ Ø
ĠØ±Ø¦ÙĬØ³Ø §
ĠÙĪØ£ Ø¯
97 27
ĠCom pany
ÙĨ ÙĩØ§
J J
ĠÙħ Ø±ÙĬØŃØ©
H W
ĠØ¨Ø¥ Ø°ÙĨ
ĠØ§ÙĦ ÙĪØ¬ÙĪØ¯
ĠØ£ÙĦ ÙĪØ§ØŃ
ĠÙģ ÛĮ
ĠØ§ÙĦØ¥ Ø¬ÙħØ§ÙĦÙĬ
ĠØ§ÙĦØ§Ø³Ø¨ ÙĪØ¹
ĠØŃÙĬ Ø§ØªÙĩÙħ
ĠØ§ÙĦÙħØ± Ø¡
n b
m u
ĠØ§ÙĦØ£ Ø¯ÙĬØ§ÙĨ
ĠØ¥ÙĬØ¬ Ø§Ø¨ÙĬØ©
ĠØŃØ± Ø§Ø±ÙĬØ©
ĠØ§ÙĦÙħÙĨ Ø³
ĠÙħÙĪØ« ÙĪÙĤØ©
ĠØª Ø³ÙĦ
26 94
ĠØ´Ø± Ø§Ø¦ØŃ
ĠØ£ Ø¶Ø¹Ø§Ùģ
Ħ Ø§ÙĨ
Ù ĦØ§ÙĨ
sc ri
ĠØ§ÙĦØ¨ ÙĥØªÙĬØ±ÙĬØ§
ĠØ§ÙĤ ÙĪÙī
ĠØ§ÙĦØ£ÙĦÙĬ ÙģØ©
S A
ĠÙħØ§Ø± Ùĥ
Ġqu ot
ĠÙ ¨
ĠØ§ÙĦÙħÙĤ Ø§Ùħ
ĠØªØ¨ Ø§Ø¹
ĠØ§ÙĦØ´ ÙģØ§Ø¡
nØ§ÙĦØ£ ØŃØ¯
ĠØª Ø®Ø·
ĠØ¯ ÙĦÙĬ
995 96
in ation
Øµ ÙĤ
ĠÙĪØ§ÙĦØª Ø¬
ĠØªØ¬ Ø±ÙĬ
98 68
Ùħ ÙĪÙĨØ¯
ÙĤØ· Ø¹Ø©
ĠC an
ĠÙĥØ±ÙĪØ§Øª ÙĬØ§
ĠØ§ÙĦÙĥØ± ÙĪÙħÙĬØª
Ø¹ ÙĦÙĬÙĩ
ĠO n
ĠØŃ Ø³Ø§Ùħ
ĠP o
ĠØªÙĪ Ø³ÙĬØ¹
ĠØ§ÙĦÙħØ³ Ø£ÙĦØ©
ĠØ³ÙĬØ¯ ÙĨØ§
nÙħÙĦ Ø§Ø¨Ø³
ĠÙħÙĬ Ø³ÙĬ
63 95
Ġs im
om en
ĠØµ Ø§ÙģÙĬ
ĠØ§ÙĦØ·Ø±Ùģ ÙĬÙĨ
ĠØ§ÙĦØ´ ÙĥØ±
ĠØŃ Ø¬Ø±ÙĬ
ĠØ§ÙĦØ¥Ø³ ÙĥØ§ÙĨ
ĠØ§ÙĦØ£ ÙĪØ¶Ø§Ø¹
ĠÙĬØªÙĨ Ø§ÙĪÙĦ
ĠØ¨ÙĬÙĥ ÙĪ
C DE
ĠÙĪ Ø¹ÙĦÙĪÙħ
ĠÙħØº Ø±Ø¨ÙĬ
nØ§ÙĦÙħØŃÙħ ÙĪÙĦ
ÙĪÙĥÙĬ Ø²
ĠÙĬ Ø§Ø¨
nT weet
ĠØ§Ø³ØªØ®Ø¯Ùħ Øª
5 56
ĠØ§ÙĦØŃÙĦ ÙĪÙĬØ§Øª
ĠÙĩÙĪ Ø§ÙĪÙĬ
ĠØ£ÙĬ ÙĩØ§
ĠØ£ ÙħÙĪ
ĠÙĦÙħØ³ Ø§Ø¹Ø¯Ø©
Ġ ?
ĠÙĬØ¯ ÙĪÙĬ
ĠÙĪÙģ ØªØŃ
Z C
ĠÙĦÙĦ ØªÙħ
ĠÙħÙĨ ÙĪØ¹Ø§Øª
ĠÙĨÙĩ Ø¬
nØ£ ÙĪÙĦ
ĠØ§ÙĦÙħØ± Ø§Ø¬Ø¹
ĠØ¨ÙĦ ÙĪÙĥ
Øº Ø¯
ĠÙĪØª Ø¹ÙħÙĦ
ĠØ§ÙĦØ³ Ø§ØŃØ©
ĠØ§ÙĦØ®Ø± Ø·ÙĪÙħ
Ġmill s
ĠØ§ÙĦØ· Ø§Ø²
ult s
ĠØ¨Ø§ÙĦ Ø§Ø³
ĠâĨ Ĵ
ĠØ§ÙĦØª Ø«Ø¨ÙĬØª
ĠÙĪØ§ÙĦ ØŃØ¯
n Ø³Ùħ
ÙĥØª ÙĩØ§
ĠS earch
ĠG o
ĠØ¯ÙĬ Ø¨
ĠØ§ÙĦØ³Ùģ Ø§Ø±Ø©
5 06
n Ð
ĠØ¨Ùĥ Ø§ÙĦ
Ø¹Ø¯ ÙĨØ§
ĠÙĪØªØŃ ÙĦÙĬÙĦ
ĠØ§ÙĦÙħØ³ Ø§ÙģØ©
ĠØ§ÙĦÙĤØµ ÙĬÙħ
ĠØ£Ùħ Ø§Ø²ÙĪÙĨ
ĠØ§ÙĦØ§Ø¨ ØªÙĥØ§Ø±
ĠØ¨Ùħ ÙĤØ¯Ø§Ø±
ĠØ§ÙĦØ¬Ø± Ø§Ø¦Ùħ
ĠØ§ÙĦØ¬ÙĦ ÙĪØ³
Ġ> \
ĠÙģÙĦÙĪØ±ÙĬ Ø¯Ø§
ÙĪØ§Øª ÙĬØ±
ĠØ¥Ø« Ø¨Ø§Øª
Ø« Ø§Ø«
nÙĬ ÙĪÙĦÙĬÙĪ
Ġ+ \
spa Ã±ol
ĠØ§ÙĨ Ø®ÙģØ¶
ĠØ§ÙĦØ¥ Ø¨Ø¯Ø§Ø¹
ĠØ¹Ùħ ÙĪÙħØ§
ĠØ§ÙĦØ±ÙĪØ¨ ÙĪØª
ĠØ³ÙĦ ÙĪÙģ
ØµÙĬ Ø¯Ø©
Ø¹ ÙħØ©
Ø¯ ÙĨ
ĠØ§ÙĦØ¯ Ø±ÙģÙĦØ©
ur an
Ø¹Ø¨ Ø§Ø±Ø§Øª
ĠØ§ÙĦÙħØŃÙĬ Ø·Ø©
ĠL im
20 06
991 9521
ÙĪÙĦ ÙĪÙħÙĬØª
ĠØ£Ø¹ Ø·
0 19
996 25
ĠÙĪØ§ÙĦ ØµÙĪØ±
ĠØ³ÙĪØ¯ Ø§Ø¡
ĠB all
ĠØ¨ ÙĪØ¨
Ġd ownload
ĠØ¨ Ø·Ø±
ra y
a fa
ĠÙĪØ² Ø±Ø§Ø¡
Ø¬Ùĩ Ø²
7 55
nÙĪØª Ø§Ø¨Ø¹
ĠØ§Ø± Ø³Ø§ÙĦ
ĠØ§ÙĦÙĩØ¶ ÙħÙĬ
ĠØ§ÙĦØ¶Ø± ÙĪØ±ÙĬØ©
M R
Ġp ower
ĠÙĦÙĦ Ø«
ĠØ£ÙĬ ÙħÙĨ
ĠÙĪØ¨ Ø°ÙĦÙĥ
6 56
ĠØ¯Ùģ Ø¹Ø©
ĠØ§ÙĦØ§Ø¹ÙĦ Ø§ÙĨØ§Øª
ĠÙĪØ¨ Ùħ
ĠÙĬ ÙħÙĬÙĨ
ĠØŃÙģ ÙĦØ§Øª
ĠÙħÙĥ Ø§ÙĨØ©
ĠØ³ Ø®
ĠØ³ ØªÙĬ
ĠØ§ÙĦÙĨÙħ Ø§Ø°Ø¬
30 74
ĠØ¨Ø§ÙĦ Ø§ØŃ
ĠÙĦÙĦØªØŃ ÙħÙĬÙĦ
ĠÙĬÙħ ÙĪØª
ĠØ§ÙĦÙħÙĤØ¯ Ø³Ø©
ĠA bout
ĠÙĬÙĤÙĦ Ù
ĠÙĬÙĤÙĦÙ Ħ
vi ews
ĠØ§ÙĦØŃ Ø¶ÙĪØ±
ĠÙĪØª Ø¹Ø¯
ĠØªØ³ Ø§ÙĩÙħ
M P
nØ§ÙĦ Ø§Ø³ÙħÙĨØª
996 24
ĠØ°Ø§Øª ÙĩØ§
ĠÙĬÙĪÙħ ÙĬØ©
ĠÙģÙĥ ÙĬÙģ
Ã ¨
ĠÙĪØ§ÙĦÙĤ Ø§ÙĨÙĪÙĨ
at ive
Ġn avig
ĠÙħØ¹ ÙĥÙħ
ĠØ§ÙĦÙĥ Ø§Ø¦ÙĨØ§Øª
Ø§Øº ÙĬ
ĠÙĤ Ø±ÙĬØ¨Ø©
ĠØ® ÙĬØ±Ø§
le ft
ÙĤ Ø§ÙĨ
v ailable
Ø´Ø§Ø± ÙĤØ©
ĠÙħÙĨ ÙĥÙħ
996 16
ĠÙĦØ¯ Ø®ÙĪÙĦ
ĠÙħÙĦÙĥ ÙĬØ©
11 96
ĠØ§Ø±ØªÙģØ¹ Øª
ĠØ§ÙĦØ§ØŃ ÙħØ±
ĠÙĥÙĬÙĦÙĪÙħ ØªØ±
ĠÙħÙĤÙĦ Ø¹
ĠØ§Øª ÙĪÙħØ§ØªÙĬÙĥ
nÙħ ÙħÙĬØ²Ø§Øª
C DD
ĠØŃÙħ Ø²Ø©
Y Y
ĠÙħØ® Ø§ÙĦÙģØ©
Ø±ÙĬ ÙĥØ©
U I
ĠØ¨Ø¯ Ø§Ø®ÙĦ
7 00
Ġ144 2
ĠÙĩ Ø§Ø¦ÙĦØ©
ĠIn ternational
ĠÙĪ Ø§Ø¬ÙĩØ§Øª
20 08
Z V
ĠØ§ÙĦØ¶ ÙĪ
ĠÙħ ÙĬØ¬Ø§
ĠØª Ø®ÙĦ
ĠÙĪØª Ø¬ÙĩÙĬØ²
ĠH ea
U E
994 1
ĠØ§ÙĦÙħØ³Ø§Ø¹Ø¯ Ø§Øª
Ø§ÙĦ ÙħØ©
ĠÙĪ ØªØ±Ùĥ
ĠØ§ØŃ ØªÙħØ§ÙĦ
B y
Ø§ÙĦÙĬ ÙĪÙħ
ÙĬÙĨ ÙĬØ§Øª
K N
ĠØ§ÙĦØ¹Ø±Ø¨ Ùī
Ġre ad
maz on
ĠÙĪØ§ÙĦÙħ ØªÙĪØ³Ø·Ø©
ĠØ§ÙĦÙĨÙĤ Ø·Ø©
ĠØªØ¹ Ø§ÙħÙĦ
Ø³ Ø§Ø·
ĠØ§ÙĨ Ø´
ĠØ§ÙĦØ³ÙĪ Ø¨Ø±
ĠØ§Ø³ÙĦØ§Ùħ ÙĬØ©
ĠØ§ÙĦÙģ ÙĬÙĦ
ĠØ¹ÙĦ Ø§ÙĤ
ĠØªØ¯ Ø¹ÙĪ
ĠÙĬØ¬Ø¹ÙĦ ÙĩØ§
ĠÙĦ Ø¯Ø±Ø¬Ø©
n Î
ĠÙĪ ÙĤÙĦ
Ø´ Ø¹Ø©
ĠÙħØ¹Ø±Ùģ ØªÙĩ
ĠÙĤ Ø§Ø¹Ø©
Øª Ø§ÙĦÙĬØ©
ĠØ° ÙĥÙĬØ©
ĠÙħÙĬØ² Ø§ÙĨ
98 48
ÙĪÙħØ§Øª Ø³ÙĪ
7 95
Ġ 84
ÙĪØ¶ ÙĬØ©
Ø¹Ø± ÙģÙĬ
996 55
ĠÙĦ Ø¨Ø±ÙĨØ§ÙħØ¬
ĠØ§ÙĨØªÙĩ Ùī
ĠÙħ Ø´Ø§Ø±Ùĥ
ĠØªØ³ Ø±Ø¨
ĠÙĪ ØŃÙĤ
ĠÙĪØ§ÙĦÙħ Ø·Ø§ØŃÙĨ
ĠØ§ÙĦØ§ØªÙģØ§ÙĤ ÙĬØ©
n am
b s
4 82
ite m
ĠØ§ÙĦØ³ÙĪØ¯ Ø§ÙĨÙĬØ©
Ø¹ÙĬ ÙĪÙĨ
ĠØ§ÙĦÙħØ¬ ÙĬØ¯
ĠÙģØ± ØŃ
8 18
ĠA PK
7 02
ur ation
ĠØ§ÙĦÙĥ ÙĪØ±ÙĬØ©
Ø±Ùĥ ÙĪÙĨ
ĠÙĥØªØ¨ Øª
98 80
998 10
Ø§ÙĦ ÙĬÙħ
P ro
pl ies
nÙĥ Ø§ÙĨØª
ĠÙĦÙĬ Ø²Ø±
O ff
ĠÙĬ ØŃÙĤ
ĠØ´ÙĬÙĪØ¹ Ø
ĠØ´ÙĬÙĪØ¹Ø §
( {
ĠØ£ÙĦÙģ Ø
ĠØ£ÙĦÙģØ §
Q P
ĠÙĬÙĨ ØªÙĩÙĬ
ĠØŃ ØµØ±
ÙĦÙĬ Øµ
ĠBit coin
ÙĪ Ø®Ø©
ĠÙĪÙģ ÙĨ
998 03
ÙĪØµ Ø§Øª
ĠØª Ø¨ÙĬ
nØ® ÙĦØ§ÙĦ
14 66
ĠØ¨Ø§ÙĦ ÙģÙĬØ¯ÙĬÙĪ
ĠØ§ÙĦÙħØ¤ Ø´Ø±
ĠØ§ÙĦØ®Ø´ Ø¨ÙĬØ©
ĠØ§ÙĦØ³ÙĬØ¯ Ø§Øª
ĠÙĪØ§ÙĦØ¹Ø§ÙĦÙħ ÙĬØ©
ĠØ§ÙĦØ³Ùģ ÙĦÙĬ
ĠØ§ÙĦÙģØ¹ ÙĦÙĬ
Ø§Ø« Ù
Ø§Ø«Ù Ħ
ĠØ§ÙĦØŃ ÙģÙĦØ§Øª
ĠÙħ ÙĦØ¡
nØ§ÙĦÙħ Ø·Ø±ÙĤØ©
ĠØ§ÙĦÙħØ§ÙĦ ÙĥÙĬ
n ÙģÙĦ
ïº ª
ĠÙĥ Ø¹Ø¨
ĠØª ÙĪØ¶ØŃ
ĠØ£ Ø®ØµØ§Ø¦ÙĬ
ĠÙĬØ³Ø§Ø¹Ø¯ Ùĥ
996 17
ĠØ§ÙĦÙĪ ÙĥÙĬÙĦ
ĠÙĪØªÙĦ ÙħÙĬØ¹
Ø¨ Ø§Ø±ÙĬØ§Øª
l s
ĠÙĬØª Ø¹ÙĦÙħ
ĠÙĤ ØµØ¯
ĠØ§ÙĦÙħØ¹ Ø§ÙĦØ¬
nØ§ØŃ ÙģØ¸
ĠÙĪØ§ÙĦØ£ ØŃÙĥØ§Ùħ
ĠØ¨Øª Ø³Ø¬ÙĬÙĦ
998 41
ĠÙĪØ¹ ÙĦÙĬÙĩ
5 87
Ø¨ÙĬ Ø¨Ø©
996 36
ĠÙĦÙĦ Ø§Ø¹
Ø§ÙĦ Ø¨Ø±
el y
ĠØ§ØŃØªØ± Ø§Ùħ
Ù¢ Ùł
ĠØ¨Ø§ÙĦØ¬ Ø³Ùħ
Ø° Ø§Ùĥ
97 04
ĠØŃÙĬ Ø§ØªÙĬ
ĠÙĬØ¹ Ø²Ø²
ĠØ¹Ùħ Ø§Ø¯
ĠÙħØ¹ Ø§ÙĦÙħ
ĠÙħØŃ Ø§ÙĪÙĦØ§Øª
ĠØ§ÙĦÙĩØ¯ Ø§ÙĬØ§
ĠØ¨Ø¹Ø¯ Ø©
ĠØ£Ùĥ Ø¯Øª
ĠØ¹Ùħ ÙĤ
ĠØ§ÙĦØº Ù
ĠØ§ÙĦØºÙ Ħ
ĠÙĦÙĦÙħ Ø´Ø±ÙĪØ¹
ĠØ¥ÙĨ Ø¬ÙĦØªØ±Ø§
ĠÙħÙĪ Ø²Ø¹
ĠØ§ÙĦÙħØ¶ Ø§Ø¯Ø©
ĠØ§ÙĦØªÙģ Ø§ØŃ
ĠØª ÙĥØª
ĠØ§ÙĦØª ÙħØ§Ø±ÙĬÙĨ
98 51
re ak
ĠØ§Ø± ÙĬØ¯
ÙĬØ±ÙĬ Ø³Øª
n Ø§ÙĬ
âĢı )âĢı
ĠØ¨Ø§ÙĦ Ø¹Ø±Ø¨ÙĬØ©
ĠØ¨Ø§ÙĦÙħ Ø¹
nk nown
ĠØ§ÙĦØª ØºÙĬØ±Ø§Øª
Ø¬Ø§Ø± Ø¨
ĠÙĨÙģØ³ ÙĬØ©
6 47
ĠØ´ Ù
ĠÙĨØµ ÙĪØµ
ĠØ§ÙĦØ²ÙĬ Ø§Ø¯Ø©
Ø®ÙĦ Ø§Ø¡
cto ber
ĠP rivacy
Ú Ĩ
ĠØ§ÙĦØ¯Ø± Ø§ÙħØ§
nØ³ÙĬ Ø§Ø±Ø§Øª
ØºØ± Ø§ÙģÙĬ
ĠØªØ³Øª ÙĩØ¯Ùģ
ĠÙĪØ§ÙĦØ§ÙĤ ØªØµØ§Ø¯ÙĬØ©
0 98
ĠØ´Ø¹ ÙĪØ±
ĠØ§ÙĦØ§Ø³Øª ÙĤÙĦØ§ÙĦ
Ġlik e
ĠØ§ÙĦÙĦ Ø¨
Ø± Ø§Ùħ
ator y
He ight
ĠØ´Ù Ħ
Ø² ÙĪÙĬØ¯
ĠØ§ÙĦÙħÙĪ Ø«
ĠØ¨ÙĦ Ø§Øº
63 94
ÙĪÙĤ Ø±
ĠØ§ÙĦØ¹ ÙĬ
97847 67
ĠØ§ÙĦÙģ ÙĤØ±Ø©
ĠS P
ĠØ§ÙĦØ§ÙĨ ØªØ¨Ø§Ùĩ
ar g
ØªØ± Ø§ÙģÙĬØ©
997 854
to ck
ĠØ¨Ø§ÙĦØ± ØºÙħ
ĠØ²ÙħÙĨ ÙĬØ©
ĠØ§ÙĦØŃ Ùģ
Z T
ĠØ§ÙĦØ¨ Ø§Ø·ÙĨ
ĠÙĬÙĤ Ùģ
ĠÙħÙĥØ§Ùģ Ø£Ø©
8 01
ĠØ¹ ÙħÙĬÙĦ
ØªØ¹ Ø§Ø´
uppli er
ĠØ³ ÙĬÙħ
ĠØ§ÙĦÙħØ¬ ÙĦØ©
Ġc he
996 07
Ø´ ÙĬÙĦ
ĠØ§ÙĦØ§Ø³Øª ÙĦØ§Ùħ
ĠØ£ÙĪÙĦ Ø§Ø¯
U J
ĠØªÙģ Ø§Ø¹
Ġd uring
ĠØ§ÙĦÙĤ Ø§Ø±Ø©
ĠÙĬØ¹ÙħÙĦ ÙĪÙĨ
ĠÙģ Ø´
ĠÙħÙĨØ¯ ÙĪØ¨
ĠØ± Ø§ØªØ¨
ĠØ¨ÙĬ ÙĪÙĨ
ĠÙħØ±Ùĥ Ø¨
ĠÙĬÙħÙĥÙĨ ÙĩÙħ
nS earch
ØªÙĬ Ø§Ø²Ø§Øª
ĠÙĦ Ø§ÙĨØ¯
nØŃ Ø¬Ùħ
ĠÙĥ ÙĪÙĬ
ĠØ¨ØªÙĨ Ø¸ÙĬÙģ
ÙĪØ§Øª ÙĬ
ĠÙĨØ¬ ÙĬØ¨
if y
ĠØ¹ÙĬ Ø§Ø¯Ø©
nØªÙĨ Ø²ÙĬÙĦ
Ø§Ø² ÙħØ§
99858 87
ĠØ¨ Ø
ĠM TW
ĠÙĦÙĦØ£ Ø¹ÙħØ§ÙĦ
Ġ 98
ĠØ§ÙĦÙħÙĨØª Ø¬Ø©
ĠØ´ÙĬ ÙĦÙĬ
ĠØª Ø¨ÙĬØ¹
ĠØ§ÙĦØ± ÙĤÙĬÙĤØ©
ÙĦÙĥ Ø³
ØªÙĪ Ùĥ
Ġ1 40
ĠØ§ÙĦØª ÙĦÙģØ²ÙĬ
ĠØ§ÙĦÙĤØ± Ø§Ø¡
ĠØ§ÙĦØ¬ÙĦ Ø¯ÙĬØ©
ĠØ¨Ø §
ĠØ§ÙĦØ¬Ø§Ùħ Ø¹
Ø¨Ø± Ø§Ø¡
ĠÙĦ Ø§ÙĬØª
Ø« ÙĦÙĬ
ĠØ§ÙĦØ¹ Ø§Ø¯Ø©
ĠPre vious
96 46
==== ====
nÙħ Ø¹ÙĨÙī
ĠÙħ Ø§Ø¦Ø©
Ø§Ø² ÙĬÙĨ
ĠÙĪØª Ø·Ø¨ÙĬÙĤ
ĠØ§ÙĦØ® ÙĦÙģ
ĠØ³ ÙĨØªÙĬÙĨ
es h
4 17
nØ£ Ø±Ø´ÙĬÙģ
p rice
8 99
ĠØ§ÙĦØ¬ Ø°
ĠÙĬÙĦØª ÙĤÙĬ
ĠÙĤ ÙħØ±
Ġw hatsapp
ĠØ§ÙĦØ® Ø±Ø³Ø§ÙĨÙĬØ©
ĠØ§ÙĦÙĬØ³ Ø§Ø±
ÙĨÙĬ Ùĥ
> \
ĠØ± Ø§ØŃØ©
ĠØ§ÙĦÙħÙĨ Ø§ÙĩØ¬
6 07
nD e
ĠÙħ Ø³Ùħ
ĠØ¨ Ø³ÙĦ
ĠØ§ÙĦÙħÙĪ ØµÙĦ
n Ø«ÙĤØ§ÙģØ©
ĠØ³ Ø¹ÙĬ
ĠØ§ÙĦØ´ Ø§Ø´Ø§Øª
Ø° Ø±Ø©
nU nknown
ĠØ§ÙĦÙĨ Ø¶
ĠØ§ÙĦØ§ÙĨØªØ§Ø¬ ÙĬ
ĠÙĦÙĬ ÙĪÙĨ
ĠØ§ÙĦÙĤ ÙħØ§Ø´
for um
nØ£ Ø®Ø±
ĠÙħØµØ± Ùģ
Ø±ÙĪ Ø¡
Ø³ Ø¹ÙĬØ¯
ĠÙĬÙģ ØªØŃ
ĠÙħØ³Øª ÙĪÙĬ
ĠØ¹Ø¶ ÙĪÙĬØ©
nÙĪ ØŃØ¯Ø©
ĠØ¯ Ø§Ùħ
ĠØµØ¯ ÙĤ
Ġvis it
Ø¬Ùħ ÙĩÙĪØ±
ĠØŃØ¯ÙĬØ« Ùĩ
Ø³Øª Ùĩ
Ġc re
ĠT rans
8 19
j i
ĠØ§ÙĦØ³Ø¹ Ø±ÙĬ
ĠØ§ÙĪ Ø±ÙĪØ¨Ø§
ĠØ£ÙĪØº ÙĨØ¯Ø§
ÙĤ Ø§Ø±
ĠØ§ÙĦØ£ Ø³ØªØ±
ĠS hare
ug h
Øª ØªØŃ
ĠØ§ÙĦØ¬ ÙħØ±
nØ¨ Ø±ÙĬ
4 95
ĠP F
ÙĪØ§Ø± Ø«
ĠØ® ØªØ§Ùħ
ĠÙĪØ£ ÙĥØ¯
ÙĪÙĦ ÙĪ
ĠØ± ÙĪÙħØ§ÙĨØ³ÙĬØ©
l in
a be
ĠØ¨Ø§ÙĦ Ø§ÙĨØ³
998 71
ĠØ¹ Ø±Ø¨Ø©
ĠØ§Ø· Ø¨Ø§Ø¡
ĠÙĪØ§ÙĦ ÙĨØ³Ø§Ø¡
u wa
p ag
ĠÙĨ Ø±ÙĬØ¯
ĠØªØ¨ Ø±ÙĬØ¯
ĠØ§ÙĦÙħØ¨ ÙĥØ±
nØ¨ ÙĨØ§Ø¡
Ø§ÙĨ ÙħØ§Ø±
ĠØ§ÙĦ Ø±ÙĬÙģ
ĠØ§ÙĦÙĤ Ø±ÙĬØ¨Ø©
ïºİ ïº
4 80
ĠÙĪÙħ ØŃÙħØ¯
ĠÙĩØ§Ø´ Ùħ
Ġ6 8
ĠØ§ÙĦÙħØµ Ø§Ø¨ÙĬÙĨ
Ø§ÙĨ Ùħ
ĠÙĪØ§ÙĦ ÙģÙĦ
ĠØŃ ÙĦÙĬ
ĠÙĤÙĬ Ø§Ø³ÙĬ
u an
ĠØ§ÙĨ ÙĤØ·Ø§Ø¹
ĠØ§Ùĥ ØªØ¨
7 74
r ab
ĠØ§ÙĦØ¬ ÙħÙĦ
Ġ45 0
ĠØ£ÙħØ± Ø
ĠØ£ÙħØ±Ø §
4 07
ĠØ§ÙĦØ® Ø³Ø§Ø±Ø©
ĠØ´ ÙĤÙĬÙĤ
ØŃ Ø§Ùħ
ĠØ§ÙĦØº ÙĨÙĬØ©
ĠØ£Ø±Ø¯ ÙĪØºØ§ÙĨ
erv ed
Ġp erson
ĠØ§ÙĦÙĤ ØªØ§ÙĦ
ĠØª ÙĦÙģØ²ÙĬÙĪÙĨ
ĠØ§ÙĦØŃØ± Ø§Ùħ
ĠØ³Øª Ø±ÙĬØª
Øª Ø§Ø±ÙĬØ®
ï» Į
Ø¨Ø± Ø§Øª
ĠØ§ÙĦÙħØªÙĪ Ø§Ø¬Ø¯ÙĪÙĨ
ĠØ´Ø§Ùħ Ø¨ÙĪ
ĠØ¹Ø±Ø¶ Ø©
ĠØ¥ Ø´
ĠØ§ÙĦØªÙĦ ÙĪØ«
ĠØ£Ø±Ø¶ ÙĬØ©
ĠØ§ÙĦØŃ Øµ
ĠV ideo
ĠÙħØª Ø±ÙĬ
ĠØ§Ø¹ ØªÙħØ¯
ĠØ® ÙħÙĬØ³
ĠØ¬ ÙĨÙĬØ©
ĠØ¥ ÙĬÙħ
ĠØ¬ Ø°Ø¨
tem ber
ĠØ§ÙĦÙħØª Ø§Ø¨Ø¹Ø©
998 09
g roup
ĠØ¨Ø± Ø¹Ø§ÙĬØ©
Ø¯ÙĬ Ø³ÙħØ¨Ø±
ĠØªØ± ØªØ¨Ø·
ĠØ± Ø§Ùģ
pan el
ĠØ§ÙĦÙĤ ØªÙĦ
ĠÙħØµÙĨ ÙĪØ¹
996 11
Ġp ar
ĠJ aw
nØ£ Ø¨Ø±ÙĬÙĦ
ĠØ¯ ÙĨ
ĠÙĪØ£ Ø¹ÙħØ§ÙĦ
ĠØ² ÙĪ
ĠÙħØ¶ Ø§Ø¯
ÙĤ Ø§Øµ
97 54
ce l
Ġp age
ĠØ§ÙĦØŃÙĥ ÙĬÙħ
6 13
Ø§ÙģØª ØªØ§ØŃ
&& (
ĠØ£ØŃ Ø²ÙħØ©
ĠØ±Ø¦ÙĬØ³ Ø©
nØ§ÙĦ Ø¬ÙħØ¹Ø©
ĠØ§ÙĦÙĤØ± ÙĬØ©
Ø§Ø¯ Ø³
â ľ
ĠÙĪØ£ Ø¨ÙĪ
ĠØ§ÙĦÙĤØ· Ø±ÙĬ
Ġ 88
ĠØŃ ÙĤÙĦ
ĠÙĨØ³Øª Ø·ÙĬØ¹
nÙĬÙĨ Ø§ÙĬØ±
op t
ÙĤ ÙĦÙħ
ĠØ§ÙĨ ÙĨØ§
996 45
ĠØ³ ÙĦØ©
nØ§ÙĦ ØªÙģØ§ØµÙĬÙĦ
ĠÙĦØª Ø£
ĠØ¹Øµ Ø§Ùħ
75 1
ĠM achine
ĠÙĦÙĦØªØ¹ Ø§ÙħÙĦ
ĠØ¹ ÙĪÙĨ
ĠØ¹ÙħÙĦ Øª
Ø§ÙĦ Ø£Ø³
ĠØ§ÙĦØ¹ Ø°Ø±Ø§Ø¡
ĠØ¬ Ø³Ø¯
ĠØ«Ùħ Ø§ÙĨÙĬØ©
ĠÙĦÙĪ Ø¶Ø¹
ÙĨØª ÙĩØ§
ĠØªØ®Ø·ÙĬØ· ÙĬ
ĠØ¨Ø± ÙħÙĬÙĦ
ĠÙĪ ÙħÙĬ
| \
ĠÙĦØ£ Ø¬ÙĦ
Øµ ÙĬØ©
ĠØ¨ Ø·Ø±ÙĤ
ĠÙĪØªÙĨ ÙģÙĬØ°
Ø¹ Ø§ÙĦ
ĠØ¨ ÙĪÙĨ
75 87
Ø³ ÙĦÙħ
ĠÙĬÙĪÙĨ Ø§ÙĬØªØ¯
ØªÙĪÙĬ ØªØ±
ĠØ¨Ø¬ ÙĪØ§Ø±
ĠØ§ÙĦØ¬ ÙĦÙĬØ¯
Ġm o
B V
ĠØ§ÙĦÙħØ³ÙĦØ³ÙĦ Ø§Øª
Ġv iews
998 40
Ø´Ø± ÙĪØ¨Ø§Øª
ÙĪÙĬÙħ Ø¨Ø§Øª
Y W
ĠØ§ÙĦÙĪØ³ Ø§Ø¦Ø·
ÙĨ ÙĪÙģÙħØ¨Ø±
E lement
ĠØ¹ Ø´ÙĤ
ĠT est
ÙĪØª ÙĨ
996 21
Ø¬Ùħ ÙĪØ¹
98035 306
Ħ ÙĤØ¯
Ù ĦÙĤØ¯
Ø§Ø· Ø±Ø©
Ħ ÙĬÙĨÙĬ
Ù ĦÙĬÙĨÙĬ
Ġ... ...\
ĠÙħÙĦØŃÙĪ Ø¸
ĠØ§ÙĨ ØªÙĤØ§ÙĦ
C W
ĠØªØª Ø³Ø¨Ø¨
á Ģ
3 37
ĠÙĨØµ ÙĬØ©
Ø§Ø¬ØªÙħ Ø§Ø¹
ĠØ¯ Ø§ÙĬ
nA d
Y L
ĠÙģ Ø£ÙĨ
ĠØ§ÙĦØ´Ø± Ø§ÙĥØ©
nØ§ÙĦ ÙħØ¯
as y
ĠØ§ÙĦØ³ Ø§Ø¦ÙĤ
Ø·Ø¹ ÙĬÙħ
ĠØŃ ÙħÙĬØ¯
4 15
ØŃÙĬ Ø·
996 27
6 16
ĠØ¹ ÙħØ¯
ĠØ§ÙĦØ¬Ùħ Ø§Ø¹ÙĬ
ĠØ§ÙĦØ« ÙĨØ§Ø¦ÙĬ
ÙĥØ³ Ø§Ø±Ùĩ
Ø¬ ÙħÙĦ
ĠØ§ÙĦØ¨Ø± ÙĪØªÙĬÙĨ
nÙĦÙĪ Ø§Ø²Ùħ
ĠØ§ÙĪ Ø±Ø¬
P G
ĠØ¨ ÙĪÙĦÙĬ
ĠDe cember
ĠÙĪØ§Ùĥ Ø³Ø³ÙĪØ§Ø±Ø§Øª
4 12
our s
ĠØ¨Ø§ÙĦ Ø²
}} \
ĠØ§Ø³Øª ÙħØªØ¹
Ġp hoto
ÙĨØ³ Ø®Ø©
ØªÙĩ Ø¯
ĠØ§ÙĦØ£Ø³ Ø±
7 26
ĠØ§Ø®ØªØ± Ø§ÙĤ
ĠØ¨ÙĬ Ø¶
ĠØ¯ÙĪØ± Ø§ÙĨ
93 95
ĠÙħØ¹ÙĦ ÙĪÙħØ©
sp ot
ĠØ§ÙĦØªÙħØ± ÙĬÙĨ
ĠÙĪÙĬ Ø¹Ø¯
AC B
Ø± Ø®Øµ
n Ø°
4 06
ĠØ¬ Ø¨Ø±
ĠØ³ ÙĨØ¯
il ity
6 17
ĠÙĦÙĦÙħ Ø²ÙĬØ¯
3 20
Ø±Ùĥ Ø§Ùħ
ĠØ§ÙĦÙĤØ§Ø¨ Ø¶Ø©
ĠÙħÙĪØ¶ÙĪØ¹ Ø§Øª
ĠÙĦÙĦÙĤ ÙĪØ§Øª
ĠØ§ÙĦÙħ Ø´Ø§Ø±
ĠØ£ÙĪ Ø§Ø®Ø±
ĠØª ÙĦÙģØ²ÙĬ
ĠÙĨ Ùĥ
Ùĳ ÙĮ
ĠØ¨ ØªÙħ
v es
ĠØ§ÙĦÙģ ÙĪØ§ÙĥÙĩ
le x
lis te
ĠØ´ Ø§ÙĨ
ÙĪÙĬÙħØ¨Ø§Øª ÙĪØ±
ĠØ§ÙĦØŃØ± ÙħÙĬÙĨ
ce pt
ad em
ĠØ§ÙĦØ®Ø² Ø§ÙĨ
ĠØ§ÙĦØ´ ÙĪØ§Ø±Ø¹
ĠØ§ÙĦÙħÙĨ Ø¬Ùħ
ĠAr ch
ĠØ¹Ø· ÙĦØ©
96 35
ĠØ§ÙĨ Ø¬ÙĦÙĬØ²ÙĬ
ĠÙĦ Ø¢
31 68
ÙĥØ±ÙĬ Ø
ÙĥØ±ÙĬØ §
09 0
ab led
996 04
Ùı :
ĠØ§Ø³ Ø¨Ø§Ø¨
ru ary
ØŃØ¯ Ùī
ĠØªÙĥØ± Ø§Ø±
ĠØ¯ÙĬ Ùģ
H H
i q
ĠÙĪÙĦ Ø§Ø¯Ø©
Ø§Ùĥ ØªÙĪ
ĠÙĥ ÙĬØ§
m art
ĠØ§ÙĦÙģ Ø¦Ø±Ø§ÙĨ
Ø´ Ùħ
ĠØªØ´ Ø·ÙĬØ¨
R S
×Ļ ×
ĠØ§ÙĦØ¸ Ø§ÙĩØ±Ø©
Ġm ost
ĠÙĩØ± ÙĬØ±Ø©
ĠÙĪØŃ Ø³Ø¨
nS ource
Ġ20 2
ĠØ§ÙĦØªØµ Ø§ÙħÙĬÙħ
ĠØ¹ÙĤ Ø§Ø±
ĠÙĥÙĪÙĨ Øº
ĠØ¬ ÙħÙĩÙĪØ±
Ø² Ùī
ĠØªØ° Ø§ÙĥØ±
ĠØ§ÙĦØ¨ Ø¹Ø¯
ĠÙħØ¹ Ø¬Ùħ
ĠÙħØ³ Ø±
ĠØ· Ø¨ÙĦ
ĠM B
ĠØªÙĨ ÙĤÙĦ
ĠØ§ÙĦÙĥ ÙĪØ§ÙĥØ¨
ĠØ§ÙĦØªØ¯ Ø®ÙĦ
ĠØ§ÙĦØ£ ÙĤÙħ
ĠØ§ÙĦÙĪØ¬ Ø¨Ø§Øª
el come
ĠØ§ÙĦÙħ ÙģÙĬØ¯Ø©
ĠØ§Ø³Ø¨ Ø§ÙĨÙĬØ§
ĠÙģÙĨ ÙĪÙĨ
ĠÙģ Ø§Ø³Øª
ĠÙĪØ³ÙĦ Ø§ÙħØ©
30 14
ĠÙĪØ£ Ø¹
ĠØ¬ ÙĨÙĬÙĩØ§
Ġ ter
ĠÙ¡ Ù©
ran ite
Q T
ĠØ§ÙĦØ±Ø§Ø¬ ØŃÙĬ
ĠØ§ÙĦÙĬ ÙĩØ§
ĠØ§ÙĦØº Ø³Ø§ÙĦØ§Øª
Ø±ÙĬÙĦ Ø§ÙĨÙĥØ§
ĠÙħØªØŃ Ùģ
ĠØ§Ø³ØªØ¦ Ø¬Ø§Ø±
ĠØ§ÙĦÙħØªØ®ØµØµ ÙĬÙĨ
ĠÙħÙĩ ÙĨØ©
Ġb o
ĠØ±Ø¬ Ø§ÙĦÙĬ
998 53
ĠÙħØ¤ ÙĦÙģ
ĠP age
â µ
ĠØµÙĦ Ø§Ø¨Ø©
ĠØ¬Ø² Ø¦
5 37
ĠØ¨Ùĥ ÙģØ§Ø¡Ø©
ĠØŃ Ø¬Ø©
ĠØ¨ Ø§Ø¦Ø¹
ĠØª Ø³ÙħÙĬØ©
ØĮ ØĮ
ÙģÙĬ Øª
ĠØ¬ÙĨ ÙĬÙĨ
ĠØ§ÙĦØ§ØŃØª ÙĬØ§Ø·ÙĬ
Ð ³
ĠØ§ÙĦÙĤØ± Ùī
O J
c re
Ø®Øµ Ùħ
94 04
ĠÙĨØ³ Ø§Ø¦ÙĬ
ĠÙħ ÙĬØ´
ĠØ§ÙĦØ±Ø¨ Ø§Ø·
66 9
Ø¹ÙĦ Ø§Ùģ
996 65
ĠØ§Ø³ ÙĬ
ĠØ§ÙĦØ¬Ø¯ Ø§Ø±
ĠØ³ Ø§Ø±
ĠØªØ¹ Ø§ÙħÙĦØ§Øª
ĠØ§ÙĦÙģ ÙĦÙĦ
pla ce
ĠØŃØ³ Ø§Ø³ÙĬØ©
ĠÙĪØ¨ ØŃÙħØ¯Ùĩ
ĠÙĤ Ø§Ø¦Ùħ
ĠØ§ÙĦØ¥ Ø°
ĠØ¥ÙĦÙĬ ÙĥÙħ
F V
ĠØ§ÙĦØ³ ÙĦÙĬÙħ
ĠØ§ÙĦÙĨ Ø³ÙĬØ¬
ØªØ§Ùħ ÙĬÙĨØ§Øª
Ø¹ ÙĩØ§
ĠØ¨ Ø²ÙĬØ§Ø¯Ø©
ĠÙĪØ· ÙĨÙĬ
87 93
ØªÙĪ ÙĬØ©
97 35
ĠÙĩÙĬ ÙĪÙĨØ¯Ø§ÙĬ
ĠØ§ÙĦØ£ Ø¬ÙĦ
ĠÙĪØ£ ÙĤ
21 96
ĠØ§ÙĦÙħØŃ Ø§ÙģØ¸
ĠØ¨Ø§ÙĦ ÙħÙĦ
Ø®Øµ ÙĬØ©
ĠØ§ÙĦÙĪØ§Øª Ø³
Øº ÙĬØ²
ĠØ§ÙĦØµØŃ ÙĬÙģØ©
ĠØ¹ Ø¯Ø§
nØ§Ø¶ Ø§ÙģØ©
6 03
ĠØ¬ Ø±ÙĬ
ĠØ§ÙĦØ® Ùħ
im ages
ĠØ¨ Ø¬Ø±
ĠØ§ÙĦØ¬ ÙĪØ§ÙĨØ¨
ĠØªØµ ÙĬØ¨
ĠØ§ÙĦÙħ Ø§Ø¯ÙĬ
ĠÙħØ± Ø³ÙĦØ©
nØµ ØºÙĬØ±Ø©
ØªÙĦ Ø§ÙģØ§Øª
ĠÙĪ Ø´Ø±ÙĥØ©
ĠÙħÙĩ Ø¯ÙĬ
nØ§ÙĦ Ø³Ø¨Øª
998 59
ik e
ĠØ¨ÙĪ ÙĥØ³
w n
ĠÙĪØ§ÙĦ Ø¬ÙħØ§ÙĦ
be b
ĠÙĬÙĥÙĪÙĨ ÙĪØ§
Ġd em
Ø§ÙĨØ¯ Ø
Ø§ÙĨØ¯Ø §
ĠÙĦØª Ø´ØºÙĬÙĦ
ĠØ§ÙĦØ² Ù
ĠØ§ÙĦØ²Ù Ħ
\ /
ĠÙħØ´ ÙĩØ¯
ĠØ§ÙĦØ¥ Ø¨
ĠØ§ÙĦÙħØŃ Ø§ÙĥÙħ
nØ¥ Ø¹Ø§Ø¯Ø©
ÙĤØ· ÙĬØ¹
ĠØªØ´ Ø®ÙĬØµ
ĠÙħÙĬØ³ ÙĬÙĨ
34 0
ä ¸
F S
ĠÙĪÙħ Ø²
A I
nÙĪØ¹ ÙĦÙī
nØª ØµÙĨÙĬÙģØ§Øª
ĠA uto
ĠØ³ ÙģÙĬØ§ÙĨ
ĠØ§ÙĦØµ ÙĪØ¯ÙĬÙĪÙħ
ĠØ§ÙĦØ£ Ø¸Ø§ÙģØ±
ĠØ¨Ùģ Ø¹ÙĦ
ĠØ§ÙĦØª ÙħÙĪ
Ġ Ú¯
ĠØ³ Ø¬ÙĨ
ĠØ§ÙĦÙħ Ø¹Ø±ÙĥØ©
ØŃÙħ ÙĪÙĦ
Ø±Ø¬ Ùī
ĠÙģ Øµ
ĠØ§ÙĦØ²ÙĩØ± Ø§Ø¡
nØ§ÙĦÙħ ÙĪØ±Ø¯
ĠÙħØŃ Ø³ÙĨ
ĠØ¨ÙĨ Ùī
ÙĪØ¶ ØŃØª
ĠÙĢ ÙĢ
ĠØ§ÙĬ ÙĥÙĬØ§
ĠÙģØ³ ÙĪÙģ
r is
Ø±ÙĪ Ø³Ø©
ĠØ§ÙĦÙħÙĨ ÙĤÙĪÙĦØ©
ĠHea vy
ĠØ§ÙĦØ´ÙĬ ÙĪØ®
ĠIn fo
ĠÙģ Ø¯
70 26
47 21
nÙĪ Ø§Ø³Øª
ĠØ¨Ø§ÙĦ Ø·Ø§ÙĤØ©
ĠÙĪØ§Ø³ Ø¹Ø§Ø±
ĠØ§ÙĦØ¨Ø± ÙħØ¬ÙĬØ§Øª
D elete
Ø¯ÙĬÙħ ÙĬØ±
R W
Ø§ÙĦ ÙģØ±
nRe plies
ĠØ± ÙĪØª
ĠØ¥Ø¶ Ø§ÙģÙĬ
ĠØ§ÙĦÙĦ Ø§Ø²Ùħ
ĠØ§ÙĦØ¥ Ø´
ĠØªØ³Øª ØŃÙĤ
ĠØ§ÙĦØ£ Ø²ÙħØ§Øª
ĠØªØ¹Ø±Ø¶ Øª
ĠØªØ³ Ø§ÙĤØ·
805 1802
ĠØ§ÙĦÙģØ± Ø¹ÙĬØ©
nØ¹ Ø§ÙĦÙħ
n http
Ġtra ck
ĠÙģ Ø¹ÙĦÙī
ĠØ¨ÙĬ ÙĥØ±
Ħ Ø²Ùħ
Ù ĦØ²Ùħ
nP re
G G
ĠØ¨ ÙĬØ¦
Ø¨ Ø§Ø¯Ø±Ø©
ÙĤØ· Ø§Ø¨
ĠØ§ÙĦØµ ØºØ§Ø±
n Ø²ÙĬØ§Ø±Ø©
ĠØ· Ø§Ø¦Ø±
nØ³ ÙĨ
Ø§Ø¯ ØªÙĩØ§
ĠÙħØª ÙĤØ¯ÙħØ©
ĠÙħØ± Ø§Ø³
ee k
ĠØ§ÙĦØ¯Ø¹ ÙĪÙī
ĠØ§ÙĦØµ ÙĬØ§Ùħ
n ÙĥØ±
ĠØµ ÙħØ§Ùħ
ĠØ§ÙĦØº ÙĨÙĬ
ĠØŃÙĤ Ø§Ø¦ÙĤ
ÙĦÙĬ Ø·
ĠØ§ÙĦØ£Ùħ Ø·Ø§Ø±
ĠØ§ÙĦØ§Ø¦ØªÙħ Ø§ÙĨ
ĠØ£ÙĨ ÙĬ
Ġm obile
ĠIn ter
nÙĨ ØµØ§Ø¦ØŃ
Ùĩ Ø§Ø±Ø©
ĠØªÙģ ÙĬØ¯
ĠÙģØª Ø§ÙĪÙī
ĠÙĪØªÙĤ ÙĪÙħ
in al
ĠØ§ÙĦØ§Ø± Ø¨Ø¹
ĠØ§ÙĦØ®Ø± Ø¯Ø©
ĠØ§ÙĦØ£ÙĨ Ø¨Ø§Ø¡
ĠØ£ Ø·Ø¨Ø§Ø¡
995 35
Ø§ÙĤ ÙĬÙĨ
ÙĪØ¬ ÙĬÙĨ
ĠÙģØ± ÙĨØ³ÙĬØ©
ĠØ§ÙĦØ« Ø±ÙĪØ©
ÙĨ Ø¨ÙĪÙĦ
ĠØ§ÙĦØ¬ Ø¨ÙĩØ©
ĠW h
Ø°Ùĩ Ø§Ø¨
ÙĪ Ø§ÙĩØ±
997 78
ĠÙģ ØªØ±Ø§Øª
nØ§ÙĦÙħØŃÙħ ÙĪÙĦØ©
ĠF ound
ĠØ§ÙĦÙħØŃ ØªÙħÙĦØ©
m ill
R M
Ø§Ø³ ÙĬÙĥ
O I
Ø³ÙĨ Ø§Ø¯
ĠÙħØ¶ Ø®Ø§Øª
ĠØ§ÙĦØ£Ø¯ Ø¨ÙĬ
ĠM us
ĠØ³Ø§Ø® ÙĨØ©
ĠÙĦØ£ÙĨ ÙĩÙħ
ĠÙĪØ®ØµÙĪØµ Ø
ĠÙĪØ®ØµÙĪØµØ §
ĠØ§ÙĦÙħØ³ Ø§Ø¬Ø¯
ÙħØŃ Ø·Ø©
am b
ÙĪØ§Øª Ø³Ø§Ø¨
ĠØ§ÙĦØ£Ø´ Ø¹Ø©
ĠØ§ÙĦÙĥØ§Ùħ ÙĬØ±ÙĪÙĨ
Ø®Ø¨ Ø§Ø±Ø§Øª
997854 05
75 2
pp er
ĠØ¹ Ø§Ø¬ÙĦØ©
ĠØ³ ØŃ
994 56
N S
ĠÙĪØ§ØŃ Ø©
ĠØ§ÙĦØ¹ ÙĦÙĬ
nÙĪ Ø°ÙĥØ±
ĠØª ØªØ¨
ĠÙĥ ÙĪØ³Øª
Ø«ÙĬ ÙĪÙħ
ĠÙĦÙĦÙħÙĪ Ø§Ø·ÙĨÙĬÙĨ
994 15
n h
ĠØ£Ø¨ÙĬ Ùĩ
ĠÙģÙĦØ³Ø· ÙĬÙĨÙĬ
ĠÙĬÙĨ ØµØŃ
P I
ĠØ§ÙĦØª Ø¬Ø²Ø¦Ø©
nØ§ÙĦ Ø¹Ø§Ø¨
83 86
nÙħ ÙĪØ¶ÙĪØ¹
ĠØ§Ø³ØªØ± Ø§ÙĦÙĬØ§
ab d
97 17
ĠÙĦÙĦ ØªÙģ
ĠØ§ÙĦÙħÙĤ Ø¯Ùħ
ĠÙĪØ§ÙĦØ£ Ø¯
nØ¹ ÙĤØ¯
â Ŀ
ĠØ§ÙĦÙħÙĬÙĥ Ø
ĠØ§ÙĦÙħÙĬÙĥØ §
ÙĢ Ùĩ
ÙĤ Ø°
ĠØ§ÙĦØ¹Ø¯ ÙĪÙī
ĠØ§ÙĦØ³Ùħ Ø³Ùħ
nØ§ÙĦØ¹ Ø§ÙĦÙħ
ĠØ¨Ø¥ÙħÙĥØ§ÙĨ Ùĥ
nÙĦ Ø°ÙĦÙĥ
nÙĬ ÙĪØªÙĬÙĪØ¨
ĠÙĦÙĦ ÙĥØªØ§Ø¨
ĠØ§ÙĦØ³ ÙħÙĪ
3 23
ĠØµÙĪØª ÙĬØ©
ĠÙĦ ØªØ¨
ĠØº Ø¨Ø§Ø±
ĠÙĪØ§ÙĦØª Ø³ÙĪÙĬÙĤ
ĠÙħØ´ ÙĬØ·
ĠÙĤØ· Ø§Ø¹Ø§Øª
ÙģØ§Ø¹ Ù
ÙģØ§Ø¹Ù Ħ
Ø§ÙĦ Ø´Ø±ÙĥØ©
Ø§ÙĨ ÙĬÙĨ
ĠUS B
Ø§Ø¬ ÙĬÙĨ
Ø³Ø¨ ØªÙħØ¨Ø±
ĠØ£Ø´ Ø¹Ø©
8 29
ĠØ§ÙĦ Ø§ÙĦØ§Øª
55 1
96 66
ĠØ§ÙĦÙħØŃ Ø±Ø²
ĠØ§ÙĦØ®Øµ ÙĪØµ
ĠØ·ÙĪÙĬÙĦ Ø
ĠØ·ÙĪÙĬÙĦØ §
Ġm et
ĠØ§ÙĨØªÙĩ Øª
ĠÙĦÙĦ Ø§ÙĬÙģÙĪÙĨ
ĠØ¨ÙĨÙĬ Øª
ĠÙĦØª ØµÙħÙĬÙħ
4 91
Ø²ÙĨ Ùĥ
995 57
995 16
Ø¨Ø± Øº
ĠØ§ÙĦØŃ Ø¬Ø©
Øª ÙĦØ§ÙĦ
ĠØ§ÙĦØ£Ùģ ÙĤÙĬ
ĠÙĩØ±Ùħ ÙĪÙĨ
ĠØ´ ÙĬØ¨
nØ§ÙĦ ÙĬÙĪÙħ
nØ± Ø³Ùħ
cl ud
\" âĢı
ĠØ§ÙĦÙħØ³ Ø¤
ĠØ§Ø¬ØªÙħ Ø§Ø¹ÙĬ
ĠÙĨ ØªØŃØ¯Ø«
ĠØŃÙĦ Ø§ÙĤØ©
ØªØ± Ø§Ø¨
ĠØªØ¹ Ø·ÙĬÙĦ
ba i
ĠØ§ÙĦØªØ¹ Ø¯ÙĬÙĦ
Ġ est
ĠØ§ÙĦØ¯Ø³Øª ÙĪØ±ÙĬØ©
Ø§Ùħ ÙĬØ¹
ĠÙħØ¯ ÙĨÙĬ
Ø±ÙĪ Ø¨ÙĬØ©
ØĽ \
ĠÙĬØ³ Ø§ÙĩÙħ
ĠÙĪ ÙĪØ±
ĠØ§ÙĨ Ø¬ÙĦÙĬØ²ÙĬØ©
ĠØ§ÙĦØ¢ ØªÙĬ
ĠØ§ÙĦØ£Ùħ Ø§ÙĨØ©
ĠÙĨ ÙĬØ¨
Ø§ÙĪ Øª
ĠÙĪ ØŃÙĤÙĪÙĤ
arab i
ĠÙĬØµ Ø¹Ø¨
76 1
Ø¶ØŃ Ùī
ĠÙĦÙĦÙĨ Ø§Ø³
ĠÙĦ ÙħØ¤
ĠÙĪ Ø¯ÙĬ
0 28
ĠÙĩ ÙĬØ¯Ø±ÙĪÙĦÙĬÙĥÙĬ
ĠØ§ÙĦØ³ Ø®
Ø¥ ÙĦÙī
n Ø¨ÙĬØ§ÙĨ
nØ§Ø± ØªÙģØ§Ø¹
ÙĥØª Ùĥ
ĠØ§ÙĦÙħÙĥ Ø§Ùģ
ĠW ikipedia
ðŁ ĩ
ĠØ¬ÙĪÙĨ Ø²
ĠÙħÙĩ ÙĨÙĬØ©
ĠÙĬØª ÙĪÙĤØ¹
Ø¬ ÙĬÙħ
ĠØª ÙĬØ¯
ĠCom ments
Ø§Ùģ ÙĪÙĨ
ÙģÙĬ ÙĬÙĨ
ĠØµ ÙĦØ¨
Ġ1 0000
70 24
Ø§ÙĦ ØªÙĬ
P A
ĠØ§ÙĦØ¯ Ø§Ø¦ÙħØ©
ĠØ² Ø¹ÙĬÙħ
ĠØŃÙĦ ÙĪÙĬØ§Øª
98 00
ĠØªÙĩ Ø¯ÙĬØ¯
98 69
ĠØ§ÙĦÙĤ ÙĪÙħ
97 45
ĠØ¹Ø±Ø§ÙĤ ÙĬ
ĠÙĦ Ø¨Ø³
Ġm idd
ĠØ§ÙĦÙħØ¹Ø±ÙĪØ¶ Ø©
ĠØ±Ø£Ø³ ÙĬØ©
ĠÙĪÙĥÙĦ Ø§Ø¡
ĠØ§ÙĦÙħ Ø®ØµØµ
ĠØ§ÙĦÙĨÙĤ Ø§Ø´
ĠØ¹ Ø¸ÙĬÙħØ©
Ġ 78
ĠØ§ÙĦØ§ÙĬ Ø·
ĠØªÙģ ØªØŃ
Ġï· º
ĠÙĤØ± Ø·
ĠÙĪØ£ Ø¹Ø¶Ø§Ø¡
ĠÙĨ Ø§Ø¹ÙħØ©
ĠÙĩÙĨ Ø§ÙĦÙĥ
P ress
ĠØªÙĥ ØªØ¨
ĠØ§ÙĦØµØºØ± Ùī
ĠØ²ÙĬ ÙĪØª
Ġ har
ĠÙĥ Ø§ÙĦØªØ§ÙĦÙĬ
ĠØ´Ø£ÙĨ Ùĩ
AC D
Ø¬ Ø²Ø©
ĠØ³Øª ÙĬÙģ
ĠÙĩ ÙĪÙħ
Ø¨Ø¹ Ø§Øª
\" >
Ø§ÙĦÙĦ ØºØ©
Ø±ÙĪ Ø´
Ø§Ùģ Ùī
ĠØ³ÙĥÙĨ ÙĬØ©
ug u
if t
Ø³ ÙħØ©
Ø±ÙĪØ¬ ÙĬÙĨ
ĠÙĦØ£ Ø³Ø¨Ø§Ø¨
rind ing
Ġ... .\
ĠØ¥ ÙĬÙĦ
ĠÙĬ ÙĥØª
Ø¨Ø· ÙĪÙĦØ©
Øª Ø§ØŃÙĬØ©
Ø§ÙĨ ÙĬØ¯
n ÙĪÙĦØ§
ĠØ§ÙĦØ¢ Ø³ÙĬ
ĠÙĪØ§ÙĦ Ø®Ø·
9435 553
97 05
ĠÙĪØª ØªÙħ
7 947
ĠÙĥ ÙĪÙĬÙħØ¨Ø§ØªÙĪØ±
ĠC ont
Ġ ed
ĠØ§ÙĦØ®ÙĦÙĬ Ø¬ÙĬ
ĠØ§ÙĦÙĤ Ø·ÙĨ
u zz
Ø§Ø¹ÙĬÙĦ ÙĬØ©
9700 2417
ĠÙĬ Ø«Ø¨Øª
Ġ| \
ĠÙĦ Ø§ØªÙģ
categor ized
nReply Delete
ĠØª Ø§ÙĪÙĨ
37 55
Ø§Ùħ Ø±Ø§Øª
ĠØ§ÙĦØŃØ³ Ø§Ø³Ø©
ĠÙĪØ§ÙĦØŃ ÙĬØ§Ø©
ĠØ³Ø¨ Ø§Ùĥ
ĠÙģÙĦØ§ Ø´
88 35
7 67
ĠØ§ÙĦØ£Øµ ÙģØ±
ĠØ´ ÙĬÙĨ
ĠØŃ Ø§Ø³Ø¨Ø©
ĠØ§ÙĦÙħÙĬØ² Ø§ÙĨ
ĠÙĪØ§ÙĦ Ø³Ø¨
ĠÙĪØ§ÙĦØ£ Ø±Ø¶
c i
ĠØ¨ Ø§ÙĤØ©
ĠÙĨ Ø¸ÙĬÙģ
ĠÙħØ® ÙĬÙħ
ĠØ¬Ø¹ÙĦ Øª
99988 34
7 97
or ies
4 99
ĠÙĪØ£ Ø¬ÙĩØ²Ø©
ÙĬÙħØ§Øª ÙĬØª
54 2
Ġ5 9
Ø§Ø· Ø
ĠÙĥØ± Ø³ÙĬ
un e
ĠØ¨ÙĨ ÙħØ§
Ø§Ø·Ø §
ĠØ§ÙĦØ¹ÙĨ ØµØ±
n ØµÙģØŃØ©
ØºÙĦ Ø§ÙĬØ©
nØ§ÙĦ ØªÙĨ
ĠØ¨Ø§ÙĦ Ø®Ø·
998 51
ĠØ±Ø£Ø³ Ùĩ
996 9
ĠÙĪØ§ÙĦ Ø·Ø§ÙĤØ©
6 87
ØªØ± ÙĤ
ĠØŃÙĬÙĨ ÙĩØ§
ĠÙĪØ¨ ÙħØ§
ÙĤ ÙĬØ¯
nÙĪÙĥ Ø§ÙĦØ©
ĠØ§ÙĦØ£ Ø·Ø¨Ø§ÙĤ
ĠØ§ÙĦØ§Ø³Øª Ø¹ÙĦØ§Ùħ
ĠÙģ Ø¶Ø§Ø¡
ĠØ§ÙĦÙħ Ø§ÙĨ
ĠØ§Ùħ ØªÙĦØ§Ùĥ
ĠØ§ÙĦÙĨ Ø§Ø¹Ùħ
ĠÙĪØ§ÙĦØ«ÙĦØ§Ø« ÙĪÙĨ
ĠØ§ÙĦØª ÙĪØ±
ĠØ¨Ø§ÙĦÙħ Ø³
ĠØ§ÙĦØªÙģ Ø¬ÙĬØ±
ĠS tar
Ġc panel
ĠØ§ÙĦØ¥ Ø¹Ø¯Ø§Ø¯
ĠØ§ÙĦØ¸ Ø§ÙĩØ±
20 05
ĠØ§ÙĦÙĪÙĦ Ø§ÙĬØ©
Ø· ÙĪÙĨ
nÙĪØ¨ Ø¹Ø¯
ĠØ§ÙĦØ® ÙģÙĬÙģØ©
ĠÙĥ ÙĨÙĬØ³Ø©
ĠØ§ÙĨ ÙģØ±
ĠØ§ÙĦØ§ØµØ·ÙĨ Ø§Ø¹ÙĬØ©
ĠÙĪØ§ÙĦØ¨Ø± Ø§ÙħØ¬
ĠØ§ÙĦÙħØ¹Ø§Ø± Ùģ
ĠI SO
ĠØ§ØŃ ØªÙħ
ĠØµØ± Ø§Ø¹
ĠÙĦÙĦØŃ Ø§ÙħÙĦ
ĠÙĪØ£ Ø¯ÙĪØ§Øª
ÙĪÙĬ Ø¹
ĠØ§Ø³Øª Ø«ÙħØ§Ø±Ø§Øª
Ġ6 2
Ø§Ø¯ ÙĤØ©
ĠØ§ÙĦØ¥Ø±ÙĩØ§Ø¨ ÙĬØ©
ĠØ§ÙĦØ²ÙħÙĨ ÙĬØ©
ĠØ§ÙĦØ« ÙĪØ±ÙĬ
ĠØ§ÙĦØ£Ùģ Ø±ÙĬÙĤÙĬØ©
K H
ĠØ§ÙĦÙħ Ø¨ÙĨÙī
Ġs et
6 25
Ø´ Ø¯Ø¯
ĠØ§ÙĦØ§Ø¬ Ø²Ø§Ø¡
Øµ Øª
ĠØ® Ø§ÙĨ
ĠØ¬ ÙĪØ§Ø¨
ĠÙĪØ§ÙĦ ØµÙĦØ¨
ĠØ¢ ÙĦÙĩ
ĠÙĦÙĦÙĥ Ø´Ùģ
ĠÙĬØª ÙĪÙĤÙģ
ĠØ§Ø¨ Ø±ÙĬÙĦ
ĠÙĪØ§ÙĦØªØ¹ Ø§ÙĪÙĨ
ĠÙĪØ§ÙĦ Ø°ÙĩØ¨
ĠØ¥ ÙĬØ¯Ø§Ø¹
ĠØ®Ø¯ÙħØ§Øª ÙĩØ§
nØ§ÙĦÙħ Ø·Ø§ØŃÙĨ
Ġ1 999
ĠØ§ÙĦÙħØ¯ Ø±Ø¨
ĠØ§Ø¹ ØªÙĤØ§ÙĦ
ĠØ´ Øº
97 14
6 06
Ø§Ø¨ ÙĨ
ĠØ³Ùħ Ø§Ø¹Ø§Øª
ĠUS D
ĠÙĦØ§ÙĨ Ùĩ
ĠØ¹Ø§Øµ Ùħ
ĠØ§ÙĦØ³Ø± ÙĬØ©
l ue
Øº ÙĨ
Ø¶ÙĬ ØŃ
Ġp latform
ĠØ¨Ø§Ø® ØªÙĬØ§Ø±
X H
ĠØŃ ÙĦÙģ
ĠØ§ÙĦÙĨÙĪØ¹ ÙĬØ©
ÙĪÙģ ÙĤØ§
ĠØ³Øª Ø§ÙĨ
ĠØŃÙĤ ÙĤØª
ĠØ§ÙĦØ£Ø´ Ø¬Ø§Ø±
ĠØ¨Ø§ÙĦØ· Ø§Ø¦Ùģ
ĠØµØ§ÙĦ ÙĪÙĨ
995 04
ĠØ¨Ø§ÙĦ ÙĤØ·
4 18
ÙĪÙĦ ÙĬØª
ĠÙĪØ¯ ÙĪØ±
ĠØ·Ø¨Ø¹ Ø
ĠØ·Ø¨Ø¹Ø §
âĢ¬ âĢ¬
ØµØ± ÙģØ§Øª
n Ø¬ÙĩØ§Ø²
ĠM ac
ĠØ§Ø¨ Ù
ĠØ§Ø³Øª ÙģØ³Ø§Ø±
ĠØ§Ø¨Ù Ħ
ĠØ¨ Ø§ØŃØ«
Ø³ØªØ± Ø
Ø³ØªØ±Ø §
ĠØ§ÙĦØ¨ÙĨ Ø²ÙĬÙĨ
fr ica
Ġp at
ÙĲ \
nØ§ÙĦ Ø¹ÙħÙĦ
ĠÙħ ÙĪØ¬Ø©
Ġi OS
ĠØªØ´ ÙĬÙĦ
ĠÙĨ Ø¸ÙĬÙģØ©
ĠÙĥØ¨ Ø³
ĠØ¨ Ø¯Ø±Ø¬Ø©
ĠÙĥ ÙĬØ¨
ĠÙĩ ÙĪÙĨØº
77 9
ĠØ§ÙĦÙħ Ø±Ø¨
Ø¹ ÙĪÙħ
Ùĥ Ø¯Ø©
ĠÙĬØ¬Ø¹ÙĦ Ùĩ
ÙĬØ± Ùĥ
ĠØ³ÙĨ Ùĩ
Ø§Ùģ Ø
Ø§ÙģØ §
8 98
ĠØ§ÙĦÙħ ÙĦÙĬ
olut ion
n xx
Ø§ÙĪ Ø¨
Ġp ur
nØŃ ØªÙī
nØ´ ÙĥØ±Ø§
Ð ´
ĠÙĪØ§ÙĦÙħ ØµØ§Ø¯Ø±
el f
Ø¬Ø± Ø§ÙĨ
998 13
ÙĨØ¯ ÙĤÙĬØ©
Ø§ØŃ ÙĤØ©
ĠØ¹Ø§Ùħ ÙĬÙĨ
U rl
Ø§Ø¶ Ø¹Ø©
Ħ Ø±
A l
ĠØ®ÙĦÙĬ Ø·
ĠØŃ Ø±Ø©
ÙĪ Ø§Ùĩ
Ø· ÙĬØ±
Ù ĦØ±
Øº ÙĪØ¨
ĠØ£ÙĨ ÙĬÙĤØ©
ĠÙĪÙĦ ÙĤØ¯
ĠØ§ÙĦØ¹ÙĤÙĦ ÙĬØ©
ĠØ§ÙĦØ§ØŃØªÙģ Ø§Ø¸
ĠØ¹Ø§Ø´ ÙĪØ±
999 32
ĠØ§ÙĦØª ÙĪÙĤÙģ
ĠPro ducts
k t
ĠÙĪÙĥ ØªØ¨
ĠÙĦÙĦØ¥ ÙĨØ³Ø§ÙĨ
ÙĩÙĩ ÙĩÙĩ
ĠØ· ÙħÙĪ
ÙĨØ² Ø±Ø©
Ġ act
ÙĪ Ø´ÙĬ
Ø¹ ÙĥØ³
________ __
n ad
R T
ĠØ§ÙĦÙģ ÙĬØ¯Ø±
n ing
nÙĪ ØµÙģ
5 26
ĠØŃÙģ Ø§Ø±Ø©
ĠØ§ÙĦØ¹Øµ Ø¨ÙĬØ©
ĠÙħÙĨØ² ÙĦÙĬ
E Q
ÙĦØª Ø
nØ§ÙĦ Ø´ÙĬØ®
ÙĦØªØ §
Ø¬ Ø¯Ø¯
ĠØ³Ø± ÙĬØ©
ĠÙģ Ø±Ø³
ĠØ£Ø° Ø±Ø¨ÙĬØ¬Ø§ÙĨ
ĠØ¨ Ø¹ÙĬØ¯Ø©
Ø¨ Ø±ÙĬØ³
ĠØ§ÙĦØ¯Ø± Ø§Ø¬Ø§Øª
4 20
Ùĩ Ø§ÙĦ
ĠØ£Ø¯ ÙĪÙĬØ©
le ction
Ø§Ø« ÙĬ
ĠÙĪØ§ÙĦ Ø±ÙĬØ§Ø¶Ø©
83 21
ĠÙĦÙĦØ¹ Ø²Ø¨Ø§Ø¡
ĠØ«ÙĦØ§Ø« ÙĬ
ĠØ§ï» ·
93 84
Ø§Ø³ÙĬ ÙħØ§
ĠØ´ ÙĦØ§ÙĦØ§Øª
ĠØºØ³ ÙĪÙĦ
ĠØ§ÙĦÙĨÙĤ Ø§ÙĦØ©
ĠÙĪØ§ÙĦ ØµØŃ
ch er
5 22
ĠÙĦ Ø§Ø¦ØŃØ©
ĠØ² Ø§Ø¯Øª
ØµØ± ØŃ
ĠÙĨ Ø¶Ø¹
ĠØ± ÙħØ§ÙĦ
ĠÙ¡ Ùł
Ø§Ùĥ Ø´
ĠØ§ÙĦØŃ ÙĪØ§Ø¯Ø«
ĠÙĪØ¥ ÙĨØªØ§Ø¬
ĠM arket
Ġa fter
ĠÙħØŃ Ø§Ø¶Ø±Ø©
ĠJ anuary
ĠØ¨ÙĨØ§ Ø§ÙĦ
ĠØ± ÙĪØ§ØªØ¨
ĠÙĪØ§ÙĦØ³ Ø¹Ø±
ĠØµ Ø¯ÙĬÙĤØ©
998 23
ĠØ² Ù
ĠØ¥ ØŃÙĬØ§Ø¡
ĠØ²Ù Ħ
ĠÙĬØªØ± Ø§ÙĪØŃ
ĠØ§ÙĦØºØ± ÙĬÙĨÙĬ
ĠØ§ÙĦØ·Ùģ ÙĪÙĦØ©
ĠÙĪÙħ Ø¯ÙĬØ±
Red dit
ĠØ£ Ø±ÙĪØ¹
ĠÙĦÙĦØ³ ÙĦØ©
ÙĪØ¶ Ø§Ø¡
G A
Ġs bm
ĠÙĪØ§Ø± ØªÙģØ§Ø¹
ĠA mazon
Ø®Øµ ÙĬØ§Øª
97 24
ĠØ§ÙĦÙĤ Ø§Ø¯
Ø³Ø· ÙĨØ¨ÙĪÙĦ
ĠØªØªØŃ Ø±Ùĥ
ĠØ§ÙĦØ§Ø¹ ØªØ±Ø§Ùģ
Ġ bel
ĠÙĨ Ø§Ø¯Ø±Ø©
ĠÙ ©
ĠØ§ÙĦØªØºÙĬÙĬØ± Ø§Øª
ĠØªØ¬ ÙĪÙĬÙģ
ĠØ§ÙĦØ® Ø·Ø±
ĠØªØ¬Ø±Ø¨ ØªÙĬ
ĠØª ØªÙĥ
ĠÙĪØ§ÙĦ ØªÙĩ
ĠÙĪØ§ÙĦÙĥ Ø«ÙĬØ±
11 95
ĠØ§ÙĦØ«ÙĦ Ø§Ø¬Ø©
ĠØ±Ø¬ ÙĦØ§
ĠØ£Ø« Ø§Ø±
ĠØ§ÙĦØ¨ ÙĪØ³
ĠÙĦØªØ³ ÙĩÙĬÙĦ
tl y
R Y
ĠØ¬ ÙĬØ³
Ø¨ÙĪ ÙĬÙĨØª
at t
ĠØ§ÙĦØ¬Ùħ Ø§ÙĩÙĬØ±
ĠØ§ÙĤØªØ± Ø§ØŃ
ĠÙĪØ§ÙĦØ³ ÙĨØ©
ĠÙħØŃ ÙģØ¸Ø©
Ø§ÙĦÙĬ Øª
ĠØ¨Ø§ÙĦ Ø¨ØŃØ«
ĠØ§ÙĦØ® Ø±ÙĬØ·Ø©
ÙĦÙĬ Ø¬Ø±Ø§Ùħ
9997 3
ÙĨ Ø§Ø¹
ĠØ§ÙĦØº Ø²
ĠØªÙĤ ÙĪÙĬÙħ
ĠÙĪØ£ Ù
ĠL o
ĠÙĪØ£Ù Ħ
ĠP e
ĠØª ÙģØ¶
ĠÙĪØ¨Ø¹Ø¯ ÙĩØ§
ĠÙĦ Ø§Øµ
ÙĪØ¨ Ø§ÙĨ
ĠÙĪØ§ÙĦ Ø·ÙģÙĦ
ĠØ§ÙĦØª ÙĦÙĬÙģ
C T
av a
ĠØ§ÙĦØ·ÙĦ Ø§Ø¨ÙĬØ©
ĠÙĪÙĦ Ø¹ÙĦ
ĠÙħØ´ ØªØ±ÙĬ
ĠØ§Ø³Ùħ ÙĩØ§
ØªÙĬ Ø§ÙĨ
66 2
ĠØ§ÙĦØ£ÙħÙĨ ÙĬ
con om
ÙĪÙĤ Ø§Ùģ
ÙħÙĬ ØªÙĩ
ab a
ĠØ·Ø§ÙĦ ÙħØ§
ĠÙĪØ§ÙĦØ¥ Ø¹ÙĦØ§Ùħ
ĠØ§ÙĦÙħØ¹ Ø§ØµØ±Ø©
20 64
ĠÙĪÙħ Ùģ
ĠØ¨Ø§Øª Ø¬Ø§Ùĩ
ĠÙĪ Ø«ÙĤ
ĠØŃØ¯Ø« Øª
ĠÙĬØ¤ ÙħÙĨ
ĠÙĪØ¬Ùĩ Ø§Øª
ĠÙĦØ± ÙģØ¹
ĠØ§ÙĦÙĨ Ø§Ùģ
ÙĬØ³ Ø§Ø±
ĠØ§ÙĦØ· ÙĪÙĦ
ĠØ¶ Ø±Ø¨Ø©
ĠÙģ Ø³ØªØ§ÙĨ
995 94
ĠØ§ÙĦØ¶ Ø§Ø±Ø©
us er
Â» :
ĠØ§ÙĦÙħÙĨ Ø·ÙĤ
Ø®ÙĦ Ø§ÙĤÙĬØ©
ĠØ§ÙĦØ¥ Ø¨Ø§ØŃÙĬØ©
Ġ à¤
P V
ĠÙĪØ§ÙĦ Ø¹ÙĦØ§Ø¬
ĠØ§ÙĦØ¹ Ø´Ø±
â ĺ
i et
ĠØ§Ùħ ØªØŃØ§ÙĨ
ass word
ĠØ§ÙĦØ¹Ø¯ ÙĪØ§ÙĨ
ĠØ£ØŃ Ø¬Ø§Ùħ
ĠØ§ÙĦØ· ÙĪØ§Ùģ
ĠØ¨Ùħ Ø¹Ø¯ÙĦ
30 28
ĠØ§ÙĦØ¬Ø¯ Ù
ĠØ§ÙĦØ¬Ø¯Ù Ħ
uwa it
4 29
ÙĦÙĦ Ø¨ÙĬØ¹
ur k
ĠP RI
nÙĪ ÙĩØ°Ø§
ĠÙĨÙĤØ¯Ùħ ÙĩØ§
Ø§ÙĬ ÙĬØ³
ĠØ¨Ø· Ø±ÙĬÙĤ
\/ \\/
:\ \/\\/
ĠØ§ÙĦØ£Ø±Ø¶ ÙĬØ§Øª
Ø¨ÙĬ ÙĩØ§Øª
ĠÙĪØ§ÙĦØ£ Ø¹ÙħØ§ÙĦ
ĠØ§ÙĦÙĥ ÙĦØ¨
ĠØ§ÙĦØ¹Ø¸Ùħ Ùī
ĠØ§ÙĦÙĤÙĪÙĦ ÙĪÙĨ
ĠØ¨Ø§ÙĦØ® Ø¨Ø±
ĠÙĪØ§ÙĦØ° ÙĬÙĨ
ĠØ¨Ø¹ Ø«
ÙĪØ§Øª ÙĬÙħ
as px
ĠØµ ÙĪØªÙĬ
ĠØ¹ÙĤ ÙĪØ¨Ø©
ĠØ¨Ø§ÙĦØ· Ø±ÙĬÙĤØ©
l ar
995 49
ĠØ¨Ø§ÙĦÙħ Ø³Øª
ĠØ§ÙĦØ³ÙĬÙĨ ÙħØ§Ø¦ÙĬ
ĠØ§ÙĦØ¨ Ø°ÙĪØ±
995 00
nØªØŃ ÙĦÙĬÙĦ
98 59
4 02
Ùĥ Ø³ÙĦ
ĠÙĦØ¹ÙħÙĦ Ø§Ø¦ÙĨØ§
ĠØ§ØŃ ÙĦÙī
Ø±Ø¶ ÙĬ
n Ø¹ÙĦ
O O
ĠÙĪØ¥ ØµÙĦØ§ØŃ
ĠÙĪÙĤ ÙĬÙĦ
ĠÙģ Ø±ÙĪØ©
ĠØ± ÙĪØ¯
98 63
ĠØ³Ø¬ÙĦ Øª
ĠØ¶ Ø®
ÙĤÙĪÙĦ Ùĩ
g u
Ø±ÙĪ Ø²
ĠØ¨Ø± Ùħ
ĠÙģÙĬ ÙħÙĥÙĨÙĥ
ĠÙĪ Ø
ĠØ§ÙĦØ£ÙĨØ¯ Ø±ÙĪÙĬØ¯
Øµ Ø§Ø±ÙĬ
ĠÙĩÙĨØ¯ ÙĬØ©
ĠÙħØ§Ø± ÙĥØ§Øª
ĠØ§ÙĦØ§ÙĨ Ø¶ÙħØ§Ùħ
ĠÙĬÙĤ Ø§Ø±Ø¨
ĠØ§ÙĦØ² Ø§Ø¦Ø±
ĠØ§ÙĦØ§Ø¹Ø¯ Ø§Ø¯ÙĬ
ĠØ¬ Ø§Ø±
nØ¬ Ø§Ø¡
ĠØª Ø¯ÙħÙĬØ±
ĠØ§ÙĦØ¬ ÙħÙĩÙĪØ±ÙĬ
ĠÙħØ± ØªÙģØ¹Ø©
ĠØ§ÙĦÙħØ´ Ø§ÙĩÙĬØ±
96 11
ĠÙĪØ §
ĠÙĦÙĦÙħÙĨ Ø²ÙĦ
Ġ1 83
ï¯ ¾
ÙĪØ¯ Ø±Ø©
ĠÙĦÙĦÙħ Ø§Ø¡
93 26
Ġ6 1
ĠØ§Ø³Ø¨ ÙĪØ¹
995 84
D AD
ĠØªØ§Ø¬ ÙĬØ±
ĠØ¨ Ø¹Ø±Ø¶
ĠØ§ÙĦÙħØ® Ø²ÙĪÙĨ
Ġcom ment
ĠØ§ÙĦÙħ Ø§ÙĥÙĬÙĨØ©
Ġs mall
996 54
ĠØ¯ ÙĦØ§ÙĦØ©
nY ou
ĠØŃØ¬Ø± ÙĬØ©
30 26
ĠÙĪØ¹ ÙĦÙĬ
ĠØªÙĤ ÙĪÙĬØ©
ĠÙĦÙħ Øª
ĠØ¯ Ø§Ø¦ÙħØ©
ĠÙĬØ¯ ÙĪØ±
ĠØ¹Ø´ Ø§ÙĤ
nØ§ÙĦ ÙħÙĦ
Ġman y
ĠÙĦÙĤ Ø§ØŃ
Ø¹ÙĦ Ø§ÙĨÙĬØ©
ĠØ§Ùĩ ØªØ²Ø§Ø²ÙĬ
ĠC ap
C om
ĠÙģØ§ÙĨ Ø²
ĠØ±Ø§ÙĬ ÙħÙĪÙĨØ¯
ĠD esign
ĠØ§ÙĦÙĥÙĦ ÙĪØ±
ĠÙĬ ØµØŃ
ĠØ§ÙĦØªØ¯ ÙģÙĤ
76 2
ĠØªØ£ Ø®Ø±
ĠØ§ÙĦÙģ Ø§ÙĥÙĩØ©
ĠØ§ÙĦØ§Ø® ÙĬØ±Ø©
e ach
ĠØ§ÙĦØµ Ø®Ø±
o ro
ĠÙģ Ø¬Ø±
ĠÙħ ÙĪØ¨Ø§ÙĬ
ÙĪÙĨ Øª
ĠØ¯ ÙĪØ§Ø±
Ø§Ùĥ ÙĬØ©
ĠÙĦØ£ ØµØŃØ§Ø¨
999 254
ĠÙĪØ§ÙĦ Ø¨ÙĬ
ĠÙĪ ØŃØ±
ĠØ£ÙĬ ÙĤ
Ø¨ Ø¶
Ġ dig
ĠÙħØŃ Ø¨
ĠG alaxy
Ø³ ÙĬØ¯
ĠÙħØ¹ Ø§Ø·Ùģ
ĠÙĦÙĦ Ø¢
nØ§ÙĦ Øº
ĠØ´ Ø±ÙĬØŃØ©
Ø¨Ø¯ Ø
Ø¨Ø¯Ø §
ri p
nØ£ ÙĬÙĨ
ÙĩØ ¤
ĠÙĦÙĦÙĤ Ø¶Ø§Ø¡
K X
ØªØ± ØŃØ§Øª
Ħ ÙĪÙĥ
Ù ĦÙĪÙĥ
id er
ĠØªÙĬÙħ ÙĬØ©
ĠØªÙħ Ø¯ÙĬØ¯
ĠØ§Ø¬ Ø¹ÙĦ
op ular
97 11
ĠØ§ÙĦØ¬Ø± Ø§ØŃØ©
ĠØ§ÙĦØ¬ ÙĩØ§Ø¯
nÙģ Ø¨Ø±Ø§ÙĬØ±
ĠL M
ĠØ§ÙĦÙģØ± ÙĪÙĤØ§Øª
zh ou
7 39
ĠØ¨Ø§ÙĦØ´ ÙĥÙĦ
ĠØ¨ÙĤ ÙĪÙĦÙĩ
Ġ1 998
ĠØ£ Ø¬ÙħØ¹
ÙĬØª Ø
ÙĬØªØ §
Ø§ÙĦØ« ÙĤ
ĠØ§ÙĦÙĩ ÙĬØ¦Ø§Øª
ĠP interest
ĠÙħØŃ Ø±Ùħ
ĠÙħÙĥ ÙĬÙģ
Ø±ÙĪ Øª
ĠØ§ÙĦÙħÙĨ ØµÙĪØ±Ø©
ĠØ¯ ÙħÙĬØ§Ø·
ĠØ§ÙĦÙĨ Ø§Ø¯Ø±Ø©
ĠØ¨ Ø°ÙĦ
Ø¬Ùĩ Ø¯
5 25
ĠØ§Øª ÙģÙĤ
98 23
96 94
ĠØ§Ùħ ÙĬØ±
nÎ Ķ
ĠØ§ÙĦÙĨ Ø´Ø±Ø©
ĠÙĨÙģ Ø°
ff ect
ĠØ§ÙĦØ· Ø§Ø¨Ø¹
ÙĪØª ÙĩØ§
Ø§ÙĦÙĬ ÙĪÙĨ
ÙĦÙĬ Ø¬
ĠØ§ÙĦÙĤÙĦ ÙĪØ¨
ĠØ¹ÙĤ ÙĪØ¨Ø§Øª
ĠØ¨ Ø§ÙģØ¶ÙĦ
ĠÙĤ Ø±Ø¶
ĠØ® ÙĪÙģ
nØ£ ØŃÙħØ¯
Ø¦ Ùĩ
ĠØ§ØŃ Ø³ÙĨ
ÙĦØ¨ Ø³
ĠG e
26 66
995 46
Ø·Ø± Ø§Ø¨
Ø´ Ø§Ø¯
Øª ØªÙħ
ĠØ§Ø® ØªØµØ§Øµ
u ch
ĠØ§ÙĦØµ ÙģØ§Øª
ĠØªØ±Ùĥ Ø²
ĠØ£Ø¹ ÙĪØ§Ùħ
55 0
D BF
Ø§ÙĦ Ø§Ø³Øª
ĠØªØµ Ø±ÙĬÙģ
ĠØ£ Ø¸ÙĩØ±Øª
8715 653
ĠÙģÙĬ Ø²Ø§
Ø±ÙĪ ÙĪÙĬÙģ
ĠÙħ ÙĩØ¯
ĠÙĪØ§ÙĦ ÙĥØ³Ø§Ø±Ø§Øª
ĠÙģÙĨ ÙĦÙĨØ¯Ø§
ĠØ§ÙĦØ±Ø¦ Ø§Ø³ÙĬØ©
ĠØ¶ ÙĬÙĤ
r as
ĠØ§ÙĦÙģØ± Ø§Ø´
ĠØ§ÙĪØ±Ø¬ ÙĬÙĨØ§ÙĦ
nÙĪØ¹ ÙĨ
ĠØ§ÙĦØ¹Ø¨ Ø§Ø³
ĠÙĪØª ÙĨØª
ĠÙĦØ£ Ø¬ÙĩØ²Ø©
ĠØŃÙħ Ø§Ø³
ĠØ§ÙĦØŃ Ø±ÙĪØ¨
ĠØ§ÙĦÙģØ± ÙĤØ©
ĠØ± ÙĪØ²
ĠÙĥÙĪØ¨ ÙĪÙĨØ§Øª
f in
ĠØ§ÙĦØ²Ø¨ Ø§Ø¦ÙĨ
6 02
ĠØ£Ø±Ø¯ Øª
ĠØ§ÙĦÙħØª Ø·ÙĦØ¨Ø§Øª
ĠØŃØ± Ø§Ø±ÙĬ
Ø¶ØŃ Ùĥ
ĠØ®Ø· ÙĬØ±
Ø¬ Ø¨Ø§Øª
Ø§Ø± Ø§Ø´
n Ø§ÙĪ
995 85
ĠØ§Ø³ Ø±Ø§Ø¦ÙĬÙĦ
Ø§ÙĬ Ø¨
ĠP FW
ĠØ§ÙĦØ£ Ø³ÙĦØ§Ùĥ
994 57
ĠØ¨ØªÙĨ ÙģÙĬØ°
ĠØ§ÙĦÙħÙģ Ø§ØµÙĦ
Ġp lay
ĠØ§ÙĦÙħØ³Øª Ø¬Ø¯
Ġm ag
nØªØ¹ Ø±ÙĬÙģ
Ø°ÙĬ Ø°Ø©
ĠØŃÙĪÙĦ Ùĩ
ĠÙĪØ§ÙĦ ÙĤØ±
98 28
Ø· Ø§ÙĨÙĬ
0 29
N A
ĠÙħØ§Ø± Øª
ĠØ¨ÙĬÙĨØª ÙĬØ±ÙĬØ³Øª
998 49
ĠÙĨ Ø³ÙĬØª
ĠÙĥ Ø°Ø§
ĠØ§ÙĦ Ø§ÙģØ±
67 02
ĠÙĪ Ø§Ø±Ø¯
ĠØ§ÙĦØ®Ø¨Ø± Ø§Øª
ĠØ¬Ø¯ Ø§Ø±
ĠØ§ÙĦØ³ Ø§ÙĦÙħ
Ġh ere
J B
Ø¯ Ø§Ø±Ø§Øª
63 99
Ø§ÙĩØ¯ Ø§Ùģ
Ø®Ø¨ Ø«
Ùħ ÙĥØ§ÙĨÙĬØ©
ĠArab ia
ĠØ¯ ÙĪØ±ÙĬØ©
ĠAd vertise
Ġ 92
93 27
ÙĨØª ÙĬØª
nÙħ Ø¹Ø±Ø¶
ĠØ· ÙĪØ¨
Ø²Ùĩ Ø©
ĠØ§ÙĦÙģ Ø§Ø®Ø±Ø©
ĠÙĦ Ùī
nØ¥ ÙĦÙī
ĠØ§ÙĦÙĪ Ø§ÙĨ
ĠA dd
p ower
i tle
ĠØ¯Ø¹ Ø
ĠØ¯Ø¹Ø §
Ø§Ø²ÙĬ ÙĦÙĬ
Ø§ÙĦ ØµÙģ
ĠÙĦÙĬ ØªÙħ
ĠÙħÙĪ Ø²
n ap
ĠÙĪØŃ ÙĬØ¯
36 83
Ø§Ø³ÙĬ ÙĪÙħ
996 22
Ø¹ Ø¬
995 88
ÙĤ Ø§Ø±Ø§Øª
Ġmidd ot
n Ø¬Ø±
p a
5 16
Ø§Ùģ ÙĬÙĩ
ĠØ£ ÙĪØ¯
ĠØ¨Ø§ÙĦ Ø§Øª
ĠÙĩ Ø§ÙĨÙĬ
ĠM anufactur
ĠØ¨ Ø´Ø±ÙĥØ©
ĠØ¨Ø§ÙĦØª Ø§ÙĦÙĬ
ĠØµ Ø¹ÙĪØ¯
ÙĩØ¤ ÙĦØ§Ø¡
ĠØ· Ø§Ø¦Ø±Ø§Øª
ĠÙħØ§ÙĬÙĥ Ø±ÙĪØ³ÙĪÙģØª
C ED
T umblr
ØºØ±Ø¨ Ø§ÙĦ
Ø¸ ÙĦÙħ
Ġ1 990
ĠÙĬ ÙĤØ±Ø£
ĠØ² Ø§Ø¦Ø±
995 86
ĠØ§ÙĦØ± Ø¦Ø§Ø³Ø©
Ø§Ùģ Ø±Ø©
Ġ1 997
ĠØ¥ÙĨØªØ§Ø¬ ÙĬØ©
ett ings
ĠØ¹ÙĨ ÙĬ
Øº Ø³ØªÙĨ
ĠÙĬÙĤÙĪÙĦ ÙĪÙĨ
nØ£ØŃ Ø°ÙĬØ©
ĠÙĩ Ø§Ø¦ÙĦ
Ø¬ÙĦ ÙĪØ³
Ø®Ø± Ùģ
996 88
64 2
Ġa uto
ri al
) }
ĠØ§ÙĦØ¥ÙħØ§Ø±Ø§Øª ÙĬØ©
ĠØ° Ø§Ùĥ
9749 318
Ø¶ Øª
L X
ĠØ§ÙĦØ§Ø³Øª Ø¬Ø§Ø¨Ø©
996 30
995 87
c al
ĠØ§ÙĦÙħØ³Ø¦ ÙĪÙĦÙĬØ©
ĠØ§ÙĦØ§Ùħ ØªØŃØ§ÙĨ
ĠÙĤ ÙģÙĦ
ĠÙĪÙĤ Ø¯Ø±
ĠØ£ Ø¬Ø¯
ĠÙĪÙĤ Ùħ
ĠØ¨Ø§ÙĦ Ø«
nÙĬ ÙĪØ¬Ø¯
ĠØ§ÙĦØ§Ø¹ Ø¶Ø§Ø¡
ĠØ§ÙĦØŃ ÙĬÙĨ
ĠØ¨ Ø¶Ø¹
nP interest
ĠÙĪØ§ÙĦ Ø·Ø¨
ĠÙħØ± Ø¶Ùī
ÙĢ Ø
ĠØ¬ Ø¯Ø¯
ĠÙĨØ§Ø¬ ØŃ
ĠÙĦÙģ Ø¸
Ġwork s
997 68
ĠØ³ Ø±ÙĬÙĦØ§ÙĨÙĥØ§
Ġqu e
Ø® Ø¨Ø§Øª
ÙĢØ §
ĠÙĪ Ø·Ø¨
ĠØ§ÙĦÙģÙĨÙĬ ÙĬÙĨ
995 95
ĠØ§ÙĦÙħØ¤ Ø³Ø³
ĠÙĬØµ ÙĬØ¨
98 12
ĠØ¨ÙĨØº ÙĦØ§Ø¯ÙĬØ´
Ø³Ø± ØŃ
nØ§ÙĦ ØªÙĤ
G Q
ĠÙĦÙĦ ÙĥØ³Ø§Ø±Ø§Øª
Ġcon sent
ubl ications
98 33
ĠØ§ÙĦØ¯Ùĩ Ø§ÙĨØ§Øª
ÙĪØ¯ Ø¹Ø§Øª
ĠØ³ Ø§ØŃÙĦ
ĠØ§ÙĦÙħ ÙĥÙĬØ§Ø¬
Ùģ Ùĥ
ĠØ¶ ØŃØ§ÙĬØ§
ĠÙģÙĦ ØªØ±
ĠØ§ÙĦÙħÙĨØª Ø´Ø±Ø©
5 21
nØ¯ ÙĥØªÙĪØ±
Ø±ÙĬ Ø´ÙĬ
Ø§ÙĨ Ø¦
ĠØ±ÙĪØ¨ ÙĪ
b it
ĠØ´ Ø¨Ø©
ĠÙĪØ§Ø® ØªÙĬØ§Ø±
Y M
ĠÙĤØ¨Ø± Øµ
Ø£ ÙĪÙĦ
L S
ĠSaf ety
Øª ØºÙĦ
4 28
997 10
ĠØ§ÙĦØ¹ Ø´Ø¨
ĠÙĪ ÙĥØ±
83 93
ĠØ¬Ø§Ùħ Ø¹Ø§Øª
ÙĨØ¯ Ø±ÙĪÙĬØ¯
ÙħØ³ Ø§Ùĥ
ĠÙĪØ§ÙĦØª ØºÙĦÙĬÙģ
ĠØ¸ Ø§ÙĩØ±
ĠØ¹ ÙĦØ§Ùħ
96 25
ĠÙĪØ§ÙĦ Ø¨ÙĨ
ĠØ± ØºØ¨
96 65
ĠÃ ł
ĠÙĦØªØ¯ Ø§ÙĪÙĦ
h an
Ùĳ Ùį
ĠØ¨ØªØŃ ÙħÙĬÙĦ
ĠØ¨ ÙĪØ²Ø§Ø±Ø©
ĠÙĦÙĦØŃ Ø¬Ø§Ø±Ø©
ĠÙĬÙģ ÙĬØ¯
en a
ĠM od
y e
Ø·Ø§ÙĦ Ø¨Ø§Øª
Ø§ÙĦØ± Ø¦ÙĬØ³
ĠÙĥ ÙĦÙĬØ§Øª
ÙĪÙħ Ùĩ
ĠØ§Ø± Øª
ĠØª ÙĪØ³
Øµ ÙĤØ§Øª
Øª ÙģØ³ÙĬØ±
ĠØ¹Ø¨Ø¯ Ùĩ
ĠØªØªØ¹ Ø§ÙħÙĦ
ĠÙĬÙģ ÙĩÙħ
ĠÙĩ ÙĦØ§ÙĦ
t rue
ØªØ± Ø¨Ø©
ĠØ´ Ø§Ø¦Ø¹
ĠÙĦ Ø§ÙĤ
ĠØªÙĤ Ø±Ø±
ĠØ§ÙĦØªØ¯ Ø®ÙĬÙĨ
ĠÙĬ ØµÙģ
ĠØ§ÙĦØ· ÙĪ
Ġl ist
ĠØ§ÙĦØ´ ÙĤÙĤ
ĠØ£Ø¯ Øª
ĠØ´ÙĬØ¡ ÙĤØ¯ÙĬØ±
ĠA ss
ĠØ§ÙĦØ¹ ÙĥØ³
ĠUn iversity
ĠÙĤÙĬ ÙĪØ¯
ĠØ§ÙĦÙĦ Ø§Ùħ
ØªØµ Ø¯Ø±
ro und
ÙĬÙģ ÙĬØ§
k ora
ĠØ¨ Ø§ÙĬØª
at ur
Ø§ÙĦÙħ ÙĤ
ĠI P
ÙĪÙĬ Ø¯ÙĬ
ĠH PT
ĠØ§ÙĦ ÙĢÙĢ
ĠØª Ø´Ø§Ø±
p ages
ĠÙĪ ØµÙĨØ§Ø¹Ø©
ĠÙĬØ¹ Ø¬Ø¨Ùĥ
ĠÙĦØ± Ø¦ÙĬØ³
98 43
T ube
ĠØ§ÙĦØ£ ØŃØ¯Ø«
ĠØ§ÙĨ Ø¯Ø±Ø§
ĠÙĦ Ø¬ÙĩØ§Ø²
Ø§Ø´ Ø¨
up on
ĠØ§ÙĦØ£Ùĥ Ø§Ø¯ÙĬÙħÙĬ
ĠÙĦ ÙĪØ¯Ø±
ĠØ£ÙĪ Ø§ÙħØ±
ØªÙħ ÙĬÙĨ
ĠÙħØ³ ÙĬØ±
Ã ¶
Øµ Ø§ÙĦØŃ
95 75
ÙħØ§ÙĦ Ø©
ĠØ§ÙĦÙħØŃ ØªØ±ÙģÙĬÙĨ
ĠØ§ÙĦØ¹ Ø±ÙĪØ³
ĠÙĪÙĨ ØŃÙĪ
ĠØ§ÙĦØ² ÙĩÙĪØ±
ĠØ§ÙĦØ² ÙħÙĨÙĬ
< <
ĠØ§ÙĦÙģÙĨØ§ÙĨ ÙĬÙĨ
ĠØ§ÙĦÙĨ Ø´
ĠÙĨÙĤØ¯ ÙĬØ©
ro r
ĠØªØª Ø®Ø°
ĠØ£Ø¨Ø±Ø² ÙĩØ§
n US
Ø§ÙĦÙħ Ø²ÙĬØ¯
Ø¯ ÙĦÙĬÙĦ
ĠÙĨÙģ Ø§ÙĬØ§Øª
ĠØ£Øµ ÙĪØ§Øª
ic o
Ð ¼
Ħ Ø§Ùĥ
Ù ĦØ§Ùĥ
ĠÙĩØ§ÙĬ Ø¨Ø±
ĠØ¨ ÙģØ±
ĠØ¥ÙĨ ÙĩÙħ
Ġap k
7 13
o be
995 54
995 17
ĠØŃÙħÙĦ Ø§Øª
ĠØ§ÙĦØ§Ø³ ØªØ±Ø§ØªÙĬØ¬ÙĬ
ĠPRI CE
ĠØ´ ÙĪÙĥ
ĠØ§Ø³Øª Ø¯
Ø¯ÙĬÙĨ Ø§Ø±
nØª ÙĤÙĪÙħ
98 18
ĠØ§ÙĦØ·Ø¨ Ø¹Ø©
2 99
Â §
ĠØ§ÙĦÙħØ³Øª ÙĤÙĦØ©
ĠØº ÙĨÙĬØ©
ĠØ§ÙĦØ¹ Ø·Ø±
ĠØ¯ Ø±Ø¨
5 86
ĠØ£ ÙĬØ±ÙĦÙĨØ¯Ø§
ĠØ§ÙĦØ´Ø± ØŃ
ĠØ¨ ØªØ±ÙĥÙĬØ¨
ĠØªÙħ Ø«ÙĬÙĦ
ĠØª ÙĪÙĤ
ĠØ§ÙĦØ¨Ø± Ø¯
ĠÙħ ÙĬÙĨÙĬ
ĠÙĪÙħ ØªØ§Ø¨Ø¹Ø©
ĠÙĦ ÙĬØ¹
ĠØ¨ÙĨ ÙĤÙĦ
nØ¨Ø±ÙĬ ÙħÙĬÙĪÙħ
Ø¨Ø¯ Ù
ĠT ik
ĠÙĪØ§ÙĦ Ø¯Ø±Ø§Ø³Ø§Øª
Ø¨Ø¯Ù Ħ
ĠØ§ÙĦÙħÙĨ ØŃØ±Ùģ
BE C
ĠØ´Ø± Ùħ
ĠÙħÙĨ Ø¸ÙħØ§Øª
F Z
ĠÙĬ Ø«ÙĬØ±
96 86
ĠØ§ÙĦÙĬØ¯ ÙĪÙĬ
7 43
ĠØ±ÙĪ Ø³ÙĬ
ĠÙĩ Ø§Ø¯ÙĬ
ĠC he
0 88
ĠØ§ÙĦÙħØ®Ø· Ø·
ĠØ§ÙĦØ§ÙĨØª Ø¸Ø§Ø±
ĠS ee
ĠÙĦØ£ Ø¨ÙĬ
ĠØŃØ¯ Ø§Ø¯
ĠP er
4 10
R D
ĠØ¯Ø¹ ÙĪÙī
ĠØ²Ø¨ Ø¯Ø©
ĠØ¬ÙħÙĬØ¹ ÙĩØ§
98 38
ĠØ§ÙĦØ¨ ØªØ±
am ily
Ġ 91
ĠØ§ÙĦØª Ø¨Ø±
Ø§ÙĤ Ø¶
ĠØ§ÙĦÙħØ¬ Ø§Ø±ÙĬ
ĠØ§ÙĦØ³ Ø§Ø¯Ø©
j e
ĠØ§ÙĦØª Ø§Ùħ
Ø³Øª ÙĬØ©
ĠØ§ÙĦØŃØ³ Ø§Ø³ÙĬØ©
ĠØ§ÙĦØ£ÙĨØª ÙĬÙħÙĪÙĨ
Ġ1 87
ĠÙĦÙĦÙħ Ø®
ÙĪØ¯ Ùĥ
Ø§Ùĩ Ø¶Ø©
ĠÙĦ ÙģØ±
Ø¬Ùħ ÙĪØ¹Ø§Øª
ĠØ§ÙĦÙħÙģ Ø§ÙĪØ¶Ø§Øª
7 76
ÙĪØ³ Ùī
ĠØ£ Ø®Ø±Ø¬
Ø´ÙĬ Ø´
ÙĢ Ø§Øª
ĠÙĤ ÙĦØ©
_ .
ĠÙģ ÙĪÙħ
ĠØ£ Ø®ÙĬ
ĠÙĦ Ø¹ÙĦ
ĠØ¹Ø±Ø¶ ÙĩØ§
nN ext
Ø¶Ø± Ø§Ø¨
Ø· ÙĬÙĥ
995 11
ĠØ¨Ø± Ø§ÙĪÙĨ
Ø§Ø® ÙĬØµ
ĠØ§ÙĦÙħØ·ÙĦ ÙĤØ©
ĠÙĪØ£ ÙĪÙĦ
ĠØ§ÙĦØ£Øµ ÙĪØ§Øª
Ø§Ø±Ø§Ø´ ØªØ±Ø§
ĠØ§Ø¹ ÙĦÙī
ĠØ¨ Ø¯Ùħ
Ø¯ Ø§Ø©
ĠÙĦ ÙĤØ·Ø¹
ĠM ed
i la
ĠÙĪ ÙģØ¹
93 96
ĠÙħÙĦ ØŃÙĤ
c ar
ĠÙĥ ÙĪÙħØ§ØªØ³ÙĪ
ĠÙħÙĥ Ø§Ø³Ø¨
n ØŃÙħ
ĠØ§ÙĨ ØªØ±ÙĨØª
Ø³ Ø§Ø¹Ø©
nØ¹ ÙĦÙħ
ĠTer ms
ĠÙĪÙĬ ÙĤØ¯Ùħ
47 0
ĠØ§ÙĦÙħÙĨ ÙĬØ§
Ø§ÙĦ ÙĥØ§Øª
ĠØ§ÙĦ ÙĦÙħ
4 08
Ø¹Ø¯ Ø§Ø¡
ĠØ´ ØŃ
ĠÙĪØ£ Ø´Ø§Ø±
ĠØ¯ÙĪÙĦØ§Ø± Ø
ĠØ¯ÙĪÙĦØ§Ø±Ø §
ØªØ¨ Ø³
ĠØŃ Ø±Ùĥ
ĠØªØªÙĨ Ø§Ø³Ø¨
ĠØªÙģ ÙĥØ±
ĠØŃ ÙĪÙĦÙĬ
ĠØ·ÙĦØ¨ Ùĥ
ĠÙĪØµÙĪÙĦ Ø
ĠÙĪØµÙĪÙĦØ §
ÙĪØ² ÙĬÙĨ
ĠÙĪÙħ ØµØ±
nG ET
ÙĪØ« Ø§Ø¦ÙĤ
ĠM on
ĠØ§ÙĦÙĦ Ø·ÙĬÙģ
s d
Ø§Ùħ ÙĥÙĪ
ĠØ§ÙĦØ§Ùħ ÙĬØ±
ĠØªÙģ ÙĪÙĤ
7 05
ĠÙĪØ² ÙĪØ¬
ĠÙĦØªØ¹ ÙĦÙĬÙħ
ĠØ¹ÙĨØ¯ ÙĩØ§
6 67
ĠØªÙĨ ÙĤÙĬØ©
ØªÙĨ Ø§ÙĪÙĦ
ĠØ§Ùĩ ØªØ²Ø§Ø²
ØªØŃ ÙħÙĦ
ĠØ§ÙĦØ¥ ÙħØ¨Ø±Ø§Ø·
ĠØ¯ ÙģØ§Ø¹
ĠÙħ ÙħØªØ¹Ø©
ĠØ§ÙĦØ³ÙĪ Ø§Ø¦ÙĦ
Ġl td
ĠØªØ¹ ØªÙĤØ¯
ÙĤÙĬ Øª
ĠÙģ ÙĦÙĬØ³
ĠØ§ÙĦØª ØŃØ¯Ø«
ÙħØ§ Ø©
Ġc or
U U
Ø§Ø §
Ùħ Ø®
n Ø¨ÙĬØ§ÙĨØ§Øª
Ùģ ÙĦØ©
ĠØªØ¹ÙĦÙĬ ÙĤÙĬ
ĠØªÙĤÙĬÙĬÙħ Ø§Øª
ĠÙĪØ§ÙĦ ÙĥØ±
du st
ĠÙĪØ± ØºÙħ
ÙĥÙĩ Ø©
ĠØŃ Ø°Ø±
ĠØ¨Ø£ ØŃØ¯Ø«
ĠØ¬ ÙĪÙĬ
ĠØ¹ Ø§Ø¯ÙĬØ©
ĠÙĥØ±ÙĬ Ø³ØªÙĬ
ĠØ§ÙĦÙģØ¹ Ø§ÙĦÙĬØ§Øª
ĠØ§ÙĦÙĤ Ø§Ø¨ÙĦ
ÙĨØ³ Ùī
ĠÙħØ¹ÙĦÙĪÙħØ§Øª Ùĥ
ĠÙĨ Ø§Ø±ÙĬØ©
ĠØ¬Ø§ÙĨ Ø¨Ùĩ
ra h
ĠâĢı( âĢı
ĠÙħØª ØµÙĦ
ĠQ ue
ĠÙĨ ÙĪÙģ
ĠØµ Ø®Ø±ÙĬØ©
ÙĬÙĦ ÙĪ
Ø³Ø§Ø¨ ÙĤØ©
ĠØ§ÙĦÙĥØ« Ø§ÙģØ©
ĠØ¯ Ùī
ĠØ´Ø± ÙĤÙĬ
ĠØ§ÙĦÙħ ÙĥØ§ØªØ¨
ĠØ§ÙĦØªØµ ÙĪÙĬØª
Ùģ ÙĤØ©
ĠØ¹Ùħ Ø§Ø±
ĠØ§ÙĦØ´Ø± ÙĪÙĤ
ĠÙĬØ³ Ø§ÙĪÙĬ
ĠØ§ÙĦØ¥ Ø¬Ø±Ø§Ø¡
ÙĥØ³ Ø³ÙĪØ§Ø±Ø§Øª
ĠØ° ÙĥÙĬ
ĠÙĬØ¯ Ùĩ
O A
nÙģ Ø±ÙĬÙĤ
ĠÙħÙĨØº ÙĪÙĦÙĬØ§
m w
ĠÙĬØ² ÙĪØ±
D CB
ĠÙĪØ§ÙĦØ£ ÙĪÙĦØ§Ø¯
ĠÙĪØª Ø·ÙĪØ±
Ġg old
Ġâ ĺ
ØªÙĬ Ø¨Ø§Øª
996 64
ØºØ§ÙĦ Ø¨Ø§
ĠÙĦÙĦ Ø´ÙĬØ®
ĠØ§ÙĦØªØ£ ÙĥÙĬØ¯
nØŃ ÙģØ¸
ĠØ¥ Ø¨Ø¯
997 89
âĢ ¯
996 00
wiki how
Ø³ØªØ± ÙĪÙĦ
ĠÙģØ± Ø§ÙĨ
ĠØ± ÙĬÙĨ
ĠØªØ± ØŃÙĬ
ĠØ§ÙĦÙħØªØ¯ Ø§ÙĪÙĦØ©
ĠÙĦÙĦ Ø§Ø®
ĠÙĨØŃ ØªØ§Ø¬
ĠØ¥ ØµØ¯Ø§Ø±Ø§Øª
ĠØ§ÙĦÙħØ± Ø¬Ø¹
ĠB ar
ĠØ§ÙĦØª ÙĪÙĤÙĬØª
ĠÙĪØ£ ÙĩÙĦ
ĠÙħ Ø±ÙĬØ¶
ĠØ£Ø´ Ø¯
4 33
ØŃÙĤ Ø§ÙĤ
ĠÙĩ Ø²
ec ur
nØ£ ÙĪÙĦØ§
nÙħÙĦ Ø®Øµ
ĠÙĬØ± ÙģØ¶
ÙĬØ¬ Ø§Ø¯
C N
995 56
ĠØ§Ø· ÙĦØ¨
ĠØ§ÙĦØ¶ Ø®ÙħØ©
ĠØ´Ø¹ Ø¨ÙĬ
ĠÙģ ÙĪÙĨ
ĠÙĤ Ø¯ÙĬ
6 22
ĠÙħØª Ø·ÙĪØ±Ø©
ĠÙħÙĥÙĪÙĨ Ø©
( ).
ĠØ§ÙĦØªÙħ Ø±ÙĬØ¶
ĠØ§ÙĦØŃ ØµØ±ÙĬØ©
ĠIn c
54 8
ĠØªØ£ Ø®ÙĬØ±
ĠØ¬ ÙĨØ³ÙĬØ©
ÙĦØ¨ Ø§Øª
ĠØ·ÙĦ Ø¨Ø©
ĠØ£ÙĨ Ø´Ø£
ĠÙħ Ø´Ø±Ùģ
995 37
ĠP ar
Ġ1 994
ĠÙħØª Ù
re move
ĠÙħØªÙ Ħ
Ø§ÙĦÙĥ Ø³Ø§Ø±Ø©
Ø±ÙĬ ÙģØ§Øª
ĠØ¨ÙĬØ§ÙĨØ§Øª Ùĥ
ĠÙħØµ ÙĬØ±
ĠØ³ Ø¨Ø±
ĠÙĨØ³ Ø¹Ùī
97 37
ĠØ¯ Ø±ÙĪ
98 20
nØ§ÙĦ ØªÙĪ
ĠØªÙħ ØªØ¯
ķ ×
Ø¨ÙĪØ± Øº
Ø§Ø³ Ø·
ĠN ow
Ġc nc
ĠØ¥Ø¹ÙĦØ§Ùħ ÙĬØ©
nØ¥ Ø¯Ø§Ø±Ø©
ÙģÙĦ ÙĪÙĨ
ĠØ§ØŃØªØ± Ø§ÙģÙĬ
ĠÙĨØ´Ø± ÙĩØ§
ĠØ§ÙĦØ« ÙĪÙħ
ĠØ§ÙĦØ¢ Ø¨Ø§Ø¡
ĠØ¬ Ùī
ĠØº Ø¶Ø¨
ØªÙĪ Ø
ØªÙĪØ §
ĠØ¨Ø± Ø§Ø¡Ø©
ĠØ¢ Ø¨ÙĦ
Ø§Ø« ÙĨÙĬÙĨ
ĠØ§ÙĦÙģ ÙĦÙĥ
ĠØ§ÙĦØ£Ø³ Ø§ÙĦÙĬØ¨
nØŃ Ø§Ø±
ĠÙĪ Ø¬ÙħØ¹
ĠØªØ£ ÙĩÙĬÙĦ
ĠØ¬ÙĨ Ø³ÙĬ
ĠØ§ÙĦØ¹ Ø§ÙĦ
nØ§Ø® ØªÙĬØ§Ø±
f ind
ĠØ³Ùģ ÙĬÙĨØ©
ÙĬØ¬Ø§Ø¨ Ø§ÙĬØª
nH ome
bu y
ĠÙħ Ø°ÙĩØ¨
ĠØ§ÙĦÙħØŃ Ø±Ùħ
ĠØ§ÙĦØŃ Ø±ÙĬÙĤ
BD C
w p
Ø§ØŃ ÙĤ
ĠÙĦØªØŃ ÙĪÙĬÙĦ
ĠØ® ÙĬØ§Ø·Ø©
Ġgo al
96 36
ĠØ§ÙĦØ´ Ø±ÙĬØ·
Ġ 81
ĠØ¨Ø§Ø³Øª Ø«ÙĨØ§Ø¡
ĠÙĦÙĦØ¹ Ø§ÙĦÙħ
ĠØ¨ Ø¢
ĠÙĬØ³Øª ØºØ±ÙĤ
ag er
ØªÙģ Ø§ÙĦ
Ø®Ø¨ Ø§Ø±ÙĬ
ĠÙĪÙģØ± Ø²
ĠÙģÙĬ ÙħÙĥÙĨ
ĠØªØªÙĪ Ø§Ø¬Ø¯
Ġ1 439
ĠØ³ ÙĬØ¦Ø©
ĠÙĪØ§ÙĦ ØµÙĨØ§Ø¹Ø§Øª
fa ult
ĠØ£ØŃØ¯ ÙĩÙħØ§
ĠØ§ÙĦØ³Ùģ ÙĨ
97 224
ĠØ³ Ø§ÙħÙĬ
ĠØ§ÙĦØ¢ ØªÙĬØ©
ĠØ§ÙĦÙĩØ§Ø¯ Ø¦
ee u
ĠØ³ÙĬÙĨ ÙħØ§
ĠØ§ÙĦØ· ÙĦÙĤ
7 12
ĠÙħØ¶ ØŃ
ĠÙĪ Ø´Ø±ÙĥØ§Øª
H X
ĠØ· ÙĬÙĪØ±
ĠÙĪØ¶Ø¹ Ùĩ
ÙħØ§ÙĦ ÙĬ
ÙĪ Ø§Ø²
ra ft
ĠÙĪØ§ÙĦ ØªØ¯Ø±ÙĬØ¨
ĠØ§ÙĦØ· Ø§Ø¨ÙĤ
Ġsh anghai
995 15
ĠÙģØ± Ø¬
ĠÙĪØ§ÙĦØ«ÙĤ Ø§ÙģÙĬØ©
ĠÙĦØª Ø¹ÙĦÙħ
Ø¨Ø± Ø§ÙĨÙĬ
ĠØ± Ùĩ
ĠØ§ÙĦØ® Ø¨ÙĬØ±
ĠÙĪØŃ ÙĦÙĪÙĦ
ĠØ§ÙĦØ¬ÙĨ Ø§Ø¦ÙĬØ©
T ok
ĠÙĦÙĦ Ø§Ùħ
ĠØ§ÙĦØ¬Ø² Ø±
ĠØ· Ø§Ø¨Ø¹Ø©
ĠØ§ÙĦØµÙĪØªÙĬ Ø§Øª
Ø¯Ø± Ø§Ø¬
h r
ĠØ¥ Ø¨Ø±
Ġo pen
ĠØ§ÙĦÙħØŃ Ø§ÙħÙĬ
ĠØ§ÙĦÙĩ Ø²Ø§Ø²
ĠØª ÙĪØŃÙĬØ¯
Ùģ Ø±ÙĬ
ĠØ¯ ÙĪÙħØ§
21 95
ĠÙħ Ø§Ø¯
V I
n es
nØªØ§Ø¨Ø¹ ÙĪÙĨØ§
ĠØ§ÙĦØŃÙħ Ø§ÙħØ§Øª
__________ \
ĠØ§ÙĦÙĨØ§Ø¬ ØŃØ©
ĠØ§ÙĦÙħÙģ Ø§ÙĩÙĬÙħ
ĠØ§ÙĦÙħ ÙĩØ§Ø¬Ø±ÙĬÙĨ
ĠØ§ÙĦÙĦ Ø§Ø³
ĠÙĥØ§Ø± ÙģÙĪØ±
ĠØ§ÙĦØ§Ø³ ÙĪØ¯
Ø« Ø¨Ø§Øª
ĠÙĪØª ÙģØ§ØµÙĬÙĦ
ĠÙĪØ³ ÙĩÙĪÙĦØ©
ĠØ§ÙĦÙħØ³ Ø§Ø¨ÙĤØ©
ĠÙĪØ± ÙĪØ¯
ĠÙĨÙĪØ¹ Ùĩ
ĠØ£ØŃ Ø¬Ø§Ø±
ĠØ¬ ÙħÙĦ
ĠØ§ÙĦØ£ ÙĥÙĦ
98 39
ĠÙĪ Ø¹ÙħÙĦÙĬØ©
ĠÙĬ ÙħÙĦ
is m
ĠØª ÙĬÙĥ
ĠØ§ÙĦØ¨Ø§ØŃØ« ÙĪÙĨ
ĠØ¨Øª ÙĦÙĥ
ĠØ§ÙĦØ´Ø¹Ø± ÙĬØ©
Ø´ Ø§ÙĤ
ĠØ§ÙĦÙħ ÙĤØ·
B Z
ĠØ§ÙĦÙĪ Ø§Ø±Ø¯
ØŃØ± Ø§Ø¡
ĠÙħØŃ Ø§Ø³Ø¨Ø©
ĠØ§Ø³Øª Ùģ
ĠØ§ÙĦØ±Ø¦ Ø§Ø³ÙĬ
93 86
ĠÙĦÙĪØ±ÙĬ Ø§ÙĦ
nÙħ ÙĥØªØ¨Ø©
nØ´ Ø¨ÙĥØ©
4 94
ĠÙĪØ§ÙĦØ³ ÙģØ±
ĠÙĬ Ø·Ø§ÙĦØ¨
ĠØŃØ± Ø§Ùħ
ÙĪÙĨØ¯ Ø
ÙĪÙĨØ¯Ø §
ĠØ¹ Ø§Ø¯Øª
ĠØ£ Ø¨ÙĦ
ĠØ¨Ø® ÙĬØ±
ĠØ§ÙĦÙĥØ«ÙĬØ± ÙĬÙĨ
ĠØ§ÙĦÙĪ Ø«ÙĬÙĤØ©
Ø¸ ÙģØ§Øª
ĠØ§ÙĦÙħØ¹ Ø§ÙĨÙĬ
ĠØ¯Ø± Ø§Ø¬Ø©
ÙĪØ§Ø¬ Ø¨
ØªØµ Ø§Ø±Ø§Øª
Ø§Ø« ÙĬÙħ
ĠÙħØŃ Ø§Ø±Ùħ
ĠØª ÙĬØ§Ø±
ĠÙĪØ§ÙĦØ« Ø§ÙĨÙĬ
ĠØ§ÙĦØªØ¶ Ø§ÙħÙĨ
Ø£ Ø¹Ø¯
ĠÙĦ Ø³ÙĨÙĪØ§Øª
ĠØ« ÙĨØ§
ĠØ¨Ø§ÙĦ ÙĬ
Ġet s
ĠÙħØ± ØªØ¨Ø·
ĠÙĪØ§ÙĦ ØªØ¨
Ø§Ø¹ÙĦ Ø§ÙĨØ§Øª
ĠØ§ÙĦØ§ÙģØªØ± Ø§Ø¶ÙĬØ©
ĠÙĩ Ø§ÛĮ
ÙĬØ¯ Ùĩ
ĠÙħÙĤ Ø§ÙĪÙĦ
ĠØ¬Ø§Ø² Ø§ÙĨ
ĠØ§ÙĦØªÙĨ Ø²ÙĬÙĦ
ĠØ§ÙĦØ³Øª Ø§Ø¦Ø±
ĠÙĪØªÙĨ Ø¸ÙĬÙħ
ĠÙĪØ£ Ø®Ø°
ĠÙĪ Ø¨ÙĦØº
984 97
4 92
E AA
Ñĥ Ñģ
L W
ĠØ§ÙĦØ¯ ÙĪØ±ÙĬØ©
ac c
ĠØ¨ÙħØ± Ø¶
ĠØ§Ø³Øª ÙĥØ´Ø§Ùģ
ĠØ§ÙĦØ¥ÙħØ§Ø±Ø§Øª ÙĬ
ĠØª ØµØ±Ùģ
ĠØªÙħ ÙĥÙĨØª
ĠÙĥ ÙĬÙħ
Ġ 89
ĠØ§ÙĦØµ Ø§Ø±
ØŃ ØªØ§Ø¬
ĠØ§ÙĦÙħ ÙĩØ¯
Ø³ ÙĪÙĦ
ĠØ§ÙĦÙĥ Ø§Ø±ÙĬ
ĠØ§ÙĦÙħØ¬ Ø§ÙĪØ±Ø©
ĠØ§ÙĦØ¥ ÙĬ
Ø³Øª ÙĩØ§
nØ§ÙĦ ÙĥÙĦ
ĠØŃÙħ Øµ
Ø´ ÙĪÙģ
43 93
ĠØ®Ø´ Ø¨ÙĬØ©
ĠØ¹ Ø³ÙĦ
ĠØ§ÙĦÙħ Ø¨Ø¯Ø£
ĠØ§ÙĦØ§Ùħ ÙĨ
: -
ĠØ¨ÙĨØª ÙĬ
ĠØªØºÙĬÙĬØ± Ø§Øª
Ġ Î
al se
ĠØ³ ÙĪØ³Ø©
Ġp ol
0000 277
ĠØ³ÙĬ Øª
ĠØ§ÙĦÙħ Ø®Ø±Ø¬
ĠØ§ÙĦØ¬Ùħ Ø§Ø¹Ø§Øª
ĠØ§ÙĦÙħ Ø§Ø¦ÙĬ
Øª Ø§Ø²
ĠF in
ĠÙĥØªØ¨ ÙĩØ§
ĠØ£Ø¨ Ø¹Ø§Ø¯
ĠØ§ÙĦØ® Ø±Ø³
ĠÙĦÙĬ ØªÙĪ
ĠÙĪÙģÙĬ Ùĩ
Ġï» £
ĠØ³ÙĬ Ø§Ø±ØªÙĥ
ĠØ§ÙĦÙģ ÙĬÙĨ
nS t
ĠØ§ÙĦØ¹Ø±Ø¨ÙĬ Ùĩ
ĠØª Ø°ÙĩØ¨
Ġp o
Ø§ÙĦ ÙĬÙĨ
ØŃÙħ Ùĩ
ÙĩØ± Ø¬
ĠÙĨÙĨ ØµØŃ
Ø§ÙĦÙħ Ø´Ø§Ø±ÙĥØ©
ĠØ§ÙĦÙģ ØµÙĪÙĦ
ĠØ§ÙĦØ® ÙĦÙĬØ©
ÙĮ ØĮ
ĠØ¹Ø´ Ø§ÙĨ
ĠØ£ Ø¹ÙĦØ§Ùħ
ĠØ§ÙĦØ¥Ø¶ Ø§ÙģÙĬØ©
Ø¨ Øº
ĠU p
J I
ĠÙĪÙħ Ø¬
te c
ĠØ§ÙĦÙħØµÙĨ ÙĪØ¹
ĠØ§ÙĦØªØ´Ø±ÙĬ Ø¹ÙĬØ©
ĠØ§ÙĦÙĬ ÙĪØ±
ĠØ¯ Ø§Ùģ
ĠØ¹ÙĦÙĬ Ø
ĠØ¹ÙĦÙĬØ §
30 34
96 77
Ø³ ÙģØ§Ø±Ø©
p ublic
Ø¨ ÙĪÙĨ
Ġin dust
ĠØ§ÙĦÙħØ¨ ØªØ¯
94 84
ĠØ£ÙĤØ± Ø§Øµ
ĠÙĦÙĦØ£Ø³ ÙħÙĨØª
997 58
Ø£ Ø¬Ø±
ĠØ¥ Ø¸ÙĩØ§Ø±
á º
ĠØ§ÙĦÙĥ ÙĩØ±
ĠØ§ÙĦØª ÙĪØ²ÙĬØ¹
ĠÙĪØ¯ ÙĪÙĨ
G F
us tom
5 24
ĠÙĪØ§ÙĦ Ø¢ÙĦØ§Øª
ĠØ§ÙĦÙħØŃ ÙĦØ§Øª
nØ® Ø±ÙĬØ·Ø©
ĠØ§ÙĦØµØ¯Ùħ ÙĬØ©
Ġf in
ĠÙģÙĦ ÙĪ
n ik
97 88
ĠØ£ Ø¹ØªÙĤØ¯
ĠØªÙĥ Ø¨ÙĬØ±
ĠØ§ÙĦØ¥Ø¹ Ø§ÙĤØ©
ĠØ£Ø± ÙħÙĬÙĨÙĬØ§
H C
ĠÙĪÙĦ ÙħØ§
ĠÙħØ¶ Ø§Ø¯Ø§Øª
ĠØ§ÙĦÙħØªØ§Ø¨Ø¹ ÙĬÙĨ
ĠØªÙĨ Ø´Ø±
ĠÙĪÙħ Ø¬ÙĪÙĩØ±Ø§Øª
ĠØªÙĥ Ø±ÙĬÙħ
nÙĬ ÙĤÙĪÙħ
ĠØ¹ Ø±ÙĤ
ĠÙĪØ§ÙĦØ³ÙĦ Ø§ÙħØ©
p m
Ø¸ ÙĬÙħÙĬ
997 79
? \
Ø±Ø¶ Ø
Ø±Ø¶Ø §
ĠØ§Ùħ Ø±Ø§Ø¶
Ġ7 3
ĠØ§ÙĪ ÙĦØ§
ry pto
6 05
ĠØ¨Ø®ÙĦ Ø§Ùģ
Ø§ÙĦØ³ Ø¹ÙĪØ¯ÙĬØ©
ro ng
ĠØ¨Ø§ÙĦ Ø´Ø±
Ø§Ø¨ ÙĪ
ĠØ§ÙĦØ± Ø¨Ø·
ĠÙĨÙĤ Ø¯ÙĬ
r at
Ø´Ùģ ÙĬØ±
ĠØ¥ ÙħØ¯Ø§Ø¯Ø§Øª
ĠÙĦÙĦÙĨ Ø¸Ø§Ùħ
ĠØ¹Ø±Ùģ Øª
ĠØ§ÙĦÙĬ Ùĥ
nØ§ÙĦØª Ø³Ø¬ÙĬÙĦ
ĠÙħÙĨ ÙĪØ¹Ø©
ĠØ§ÙĦØ¥ÙĬØ¬ Ø§Ø¨ÙĬØ©
ĠÙĥ Ø§Ø±Ø¯
ĠÙĪØ§ÙĦÙħ Ø¹Ø±ÙĪÙģ
ï» ³
ĠÙħØ³Øª Ø¬Ø¯Ø§Øª
Ø¨ ÙĪØª
Ø§Ø± ÙĬÙģ
ĠØ²Ø± Ø§Ø¹ÙĬØ©
ĠÚ Ĩ
ĠØ§ÙĦØ§Ø³Øª Ø¹Ø§ÙĨØ©
ĠØ± Ø§Ø¨Ø·Ø©
% .
ĠT ph
ĠÙĦØ´ ÙĩØ±
e i
ĠÙĨ ÙĬÙĦ
ĠÙģØªØŃ Ø©
98 92
ĠØ§ÙĦØªÙģ Ø§Ø¹
ĠØŃ ÙĦØ§
ĠÙħØ´ Øº
ĠØ§ÙĦØ§Ø® ØªÙĦØ§Ùģ
ĠÙĦÙĦ Ø¹Ø¨
Ġ25 00
Ø· Ø§Ùħ
w an
L D
99 02
ĠØ§ÙĦÙĥ Ø§Ø±
ĠØ§ÙĦØªÙĥÙĨÙĪÙĦÙĪØ¬ ÙĬØ©
ĠÙĪØ§ÙĦØ§Ø³Øª Ø«ÙħØ§Ø±
Ø±ÙĤ Ùī
l et
995 18
ĠÙĪØ§ØŃ ØªØ±Ø§Ùħ
ĠØ§ÙĦÙģ Ø§ØµÙĦ
ĠØ´ ÙĪØ§Ø±Ø¹
ĠØµ Ø±ØŃ
nØ§ÙĦ Ø¨Ø±
99860 34
Ø´ Ø§Ø´Ø©
98 13
25 96
ĠM p
ÙĪÙĦ ÙĨØ¯Ø§
995 36
7 22
L E
ĠÙĪ ÙĤØ±
ĠÙĩ Ø¨ÙĪØ·
( (
ĠØ£ Ø±ÙĥØ§ÙĨ
65 1
ĠØ§ÙĦØ± ÙħÙĪØ²
nØ§ÙĦÙħ Ø³Øª
ĠÙĦ ØŃØ¯
ĠÙĩ Ø§Øª
94 75
Ð° ÑĢ
nØª ÙĤÙĬÙĬÙħ
ĠÙĦ Ø§Ø¬
ĠØ§ÙĦÙģ Ø§Ø¦
ĠÙĦÙĦØŃ ÙĬØ§Ø©
ĠÙħÙĦ ÙĦÙĬ
ĠØ§Ø¶Ø·Ø± Ø§Ø¨
Ø§ÙĦÙħ Ø³Øª
ÛĮ Ù
ab b
Ġm ar
ÙĪØ² Ø¹
ĠØ§ÙĦÙħØ¬ Ø§ÙĦØ³
ĠÙĦØªÙĤ ÙĦÙĬÙĦ
ĠØ§ÙĦØªÙĤ Ø§Ø·
ĠØªØŃ Ø§ÙģØ¸
K V
ÙĬØ¯ Ø±Ø§Øª
ĠØª Ø¹ÙĦÙĤ
43 27
Ùĥ ÙĪØ¨
ĠØ§ÙĦÙħÙĦ Ø§ÙĬÙĬÙĨ
Ø§Ùĥ Ø³ØªØ§ÙĨ
ĠÙĦØª Ø·Ø¨ÙĬÙĤ
997 28
ĠØ§ÙĦÙħØ¬ Ø§ÙħÙĬØ¹
ĠØ§ÙĦØ®ÙĦÙĬØ¬ ÙĬØ©
ĠÙĤ ÙĬØ³
ĠØªÙĤ Ø³ÙĬØ·
ĠØ§ÙĦØ¶ Ø±ÙĬØ¨Ø©
ĠØ¹ Ø·ÙĦ
ĠØ§ÙĦÙħ Ø£
Ø¬ ÙĪÙĦ
ĠØ±Ø¤ Ø³Ø§Ø¡
m al
ĠØ³ Ø§Ø¦Ø±
ĠØ§ÙĦØ§Ùĥ Ø«Ø±
ĠØ§ÙĦØŃÙĬ ÙĪÙĬ
ĠØ§ÙĦØ§Ùģ Ø¶ÙĦ
Ø´Øª Ø§ÙĬÙĨ
Øª ÙģÙĬ
ĠØ§ÙĦÙĬØ§Ø¨ Ø§ÙĨÙĬ
Ø§ÙĦØª ÙĨ
7 997
ĠØ§ÙĦÙĨ Ø¬Ø§Ø±
ĠØ§ÙĦÙĥØ± ØªÙĪÙĨ
ĠØ¬ ÙĪÙĦØ¯
ĠØ§ÙĦØ¨ ØµÙĦ
AA A
Ġ6 9
7 15
is ter
oc i
ĠÙĦÙĦØ¹ ÙħÙĬÙĦ
ĠØ§ÙĦÙĦ Ø·
ïº ¤
ĠØ£ÙĪ Ø¶Ø§Ø¹
ĠØ§ÙĦÙħÙĪ Ø³ÙĬÙĤÙĬØ©
ØºÙĬØ² Ø³ØªØ§ÙĨ
6 27
ĠØ³ ÙĥÙĪØªØ±
ĠÙĥØ§Ø± Ø¯ÙĬ
ĠØ§ÙĦÙĥ ØŃÙĪÙĦ
ĠÙĪÙħÙĨ Ùĩ
ont ak
Ø¬ ÙĬØªØ§ÙĦ
ĠØ§ÙĦÙħØ¨ Ø§Ø¯Ø¦
ĠØ§ÙĦØ´ ÙĨ
Ø§Ø¨ØŃ Ø§Ø«
ĠÙĪØ§ÙĦÙģ ØŃÙħ
Ùģ ØµÙĦ
ĠØª ÙĥÙĦÙģ
ĠØ§Ùĩ Ù
ĠØ§ÙĩÙ Ħ
ĠØ§ÙĦØ§ÙĨØªØ® Ø§Ø¨ÙĬØ©
Ø§Ø³ÙĬ ÙĥÙĬ
Ùĩ ÙĬØ§Ø±
Ø· ÙģÙĬ
ÙĪØ¨ Ù
ĠB lack
ÙĪØ¨Ù Ħ
ro ugh
ĠÙĬØŃ Ù
ĠÙĬØŃÙ Ħ
ĠÙĪØ§ÙĦÙĨ ÙĤÙĦ
n Ø¨Ø¯Ø£
ĠÙĨ Ø§ÙĨ
P F
ĠØ¨Ø¯ Ø¨ÙĬ
ĠØ§ÙĦÙħØ± ØŃ
5 96
77 8
Ø§Ùħ ÙĬÙĨØ§Øª
ĠÙĪØ§ÙĦ Ø´Ø±Ø§Ø¡
ÙħØªÙĦÙĥ Ø§Øª
ĠØ±ÙĬ Ø§Ø¯Ø©
Ø« Ø§ÙĤ
Ø§Øº Ø·
ĠØ§ÙĦØ£ Ø¹ÙĦØ§Ùģ
ĠØ§ÙĦÙħØªÙĥ Ø§ÙħÙĦØ©
ÙģÙĤ Ùĩ
ĠØ±Ø¤ ÙĪØ³
nØ§ÙĦÙħ ØµÙĨØ¹ÙĬÙĨ
Ø³Øª ÙĪØ±
ØºØ± Ø§ÙħØ©
Ùĩ ÙĦØ§Øª
994 2
ĠØŃ Ø³Ø§ÙĨ
Ġ.:: .
ĠØ§ÙĦÙħ ÙħØ§Ø±Ø³Ø§Øª
ÙĤ Ø§Ø¦ÙħØ©
ĠØ· Ø§ÙĤÙħ
ØªÙĩ Ø§ÙĥØ§Øª
Ø§Ø¨ ÙĩØ§
74 8
ĠØ£Ø¬ÙĨ Ø¨ÙĬØ©
ĠØ§ÙĦÙħÙĪ Ø¹Ø¯
ĠØ§ÙĦØµØŃÙģÙĬ ÙĬÙĨ
ĠÙĦ Ø·ÙĦØ¨
ĠØ¹ Ø¬Ø²
ĠØªØ± ÙģÙĬÙĩ
ĠÙĦÙĦ Ø¹ÙĨØ§ÙĬØ©
Ø´ÙĬ ÙĬØ¯
ĠØ§ÙĦØ´ Ø§Ø·Ø¦
ĠØ¹Ø¶ ÙĪØ§
ĠØ§ÙĦÙħØ¯ÙĨÙĬ ÙĬÙĨ
n Ø¹ÙħÙĦ
H N
Ġ 365
ÙĪØ§ÙĤ Ùģ
R ead
P U
ĠØ§ÙĦØ£Ø· ÙĪØ§Ø±
tin ue
96 06
ØªØ± Ùī
54 9
as ter
ĠØ§ÙĦØ²ÙĬ Ø§Ø±Ø§Øª
ĠÙħØ¯ ÙģÙĪØ¹Ø©
Ø· ÙĬØ§Øª
ÙĬÙģ Ùĩ
â Ħ
ĠØ£Ø¯ Ø¨
ĠØ±ÙħØ²ÙĬ Ø§Øª
Ġ1 01
c rusher
ĠØ§ÙĦÙĨ Ø·Ø§Ø·
Ø²Ø¨ Ùĥ
97 09
ĠØ§ÙĦØ³ ÙħØ¹
ĠØ§ÙĦØ¥Ø¨ØªØ¯ Ø§Ø¦ÙĬØ©
Ùĩ ÙĪØ¯
ĠØ¥Ø« Ø§Ø±Ø©
ecur ity
7 44
ĠÙĤÙĬ Ø§Ø³ÙĬØ©
ĠØ§ÙĦÙħØ±Ø¬ Ø¹ÙĬØ©
nÙģ ÙĬÙĦÙħ
Ġ 94
Ø²Ø± Ø¹
ĠØ£Øº Ø§ÙĨÙĬ
ĠÙĬÙĤ ØµØ¯
Ø± ÙĩØ§Ø¨
ĠØª ÙĬØ±
ĠÙĪØ§ÙĦØª Ø§Ø±ÙĬØ®
ĠØ§ÙĦÙħØ¬ØªÙħØ¹ ÙĬØ©
3 89
ĠÙĦ Ø§Ø±
nØ£ ÙĨØ§
Ø¶ Ø§ÙĨÙĬØ©
ĠØ§ÙĦÙħØ¨ ÙĥØ±Ø©
ĠØªØ´ÙĬ ÙĦÙĬ
98 60
ĠØ¨Ø¨ ÙĨØ§Ø¡
ĠØ¯Ø± Ø¬
ĠÙĪØ§ÙĦ Ø®ÙĦ
ĠØŃØµ Ø±ÙĬØ§
ĠØ³Ùħ Ø§Ø¹
n w
nÙħÙĦ ÙģØ§Øª
ĠØ¹Ø¶ ÙĦØ§Øª
ĠØ§ÙĦÙħÙĪ Ø²Ø¹
ĠØ³ÙĬ Ø§ØŃØ©
ĠÙĬØª ÙģÙĤØ¯
ĠÙĤÙĨ Ø§Ø¹
ÙĤ ÙĦØ¨
ĠØ§ÙĦØŃÙĥ ÙĪÙħØ§Øª
ĠÙĦÙĦ Ø§Ø³
ĠÙĬØ³ Ø£ÙĦ
4 98
Ø§ÙĦ ÙĩØ§
n Ø§ÙĨØ§
ĠØ§ÙĦÙħÙĪ Ø§Ø¬ÙĩØ©
ĠØ§ÙĦÙģ Ø±ÙĬØ¯Ø©
ĠØ§ÙĦØªØ± Ø§Ø¨
ĠÙĤ Ø§Ø±
ĠØªØ¹ÙĦÙĬ ÙħÙĬ
v ideo
ĠØ¶ Ø®Ùħ
ĠØ§ÙĦØª ØµÙĨÙĬÙģØ§Øª
995 26
Ø¹Ø± ÙĤ
ĠØ³ÙĬ Ø·Ø±Ø©
Ø³ ÙĪØ±Ø©
ĠØ§ØŃ Ø¯Ùī
ĠÙĤ Ø¨ÙĬÙĦ
995 9
n f
ĠØ§Ø³ØªØ®Ø¯Ø§Ùħ Ø§Øª
à º
Ġ },
ĠÙģ Ø§ÙĬÙģ
G I
ĠÙĪ ØµÙĬ
ĠØ§ÙĦØºØ± ÙĬÙĨÙĬØ©
ĠØ§ÙĦØ¢ ÙĪÙĨØ©
ĠØ³ÙĦ Ø·Ø§Øª
Ġr et
ÙĪÙĦ Ùģ
Ø®Øµ ÙĪØµÙĬØ©
ĠØ§ÙĦØ¨ ØµØ±ÙĬ
ĠÙĪØ£ Ø³Ø±
Ø§Ùĥ ÙĬØªØ§Øª
ĠÙĪØ§ÙĦ Ø·Ø±ÙĤ
ĠØºÙĦ Ø§ÙĬØ§Øª
Ø³ Ùģ
ĠØ§ÙĦØ¬Ø¯ ÙĪÙī
ĠÙħÙĩ ÙĥØ±Ø©
ÙħØ± Øª
ĠØ§ÙĦØŃ Ø¬Ø§Ø¨
ÙĨØ§ Ø´
ĠØ§ÙĦØ£Ùħ Ø§Ùħ
ĠE ng
ĠÙĪØ¬ Ø²Ø±
ĠÙĪÙħ Ø¹ÙĦÙĪÙħØ§Øª
ĠØ± Ø§Ø¨Ø¹
ĠØ³Ø± ÙĤØ©
64 9
ĠØ§ÙĦØ¨ØŃ ÙĬØ±Ø©
6 46
ĠØ§ÙĦØ£Ùħ Ø§ÙħÙĬØ©
ĠØ§ÙĦØ´ ÙĬØ¹
ĠØ³ ÙģÙĬØ±
ĠØ§ÙĦÙħØ¬ Ø¯
ĠØ¨Ø§ÙĦ Ø¨Ø±
Ø±Ø¨ Ø
Ġs ince
Ø±Ø¨Ø §
Ġ1 995
ĠÙĪØªØŃ ÙĪÙĬÙĦ
EC B
ĠØ¨Ø§ÙĦ Ø³ÙĦ
ĠØ§ÙĦØŃ ÙĪØ¶
ĠÙĬ ÙħÙĨ
ĠØ§ÙĦØ£Øº Ø§ÙĨÙĬ
ÙĤ Ø§ÙĦØ©
nØª Ø´
ĠØ§ÙĦØŃ Ø§ÙģØ¸
ĠØ¨Ø§ÙĦ Ø¶Ø¨Ø·
ØªÙĬ Ø§Ø¬
997 43
995 07
Ø·Ø± Ø§Øª
ĠØ§ÙĦØª Ø±ÙĪØ³
ĠSam sung
3 88
6 23
ÙĪØ· Ø§Øª
ĠÙĥÙĨØ² Ø§Øª
98 08
ĠÙĪÙģØ§Øª Ùĩ
ĠØ§ÙĦØªÙĪ ÙģÙĬÙĤ
ĠÙħÙĤ Øª
Ø²ÙĬ Ø§Ø±Ø§Øª
ĠØªØŃ Ø¯
ĠÙĪ ÙĨØ³
ĠÙĪÙĦ Ø£ÙĨ
65 8
nØ´ Ø§Ø´Ø©
ĠØ§Ùħ Ø§Ø²ÙĪÙĨ
ĠS outh
ĠØ§ÙĦØªÙħ ØªØ¹
ĠØ¯Ø± Ø§ÙħØ§
w o
ĠØ§ÙĦØ¨Ø±ÙĬ Ø¯ÙĬ
Ø¦ ÙĨØ§Ùģ
ÙĪÙħ Ø¨ÙĬ
ĠØ¨Øª Ø·ÙĪÙĬØ±
ĠØ§ÙĦÙĤØ¨ Ø§Ø¦ÙĦ
ÙĪØ§Ø± Ø²
ØªØ¹ Ø§ÙħÙĦ
ĠØ£Ø¯ Ø±Ùĥ
ĠR T
ĠÙ¢ÙłÙ¢ Ùł
end s
........ ........
ĠØ¬ÙĨ Ø¨Ø§
ĠØ§ÙĦÙĥØ«ÙĬØ± ÙĪÙĨ
Øº Ø´
ĠØ§ÙĦØ¬ØºØ± Ø§ÙģÙĬØ§
ĠÙĨ Ø°ÙĥØ±
ĠÙĦÙĬ ØµØ¨ØŃ
A U
Ġ... .
ĠØ§ÙĦÙħØŃ Ø³ÙĨ
Ø¨Øª Ø©
ĠØ§ÙĦØ¯Ø± Ø¬Ø§Øª
ÙĪÙģ Ø§Ø¡
ÙĬÙĨ Ø¯ÙĪØ²
ĠÙĪØ£ÙĨ ÙĩØ§
ĠØ§Ùĩ ØªÙħ
ÙĬØ´ ÙĨ
ĠØ²ÙĬÙĨ Ø¨
ĠØ£Ùģ Ø±ÙĬÙĤÙĬ
ĠÙĪÙĤ ÙĪØ¯
ĠØ§ÙĦÙħÙģ Ø±ÙĪØ¶
ĠØ¨ ÙĤØ¯Ø±Ø©
ĠØ§ÙĦÙĨØ§ÙĤ ÙĦØ§Øª
ĠØ´ Ø§Ø¹Ø±
ĠØ§ÙĦØ³ Ùĥ
ÙĪÙĥ ÙĪ
ĠØªØ± ÙģØ¹
ĠØªØ·ÙĪÙĬØ± ÙĩØ§
ĠØªØ¯ Ø±ÙĬØ¨Ø§Øª
Z Q
Ø¨Ùĩ Ø§Øª
ĠÙĪØ§ÙĦØ´ Ø¹Ø±
Ø³ ÙĪÙģ
ĠØ§ÙĦØ®ÙĦ Ø§Ùģ
ĠÙĦØ£Ø³ ÙĪØ§ÙĤ
ĠÙĤ Ø±ÙĪØ¨
997 08
ĠÙĦ ÙĬÙĦØ§
ĠR et
ĠÙĦØªÙĨ Ø¸ÙĬÙħ
ĠÙĪØ§Ø³Øª ÙħØªØ¹
ĠJul y
ĠÙģÙĨ Ø²
ÙĪØª Ùĥ
995 24
Ø¹ÙĬ Ùĩ
Ø£ ØºØ³Ø·Ø³
ĠØ£Ø¬ ÙĪØ§Ø¡
r k
Ùħ ÙĪÙĦ
99884 71
Ġsh are
ĠÙĥ Ø§Ø¬
65 0
ĠØ§ÙĦØ¨ ØµØ±Ø©
ĠÙĦÙĦ Ø¬ÙĩØ§Ø²
ĠØ±Ø£ Øª
ĠØ§Ùħ ØªØµØ§Øµ
Ø¯ ÙĪØ¯
ĠØ³ ÙĬØ¤
la h
ĠÙħØŃ ÙĦÙĪÙĦ
ĠØ§ÙĦÙħÙħØªØ§Ø² Ø©
ĠÙĪØ§ÙĦØŃ ÙĪØ§Ø±Ø§Øª
ĠØªÙĨ Ø´ÙĬØ·
ĠÙħ Ø§Ùħ
ĠØŃ Ø§ÙĥÙħ
ÙĬÙĨ Ø§Ø¡
ĠØ¨Ùĥ Ø«Ø±Ø©
ĠØ§ÙĦ ÙĪØ¹
ĠØ§ÙĦÙħØº ÙĨÙĬ
ĠØ§ÙĦÙģÙĬ Ø²ÙĬ
ÙĥØ§Øª ÙĬØ±
X D
ĠÙĤÙĦØ¨ Ùĩ
ĠÙĬ Ø®ÙĦ
ĠØ¨ ØªØ¨
Ġs port
ĠÙĦÙĦ Ø§ÙĩØªÙħØ§Ùħ
ĠÙĬØ¯ Ø±Ùĥ
ĠÙĦØ± Ø¤ÙĬØ©
ĠØ§ÙĦÙĪØ§Ø³ Ø¹Ø©
98 41
Ġ ara
ĠØªØ³ Ø¬ÙĦ
âĢı .
ĠÙĦ ÙĪØ¬ÙĪØ¯
b ody
87 05
97 21
ĠÙħØª ÙĤØ¯Ùħ
ïº Ĵ
ĠØ°ÙĥØ± ÙĨØ§
ĠØ¥ Ø³Ø·ÙĨØ¨ÙĪÙĦ
77 2
âĢ ¡
ĠØ§ÙĦØ§ÙĨ Ø¬ÙĦÙĬØ²ÙĬ
ĠÙĦÙĦØ² ÙĪØ§Ø¬
Ø® ÙĦØ§ÙĦ
ĠØ¨ Ø§Ø´
ĠÙģÙĬ ÙĥÙĪÙĨ
98 01
ĠÙĪØ§ÙĦ Ø¯ÙĬÙĨ
ĠØ§ÙĦÙħØª Ø§ØŃ
ĠØªØ´ ØªØ±ÙĬ
H F
ÑģÐºÐ¸ Ð¹
Ùĭ )
Ġ! !
ĠØªØŃ Ø§ÙĦÙģ
ĠØ£ÙĤ ÙĪØ§ÙĦ
ĠÙĪØªÙĪ Ø²ÙĬØ¹
ĠØ§ÙĦØ¨ÙĥØ§ÙĦ ÙĪØ±ÙĬÙĪØ³
ĠØ§ÙĦØªÙĨ ØºØ³ØªÙĨ
ĠÙģÙĦØ§ Ø¯ÙĬÙħÙĬØ±
7 86
ĠÙĨ Ø¹Ø±Ø¶
ĠØ§ÙĦØŃ Ø§Ø¯Ø«
ĠØ¨ Ø°ÙĥØ±
995 47
0 99
Ġ Ø±ÙĬØ¯
ĠØŃØ¨ÙĬ Ø¨Ø§Øª
ĠÙĬØ¨ØŃØ« ÙĪÙĨ
ĠØ§ÙĦÙħØ³ Ø§Ø¡
Ø¯Ùĩ Ø§Ø±
er man
ĠÙĪØ§ÙĦØ£ Ø¯ÙĪØ§Øª
ĠØ§ÙĦØªØ±Ùħ Ø°ÙĬ
H S
AD A
nØ§ØŃ Ø¯Ø«
ĠØ§ÙĦØªØµ Ø§Ø¯ÙħÙĬØ©
ĠØ§ÙĦÙĨØ² Ø§Ø¹
ĠÙĪØ§ÙĦ Ø¨Ø·
ĠØ§ÙĦØ¥ÙĤ ØªØµØ§Ø¯ÙĬØ©
ĠØ¥ÙĨ ÙĤØ§Ø°
ĠØ§ÙĦÙĩ ÙĨ
ĠØ§ÙĦØ¹Ø¨ ÙĪØ±
ĠØªÙĤ Ùģ
ĠØ§Ø¹ Ø·Ø§ÙĦ
ĠØ¨Ø¥ Ø¹Ø§Ø¯Ø©
ÙĥØ¨ ÙĪØª
ÙĨÙĬ Ø§ÙĩÙĪ
ĠØªÙĦÙĤ Ø§Ø¦ÙĬØ§
ĠØ§ÙĦÙĨ Ùĥ
ĠØ´Ø¨ Ø§Ø´Ø¨
ï» ĺ
Ø« Ø§ÙģØ©
ĠÙĤÙĪ Ø§Ø¦Ùħ
ĠÙĦÙĦ Ø·ÙģÙĦ
ĠØ£ÙĨ ÙħØ§Ø·
ĠØ§ÙĦÙħØŃ Ù
ĠØ§ÙĦÙħØŃÙ Ħ
ÙĥÙĪ Ø§Ø¯ÙĪØ±
Ø¸Ø± ÙĬØ©
ĠÙħØµ Ùģ
I m
ĠØªØ´ Ø¬ÙĬØ¹
Ġexper iences
ĠÙĪÙĥ Ø§ÙĦØ§Øª
5 14
ĠØ§ÙĦØ¢ Ø®Ø±Ø©
ĠÙĪØ§ÙĦ ÙĬÙĪÙħ
ĠÙħÙĨ Ø¸Ùħ
ĠØ¨ÙĤ Ø§ÙĬØ§
Ġ 83
ØªØ±Ø§Ùĥ Ùħ
ĠØ¨ ØªØ¯
s r
Ø¯Ø± Ø¬Ø§Øª
ĠB log
ĠØ§ÙĦÙĥ ÙĪÙħ
Ø¹Ø± Ø§Ø¨
Ø§Ø´ ÙĨØ·ÙĨ
ĠÙĦÙĦØª Ø£ÙħÙĬÙĨ
ĠØª ÙĥÙĨÙĪÙĦÙĪØ¬
ĠÙĨØ¬ ØŃ
ĠØ± Ø§ÙģØ¹Ø©
ĠØ± Ø§Ø¨
ĠÙĦÙĦØ§Øª ØŃØ§Ø¯
ĠÙħØ® Ø§ÙĪÙģ
ĠÙĬÙĤ Ø¶ÙĬ
ĠØ§ÙĦÙģÙĬØª Ø§ÙħÙĬÙĨØ§Øª
ĠØ§Ø³Øª Ø¬Ø§Ø¨Ø©
R O
ĠØ£ Ø³ÙĦØŃØ©
ĠÙĬ ÙĤØ±
ĠÙĪØ¬ ÙĪØ¨
Ġpost s
ĠØ¥ ÙģØ±
ĠØ§ÙĦØ³ÙĦ Ø¨ÙĬ
ĠÙĪØª Ø¤
ĠØ§ÙĦØ³ÙĬ Ø§ØŃÙĬ
997 81
ĠØ§ÙĦÙħÙĪ Ø¶
66 1
ĠØ§ÙĦÙħØ³Øª ÙĨØ¯Ø§Øª
ĠØ§ÙĬ ÙĦØ§
Ø§ØŃ ÙħØ¯
Ø§Ø¤ ÙĦØ§Øª
ĠØ¹ÙħÙĬ ÙĤ
96 27
V S
ĠÙĨ Ø¬ÙĦ
Ø«ÙĬÙħ ÙĬÙĨ
Ġal i
ĠE GP
nØ¹ Ø§Ø¬ÙĦ
ĠØ§ÙĦØ¹ÙĦÙħ Ø§ÙĨÙĬØ©
nÙĬ ÙĤØ¯Ùħ
ĠØµ Ø§ÙĦØ©
ĠØ§ÙĦÙħØ®Ø§Ø¨ Ø±Ø§Øª
ĠÙĥØ§Ø± Ù
ĠÙĥØ§Ø±Ù Ħ
ĠØ§ÙĦØ³Ø¹ ÙĬ
ØµÙģ ÙĬØ©
998 92
ĠApr il
ĠØªØ± Ø§ÙĥÙħ
Ø§Ø±ÙĬ Ùĩ
z er
ĠØ§ÙĦÙħÙĩ ÙĨ
ĠÙĬØ® Ø¶Ø¹
C Y
nÙĬØ¹ ÙħÙĦ
ĠÙħØ¹ Ø§ÙĦÙĬ
nØ§ÙĦÙĥ ÙĦÙħØ§Øª
ĠÙħÙħ Ø«ÙĦØ©
96 76
ĠØ§ÙĦØ´ Ø¯ÙĬØ¯Ø©
93 97
ïº Ń
Ġs and
ĠO ctober
ÙħØ³ Ùĥ
Ø· Ø±ÙĬØ§Øª
ĠÙĪÙĤ Ø§Ùħ
ĠØ²ÙĬ Ø§Ø¯
ĠØ§ÙĦÙĤ ÙģØ§Ø²Ø§Øª
ĠÙĦ ÙĨÙĤ
Ã Ń
84 35
ĠÙĨØ¹ ÙħØ©
997 48
Ø³Øª Ø
V E
6 21
Ø³ØªØ §
ĠÙ¡ Ù¤
ĠÙħÙĪ Ø§ØµÙĦØ©
Ø¬ ÙĪØ±
ĠÙĨ Ø§ÙĬÙĦ
Ã ĺ
ĠØ§ÙĦÙĥ Ø§Ø²
ĠØ§ÙĦÙĪÙģ Ø§Ø¡
ĠØ§ÙĦÙĤÙħ Ø§ÙħØ©
n ov
97224 945
Ø¨Ø§ Ø´Ø±
ĠØ¨ Ø¶Ø±ÙĪØ±Ø©
ĠØ§ÙĦÙħ Ø¬ÙħØ¹
ĠØ§ÙĦÙħÙĥ ÙĬÙģ
Ø§Øª ÙĦØ©
ĠØ¢ ÙģØ§ÙĤ
Ġï» £ï»
ĠØµ Ø¨ØŃ
Ġ pp
Ø³Ø§Ø¡ Ù
Ø³Ø§Ø¡Ù Ħ
ĠØµØŃ ÙģÙĬØ©
h y
ĠØ§ÙĦØ§Ø¹ÙĦ Ø§ÙĨ
ĠÙĬØ® ØªØ§Ø±
ĠØ¨ÙħØ³ Ø§Ø¹Ø¯Ø©
Ġ7 1
74 9
ĠØ§Ø³Øª ÙĩØ¯Ø§Ùģ
ĠØ¹ Ø²Ùħ
ĠØ¨Øª ØµÙĨÙĬØ¹
98 61
ĠØ§ÙĦØ± Ø§Ø¦Ø¯
ĠÙĬ Ø¯ÙĬ
Ø§Ø±Ø§Øª ÙĬ
ĠÙĥ ØªÙģ
nØ³ ÙĪÙĤ
ÙħØ³ ÙĪÙĨ
ĠØ§ÙĦØº Ø§ÙĬØ©
ĠØ£Ùĥ ÙĬØ§Ø³
ĠÙħÙĬØª Ø³
er al
ĠØ§ÙĦÙĤÙĬ Ø§Ø³ÙĬ
ĠØ§ÙĦ Ø§Ø¬Ø±
67 06
ĠÙĦ Ø´Ø±
ï» ²
Å Ł
ĠØ§ÙĨ ØŃØ§Ø¡
74 1
v a
ĠØ¬Ø± Ø§ÙĨÙĬØª
Ġ$(' .
Ġ1 28
ĠØ§ÙĦØ¨Ø· Ø§ÙĦØ©
ĠØ¬ Ø°ÙĪØ±
nC opyright
M T
Ġp y
ĠØ¨ Ø±Ø¨
ĠØ§ÙĦÙĩ ÙĬØ¯
ĠØ¯Ø± Ø§ÙĬØ©
p art
ĠÙĪØ§ÙĦØŃ Ø¯ÙĬØ«
L Y
ĠØ§ÙĦÙĦ ÙģØ¸
ĠØ£Ø³ ÙĪØ£
ÙĦÙĬ ÙĦÙĬØ©
ĠØ§ÙĦØ£ ØŃÙħØ¯
nÙĨ Ø´Ø±
ĠÙĪØ§ÙĦ ØµÙĨØ§Ø¹Ø©
ĠØ¨ ÙĬØ±ÙĬ
ain ed
ĠÙħÙĦØ§Ùħ ØŃ
ĠÙħØŃ Ø§Ùħ
ĠØº ÙĨÙī
ĠØ³Ø¨ Ø§Ø¦Ùĥ
l ic
Ø· ÙĬÙħ
ĠB u
ĠÙĪØ¬ Ø¨Ø§Øª
ØªÙħ Ø§Ø¡
arch ives
nÙħ Ø¬
95 64
ĠØ§ÙĦØª Ø³ÙĦ
H K
ĠØ¥ ÙĥÙħØ§ÙĦ
ĠØªÙĤØ¯ÙĬÙħ ÙĩØ§
ĠØ¨ÙĦ Ø¯ÙĬ
F AC
ĠØ¹ÙħØ± ÙĩØ§
ĠØ§ÙĦØ¹Ø¨ Ø§Ø¯
97 61
ĠØªØ¬ Ø±ÙĬØ¨ÙĬ
ĠØ§ÙĦÙħ Ø¯Ø±Ø¬Ø©
ĠØ®ÙĦ Ø§ØµØ©
Ø¨Øª ÙĥØ±
ĠØ¥ØŃØ¯ Ø§Ø«
n ess
ĠÙĪÙģ ØŃØµ
ĠØ§ÙĦÙħ ÙĬØ±
ĠØ£ Ø±Ø¬
ĠØ§ÙĦØ¹ Ø§Øµ
ĠØªÙĬÙĦ ÙĤØ±Ø§Ùħ
ĠØ§ÙĦÙħ ÙĩØ±Ø¬Ø§ÙĨ
Q U
98 53
ĠØ§ÙĦ Ø¶Ø¹Ùģ
ĠÙĬØ±ØºØ¨ ÙĪÙĨ
Øµ ÙĬÙģ
5 99
n Ø§Øº
ĠØ§ÙĦØ¹Ùħ Ø±Ø©
ĠØ§ÙĦØŃ Ø±Ø¨ÙĬ
ÙĪ Ø¶Ø¹
X T
R R
nÙħ Ùĥ
ĠØ§ÙĦÙħÙĦ Ø§Ø¦ÙĥØ©
nTh is
Ġâ Ĺ
l ess
G U
ĠÙĬÙĤ ØªØµØ±
ĠÙĪØ® ÙĦØ§ÙĦ
ĠØ¯Ø± Ø§Ø³ÙĬØ©
ĠØ§ÙĦØ³ ÙĤÙģ
n ÙĬØ§
ĠØ§ÙĦØ§ØªØ¬Ø§Ùĩ Ø§Øª
ĠØ¨Ø§Ø± ÙĥÙĬÙĩ
ĠÙĤ ÙĦÙħ
87 57
ĠØ§ÙĦØ£Ø¹ Ø·Ø§ÙĦ
ĠÙĥØ§Ø±Ø¯ÙĬ ØºØ§ÙĨ
le g
Ø§ÙĦÙģ ØµÙĦ
ĠÙĪØ³Øª Ø±Ø§Øª
ØªØ± Ø§ØŃ
ĠÙĪØªÙĤ Ø¹
A BF
ĠÙĬÙĤ ØªÙĦ
ĠØ§ÙĦØ´Ùģ Ø§Ùĩ
ĠØ± Ø¦
ĠÙĪØª Ø·Ø¨ÙĬÙĤØ§Øª
Ġ ï¿½
0 20
996 50
ĠØ¬ ÙĪÙħ
Ùģ Ø¬Ø§Ø±
ĠÙĪØ§ÙĦØ° Ùī
0000 659
7 85
\"}, \"
ÙģØ± Ø³
ĠØ¥Ø¯Ø± Ø§Ø¬
Ġ7 9
ĠÙħØ¨ ÙĥØ±
ĠØ§ÙĦÙĪÙĦ ÙĬØ¯
ĠØ«Ø§ÙĦØ« Ø©
Ø§ÙĨ Ø¯ÙĬ
93 94
ĠØ§ÙĦØ¢ ÙĦÙĬØ©
ĠØ£ ØªÙī
ĠÙĪÙĦÙĪ Ø§Ø²Ùħ
ĠÙĦ ÙĪÙĬØ³
ĠØ¨Ø®Ø· ÙĪØ©
ĠÙĨ Ø§ÙģØ¹
J U
n Ø¨ØŃ
ri ve
Ø· ØŃÙĬ
nØ§ÙĦÙħÙĪ Ø§Ø¯
ØªÙĩØ§ Ø¯
Ùģ ÙĤØ§Øª
ĠØµÙħ ÙħÙĩ
ÙĪØ±ÙĬ Øª
ĠS ervices
ĠØ§ÙĦØ¬Ùħ Ø§Ø¹ÙĬØ©
n facebook
ĠØ§ÙĦÙĪ Ø§Ø¯ÙĬ
ØªØµÙģ ØŃ
ÙĪÙģ Ø³ÙĥÙĬ
ÙĢÙĢ Ø§Øª
Ġthe ir
ĠØ§ÙĦØ£Ø¯ ÙĦØ©
Ø±ÙĪØ¡ Ø©
ou w
ÙĦØ§ÙĦ ÙĬØ©
Ø¬Ùħ Ø¹Ø§Øª
ĠFeb ruary
[...]
