#version: 0.2
Ħ Ù
Ù ĦÙ
Ø ©
Ø ¹
Ø ¨
Ø ¯
Ø ³
§ ÙĦÙ
Ø §ÙĦÙ
Ù Ħ
§ ÙĦ
Ø §ÙĦ
Ġ Ø§ÙĦ
ĠØ§ÙĦ Ø
Ù ģ
ħ Ø
Ù ĥ
Ġ Ø§ÙĦÙ
ħ Ù
Ĭ Ø
Ī Ø
Ù ĩ
Ù Ĥ
Ù ĬØ
Ù ħØ
Ø Ń
Ù ħÙ
Ù ĪØ
ª Ø
Ĩ Ø
± Ø
Ø £
Ø³ Ø
Ĭ Ù
Ġ Ø¨
Ġ Ùģ
Ġ Ø
Ĭ Ø©
Ġ Ø¹
Ġ Ø£
Ġ ÙħØ
Ù ĬÙ
ÙĦ Ø
Ù ĨØ
Ġ ÙħÙ
Ù ĬØ©
ĠÙģ Ù
Ø ±Ø
ĠÙģÙ Ĭ
Ī Ù
Ø¹ Ø
± Ù
Ø¨ Ø
Ø¯ Ø
Ùĩ Ø
ĠØ ª
Ø¯ Ù
Ġ ÙĦÙ
ÙĦØ §
Ġ Ùĥ
± Ø©
Ø ¬
Ø Į
Ø³Ø §
ĠÙħÙ Ĩ
ĠØ §
ÙĬØ §
® Ø
´ Ø
Ġ ÙĪØ
ÙĬÙ Ĩ
Ø±Ø §
ÙĦÙ ī
ĠØ§ÙĦÙ ħØ
ª Ù
ÙħØ §
Ø ·
Ø µ
ÙĨØ §
Ù ĪÙ
Ùĥ Ø
Ø¯Ø §
ĠØ ¥
Ø ±Ø©
Ġ ØŃ
Ø³ Ù
ÙĩØ §
Ø¨ Ù
ĠØ§ÙĦØ £
Ùģ Ø
ĠØ ªØ
Ø ¡
Ø§ÙĦ Ø
Ĩ Ù
ÙĪØ §
±Ù Ĭ
ÙĬØ ±
Ø¨Ø §
ħ Ø¹
ĠØ£ Ù
ĠØ§ÙĦØ Ń
ĠØ¹ ÙĦÙī
ÙĦ Ø©
ØŃ Ù
Ø¹ Ù
Ùĩ Ù
Ø ¦
ĠØ ¬
Ġ ÙĤ
Ø¹Ø §
Ùĥ Ù
ĠØ§ÙĦÙ ħÙ
Ġ Ø³
Ġ 2
Ĭ Ø¯
ĠÙĦÙ Ħ
Ø¨Ù Ĭ
ĠØ§ÙĦØ §
Ù ħØ¹
ØŃ Ø
ÙĦÙ Ĭ
Ù İ
µ Ø
Ø¬ Ø
ĠØ§ÙĦÙ ħ
¬ Ø
±Ø §
ÙĤ Ø
Ī ÙĦ
Ù ĨÙ
. .
Ĩ Ø©
ĠØ¹ Ù
ĠØ¨ Ø
ĠØ§ÙĦØ ª
ÙĪØ ±
ħ Ø©
ĠØ§ÙĦÙ ĥ
Ø¯ Ø©
ĠØ§ÙĦÙ ģ
ªØ §
Ø³Ø§ Ø±Ø©
ĠØ ·
Ø¹Ø ±
´Ø ±
Ù ĭ
â Ģ
Ø±Ø§ Ø
Ġ ÙĬØ
Ġ 1
Ġ (
ĠØ§ÙĦ Ø³
ÙĤ Ù
Ġ ÙħØ¹
Ø³Ø ªØ
´Ø §
Ø ²
ÙĥØ §
Ġ2 0
ÙĪÙ Ĩ
Ø¹ Ø©
ĠÙħØ Ń
° Ø
ĠØ£Ù Ĩ
ĠØ§ÙĦ Ø¹
Ĭ ÙĦ
ÙĦÙ ĥ
ĠØ Į
Ī ÙĤ
Ø ¶
®Ø §
Ù ĳ
°Ø §
ĠØ§ÙĦÙ Ĥ
¬Ø §
ªÙ Ĭ
ĠØ¹Ù Ĩ
ĠÙĥ Ø
ĨØ §
ĠØ§ÙĦØ ¥
Ø¯Ø§ Ø
Ø¹ Ø¯
ħ ÙĦ
Ø³Ø ª
µ Ù
ĠØ§ÙĦØ ¬
Ī Ø§ÙĦ
ĠÙĥ Ø³Ø§Ø±Ø©
Ġ ÙĦØ
ÙģØ §
Ø¯Ù Ĭ
Ø±Ø§Ø ª
Ø¬Ø ±
Ø¨Ø ±
Ù ĪØ§ÙĦ
Ġ ÙĦ
±Ù Ī
Ī Ø§ÙĦØ
Ù ĪØ§ÙĦØ
ĪÙ Ĩ
· Ø
ĠÙħØ §
Ġ ÙĪØ§ÙĦØ
« Ø
ĠØ ´
Ø¨Ø§ Ø
Ø¨ Ø©
Ġ ÙĪØ§ÙĦ
ÙĨÙ Ĭ
Ī Ø§ÙĦÙ
ÙĤØ §
Ùģ Ù
Ø ªØ
ÙĤ Ø©
ĠØ§ÙĦØ µ
ĠØ µ
Ù ĪÙĦ
ÙĬØ§ Ø
Ù ĪØ§ÙĦÙ
º Ø
ĠØ¨ Ù
ÙĦØ§ Ø
ÙĬÙ ħ
ĠØ ¢
ĠØ ®
Ġ ÙĪØ§ÙĦÙ
i n
Ù ı
ĠØ¥ ÙĦÙī
Ġ .
Ī Ø¯
Ġ -
Ø ®Ø
Ĭ Ùģ
ÙħÙ Ĭ
Ġ Ø¯
ÙħØ§ Ø
° Ùĩ
Ùĥ Ø©
² Ø
Ġ ÙĩØ
Ġ ÙĩÙ
ĠØ§ÙĦ Ø¨
Ĩ Ø¹
ĠØ ±
ĪØ §
ĠØ§ÙĦØ ªØ
Ø³Ù Ĭ
ØŃÙ Ĩ
e r
Ø· Ù
0 0
ÙĨØ ª
Ù Ĳ
ĠØ£Ù Ī
Ī Ø¨
Ø¯Ù ĬØ¯
Ġ ÙĦØ§
Ø ´
µØ §
Ù ħØ©
ÙĩÙ ħ
¶ Ø
ÙĬØ ª
Ø¯Ø§Ø ª
Ī ÙĦÙ
²Ø §
ĠÙĪØ §
ØŃÙ ĨØ©
Ù Ģ
Ø¹Ø§ Ø
Ø¹Ù ħ
Ĩ ÙĬØ©
ÙĬØ§Ø ª
Ø³ØªØ ®
·Ø §
· ØŃÙĨØ©
ĠÙĥØ §
ÙĦÙ ģ
ĠØ§ÙĦÙ Ĩ
ĠØ¹ Ø
± Ø¨
Ø¯Ù ħ
¬ Ù
ĩ Ø
² Ù
ĠØ§ Ù
ÙħÙ Ĩ
ĠÙĦÙ ĦÙ
ħ Ø¯
Ø ±ÙĬ
Ø¨ÙĬ Ø¹
a n
o n
ĠØ§ÙĦØ ´
Ġ âĢ
ĠØ§ÙĦ Ø¯
ĠØ§ÙĦØ ªÙĬ
Ø¯Ø ±
.. .
Ĭ Ø³
ÙĦØ§Ø ª
Ġ ÙĨØ
Ø ®
Ø³Ù ħ
ÙĥÙ Ĩ
Ùģ Ø©
µÙ ĨØ¹
ĪÙ ħ
ĬÙ Ĩ
o r
ØŃØ §
ĠØ§ÙĦØŃ Ø¬Ø±
ÙĪÙ Ĭ
ªØ ±
ĠØ§ÙĦØ ±
ÙħØ§Ø ª
Ø «
Ø·Ù ħ
ÙĤÙ Ĭ
ĠÙħØ ·ØŃÙĨØ©
ĩ Ù
ĬØ §
ĠÙģ Ø
ĩØ §
ĠØ º
Ġ20 2
Ī Ø¹
ĠØ§ÙĦÙħØ Ń
ÙĦÙ ĬØ©
ĠÙħÙ ĨØ
ÙĬÙ Ī
ĠÙħØŃ Ø·Ùħ
a t
Ø· Ø
ª ØŃ
ĠØ§ÙĦÙ ĦÙ
Ø¯Ù Ī
ĠØª Ù
Ù Ĵ
ĠØ ´Ø±
¸ Ø
«Ø §
ÙĬØ ±Ø©
Øµ ÙĦ
Ĩ Ø¯
ÙģÙ Ĭ
ÙĦÙ Ĥ
ĠØ¨ Ø§ÙĦÙ
ªÙ ħ
ÙĪÙ ħ
Ġ20 1
ØŃ Ø©
Ù ĬÙģ
®Ø§ Ù
ĠØ§ÙĦØ ·
ÙħØ§ Ù
µØ ±
e s
ÙĪØ§ Ø
° ÙĦÙĥ
Ġ ...
Ø³Ø ·
ĨÙ Ĭ
ĠØ¨Ø §
ĠØ ±Ø
ÙħØ ±
ĠØ¢ ÙĦØ©
° Ù
®Ø§Ù ħ
Ø¨ ÙĬØ©
a r
ĠØ¹ ÙĦÙĬ
§ Ø¦
Ùĥ Ø³
ÙĥØ§ Ø
ĠÙĦÙĦ Ø¨ÙĬØ¹
ĠÙĦÙĦ Ø
Ø±Ø§ Ø¡
ħØ §
ÙĩØ ±
Ġ Ùĩ
ÙĨØ§ Ø
Ġ t
e n
ÙģØ ¶
ÙħÙ Ī
Ĩ ÙĤ
Ø³ Ø©
Ø¬ Ù
ÙĦØ§ Ù
Ġ 3
ªÙ Ī
ÙĬØ «
Ø§ÙĦØ §
«Ø ±
ĠØŃ Ø
Ġ |
Ø±Ø ¶
ÙħÙ ĬØ©
¶Ø §
ÙĦÙ ħ
± ÙĪØ
a l
Ù ĨÙĬØ©
ĠØ§ÙĦØ ®
ĠÙĪØ £
ÙĢ ÙĢ
i c
ĠØ ®Ø
ÙĨØ§Ø ª
Ø¨ ÙĦ
ĠØ¨ Ø§ÙĦ
Ù ĬØ³
Ø£ Ù
Ùĥ ÙĦ
ħ Ø³
ĠØ§ÙĦÙħÙ ĨØ
´Ø§ Ø
Ø¬Ø §
ÙĦÙ Ī
ĠÙĩØ °Ø§
ĠØ§ÙĦØ ±Ø
Ø¹Ø¯ ÙĬÙĨ
ĠØ· ØŃÙĨ
Ī ÙĦØ§
ÙĥØ§Ø ª
Ø¨Ø§Ø ±
Ø¯Ø§ Ù
ÙĦ Ø³
Ù ħØ¯
Ĥ Ø
2 0
Ø¨Ø§Ø ª
ØŃ ÙĤ
ĠÙĩÙ Ī
Ġ Ø³Ù
Ġ :
ĠØ¨Ù Ĩ
°Ù Ĭ
Ġ P
ĠÙĦÙ ĥ
Ù ħÙĦ
± Ø¯
ÙĪØ ±Ø©
Ġ p
ĠØ§ÙĦÙ ĪØ
Ø§ÙĦÙ ĬØ©
ĠØª ØŃ
Ø¨ Ø¯
ĠØ¹Ø §
°Ùĩ Ø¨
e t
± ÙĬØ©
ºØ §
®Ø µ
Ø¶ Ø
¬Ø§ Ø
Ĭ Ø¹
ĠØ§ÙĦÙĦÙ ĩ
ÙĥÙ Ĭ
ÙĦ Ø§ÙĦ
Ġ ÙĬÙ
§ ØŃ
ĠØ¨ Ø§ÙĦØ
Ġ M
ĠÙĤ Ø
Ø³ Ø¨
Ùĥ ÙĪÙĨ
Øµ Ø
Ī Ùģ
· Ù
ÙĬÙħ ÙĥÙĨ
ÙĥØ ª
Ø¹Ø§Ø ª
Ø±Ø ª
Ø¹Ø ª
ÙĪØ§Ø ª
± Ùĥ
Ø¹Ù Ĭ
ĠÙħØ ¬
ÙĬØ§ Ù
ĠØ «
ÙĥØ «Ø±
ÙģØ ±
Ø¨Ù Ī
ÙģØ¶ ÙĦ
ÙĤ Ø¯
Ġ S
Ù ħØ³
Ġ A
ĠÙĪØ ª
Ø¹Ù ħÙĦ
±Ù ī
ĠØ§Ù Ĩ
ĠØ ²
ĪÙĤ Ø¹
ĠÙħØ ®Ø
ÙĤØ§ Ø
ĬÙ ħ
Ø§ÙĦ Ø©
ĠØ§ÙĦÙģ Ùĥ
ĠØ¬ Ø
Ġ "
ĠÙĩØ °Ùĩ
®Ø§ Øµ
ĠØ§ÙĦ Ø¹Ø§
Ù ĬÙĦ
ĠØ§ÙĦÙ ħØ¹
Ø±Ø ¬
i t
ÙĥÙ ħ
ÙħØ ª
Ġ C
ĠÙĩÙ Ĭ
Ø§ÙĦÙ ħ
ĠÙĥ Ù
ĠÙħØ µÙĨØ¹
ÙĥØ ±
ÙĦ Ø¨
ĠØ¨ ÙĬÙĨ
ĠØ§ÙĦÙĥ Ø
± ÙĬØ
Ø¨Ø ª
ĠØ§ÙĦØ³ Ø¹Ø±
o u
Ø º
Ø §ØŃ
ĠÙĥØ§ Ù
Ġ c
ĠØ§ÙĦÙĤ Ø
Ġ Ø³Ø§
Ĩ Ùģ
ĠØ§ÙĦ Ø¹Ø±
i s
Ġ s
Ø¯ Ø¯
Ø °Ø§
ÙħÙ ĬØ
ĠØªØ µ
ĠØ§ÙĦØ °ÙĩØ¨
ªØ§ Ø¬
ĠØ§ÙĦÙ ĩÙ
Ø¹Ø§Ø ±
ÙĥØ§ Ù
ĠØ§ÙĦÙ Ħ
Ø·Ø §
Ø³Ø§ Ø±Ø§Øª
ÙħÙ ĨØ
ĠØ¥ Ù
Ġ 5
¸Ø §
Ń Ø
Ù ĪÙĦÙ
ÙĬÙĨ Ø©
Ī Ø³
Ġ 4
ĠØ§ÙĦØ ´Ø±
Ø¯Ù ī
ĠØ§ÙĦØ «
Ù ī
ĤØ §
ÙĪØ ª
ÙĬØ ±Ø§
ĠØ§ÙĦÙĥ Ø±Ø©
ÙħØ ¬
Ù ĬØ¯
e d
Ø§ÙĦÙ Ĭ
ĠØ§ÙĦÙ ĨØ
ĠØª Ø¹
Ø£Ù Ĩ
Ù ĪØ¨
ĠÙĥ ÙĦ
ĠØ ®Ø§Ùħ
ÙĦØ§Ù ħ
ÙĤØ ª
Ø¶Ø §
Ø¯Ù ħØ©
Ġ ÙĬÙħÙĥÙĨ
Ø¦ Ù
Ġ Â
ĠØ§ÙĦØ£ Ø³
ÙĬØ ²
ĠØ§ÙĦØ ¢
ĠØ§ÙĦØ °ÙĬ
¦ ÙĬØ³
ÙģØ§ Ø
ÙħÙĬ Ø¹
ĠÙħØ¹ Ø¯Ø§Øª
ĠØ¨ Ø¹Ø¯
Ù ĪÙĤ
¥ Ù
ĠØ¹Ù ħ
Ġ m
ØŃØ ª
ÙĪØ ¬
Ø³ ÙĬØ©
ØŃ Ø¯
ÙĦØ ª
± Ø³
ÙĪØ§ Ù
Ø±Ø§ Ù
ØŃÙ ħ
ÙĩÙ Ī
ĠØ °ÙĦÙĥ
ĠØ§ÙĦ Ø³Ù
a c
Ùĥ Ø³Ø§Ø±Ø©
Ø Ł
Ø³Ø§ Ø
ØŃØ «
ĠØ´Ø± ÙĥØ©
ªØ§ Ø
ÙĤØ§Ø ª
µØ º
ªÙ ī
¶ Ù
Ø§ÙĦÙ ħÙ
ĠØ® ÙĦØ§ÙĦ
ÙħÙ ĬÙĦ
Ø³Ø ±
ĠÙĦÙ ħ
Ġ202 2
Ø³Ø§ Ù
in g
ĠØ¬Ø §
ĠØ§ÙĦ Ø¹Ø
ÙħØ§Ù Ĩ
o m
Ø¯Ù Ĩ
± ÙĤ
ĠØ³ ØŃÙĤ
Ø³Ø§ Ø¨
Ø³ØªØ® Ø¯Ùħ
ĠÙĥØ§Ù Ĩ
ÙĬÙ ĨØ§
ĠØ§ÙĦØ ®Ø
ÙĨØ§ Ø¡
ªØ§ Ø¨
ĠÙħØ µØ±
Ùĥ ÙĬØ©
a s
Ĭ Ø¨
Ù ĪÙĦØ§
r e
ÙĦÙ ħØ§
ĪØ¯ ÙĬØ©
±Ø§ Ø
l e
ÙĨØ ¸
ĠØ§ÙĦÙ ĬÙ
Ùĩ Ø¯
ĠØ³ Ø¹Ø±
´Ø§Ø ±
ÙĬØ Ń
Ø®Ø ±
Ġ 0
ĠØ§ÙĦØµ ÙĬÙĨ
h e
ÙĤ ÙĦ
ÙĥÙ Ī
ĠØ£ ÙĥØ«Ø±
ĠØ§ÙĦÙħÙ ĪØ
ĠØ£ Ø³
ÙħÙ ĩ
ĠÙĪØ ªØ
Ø¯Ø «
Ġ T
ĠØ§ÙĦÙ ĨØ§
Ø¯Ø§Ù ħ
ØªØ µ
ÙĬØ ¬
ĠØ§ÙĦÙģ Ø
ĠØ§ÙĦØ ²
ĠØ¬ Ù
ĠØ¥Ù Ĩ
ĠÙģÙ ī
Ġ /
ÙĨØ ªØ§Ø¬
ĠØ§ÙĦ Ø¨Ø
ĠØ§ÙĦÙĩÙ ĨØ¯
a d
Ġ ÙĨØ§
Ġ ÙħØ³
ĠØ§ÙĦØŃ Ø
Ø§ÙĦØ§ Ø
Ùĳ Ùİ
âĢ Ŀ
±ÙĪØ ·
ÙĦÙ ħÙ
ÙĬØ§ Ø¶
ĠØ§ÙĦØª Ø¹Ø¯ÙĬÙĨ
i on
Ġ ÙĨÙ
Ø ¥
Ù ĨÙĤ
ÙĦÙ ĬØ
ÙĦÙ ĩ
¥Ù Ĩ
· Ø©
±Ù ħ
ÙĥØ§Ù Ĩ
º Ù
ĠØ¨Ø ´
u s
Ø§ÙĦØ§Ø ª
ĠØŃ ÙĬØ«
ĠÙĤ Ø¯
ÙħÙ ĪØ
Ġ ÙĪØ¨
ĠØ£Ù Ĭ
Ī Ùĥ
ĠØ§ Ø
Ġ 6
ĠØ§ÙĦÙĤØ §
ª Ø¹
Øµ ÙĪÙĦ
ĠØ§ÙĦÙħÙ ĪØ§
ĠØ§ÙĦØ£ Ù
Ġ ÙĪÙĦØ§
ÙģØ§Ø ª
ÙĬØ§Ø ±
ĠØ ¶
Ø² Ø
ĠØ¹ÙĨ Ø¯
Ø¹Ø ¶
ÙĦÙģ Ø©
²Ù ĬØ¯
Ø¯Ù ĪÙĨ
ĠØ§ÙĦÙħØ §
ĠØ£ Ø
Ø¦Ù Ĭ
ĠØ§ÙĦØ³ Ø¹Ù
ªÙ ĪÙ
ÙħÙĨØ ª
ĠØª ÙĤ
ĠØŃ Ø¬Ø±
Ø· Ø©
ÙĪÙ ĨØ©
Ø¦ ÙĬØ©
Ø¬Ù ħ
ÙĩÙ Ĭ
r o
Ġ ÙĪÙĤ
±Ù ĪÙ
Ø³ØªØ® Ø¯Ø§Ùħ
ĠØ¹ Ø¯Ø¯
ĠÙĤØ §
Ù ĪØ³
- -
Ø§ÙĦÙ ĥ
² Ø©
ĠÙħØ «
Ī ÙħØ
ĠØªØ £
ÙħØ§Ù ħ
ĠÙĪØ Ń
Ùģ Ø¹
i l
ĠØ§ÙĦÙĬÙ ĪÙħ
Ĩ Ø³
Ø¹ Ø¨
Ù ĪÙħØ
Ø§ÙĦ ØŃ
ªØ ±Ø§
±Ø§Ø ª
Ī Ø¯Ø©
¬Ø§Ø ª
ÙĦÙĤ Ø©
ØŃØ ±
Ø¹ ÙĬØ©
ĠØ§ÙĦØ «Ø§
Ġ ÙĪÙħØ
ÙħØ¹ Ø©
Ġ f
Ø¯ÙĬØ¯ Ø©
Ø¯Ø ®
Ø¬ Ø©
a m
Ø« ÙĬØ±
Ġ ÙĨÙĤ
Ġ ÙĪÙĬ
Ġ b
·Ø ±
ĠÙħÙ ĪØ
ĠÙħØ®Ø ±ÙĪØ·
¦ Ø©
Ġ ,
ÙħÙ ĬÙĨ
ĠØ¹ Ø¨Ø¯
ĠØ ±Ø§
Ø¨Ù Ĩ
Ī ÙĬØ©
ÙĬØ ·
ĠÙĥ ÙħØ§
ÙĦÙ ĬØ§
ĠÙħÙ ĪØ§
ÙĩØ§ Ø
ĠØº ÙĬØ±
±Ø ª
Ø§ÙĦØ ª
ĠØ§ÙĦ Ø³Ø§
Ġ Ø³Ø
ĠØªØ §
ªÙ Ĩ
· Ø¨ÙĬ
ĠØ· Ù
Ø§ÙĦÙ ħØ
ĠØ§ÙĦØŃ Ø¯ÙĬØ¯
ĠØ¹Ø§ Ù
Ġ d
e l
ÙĪØ§Ù Ĩ
±ÙĬ ÙĤ
ĠØ¹Ø§Ù ħ
ĠÙħØŃ Ø
ÙĬÙ ĬÙĨ
ĠØ§ Ø³Øª
ĠâĢ ľ
±ÙĬ Ø¯
ĠØ§ÙĦ Ø¹Ùħ
±Ù Ĩ
ÙĨØ§ Ù
Ġ1 9
ĠØ§ÙĦØ¹Ø± Ø¨ÙĬØ©
ĠØ§ÙĦØ º
ĠØ§ÙĦÙ Ī
ic e
ĠØ§ÙĦØ¬ Ù
ï »
ĠÙĪØ§ÙĦÙ ħØ
ĠØ§ÙĦØ³ ÙĬØ§
Ĭ ÙĤ
ĠØ§ÙĦÙĥ Ù
´ Ù
ÙħØ Ń
ĠØ§ÙĦÙģ ØŃÙħ
ĠâĢ ĵ
Ġ B
ÙĬØ ¶
®Ø§Øµ Ø©
´ Ø©
Ø¯Ø ª
en t
Ø¨Ø ·
ĠÙĪØ§ÙĦ Ø£
ĠÙģØ §
ª Ø¨
ÙĪØ ¶
Ø³Ø§Ø ª
ĠØ¬ ÙħÙĬØ¹
ĠØ§ÙĦÙ ĩ
ĠØ§ÙĦØ¹ Ø§ÙĦÙħ
ªØ ¬
ĠÙĤ Ø¨ÙĦ
Ġ G
µØº ÙĬØ±Ø©
ÙĨØ ¬
¸Ø§ Ù
µÙ Ĩ
±Ù ĪÙĨ
¸Ø§Ù ħ
ÙĥØ ²
ĠÙħØ ª
Ø® Ø¨Ø§Ø±
ÙĨØ ªØ±
ï ¿
ÙĨÙ ĪØ¨
´Ø ±ÙĪ
ªÙ ĨÙĤ
ÙĪØ ²
ï¿ ½
ĠÙĥ Ø¨
ØµØ §
Ø¦ Ø
ĠØ§ÙĦØ ¬Ø
ĠØ§ÙĦØ µØ
ħ Ø³Øª
ĠÙħØ ±
Ø¹Ø± Ùģ
±ÙĬØ ®
ÙħÙ ĬÙħ
Ø¯ ÙħØ§Øª
ºØ ±
ĠÙħÙ ĪÙĤØ¹
ĠØ§ÙĦÙħÙ ĨØ§
an d
Ġ202 1
ĠØ§ÙĦÙħÙ Ĥ
Ø±Ø§Ù Ĩ
ÙĥØ³ ÙĬØ±
Ù ĨØ¹
Ø±ÙĬ ÙĤ
Ġ w
ĠÙĥ Ø³Ø§Ø±Ø§Øª
Ø¹Ø§ Ù
Ø®Ø ±Ùī
ÙĬØ ¶Ø§
ĠØ§ÙĦÙħØŃ Ø
Ø¨ Ø³
a b
5 0
Ø®Ø ª
ĠØ¹ÙĦÙĬ Ùĩ
ĠØ§ÙĦÙħØ ªØŃ
Ī Ø©
ĠØ ´Ø§
ĠØªÙ ħ
ĠÙĦØ ª
Ġ ÙħØ¯
Ġ 7
o w
Ġ Ø¯ÙĬ
ĠÙĬØ ¬
ĠØ®Ø ·
ĠÙħØŃ ÙħØ¯
Ġ1 0
ĠØ¨Ø ±
ĠØ·Ù Ĩ
ĠÙĬØ ªÙħ
Ø§ØŃ ØµÙĦ
ÙģØ ª
ÙĦØ§ Ø¡
ĠÙĪØ§ÙĦØ §
ĠÙĩ ÙĨØ§
Ġ ÙĪØ³
ÙĦÙĬ ÙĦ
ĠÙĦÙĥ Ù
ÙħØ ±ÙĬ
Ġ H
ÙĤÙ ħ
ĠØ§ÙĦØ ±Ø§
Ùĩ ÙĦ
ĠØ§ÙĦØ³Ø¹Ù ĪØ¯ÙĬØ©
Ġ D
Ġ F
ŃØ §
°Ø§ Ø
ÙĬØ ±ÙĬ
ÙĬÙ ħØ©
Ġ L
o o
Ġ 8
ĠØ§ÙĦØ£ Ø
ĠÙħØ ªØ
Ù ĨÙģ
ºØ ±Ø¨
ĠØ¨ Ø£
or e
ħ Ø³Ø§
ĠØ§ÙĦØ§ Ø
Ø²Ø §
Ø¯Ø§Ø ®
ĠØ§ÙĦØ °
ĠØ· Ø
Ø¯ ÙĬØ«
1 0
ªØ ¬Ø§Øª
Ù ħØ³Øª
® ÙĪØ±
Ø¹ ÙĦ
ªØ µØ§
ĠØŃØ ªÙī
Ù ĪØ¹
Ø¬Ø ª
Ī ÙĬØ
ĠÙħÙ ĨØ§
r ice
Ġ o
ĠØ§ÙĦØ ¬Ø§
±Ù ħÙĦ
ĠØ¨ Ø¹Ø¶
ĠØ£ ÙģØ¶ÙĦ
Ù ĪÙģ
ªØ§ Ù
ħ ÙĦÙĥ
ĠØ§ÙĦÙ ī
ÙĦÙĪ ÙħØ§Øª
2 2
Ø§ÙĦÙ ģ
a g
ĠØ§ÙĦÙħØªØŃ Ø¯Ø©
Ø ¢
Ġ I
Ø· Ø¹
ĠØ¨Ø´ ÙĥÙĦ
ħ ÙĦØ©
Ĩ ÙĪÙĨ
Ù ĬÙĤ
ĠØ ´Ø
ÙħÙĪ Ø¹Ø©
ÙģØ ±ÙĬÙĤ
ĠÙĪØ ¬
ĠÙĦÙ ħØ
Ø¹ ÙĦØ§
Ġ ÙĪÙ
ĠØ§ÙĦØ§ Ø³
Ø ´Ø±
ĠØ¹Ùħ ÙĦÙĬØ©
ÙĪØ§ Ø¹
Ø¦ ÙĦ
ÙĦÙĥ Ù
ĠØ§ Ø³
Ø¹ ÙĦÙ
Ġ ÙħØ³Øª
Ĩ Ø¨
ÙĨØªØ± ÙĨØª
ĠØŃØ §
ĠÙģ ÙĤ
ĠØ¹ Ø¨Ø±
ĠÙĥ ÙĬÙģ
ĠØ¥ Ø°Ø§
Ø¶ Ù
ĠØ§ÙĦÙħØ ª
e c
²Ù Ĭ
Ġ E
Ùģ Ø³
ĠÙĦÙĦØ §
Ø¹Ùħ Ø§ÙĦ
Ġ20 0
ĠØ³ ÙĬØ§
Ġ h
ÙħÙ ĩØ§
ĠØªØ ¬
ÙĪØ Ń
Ġ R
Û Į
Ùģ ÙĤ
ħ Ø³Ø
ÙĪØ ±ÙĪ
Ø³Ù Ī
ÙĨØ¸ ÙĬÙģ
ĠÙĦÙ ĩ
ªÙĨÙĤ ÙĦØ©
ĠØ¨Ù ĬØ¹
¬Ù Ĭ
ĠØ· Ø§ØŃ
ĠÙĪØ ¥
Ø¯ ÙĬØ©
ĠØ§ÙĦÙ Ĭ
ĠØª Ùĥ
Ø¨Ø§ Ø¨
Ġ W
ÙĪØ ·
ĠØ§ÙĦØ ·Ø§
p p
Ġ ÙĪØ¹
Ġ in
ÙĢÙĢ ÙĢÙĢ
Ġ 9
Ø³ ÙĬØ§
ÙĨÙĬ Ø¹
Ø· Ùģ
Ĭ ÙĥÙĪÙĨ
ÙĤ Ø¹
Ø¨ Ø±Ø§
°Ø§Ø ª
ĠØ§ÙĦ Ø¹ÙħÙĦ
ĠÙħÙ Ĥ
Ø·Ø ±
1 1
ĠØ§ÙĦØµØ ®ÙĪØ±
Ùĩ Ø©
Ùģ ØŃØ©
ĠØŃ ÙĪÙĦ
Ġ Ø¯ÙĪ
ĩÙ ħ
ÙĬØ ´
Ġt he
Ø§ÙĦ Ø£
i d
ĠÙĦ Ø£
ĠÙĪØ§ÙĦØ ª
Ī ÙħÙĨ
Ø§ÙĦ Ø¨
Ø¯Ø§Ø ±
ĠÙĬØ Ń
Â »
±Ø ¬
ÙĪØ µ
´Ø±ÙĪ Ø¹
ĠÙħØ« ÙĦ
ĠØ§ÙĦØ ´Ø
ÙĬØ§Ù Ĩ
o l
Ī ÙģÙĬ
ĠÙħØ ¤
ÙĦÙ ĬÙ
Ø¬Øª ÙħØ§
ĠØ§ÙĦØ ´Ø§
Ù ĪÙħÙĨ
ĠØ§ÙĦÙħ Ø³
ÙĤÙĬ ÙĤ
ÙĪØ± ÙĬØ©
ĠØ·Ø§ØŃ ÙĪÙĨØ©
Ġ ÙĪÙĦÙ
ÙĨØ§ ÙħØ¬
ÙģØ ¸
Ø ±Ø³
Ø¯Ø ±Ø©
ĠØ¹ Ø§ÙĦÙĬØ©
Ø¯Ø§ Ø¯
ĠÙĬØ ª
ÙĨØ§Ù Ĩ
Ġ Ø³ÙĬ
u r
·Ø¨ÙĬ ÙĤ
Ø °
ĠØ§ÙĦÙħØ ±
Ù ĬÙĥÙĪÙĨ
Ġ l
ÙĨØ§ Ø¹Ø©
ªÙĪÙ ī
ÙĤØ ±
Ġ ÙĨÙģ
ÙĦØ³ ÙĦØ©
ÙģØ±ÙĬÙĤ ÙĬØ§
h at
Ù į
Ī ÙĩÙĪ
´Ø ±Ø©
Ġ ÙĬÙĥÙĪÙĨ
ÙĬÙ ĪÙĨ
s t
Ø¯Ø§ Ø¡
ÙħÙ ĪÙĨ
ÙĦÙĥ ØªØ
ĠÙĦÙĦÙ ħØ
¬Ø ±
Ù ĪÙĩÙĪ
Ġ ÙĪÙħ
Ù ħØ³Ø
ĠÙĪØ§ÙĦÙ ħÙ
ĠÙħÙ Ī
ÙĩØ§Ø ª
Ø³Ø§Ù Ĩ
Ùģ ÙĬØ©
ĠÙĦÙ Ĭ
ØŃ ÙĬØ©
ï º
ĠØ§ÙĦØ¹Ø§ Ù
ĠØªØ ±
ĠØ§ ÙĨØ
ĠØ§ÙĦ Ø¯ÙĪ
ĠØ¬ ÙĨÙĪØ¨
Ø±Ø £
ĠØ§ÙĦØ¥ Ø³
ªØ µ
ÙĪØ ±ÙĬ
ÙħØ§Ø ±
ĠØ§ Ø³ØªØ
âĢ ı
ĠÙħÙ ĤØ§
ħ ÙĦØ§
Ù ĨÙĪÙĨ
ªØ ²
Ø¦Ø ±
Ġ ÙĪÙĩÙĪ
ĠØªØ ª
Ġ ÙħØ³Ø
1 2
ĠØ¨ ÙĩØ§
ÙĦÙĥÙ Ĩ
ħÙĦÙĥ Ø©
¶ Ø¹
Ĩ ÙĬØ§
Ġ ÙĪÙģ
ĠÙħØ µ
e m
ĠØ£ÙĨ Ùĩ
ĠØ§ÙĦÙħ Ø³Øª
ĠÂ «
ĠØ±Ø ¦ÙĬØ³
µØ§ ÙĨØ¹
Ù ħØ³Ø§
Ø¯Ø§ Ø±Ø©
Ġ ÙĬÙĤ
Ø±Ø ²
ÙĬÙ ĨØ
) .
Ġ202 0
±ÙĪÙ ĨÙĬ
ØŃÙ ĪÙĤ
ÙĪÙ ī
ĠØ§ÙĦÙħØ ¬
Ġ a
Ø¯Ø± Ø¯Ø
Ī ÙĬØ±
ĪØ ¬
Ø Ľ
ĠØ¨ Ø¯
Ø¬Ø§ Ø
ĠØ£ ØŃ
ÙĦÙĬØ§ Ø
Ġ ÙĪÙħÙĨ
Ġ ÙĬÙĪ
i g
ÙĥÙ ĬÙģ
Ī ÙĦØ©
Ø¶Ø§ ÙģØ©
Ø±ÙĬ ÙĤØ©
ÙĬØ§Ù ħ
ĠØ§ÙĦØ¹Ø§Ù ħ
ĠØ¨ Ùĩ
·Ø§ ØŃÙĨ
Ġ1 00
ĠØ´Ø± ÙĥØ§Øª
ĠÙħØŃØ §
¸Ø ±
u n
ØµØ ±
ĠØªØ ´
Ø¯Ø±Ø¯Ø ´Ø©
ĠØ§ÙĦÙĥØ §
Ù ĪÙĬØ
ĠØª Ø¹Ø¯ÙĬÙĨ
Ù ł
ĠÙģØ ¥ÙĨ
ĠØ£ Ø¬
Ø² Ù
Ùĥ Ø¨Ø±
ĠØ§Ù Ī
Ø¨Ø§ Ù
ĠØ§ÙĦÙ ĪØ§
Ù ĪÙģÙĬ
ĠØ§ÙĦÙħØ ²ÙĬØ¯
ĠØ¹Ù ħÙĦ
· ÙĤØ©
ÙĪØ§ Ø¡
ĠØ ±ÙĬ
Ī ÙĦÙĥÙĨ
ÙĤØ ªØµØ§
Ī ÙģÙ
Ø¨ Ø¹
Ù ĪÙĦÙĥÙĨ
ĠØ§ÙĦØ± ÙĬØ§Ø¶
ĠÙĪØ µ
ĠÙĦÙĦ Ø£
ĠØ¨Ù Ĭ
Ġ [
ĠÙĤ Ù
Ø¨ Ùĩ
ÙĬØ ¦Ø©
Ø³Ù Ĩ
ĠÙħØ ¬Ø§
Ø§ÙĦ Ø³
Ī ÙĬØª
ÙĪØ ±Ø§
Ġ1 2
ÙĬÙĨØ§ Ø
Ø¯Ù ĪÙĦ
ÙĤ ÙĬØ©
ÙĬØ§ Ø¯Ø©
ĠÙħØ§ Ùĥ
ĠØª Ø³
Ø¯Ø§Ù Ĩ
ĠØ³ ÙĦØ³ÙĦØ©
ØŃÙ ħØ¯
ÙĩØ ²Ø©
Ġ g
Ø·Ø§ Ø
ĠØ§ÙĦØ¢ Ù
ÙĪÙ ħØ©
ĠØ§ÙĦØ£Ù Ī
Ġo f
ÙĬÙĨ Ù
ÙĩØ§ Ø²
ĠØ« Ù
ĠØª Ø³ØªØ®Ø¯Ùħ
Ġ ÙħØ³Ø§
Ø¯Ø§ ÙĪÙĦ
ÙĦÙ ĩØ§
ĠÙĬÙ ĪÙħ
ªØ§Ù Ĩ
ĠØ§ÙĦØ¬ ÙĬØ±ÙĬ
ÙħÙ ĪÙĦ
ĠØ§ÙĦÙħØ ®Ø
ĠØ§ÙĦØ¥ Ù
Ø¯Ù ĪÙ
ĠÙĥØ§ ÙĨØª
ĠØ °
ĠØ§ÙĦÙħØ ¤
Ø±Ø§Ø ±
ĠØª ÙĥØ³ÙĬØ±
° ÙĬØ©
i m
ĠØ§ÙĦØ ±Ùħ
ĠØ§ÙĦØ¢Ù Ĩ
ĠØ«Ù ħ
ĠØ °Ø§Øª
ĠÙĦØ ¥
Ġ ..
âĢ Ĥ
2 1
ÙħØ§ Ø±Ø§Øª
Ġ Ø¯Ø§
Ġ ÙĪÙĦÙĥÙĨ
ħ Ø§ÙĦ
ĠØ§ ØŃ
ĠÙĨÙ ĪØ¹
ÙħÙ ĬØ§
µ Ø©
º ÙĬØ±
ĠÙħØ¬ ÙħÙĪØ¹Ø©
ĠØ ±ÙĪ
ĠØ§ÙĦØ§ Ù
ÙĩØ °Ø§
Ø§ÙĦ Ø¬Ø©
o t
ĠØ¢ ÙĦØ§Øª
ÙĩØ± Ø¨Ø§
Ġ and
ĠØ§ÙĦØŃØ §
ĠØ§ÙĦØ´Ø± ÙĥØ©
ÙĪØ§Ø ±
Ø§ÙĦÙ ĬØ§
ĠØ§ÙĦØ±Ø ¦ÙĬØ³
a y
Ø¯ ÙĦ
Ø¹Ù Ī
´Ø º
Ġ n
i v
Ø¹ ÙĦÙī
Ø¹Ø§ Ø¯Ø©
ĠØ³Ù Ĩ
ĠÙħØŃ Ø·Ø©
ª Ø¯Ùī
ĠØ§ÙĦÙħØ¹ Ø¯Ø§Øª
ÙĦÙģ Ø
ĠØ§ÙĦØ ±ÙħÙĦ
Ø¹Ù ĬØ¯
Ø·Ùģ Ø§ÙĦ
ĠØ§ÙĦØ¥ ÙĦÙĥØªØ
´ Ùģ
ĠØªØŃ ÙħÙĬÙĦ
º Ø·
Ø³ ÙĬÙĨ
ÙħÙĪ ÙĦØ©
Ġ )
ÙĬØ ®
Ġ N
ÙĥØª ÙĪØ±
c h
ĠØ§ÙĦ Ø¨Ø±
ĠØ¨ ÙĦ
t er
·Ø± ÙĤØ©
Ù ħÙĦØ§
ĠØ§ÙĦ Ø³Ø
Ø¹ Ø¨Ø©
ÙĬØ§Ù ĨØ©
ĠÙĦ Ø£ÙĨ
ĠØ£ ÙģØ±ÙĬÙĤÙĬØ§
ĠØ¨ ØŃ
ĠÙħØ ´Ø§
ÙĬÙ ĪÙħ
ÙģØ§ Ø¹
ÙĤÙ ĪÙĦ
ÙĦØ§Ø «
Ġ ÙĪÙĬØ
ħ ÙĥØ§
ĠØ§ÙĦÙħÙ ħÙĦÙĥØ©
Ġ ÙĩØ§
ĠØ§ Ø³ØªØ®Ø¯Ø§Ùħ
ĠØ§ÙĦÙħ Ø¹Ø§
ĠØ¥ ÙĦØ§
ĠØ µÙĨØ¹
ĠÙħØ ±Ø§
ĠÙģÙĬ ÙĩØ§
Øµ Ø©
ÙĪØ§ Ø¬
ĠØª ÙĨØ¸ÙĬÙģ
ĠØ¨ Ø³
1 9
²Ø§ Ù
ĠØ§ÙĦØ ®Ø§ØµØ©
Ġt o
ÙģØ§ Ø¡
Ø¯ Ùĩ
ĠØ§ÙĦØ§ Ø³Øª
ĠØ¨ Ùĥ
Ø³ ÙĦ
Ø¹Ø§Ù ħ
ĠØ µØºÙĬØ±Ø©
ĠØ¨Ø ª
ĠØªØµ ÙĨÙĬØ¹
ªÙ ĪÙĨ
ÙĦØ§ ÙĤ
Ùģ ÙĦ
Ø³ Ø¨Ø©
² ÙĦ
Ø´ Ø©
ĠØ§ÙĦØª ØŃ
ÙħØ ±Ø§
ĠØ£ Øµ
ĠÙĦÙ ĩØ§
ĠÙĦÙ ģ
ÙĨÙ ī
ĠÙĦÙ ħÙ
Ġ ÙĪÙĨ
Ġ O
Ī ÙĩÙĬ
ĠÙĦÙĦØ ª
Ø¨ ØŃ
Ù ĪÙĩÙĬ
ØŃÙ Ĭ
ĠÙħØ®Ø ª
ĠØ¥ ÙĨØªØ§Ø¬
Øµ ÙĬÙĦ
i a
ĠÙĤ Ø§ÙĦ
ÙĬØ§ Ø©
ÙĪØ§ ØµÙĦ
²Ø§ Ø
ĠØ¬ Ø¯ÙĬØ¯
Ø§ÙĦØ «
ĠÙĨÙģ Ø³
ħ Ø¹Ø§
ĠØ£ Ø¨
Ø³Ø¨ Ø¨
ĠÙģÙĤ Ø·
ĠØ§ÙĦÙħØ ±Ø
Ī ÙħÙ
Ġ1 4
ĠØª Ø¹Ø
ÙĨØ º
Ĩ ÙĩØ§
ºÙ Ĭ
Ī Ùĩ
ÙħØ «
ĠØ§ÙĦØ£ ÙĪÙĦ
ĠØª ØŃØ
c t
ĠØ§ÙĦÙĦ Ø
ĠØ¥ ÙĦÙĬ
u b
¬Ù ħ
ħ Ø¨Ø§Ø
ÙĬØ§ Ø¡
ħ Ø¨ÙĬ
ĠØ§ÙĦÙħØŃØ §
Ù ħØ¨Ø§Ø
âĢ ¦
ĠØ¹ ÙĦØ§
ĠØ§ÙĦØ¹ Ø§ÙĦÙħÙ
Ø§ÙĦ Øµ
ĠØŃ Ù
u l
ħ Ø¨Ø±
Ù ĪÙĥ
Ù ĬØ¨
Ġ ÙĪÙĩÙĬ
®Ø§ Ø±Ø¬
ĠØª ÙĥÙĪÙĨ
ÙĦÙĬØ§Ø ª
µÙĨ Ø¹Ø©
Ø¨Ø ±ÙĬ
Ø³ØªØ «
ÙĥÙĬ Ø¨
ĠP rice
Ġ #
ÙĬØ±Ø§ Ù
ħ Ø¹Ø
Ø¹Øª Ø¨Ø±
ĠØ¬ Ø¯ÙĬØ¯Ø©
Ø¯Ø ±ÙĬ
ĠÙĬØ¬ Ø¨
Ġ ÙħØ¨Ø§Ø
ĠÙħØ³ ØŃÙĪÙĤ
ÙĦØ§Ø ±
ĠÙĩÙĨØ§ Ùĥ
ĠØ§ÙĦØŃ ÙĦÙĤØ©
at ion
Ġ| --
ĠØ¨ ÙĨØ§
ÙĦØ§Ù Ĩ
ªØ§Ø ±ÙĬØ®
ĠØ ¸
ØŃØ§ Ø
ÙĬØ±Ø§Ù Ĩ
ĠØ¢ Ø®Ø±
Ø¯Ù ĪÙĦÙ
ÙĦÙ Ħ
ÙĦÙģØ §
ĠØ§ÙĦØ±Ùħ Ø§ÙĦ
¦ Ø
Ĩ ÙĬÙĨ
ĠÙĦÙĦ ØŃ
ĠØ§ÙĦØ ®Ø§Ùħ
ĠØ§ÙĦÙħÙ Ĩ
Ī ÙĦÙĬ
u t
ÙĥØ ªÙĪ
ĠØ§ÙĦÙħØ µÙĨØ¹Ø©
Ġ ÙĪÙģÙĬ
ĠØµ ÙĪØ±
ĠÙģÙĬ Ùĩ
ĠØ§ÙĦÙ ĪÙĦØ§
¬Ù ĪØ¯
ĠÙĪØ§ÙĦØ ªÙĬ
ÙĥÙ ĨÙ
ĠØ§ÙĦØ¹ Ø¯ÙĬØ¯
3 0
Ø¨ ÙĬØ±
¸ Ù
¬Ù ĬÙĦ
ÙĬÙĨÙ Ĭ
er s
ÙĬÙĨØ§Ø ª
±ÙĬ Ùģ
ĠÙĦÙĦÙ ħÙ
ĠØ· Ø±ÙĬÙĤ
ĠÙħØ ´
ĠØ§ÙĦÙħ Ø¯
§Ø¦ ÙħØ©
ÙĩØ ±Ø©
ĠØ§ÙĦÙħ Ø³ØªØ®
ĠÙħØ ªÙĨÙĤÙĦØ©
ĠØ£ Ø®Ø±Ùī
ĠØ¨Ø ¥
ĠÙħÙ ħØ§
ÙĦÙ Ĩ
ĠØ§ÙĦØª Ø¹
ĠØ£ ÙĬØ¶Ø§
Ø£ Ø³
ĠØ´ Ù
Ø¯Ù ĬÙĦ
Ø±Ø§Ø¡ Ø©
ĠØ§ÙĦÙħÙ ĪÙĤØ¹
ĠØ³ Ø¨
ĠÙĪÙĤ Ø¯
ĠØ¨ Ø£ÙĨ
ĠÙĪØ§ ØŃ
ĪÙģÙ ħØ¨Ø±
Ø±Ø§ Ø¬
ĠÙĬÙħÙĥÙĨ Ùĥ
Ù ĪÙħÙ
Ø³Ø§ Ø¡
ĠÙĦØ ªØ
ĠØª ÙĨØ
ÙĦÙ ĬÙħ
Ī ÙĨØ
20 22
Ø¹ Ø¯Ø©
ĠØ§ÙĦØµ ÙĨØ§
ĠØ µØ§
ÙĤÙ ĪÙĤ
Ø³Ø§ Ø¦ÙĦ
ĪÙĦÙ ĪØ¬
ÙĦÙ ĬÙĨ
i r
Ø¯Ø ±ÙĪ
e b
Ī ÙĤØª
ÙĦØ º
ØªØµ ÙĦ
Ù ĨØ³
ĠÙĪØ§ÙĦ ØŃ
ÙħÙ Ĥ
ĠØ «Ø§
ĠØ§ÙĦØ£ ÙħØ±ÙĬ
ÙħØ ·ØŃÙĨØ©
ĠØ¨Ø± ÙĨØ§ÙħØ¬
ĠÙĪØ§ÙĦÙ ģ
ĠØ§ÙĦÙħØŃ ÙħÙĪÙĦ
Ø¯Ø§Ø® ÙĦ
´Ù Ĭ
ĠØ§ Ø®Øª
Ġ1 8
ĠØªØµ ÙħÙĬÙħ
ÙĦÙ ĪØ
¢ Ù
ĠØ§ÙĦ Ø¨Ø§
¶Ù ĪØ¹
Ġ v
ĠØª Ø¨
Ø¨Ø¯ Ø£
ĠØ¨ ÙħØ
ĠØ¹ÙĦÙĬ ÙĩØ§
p h
ÙħØ§ Ø¡
Ø¦ ÙĤ
ĠÙĦ Ø¯ÙĬ
ĠØ§ÙĦØ¨ ØŃØ«
ĠØ§ÙĦØ£ ØŃ
q u
ÙĤ Ø±Ø£
²Ø ±
Ø±Ø§Ù ħ
Ġ â
¬Ø§Ø ±
ĠÙĪØ °ÙĦÙĥ
ĠØ§ÙĦØ¹ ÙĦØ§
ÙĦÙĤ Ø
Øµ Ùī
ĠØ£Ø³ Ø¹Ø§Ø±
h t
ĠÂ »
ĠØ³Ø§ Ø¹Ø©
ÙħÙĬØ ±
Ġ3 0
ĠÙħÙ Ĭ
ĠØŃ Ø³Ø§Ø¨
Ù ħØ¹Ø
ÙĥØª Ø¨
ªÙ ħØ¹
ĠØ§ÙĦÙħØ ªØ
ĠÙħÙĨ ÙĩØ§
Ø¹Ù Ĩ
Ġ ÙħÙĦØ§
ĠØ§ÙĦØ«Ø§ ÙĨÙĬ
¬ ÙĦ
ĠØ£ ØŃØ¯
·Ø§ Ø
ĠØ§ÙĦØ´Ø± ÙĥØ§Øª
1 4
ĠØ§ÙĦÙħØ ·
in e
Ġ ÙĪÙħÙ
®Ø ·
ħÙ ĬØ
Ġ1 5
ĠÙĪØ§ÙĦØ ¥
ĠÙĦÙ Ĥ
ª Ùĩ
Ø³Ù ĪÙĤ
ÙĦÙ ħØ©
ĠØ§ÙĦÙħ Ø³Ø
hat s
Ġ201 9
±Ø¨ ÙĬØ©
ÙĤÙĬ ÙĤØ©
Ø³Ø· Ø©
Ġ201 6
ĨÙ ī
ĠÙĥØ¨ ÙĬØ±Ø©
Ù ĨØ¨
ĠM ore
Ø³Ø ¬ÙĬÙĦ
1 6
ÙĦØ§ ØŃ
± Ùģ
1 5
t h
ĠØ§ÙĦØ¹Ø§ ÙħØ©
ÙĤØ¯ ÙĬÙħ
es s
Ø³ØªØ ±
ªØ§Ø ª
Ġ y
ÙĬØ§ ÙĨØ§Øª
ĠØ§ÙĦÙĪØ ·
ÙĥØ ±Ø©
ĠØ£ Ø´
ĠØ ¶Ø
ĠÙĪØ§ÙĦØ ªØ
00 0
Ø±Ø§ Ø³Ø©
u m
Ī ÙħØ§
´Ø§ Ø¡
Ø ±Ø¯
ĠØ® Ø¯ÙħØ©
ĠØ§ÙĦØ¥ ÙĨØªØ±ÙĨØª
ĠØ§ÙĦØ¥Ù Ĩ
ĠØª Ø¯
ĠØ± ÙĤÙħ
ÙĬØ ¡
ĠØªØ ±Ùĥ
Ġ Ø¯ÙĪÙĨ
ÙĪØ§ Ø¦
ĠØ§ÙĦØ¹ Ø±Ø§
ØŃØ§ Ø³
ĠÙĦÙĥÙ Ĩ
ĠØ§ÙĦÙĦØ §
ĠØªØ ·Ø¨ÙĬÙĤ
ĠØ±Ø £
ĠØ§ÙĦØ ·Ø
ĠØ§ÙĦØŃ ØµÙĪÙĦ
Ø³Ùħ Ø¨Ø±
ĠÙĦÙ ĪØ
ĠÙħØ ·
Øº Ø©
Ø³Ø§Ø ±
ÙĥØªÙĪ Ø¨Ø±
ĠÙĤ Ø³Ùħ
ĠÙĨØ ¸Ø§Ùħ
Ø¬ Ø±Ø§Ø¡
ĠØªØ¹ ÙĦÙĬ
Ġ ÙĪÙĥ
ĠØµ ÙĨØ§Ø¹Ø©
¦Ø §
ĠØ§ Ø¨ÙĨ
1 8
ÙĪØ¬ Ø¯
²Ø§ Ø±Ø©
Ġ Ø³Øª
e w
·Ù ĪÙĬØ±
ĠÙĨÙĤ ÙĦ
ĠØ§ Ø³ØªØ®
Ġ ÙĬØ§
ØŃ Ø¨
ĠØªØ£ Ø«ÙĬØ±
ħ Ø¨Ø§
ĠØ§ÙĦØ§Ø ª
Ġ ÙĬØ³
Ù ĨÙĬØ§
ĠØ£ÙĨ ÙĪØ§Ø¹
on t
Ġ ÙħØ¹Ø
ħ ÙĥØ§ÙĨ
Ùİ Ùĳ
Ùĥ Ø¯
ĠØ§ÙĦÙĥ Ø«ÙĬØ±
Ø¹ Ø±Ø¶
Ġ U
ĬØ§ Ùĩ
ĠØ§ÙĦÙħÙĪØ§ Ø¯
Ø³Ø ±Ø§
Ø¹Ùħ ÙĦØ©
c om
ÙĪØ «
ĠØŃ Ø³Ø¨
1 3
ÙĪØ ªØ±
ĠØ§ÙĦÙħÙĪØ ±Ø¯
al l
Ø² ÙĦ
ĠÙħÙĨØ °
ĠÙħØ¹ Ø§ÙĦØ¬Ø©
ĠÙĤ Ø·Ø¹
ĠÙĥÙĬÙģ ÙĬØ©
ĠØ§ÙĦØ§ Ø¬ØªÙħØ§
ØŃ ÙĦØ©
_ _
ĠØ§ÙĦÙĥ Ø³Ø§Ø±Ø©
Ġ e
Â ·
Ù ĪÙĤØª
ÙĤ Ø¨
ĠØ£ Øº
Ø´Ø± ÙĥØ©
ĠØ§ÙĦÙħØŃ ÙħÙĪÙĦØ©
Ø³Ù ĬÙĦ
¦ Ù
ĨÙ Ī
Ġ V
ĠÙħØ ´Ø±ÙĪØ¹
ĠÙĥØ «
Ġ >
ĠÙħØ¬ ÙĦØ³
Ù ħÙĥØ§
ĠØ§ÙĦØ µØºÙĬØ±Ø©
ÙĤÙĬ ÙĦØ©
ĠØ¬Ø§ ÙħØ¹Ø©
ĠÙĨÙ ĪÙģÙħØ¨Ø±
ħ Ø¨
ØŃÙ Ī
¬Ø§Ø ±ÙĬØ©
ĠØ§ÙĦØ¥ÙĦÙĥØªØ ±ÙĪÙĨÙĬ
ĠÙĥ ÙĨØª
ĠØ´Ø ®Øµ
ÙĪØ ¸
ÙģØ§ ØµÙĬÙĦ
Ø¢ ÙĦØ©
ÙĦØ§ Ø¯
ØŃØ§Ø ª
Ġ ÙĪÙĤØª
ĠØ§ÙĦÙħØ ·Ø±ÙĤØ©
ĠØªÙ Ī
ĠØ§ÙĦØ ¶
ĠØ§ÙĦÙĨ Ùģ
ĠÙĪØ§ ØŃØ¯
ĦÙ ĩ
ĠØ§ÙĦÙĪÙĦØ§ ÙĬØ§Øª
Ø ªØŃ
²Ù Ĩ
oo k
ÙĪØ ±Ø
Ù Į
¬Ø ªÙħØ¹
ĠØ§ÙĦÙĪ ÙĤØª
o s
´Ø§Ø± ÙĥØ©
ÙħÙĬØ ²
ÙĤÙ ī
ĠÙĦ Ø¨
Ù ĪØ¯
ØªØµ Ø§ÙĦ
£ Ø©
ĠÙĪØ§ØŃ Ø¯Ø©
ĠØ¨ Ø§ÙĦØ§
¸ ÙĩØ±
´Øº ÙĬÙĦ
Ĩ ØŃÙĨ
ÙĦÙ ĪØ§
Ġ201 8
Ø¹Ø± ÙģØ©
G et
ÙĨØ¬ ÙĦÙĬØ
ĠØ§ÙĦØªØ µ
ĠØ§ Ø¨
ĠÙĦÙĦ ØªØ
ĠØ§ÙĦØ§Ø³ ÙħÙĨØª
Ø³Ø ªØ§ÙĨ
Ĭ Ùĥ
²Ø§Ø ª
Ù ĬØ¹
Ø ªÙĬ
Ġ2 4
ÙĬÙĨ ÙĬØ©
ĠØ¨ ÙĤ
Ø¬Ø§ Ø±Ø©
ĠØ§ÙĦØ° ÙĬÙĨ
ĠÙĥØ ªØ§Ø¨
ĠØª ØŃØª
ĠØ ºØ§
ĠØ§ÙĦØ£Ø³ Ø¹Ø§Ø±
ªÙĪÙ Ĭ
ĠØ¨Ø§ÙĦØ ¥
ĠØ§ÙĦØ¬Ø ²Ø§
ÙĥÙĨÙ ĪÙĦÙĪØ¬
ħ Ùĥ
Ù ĨÙĩØ§
ĠØ§ÙĦØ¬ Ø¯ÙĬØ¯Ø©
ÙģØ³ ÙĬØ±
ĠÙĪØ ²
Ġ J
ÙĬØ µ
Ø¯Ù ĨÙĬØ©
ĠØ£ ÙĥØ¨Ø±
Ø±Ø¬ Ø©
ĠØ§ÙĦÙĥ Ø³Ø§Ø±Ø§Øª
ĠØ§ÙĦÙħØ³ØªØ® Ø¯ÙħØ©
ĠØ§ÙĦØ ®Ø§Øµ
ĠÙħÙ ĩ
ĠÙĬØ ŃØ
o p
ĠÙĪØ ±
ĠÙĥØ¨ ÙĬØ±
ÙĦØ§ Ø¨
ĠÙħØ®Ø±ÙĪØ· ÙĬØ©
Ø±Ø ´
ÙĦ Ø³Ø·
ÙģÙ ī
r us
Ġ ÙĨØª
ĠØªØ ±Ø
ÙħÙ ĨØ§
ĠÙĬÙ ĨØ
ÙħØ¹ Ø¯Ø§Øª
ou r
ÙģÙ ĬØ¯
Ø¨Ø§Ù Ĩ
es t
ĠÙĬÙ ĨØ§
1 7
ĠØ§ÙĦÙ ĩØ§
Ø¯ ÙĪØ§Øª
ĠØªØ§ Ø
Ø³Ø§ Ø¹Ø¯
Ĭ Ùĩ
ac t
A pp
±ÙĪ Ùģ
ĠØ§ÙĦØ³Ø§ Ø¹Ø©
ÙĦÙģØ§ Ø
ĠØª ÙĦÙĥ
o c
Ø³ Ø§ÙĦØ©
ÙĤØ§ Ù
Ù ¡
ĠÙĥØ ±
ĠØ¨ Ø±Ø§
ÙĪØ £
ĠÙħØ¯ ÙĬÙĨØ©
´Ø ªØ±
Ø¯Ø® ÙĪÙĦ
ĠØ§ Ø±Øª
ĠØ£ Ø³Ø§
ĠØ§ÙĦÙĨ ØŃØ§Ø³
µØº ÙĬØ±
ØªØ ±Ø©
" :
ĠÙĦ Ø¯
ĠØ· Ø±ÙĬÙĤØ©
ĠØ´ Ø±Ø§Ø¡
ĠØ¨ ÙħØ§
Ġ ÙĬØ¯
ĠØ§ÙĦÙħØ¹ ÙĦÙĪÙħØ§Øª
ĠØ§ÙĦØ¹Ø± Ø¨ÙĬ
ĠØ§ÙĦÙħØ µ
Ø ´Ø§
Ù ĪÙħØ§
ÙĤ Ø¯Ùħ
Ùĩ Ø¯Ø©
r a
Ø±Ø§ÙĨ ÙĬØª
Ġ ÙħÙĥØ§
ĠØ¯ÙĬ Ø³ÙħØ¨Ø±
Ġ1 6
Ø¶Ù Ĭ
ĠØ§ÙĦÙħÙ Ī
Ø¨Ø§ Ø¡
¶Ù Ĭ
ĠØ§ÙĦ Ø³Ø§Ø¨
Ġ on
ÙħÙ ĪØ§
Ø¯Ø® ÙĦ
±ÙĪØ ¶
ħØ¹ Ø¯Ø§Øª
ÙħÙ ĬÙ
Ø§ÙĦØ ¥
° Ø¬
ĠÙģ ÙĥÙĬØ©
Ø¹Ø§ Ø¡
Ø³Ø ®
Ø²Ø§ Ù
i p
ÙĩØ§ Ù
ĠÙħÙ ĬØ
Ø±Ø µ
hats App
Ø¬Ø ²Ø§
Ù ħØ¹Ø§
rus h
Ø§ÙĦ Ø¯
ĠÙĪØ§ÙĦÙ ĥ
ĠØªÙĥ ÙĦÙģØ©
ĠÙĤ Øµ
ĠØ® Ø¯ÙħØ§Øª
Ġ +
ÙĪÙ ĬÙĦ
ĠØ¬ Ø¯Ø§
ĠØ§ÙĦØ£ÙĪ ÙĦÙī
ÙĨØ ªØ
Ù ħØ¨Ø§
ØŃ ÙĬØŃ
Ø¬ ÙĩØ²Ø©
ÙĪØ§ Ø¨
Ø±Ø ±
2 5
ĠØ§ ÙģØ¶ÙĦ
§Ø¦ Ùģ
ĠÙĥÙ Ĭ
ÙĬÙ ĪØ¨
Ġ Ø¯Ø§Ø®ÙĦ
Ø¬Ù Ĩ
2 4
ÙħÙ ī
ĠÙĦÙĦÙ ĥ
ĠØ·Ø §
Ø® Ù
²Ù ĬÙĦ
ĠØ§ÙĦ Ø¯ÙĪÙĦÙ
ÙĦÙģØ§Ø ª
Ù ĨØŃÙĨ
Ø§ÙĦ Ø¬
ĨÙģ ÙĬØ
ĠØ§ÙĦÙĤ Ø¯
Ø§ÙĦÙ ī
Ġ Y
Ø§ÙĦØŃ ØµÙĪÙĦ
ĪÙĦÙ ĬÙ
Ġ ÙĪÙħØ§
¸Ù ħ
ĠÙĦØ ¬
ÙĥÙĨÙĪÙĦÙĪØ¬ ÙĬØ§
in d
Ø¯Ù ĪØ¯
ØŃ ÙĦ
ĠØ§ÙĦØ« Ø§ÙĦØ«
Ø¨ ÙĥØ©
ĠØªØ§Ø ±ÙĬØ®
Ġ201 7
ĠÙĬØ µ
ĠØ§ÙĦØŃ Ø¯ÙĬØ«
ÙĦÙ ĪØ¨
ĠØ³Ù ĨØ©
Ø¹ ÙĬÙĨ
ĠØ§ÙĦÙħ Ø³Ø§
ĠÙĩ ÙĦ
ĠØ§ÙĦ Ø³ÙĬ
ÙĨØ ²
ÙĦÙ ĪÙħ
ĠØ§Ù Ĭ
ĠÙĬÙ ĪÙĨ
Ġ ÙĬØ¨
Ø¨Ø ªÙħ
ÙĦØ§ Ùģ
Ġ *
ĠÙĪØ£ Ù
ĠØ§ÙĦØ§Ù Ĩ
ĠÙĤØ §Ø¦ÙħØ©
Ù ĪÙĨØ
Ġ1 3
ĠØªÙ Ĩ
Ø¨ÙĬ Ø¨
Ġ ÙĨØ³
± ÙĬØ§Ø¶
i b
Ø³Ø§Ù ĨØ©
Ġ1 1
Ø§ÙĦÙ ĩ
ĠØ¨ Øµ
ĠØ§ÙĦØ ±ÙĪ
Ø¨ØªÙħ Ø¨Ø±
´Ø§Ø ±Ùĥ
Ø¬Ø§Ø ª
Ùĩ ÙĬØ²
ÙĦÙ ĪÙĦ
ĠØ§ ÙĨØª
ĠØ¨Ø§ÙĦÙ ħÙ
«Ø§ Ø
ÙĦ Ø¹
ĠØ¬ Ø²
ÙĬØ ±ÙĪ
ĠÙĪØ§ÙĦ Øµ
·Ø§ ÙĤ
ĠÙħÙĨØ ªØ¬Ø§Øª
) ØĮ
ĠÙĦÙ Ĩ
Ġ K
Ùĩ ÙħØ§
ĠØ£ ÙĬØ¶
ĠÙĦÙ ĬØ³
Ø·Ø§ Ø¹
ĠØ¹ Ø¨Ø§
ĠØ£ ÙĥØªÙĪØ¨Ø±
ĠA l
Ġ ÙĬØ¹
µØ ±ÙĬ
ĠØ§ÙĦØ£ Ø±Ø¶
ĠÙħÙĨØ ªØ¯Ùī
ĠÙĦÙĥ ÙĦ
ÙħØ µÙĨØ¹
ĠØ¹ÙĨØ¯ ÙħØ§
Ø³ Ø¹
ĠØ§ÙĦÙĨØ§ Ø³
Ø¹Ø§ Ø¨
ĠØ§Ø ª
ĠØ§ÙĦØ¯ ÙĥØªÙĪØ±
ÙĦØ³ ÙĦ
ÙĨØ ·
ÙĪØ ±Ø§Øª
Ġf or
ĠØ« ÙĦØ§Ø«
ĠØ§ÙĦÙħÙ ĤØ§
º Ø©
ĠØ§ÙĦØ¨ ÙĨØ§Ø¡
¶Ø§ Ø¡
ÙĨÙ Ī
Ø¨ÙĬ ÙĦ
¬Ø§ Ø±Ø©
Ø´ Ø±Ø§Øª
ĠÙĬØ ªØ
ÙĥØ§Ù ħ
ĠÙħØ± ÙĥØ²
®Ø§ Ø
Ø·Ù Ĭ
Ø· ÙĤ
ĠØ£ Ùĩ
Ø¦ Ø¨
ĠÙĪØ§ÙĦ Ø³
´Ø± ÙĥØ©
Ī ÙĥØ
Ġ is
ĠÙĪØ§ Ø
ĠØ§ÙĦÙħØ ±Ø§
ĠØ£ Ø¨ÙĪ
ĠØ¨Ø§ÙĦØ ª
ĠØ§ÙĦØ ¶Ø
ĠØ§ÙĦØŃ Ø¬Ø§Ø±Ø©
ĠØ£ ØŃÙħØ¯
o v
Ġ ÙħØ¹Ø§
ĠØ§ÙĦÙĥ ÙĩØ±Ø¨Ø§
ĠØ¨ Ø¯ÙĪÙĨ
ĠØ¹ Ø±Ø¶
ĠÙĦÙ ĬØ
a il
ĠØ§ÙĦÙģ Ù
ĠØ§ÙĦØ¬ Ø¯ÙĬØ¯
ĠØ ®Ø§ØµØ©
ĠI n
®Ø ª
" .
Ġ2 5
ÙĦ Ø¯
ĠØ§ÙĦØ±Ø¦ÙĬØ³ ÙĬØ©
Ġ r
ĠØ§ÙĦØ§ ÙĤØªØµØ§
ÙĤØ± ÙĬØ±
i f
ÙĤ Ø§ÙĦ
ºÙ ħ
Ùĭ ØĮ
ĠØª ÙĪØ
ĠÙĪØ ºÙĬØ±
ĠØ§ÙĦØ´Ø ®Øµ
ĠØ¨ Ø¬
ĠØ¯ÙĪ ÙĦØ§Ø±
c e
Øµ Ù
ĠØ§ÙĦÙħØ µØ±
¢Ù Ĩ
Ģ ÙĢ
Ù ħÙĥ
Ø¨Øª Ø¯Ø§
Ġ ÙħØ¨Ø§
ĠÙĪØ§ÙĦ Ø¹
Ø§ÙĦÙ Ĥ
ĠØŃ Ø§ÙĦØ©
i k
Ù ĪÙĩ
Ø² Ø©
ĠØ§ÙĦØ´ ÙĬØ®
² ÙĬØ§
ĠØ§ÙĦØ£ÙħØ±ÙĬ ÙĥÙĬØ©
± ÙĥØ©
ĠÙĪØ§ÙĦÙ Ĥ
Ø±Ø§ Ùģ
ĠØ§ÙĦØ³Ù Ī
ĠØ§ÙĦÙĥÙ ĪÙĬØª
Ø³Ø± Ø¹Ø©
ÙĦÙĬÙ ĪÙĨ
ĠØ§ÙĦØ¯ Ø±Ø§
Ø®Ø °
ĠÙĦ ØŃ
ĠØ¨ Ø³Ø¨Ø¨
Ġ5 0
¸Ø §Ø¦Ùģ
´Ø§Ø ª
ĠÂ ·
Ù ĪÙĥØ
Ø¨Ù ĪÙĦ
ĠÙĪØ§ÙĦ Ø¯
ĠØ¨ ÙĨØ§Ø¡
ĠØªØ± ÙĥÙĬØ¨
ÙĪØ± ÙĬØ§
Ùĳ ÙĲ
Ø¨Ø±ÙĬ ÙĦ
Ø¯ ÙĤ
ĠØ§ÙĦØ®Ø ±
ĠØ¨Ø§ÙĦÙ ħØ
Ø¨Ø ®
o g
ĪÙ Ĭ
Ø¨Ø§ ØŃ
ØªØ ±
ÙĩØ§ Ø¨
20 21
ªØ§ ØŃ
ĠØ¨ ÙĪØ§
ĠØ³ ÙĬØ
Ø²Ø§Ù ħ
ĠÙħØ ±Ø
ºØ °ÙĬØ©
ĪÙĦÙĬÙ Ī
Ġ ÙĬÙĨ
Ø¨Ù ĪØ¹
ĠØªØ ªØ
il l
ÙĪØ§Ù ĨØ©
ĠØ£Ù ĪÙĦ
ĠØ Ł
ĠØ´ ÙĩØ±
µ Ùģ
ÙĦÙħØ§ Ø
Ùĥ ÙĪÙħØ©
ĠØ£Ù ħ
ĠØ§ÙĦÙħÙĨØ ªØ¬
ÙĥØ§Ø ±
ĠØ¯ Ø¨ÙĬ
· Ø¨
ĠØ£Ø¬ ÙĦ
ÙĩØ ª
ĠØ§ÙĦØ ªÙ
µØ§ Ø
Ġp ro
ĠØ§ÙĦØ£ Ø³Ø§
ĠØ§ÙĦØ´ Ù
ĠØ§ÙĦØ£Ø³ ÙħÙĨØª
Ø² ÙħØ©
Ġ ÙĪÙĨØ
ĠØ§ÙĦÙħØ µÙĨØ¹
Ĩ Ùĩ
Ġ k
ĠØ¨Ø§ÙĦÙ ĥ
ĠØ§ÙĦÙħÙĨØ ªØ¬Ø§Øª
Ø³Ø· ÙĪØ§ÙĨØ©
ĠØ¨ Ø·
ĠÙħØ§ Ø±Ø³
ÙĨÙĬ Ùĩ
ĠØ§ÙĦÙĥØ ±
§ ØªØµÙĦ
ĠØ§ÙĦØ·Ø§ ÙĤØ©
Ø §ØªØµÙĦ
ĠÙĥØ§Ù ħÙĦØ©
Ø« Ù
Ùģ Ùĩ
² ÙĬØ©
a k
ĠÙĪØ ®
Ø£ Ø
ØŃØ§ Ø¯
ÙĦÙħØ§Ø ª
ÙĤÙ ĪØ¯
i es
Ø§ÙĦÙ ĬØ
Ġ1 7
ÙĬØ ¬Ø§
Ń Ø©
Ø¹Ù ĪØ¯
ĠØ§ÙĦÙģØ §
ÙĨØ ´Ø§Ø¡
ĠØª Ø¹ÙħÙĦ
ÙĪØ ¡
Ø¦Ù ħ
Ġ ÙĨÙĩØ§
a v
² ÙĬØ²
e ad
Ø³ÙĬ ÙĤ
ĠØ§ÙĦØ¹Ùħ ÙĦØ§Ø¡
Ø³Ø· Ø³
, "
Ø¹ Ø¯Ø§Ø¯
ĠØ§ÙĦØ®Ø ·
ĠÙĦÙĦØ ¥
ĠØ§ÙĦØ¨ ØŃØ±
ĠØ§ÙĦØª Ø¹Ø§
ĠØ§ÙĦØ£ Ø®
ĠØ§ÙĦÙħØ¹Ø§ Ø¯ÙĨ
ĠÙĥÙ Ī
p l
ĠØ¨Ø§ Ø
ĠØ§ÙĦØªØ ¬Ø§Ø±ÙĬØ©
ĠÙĦÙĥÙ ħ
¦Ù Ĭ
ØŃØ§ Ù
Ġ ÙĪØ¯
Ġp rice
Ø·Ø§Ø ª
ĠØ§ÙĦÙĤ Ù
ĪÙĤ Ùģ
ĠØ± ÙħØ
ĠØ§ÙĦØ¥Ø³ ÙĦØ§
ĠÙħØ¬ Ø§ÙĦ
ou t
ĠØ§ÙĦÙħØ ªÙĨÙĤÙĦØ©
Ø³ Ø¹Ø±
ĠÙħØ ·Ø§ØŃÙĨ
ĠØ§ÙĦÙĦ ØºØ©
Ĩ Ø¯Ø§
ĠØ³ÙĨ ÙĪØ§Øª
ĠØ§ÙĦØªØ ±
ÙĤ ÙĤ
Ø¬Ø§Ø ±
·Ù Ĩ
ĠØ³ Ø¨ØªÙħØ¨Ø±
ÙģØ§ ÙĤ
ĠØ§ÙĦÙħ Ø¹Ø
ĠØ£ÙĨ ÙĩØ§
¸Ø§ Ø
Ø±Ø§Ø ¶
ÙĬØ§ Ø±Ø§Øª
ÙĥØ ªØ
ĠØ µØºÙĬØ±
Ġ ÙĨÙĬ
ÙĪØ± ÙĥØ³
Ġ ÙĪÙĥØ
ÙĬØ±Ø§ Ø
Ø³Ø§Ù ħ
t r
ĠØ§ÙĦØªØ £
®Øµ Øµ
ĠØ§ÙĦØ³ÙĬØ§ Ø±Ø§Øª
ĠØ¹Ø ±ÙĪØ¶
ĠÙĬÙĨØ§ ÙĬØ±
ĠÙĬÙĪÙĨ ÙĬÙĪ
m ent
ÙħØ§ ÙĬØ©
ĠÙĦÙ Ī
ĠØ µØ
Ø¹ ÙĦØ§Ùħ
ÙĦØ ºØ§
ĠØ ºØ±
ĠÙĦÙ ħØ§
9 9
Ø³Ø ªÙĬ
Ø²Ø§ Ø
ĠÙĪØ ´
ĠØ§ÙĦØ´ Ø¹Ø±
ĠØ¹Ø ±
ĠØ§ÙĦØ¹Ø§ÙĦÙħÙ ĬØ©
Ø¶Ø§ Ø¡
Ø¬Ø²Ø§ Ø¡
ĠÙĪØ§ÙĦ Ø¨
g et
ĠØ§ÙĦØ¹Ø±Ø§ ÙĤ
ĠØ§ÙĦØ§ ÙĨØªØ±ÙĨØª
ĠØ§ÙĦØ¬Ø²Ø§ Ø¦Ø±
«Ø§ Ø«
ĠØ§ÙĦÙħØ ´Ø§
ÙĤÙ Ī
ĠØ§ÙĦØ¥ ÙħØ§Ø±Ø§Øª
ĠØµ ÙĬØ§ÙĨØ©
ÙħØ§ Ø¯
ĠÙģ Ø¹
ĠØ£ ÙĤ
ÙĪØ§ Ø±Ø
2 3
ĠØ§ÙĦØ£Ø ±
±ÙĪÙĨ ÙĬØ©
ĠÙĨØ ·Ø§ÙĤ
ĠØŃ Ø¬Ùħ
w w
ĠÙĪØ ·
Ø¨Ø±Ø§ ÙĬØ±
ÙĩØ ¬
ĠØ§ÙĦÙĤ Ø±Ø
ĠÙħÙĨØ ·ÙĤØ©
·Ù Ĭ
ĠØ§ÙĦØ¹ ÙĦÙħÙ
Ø±Ø§ Ø©
ĠØ§ÙĦØ³Ù ĪÙĤ
Ø¨Ø§ Ø·
Ø³Ù ī
ĨÙ ĪØ¹
µÙ ĪÙĦ
ĠÙĥÙ ħ
t p
ĠÙĦØ ·
Ġ ÙħÙĥ
at e
ĠÙĦ Ø¹Ø¨Ø©
ĠØ¥ Ø³
ĠØ§ÙĦØŃ ÙĬØ§Ø©
ħØ¨ÙĬ ÙĪØªØ±
ÙĬØ¯ Ø©
ĠÙĪØ ªØŃ
Ù ĪÙĦÙĬ
ºØ °Ø§
ar e
ĠÙĦÙĦ Øµ
ªØ ®
ĠÙħØ§ Ø
ĠØŃ Ø¯
ĠØŃÙ Ĭ
6 0
ĠÙĤ Ø·Ø±
Ī ÙĩØ°Ø§
ĠØ£ ÙħØ§
Ù ĪÙĩØ°Ø§
ĠØªØ ®
ĠÙĬØ ´
ĠØ´ ÙĬØ¡
ĠØ§ Ø³Ùħ
ĠØª ÙĩØ
ĠÙħØ§ ÙĬÙĪ
Ù ħÙĥØ§ÙĨ
ĠØª Ùģ
ŃØ§ Ø
ĠØ§ÙĦØ£ Ø®Ø±Ùī
ÙĦÙ ĪÙĨ
ĠØ¨ ÙĦØ§
ÙĩØ °Ùĩ
ħØ¯ ÙĬÙĨØ©
ÙħÙ ħ
ĠÙĪØ ¬ÙĪØ¯
Ø¹Ù ī
ĠØ§ÙĦØ´ Ø¹
Ø³Ù ĪÙĦ
ĠØ§ÙĦØ± Ø³
ÙĬØ±Ø§Ø ª
ĠØ³Ù ĪÙģ
ĠâĢ ¦
ĠØ§ÙĦØ¯ ÙĬÙĨ
ÙħÙ ĪØ¯
ĠØ¬ ÙĩØ§Ø²
Ġ ÙĨØŃÙĨ
Ù ħØ¨
µØ§ Ø¯Ø±
Ø¨Ø ±Ø©
ÙĨØ§ Ø©
ÙĥÙ ĬÙĦ
ÙħÙ ĪØ¯ÙĬØ©
ĠØ§ÙĦÙĩÙ Ĭ
ĠØ±Ø§ Ø¦
ÙģØ¸ Ø©
an g
ĠØ§ÙĦØ¥ÙĨ Ø³Ø§ÙĨ
·Ø§ Ù
ĠØ£ Ø«
ĠØ§ÙĦÙħ Ø§ÙĦÙĬØ©
ĠØ§ÙĦÙħÙ ĬØ§Ùĩ
iv e
ĠØ¹ Ø¯Ùħ
ĠØ§ Ø®Ø
Ø¹Ù ĨÙĬ
ĠØ§ÙĦØ ºØ§
ĠØ§ØŃ ØµÙĦ
ĠÙħØ§Ùĥ ÙĬÙĨØ©
Ø¶ ÙĬØ©
o d
Ùĩ ÙĪØ±
Ī Ø¯ÙĬ
·Ù ĬØ¹
ÙĤØ§Ù ħ
Ø±Ø ¦ÙĬØ³
ĠØ§ÙĦÙħ ÙĦÙĥ
ÙĦØ§ Ø©
ĠÙħØ ®
ĠÙĪÙĦØ§ ÙĬØ©
¤ Ø
ĠÙĪØ ¶Ø¹
ĠØ§ÙĦØ· Ø¨ÙĬ
ÙģØ ´
Ø³ ÙĪØ§
ÙħÙĪØ ±
Ú ©
Ġ us
ÙĥÙĬÙģ ÙĬØ©
Ø¬Ø ²
ĠÙħØ µØ§ÙĨØ¹
Ùģ ÙĬØ±
ĠØ§ÙĦØªØ¹ ÙĦÙĬ
ĠØ§ÙĦÙħ ÙĦØ§
µÙ Ĭ
ĠÙĥØ ªØ¨
µÙ ħ
ĠØ¥ Ø¯Ø§Ø±Ø©
ĠÙħØ¹ ÙĦÙĪÙħØ§Øª
ĠØ³Ù ĪÙĤ
ĠÙĪØ§ÙĦ Ø¬
ac h
Ġ ÙĪÙĦ
ĠØ§ÙĦÙĨÙģ Ø·
Ġt h
ÙĦØ µ
Ø¹ ÙĦØ§ÙĨ
ĩÙ ĨØ¯
a p
Ø¹ÙĦÙ ĬÙħ
Ø³ ØŃÙĤ
ĠØ§ÙĦÙħØ ´
Øµ ÙģØ§Øª
ĠØªØ ±Ø§
/ /
ĠØ± ÙĪØ§
ĠØªØ ·
ĠØª ÙĨØ§
Ġ $
ĠÙĬÙ ĪÙĦÙĬÙĪ
ĠØ§ÙĦÙħØ®Ø ª
µØ§ Ø¦
ĠÙħÙĨ Ùĩ
ĠÙĪØ ²Ø§Ø±Ø©
or t
2 7
ÙĬØ¯ ÙĬÙĪ
ĠØ§ÙĦÙħØ «
ĠØ§ÙĦØ£ ÙħØ±
ĠÙģ ÙĤØ¯
ĠâĢ ı
ĠØ§ÙĦØ· ØŃÙĨ
ĠÙĥØ§ ÙģØ©
ĠØ§ÙĦØ£ Ø¹ÙħØ§ÙĦ
ĠØ§ÙĦÙħØŃ Ø¬Ø±
Ø³ Ø³Ø©
Ø²Ø§Ø ª
ÙģØ§Ø¡ Ø©
Ø ´Ø
±Ø¨ Ø¹
Ġ ÙĪÙĩ
ĠÙĪØ§ÙĦÙ ħ
Ø³ØªØ ·ÙĬØ¹
ĠÙħØ ±Ø©
ĠØ§ÙĦØ¬Ù ĪØ¯Ø©
ªØ§ Ø¦
ÙĤØ§ Ø¡
ª Ùģ
ĠØŃ Ø¯ÙĬØ«
Ù ¢
Ùĥ Ø³Ø§Ø±Ø§Øª
ªØ§Ø ±
Ø¨ÙĪ Ùĥ
ÙĤ Ø¨ÙĦ
¤ ÙĬØ©
ĠØ¶ Ø¯
ÙĬØ¬ Ø©
Ø·Ø§Ø ±
ĠÙĦÙĦÙ ģ
¶Ø ±
Ø¯ ÙĬÙĪ
Ġ ÙħÙĥØ§ÙĨ
ªÙ ħØ¯
Ùģ ÙĦØ§Ùħ
2 8
ÙħÙĩ ÙĪØ±ÙĬØ©
Ø§ÙĦÙ ĩØ§
ÙĩØ¯ Ùģ
ĠØ§ÙĦØ£ Ø¨
ĠØ¹ÙĦÙĬ Ùĥ
ĠØ¥ ØŃ
ªØ§Ø¦ Ø¬
ĠØ¨Ù Ī
²Ù ħ
ĠÙĪØ ±Ø
ÙĪØ ´
ÙħÙĪØ °Ø¬
§ ÙĤØ±Ø£
ĠØ§ÙĦØ¬Ø ²
Ø §ÙĤØ±Ø£
ĠÙĦØ °ÙĦÙĥ
° ÙĥØ±
ĠÙĦÙ ĩØ
Ø¹Ø ¶Ø§Ø¡
Ø¨ ÙĤ
ĠØ§ÙĦØª Ø¹ÙĦÙĬÙħ
ĠØ§ÙĦØ£ Ø³Ø
ĠØ¬Ù ĪØ¯Ø©
ħ ÙĦÙĬÙĪÙĨ
ĠØ¨Ù Ģ
ĠØ§ÙĦØŃ Ù
Ø¦ Ø©
Ġ ÙĪÙĩØ°Ø§
ÙħØ« ÙĦ
ag e
ĠÙģ Ø¨Ø±Ø§ÙĬØ±
ĠÙĪÙ ħØ¹
ªØ ´
ĠÙĪØ£Ù Ĩ
ĠØ¹ ÙħØ±
ĠØ¹ÙĨ Ùĩ
ĠØ§ÙĦØª ÙĪØ§ØµÙĦ
e x
ĠØ¨Ø§ÙĦÙ ģ
ªØ§Ø¨ Ø¹Ø©
Ø¨Ù ĪØ¨
ĠØ§ÙĦØ¯ÙĪ ÙĦØ©
Ù ħÙĦÙĬÙĪÙĨ
ÙĥÙ ħØ©
ĠØ³ÙĬØ§ Ø±Ø§Øª
ĠØ£ ÙĩÙħ
ĠØ§ÙĦØ®Ø± Ø³Ø§ÙĨØ©
Ĭ Ø³Øª
ĠÙħØ ªÙĪ
2 6
ĠØ¨Ø§ Ø³ØªØ®Ø¯Ø§Ùħ
ĠÙĦÙĦ Ø¨
ĠØ¨ÙĨ ÙĩØ§
ĠÙħÙ ħØ
ª ÙĦ
§Ø¦ Ù
ĠÙħØ®Øª ÙĦÙģØ©
¬ Ø¯
Ø³ Ø¹Ø§Ø±
ĠØ£Øº Ø³Ø·Ø³
ĬÙģ Ø©
ĠØ§ÙĦØ ®Ø§Ø±Ø¬
ĠØ§ÙĦÙħØ ºØ±Ø¨
ĠØ§ÙĦØ® Ø¯ÙħØ§Øª
ĠÙħØ¨Ø§Ø ´Ø±
ĠØ§ÙĦØ³Ù ĨØ©
Ġ ÙħÙĦ
ĠØ¥ Ø
ÙĤÙ ĨÙĬØ©
ÙĤÙ Ĩ
ĠØ§ÙĦÙĤØ§ ÙĨÙĪÙĨ
ĠÙĦÙĦÙ Ĥ
ħ ÙĥÙĨ
Ø¯ ÙĬØ±
ĠÙħØ³Ø ªÙĪÙī
ĠØ§ÙĦØ«Ø§ ÙĨÙĬØ©
ĠÙĦØ ªØŃ
ª Ùĥ
Ø¯Ø§ ÙĬØ©
Ø¬ ÙĬØ±
Ġ ÙħÙĦÙĬÙĪÙĨ
ÙĪØ§Ø¦ Ø¯
ĠØ§ÙĦØ¯ÙĪ ÙĦÙĬ
ĠØ£Ø ±
ĠÙĦÙ Ģ
ĠØ§ÙĦÙģ ØµÙĦ
ĠØ§ÙĦØª ÙĥØ³ÙĬØ±
ĠØ ®Ø§
Ø±Ø§ Ø¯
ĠØ§ÙĦØ ªÙĨ
ĠØ§ÙĦØ§ Ø³ØªØ
ĠØ¶ ÙħÙĨ
Ġ201 5
ĨÙ ĬØ³
ĠØ£ Ø·
âĢ İ
ĠØ§ÙĦÙħÙ Ĭ
ØŃ Øµ
·Ø¨ÙĬ ÙĤØ§Øª
·Ø§Ù Ĩ
ĠÙħØ¨Ø§Ø ´Ø±Ø©
ºÙĬ ÙĬØ±
ĠØ§ÙĦÙħÙ ĩ
ĠØ§ÙĦØ´Ø§ Ø´Ø©
ĠØ§ÙĦØ« ÙĤÙĬÙĦØ©
ĠØ§ÙĦØ§ ØªØµØ§ÙĦ
ec t
ĠØ§ÙĦØ ªØ§Ø±ÙĬØ®
ĠØŃ Ø²
ĠØ± ÙĬØ§Ø¶
ĠØ§ÙĦØµ Ùģ
Ø§ÙĦØ ªØ
ĠØµ ÙĨØ§
ÙħØ ´
ĠÙħÙĪØ§ ÙĤØ¹
Ĭ ÙĪØ¬Ø¯
ĠØ±Ø ¬
o st
ÙĦØ ²
ÙħÙĬØ ª
Ġ2 3
¶ ÙħÙĨ
° Ø©
ĠØªØ±Ùĥ ÙĬØ§
is h
ŃØ§Ø ª
ĠØ§ÙĦØ µÙ
Ùĥ ÙĦØ©
ĠØªÙĤ ÙĪÙħ
Ī ÙĥØ§ÙĨ
Ø§ÙĦ Ø¹
Ĭ Ø¹Ø
Øµ ÙĪØ±
ĠÙģÙĬ ÙħØ§
ĠØ§ÙĦØª ÙĤ
ĠØ§ÙĦÙħØ ®
on e
ºØ§ Ø
Ù ĪÙĥØ§ÙĨ
Ù ĬÙĪØ¬Ø¯
Ù ĬØ¹Ø
ĠØ£ Ø¹
ÙĨØ¬ÙĦÙĬØ ²ÙĬØ©
ÙĥØ ±ÙĬ
ĨÙģÙĬØ °
µØ§ Ø¯
ĠØ§ÙĦØµÙĨØ§ Ø¹ÙĬØ©
ªØ§ Ø¨Ø©
Ġ ÙĪÙĦÙĬ
ĠØ£ Ø¨ÙĬ
ĠÙģØ ªØŃ
ÙĦØ ·
ÙģØ ªØ
ĠØ§ÙĦÙħØ±Ø £Ø©
ĠØ£ Ø¨Ø±ÙĬÙĦ
ĠØ§ÙĦØ£ Ø³Ø·ÙĪØ§ÙĨØ©
ÙĪØ ±Øª
ĠØª ÙĤØ¯ÙĬÙħ
Ø¹ÙĦØ§ ÙĨØ§Øª
ÙĪØ± Ø¯
ĠØ§ÙĦØµ ÙĪØ±
Ġs t
Ġ201 3
Ġ2 6
ĠØ¨Ø ªØ
ÙĬØ± ÙĬØ§
ÙģÙ Ī
ĠÙģØ ±
Ġ201 4
Ø¨Ø «
an t
ĠØ§ÙĦØª Ø¯Ø§ÙĪÙĦ
ÙĦ Ø¨Ø§Øª
Ġ re
ĠØ§ Øµ
Ù ĬØ³Øª
ĠØ¯ ÙĪØ±
Ø£Ù Ĭ
ĠÙħØ³Øª Ø¹ÙħÙĦØ©
ĠÙĪØ³ ÙĦÙħ
ĠØ³Ø ±ÙĬ
ĠÙħØ§Ùĥ ÙĬÙĨØ§Øª
ar t
ĠÙĦÙĦ Ø¬
it e
ĠØ¹Ø ´Ø±
Ø³ØªØ« ÙħØ§Ø±
ÙĥÙĪ ÙĬÙĨ
ĠØµ ÙĦÙī
: //
Ø³Ø· ØŃ
ĠØ§ÙĦÙ Ģ
Ø¯Ø§ Ùģ
Ĩ ØŃÙĪ
ØŃØ °ÙĬØ©
¶ Ø©
ĠØ§ÙĦØ¹Ùħ ÙĦØ§Øª
ĠØ§ÙĦØ§ ØŃØª
ĠØ® ÙĦÙģ
µØ§ Ø¨
Ø¹Ø¯ Ø¯
ĠØ§ÙĦØ£Ù Ĩ
ÙĩØ§Ø ±
ct ion
ĠÙĪØŃ Ø¯Ø©
ĠÙħÙĥØ§ ÙģØŃØ©
ØŃ ÙĦÙĤØ©
Ĭ Ø¹ÙħÙĦ
Ù ĬØ¹ÙħÙĦ
Ø¨ Ø¹Ø©
Ø¨ ÙĦØ©
ĠÙĪØ§ÙĦØ ®
Ø ªØ¨
ÙħØ¹ ÙĬØ©
ĠØ§ÙĦÙĤØ±Ø ¢ÙĨ
Ø¯Ù ĨÙĬ
n d
ĠØªÙĤ Ø¯Ùħ
ĠØ§Ø³ Ø¹Ø§Ø±
Ù ĨØŃÙĪ
Ĭ ÙĦÙĬ
ĠØ¯Ø§ Ø¦
ÙĬÙģ Ø©
ĠØ§ÙĦÙħÙĨØ ²ÙĦ
ĠÙĦ Ø¯Ùī
¬Ø§ Ù
ĠØ ²Ø§
Ø¯Ø ¡
ĠØ§ÙĦØ¬ Ø±Ø§ÙĨÙĬØª
ÙĤ Ùģ
ĠÙħØŃ Ø¬Ø±
Ġ &
Ġ {
ĠØ§ÙĦØ³ ÙĦØ§Ùħ
ĠØ±ÙĬ ÙħÙĪÙĨ
Ġ2 7
Ø¨Ø§ Ø³
¬Ù Ī
Ø¶Ù ĬØ¹
ÙĦÙħØ§ ÙĨÙĬØ§
Ġ2 2
Ġ ÙĬØ¹Ø
ĠØ§ÙĦØ¬Ø§ ÙħØ¹Ø©
ĠØ§ Ø¹Øª
ĠÙĦÙĦÙ ħ
ĠâĢ ¬
ĠØ ®Ø§Øµ
±Ø§Øª ÙĬØ¬
ĠØ§ÙĦÙĪØ· ÙĨÙĬ
ĠÙħÙĦØ§ Ø¨Ø³
ħ Ø§ÙĦÙĬØ
ĠØ§ÙĦÙħØ º
ØŃØ ¸
ĠÙĨØ ¸
ÙĬØ§ Ø³
ØŃÙ ħÙĦ
ØŃØ§ Ø¨
ĠØ¯ ÙĦÙĬÙĦ
ĠØ§ÙĦ Ø¯ÙĪÙĦ
ĠØ§ÙĦÙģØ ±ÙĨ
ĠØ§ÙĦÙħØ ¬ØªÙħØ¹
ĠÙĪØ§ÙĦ Ø·
ĠØ§ÙĦ Ø¯Ø§Ø®
±Ø¬ ÙħØ©
4 0
ĠØ¯ÙĪ ÙĦØ©
ÙĪÙ ĨÙĬ
ĠØ¨Ø§ÙĦ Ø£
âĢĿ .
Ù ħØ§ÙĦÙĬØ
a h
ub e
ĠØ¨Ø§ÙĦØ¥ Ø¶Ø§ÙģØ©
Ġ ÙĨØŃÙĪ
ĠÙĦÙĦ Ø´
Ø¯Ø± Ø³Ø©
ÙĦ Ø¨Ø©
Ø²Ù ħ
ĠÙĪØ§Ø ª
ĠØ§ÙĦØ± ØŃ
ÙĤØ§ Ø¦
Ùĩ ÙĬÙħ
ĠØ§ÙĦÙħ Ø§ÙĦ
ĠÙħØ ²
Ù ĪÙĬØª
ÙĬØ ±Ø
Ø³Ù ĪØ¯
Ġ ÙĬØ³Øª
Ø ¥ÙĨ
ĠÙĥ ÙĦÙħØ©
Ø¹ Ùĩ
Ø±Ø ¦
ĠØ§ÙĦØ³Ù ĬØ¯
ÙĤØ§Ø ±
ÙĦÙĬ Ùģ
1 00
ĠØ§ÙĦÙģ ÙĪØ±ÙĥØ³
ĠØ¨ Ø·Ø§
Ĩ ÙĪØ§Øª
ĠÙģ Ø±ÙĬÙĤ
ÙĪØ§Ø±Ø ªØ²
Ĭ ÙĤÙĪÙĦ
ĠØ§ÙĦØª Ø³
¶Ù Ī
Ù ĬÙĤÙĪÙĦ
Ø¨ÙĪ ÙĨØ§Øª
±Ø§Ø ±
Ùĥ ÙħØ§
ĨØ³ Ø¨Ø©
¶Ø§ Ù
ĠØ¥ Ø¹Ø§Ø¯Ø©
Ø¯ÙĪÙ ĨÙĬØ³
ĠØ´ Ø¨ÙĥØ©
ÙĪÙĬ ÙĤ
ĠÙĪØ ¢
Ø¨Ù ĬØ¯
s e
ĠÙĤ Ø¯Ø±Ø©
ĠØ§ÙĦØ¯ÙĪÙĦÙ ĬØ©
ĠØ¯ ÙĪØ±Ø©
ĠÙĪØ§ÙĦØ ´
ĠØ§ÙĦØ¬ ÙĩØ§Ø²
ĠØ¹ ÙĦÙħ
µØ± Ùģ
rush er
ĠØ§ÙĦÙħØ®Øª ÙĦÙģØ©
ÙĨØ§ ÙĬØ©
o b
Ø· Ø¹Ø©
ĠØ§ÙĦØ£ Ø·ÙģØ§ÙĦ
ÙħØ ±Ø©
= =
ÙĤ Ùĩ
ÙħÙ ĨØ©
Ø¯ ÙĬØ§Øª
Ø¨Ù ī
ØŃØ ¶
ĠØ§ÙĦÙ ĬØ§
Ġ Ø³ØªØ
ÙħØ§ÙĦÙĬØ ²ÙĬØ§
ĠØ§ÙĦÙĨØ ¸Ø§Ùħ
ĠÙĬØ ¤
ĠÙĦØ µ
ĠØ¨ ÙĬØª
ØŃ ÙĬÙĨ
ĠØ§ÙĦØ¹Ø± Ø¨
ĠØ§ÙĦØŃ ØµÙī
Ø ±Ù
ĠØ± Ø³
Ø¹ Ø¯Ø§
Ø¯ Ø³
ĠØ§ÙĦØ¥ ÙĨØªØ§Ø¬
Ø¯Ø§Ø «
ĠØ¨Ø§ Ùĥ
Ø· ÙĦØ§ÙĤ
ĠÙĤÙ ĪØ©
ĠØ§ÙĦÙħØ ªÙĪ
Ø§ÙĦÙ ĪØ
Ø³Ø ªØ§
´Ø ®Ø§Øµ
ĠØŃ ÙĬÙĨ
Ø ªÙģ
ÙĢÙĢÙĢÙĢ ÙĢÙĢÙĢÙĢ
d f
ÙħØª Ø¹
ĠØ£ ÙħØ§Ùħ
ÙĬÙ ĬÙģ
ĠØ§ÙĦØ±Ø £
Ī Ø³Ø§Ø¦ÙĦ
ĠØª Ø¯Ø§ÙĪÙĦ
ĠØ§ÙĦÙĤØ§ ÙĩØ±Ø©
Ġ ÙĬÙĪØ¬Ø¯
¶Ù ħ
ĠØ§ÙĦÙħØ§ Ø¡
ªØ ±ÙĬ
ÙĪÙĦÙ ĬØ©
ĠØ§ÙĦØ±Ø§ Ø¦
ĠØ§ÙĦÙħÙĪØ ¶ÙĪØ¹
ĠØªØ¹ Ø§ÙĦÙī
ĠØ§ ØŃØª
ĠØº Ø³ÙĦ
ÙĤØ§ ÙģØ©
ĠØ£ ÙĨØ
Ġ ÙĬØ¹ÙħÙĦ
ĠØ§ÙĦÙħ Ùĥ
ĠÙĥØ§ ÙħÙĦ
2 9
ĠØ¥Ù Ĭ
Ø·Ù Ĩ
ĠÙħÙ ħÙĬØ
Ī ÙĬÙĨ
Ø±Ø§ Ø±Ø©
ÙĪØ±ÙĪ Ø¨Ø§
Ùĩ ÙĬØ±
ĠØ§ÙĦØ³ ÙĦØ
ĠØªÙĩØ ªØ²
ĠØ§ÙĦÙħÙĨØ ·ÙĤØ©
ĠØª ÙģØ³ÙĬØ±
Ø±Ø§ Ø¦
ĠØ§ÙĦØ£ Øµ
ĠØ§ÙĦÙħØ µØ±ÙĬ
âĢ ¬
Ø¹Ùħ ÙĦÙĬØ©
ĠØ§ÙĦØ¬ Ø³Ùħ
¦ ÙĦØ©
Ġ Ø¯Ø±
âĢ Ń
ÙĦ Ø¹Ø§Ø¨
ĠØ§ÙĦ Ø¯Ø§
ħ Ø³ØªØ
ĠØ£Ø« ÙĨØ§Ø¡
Ø«Ù ĨÙĬÙĨ
ĠÙģÙĬ Ø¯ÙĬÙĪ
Ø³ Ùĥ
ĠØªÙ ĪÙģ
«Ø§Ø ±
ØŃØ ªØ±Ø§
ĠÙĦØ§ Ù
ª ÙĩØ§
Ùĳ Ùı
ĠÙĪØ ¥ÙĨ
ª Ø³ØªØ®Ø¯Ùħ
Ġ ÙħØ§ÙĦÙĬØ²ÙĬØ§
ĠØ§ÙĦÙĪØ Ń
Ġd e
ħ ÙĦÙģ
u d
ĠØ³Ù Ī
ÙħØ§ Ùĥ
8 0
ĠØ§ÙĦÙĨ Ø¨Ø§Øª
ĠØ· ÙĦØ¨
Ø¬Ù Ĭ
ig ht
ÙĦÙĬ Ùĩ
Ø¬ ÙĦ
¶Ø§Ù Ĩ
ĠØªØ ®Ø
ÙħØ±Ø§ Ø¶
ÙħÙĬ Ø³
Ø ªØ³ØªØ®Ø¯Ùħ
ÙĪØ§ ÙĤ
± ØŃ
ĠØ¨ÙĪØ§ Ø³Ø·Ø©
ĠØ§ÙĦØµ ÙģØŃØ©
" ØĮ
Ù ĪÙĦØ©
v er
ÙĬØ ¬Ø§Ø±
ĠÙħÙĪØ§ Ø¯
§ Ø¨
ĠØ§ÙĦÙģ ÙĦØ³Ø·
-- --
ĠØ§ÙĦØªØ ¬
Ø¬Ø±Ø§Ø¡ Ø
Ø¬ Ø¹
Ġ2 1
ĠØ§ÙĦÙĥØ ªØ§Ø¨
ĠØ§ÙĦØ± ÙĤ
.. ..
ont act
ĠØ§ÙĦØ£ Ø´
Ø¬Ø±Ø§Ø¡Ø §
¬Ø§Ù Ĩ
ĠØ¹ÙĦØ§ Ø¬
Ø±ÙĬ Ø¹
ĠØ§ÙĦÙĤ Øµ
Ø¬Ø±Ø§Ø¡Ø§ Ø
ÙĩÙ ĪØ¯
¸ ÙħØ©
ĠØ² ÙĬØ§Ø¯Ø©
Ī Ø¨Ø
ĠØ§ÙĦÙģ ÙĬØ¯ÙĬÙĪ
·Ø§Ø ±
R ead
ĠØ¬Ù Ĭ
Ùĭ .
ĠØº Ø³ÙĬÙĦ
ÙħØª ÙĦÙĥ
ĠØ² ÙĬØª
ĠÙĬÙĤ ÙĪÙħ
ÙĩÙ Ĩ
ĠØ§ÙĦØ¬ Ø¨Ø³
Ġ4 0
Ø¯ Ùģ
ĠÙĪØ§ÙĦØ °ÙĬ
ĠØ§ÙĦØ£ Ø·
i z
ØŃÙ ĪÙĦ
ĠÙħØ´Ø§ ÙĩØ¯Ø©
ĠÙĬØ ªØ¹
Ø¯ÙĪÙĨÙĬØ³ ÙĬØ§
ªØ® Ø¨
ĠÙģØ ±ÙĨ
Ùł Ùł
ĠØ§ÙĦØ£ ÙĥØ«Ø±
it h
ĠØ§ÙĦÙĪØ· ÙĨÙĬØ©
ĠØ§ ØªØ
ĠØ±ÙĬ Ø§ÙĦ
ĠØ§ÙĦ Ø¯Ø®ÙĪÙĦ
ÙħÙ ĬØ¯
ÙĥØ ±ÙĬØ©
Ġ5 00
ÙĦÙħÙ ĬÙĨ
ĠØ§ÙĦØ µØ§ÙĨØ¹
ĠØ§ÙĦÙĨØ§ ÙĤÙĦ
Ø¹Ø§ ÙĬØ©
ĠÙģ ÙĦØ§
ĠØ£ ÙĦÙģ
ĠØ¯ Ø±Ø¬Ø©
as s
ĠØ§ÙĦ Ø¯ÙĬ
ÙĨÙĬ Ùģ
ÙĨØ§ Ùĥ
ĠØ§ÙĦØ§ Ø¨ØªØ¯Ø§
ĠØ§Ø®Øª ÙĬØ§Ø±
Ø¬Ø±Ø§Ø¡Ø§Ø ª
ĠØ¹ Ø¯Ø©
¬Ø§ ØŃ
ĠØ¹ Ø§ÙĦÙħ
ĠØ§ÙĦÙħÙĨ ÙĪØ±Ø©
ĠØ¨ Ø¹
ĠÙĨØ ´Ø±
Ġ ÙĪÙĥØ§ÙĨ
Ùĥ Ùĩ
¬Ø§ Ùĩ
Ø ¸
ĠØ§ÙĦ Ø¨Ù
±ÙĪÙ ĬØ¯
ĠØ§ÙĦØ£Ø³ ÙĩÙħ
ĠØ³ ÙĪØ§Ø¡
ĠÙħÙĤØ§ Ø¨ÙĦ
tp s
ĠØ¥ Ø«
ĠÙħÙĨØ ²
ĠØ§ÙĦÙħØµØ± ÙĬØ©
·Ø§ Ø¡
ĠÙħØ®Øª ÙĦÙģ
ÙĩØ§ Ø¡
®Øµ ÙĪØµ
ĠÙĤØ§ ÙĨÙĪÙĨ
Ø¯Ø±ÙĪ ÙĦÙĬ
ĠØ§ÙĦÙħØ¯ ÙĬÙĨØ©
Ø¹Ø§ Ø¯
ĠØ§ÙĦØ§Ø¬ØªÙħØ§ Ø¹ÙĬ
Ġ2 50
ÙĬÙĨ ÙĬØ§
ĠÙĦÙ ĨØ§
ÙĩÙĪ ÙĦØ©
ĠØªØ ·ÙĪÙĬØ±
ÙĦ ØŃ
Ùĩ ÙĬØ©
°Ø ±
Ġ2 8
5 5
Ø¬ ÙĩØ©
ĠØ§ÙĦØ¨ ÙĬØ§ÙĨØ§Øª
ĠØ³Ø§ Ù
ĠØ£ ÙĦÙħØ§ÙĨÙĬØ§
Ù ĪØ¨Ø
ĠÙĦØ¯ ÙĬÙĨØ§
Ø³Ù ĨØ©
ĠØ£ Ø¹ÙĦÙī
ªØ ²Ø§
ĠØ§ÙĦØ³ÙĬ ÙĦÙĬ
p t
ĠØ§ÙĦØ¨Ø ±ÙĬØ¯
i e
ªØ§Ø¨ Ø¹
ĨØ ª
Ġ ÙĬØ±
ĠÙĬØ £
´ Ø¨
Ø¯Ø§ Ø¹
ĠØªØ¬ ÙĩÙĬØ²
Ġb y
ĠØ§ÙĦÙĬÙ Ī
id e
ĠØ£ Ùģ
ĠØ¯ Ø±Ø§
is t
Ĩ ÙħÙĪØ°Ø¬
® ÙģØ¶
W hatsApp
ĠØ£ Ø®Ø¨Ø§Ø±
ÙģØ ªØŃ
ĠØ§ÙĦØ ºØ°Ø§
ĠØ§ÙĦØ§ ÙĨØª
Ù ĪØ³Ø§Ø¦ÙĦ
ĠØ¨Ø§ Ù
¤ Ø§ÙĦ
Ø¹Ù ĨØ¯
Ø¨ÙĬØ¹ ÙĬØ©
Ù ħÙĦÙģ
ĠØ£ ÙħØ±ÙĬ
´Ø ªØ±Ø§
ĠÙĥ ÙĩØ±Ø¨Ø§
ĠÙĪØ¹ ÙĦÙī
ÙĪØ±ÙĪ ÙĨØ§
Ù ħØ³ØªØ
¸Ø§Ø ª
ÙħÙ ĪÙ
µÙĨ Ø¹ÙĬ
Ø³ Ùģ
Ùĥ ÙĪØ±
ĠÙĪØ² ÙĬØ±
ĠØ£ Ø¯
Ġ ÙħØ¨
ĠÙħØ ªØ±
ªÙ ĨÙĪ
®Øµ ØµØ©
e ar
ĠØª Ø³Øª
Ġ201 2
* *
ÙĦÙ ĨØ§
ĠØ§ÙĦÙĦÙ Ĭ
ÙĪØ¬ Ø©
ÙĤ Ø¨Ø©
ĠØ§ÙĦÙĥØ± ÙĬÙħ
ĠØª Ø¹Ø±Ùģ
Ġ ÙĢ
ĠØ¨Ø§ÙĦØ ±ÙĬØ§Ø¶
¬Ø± Ø¨Ø©
Ġ j
Ùģ ØŃ
4 4
ĠØ£ØŃ Ø¯Ø«
n ow
ĠØŃ ÙĤÙĪÙĤ
ªÙĨ Ø³ÙĬÙĤ
ĠØ§ÙĦØ³Ø¹Ù ĪØ¯ÙĬ
ĠØ¥ Øµ
Ø£ Ø®Ø¨Ø§Ø±
ĪØ ±Ø¯
Ø£ ÙģØ¶ÙĦ
ÙĦÙĬØ ¬
ĠÙħØ³ ÙĦØ³ÙĦ
ĠÙħØ¬Ø§ ÙĨÙĬØ©
ĠØ¨Ø±Ø§ ÙħØ¬
ĠØªÙĪÙģ ÙĬØ±
ÙĦØ§ Ùĥ
Ø¯Ø ¦
ĠØ³ ÙĬØ±
®Øª ÙĦÙģ
Ġ }
ÙĥØ³ Ø³ÙĪØ§
ĠØ§ÙĦØŃ ÙĥÙĪÙħØ©
Ø³Ù ĬØ¯
ĠÙģ Ø£
Ù ĬÙĥ
ĠØ ºØ±Ø¨
ĠØ¨Ø§ÙĦÙ Ĥ
ÙħØ ²
ÙĦÙĪ Ùĥ
ĠØ§ÙĦÙħØ ·Ø§ØŃÙĨ
ÙĦ ØŃØ©
Ĩ ÙĤØ§
ÙĥØª Ø¨Ø©
Ī ÙĬÙħÙĥÙĨ
Ù ĨÙħÙĪØ°Ø¬
Ù ĪÙĬÙħÙĥÙĨ
ĠØ§ ÙĪÙĨ
ĠÙĪÙĦÙ ħ
ĠØ§ÙĦØ£ ÙĪØ±ÙĪ
Ø §Ø¨
Ĩ Ø¯ÙĬ
Ĭ Ø¹ÙĨÙĬ
) ;
it y
Ø§ÙĦØ ®
Ø² Ø§ÙĦØ©
ĠØ®Ø µÙħ
Ø¯Ø±ÙĬ Ø¨
ĠY ou
Ù ĬØ¹ÙĨÙĬ
ĠØ¯ Ø±Ø§Ø³Ø©
ÙĥØ³Ø³ÙĪØ§ Ø±Ø§Øª
Ø±Ø ·Ø©
ĠØ§ÙĦØª Ùĥ
ĠØª ÙĤØ±ÙĬØ±
± ÙĥØ§Øª
Ģ ÙĢÙĢ
ĠS t
¬Ù ĪØ¯Ø©
ªÙ ĬÙĦ
ÙĦÙĬ Ø¨
ĠØ§ÙĦÙħØ ´Ø±ÙĪØ¹
2 00
Ùģ Ø±Ø©
ĠÙĦÙ ĩÙħ
ÙģØ§Ø ¸
i al
ĠÙĨØ µ
ÙĦÙĤØ §
ĠÙģÙ ĪÙĤ
ÙĬØ ªØ§
Ī ÙĦØ§Øª
Ġ3 00
Ġ Ù¡
ĠØ§ÙĦØ ªÙī
ĠØ§ÙĦØ£ Ùĩ
Ġâ Ŀ
ĠØ£ ÙĬØ§Ùħ
±ÙĬ Ø¨
ĠØ§ÙĦØ ºØ±
ĠØ§ÙĦÙĤ Ø¯Ùħ
ĠØ¨Ø «
ĠÙĨÙģØ³ Ùĩ
Ø³ØªØ® Ø¯
Ø¯Ø ±ÙĪÙĬØ¯
ĠØ¬ ÙĨÙĬÙĩ
Ø¹ÙĨ ÙĪØ§ÙĨ
ĠØ§ÙĦÙħØ± ÙĥØ²
Ø¨ ÙĬØª
ĠØ§ÙĦ Ø¹Ù
Ø¨Ø§Ø ªØ§Øª
´Ø± ÙĬÙĨ
º Ø¨
ĠØ³ ÙĪØ±Ø©
ĠØ§ÙĨØ ªØ
ĠØ£ Ø®
´Ù Ĩ
ĠØ£Ø´ ÙĩØ±
ĠØ·Ø ±ÙĤ
ÙĨØ¸ ÙĬÙħ
ĠØ§ÙĦØŃÙ Ĭ
Ù ħÙĦØ©
Ĩ ÙĬØ¬
ĠØ§ÙĦÙĥ ÙĪØ§Ø±ØªØ²
ĠØ±ÙħØ ¶Ø§ÙĨ
ĠÙħØ¬Ø§ ÙĨØ§
ĠØªØ ´ØºÙĬÙĦ
ĠØªØŃ ÙĤÙĬÙĤ
ĠØ£ Ø¬Ø²Ø§Ø¡
ØŃ Ø¯Ø«
ĠØ£ Ø³Ø
Ø¬Ù ħÙĦ
Ø§ÙĦÙ ħØ§
ĠØ§ÙĦÙħ Ø¨Ø§
n l
ð Ł
ĠØ§ÙĦØ¢ Ø®Ø±
ĠØ§ÙĦÙħÙĪØ±Ø¯ ÙĬÙĨ
Ġ ÙĪØ¨Ø
ÙģØ§ Ø¶
ĠÙħØ¹ ÙĨØ§
ĠØ¥ Ø¶Ø§ÙģØ©
Ġ4 00
ĠÙĪÙĥØ °ÙĦÙĥ
ĠØ§ÙĦÙħÙĨØ ªØ¯Ùī
ĠØ§ÙĦ Ø¨ÙĪ
±Ù ĪÙħ
ĠØº ÙĬØ§Ø±
Ø¨Ø±Ø§ ÙĩÙĬÙħ
Ĩ ÙĪÙĬ
ĠØ¨ ÙĨØ
ĠØ¬ Ø¯
ħ ÙĦÙģØ§Øª
ĠØ§ÙĦØ¹Ø§ÙĦÙħÙ Ĭ
ħ Ø¹Ø±ÙģØ©
ĠØ§Ø³ØªØ® Ø¯Ø§
ĠØ¹ Ø¬
Ù ĨÙĬØ¬
ĠØ§ÙĦØ±Ø ®Ø§Ùħ
ĠÙħØ¨Ø§ Ø±Ø§Ø©
ĠØ´ Ø¹
Ùģ ÙĬÙĨ
ĠØ° ÙĥØ±
ĠÙĨØ³ Ø¨Ø©
ĠØ§ÙĦØ§ Øµ
ĠÙĦÙĦ Ø³
Ø¬Ø§ ÙħØ¹Ø©
ĠØ§ÙĦØ±Ø ·Ø¨
ÙħÙ ĨÙĬØ©
ĠÙĥ ÙĦÙĬØ©
ØµØ§ Ø¨Ø©
8 6
Ø±Ø ·
Ø¨ÙĨ Ùĥ
Ø·Ø §ØŃ
ĠØ¥ Ø°
ĠØµ ÙĪØ±Ø©
Ġc om
ĠØ´ ÙĥÙĦ
Ġt ph
n g
ĠØ¬ Ø¯Ø©
ac k
ĠØ· Ø¨
Ġ2 9
±ÙĪ Ø©
ĠÙħØ¯ ÙĬØ±
ÙĨÙ ĪÙĬØ©
ĠØ¨ ÙĥÙĦ
ÙĥØ «
ªÙĨÙĪ Ø¹Ø©
u e
3 3
ĠØ¨Ø§ÙĦÙ ĨØ³Ø¨Ø©
eb ook
ĠØ§ÙĦÙħØ§ Ø¶ÙĬ
Ġ ÙĬØ¹ÙĨÙĬ
ĠØ§ÙĦØµ ØŃ
Ø²Ù Ĭ
__ __
Ù ħÙĦÙģØ§Øª
ĠØ¬Ø² Ø¡
ĠÙĦÙĦØŃ ØµÙĪÙĦ
ĠØ§ÙĦØ£ Ø¯
ÙĪØ§ ÙĨØ§Øª
® Ù
·Ø§Ø ª
² ÙĬÙĨ
ĠÙĨÙĩØ§ ÙĬØ©
Ø¨ Ùĥ
ĠÙĥ Ø£Ø³
ĠÙĥØ§ Ø
ĠØ§ÙĦÙħØ¹ Ø¯ÙĨÙĬØ©
Ĭ Ø¹ØªØ¨Ø±
Ø¯ÙĪ ÙĬØ©
ĠØ¹ Ø§ÙĦÙħÙ
Ø³ÙĬ Ø³
ĠØ§ÙĦØ£ ÙĤ
ÙĦÙħÙ Ī
Ù ĬØ¹ØªØ¨Ø±
Ø§ÙĦ Ø¯Ø±Ø¯Ø´Ø©
Ġ ÙĪØ³Ø§Ø¦ÙĦ
¬Ø§ Ø±ÙĬ
ĠT he
f f
Ī ÙĦØ
l y
ĠØ§ÙĦÙĤØ§ Ø±Ø¦
ĠØ ®Ø§Ø±Ø¬
ĠØªØŃØ ªØ§Ø¬
ĠØ¹ÙĨ ÙĩØ§
Ø¬Ø§ Ø¬
ĠØµ Ùģ
ĠØ¹Ùħ ÙĦÙĬØ§Øª
ĠØ£ ÙĨØ§
ÙĬØ ·Ø©
a i
±Ùĥ ÙĬØ©
ĠØ§ÙĦØ´Ø®Øµ ÙĬØ©
ÙħÙĬ Ùĥ
Ø±Ø§ Ø¹Ø©
Ĭ Ø¹Ø¯
ĠØ§ÙĦÙħ Ø³ØªØ
ĠØ§ÙĦØ¥Ø³ÙĦØ§ ÙħÙĬØ©
Ī ÙĥØ§
ªÙĪ ÙĬØ§Øª
ĠØ§ ÙĨØªØ§Ø¬
ĠØ§ÙĦØ¹ ÙĦÙĪÙħ
Ù ĬØ¹Ø¯
ĠØ£ ÙĤÙĦ
Ġ ÙĨÙĬØ¬
ĠØ´Ø± ØŃ
¶Ø§ Ø
ĠØ§Ù ħ
en d
Ġ X
ĠØ¹Ø± Ø¨ÙĬ
ĠØ§ÙĦØªØ ·Ø¨ÙĬÙĤ
Ġ Ø³Ùħ
r om
ĠØ¨Ø§ÙĦÙ ħØ¯ÙĬÙĨØ©
ac ebook
ĠØŃ ÙĬØ§Øª
¬Ø ±ÙĬ
ĠÙĬØ ±Ø
Ø¯ ÙĬÙĨ
ĠÙĪÙģ ÙĤ
0 5
ĠØ£ ÙħØ±
ĠØ§ÙĦØ± Ø³Ùħ
ĠÙĥØ ª
ĠA r
ĠØ· Ø¨ÙĬ
ØµØ§ Ø
ĠØ§Ø±Øª ÙģØ§Ø¹
Ġ ÙĪÙĬÙħÙĥÙĨ
Ø±Ø³ Ø§ÙĦ
Ø¹Ø ¬
ĠØ§ÙĦØ® Ø¯ÙħØ©
ĠÙĪØºÙĬØ± ÙĩØ§
ÙģÙ ĬÙģ
ĠØ§ÙĦØ¢ ÙĦØ§Øª
´Ø ª
ĠØ´ Ø¹Ø±
ĠØŃ ÙĦ
ĠÙĦØ¨ ÙĨØ§ÙĨ
ĠØ§ÙĦØ¹ Ø³
Ġ ÙĬÙģ
ĠØ¬Ø§ ÙĨØ¨
ÙĪÙĬ ÙĦØ©
Ã ©
Ø³Ø® Ø©
ĠÙĪØ§ Ù
ĠØªØ¹Ø ±ÙĬÙģ
Ø¨ ÙĬÙĨ
ĠØ¥ÙĦÙĬ Ùĩ
Ø¯Ø§Ø ±Ø³
Ø·Ø§ØŃ ÙĪÙĨØ©
Ġ ÙħØ³ØªØ
ĠÙĦÙĦ Ø¹
ªÙĬ Ø¨
ĠØª ÙĤØ
ĠØ§ÙĦØ ºØ±Ø¨
Ø¬ Ø±Ø©
ĠØ¹ Ø²
4 5
ĠØªØŃ Ø¯ÙĬØ¯
ĠÙģ ÙĩÙĪ
Ġ ï»
ĠØ±Ø£ Ø³
Ø ªØ¹
or d
i an
Ø¯ÙĪ ÙĬØ±
ħ Ø¨Ø§Ø±
ĠÙĦÙħ Ø¯Ø©
ĠØ§ÙĦÙĨ ÙĩØ§
ĠØŃ ÙĤ
ĠØ§ÙĦÙħÙ ĩÙ
ĠØ£ Ø¹ÙħØ§ÙĦ
ĠØ ±ÙħÙĦ
ĠØ§ÙĦÙĪØ ²
âĢ ¢
ĠØ§ÙĦØ®Ø§Ø±Ø¬ ÙĬØ©
Ù ħØ¹Ø±ÙģØ©
± ÙĪØ§
p er
ĠÙħØ ±Øª
ĠØ±ÙĪ Ø³ÙĬØ§
²Ø§Ù Ĩ
ĠØ¹ ÙħØ§ÙĨ
ĠÙĦÙģ Ø©
ÙĦÙĬ Ùĥ
ĠØ± Ø¨
§ Ø³
ĠØ§ÙĦØ¨ ÙĬØª
Ĭ Ø³ØªØ®Ø¯Ùħ
Ø§ÙĦÙĥ ØªØ
ĠØ£ ÙĪØ±ÙĪØ¨Ø§
ĠÙĪØ ŃØ
Ġ ÙĬÙĤÙĪÙĦ
ÙĦÙħÙĪ Ø³Ø©
ĠØµØ ®Ø
ÙĤØ§ Ø¦ÙĤ
ĠÙģ Ø¶
ĠÙĨÙĬØ¬ ÙĬØ±ÙĬØ§
Ù ĬØ³ØªØ®Ø¯Ùħ
ĠØ¹ ÙģØ´
ĠW hatsApp
ØµÙ Ĭ
Ø¹Ø§ ÙĪÙĨ
Ø¨Ø§ Ø¯
ÙĨØ§ ØµØ±
Ø³Ø±Ø§ Ø¦ÙĬ
ĠØ§ÙĦØªØ ®
ï¿½ ï¿½
µØ§Ø¯ ÙħÙĬØ©
Ø§ÙĦÙ ĦÙĩ
Ø¨Ø ±ÙĬØ¯
ĠØ¨ ØŃØ«
ÙĩØ§ Ø¯Ø©
ĠØ§ÙĦÙĪØ ¬
Ù ħØ¨Ø§Ø±
ĠÙħÙ ĤØ
¶ Ùī
¬Ø ²
ÙĬÙ ĬÙħ
Ø¹Ø¯ Ø¯Ø©
Ù ĬÙĩ
ĠÙģ ØªØ±Ø©
Ø §Ø³
ÙĪÙĦÙ ĩ
´Ø± ÙĥØ§Øª
Ī Ø³Ø·
Ġp df
3 5
ĠØ§ÙĦÙĥ Ø§ÙĦØ³
ĠG et
a in
s p
ÙĪØ±Ø§ ÙĤ
ĠÙĨØ ¬
a w
ĠÙĬØ ®
Ġb e
ĠØ§ÙĦÙħØŃØ§ Ø¬Ø±
Ø ªÙĥ
ĠS h
´Ø ±ÙĬ
ĠØ§ÙĦØ§Øª ØŃØ§Ø¯
ÙģØª ÙĪØŃ
ÙĨØ¸ ÙħØ©
ĠÙĦØ ´
ĠØ§ÙĦØ ®Ø§
ØªØŃ ÙħÙĬÙĦ
ØŃØ± ÙĥØ©
ªØ§Ø °
ħ ÙĦÙħÙĪØ³Ø©
ĠØ§ÙĦØµ ØŃØ©
Ù ħÙĦÙħÙĪØ³Ø©
ĠØ§ÙĦØ³ÙĬÙĦÙĬ ÙĥØ§
Ùģ Ùĥ
Ø³Ø§ ÙĨÙĬØ©
ĠÙĥØ« ÙĬØ±
Ø ªÙħ
0 6
r an
Ø¹Ù ħØ©
Ù ĪÙĥØ§
3 6
ĠÙĥ ÙĦØ§
ĠÙħØ®Ø ·
3 7
ÙĦØ§ ÙħØ©
ª ÙħØ±
ÙĦØ ¬
as t
ÙĩÙ ī
Ø¯ Ø±Ø§
ĠØ§ Ø¬ØªÙħØ§
Ø§ÙĦØ ´
ĠâĢ Ŀ
ĠØ£ Ùĥ
ĠØ§ÙĦØŃ Ø²Ø§Ùħ
Ø¹Ø± ÙĪØ¶
ĠØ³ ÙĪØ±ÙĬØ§
Ú ¯
ĠØ§ÙĦØ´ ÙħØ³
Ġ: :
ÙĦÙħØ§ Ø¡
g le
ĠØ§ÙĦØ· Ø¨
ÙĥØ ´Ùģ
ĠØ§ÙĨ ÙĪØ§Ø¹
0 1
ĠØ§ÙĦØ¹Ùħ ÙĦÙĬØ©
ÙĦÙħØ§ Ù
´Ø ·Ø©
Ø¨ Ø¨
ĠØªØ¯ ÙģÙĤ
ĠØª Ø³Ø¬ÙĬÙĦ
§Ø¦ ÙĬØ©
ĠØªØ ±ÙĬØ¯
l ish
ĠØ§Ø ±
d u
ĠØ² ÙĬØ§
ĠØ§ÙĦ Ø§ÙĦÙĥØªØ
ĠÙĨØª ÙĬØ¬Ø©
Ø³ Ø¹Ø©
ĠØ¥ ÙĨØ´Ø§Ø¡
e p
ĠØ¨Ø§ Ø³Ùħ
ĠØ§ÙĦØ¬Ø² Ø¡
ĠØ§ÙĦØªØ ±Ø¨ÙĬØ©
ÙĥØ ²ÙĬ
ÙĦÙ ĪÙ
ĠØ§ÙĦÙĥÙ Ĭ
ĠÙĬØ ·
±ÙĪØ ¬
ĠØ´Ù Ĭ
Ø³ØªØ± Ø§ÙĦÙĬØ§
I n
ĠÙĪØ§ Ø³Øª
²Ø§Ù ħ
ĠØ¬Ø§ Ø¡
ĠØ¹Ø §Ø¦
ØªØ ¬
Ġ Ø³Ø±
´ØªØ± Ùĥ
Ø¦ ÙĬÙĦ
Ø§ÙĦÙģ Ø
Ù £
Ġ ÙħØ¹Ø±ÙģØ©
3 9
ĠØ§ÙĦÙĪØ µÙĪÙĦ
ĠØ¬ Ø±Ø§
ĠØ§ÙĦØª ÙģØ§ØµÙĬÙĦ
ØªØ £
ĠØ¬ ÙĦ
Ø§ÙĦØµ ÙĬÙĨ
ĠÙĪØ§ÙĦÙ Ĩ
ĠØ§ÙĦØµ ØŃÙĬØ©
ĠØ§Ø³ØªØ® Ø±Ø§Ø¬
ÙĬØ±ÙĪ Ø³
) :
ĠØ§ÙĦØ³Ø§Ø¨ ÙĤ
Ø±Ù ĨØ©
Ø³ Ø³Ø§Øª
ħ Ø§ÙĦÙĬØ©
er v
Ġ ÙĩØ§Øª
® ÙĬØµ
Ø¥ Ø°Ø§
ĠØ§ÙĦØ£ Ø®Ø¨Ø§Ø±
ÙĬØª Ùĩ
Ġ ÙħÙĦÙģ
ĠØ§ÙĦÙħÙ ĬØ
ÙĩÙĪ Ø©
Ø§ÙĦ Ø±Ø¦ÙĬØ³
±ÙĬ ÙĤØ©
ÙĪØ¬ Ùĩ
Ġ i
ÙĪØ§ÙĦÙ Ĭ
ĠØ± Ø³ÙĪÙĦ
Ġ ÙħÙĦÙģØ§Øª
ĠØ¨Ø ®
Ø¯Ù ĪÙĤ
ĠÙħÙĪØ ¶ÙĪØ¹
w it
Ø· ÙĬØ©
ĠØ¹Ø§ ÙħØ©
ĠÙĦØ¯ÙĬ Ùĥ
ĠØ§ÙĦØµ ÙĦØ¨
Ġ201 1
Ģ Ø
Ġ19 9
ĠØ§ÙĦÙĩØ§ ØªÙģ
ÙħØ ±Ø§Ø±
ØµØ§ Ù
ÙĥÙĪ ÙĨØ§Øª
ĠØ¨Ø§ Ø¨
ĠØ§ Ø¹Ø
ĠÙĥ ÙĪØ±ÙĪÙĨØ§
Ġ6 0
Ùĥ Ø§ÙĦ
ĠØ§ÙĦØ¥Ø³ ÙĦØ§Ùħ
ĠØ§ÙĦØ§ Ø®Øª
Ġ ÙħÙĦÙħÙĪØ³Ø©
ĠØ® ÙĦ
Ġ al
ĠØŃ Ø§ÙĦ
ĠØ§ÙĦÙ ĨÙĪØ¹
ĠÙĦØ§ ÙĬÙĨ
ĠØª ÙĤØ¯
ĠÙĤ Ø±Ø§Ø¡Ø©
¦ÙĬ Ø³ÙĬ
Ī ÙģØ§
Ø¯ÙĬ ÙĤ
ĠØ§ÙĦÙĥÙĩØ±Ø¨Ø§ Ø¦ÙĬØ©
r am
´Ø§ Ø·
ĠÙĪØ§ Ø³Ø¹
ĠØ¨ ÙĪØ
Ġ ÙĨÙħÙĪØ°Ø¬
ĠØ§ÙĦ Ø¯Ùħ
ĠØ¹Ø¨Ø§ Ø±Ø©
ÙĤØªØµØ§ Ø¯
ĠÙģ ÙĦØ³Ø·
ĠâĢ ¢
ĠÙĦÙĦ Ø·
ĠØµ ØŃÙĬØŃ
Ø²Ø ±
ĠØ§ÙĦØ¹ ÙĬÙĨ
±Ø§ØªÙĬØ¬ ÙĬØ©
ÙĩØ§Ù Ĩ
Ù ħØ¨ÙĬ
ĠØ§ÙĦØ¯ ÙģØ§Ø¹
ĠÙħØ³Ø§ Ø¡
ÙĦÙħØ§ ÙĨÙĬØ©
ĠØ¬ ÙĩØ©
ĠØ§ÙĦØ£Ø® ÙĬØ±Ø©
ĠØ±Ø ¤ÙĬØ©
ĠÙĦÙĦÙ ĩ
ÙĨØ ¬Ø§
Ø§ÙĦÙ ĬÙģ
i re
ØŃØ± ÙĬØ±
ĠØ§ÙĦØ¨Ø ´Ø±
ÙĬØ ªÙĬ
ĠØ«ÙĦØ§Ø« Ø©
ĠØªÙ Ĭ
ĠØ§ÙĦØ·Ø ±ÙĤ
Ø£Ø ª
ĠØŃ Ø³ÙĨ
ĠØ§ÙĦØ§ ÙħØ§Ø±Ø§Øª
ØŃØ§Ù Ĩ
Ø¨Ø§ Ø¹
ª Ø³ÙĪÙĤ
Ġ =
Øµ ÙħØ©
ĠYou T
Ø´ Ù
ÙĦÙħØ§Ù Ĩ
Ù ª
ab a
· ÙĪØ±
ÙĪØ§ Ø¹Ø¯
ĠØ³Ø§ Ø¹Ø§Øª
ĠØ£ ØŃØ°ÙĬØ©
ĠÙħÙ ħ
Ø ªÙĪ
ĠØ¬Ù Ī
Ġ ÙħØ¨Ø§Ø±
ĠØ£Ø¬ ÙĩØ²Ø©
ĠØ§ÙĦ Ø¯Ø±Ø¯Ø´Ø©
ĠØ§ÙĦØ ªØ§
ĠØ§ÙĦÙħÙ ħÙĬØ
Ø· Ø±ÙĬÙĤØ©
ĠØ§ÙĦØ¬ ÙĨÙĪØ¨
ĠØ§ÙĦ Ø¨Ø§Ø±
ĠØ´Ø§ Ø´Ø©
«Ø§ Ø¡
ÙĦÙĬØ Ń
Ø¨Ø§ Ø±Ø§Øª
ĠØ¥ÙĦÙĬ ÙĩØ§
ar y
ĠØ§ÙĦØ¹ ÙĦÙħ
ĠØ§ÙĦØ¹ ÙħÙĪØ¯ÙĬØ©
ĠØ§ÙĦÙĨ Ø¨ÙĬ
Ġs h
Ø ªØ³ÙĪÙĤ
ĠØ´ Ùĥ
ĠØ§ÙĨ Ùĩ
ĠØ§ÙĦØŃ Ø¬Ùħ
ĠØªÙĨØ ²ÙĬÙĦ
Ø®Ø ·
er y
ĠÙħØ§ Ø¯Ø©
ĠÙħØ³Ø ¤
ĠØ¨ Ø¨
ĠÙĥÙ ĨØ¯Ø§
ĠÙĤ ÙĬÙħØ©
ĠØ§ÙĦØ¯Ø§Ø® ÙĦÙĬØ©
ĠØ§ÙĦØ¥ÙĦÙĥØªØ ±ÙĪÙĨÙĬØ©
ĠØ¨Ø´ Ø£ÙĨ
ĠÙħØµ Ø·
ĠØ³ ÙĥØ³
ÙħØ§ ÙĥÙĨ
ÙĤ Ø·
ĠØªØ µØ§Ø¯ÙħÙĬØ©
ÙħÙĬØ§ Ø
ĠØ§ÙĦØ£Ø³Ø§ Ø³ÙĬØ©
ĠÙħØ º
0 9
ĠØ§ÙĦØ¬Ù Ĩ
ĠØªØ¹ÙĦÙĬ ÙĤ
Ø¨ Ø¹Ø¯
Ī ÙħÙĨØ
C ontact
8 8
ĠØ§ÙĦØ§ Ø±Øª
ÙĪØª ÙĬÙĪØ¨
f or
§Ø¦Ù Ĭ
Ġ '
ĠØ¨Ø º
ĠØ¨ ÙĬØ§ÙĨØ§Øª
ĠØ± Ø³Ø§ÙĦØ©
ĠÙĤ ÙĨØ§Ø©
Ù ĪÙħÙĨØ
ĠØ ºØ
ĠÙĪØ ¸Ø§Ø¦Ùģ
ĠÙģÙ ĨÙĬ
ĠØªØ§ Ù
ĠØªØ ²
±Ø ¬Ùħ
Ø «Ø§Ø±
ĠØ¨ Ø±Ø
ĠØ´ ÙĨØ·
ÙĬÙ Ĭ
´Ø§Ø± Ø¹
Ø³ÙĪ Ø¹Ø©
ĠØª Ø¹ØªØ¨Ø±
ĠØ§ÙĦÙħØ ¬Ø§
Ø¯ÙĪÙ ī
±ÙĬ Ùĥ
Ġ Ø¯Ø±Ø¯Ø´Ø©
ħ ÙĥØªØ¨
p r
ÙĲ Ùĳ
ĠØ§ÙĦÙĨ Ø³Ø§Ø¡
ºØ§ ÙĬØ©
ĠØªÙĪ ÙģØ±
": "
ĠÙĪØ ±Ø§
\ /
Ø±Ø§ Ø¨
) ,
Ø¨ ØŃØ«
ĠØ¹Ø ±Ø¨ÙĬØ©
Ø¨Ø§ Ø¹Ø©
ĠÙģ ØµÙĦ
ĠØ§ÙĦØ¨ ÙĦØ§
ÙĪÙ ĬØ¯
ĠØ§ Ø·
s h
Ī ÙħÙĬØª
Ùĩ ÙĦØ©
ĠÙĨÙĤ Ø¯Ùħ
ÙĬØ§ ÙĨÙĬ
ĠØ¬Ù ħØ§ÙĦ
¬Ù Ĩ
Ùĥ Ø¨
ØŃØ§ Ø¡
ÙħÙĬØ§Ø ª
ĠØ« ÙĤÙĬÙĦØ©
ÙĤØª Ø¨Ø§Ø³
ĠØ§ÙĦÙħØ± ØŃÙĦØ©
Ġ Ù¢
0 3
ĠØ§ÙĦØ¹ÙĦÙħÙ Ĭ
ĠØ³ÙĬØ§ Ø±Ø©
ÙĪØ¶ ØŃ
ĠÙħØ§ Ù
Ø¬ÙĨ Ø¨ÙĬØ©
ĠØ§ÙĦØ¬ ÙħØ¹Ø©
ĠÙĪØ¬ Ùĩ
°Ù Ĩ
ĠØ µÙĨ
ĠØ§ÙĦÙħØ ·Ø§
ĠC h
ÙĦØ§ Ø¹
ĠØ§ÙĦØª ÙĥÙĨÙĪÙĦÙĪØ¬ÙĬØ§
ĠØ§ÙĦØ· ÙģÙĦ
0 8
ĠÙĤ ÙĪØ§Øª
ĠØ§ÙĦÙĨØ µ
ib aba
Ø§ÙĦØª Ø§ÙĦÙĬ
ĪØ§ Ø¯
ĠØ§ÙĦÙĥÙ ħØ¨ÙĬÙĪØªØ±
Ø¨Ø§ ÙĬÙĦ
ĠØ®Ø ·Ø©
ÙħÙ ĨÙĬ
Ù ĪÙĦØ
ÙĤØ§ ÙħØ©
0 7
ĠØ§ÙĦØ¹Ø§ Ø¨
ĠÙĪØ ªØ±
ÙĦ Ø¨ÙĬØ©
ĠØ¨Ø§ÙĦ ØŃ
u g
±Ø¨ Ø¹Ø§Ø¡
ĠÙĦØ¬ ÙħÙĬØ¹
ĠØŃ ÙĪØ§ÙĦÙĬ
ÙĬØ±Ø§ ÙħÙĬÙĥ
ĠM P
ĠØ ´Ø§Ø
²Ù ĬØ¹
ĠØ£ Ø¯ÙĪØ§Øª
Ġ ÙĪÙħÙĨØ
ÙĪØ ªÙĪ
ÙĦØ§Ø «Ø§Ø¡
Ø¯Ø§Ø ±ÙĬØ©
ĠÙĦÙĩØ °Ø§
ÙĦÙ ĬØ¯
ĠØ¹ÙĨ ÙĪØ§ÙĨ
ĠØ§ÙĦØ´Ø± ÙĤ
Ġ1 50
±ÙĪ Ø¨
ĠÙĪØ§ÙĦÙ ĨØ
ĠØ§ÙĦÙĬ ÙħÙĨ
Ù ĨÙĤØ§
ÙĤ ÙĦØ©
ÙģÙ Ĩ
oo gle
ĠØª Ø³Ø
±Ø £Ø©
Ø±Øª Ùĩ
ar d
Ġ Ø¯Ø§Ø±
ĠÙĦÙĤ Ø¯
Ø§ÙĦÙĬØ§ Ø
®Ø§Ø ±
Ġy ou
ĠU S
ÙĦÙĪØ§ Ù
ĠÙĬØŃØ ªÙĪÙĬ
ĠØ§ÙĦØ§ ÙĪÙĦ
Ġ ÙĬØ¹ØªØ¨Ø±
Ø±Ø´ ÙĬÙģ
ĠØ§ÙĦØµÙĬÙĨ ÙĬØ©
Ø¹Ø ¬Ø§
Ġ ÙĬØ¹Ø¯
ĠÙģØ ª
ĠØ§ÙĦØ¨ ÙĦØ§Ø¯
ĠÙĤ Ø·Ø§Ø¹
ĠØ§ÙĦÙħÙĨØ§ Ù
ĠØ§ÙĦÙĤ ÙĬØ§Ùħ
ĠÙĦØ· ØŃÙĨ
wit ter
Ø§ÙĦØ º
ĠØ³ Ø¹ÙĬØ¯
ĠØ³ ÙĦØ
ĠØ¬ ÙĬØ¯
Ġp l
ĠÙĥØ °ÙĦÙĥ
i ew
Ø¯ ÙĪØ±
ĠØ§ÙĦØ³ÙĪ Ø¯Ø§ÙĨ
ĠØ§ÙĦØ£Ø ´Ø®Ø§Øµ
ĠØ§ÙĦÙħØ¬ ÙĦØ³
b er
ĠØ§ÙĦØŃ ÙħÙĦ
ĠØ± ØŃ
ªØ§ ØŃØ©
Ø¯Ø ±Ø¨
Ø¹Ù ĬÙĦ
ĠØ¹ Ø·
Ù ħÙĥØªØ¨
ĠØ§ÙĦÙħØ®Ø ±ÙĪØ·
ĠP ro
ĠØ§ÙĦØ¨Ø± ÙĨØ§ÙħØ¬
ĠØ¨Ø ªÙĨØ³ÙĬÙĤ
Ù ĬÙĦÙĬ
ĠÙĥ Ø±Ø©
ĠØ³ Ø¨ÙĬÙĦ
Ø³ Ø¯
ªØ¨ Ø¹
Ø¯Ø±ÙĪÙĦÙĬ ÙĥÙĬØ©
Ø³Ø§ Ø³
ĠÙħÙ ĩØ§
ĠØ® ÙĦØ§
ÙģÙ ĬØ³
ĠØ µÙ
ĠÙħØ ·Ø§
ÙħØ§ Ø¹
Ġh t
ec h
ĠØ§ÙĦØ³Ø ±ÙĬ
ĠØ§ÙĦØµ ÙĦØ§Ø©
ĠÙĩ ÙĬØ¦Ø©
ĨÙĤ ÙĦ
ĠØ¨ Ø¯Ø§ÙĬØ©
·Ù ĪØ©
ĠØ§ÙĦÙħÙĨØ§Ù ħ
ĠÙĦ Ø¹
ĠØŃ ÙĬØ§Ø©
Ø³Ø±Ø§ Ø¦ÙĬÙĦ
Ġw ith
ĠØ§ÙĦØ£ Ùģ
Ù ĨÙĪÙĬ
®Ø· ÙĬØ·
ĠØ§ÙĦØª Ø§ÙĦÙĬØ©
ÙħÙĬ ÙĦØ©
¬Ù ī
ĠØ¬Ø ±
¬Ø ±Ø¯
ĠØ£ Ø³ØªØ±Ø§ÙĦÙĬØ§
ÙħØ± ÙĥØ²
ĠØ§ÙĦÙħÙĪØ§ ÙĤØ¹
µØ§Ø ª
ĠØ§ÙĦØ«Ø§ÙĦØ« Ø©
ĠØ£ Ø¶
ĠØ±ÙĬÙħÙĪÙĨ Ø¯
ĠØ§ÙĦØ· Ø¨ÙĬØ©
3 8
c o
ħ Ø¨Ø¯Ø£
ÙĦÙĪØ§Ù Ĩ
ĠØ¨Ø ±ÙĬØ¯
´Ø§Ø± ÙĥØ§Øª
ĠÙħØµÙĨØ¹ ÙĬÙĨ
ĠØ§ÙĦØ´ ÙĩØ±
´Ø§ Ù
ªÙ ĪÙĤ
ĠØ¹ Ø¯
Ø¨ ÙĬØ±Ø©
Ø¹ÙĦØ§ Ø¬
ĠØª ÙģØ§ØµÙĬÙĦ
ĠØ§ÙĦØ§ Ø³ØªØ«ÙħØ§Ø±
in k
âĢĿ ØĮ
ÙĪØ ªØ§
ĠØ§ÙĦÙĩ ÙĪØ§Ø¡
ĠØ§ÙĦØ§Ø¬ØªÙħØ§ Ø¹ÙĬØ©
ĠØ¹ ÙĤØ¯
ÙħØŃ ÙħØ¯
ĠØ§ÙĦÙĥ ÙĦ
ĠØ§ÙĦÙħÙĤ Ø§ÙĦ
Ġm ore
6 6
ÙħÙ ĪØ¹
Ġ Ø¯ÙĪÙĦ
ĠØ· ÙĪÙĬÙĦØ©
Ġ at
ĠÙĪØ ¶
Ø¹Ø «
ĠÙģ Ø±Ø
ĠØ§ÙĦØ¥ Ø
ĪÙĦÙ ĩ
ĠØ®Ø µ
Ĭ ÙĦØ§
Ø¹ÙĪ ÙĬÙħ
ĠØ§ÙĦÙĥ Ø¨ÙĬØ±
ÙĨØ§ Ø¦ÙĬØ©
Ø³ ÙħÙĨØª
ÙĪØ§Øª Ùģ
Ġ ÙĬØ³ØªØ®Ø¯Ùħ
ĠØ§ÙĦØ¶Ø ºØ·
Ø®Ø ±Ø©
ĠØ§ÙĦÙĤ Ø±Ø§Ø¡Ø©
Ġth is
Ġ Q
ÙĬØ¬ Ø¨
Ø¨Ù ĨÙĬ
ĠÙĪØ «
ĠÙħØ¬Ø§ ÙĨÙĬ
ÙħÙĪ Ø¯ÙĬ
! !
ÙĪØ§ ÙģÙĤ
ØªØµ Ø§ÙĦØ§Øª
Ù ĪØ³Ø·
¦Ø§ Ø
° Ø¨
ĠØ§ÙĦØ§ ØŃ
ĠØ§ÙĦØŃØ ±
²Ù Ī
ÙĨØ¬ÙĦÙĬØ ²ÙĬ
Ùģ ÙĤØ©
Ùĥ ÙĬÙĨ
ĠÙģ ÙĩÙĬ
ĠÙĤØ§ Ù
ĠØ¥ÙĨ Ùĩ
ĠØ§ÙĦØ§ Ø¹Øª
Ø´ Ùģ
Ø¨ÙĬ Ùĩ
ĠÙħØ±Ø§ Ø¬
ĠØ§ÙĦÙħÙĨØ ²
Ø¯ÙĪ Ø¯Ø©
Ġ> >
K now
µÙ ĪÙĬØ±
ĠÙĪÙĤ Ø§ÙĦ
Ø¨Ø ±Ùī
Ø· ØŃÙĨ
ĠÙĥ ÙĪÙĨ
ÙĥÙ ħÙĦ
ĠØ§ÙĦØ³Ø§ Ø®Ù
Ø¯ Ø¯Ø©
ĠØª Ø³Ø§Ø¹Ø¯
ĠØ§ÙĦÙħØµÙĨØ¹ ÙĬÙĨ
ÙĪÙĦÙ ĬÙĨ
un ction
ĠØ¨ ÙĬØ
ĠØ§ÙĦØ¯ ÙĪØ§
ĠØ§ÙĦØªØ ±Ø§
ĠØ§ÙĦØ³ÙĬØ§ Ø³ÙĬØ©
ĠØ§ÙĦØ´ Ø¨Ø§Ø¨
Ġ ÙĪÙĥØ§
Ø§ÙĦÙĬØ§Ø ª
§ Ø³Øª
ĠØ¹Ù ĬØ¯
ĠØ§ÙĦÙĥØ ªØ¨
ĠØ§ÙĦØ·Ø¨ÙĬ Ø¹ÙĬ
Ġ x
ĠØ§ÙĦÙħØ ªØ¹
ĠØµØ®Ø ±Ø©
ĠØªØ ºÙĬÙĬØ±
ÙĥÙ ĬØ¯
ħ ÙĦØ
Ġ100 0
ĠØ§ÙĦÙģØ ±
ĠÙĪØ§ÙĦØ «
Ù ¤
o ad
Ø§ÙĦØ ±
Ø§ÙĦÙħÙ ĨØ
ÙĩØª ÙħØ§Ùħ
ĠØ® Ù
ĠÙĦÙĪØ ŃØ©
ĠØµ ÙģØŃØ©
ĠØ£ Ø®Ø
Ù ħØ¨Ø¯Ø£
ĠØ¬ Ø¹ÙĦ
ĠØ§ÙĦØ³ÙĬØ§ Ø±Ø©
ĠØ§ÙĦÙħØ§ Ø
ÙĨØªØ ®Ø§
ĠØ£ ÙĩÙĦ
Ø£ Ø©
ÙĦØ¨ ÙĬÙĨ
¦Ø§Ø ª
4 9
ĠØ§ÙĦÙħÙ ħØ
Ø±Ø§ ÙħØ©
ħ Ùģ
ºØ§ Ù
Ù ¬
i le
ÙĨØ ´
p e
Ø§ÙĦØ±Ø¦ÙĬØ³ ÙĬØ©
Ø §Ø³Øª
ĠØ§ÙĦÙħÙĨØ§ Ø·ÙĤ
Øµ Ø¯
Ø¹ Ø±Ø§Ø¶
ĠØª Ø¹Ø¯
ĠÙĦÙĦØ ºØ§ÙĬØ©
ÙĬØ ·Ø§
ĠØ§ÙĦØºØ§ Ø²
ĠÙĪÙĦÙĬ Ø³
ĠØ§ÙĦÙħØŃ ÙĦÙĬØ©
Ø ®Ø§Ùħ
ĠÙĦÙĬ Ø³Øª
Ġ or
ĠØ§ÙĦØŃØ¯ÙĬØ« Ø©
ħ ÙĥØ©
20 20
Ø¨ ÙĨØ§
ĠØ§ÙĦÙĨ Ø¨Ø§ØªØ§Øª
ĠØ¯ ÙĤÙĬÙĤØ©
ĠÙħØµ Ø¯Ø±
ĠØ§ÙĦÙģ ØªØ±Ø©
ĠØ§ÙĦØ£Ø³ Ø¨ÙĪØ¹
Ġ ÙħØ¨ÙĬ
µÙ ĬÙĦ
ĠØ§ÙĦØªØ ¬Ø§Ø±Ø©
en g
ĠÙĪØªØ µ
ĤØ§ Ø¡
Ġ6 00
ÙģØ§ Ùģ
ØŃØ ±ÙĬØ©
Ġ Ã
ĠØ¨Ø ±ÙĪ
Ø¹ÙĦÙ Ĩ
ºØ§Ø ª
ĠØŃ Ø²Ø§Ùħ
ÙħÙ ĪÙĤØ¹
Ø¬Ù ĪØ¯Ø©
ĠØ§ÙĦØ±ØŃ ÙħÙĨ
c r
Ĭ ÙĥÙĨ
ĠÙģÙĬ ÙĦÙħ
Ġe x
Ġ Z
ÙĥØ§ Ø¡
ĠØ§ÙĦØµ ÙĪØ±Ø©
Ø¶Ø ±
Â «
ĠØ¥Ø« Ø±Ø§Ø¡
ĠØ¨ÙĬÙĨ ÙħØ§
Ø¨Ø ·Ø©
Ġ ÙĪØ³Ø·
Ø§ÙĦÙħØ ²ÙĬØ¯
ÙĢ Ø
ºÙ Ĩ
ĠØ¯Ø§Ø¦ ÙħØ§
ĠØ§ÙĦØªØ ´ØºÙĬÙĦ
f t
Ġ ÙĬÙĦÙĬ
ĠÙħÙĨØ ª
Ù ĬÙĥÙĨ
ĠÙĦØ ªØµ
ĠÙĤ Ø¯Ùħ
Ø¢ ÙĦØ§Øª
ĠÙĦÙĦÙ Ĩ
0 4
ªØ¹ ÙĦÙĬÙħ
Ø±ÙĬ Ø¯
°Ù Ī
ØŃØ¸ Ø©
" ,"
Ø¬Ø§ Ù
ÙĦÙĬØ§Ø ±
ĠÙħØ®Ø· Ø·
Ġc on
0 2
¸ ÙĬÙģØ©
Ī Ø³ÙĬ
Ø¬Ù ĨØ©
Ø³Ù ĪÙģ
ĠC om
ÙĬØ º
8 7
Ø¹Ø ²ÙĬØ²
ĠØ§ÙĦØ¹Ø «
ĨØ¯ ÙĤ
ĠÙħÙĨØ µØ©
Ġ ÙĪÙĦØ
ĠÙĨØ ´
ĠØ§ÙĦÙħØ³Ø ªÙĪÙī
ĠØ§ÙĦØª Ø§ÙĦÙĬ
ĠØ¨Ø§Ùĥ Ø³ØªØ§ÙĨ
ĠØ§ÙĦØ¨ØŃØ± ÙĬÙĨ
Ġ ÙĬÙĥÙĨ
ĠÙħØªØ ¬Ø±
ÙĪØ§ ÙħÙĦ
3 1
ĠØ§ÙĦÙħ Ø¨
ĠYouT ube
ĠØ§ÙĦØªØŃ ÙĥÙħ
ØŃÙ ĬÙģØ©
ĠØ± ÙģØ¹
ĠØµ ØŃ
±Ù ĪÙĦ
a pp
ĠØ§ÙĦØŃØ ±Ø¨
ÙĤØ§Ø± ÙĬØ±
®Ø§ Ø·Ø±
Ø¶Ø ºØ·
ÙħØ ·
ĠØ§ÙĦØ£ ÙħÙĨ
ĠØ§ÙĦÙĨ ÙĤÙĦ
ĠØ¯ Ø¹Ùħ
4 7
¬Ù ĨØ©
Ø¯Ø§ Ø©
ĠÙĦØ£ÙĨ Ùĩ
¤ ÙĪÙĨ
ÙħØ µ
ÙħØª Ùĩ
Ġ201 0
ĠØ Ľ
ĠØ§ÙĦØ ²Ø§
Ġ as
ÙħØ ´Ø§
ªÙĨ ÙħÙĬØ©
ÙĦ Ø¨ÙĬ
±ÙĪ Ø¹
Ø¹Ø§ ÙħÙĦ
ĠÙĨØ ªØ§Ø¦Ø¬
ÙħØ§ ÙĨÙĬ
ĠÙĥØ ´Ùģ
ĠØ§ ØªØµÙĦ
±ÙĪØ ±Ø©
ÙĦÙ ħØ
Ġ an
ĠÙĩÙ ħ
° Ùĥ
Ø§ÙĦÙĥ Ø
ĠØ¨Ø§ÙĦ Ø¯
ĠØ¥ ÙĬØ±Ø§ÙĨ
ÙĪØ§Ø¬ Ùĩ
ĠØ¬ ÙĬØ¯Ø©
ĠØ§ ÙħØª
ĠÙĪØª Ø¹
ĠØ§ÙĦÙħ Ø¨ÙĬ
ÙĬÙĨØ ª
ĠØªÙ ĨÙģÙĬØ°
ĠØ§ÙĦØŃ Ø´Ø±Ø§Øª
Ø ªÙħØ±
ĠØŃ Ø¯Ø«
8 5
ĠÙħØ´ ÙĥÙĦØ©
a z
ÙĥØ§ Ø¯ÙĬ
ĠÙħØŃ ÙħÙĪØ¯
Ø¹ÙĦÙ ĨØª
Ĭ Ø³Ø§Ø¹Ø¯
Ø¯Øª Ùĩ
ÙĦÙ ĩÙħ
ĠØ§ÙĦØ§Ø ±
ĠØ¨Ø ±ÙĬ
ÙĨØ§ Ø¯ÙĤ
Ù ĬØ³Ø§Ø¹Ø¯
Ù ħÙĦØ
ĠØ§ÙĦØ ®ØµÙĪØµ
ÙĬØª ÙĩØ§
ĠÙĪØ¨ Ø¹Ø¯
Ø§ÙĦÙ Ħ
ĠØ§ÙĦÙĤØ¯ ÙĬÙħØ©
( '
ÙĥØ§ ÙĨÙĬ
ĠØªØŃØ ªÙĪÙĬ
ÙĪØ¸ Ø¨ÙĬ
ĠØ§ÙĦÙħÙĦØ§ Ø¨Ø³
ĠØ¥ØŃ Ø¯Ùī
ĠØ§ÙĦØ¹ Ø±Ø¶
ÙĩØ ªØ²Ø§
ÙĬÙĪ ÙĬØ©
ĠÙĨØ§ ÙĤÙĦ
ĠØ§ÙĦØµÙĨØ§ Ø¹ÙĬ
Ø¨Ø± ÙĨØ§ÙħØ¬
ĠØ§ÙĦØ±ÙĬØ§Ø¶ ÙĬØ©
ĠØ§ÙĦØ® ÙħÙĬØ³
ĠØªÙĥ ÙĬÙĬÙģ
ĠØ§ÙĦØ£ Ø®Ø
Ø±Ø§ ÙħØ¬
ĠÙħÙĨ ÙĩÙħ
ØµØ§Ù Ĩ
ÙħÙ ĪØ§ÙĦ
ĠÙĬÙĤ Ø¯Ùħ
ÙĪØ§ÙĨ ÙĬÙĨ
ĠÙĪÙĬ ÙĥÙĬ
ĠÙĪØ§ÙĦ Ø¹Ø
Ø¦Ù Ĩ
ĠØ§ Ø°Ø§
ÙĦØ§Ù ĨØ¯
ħ Ø¹Ø§Øª
ou n
ĠAl ibaba
ex t
Ù ħÙģ
ĠØµØ§ ØŃØ¨
Ī Ø¹Ø
Ø³Ø§ Ø¨Ø§Øª
ĠÙħØ¤ Ø³Ø³Ø©
ĠØ§ÙĦÙĪØ ²ÙĨ
ĠØªØ¹ ÙĦÙħ
ÙħÙĪ Ø¹Ø§Øª
ÙħÙĪØ ²
ÙĬÙĨØ§Ø ±
ÙĨØ µ
ĠÙħØ¹ ÙĨÙī
° Ùģ
ĠØ¶Ø ºØ·
ÙĤØ ±Ø¨
ĠØ¨Ø§ÙĦÙĥ Ø
ĠØªØ ¤
ĠØ® Ø§ÙĦØ¯
ĠØ§ÙĦØ£ÙħØ±ÙĬ ÙĥÙĬ
ĠØ§ÙĦØµ ÙĪØª
ĠØŃ Øµ
t ph
ªÙħ ÙĥÙĨ
¶Ø ª
ĠØ§ÙĦÙħØ ±Øª
Ġc rusher
Ø¨Øª Ø©
ĠØ§ÙĦØ£ ÙĨØ
ĠØ§ÙĦØ£ÙĪ Ø³Ø·
ĠÙħØª Ø¹Ø¯Ø¯Ø©
ĠØ§ÙĦØ« ÙĤØ§
ĠØ§ÙĦØ§ÙĤØªØµØ§ Ø¯ÙĬØ©
ĠØ¹Ø§ ÙħØ§
ĠØŃ Ø³ÙĬÙĨ
ĠÙĪØ§ Ø¶
ĠØ¨Ø§ÙĦØ ´
ĠØ§ÙĦÙħØ³Øª Ø¹ÙħÙĦØ©
ħ ÙĥØªØ¨Ø©
ÙĦÙĬÙ ĨØ§
ĠØ³ Ø¨Ø§
ig n
U S
ÙħØŃ Ø·Ùħ
´Ø§ Ùģ
Ø§ÙĦÙ Ĩ
ĠØ¨Ø§ÙĦ Ø¹
ĠØ£ ÙĨØª
ĠØ£Ø³Ø§ Ø³
ĠØ§ÙĦÙħÙĩÙ ĨÙĬØ©
ĠÙĥÙĬ ÙĦÙĪ
ÙĬØ± ÙĬØ©
ĠØ¨Ø§ÙĦÙ ĦÙĩ
ĠØ§ ÙĤØ±Ø£
Ø£ ÙĦ
ĠØ¨ÙĨ Ø³Ø¨Ø©
ĠÙĦÙ ĬØ¨
¬Ø§ Ø¡
´Ø± Ùģ
Ù ĨØ©
ĠØ§ÙĦØ´ Ø¹Ø¨
ĠÙģÙĦØ³Ø· ÙĬÙĨ
Ġ ar
ĠØªØ º
ĠâĢ Ķ
Ġ ÙħÙĥØªØ¨
ĠØ§ÙĦØ± ÙĪØ§
ĠÙħØ¹Ø ¸Ùħ
µØ§Ø¦ ØŃ
ĠØ¬ ÙħØ§
ÙĦÙĬ Ø³
ĠØ± Ø¯
ĠØ§ÙĦØ µØ§
ÙĬØ§ ÙĨØ§
Ī Ø¨Ø©
ĠØ§ÙĦØ·Ø ±ÙĬÙĤ
® ÙģØ§Ø¶
ÙĬØ ªÙħ
ĠØ§ Ø´
ħ ÙģØ
Ø³Ø§Ø± Ùĩ
Ø¯ÙĬ Ø¯Ø§
ÙĦØºØ§ Ø¡
ĠÙħØªØ ±Ø¬Ùħ
Ø£ ÙĦØ©
ĠØ§ÙĦØª Ø³Ø¬ÙĬÙĦ
ħ ÙĦÙĬØ§Ø±
ĠÙģØ§ Ù
®Ø µÙĬ
ÙĦØ§ Ø¦
ĠØ§ÙĦØŃ ÙĤÙĪÙĤ
4 3
ĠÙħØ µØ§Ø¯Ø±
4 6
µØ§Ø¦ Øµ
ĠÙĪÙħØ Ń
ĠØ§ÙĦÙĤØ ±ÙĨ
ĠØ§ÙĦØ¹ÙĦØ§ Ø¬
ĠÙĦÙ ĨØ
ÙĦØ§ ÙĬØ©
ħ Ø¯Ùī
ĠØŃØ² ÙĬØ±Ø§ÙĨ
Ĭ Ø¹Ø±Ùģ
ĠØ§ÙĦÙģØ ±ÙĤ
Ù ħÙĦÙĬØ§Ø±
Ù ĪØ¹Ø
ĠØ£Ùĩ ÙħÙĬØ©
Ø§ÙĦØ¨ ØŃØ«
ĠØ§ÙĦØ· ÙĦØ¨
Ø¬Ø ±ÙĬ
Ġ ÙĬÙħ
ĠØ§ÙĦØµ ØŃÙĬØŃ
ww w
¶Ø§ Ø¹
ĠØ§ÙĦØ·Ø§ Ø¦
Ø±Ø ¬Ø§Øª
l d
Ø¹Ø§ ÙĨÙĬ
ÙĪØ ±Ø¬
ĠØ§ÙĦØ ªÙĪ
ØŃ Ø¬Ø±
âĢ ĵ
ĠØ§ÙĦØ±ÙĪ Ø³ÙĬØ©
l ic
ĠØ§ÙĦØ±Ø ºÙħ
« Ø¨ÙĬØª
ĠØªØµ ÙĦ
Ī ÙĤÙ
ÙĦÙĤØ ª
Ġ ÙĪÙĬØª
ĠØ§ÙĦØ¹ÙĦÙħÙ ĬØ©
ĠØ´Ù ħØ§ÙĦ
ĠØ§ÙĦØ· Ø¹Ø§Ùħ
ĠØ§ÙĦØŃ ÙĥÙĪ
ĠØ§Ø³ØªØ «
ÙĪØ ®
el l
ĠÙħØ ªÙĨÙĪØ¹Ø©
Ø±Ø§ÙĨ ÙĬØ§
ÙĦÙ ĦÙ
ĠÙĩ ÙĪØ§
am e
ÙĤÙĨ ÙĬØ§Øª
ĠØªÙ ĪÙĬØ
ÙĤØ§Ø¦ ÙħØ©
ÙĬÙĨ ÙħØ§
ÙĩØ ±ÙĬ
Ġ ÙħÙĦÙĬØ§Ø±
ÙĪØ±Ø§ Ù
Ø²Ù Ĩ
ÙĬÙ Ģ
Ġ ïº
Ù ħÙĥØªØ¨Ø©
ĠØª Ø¯ÙĪÙĬØ±
ĠØ§ÙĦÙħ Ø³ØªØ®Ø¯Ùħ
ĠØ§ÙĦÙĪØ² Ø±Ø§Ø¡
Ø¦ ÙĦØ©
ÙĪÙĨ Ø³
§ Ø¯
ĠÙĦØ§Ù Ĩ
«Ø§Ø ª
ĠØ«Ø§ ÙĨÙĬØ©
ĠØ¬ ÙħÙĩÙĪØ±ÙĬØ©
Ù ĬÙĦØ§
Ġ| |
ĠØ§ÙĦØ®Ø§Ùħ Ø³
Ø¹Ù ĪØ¯ÙĬØ©
ĠØ§ ØŃØ
ĠØª Ùĩ
ÙĤ Ø³
ĠÙĦ Ø³ØŃÙĤ
ĠØ§ÙĦØ«Ø§ ÙĨÙĪÙĬØ©
Ø¯ÙĬ Ø§ÙĦ
ĠØ§ÙĦÙģ ÙĦØ¨ÙĬÙĨ
Ġ ÙĪØ¹Ø
Ø¨ ÙĪÙĨ
ĠÙħØ ´Ø§Ø±ÙĥØ©
ĠØ§ÙĦØ¥ Ø¯Ø§Ø±Ø©
ĠØ§ÙĦÙħØ± ÙĥØ²ÙĬ
Ù ĬØ¹Ø±Ùģ
Ġ ab
ĠØ§ÙĦØ¹Ø ¸
ÙĬÙ ĪÙĬ
ĠØ§ÙĦÙĥÙĩØ±Ø¨Ø§ Ø¡
ÙģÙĬ Ùĩ
ĠØ§ÙĦÙĥ ØªØ
±Ø¨ ØŃ
ĠØ¹ ÙĦÙħÙ
Ġy our
ÙħÙĪÙ ĬÙĦ
Ù ¢Ù
ĠØ¥ Ø¬Ø±Ø§Ø¡
ÙģØ§ Ø²Ø§Øª
ÙĬØ§ Ø¬Ø§Øª
ĠØ§ÙĦØº ÙĬØ§Ø±
ÙĪØ¶ Ø¹
Ġ @
Ġ ÙĨÙĤØ§
°Ù ī
· ÙĦØ¨Ø§Øª
ĠÙħØ¹ Ø±Ø¶
ĠØ£ Ø¹Ø
¢ Ø
ØŃÙ ħØ©
ĠØ§ÙĦØ¨ ÙĬØ
ĠÙĤØ §Ø¦
ĠÙĤÙ ħ
ĠÙģ ÙĪØ§Ø¦Ø¯
ÙĪØ¬ ÙĦ
Ġ ÙħÙģ
ĠØªÙĪÙĬØ ªØ±
ĠØ§ÙĦØªØ¹Ø§ ÙħÙĦ
, ,
ªÙ ĪÙĤØ¹
ĠØ§ ÙĬØ¶Ø§
ĠØ§ÙĦÙĪØ§ ÙĤØ¹
ĠØªØ§Ù Ĭ
ĠØ§ÙĦØ· Ø¨ÙĬØ¹ÙĬØ©
Ø¨Øª Ùĩ
±Ø¨ Ø¹Ø©
ĠØ§ÙĦØ« ÙĦØ§Ø«
ĠØ§ÙĦØ±Ø ¬ÙĦ
Ø¯Ù ĨÙī
ĠØ¬ Ø²Ø±
Ġ ÙĬØ³Ø§Ø¹Ø¯
ĠÙħØ§Ø ±
Ø¯Ø§ ÙĬØ§
Ø³Øª ÙĤ
ĠØ¨Ù ĪÙĥ
ÙĬØŃ Ø©
e y
ĠØ§ÙĦØ´Ø¹ Ø¨ÙĬ
ÙģØ§ Ø¯Ø©
ÙĦÙĨ Ø¯Ø§
ĠØ¨ ÙĬØ§ÙĨ
ĠÙĬØ ²
ĠÙĬØŃØ ªØ§Ø¬
ĠØ¹ ÙħÙĪØ¯ÙĬØ©
ĠØ§ÙĦØ£ Ø²
ĠØ§ÙĦØ¹ ÙĦÙĬØ§
²Ø§ ÙĬØ§
Ī ÙģØ±
Ø¯Ø§ Ø¦ÙĤ
ĠØ¨ ÙĬØ±
ar k
ÙĩØ ²
¤Ø «Ø±
ħ Ø¯Ø±Ø³Ø©
²Ù ĪØ¯
Ø±Ø ®Øµ
ĠØ§ÙĦØ§ ÙĨØ
ØµØ§Ø ª
ªÙĪ ÙģØ±
ĠØ§ÙĦÙħØ§ Ø¯Ø©
ÙħØ± ÙĬÙĨ
Ø¬Ø§ Ø¨Ø©
5 00
ÙģØ§ Ø±Ø©
´Ø§Ø± ÙĤØ©
ĠØ£ Ø¹Ø±Ùģ
Ġ Ø³Ø·ØŃ
on g
ĠØ¨ ÙĨØ§Øª
²Ø§ ÙĨØ§Øª
5 6
ĠØ§ Ø³Ø
ĠÙĦØ ®
ï» Ł
Ù ©
±Ø ¶
ĠØ¬ ÙħØ¹
ĠØ§ÙĦÙ ĨÙ
for m
Ø ´Ø§Ø±Ùĥ
ĠØ§ÙĦÙĨØ§ Ø
ÙħÙĤ Ø±Ø§
ĠÙģ ØŃØµ
ĠØ¨Ø§ÙĦÙ Ħ
Ī ÙĤØ§
ħ Ø§ÙĦÙĬ
ÙĪØ º
Ø³Ø ¬
± Ø¨Ø©
ĠØ§ÙĦØ ¸
ĠØªØ¹ÙĦÙĬ ÙĤØ§Øª
ĠØªØŃ Ø¯ÙĬØ«
· ÙĦØ¨
ĠØµ ÙĪØª
ĠØ£ÙĨ ØŃØ§Ø¡
Ġ ÙĬØ¹Ø±Ùģ
ĠØŃØ ±ÙĥØ©
Ī ÙĦØª
ĠÙħÙĨØ ¸
e e
ÙĪØ ¬ÙĬ
ĠØ¨Ø§Ø ±
µØº Ø±Ø©
ØŃÙĤ ÙĤ
ĠØ¹ÙĦÙĬ ÙĥÙħ
Ù ħØ¯Ùī
ĠØ§ÙĦÙĤ ÙĦØ¨
Ø±Ø§Ø ²
ÙħØ§Ù ĨÙĬØ©
ĠÙħÙĨØ ¬Ùħ
Ø¨Ø§ ÙĨÙĬ
ÙĬØ± Ùĩ
ĠØ£ÙĪ Ùĥ
ÙĬØ ¬ÙĬ
ĠØ§ÙĦØ±Ø§ Ø¨Ø¹
ĠÙĩÙ ĨØ¯
ĠØ¨ÙĨ Ùĥ
ĠØ§ÙĦØ« ÙĦØ§Ø«Ø§Ø¡
ĠØ§ÙĦØ¥ ÙħØ§Ùħ
ĠÙĨØ§ Ø¦Ø¨
ĠÙĤ ØµØ©
ĠÙĥØ ªØ§Ø¨Ø©
ÙĪÙĤ Ø§ÙĦ
ÙĤ ÙĪÙħ
ĠØº Ø³Ø§ÙĦØ©
r ou
ĠØ§ÙĦÙĥØ§ÙĦØ³ ÙĬÙĪÙħ
ĠÙĦÙĦÙħÙ ĨØ
ĠØ§ÙĦ Ø¨ÙĬØ¹
ĠØ¥ ÙĦÙĥØªØ
ĠØ§ÙĦÙĥÙĬ ÙħÙĬØ§
Ø±Ø§Ø ¶ÙĬ
ĠØ®Ø· ÙĪØ·
ĠØ¹ Ø´
ĠØ§ÙĦÙħÙĪØ ¬ÙĪØ¯Ø©
ĠØ§ÙĦØµ ØŃØ§
ĠØ§ÙĦØ® ÙĦÙĬØ¬
ĠØ§ÙĦÙĦØ§ Ø²ÙħØ©
ÙĩÙ Ģ
ĠØ¨Ø· Ø±ÙĬÙĤØ©
Ø³Ø· Ù
ĠØª Ø³ØªØ·ÙĬØ¹
or a
e g
ÙħØ§Ø ªÙĬ
´ ÙģÙī
Ø¯Ø± Ø³
Ġ ÙĨØ¹
ĠÙĦØ ªØ¬
Ùģ ÙĦØ©
s s
Ġ Ð
ĠÙĤ Ø·Ø¹Ø©
ĠØ§ÙĦØ¯ÙĪÙĦÙ ĪÙħÙĬØª
ĠØ§ÙĦÙĤ ÙĬØ§
Ù ĪÙĬÙĨ
ĠØ§ÙĦØ£Ø± Ø¯ÙĨ
ĠÙģØ §Ø¦
Ī Ø³Ø§
ºØ§Ù Ĩ
ĠØ§ÙĦØ¬ ÙħØ§
ul t
¦Ø§ Ø³Ø©
ĠÙĪØ£ Ø
4 8
ĠØ§ÙĦÙħØ®Ø±ÙĪØ· ÙĬØ©
ĠØ§ÙĦØ¨ ÙĦ
ĠØ§ÙĦØ± Ø¯
ÙĤ ÙĬÙħ
ĠØ¨Ø °ÙĦÙĥ
ĠØ§ÙĦÙħÙ ĩØ§
Ùģ Ø¹Ø©
ÙĪØ± Ùĥ
ĠØªØ¨ ØŃØ«
Ø¯ÙĪ ÙĦØ©
ĠØ§ÙĦÙħØ ²
Ø¨Ø ¦Ø©
ÙĦØ§ ÙħÙĬØ©
Ø§ÙĦÙħØ Ń
ªØ§ Ø²
ĠØ¬Ø§ Ù
âĢ ľ
ĩÙĨØ¯ Ø³
ØŃØ± Ùģ
¬Ø§ ÙĪØ²
ĠÙĤ Ø±Ø§Ø±
Ø¨ ØŃØª
em ail
Ø³ØªØ® Ø¯Ø§
ĠÙĪØªØ ª
5 7
Ø¨ Ø§ÙĦ
ÙĨÙ ĪØ¹
at or
ĠØ§ÙĦØŃ Ø§ÙĦÙĬ
ĠÙĦÙĦ Ø¯
ØŃ Ùĥ
ØŃØ§ Ø«
Ø§ÙĦØŃ Ø¬Ø±
ĠØ£ Ø±Ø¶
ĠØ§ÙĦØªØ¹Ø§ ÙĪÙĨ
ĠÙĥ ÙĦÙħØ§Øª
Ġw h
ĠØª ÙĪØ¬Ø¯
Ġ it
a f
ªØŃ Ø¯Ø«
ĠØ§ÙĨ Ø¯ÙĪÙĨÙĬØ³ÙĬØ§
ªØ º
ÙĦØ ±
ĠØ§ÙĦØ±ÙĤ ÙħÙĬØ©
ĠØ§ ÙĥØ«Ø±
ĠØ§ÙĦØ£ Ø¬ÙĩØ²Ø©
ĠÙģÙĤ Ø§ÙĦ
u re
Ø³ ÙĬØ±
ĠÙĨØ ¸Ø±
ĠØ§ÙĦÙģ ÙĨÙĬØ©
Ø¯Ø±ÙĪ Ø³
ØŃØ ±Ùĥ
s l
om e
ĠÙĪØ º
ĠØ§ÙĦÙħØŃØ ªÙĪÙī
ĠØµ ØŃØ©
Ġ ad
ØªØ ´
ĠØ§ÙĦØ³ Ø¨Øª
ĠØ§ÙĦÙħ Ùģ
Ø³ÙĬ Ùĥ
ĠØ§ÙĦØ±Ø ¦ÙĬØ³ÙĬ
ĠØ§ÙĦ Ø³Ø±
ĠÙĪØ§ÙĦØ ±
ĠØªØ±Ø ªÙĬÙĦ
ÙĤ ÙĦÙĬ
ĠØ§ÙĦØ¬ ÙĬØ´
Ø§ÙĦÙ ĬÙ
ĠÙĦØ ¢
ĠØ§ÙĦØ¯ ÙĪØ±Ø©
ĠØŃ ÙħØ§ÙĬØ©
r y
ĠØ¥ Ø·Ø§Ø±
o k
ĠØ °Ø§
ĠØ¥ Ø¨Ø±Ø§ÙĩÙĬÙħ
ÙĥÙ ĨØ©
Ĭ ÙĪØªÙĬÙĪØ¨
ĪÙĦÙ ĬØ¯
Ġ ï
ĠØ§ÙĦØ±Ø ¬
ĠØ§ÙĦØŃ Ø¬
ĠØ§ÙĦØ¹ Ø¯Ø¯
±ÙĪ Ø³
ĠØ®ÙĦÙģ ÙĬØ§Øª
ÙĤØ ªØ±Ø§
ĠØ¨ Ø¯Ø¡
ĠÙħØ µÙĨØ¹ÙĬ
M ore
ĠØ§ÙĦÙĨØ ¸Ø±
Ø¯Ø± ÙĬØ©
Ø¯ÙĨ ÙĬØ§
Ø¯ÙĬ ÙĤØ©
Ø·Ù ĨÙĬÙĨ
r ess
ĠØ§ÙĦØ¯ ÙģØ¹
Ø±Ø§ ÙĤ
ĠØ£ Ø²
ØªÙĥ ÙĦÙģØ©
ĠØ§ÙĦØ¨ ÙĦØ¯
ĠØºØ± ÙģØ©
ĠØŃ ÙĥÙħ
Ø¨ Ø±Ø§Ø¡
ĠÙħÙĨØ§ Ø²ÙĦ
Ø·Ø§ ÙĤØ©
ħ Ø¹Ø§Ù
ĠØ§ÙĦÙĪØ¬ Ùĩ
ÙĩØ§ Ø¯
ĠØ§ÙĦÙħØ³Ø ¤
av e
ĠØ±ÙĬØ§Ø¶ ÙĬØ©
ĠØ§ÙĦØº Ø³ÙĬÙĦ
¸Ø ±ÙĪÙģ
ĠØ§ÙĦÙħØ³ ÙĦÙħÙĬÙĨ
ªÙĪ ÙģÙĬØ±
ĠÙħÙĨØ§ Ø·ÙĤ
ĠÙħÙĩ ÙħØ©
Ī ÙĥÙĦ
Ø³Ø ±ÙĬ
ĠH D
ĠØŃ Ø¨
ÙĦÙģ Ø²
ĠÙĬØŃ Ø¯Ø«
Ù ĪÙģØ§
ĠØ§ÙĦØ¯Ø±Ø§ Ø³Ø§Øª
ÙħÙĤ Ø§ÙĦØ§Øª
Ø£Ø³ Ø¹Ø§Ø±
ĠØ¨ ÙĩØ°Ø§
ÙħØª ÙĩØ§
ØµØ ±ÙĬØ©
Øµ ÙĦØ§ØŃ
ĠØ§ÙĦÙĥ Ø¨ÙĬØ±Ø©
Ø³ØªÙĬ Ùĥ
´Ø ªØ±ÙĬ
ÙģØ °
Ø· ÙĨØ§
Ġf rom
Ù ĪÙĦØ§Øª
Ù ħÙĦÙĥ
ĠØ§ÙĦ Ø¨ÙĨÙĥ
Ù ħÙģØ
ĠØ§ÙĦØ¥Ø³ÙĦØ§ ÙħÙĬ
ĠØµ Ø§ÙĦØŃ
ÙĬØ ²Ø§
ĠØ§ÙĦÙģØ §Ø¦
ĠØ§ÙĦØ¬Ø§ Ù
ØŃ Ùģ
ĠØ§ÙĦØ³ ÙģØ±
ĠâĢ «
Ī ÙħÙĬ
Ù ĪÙĥÙĦ
ĠØ³Ø¨ Ø¨
ĠØ¨Ø§ÙĦ Ø¬
ĠØ§ÙĦØ®ØµÙĪØµ ÙĬØ©
Ù ĨØ¯
Ø¹Øª ÙĤØ¯
ÙĪØ ªØ
ĠØ§ÙĦØ¨ ÙĬØ§ÙĨÙĬ
ĠÙĪØ§ Ø¬
ĠØ§ÙĦØª ÙĨØ¸ÙĬÙģ
Ġ ÙħØ¯Ùī
ĠØ§ÙĦØªØµ ÙħÙĬÙħ
ĠØ§ÙĦÙħØ ·ØŃÙĨØ©
§ Ø¡
ĠØ§ÙĦØ¯ ÙĪØ±ÙĬ
Ù ĬÙĪØªÙĬÙĪØ¨
± Ø³Ø©
ĠÙħØ´Ø§ ÙĥÙĦ
ÙħØ¹ ÙĦÙĪÙħØ§Øª
ÙĪØ ªÙĬ
Ġ ;
ĠØªØ ¬Ø±Ø¨Ø©
´Ø§ Ø¨
4 2
Ĭ ÙĬØ±
ĠØŃ ÙĦÙħ
ĠÙħØŃØ§ ÙģØ¸Ø©
Ø ±Ø³Ø©
ĠÙĪÙ ħØ¹Ø¯Ø§Øª
ĠØ±Ø ´
ĠØ§ Øº
ĠØ§ÙĦØ¨ ÙĬØ¦Ø©
ÙĬØ§ Ø¬
ĨÙģ Ø³
ĠÙĪØ§Øª Ø³Ø§Ø¨
ow er
Ù ħØ¯Ø±Ø³Ø©
ĠØ§ÙĦØ§ÙĤØªØµØ§ Ø¯
ĠØ§ÙĦØµ ÙĨØ§Ø¹Ø©
ĠØ§ÙĦØªØ ´
ÙĪØ±Ø µØ©
S I
ĠØ¨Ø§ÙĦ Ø³
ÙĦØ§ÙĦ Ø©
ĠØ¸ ÙĦ
Ø¨Ø ²
ĠØ§ÙĦØ£ ØŃØ¯
ĠÙħØªÙĪ Ø³Ø·
ĠØ§ÙĦÙħØ¬ ÙħÙĪØ¹Ø©
ĠØ§ÙĦØ¨ Ø¹Ø¶
ĠÙĬØµ ÙĦ
ÙģØ§ Ù
ĠØ§ÙĦØŃ Ø¨
ĠØ§ÙĦØ¹ ÙħØ±
ĠØ§ ÙĥØ³Ø³ÙĪØ§Ø±Ø§Øª
t d
ÙĨØ¸ Ù
ĠØ§ÙĦÙĨØ ´Ø±
Ø¨Ø§ ÙĨÙĬØ©
ĠØ§ÙĦÙħ ÙĥØ§ÙĨ
ĠØ§ÙĦÙģØ±ÙĨ Ø³ÙĬØ©
ĠÙģ Ùĥ
ĠØ§ÙĦØ °Ùĩ
A R
ĠØ§Ù ĨØ¯
ĠØ§ÙĦÙħØ ´Ø§Ø±ÙĥØ©
¢Ø ª
ÙĬØ· Ø§ÙĦÙĬØ§
ĠÙĤØ§Ù ħ
ÙĨØ§ Ø·ÙĬ
ĠÙĦØ º
ĠØ§ÙĦÙ ĬØ¯
u p
ĠØ§ÙĦØ¹ Ø§ÙĦÙĬ
ÙĥØª ÙĨØ§
Ø¶Ø§ Ùģ
ĠØµ Ø¨Ø§ØŃ
Ĩ ÙĪØ±
ĠØ§ÙĦØ¥ Ø¹ÙĦØ§Ùħ
ĠÙĦ Ø³
±Ø¬ Ø¹
ĠØ±Ø ¬ÙĦ
ĠÙħØ ·Ø±ÙĤØ©
ĠØ§ÙĦØ¬ ÙħÙĬØ¹
ĠÙħØ ¶
ĠØ§ÙĦÙģ Ø¹
ÙħØ´ ÙĤ
Ġm ill
Øµ ÙĦØ©
ĠØ§ ÙĨØ§
re e
ºØ± Ø¨ÙĬ
ĠØ¸ ÙĩØ±
Ġ un
Ø¶Ø§ Ø
Ø±Ø «
a x
ÙĩÙ ĬÙĦ
ĠÙĦØ °Ø§
ĠØ§ÙĦØ£ Ø¹ÙĦÙī
ĠÙĨÙĤ Ø·Ø©
ĠC o
ĠÙĥÙ ĪØ¨
ÙħÙ ĩÙħ
ĠÙĬØªØ¹ ÙĦÙĤ
Ø±Øª ÙĩØ§
Ġ ÙħØ¨Ø¯Ø£
ĠØ§ÙĦØŃ ÙĤ
ØŃÙ ī
Ø¨Ø§Ù ĨÙĬØ§
° ÙĪØ±
ĠØ§ÙĦØ³Ø§Ø¨ ÙĤØ©
ĠÙĦØ ¬ÙĨØ©
ĠØ§ÙĦÙħØ³ ÙĬØŃ
Ø¹Ù ĪØ©
ĠÙĬØ¤ Ø¯ÙĬ
Ġc h
ĠØ§ÙĦØ·Ø ±ÙĬÙĤØ©
ÙĪØ§ ÙĨÙĬ
ĠØ§ÙĦØ±Ø§Ø¦ Ø¯Ø©
ĠØ§ÙĦØ¯ Ø±Ø§Ø³Ø©
k s
ĠØ§ÙĦØ§ Ø³ØªØ®Ø¯Ø§Ùħ
al e
ĠØ§ÙĦÙĤ Ø³Ùħ
ĠÙĬÙĪ ÙħÙĬØ§
Ø±Ø ¬ÙĬ
ĠØ§ÙĦÙħØ¬ Ø§ÙĦ
ĠØ§ÙĦØºØ°Ø§ Ø¦ÙĬØ©
ĠØ¨Ø§ÙĦÙĥØ §
ĠØ¨Ø§ÙĦØ ªØ
Ġ3 1
en c
ÙĬÙĪÙĨ ÙĬÙĪ
ĠÙĨØ µÙģ
ÙħØ§Ø °Ø¬
® ÙĬØ
ĠØ§ÙĦØ£ÙĪØ±ÙĪ Ø¨ÙĬ
Ø³ÙĬØ§ Ø³Ø©
ĠØ§ ÙĥØªØ
ĠA d
Ġ are
ĠÙĤ ÙĦØ¨
´Ù Ī
Ġ ÙĪÙĥÙĦ
ĠØ¹ Ø¶Ù
ht tps
7 7
ĠØ¹ÙĦÙĬ ÙĩÙħ
ĠÙĦÙ ĪÙĨ
ÙģØ§Ø ±
ĠÙĦØ ªØ±
²Ø§Ø ±
ĠØªØ ·Ø¨ÙĬÙĤØ§Øª
ĠØ¹Ø§ Ø¯Ø©
ÙĦÙĪ Ø¨Ø©
ĠÙĦ Ø¹Ø§Ùħ
ĠÙĥØ± ÙĬÙħ
Ø±Ø§ Ø¹
ĠØ§ÙĦØŃ ÙĥÙħ
ĠÙĦÙ ĪØ§
ĠØ´ ÙĬØ
ĠØ¯Ø§ Ø¦Ùħ
ĠÙħÙĪØ ±Ø¯
ÙĬÙĨÙ Ī
3 2
ª ÙĦØ©
ÙħØ µØ±
8 4
ĠÙģ ÙĪØ±
Ø³Ø± Ø¹
Ġ0 5
ĠÙĪÙģ ÙĤØ§
ĠâĢ İ
ĠØª ÙĪÙĨØ³
ÛĮ Ø
ÙĥØ ±Ùī
ĠØ´ Ø¨Ùĩ
ĠÙĥ ÙĬÙĨÙĬØ§
ÙĬÙĨ Ùĩ
Ø¨Ø ¶
ĠØ§ÙĦÙĪØ ·ÙĨ
ĠØ§ÙĦÙħØ¨ÙĬ Ø¹Ø§Øª
ĠØ§ÙĦÙĤ Ø¯Ø±Ø©
ĬØ¯ Ø©
ic al
ĠØ§ÙĦØ¥ Ø³Ø±Ø§Ø¦ÙĬ
ĠÙĤ Ø¯Ø±
Ù ĨÙĪØ±
ªÙ ħÙĦ
ĠØ¢ ÙĦ
ĠØ§ÙĦØ® ÙĬØ§Ø±Ø§Øª
ħÙĥØ§ ÙĨÙĬØ©
ÙĨØ§Ø·ÙĬ Ø³ÙĬ
ĪÙ ĨÙĬ
ÙĦØª Ùĩ
ÙĩÙ ħØ©
ºÙĨ ÙĬØ²
ĠØ§ÙĦÙħØ« Ø§ÙĦ
ĠÙĦÙ ĬÙ
ĠØ§ÙĦØ· ÙĦØ§Ø¨
ªØ¹ ÙĦÙĬ
Ġ ÙħÙĦØ
´ØªØ±Ø§ Ùĥ
ĠØ§ÙĦØŃ Ø±Ø§Ø±Ø©
ĠØ¨ÙĨ ÙģØ³
ÙĬØ§ Ø¯
µÙ Ī
ºØ§ ÙĨÙĬ
ĠØ§ÙĦÙħ Ø¨Ø§Ø
Ġ ÙĪÙĬÙĨ
ĠØ§ÙĦØ³ÙĬØ§ Ø³ÙĬ
Ġ ÙħÙĦÙĥ
Ġ0 1
c l
ĠØ§ÙĦØ¹ ÙħÙĬÙĦ
ĠØ§ÙĦØ¨ Ø±Ø§ÙħØ¬
p an
ĠØ§ÙĦØªÙĨ ÙħÙĬØ©
ĠØªÙĨØ§ ÙĪÙĦ
ĠØ³ Ùĥ
ĠØ¨ Ø·Ù
Ø§ÙĦÙ ĨØ
ĠØ§ÙĦÙħÙĨØ ¸
ĠØŃ ÙĦÙĪÙĦ
ĠÙĦÙĩØ °Ùĩ
ĠØ§ÙĦØ§Ø¨ØªØ¯Ø§ Ø¦ÙĬ
t ect
ã Ģ
ÙĨØ µØ±
ĠÙĬÙĪ Ø³Ùģ
Ø§ÙĦ Ø·
ĠÙħÙĪØ§ ØµÙģØ§Øª
Ø±Ø§ Ø±Ø§Øª
Ø¨ ÙĪØ±
ĠÙĪØ§ÙĦÙħÙ ĨØ
ĠØ§ÙĦØ£ ÙħÙĪØ±
ĠØ¬ ÙĪØ¬ÙĦ
Ø¦ Ø¹
s i
Ù ĪÙĤÙ
Ø¨ÙĬØ¯ ÙĬØ§
ab le
ĠØªØ ºØ°ÙĬØ©
¬Ø§ Ø¬
ħ Ø¯Ø§Ø±
ĠÙĦÙĦÙ ĨØ
Ø¯Øª ÙĩØ§
m in
± ÙĩØ§
Ġ ÙħÙģØ
ĠÙħØ¹ Ùĩ
Ø¹ÙĦÙ ĪÙħ
ĠÙģÙĬ Ø³
Ø¯ ÙĩØ§
Ø¹ÙĨØ¯ ÙħØ§
ĠØ§ ÙģÙĦØ§Ùħ
ĠØ¨ Ø³Ø±Ø¹Ø©
ĠØ§ÙĦÙħÙĪ Ø³Ùħ
Ø¯Ø§ ÙĨÙĬ
ÙĩØ§Ù Ĭ
y r
ĠØ¯ ÙģØ¹
ħ ÙģØ§
ĠÙĦÙĦÙ ħØ¹Ø¯Ø§Øª
ĠØ¨Ø³ Ø¹Ø±
Ù ħØ¯Ø§Ø±
ĠØ§ÙĦÙģ ÙĨÙĬ
ĠØ¨Ù ĪÙĦÙ
ÙĤØ§ Ø·
ÙĤ Ø±Ø©
ÙĦÙĤ Ù
ÙĨØ§ Ùĩ
Ġp e
ĠØ²ÙĬØ§ Ø±Ø©
ĠÙĥ ÙģØ§Ø¡Ø©
ĠØ§ÙĦÙħØ± ÙĪØ±
ØŃØ ²
ĠØ§ÙĦØ¬ÙĨÙĪØ¨ ÙĬØ©
ÙħØ¬ Ø©
ĠÙģØ±ÙĨ Ø³Ø§
Ġ8 0
Ø³ Ø³
ĠÙħÙĨØ ªØ¬
ªØ§ Ø¬Ø±
µØ§Ø ±
Ġ Ø¯Ø§Ø®
ĠØ§ ÙħØ
ÙĤÙĬ ÙĦÙĩ
ĠØ§ÙĦØ¯ÙĪ ÙĦØ§Ø±
ĠØ§ÙĦØ±Ø³ ÙħÙĬ
e v
Ġ ]
±ÙĬØ ¶
ÙĬØ· Ø±Ø©
ĠÙĨÙĤ ÙĪÙħ
ĠÙĪØ§Ù Ĩ
ĠÙħØ± ØŃÙĦØ©
ĠÙĤ Ø±ÙĬ
ĠØ§ÙĦÙĨ ÙĪÙħ
Ġ ÙħØ¯Ø§Ø±
ĠÙĪØ§ÙĦÙ ĪØ
ĠØ¨Ø§ÙĦ Ø¨Ø
ĠØ¨ Ø±Ø¬
ĠÙħØŃ Ø·Ø§Øª
Ġ ÙĨØ§Ø
ĠØ§ÙĦØª ÙĤÙĨÙĬØ©
µ ÙĦ
ÙĬØ¶Ø§ Ø¡
ĠÙħØ¨Ø§Ø± ÙĬØ§Øª
ªÙĨÙĤ ÙĦ
±Ù ħØ©
Ø® Ø¯ÙħØ§Øª
ĠØ¨ØŃ ÙĬØ«
us t
ĠØ§Ø «Ø§Ø«
6 5
ÙħÙĨØ °
ĠØ§ÙĦØ£Ø ±Ø¨Ø¹Ø§Ø¡
ĩÙ Ĭ
ĠP l
ĠØ§ÙĦØŃ Ø¯
Ù ħÙĥØ©
Ø¶Ø§ ÙĬØ§
ÙĪØ§ Ø¯
ÙĤ Øµ
ÙĪØ¸ ÙĬÙģ
Ø§ÙĦÙĥ Ø±Ø©
ĠØ§ÙĦÙĥ ÙģØ§Ø¡Ø©
ĠØ³ÙĬØ§ Ø³Ø©
ØŃØ§ ÙĨØ§Øª
Ġ qu
ĠØ§ÙĦØ£Ø¨ ÙĬØ¶
ach in
ÙģØ§ ÙĬØ§Øª
« ÙĪÙĤ
ØªØ ª
ï» ¿
Ø¹ ÙĦÙħ
ĠØ¨ Ùģ
ÙģØ ±ÙĬ
ĠÙĦÙħØ Ń
¥Ù Ĭ
ĠÙĥØ« ÙĬØ±Ø©
ĠØ§ÙĦØŃ Ø±Ø§Ø
ĠÙĦØ¯ÙĬ ÙĩØ§
ĠÙĪØ¨ Ø§ÙĦØªØ§ÙĦÙĬ
ou s
ĠØ´ ÙĩØ§Ø¯Ø©
ªØ§ Ø¡
ĠØ£Øµ Ø¨ØŃ
Ùĥ ÙĦØ§Øª
ĠÙħØ² Ø¯
ĠØ¹Ø¨Ø¯ Ø§ÙĦÙĦÙĩ
·Ø§ Ø¨
ĠØ§ÙĦØ® ÙĦØ§
ĠØ®Ø ±
ĠØ¸ ÙĩÙĪØ±
ĠÙĬÙĪ ÙģØ±
ĠØ¥ Ø¹Ø¯Ø§Ø¯
±Ø ´
ĠÙĬØ£ ØªÙĬ
ĠØªØŃ Ø³ÙĬÙĨ
ĠØ§ÙĦÙģ ÙĦØ³
ĠØ§ÙĦÙģÙ Ĭ
ĠÙĦØ ´Ø
S h
ĠØ§ÙĦØ£ Ø³ÙĪØ¯
Ø² ÙĦØª
ĠÙģÙ Ĩ
ĠØŃÙ ħ
ĠØªØ¹ Ø¯ÙĬÙĦ
ØµØ §Ø¦
ĠÙħØŃØ ±Ùĥ
ª ÙĬÙĨ
ĠÙħÙ ĬÙ
®ÙĬØ µØ©
4 1
ÙĪØ§ ØŃÙĬÙĨ
ĠØ§Ø®Øª Ø¨Ø§Ø±
¤ ÙĦØ§Ø¡
at ed
ÙĥØ§Øª Ø¨
ĠØ´ ØŃÙĨ
e le
ĠØ³ÙĬ ÙĥÙĪÙĨ
Ġ 00
ĠØ§ÙĦØªØ ±ÙĥÙĬØ©
Ù ħØ¹Ø§Ù
Ùĩ ÙĪÙĨ
ĠØ§ÙĦØ¨ Ø±Ø§Ø
Ð °
ĠØ§ÙĦØŃ Ø§ÙĦØ©
ĠÙĪØŃØ ªÙī
ĠØ«Ø§ ÙĨÙĬ
Ùĩ ÙĨØ§Ùĥ
ĠÙĪØªØ £
ĠØ¨Ø·Ø§ ÙĤØ©
ª Ø¹Ø±Ùģ
i o
ĠØ§ÙĦØ¹ ÙĤØ§
ĠØ§ÙĦÙĥ ÙĦÙĬ
ĠØ§ÙĦØ¹Ø§ ØµÙħØ©
ĠÙħÙ ĬØ§Ùĩ
ĠØ§ÙĦÙħØ§ Ø¶ÙĬØ©
®Ø ±
ĠØºØ§ ÙĨØ§
Øº ÙĦØ§ÙĤ
ĠØ§ÙĦØ¹Ø ²ÙĬØ²
ĠÙĦÙĦØ£ Ø·ÙģØ§ÙĦ
ĠÙħÙĨØ ²ÙĦ
or g
ĠØ§ÙĦØºØ±Ø¨ ÙĬØ©
Ùģ ÙĪØ¸
ĠØ¯ ÙĪØ§
ng lish
ĠØµ ÙĦØ©
ĠÙĦÙĥÙ Ĭ
Ø§ÙĦÙĪØ ±
Ø¯ÙĪÙ ĨØ©
ĠØªØ ªØ¹
ĠÙħØµØ· ÙģÙī
ĠØ§ÙĦØ¯ Ø¹Ùħ
ĠØ£Ø³ Ø¨Ø§Ø¨
) {
b l
ĠØ§ÙĦØªØµ ÙĨÙĬØ¹
ĠÙħØ³Ø§ ØŃØ©
Ø¯ Ø±Ø§Øª
Ġpro tect
ĠØ§ÙĦØ¨Ø´Ø± ÙĬØ©
ĠØ¨ ÙĦØ
ÙĨØª ÙĬÙĨ
ĠØ´ Ùĩ
Ø¬Ùħ Ø§ÙĦÙĬ
¬Ù ĨØ¨
ĠØ§ÙĦØ³Ø§ Ø¯Ø³
ĠÙĦØ ²
Ø¹ÙĪ Ø¯ÙĬ
ĠÙĤØ§ Ø¹Ø¯Ø©
´Ø§ Ø±Ø©
ºÙ Ī
ÙĤ Ø±Ø§Ø±
Ġt hat
ĠØ§ÙĦØ ´Ø§Ø±ÙĤØ©
ĠØª ØŃÙħÙĦ
ĠØ§ÙĦÙĤ Ø·Ø§Ø¹
ÙĤÙĬ ÙĤÙĬ
ĠØºØ± Ùģ
ĠT h
ĠÙħÙĨØ µ
en s
Ø´Ø± ÙĥØ§Øª
ĠØª Ø¨Ø¯Ø£
9 0
ul l
µÙ ĬØ¨
ĠØªØ£ Ø¬ÙĬØ±
ĠØ °Ø
ĠØ± Ø³Ùħ
ĠÙĥÙ ĪØ¯
ĠØ§ÙĦÙģÙĥ ÙĬØ©
Ù ħÙģØ§
Ø§ÙĦÙ ĪØ§
ÙĥÙĨ Ø¯Ø±ÙĬØ©
ÙħØŃ Ø·Ø©
ĠØªØŃ ÙĪÙĬÙĦ
in a
ĠØ£ ÙĬØ§Ø±
ĠÙĩØ§ Ù
ĠØŃ ØµØ§ÙĨ
ĠØ³ ÙĩÙĦØ©
Ø£Ù Ī
ÙĬÙĪ Ø³
ĠØ§ÙĦÙģ Ø¶
ħ Ø¹Ø±
ª Ø³
Ø§ÙĦÙ ĨØ§
ĠÙĤ ÙĬØ§
l i
ad e
Ø¬Ø§ ÙĨØ¨
ĠG oogle
ĠØ§ÙĦØªØ ¬Ø§Ø±ÙĬ
Â» .
ĠØ¥ Ø·ÙĦØ§ÙĤ
ÙĪØ§Ù ħ
ĠÙĥ ÙĪØ±Ø©
ĠØ§ÙĦØ£ Ø¬ÙĨØ¨ÙĬØ©
ĠÙĦØ§ Ø¨ÙĨ
ĠÙĦÙĦÙ ĪØ
ab ic
Ø¹Ø ²
Ø¨Ù ĨÙī
ĠØ£Ø¨ Ø±Ø²
ĠØ¨ ÙĥÙħ
ĠØ§ÙĦØ³ÙĦØ ·Ø©
Ø¶ Ø·
ĠØ¨ ÙĨÙĬ
ĠØ§ÙĦØª Ø¯Ø±ÙĬ
ĠØ§ÙĦØ¨Ø± ÙĬØ·Ø§
ĠØ§ÙĦÙĦÙ ĪÙĨ
7 5
I N
ĠÙħÙĨØ ®ÙģØ¶
ĠØ§ÙĦØŃØ ±ÙĥØ©
ÙħØ§ ÙħØ§
ĠØ±Ø§Ø¦ Ø¹Ø©
ĠØ§ÙĦÙĤ Ø·
ĠØ£Ù ħØ³
ØŃØ ¸Ø§Øª
ÙĨØ§ ÙĪÙĦ
Ø³ÙĬØ§ Ø±Ø§Øª
¸ ÙĦØ§Øª
ĠÙħÙĤØ§ Ø±ÙĨØ©
ĠØ§ÙĦÙĨ ÙģØ³
à ¸
Ù ĪØ³ÙĬ
Ø §Ø¡
ĠØ£ Ø¯Ø§Ø¡
ĠÙĦØ¥ ÙĨØªØ§Ø¬
D F
ÙħØ§ Ø±Ø©
Ø§ÙĦ Ø¨Ø§
ÙĦÙĬ ÙģØ©
ĠØ¨Ø§ÙĦÙĥØ§ ÙħÙĦ
ĠØ§ÙĦÙĩ ÙĬØ¦Ø©
Ġ200 9
ÙħØ ¶
ÙħÙ ĨØ¹
ĠÙĪØ§ÙĦÙ Ħ
er e
Ø´Ø§ Ø±Ø©
ĠÙĪÙĬÙĥÙĬ Ø¨ÙĬØ¯ÙĬØ§
ĠØº ÙĦØ§ÙĬØ©
ÙĬÙħÙĥÙĨ Ùĥ
ÙĤØ¨ Ø§ÙĦ
Ġ ÙĦØ§Ø
ĪÙĨ Ø¯ÙĬØ§ÙĦ
ĠÙħÙĪ Ø¹Ø¯
S t
ĠØªØ ¸ÙĩØ±
ĠÙħÙĨØ§ Ø³Ø¨Ø©
Ø±Ø ´Ø§
ĠØªØŃ ÙĦÙĬÙĦ
ħ Ø¯Ø©
Ġ ÙĨÙĪØ±
ĠÙħØ§Ù Ĭ
ĠØ§ÙĦØ¹Ø³ ÙĥØ±ÙĬØ©
ĠØ§ÙĦÙĩÙĨØ¯ Ø³Ø©
ĠØ³ ÙĨØ
ĠÙĬØŃ Ø¨
ĠØ§ÙĦÙĥ Ø¨Ø±Ùī
ĠÙħØ±Ø ¶
ĠØªØ µØ±
ĠØ§ÙĦÙģ Ø±ÙĬÙĤ
ÙĦØ³ ÙĦØ§Øª
ĠØ§ÙĦØ °Ø§Øª
Ġ ÙĪÙģØ§
ĠÙĦÙĬØ¨ ÙĬØ§
ĠØ´Ø§ ÙĩØ¯
ĠØ¹ ÙĦÙĪÙħ
ĠØ§ÙĦØ£ØŃ ÙħØ±
ÙĤ Ø±Ø§Ø¡Ø©
Ġ- -
ĠÙĪÙĥØ§ ÙĨØª
ĠØª ÙĨØ¸ÙĬÙħ
¬Ø§ Ø¯
Ġ ÙħÙĥØªØ¨Ø©
Ø¨Ø§ ÙĤ
ĠÙĤ ÙĦÙĬ
ĠØ´Ø± ÙĤ
ĠØ§ÙĦØ£ ÙħÙħ
ĠØ§ÙĦØ³ ÙĪØ±ÙĬØ©
l ine
ïº İ
ĠØª ÙģØ§
p ort
ØŃ ÙĪÙĨØ©
Ø³ÙĪ ÙĤÙĬ
ĠØ³ÙĬØ ªÙħ
ĠØ§ÙĦØ® Ø¨Ø«
ĠØ§ÙĦÙĤØ §Ø¦ÙħØ©
ĠØŃ Ø´Ø±Ø§Øª
ĠØ§ÙĦØ§Ø±Øª Ø¨Ø§Ø·
ĠØ¥ Ø®
¬Ù ĪÙĩ
Ù ĪÙģÙ
Ġ %
ĠØ§ÙĦØ´Ø ®ØµÙĬ
ĠÙĪÙĬØ ªÙħ
ÙĬØ§ Ø¨
ÙĥÙ ĪØ¨
ĠØ§ÙĦÙħ ÙĦÙģ
ĠØ§ÙĦØ£ ÙħÙĬØ±
ÙħÙĬÙ ĨØ§
Ġht tps
Ġprotect ed
ĠÙħÙĨ Ù
ÙĤ Ø³Ùħ
ĠØ§ÙĦØµ ØŃÙĬ
ĠØ§ÙĦÙĦ Ø¹Ø¨Ø©
Ù «
Ġ ÙħÙĥØ©
ÙģÙĩ ÙĪÙħ
ĠØ¨Ø³ ÙĩÙĪÙĦØ©
ĠØ·Ø §Ø¦
ĠØ§ÙĦØ¹ ÙĨØ§ÙĬØ©
ĠØ§ÙĦÙħÙĨØ§ Ø³Ø¨
ÙĨØªØ®Ø§ Ø¨Ø§Øª
ĠØ£Øµ ØŃØ§Ø¨
¦ ÙĪÙĨ
¥ Ø°Ø§
Ø·Ø ±ÙĤ
7 0
Ð ¾
Ġ !
Ù ħØ¹Ø±
ĠØ¹ Ø§ÙĦÙĬ
®Ø§ Ø°
3 4
Ø³Ø§ Ø¯
r u
ĠØ§ Ø¹Ø±Ø¶
ÙĦÙĤÙ Ĭ
ĠÙħÙĨØ² ÙĦÙĬØ©
ĠØ§ÙĦÙħØªØ¹ ÙĦÙĤØ©
ħ Ø³Ø©
ĠÙģØ¥ÙĨ Ùĩ
ĠØ§ÙĦÙģÙĦØ³Ø· ÙĬÙĨÙĬØ©
im e
ĠØ§ÙĦÙĤ ÙĩÙĪØ©
ĠØ§ÙĦØ¹ Ø§ÙĦÙĬØ©
Ġ3 5
ĠØ§ÙĦØ¥Ù Ĭ
ĠØ±ÙĪØ§ ÙĬØ©
ĠØ£ÙħØ±ÙĬ ÙĥØ§
ĠØ§ÙĦØ² Ø¬Ø§Ø¬
ĠØ£ÙĪ ÙĦØ§
ĠØ§ÙĦØ¹ÙĦØ§ ÙħØ©
µØ§ Øµ
Ø ±ÙĤ
ÙĤØªØµØ§ Ø¯ÙĬØ©
ĠÙħØ¬ ÙĦØ©
ĠØ§ Ùģ
ĠÙħÙĪÙĤØ¹ ÙĨØ§
ĠÙħÙħÙĬØ ²Ø©
±ÙĬ Ø¨Ø©
ÙģÙĬØ¯ ÙĬÙĪ
ÙĩØªØ²Ø§ Ø²
ĠÙĦÙħÙ ĨØ
ĠØ§ÙĦØ³ ÙĪØ±ÙĬ
ĠØ§ÙĦÙħÙĪØ§ Ø¶ÙĬØ¹
Ø ±ÙĪØ§
ĠÙĦØ ®Ø§Ùħ
as e
Ī ÙĦÙĥ
ĠØ§ÙĦØ· ÙĪØ¨
Ī Ø¨Ø±
Ø±Ø ¬Ø§ÙĨ
Ø¨ ÙĪØ§
ĠØ£ÙĪÙĥ Ø±Ø§ÙĨÙĬØ§
ĠØ§ Ø®Ø¨Ø§Ø±
¦ ÙĬØ©
ĨØ¯ ÙĬØ©
ĠØª ÙĤÙĨÙĬØ©
Ġ ÙĪÙĤÙ
ĠØŃØ ±
ĠØ¨Ø ªØ§Ø±ÙĬØ®
ÙģØªØ ªØ§ØŃ
E R
Ø®Øª ÙĬØ§Ø±
Ø¶Ø§Ø ª
ĠØ´Ø± ÙĪØ·
ĠØ§ÙĦØ£ ÙģØ¶ÙĦ
Ø³Ù ĪØ¨
ion s
ĠØªØ ´Ø±ÙĬÙĨ
8 9
ÙĦØºØ§ Ù
m an
ĠØ§ÙĦÙħ Ø¯ÙĨ
ÙĥØ± Ø¨ÙĪÙĨØ§Øª
ĠÙģ ÙħÙĨ
ĠØ§ Ø¨ÙĪ
ĠÙ¢ Ùł
ĠÙĬØ¬ ÙĪØ²
Ø¹Ø ´
Ġ ÙĬÙĥ
ĠØ§ÙĦØ±Ø³ ÙħÙĬØ©
ĠØ§ÙĦØªØ¹ÙĦÙĬ ÙħÙĬØ©
ĠØ§ÙĦÙĦ Ø¨ÙĨØ§
ĠØ§ÙĦØ±ÙĬØ§Ø¶ Ø©
¬Ø ª
ĠÙħØŃ ÙħÙĪÙĦØ©
Ø¯Ø§ Ø¨
ĠÙģ ØŃÙħ
w e
ĠØ§ÙĦØ² Ø±Ø§
Ĩ ÙĪÙħ
ĠÙĦØ ºØ©
ĠØ§ÙĦÙĥØ ±ÙĪÙħ
ĠØ§ÙĦØµ ÙĬØ§ÙĨØ©
Ø¨Ø º
§ ÙģØ¶ÙĦ
ĠØ·Ø ±Ùģ
Ø±ÙĬ Ø¯Ø©
in ing
ĠÙħØŃ ÙģÙĪØ¸
ew s
r i
ĠÙĦÙĦØªØ £
Ġ le
ÙĦØºØ§Ù ħ
Ĩ Ø³Ø®Ø©
ĠØ ´Ø§Ø±Ø¹
ÙģØ§ ÙĤÙĬØ©
ĠØŃ ÙħØ§
ĠØ¶ Ø¹
Ø §ÙģØ¶ÙĦ
ĠØ§ÙĦÙħÙĨØ ºÙĨÙĬØ²
ĠØ¯ ÙħØ´ÙĤ
ÙĨØ§ Ø¦ÙĬ
ĠØ¥ Ø¶Ø§
ĠØ§ÙĦØªØ³ ÙĪÙĬÙĤ
ĠÙħÙĪ Ø¨Ø§ÙĬÙĦ
Û ©
Ø³ Ø§ÙĦØ§Øª
ÙĪØ ²ÙĬ
ĠØ§ÙĦÙħ ÙģØ
ÙħÙĬØ ±Ø§
Ø¨Ø§Ù Ĭ
Ġ ÙħØ¹Ø§Ù
ĠØ¨ ÙĩØ°Ùĩ
ĠØ§ÙĦØ¥ ÙĨØ¬ÙĦÙĬØ²ÙĬØ©
Ġc ook
ĠØ¨Ø£ÙĨ Ùĩ
ĠØª ÙĪØ§
ĠØªØ ´Ø
ÙħÙĩ ÙĪØ±
Ù ĪØ¨Ø±
Ĭ ÙħÙĨ
Ġ Ø¯Ø®ÙĪÙĦ
Ġ ÙĬÙĦØ§
ĠØ§ÙĦØ¹ Ø¯
. âĢı
ĠØ¨Ø§ÙĦ Øµ
ĠÙħÙ ĪÙĦ
±ÙĪØ Ń
¸Ø§ ÙĩØ±
Ø ªØ¹Ø±Ùģ
ÙĪØª ÙĬÙĨ
Ġc rush
ªØ± Ùĥ
Ġ ÙħÙģØ§
ĠØ¨Ø§Ù Ĭ
±Ø ·Ø§ÙĨ
Ĩ Ø¹Ùħ
ªØ µØ±
Â» ØĮ
Ù ¨
ĠÙĨØ ²
±Ù ĪÙĤ
« ÙĦ
ĠØ§ÙĦØ±Ø§ Ø¨Ø¹Ø©
s o
ĠØ§ÙĦÙ ĪÙ
ØŃØ¶ ÙĪØ±
ØªØµ ÙħÙĬÙħ
ĠØ§ÙĦÙĨ ÙĤØ¯
f unction
Ġ200 8
Ġ Ø³Ø±Ø¹Ø©
ĠÙĪØ ±ÙĤ
ĠØ§ÙĦÙħ Ø¹Ø±ÙģØ©
ĠÙĤ Ø·
ÙģØªÙĪØŃ Ø©
Ġw or
Ø¨Ø§Ø± Ùĥ
ĠØ¨Ø§ÙĦØ ®
ĠÙħØ µØºØ±Ø©
ĠÙĨØ§ Ø¯ÙĬ
as h
Ī ÙĩØ°Ùĩ
Ù ĪÙĩØ°Ùĩ
Ø¨ ÙĩØ©
ĠØ³ ÙħØ§
ĠÙĬØ ²ÙĬØ¯
ĠØ§ÙĦØ´Ø± ÙĤÙĬØ©
Ø¯Ø§ Ø±Ø§Øª
ĠÙħØ¹ Ø¯ÙĦ
ÙĬÙģ ÙĪÙĨ
ÙĤØ ´
Ø¹Ø ·
ĠP E
ÙħÙ ĤØ§
ĠØ§ÙĦÙĨÙģØ· ÙĬØ©
ĠØ£ Ø¹Ø¶Ø§Ø¡
ĠØ³ ÙĦÙĬ
ÙĦÙĤØ §Ø¦ÙĬ
ĠÙħØªØ ®ØµØµ
¸Ø§Ø ±
ĠØŃ Ø§ÙĦØ§Øª
ĢØ §
Ù ĨØ³Ø®Ø©
ĠÙħØŃØ ªÙĪÙī
Ø³Ù ħØ¹
ĠÙĪØ§ÙĦØ ²
ĠØ§ÙĦÙģÙ Ĩ
ĠØ§ÙĦØ§ÙĦÙĥØªØ ±ÙĪÙĨÙĬ
ĠØ§ÙĦØ· ÙĬÙĨ
ĠØ§ÙĦÙħØ ±Ø¬
ĠØ§ÙĦÙħÙĨØ² ÙĦÙĬØ©
ĠØ§ÙĦØ¥ ÙĬØ±Ø§
ÙĬØ² ÙĦ
Ø³ØªØ º
ĠØ§ÙĦØ¬Ù ĨØ³
ĠØ¥ Ø³Ø±Ø§Ø¦ÙĬÙĦ
ØŃØ¯ ÙĬØ«
ÙĪØ±Ø§Ù Ĩ
Ø¬ Ø¦
ĠØ±Ø ºÙħ
ĠØ§ÙĦØ§ØŃØª ÙĦØ§ÙĦ
âĢ Ļ
Ġ ÙĪØ¨Ø±
ĠØ¨Ø ªØŃ
ĠØ§ Ø²
ÙĩØ§Ù ħ
ĠØ¥ Ø²Ø§ÙĦØ©
ÙģØ ²
ĠØ§ÙĦÙħÙĨØ§ Ø³Ø¨Ø©
ĠÙĪØ§ Ø³Ø¹Ø©
ĠØ§ÙĦØ§ ÙĨØªØ§Ø¬
ĠØ§ÙĦØ¹Ø µ
ĠØ§ÙĦÙĦ Ø¬ÙĨØ©
·Ù ĬØ¨
Ø§ÙĦØ °ÙĩØ¨
ĠÙĪØ§ÙĦØ ¢
ÙħØ ·Ø§ØŃÙĨ
ĠØ¨ØŃ Ø³Ø¨
Ġ ÙħØ¹Ø±
ĠØ¨Ø£ ÙģØ¶ÙĦ
m l
ĠØ§ ØŃÙħØ¯
ĠØ£ÙĨ Ùĥ
ĠØ§ Ø¯
ĠØ§ÙĦØ§Ø¨ØªØ¯Ø§ Ø¦ÙĬØ©
Ġ ag
Ø¬ ÙħÙĬØ¹
Ø¹ ÙĪÙĨ
ĠØ§ÙĦØ¹ÙĦØ§ ÙĤØ§Øª
ĠØ§ÙĦØ¬ Ø±Ø§
ÙĪØ§Ø¬ Ø¯
ÙħÙ ĨÙī
ÙĨØ§ Ùģ
ÙħØ§Ø ±Ø³
ĠÙħÙ ħÙĥÙĨ
ĠØ§ÙĦÙħØ· ÙĦÙĪØ¨Ø©
Ø±Ø¬ Ø§ÙĦ
ĠØ§ÙĦÙĨØ§Ø ±
an k
ĠØ£Ø³ Ø¨ÙĪØ¹
Ø³Ø·Ù Ĩ
ĠØ¹Ø· ÙĪØ±
ĠÙĪØªØ ´
ĠØªÙĤ Ø¹
ĠÙĪØ ±Ø¯
ol d
ĠØ¨ ÙħÙĨØ§
Ùĩ ÙĦØ§Ùĥ
ĠØ§ ÙĤ
O N
ĠÙĬØ¬ Ø¹ÙĦ
ĠÙĩØ§Øª Ùģ
ĠÙĪØ¥ Ø°Ø§
ind ow
ĠØ´Ø± ÙĥØªÙĨØ§
ĠØ§ÙĦØ¬ ÙĦØ¯
ĠØ¯ Ø¹
ĠÙħÙĨØ§ Ø¬Ùħ
ÙģØ ªØ±Ø§
Ø§ÙĦÙģ Ùĥ
ªØ§ Ø©
Ùĩ Ø¨
Ġw eb
Ø¹Ø± Ø¨ÙĬØ©
ĠØ§ Ø®Ø±
Ù ħØ§ÙĦ
em ber
ĠØ§ÙĦØŃÙĬ ÙĪØ§ÙĨØ§Øª
Ø¨ØªØ¯Ø§ Ø¦ÙĬ
ĠØ±Ø§ Ø¨Ø·
ĠÙģØ±Ø µØ©
6 7
ÙħØ ±ÙĪ
Ī ÙĨØ§
ÙĬØ ªØ±
ĠÙĪØ§ÙĦÙ ħØ¹Ø§
ĠØ¨Ø¬ Ø¯Ø©
ĠØ§ÙĦØ³ ÙĥØ±
ØŃ Ùĩ
ĠØªØŃ Ø¯Ø«
ĠØ§ÙĦØ¨Ø ´Ø±Ø©
ĠÙĦ Ø£ÙĬ
ĠØª ÙħØ§Ùħ
§Ø¦Ù ħ
ĠØ´Ø®Øµ ÙĬØ©
ØªØ ±Ùĥ
ĠÙĥØ± Ø¨ÙĪÙĨØ§Øª
ĠØ§ÙĦØ§Øµ Ø·ÙĨØ§
ĠØ§ÙĦØ±ÙĪ Ø³ÙĬ
ÙĨÙĪ Ø¹Ø©
5 9
±ÙĬØ ·Ø©
Ø¹Ø§Ùħ ÙĦØ§Øª
¬ Ø¨
¶ ÙħØ§ÙĨ
r ind
ĠØ¥ ÙĬØ¬Ø§
ÙĤØ§Ù Ĩ
ĠÙģØ§ ØµÙĦ
ĠØ£ ÙĦØ¹Ø§Ø¨
Ġ1 20
( "
6 9
ĠÙĪØµ Ùģ
ĠØªØ¬ Ø¯
et e
ĠØ§ÙĦØ¬ ÙħÙĩÙĪØ±ÙĬØ©
Ø³ÙĬ ÙĤÙī
ĠØ±Ø ¤
ĠØ§ÙĦØ£ ÙĦÙħØ§ÙĨÙĬØ©
ĠÙħØ¤ Ø´Ø±
ĠÙĪØ§ÙĦØ§ Ø³Øª
ĠÙħØ ±Ø§Øª
Ø±Ø§Ø º
ĠØ®ÙĦ Ø§ÙĦÙĩØ§
Ø¦Ø §
Ùĩ ÙĦÙĥ
Ù ĨÙĪÙħ
Ġ ÙĪØ³ÙĬ
ĠØ£ ÙĪØ
ĠÙĤ Ø¨
ĠÙĪØ ªÙħ
ĠÙĦØ ´Ø±ÙĥØ©
Ù ĨØ¹Ùħ
Ù ħØ¯Ø©
Ø³Ù ħØ©
ĠØ¨Ø§ÙĦÙ ĦÙ
ÙĥØ °Ø§
ĠØ§ÙĦÙĪÙ ĬØ¨
ĠÙĥØ« ÙĬØ±Ø§
ĠÙħØ§ Ø°Ø§
ac e
ĠØ¨ ÙħØ¹
Ø¦ Ø¯
±Ø¨ ÙĪÙĨ
ÙĦÙģØ² ÙĬÙĪÙĨ
Ġ202 3
ĠÙĪÙĨ ØŃÙĨ
ĠØ§ÙĦØ£Ø³ ÙĨØ§ÙĨ
ĠØ§ÙĦÙħØ³ ØŃÙĪÙĤ
ĠØ§ÙĦÙħØŃ Ø¯ÙĪØ¯Ø©
Ø¹Ø§Ù Ĩ
ºØ ª
ÙĥØ§Ø¯ÙĬ ÙħÙĬØ©
ĠØ§ÙĦØª Ø³ÙĪÙĤ
ĠÙĪØ¨ ÙĬÙĨ
Ġ ÙĪÙģÙ
ĠØ§ÙĦØ¹ ÙĦÙħØ§Ø¡
Ø¯ ÙĦØ©
Ġ ÙĬÙĪØªÙĬÙĪØ¨
nl ine
Ùĩ Ø±Øª
Ø¨Ø ºÙĬ
ĠØ¬Ø §Ø¦
ĠØ§ÙĦØ£ ÙĦÙĪ
ĠØ§ÙĦØªÙĥ ÙĦÙģØ©
ĠØ§ÙĦØ§ Ø¨
ĠØ§ÙĦÙĬØ§ Ø¨Ø§ÙĨ
ĠØ±ÙħØ ²
ĠØ§ÙĨØ ·
on d
ĠØ¨Ø§ Ø³Øª
ĠÙĥ Ø³Ø§Ø±Ùĩ
an u
Ø ±ÙĪ
ĠØ§ÙĦØ¯ÙĬ ÙħÙĤØ±Ø§
ÙĬØ±Ø§ Ø¯
ÙģØ ¸Ø§Øª
´Øº ÙĦ
ÙĦØ§ ÙĬÙĨ
ħ ÙģÙĬØ¯
ÙĪØ§ Ø©
ĠØ¬Ø¯ÙĬØ¯ ÙĨØ§
ÙģØ§Ù Ĩ
ĠÙĥ ÙĬØ±
ĠØªØ ¶
±ÙĬØ§Ø¶ Ø©
® Ø©
Ù ħÙģÙĬØ¯
ĠØ§ÙĦÙħØ³ØªØ® Ø¯
Ġn ow
ÙĪØ§ Ø²
ÛĮ Ù
ĠØ¹Ø «
ĠØªØ¹ Ø±Ø¶
ĠØ§ÙĦÙħÙĤ Ø§ÙĦØ§Øª
Ø¹ Ø¨Ø¯
ĠØ§ÙĦØ² ÙĪØ¬
ÙħØ§ ÙĬÙĪ
®Ø· Ø·
ĠØ§ÙĦØ ªØ§Ø¨Ø¹Ø©
ÙĦÙĥÙ Ĭ
ĠÙĦÙħÙ Ĩ
Ù ĪØ³Ø§
ĠØŃ ÙģØ¸
ĠØ² ÙĪØ¬
ĠØ§ÙĦØŃ ÙĪØ§Ø±
Ġ Ú©
ĠÙĪÙĥ Ø§ÙĦØ©
ĠÙģ ÙĥØ±Ø©
Ġ ðŁ
achin ery
Ø¨Ø§ Ø¯ÙĦ
ĠØªØ ±Ùħ
ÙĬØ ªÙĪÙĨ
ach ine
20 19
ĠÙĦÙĥ Ø
ĠØŃ Ø¯ÙĬØ¯
ĠØµ ÙĦØ§ØŃ
ro w
Ø¶Ø §Ø¦ÙĬØ©
ĠÙĦØªØ¬ ÙĩÙĬØ²
ĠØ§ÙĦÙģ ÙĨØ§ÙĨ
ĠÙĪØ§ÙĦÙ ħØ¹
ĠÙĨØ§ ØµØ±
Ġ ÙĨÙĪÙħ
ĠØŃØ¯ ÙĪØ«
ÙħÙĬØ ±Ø§Øª
ĠÙĪÙĬ Ø¨
ĠØµÙĨ Ø¯ÙĪÙĤ
ĠÙħÙĨØ ¸ÙħØ©
Ø³ Ø¨Ø§Øª
ÙħÙĪ Ø³
ĠØªØ±Ø ºØ¨
ĠÙĦÙ ħØ¹
®Ù ħ
ĠÙĨÙģØ³ ÙĩØ§
ĠÙĪÙħÙ ĪØ§
¸Ø§ ÙģØ©
ħ Ø¯Ø
ĠØ§ÙĦÙĦØ§ Ø¹Ø¨
Ĭ ÙĤØ
ĠÙħØ¹ ÙĬÙĨØ©
Ġ Ø¯ÙĪÙĦÙ
R e
ĠØŃØ§ Ø
ĠØ§ÙĦÙĦÙ ĪØ
ĠØ² ÙĬÙĨ
ÙĥØ³ ÙĬØª
ÙĬØ ºØ©
Ġ0 8
ĠØ§ÙĦØ´Ù Ĭ
ħ ÙĥÙĪÙĨØ§Øª
ĠØ§ÙĦØ£ Ø¯Ø§Ø¡
Ø¦ Ø¹Ø©
ĠØ¨ ØŃØ§
Ø¯ÙĬ Ùĩ
ÙĥÙĬ ÙģØ§Øª
Ø¦ Ùĩ
¬Ø§ Ø¹
Ø¨ ÙĬØ§
ĠØ§ÙĦØ ·Ø±
ĠA nd
ĠØ¨Ø§ÙĦÙ ĤØ
Ġ0 3
Ġt r
Ø¨ Ø±Ø§Øª
oc k
Øµ ÙĬØ±
Ùĩ ÙĦØ§
ĠØ¨ ÙĪØµ
âĢ «
Ġ0 7
ÙĪØ ±ÙĨ
®Øµ Ø©
Ø¢ Ø®Ø±
ĠØ§ÙĦÙĨ ÙĤ
Ġ et
ĠÙĪØ· ØŃÙĨ
ÙģØª Ùĩ
ĠØ§ÙĦØ´ Ø±Ø§Ø¡
ĠØ³ Ø¹Ø¯
ĠØ¥ ÙĦØºØ§Ø¡
ĠØ§ÙĦØ¨Ø§ ØŃØ«
ĠØ§ÙĦØ¹Ø« ÙĪØ±
ÙĨØº ÙĩØ§ÙĬ
ĠÙĦØ§ ÙĬÙģ
ĠØ¨Ø ±ÙĬØ
ĠØ§ÙĦÙħÙĨØ ª
ag es
ĠØ§ÙĦØ£Ø³ ÙĪØ§ÙĤ
ĠÙħØ ¶Ø
Ġ ac
ĠØªØ´ ÙħÙĦ
ÙĪØ± Ùĩ
ĠØ§ÙĦÙĤ ÙĬØ§Ø¯Ø©
Ġ0 9
± ÙĤÙħ
ĠØ °ÙĪ
ÙħØ§Ø ´
ĠÙĦÙĦ Ø¨Ø
Ùģ Ùģ
ĠØ§ÙĦØ¹Ø± ÙĪØ¶
ĠØ¨Ø³ ÙĬØ·Ø©
ĠØªØµ ÙĦÙĬØŃ
ĠØ§ÙĦØ¹Ø µØ±
ĠØ¨Ø·Ù ĪÙĦØ©
ĠØ´ ÙĤÙĤ
ĠØ¹Ø§ÙĦÙħÙ ĬØ©
ĠØ§ÙĦØ³ Ø¨Ø¨
ÙĪÙĤ Ø¯
ĠØ§ÙĦØ ºØ
âĢ¦ âĢ¦
ĠØ® ÙĬØ§Ø±Ø§Øª
Ð ¸
Ø§ÙĦØ ²
ĠØ£ ÙĦØ§
l l
ĠØ§Ø³ØªØ®Ø¯Ø§ ÙħÙĩØ§
A N
ĠØ§ÙĦØ¯ ÙĤÙĬÙĤ
ĠØ§ÙĦØªØ® ÙĦØµ
Ġ0 2
ĠØ§ÙĦÙĬÙĪ ÙħÙĬØ©
ĠÙĬØ ®Ø
ĠØ ²ÙĬ
ĠÙĦØªØŃ ÙĤÙĬÙĤ
ĠØ§ÙĦØ³Ø±ÙĬ Ø¹
ĠØ§ÙĦØªÙ ĨÙģÙĬØ
ĠÙĦÙģ Ø
ĠØ ²Ø±
Ġ ÙĨØ³Ø®Ø©
ĠØªØ ¬Ø§Ø±Ø©
ĠØ§ÙĦÙħÙĤ Ø¯ÙħØ©
ÙģÙ ĪÙĤ
´Ø ·
Ī ÙĬØŃ
---- ----
ĠÙĥØ ±ÙĬ
ĠØŃ Ø§ÙĦÙĬØ§
ĠB l
´Ø§ Ø±Ø§Øª
¶Ø§ ÙģØ©
ĠØ§ÙĦØ® Ø¨Ø±Ø©
ÙĪØ ŃØ§
Ġ Ø¯Ø§Ù
ĠÙħÙĨØ ªØ®Ø¨
ĠØ¬ Ø¯ÙĪÙī
ÙĨØ ±
ĠØ¨ ÙĨØª
o x
ĠØ§ÙĦÙĥØ§ ÙħÙĦ
ĠØ§ÙĦÙħ ÙģØ§
ĠØ§ÙĦÙĤ ÙĬÙħØ©
ÙĦØ§ Øµ
ĠÙĦØ¯ÙĬ Ùĩ
ĠØª ÙĥÙĨÙĪÙĦÙĪØ¬ÙĬØ§
Ù ħÙĥÙĨ
ĠÙĥØ§Ø ±
ĠÙĦÙĥ Ø±Ø©
ĠØ¨ ÙĩØ¯Ùģ
Ù ĬÙĤØ
ĠØ§ÙĦÙħÙĨØ§ Ø²ÙĦ
ÙħØ ŃØ§
Ù ħØ¯Ø
en ce
ĠÙĤØ§ ÙħØª
¸Ù Ĭ
ĠØ§ÙĦØ° Ø±Ø©
Ġ4 5
Ø´Ø§ ÙĩØ¯
Ġ ÙħÙģÙĬØ¯
Ø±Øª Ùĥ
ĠÙĦÙħØ§ Ø°Ø§
ĠÙħØŃ ÙĦ
Ù ¥
ĠØ® ÙĦØ·
Ø±Ø º
Ø¯Ø® Ø§ÙĦ
r ic
ÙĥØ ±ÙĪÙĨ
ĠØ§ÙĦØ§ Ø±Ø¶
ÙĤØ§ Ùģ
Ùĥ Ø±Ø§
ÙĥÙ ĪØ¯
ĠØ§ÙĦÙħØ ºØ±Ø¨ÙĬ
ĠØ§ÙĦÙħÙĨØ ªØ®Ø¨
ÙĦØ§Ù Ĭ
·Ø ±ÙĤ
ÙħØ ±Ø§Øª
Ø ªØ§Ø±ÙĬØ®
ÙħØ±Ø§ Ø¡
ol l
ĠØ¨Ø§ÙĦÙģ Ø¹ÙĦ
ĠÙĪØ ¸ÙĬÙģØ©
®Ø§Ø ª
ĠØ¨Ø¯ Ø£
Ø¨Ø§Ø¨ ÙĪÙĬ
ĠØ§ÙĦØ±Ø¬ Ø§ÙĦ
ĨÙ ĪÙĥ
ĠÙĤÙ ĪÙĬØ©
ħ Ø³Ø§Ø¨
±ÙĪ ÙĬØ¬
ĠØ§ÙĦÙĩÙĬ Ø¯Ø±ÙĪ
ÙħÙ ĪÙħ
ÙĬÙĨØ º
ĠØ§ÙĦÙħØŃ ÙĦÙĬ
ĠØ¨Ø¯ Ø£Øª
ĠÙħØ´Ø§ Ø±ÙĬØ¹
c ess
ĠÙħÙĨØª Ø¯ÙĬØ§Øª
ĠØ§ÙĦØ§ Ø«ÙĨÙĬÙĨ
ĠÙħÙ ħÙ
ĠØ§ÙĦØ´ ØŃÙĨ
Ø¹ Ø¯Øª
E D
ĠØ§ÙĦØ§ÙĤØªØµØ§ Ø¯ÙĬ
ÙĥØ ±ÙĪ
ĠÙĥØ§ÙĨ ÙĪÙĨ
ĠØ¥Øµ Ø¯Ø§Ø±
Ø¶ Ùģ
Ġg et
ĠØ§ÙĦØ¥ ØŃ
ĠØªØ¹ ÙĦÙĬÙħ
e u
ĠØ® ÙĬØ±
ĠØ·Ø¨ÙĬ Ø¹ÙĬ
ĠØ¬ Ø¹
ĠØº Ø±Ø§ÙħØ©
ĠÙĩØ ¤ÙĦØ§Ø¡
l ass
ÙĨØ§ Ø¹
ĠØ¹ Ø³
ĠÙĦØ£ÙĨ ÙĩØ§
Ĭ Ø³ØªØ·ÙĬØ¹
ĠØ§ÙĨ Ùģ
ĠÙħØ ±Ø¨Ø¹
Ø³Ø·ÙĨ Ø¨ÙĪÙĦ
ĠØ§ÙĦ Ø¯Ø
ĠØ£ Ø¯Ø§Ø©
erv ice
¬Ø§Ø ±Ø¨
ĠÙĬØ¨ ØŃØ«
ÙĤ Ø¯ÙħØ©
ØªØ ±Ùģ
ĠØ¥ÙĨ ÙĩØ§
ĠP M
Ù ĪÙĬØŃ
ØªØ ¬Ø§Ùĩ
ĠØ§ Ø¨Øª
¶Ø ºØ·
ĠØ§ÙĦØª Ø¹ÙĪÙĬÙħ
Ø¯ÙĪÙ Ĭ
Ø¨ ÙĥØ§Øª
ĠØ§ÙĦØª ÙģØ§
ĠØ ²Ø§Ù
Ø±ÙĬ Ø³
ĠØ§ÙĦØ³Ù ĨÙĪØ§Øª
ÙħÙĪØ ª
Ġ0 6
ĠØ§ÙĦØ¥ Ø¹ÙĦØ§
ĠÙĥ Ø±Ø§Øª
ĠØ§ÙĦØ¯Ø±Ø§ Ø³ÙĬ
µÙ ĨÙģ
±ÙĬØ ¬
Ø±Ø ªÙĪÙĨ
Ø¹Ø ±ÙĬÙģ
ĠÙħØŃÙģÙĪØ¸ Ø©
ĠØŃØ² Ø¨
ĠÙĪØ¹ Ø¯Ùħ
Ġ0 4
ĠØ °ÙĩØ¨
±ÙĪÙ Ĭ
Ùģ ÙĦØ§Øª
Ġ Ø¯Ø
ªÙ ĪØ¨
ªÙ ĨÙģÙĬØ°
ĠÙĪØ§ÙĦÙħÙ ĨØ§
ĠØ§ ØŃØªØ±Ø§
Ġ ÙĪÙĩØ°Ùĩ
Ù ĬØ³ØªØ·ÙĬØ¹
hats app
´Ø±ÙĪ Ø¹Ø§Øª
Ø·Ø§ Ø±Ø§Øª
O S
ĠÙĥØ§ÙĨ ÙĪØ§
8 3
ĠØ§ÙĦØŃ Ø§ÙĦØ§Øª
ĠØ£Ø³ ÙħØ§Ø¡
ĠÙħØ¨ÙĬ Ø¹Ø§Øª
ĠØ¢ Ù
ĠØ§ÙĦØ£ ÙĦØºØ§Ùħ
ĠØª ÙħØ§ÙħØ§
ĠØ§ÙĦØ® ÙĬÙħØ©
ĠR ead
ÙĦÙĪ Ø³
ĠÙĤØµ ÙĬØ±Ø©
Ø³Ø ±Ø©
Ø¨ÙĪ ÙĬØ©
Ø§ÙĦØ ´Ø±ÙĥØ©
ĠØ®Ø ²Ø§ÙĨØ§Øª
ĠÙĪØ§ÙĦØ ªØŃ
Ġ ÙĬÙĤØ
Ø´Ù Ĭ
ĠØ±Ø£ Ù
ĠÙģ ÙĬØ±ÙĪØ³
Ø¨Ø§Ø º
ĠØ§ÙĦØ£Ø³Ø§ Ø³ÙĬ
em ent
Ùĭ :
ĨÙĬ Ùĥ
ĠØªÙ ĪÙĤ
ĠØ§ÙĦÙĪØ§ Ø
à ¤
ĠØª ÙĨØª
ĠÙĪØ£ Øµ
ĠØ§ÙĦØŃ ÙģØ§Ø¸
ĠØªØ ®Øµ
ÙħØ ®Ø
ĠØ§ÙĨØ ®ÙģØ§Ø¶
ĠØ§ÙĦØ¯ ÙĤÙĬÙĤØ©
ĠØ§ÙĦØ£ ÙĦØ¹Ø§Ø¨
Ġ im
ĠÙħÙ ĬØ¯
ol og
ĠØ±Ø£Ù Ĭ
Ùĩ Ø¯Ø§Ùģ
ĠØªØµ ÙĨÙĬÙģ
ĠØµØ ®ÙĪØ±
ĠØ§ÙĦØ£Ø´ ÙĬØ§Ø¡
ÙħÙĨ ÙĬÙĪÙħ
ĠØ§Ø¬ØªÙħØ§ Ø¹
ÙĤÙĬÙĤ ÙĬØ©
ÙĬØ² Ø©
ĠØ±Ø ®ÙĬØµØ©
ÙĪØ§ Ø¦ÙĦ
ØŃØ§ Ø¯ÙĬØ«
ĠØ¬Ø§ Ùĥ
ĠØ¬Ù Ĩ
ĠÙĩÙ Ģ
ĠØ§ÙĦÙĤ ÙĪØ§Øª
ĠØ¨ Ø¹ÙĬØ¯
ĠØ§ÙĦ Ø³Ø±Ø¹Ø©
ĠØ§ÙĦØ¬ ÙĬØ±
ĠÙĪØªØ ¬
ĠØ§ÙĦÙĤØ§ÙĨÙĪÙĨ ÙĬØ©
Ø¨Ø§ Ùĥ
ĠÙĤ ÙĪÙĦÙĩ
ĠØŃØ§Ø ±
m er
ĠØ§ÙĦÙħØ³Øª ÙĤØ¨ÙĦ
Ùĩ Ùĩ
ĠØ§ÙĦÙħÙĨØ ´
Ù §
ÙĬØ ±Øª
ĠØ§ÙĦÙħØªÙĪ Ø³Ø·Ø©
ĠÙĩ Ø¯Ùģ
Ùı Ùĳ
ĠØ£Ø ª
ÙĤÙĬ Ø¹
ĠÙĪØ§ÙĦÙ ĦÙĩ
ĠØ§ÙĦÙħØµ Ø¯Ø±
ĠØ³Ø§Ù ħ
Ø¬ Ø¯
ª ÙģØ³ÙĬØ±
Ġ ÙħØ¯Ø
ĠÙĪØ ºØ±Ø¨
ĠØ§ÙĦØŃ ÙĬÙĪÙĬØ©
ĠÙģ Ø¹ÙĦ
Ø¬Ùħ ÙĦØ©
ĠØ§ÙĦØªØ ·Ø¨ÙĬÙĤØ§Øª
ĠØ¯ ÙĤØ§Ø¦ÙĤ
9 7
ĠØ§ÙĦØ§Ø± Ø¯ÙĨ
ĠA M
at a
ĠÙĥ ÙħÙĬØ©
m ail
ÙĪØ ²ÙĬØ¹
s ite
ïº Ķ
ĠØ¨ ÙĪØ±
Ø¨Ø±Ø§ ÙħØ¬
ĠØªÙĤ ÙĬÙĬÙħ
ÙĦÙĨ ÙĥØ±
ĠØ§ÙĦØ¹Ø¸ ÙĬÙħ
ĠØ® ÙĦÙĤ
Ø±Ø³ ÙĦ
ĠØ£Ø³Ø§ Ø³ÙĬ
ĠØ³Ø ¤Ø§ÙĦ
ĠØ³Ø§Ù Ĩ
ĠØ§ Ø¬ÙĩØ²Ø©
ħ Ø§ÙĦÙĥ
ĠØ³ ÙĪÙī
ĠØ³Ø±ÙĬ Ø¹
ÙĦØ§ ÙĤØ©
ĠØ§ÙĦÙĤ Ø¶Ø§Ø¡
ĠØ±Ø ¶ÙĬ
ĪØ§ÙĦÙ Ĭ
Ĩ Ø³Ø§
ÙħÙ ħÙ
ĠØ§ÙĦØ± ÙĤÙħ
Ø¨Ø· Ø§ÙĦ
ĠØ±Ø¨ ÙħØ§
Ø¯ ÙĪØ²
Ø ªÙģØ³ÙĬØ±
ØŃØ§Ù ħ
ĠÙħØ±Ø§ ÙĥØ²
ĠØ± Ø³Ø§Ø¦ÙĦ
ĠØ§ÙĦØ®Ø ´Ø¨
ar n
Ø£Ù ĪÙĦØ§
ĠØ§ÙĦØ¨Ø§ Ø²ÙĦØª
ĠØŃ Ø¯ÙĪØ¯
ĠØµ ØŃÙĬÙģØ©
ĠØ§ Ø®
ÙĤ Ø·Ø¹
Ø§ÙĦ Ø±Ø
ĠØª Ø³ÙĪÙĤ
ĠÙģ ÙĩÙħ
ĠØ§ÙĦØŃ Ø³Ø§Ø¨
ĠØ§ÙĦØ´Ø§ Ù
e f
ĠØ³Ø ªØ§
Ġab out
ĠØ§ Ø«
ĠØ§ÙĦØ² ÙĪØ§Ø¬
Ġ ÙĬØ³ØªØ·ÙĬØ¹
ĠØ§ÙĦØ¢Ø®Ø± ÙĬÙĨ
ĠÙĦÙĦØ ªØŃ
ĠØ³ Ø¹ÙĪØ¯ÙĬ
ĠÙĪØ§ÙĦÙ ĩ
it ion
ĠÙĦÙĦ Ø¹ÙħÙĦ
ĠØ§ÙĦØ´Ù ħØ§ÙĦÙĬØ©
ĠØ§ÙĦÙĩÙĬ Ø¯Ø±ÙĪÙĦÙĬÙĥÙĬØ©
ÙĦÙĬØ¯ ÙĬØ©
Ġd es
ĠØ¨ Ø¬Ø§ÙħØ¹Ø©
Ø¦Ø§ Ø
ĠØ§ÙĦØ³ ÙĬØ±Ø§ÙħÙĬÙĥ
ÙĬÙħ Ø¨Ø§Ø¨ÙĪÙĬ
ĠØŃØ ±Ùģ
ĠØ¨ ÙĥØ±
ĠØ§ÙĦÙĦÙ ĬØ
ĠØ§ÙĦÙħØ¤ Ø³Ø³Ø©
Ø±Ø¶ Ø©
ĠØ§ÙĦÙħØ ªØµ
ÙĬØ ªØ´
ĠØ§ÙĦØ¯Ø§ Ø¦
Ø¦ ÙĩØ§
ĠØ§ÙĦØ³Ø§Ø®Ù Ĩ
ĠØ§ÙĦØ¥ Øµ
ĠØ§ÙĦÙħØ ´ØªØ±
Ù ħØ³Ø§Ø¨
ĠØ§Ø®Ø ªØ±
ĠØŃØ ±Ø¨
ĠØ³ ÙĪØ±ÙĬØ©
Ù ħØ¨ÙĬÙĪØªØ±
ĠÙģØ§Ù Ĩ
Ùģ Ø§ÙĦ
ÙģÙĬØ³ Ø¨ÙĪÙĥ
ĠÙĪÙĦ Ø¯
ĠØ§ÙĦØ·Ø§ ØŃÙĨ
ĠØ¹ Ø²ÙĦ
ĠÙĤØµ Øµ
¸Ø ±ÙĬØ©
ĠØ§ÙĦÙĤØ¯ Ø³
Ø±Øª ÙģØ§Ø¹
ĠØ£ ÙħÙĬØ±
ĠØ§ÙĦØ£ ÙĤÙĦ
ÙĬØ ªØ
ĠØ¨ ÙĩÙħ
ar g
ĠØ¥ ÙģØ±ÙĬÙĤÙĬØ§
ĠÙĦØ ±Ø
ĠØ³Ø§ Ø¨
ÙĥÙĪ ÙĦØ§Øª
Ø§ÙĦÙ ĦÙ
du ct
ĠØ§ÙĦØ µØ§Ø¨
Ġs u
Ù ĪÙĤØ§
ĠØ§ÙĦÙĨØ ªØ§Ø¦Ø¬
Ø¹Øª Ùĩ
ĠØ¹ÙĦØ§ ÙĤØ©
Ġ ÙħØ¯Ø©
ħ ÙĦØª
ĠØ§ÙĦØ±Ùħ ÙĦÙĬ
ĠØ£Øµ Ø¨ØŃØª
£ Ø
Ġ _
Ù ĨØ³Ø§
ĠØ§ÙĦØŃÙĥÙĪ ÙħÙĬØ©
m e
ÙĪØ µØ§
Ġ ÙĪØ³Ø§
ĠÙĦÙĦØª Ø¹Ø¯ÙĬÙĨ
ĠØ£Ø «Ø±
ĠØ¨ ÙĦØº
ĠØ§ÙĦÙĤÙ ĪØ©
Ī ÙĩÙħ
ĠØ§ÙĦÙģÙĦØ³Ø· ÙĬÙĨÙĬ
Ñ ģ
ÙĪØ °
ĪØ±Ø¯ ÙĬÙĨ
ĠØ§ Ø¬ÙħÙĦ
ĠC hat
ĠE x
ĠØ®Ø· ÙĪØ§Øª
ĠÙħØ ²ÙĪØ¯
Ø¨ÙĬ ÙĦØ©
ĠØ¨ ØŃØ
ĠØ§ÙĦØªØ± ÙĥÙĬ
´Ø± ÙĤ
ĠÙĪØª Ø³
qu ire
ÙĨØ ²ÙĬÙĦ
ĠØ§ÙĦØ® ÙĬØ±
ĠÙĦÙħÙ ĪØ§
ĠÙĦÙĦØµ Ùģ
Ø³Ø§ Ø³ÙĬØ©
ĠØ§ÙĦØªØ¹ÙĦÙĬ ÙĤØ§Øª
ĠÙĦÙĦÙĥ Ø
Ġcook ies
ĠU n
es e
ĠØŃ Ø¬
ÙģÙĥ ÙĬØ±
ĠØ§ØŃ Ø¯Ø«
ĠØ§ÙĦØ¯ ÙĪØ±
oo d
ØŃØ§Ø ±
ĠØ¥ Ø´
²ÙĨ Ùĥ
ĠØªØ¹Ø ²ÙĬØ²
Ù ħÙĥÙĪÙĨØ§Øª
ĠØ§ÙĦØ± Ø³Ø§Ø¦ÙĦ
ĠØ¨Ø§ÙĦ ØµÙĪØ±
ĠØ§ÙĦØº Ø¨Ø§Ø±
Ġ ro
ĠØ§ÙĦØµÙĨØ§ Ø¹Ø§Øª
ĠØ§ÙĦØŃ Ø¨ÙĪØ¨
ĠØ¥ Ø¨
ĠL td
} }
ĠØªØ±Ø ªÙĬØ¨
ĠÙĥ ÙĪØ±ÙĬØ§
ĠØ§ÙĦØ° ÙĥÙĬØ©
ĠØ§ÙĦÙħØ· Ø¨Ø®
¬Ù ĬØ¨
ĠØ§ÙĦØ³Ø ¤Ø§ÙĦ
â Ĺ
ĠØ§ÙĦÙĥØªØ ±ÙĪÙĨÙĬ
ĠÙħØ³Ø ªÙĪÙĬØ§Øª
ĠØ§ÙĦØ£ Ø¹Ø¶Ø§Ø¡
Ø¦Ø§Ø ª
ĠØ§ÙĦÙĪ Ø³Ø·
ĠØ§ÙĦØ§ Ø³ØªØ«
ÙĪÙ ĬØ³
Ø¬ Ø¹Ø©
±Ø¯ Ø¯
ĠØ§ÙĦØ§ Ø®Ø
ĠÙĪÙħÙ ĨØ§
ĠØ§ÙĦØ±Ø£ Ø³
ĠØ§ÙĦØªØ ±Ùĥ
Ø³Ø§Øª ÙĬÙĨ
ªØ§Ù ħ
Ø¹ÙĦÙ ĩØ§
ĠØ³Ø§ Ø
Ø¹Ø§Ø± Ùģ
Ø ±ÙĤÙħ
ĠØ§ÙĦÙĤ Ø±Ø§Ø±
Ø¯ Ø£
ĠØ¥ Ø±Ø³Ø§ÙĦ
ĠØ§ÙĦØ´ Ùĩ
Ġ7 0
ÙĦÙĤ Ø¯
20 18
ĠØ§ÙĦØ£Ø³Ø ±Ø©
ĠÙĤ ÙĪØ§Ø¹Ø¯
ÙħØ§Ø± ÙĬÙĨ
oun t
ĠØ§ÙĦØ³Ù Ĩ
ĠØ³Ù ĬØ¯
ĠØ§ÙĦÙħÙĪØ§ Ø·ÙĨÙĬÙĨ
ĠÙħÙĨ Ø¹
ĠØ§ÙĦØ§ Ø³Ùħ
Ī ÙĥÙĬÙĦ
ĠÙĬÙĤ Ø¹
ed ia
ĠØ§ÙĦØ¬ ÙĦ
ĠØ§ÙĦÙħØ´Ø§ ÙĥÙĦ
Ø¹Ø ±ÙĬ
Ġ ÙħØ¯Ø±Ø³Ø©
ÙĬÙĨØ ²
ĠØ¥ ÙĨØ
ĠØ§ÙĦÙĥØ§ ÙħÙĦØ©
Ġ en
ħ ÙĥØ
ĠÙĬØ¨ ÙĦØº
ÙĨØ§Ù ħ
Ø·Ù ĬØ¹
ØŃØ§ ÙĪÙĦ
ĠÙĪØ ®Ø§ØµØ©
ÙĦÙĤØ§ Ø
ĠØ§ÙĦØ£ Ø¹
ĠØ§ÙĦØ³ÙĬØ§ ØŃØ©
ÙģØ °Ø©
Ġ3 6
ĠØŃÙĬ Ø¯Ø±
¸ Ùģ
Ø´ Ø¯
Ġ Ø¯Ø®
8 1
ĠØ§ÙĦÙħØ §Ø¦
âĢ ĭ
ªÙħ Ø¯Ø©
Ø³ÙĪ ÙĨØ¬
ĠÙĪØ± ÙĤØ©
ĠØ§ÙĦ Ø¯Ø±
ĠØ¹Ø¶Ù Ī
ĠØ® ÙħØ³
ÙĬØ¶Ø§ Ø
ĠØ§ÙĦÙħØ¨Ø§Ø ´Ø±
ĠÙĦØ ±
§ Ùĩ
er t
ĠØ§ÙĦØ¬Ø§ ÙĨØ¨
ÙħØ µÙĨØ¹ÙĬ
ĠÙĦÙĦ Ø²
Ī Ø¹Ø§
ĠØ§ÙĦØ¥ ØµØ§Ø¨Ø©
Ø¹Ø¯Ø§ Ø¯Ø§Øª
in t
ĠØ£Ùĩ Ø¯Ø§Ùģ
ÙħØ¬ ÙħÙĪØ¹Ø©
ĠØ¹ÙĦØ§ ÙħØ©
ĠØ³ÙĦÙĬ ÙħØ§ÙĨ
ĠÙħÙĤ Ø¯ÙħØ©
an c
ÙģØ¹ ÙĦ
ĠØ§ÙĦÙħØº ÙĨØ§Ø·ÙĬØ³ÙĬ
ĠØ§ Ùĥ
9 6
ÙħØ ªØ
oo l
ĠØ§ÙĦÙħØªÙĪ Ø³Ø·
ĠØªØ ¬Ø§Ø±ÙĬØ©
ĠØ§ÙĦÙħÙĪØ§ Ø±Ø¯
Ù ħÙĥØ
ĠØ§ÙĦØ¥ÙĨ Ø³Ø§ÙĨÙĬØ©
Ġ20 00
ÙĬØ¶Ø§Ø ª
ĠÙĦÙĥ Ø³Ø§Ø±Ø©
ĠØª Ø¯Ø±ÙĬ
±ÙĬØ ´
ĠØ§ÙĦØ£ ÙħÙĪØ§ÙĦ
ĠØ§ÙĦÙħÙ ħÙĥÙĨ
²Ø§ Ø¨
ĠØ§ÙĨ ÙĩØ§
ro id
ĠØ§ÙĦØ¨ÙĪ ÙĥØ³ÙĬØª
ĠØ§ÙĦØŃØ§ Ø¬Ø©
ĠØ¹ Ø¯ÙĬØ¯Ø©
Ùĥ ÙĪØ±Ø§Øª
ĠÙĨÙĪØ¹ ÙĬØ©
ĠÙĥÙ ĪÙĦÙ
ĠØ§ÙĦÙĩÙĬØ¯Ø±ÙĪ ÙĥØ±Ø¨ÙĪÙĨØ§Øª
ĠØ§ÙĦØ±Ø§ Ø¨Ø·
ĠA n
ĠÙĦÙ ĬÙĨ
Ø³Ø ªÙĨ
ĠÙĦÙħ Ø³Ø§
Ø±Ø ¥
ĠØªØ ªÙħ
Ø· ÙĦØ¨
Ø¹Ø¬Ø§ Ø¨
ĠØ§ÙĦØ¬ÙĨ Ø³ÙĬØ©
§ Ùģ
ĠØŃØ³Ø§Ø¨ Ùĥ
ĠØ§ÙĦÙĪØ ¶Ø¹
ÙħØ§Ø ±ÙĬØ©
ÙĦØ «
ĠØ¨ ÙĤÙ
ĠØ¨ÙħÙĨØ§ Ø³Ø¨Ø©
ĠÙĪØ§ÙĦØ ®Ø
ĠÙĤ Ø±Ø
§ Ø®Ø¨Ø§Ø±
ÙħØ´Ø§ ÙĩØ¯Ø©
at er
Ġ ÙĨØ³Ø§
ØŃÙ ĬÙĦ
ĠØ¹ ÙĦÙĬÙĨØ§
ĠØ§ÙĦØ· Ù
ĠØ¨Ø§ÙĦÙĦ ØºØ©
Ø §Ø®Ø¨Ø§Ø±
ÙĦØ§Ø º
Ġ19 7
Ø¯Ø§ ÙħØ©
ĠØ§ÙĦØ« ÙĤØ§ÙģØ©
ØŃ Ø³Ø¨
ĠØ±Ø º
us tr
Ĭ Ø¨Ø¯Ø£
Ù ĬØ¨Ø¯Ø£
ÙĪØ§ Ø¦ÙĬØ©
ĠØ¶ ÙħØ§ÙĨ
ĠØ¹ ÙĬÙĨ
ĠÙħÙĤ Ø§ÙĦØ§Øª
ĠÙħØ µØ±ÙĬ
ĠØ§ÙĦÙĨØ ¬
ĠØ§ÙĦÙħØ´Ø§ Ø±ÙĬØ¹
ear ch
ĠØ£ØŃ ÙĥØ§Ùħ
ĠF acebook
§ Ø³Ø¹Ø§Ø±
ÙĬØªØ§ ÙħÙĬÙĨ
¸Ø§ ÙĩØ±Ø©
ÙħØ³ ÙĦØ³ÙĦ
ĠÙĦÙħØ ¬
ĠØ¨Ø§ÙĦÙħÙ ĪØ±Ø¯
an ce
ĠÙĬØ¨ Ø¯ÙĪ
ªØµØ§ Ø
ĠØ´ ÙħØ³
ĠØ§ÙĦØ£ ÙħØ±Ø§Ø¶
Ĩ Ø¨Ø
ĠÙĥ ÙĪÙħ
Ġ9 0
ÙĥÙħ Ø§ÙĦ
ÙĦØ² ÙħØ§Øª
ĠÙĪØ±Ø§ Ø¡
Ø¨Ø ªÙĬ
ĠØ§ÙĦØ±Ø³ ÙĪÙħ
Ø³Ø± ØŃ
ĢÙĢ Ø
ĠØ¨ Ø£ÙĬ
ĠØ§ÙĦØ¨Ø ·Ø§
ÙĦÙ ĪÙĬ
ĠØ´Ù Ī
ÙħÙĬØ ²Ø©
ĠØ§ÙĦØ¨ Ø±Ø
ĠØ§ÙĦÙħ ÙĦÙģØ§Øª
ÙĦØ ·Ø©
±Ø ªÙĬØ¨
ĠÙħÙĪØ§ Ø¬ÙĩØ©
Ù ĪÙĩÙħ
ĠÙĪØ§ÙĦÙħÙ ĪØ§
ĠØ§ÙĦØ¥ Ø¹ÙĦØ§ÙĨ
at ch
Ø §Ø³Ø¹Ø§Ø±
Ø²Ø ±ÙĤ
ĠØ¯ ÙĤÙĬÙĤ
ĠÙģØ§ Ø
y pe
ÙĨØ ªÙĬ
ĠØ§ÙĦÙħÙĪØ§ ÙģÙĤ
Ġ ÙĪÙĬØŃ
ĠØ§ÙĦØ¥ Ø¨
as ia
Ø°Ø§ Ø
Ī Ø³Ø
rou p
ĠP DF
ĠØ§ÙĦÙħÙħÙĬØ ²Ø©
ĠØ§ÙĦÙĨ ÙĪÙ
ĠØ§ÙĦØ³ Ùģ
ĠÙģ Ø±Øµ
Ø£ ÙħØ§
ĠØ§ÙĦØ¬ ÙĪØ§ÙĦ
ĠÙĬØ ±ÙĬØ¯
ĠØ§ÙĦØ´ Ø±Ø·Ø©
ĠØ§ÙĦØŃ Ø±Ø©
ÙĦÙĤ Ùī
ech n
ĠÙĪØ ®Ø
ĠØ§ÙĦØ® Ø¨Ø±
Ġ3 2
ĠØ¨ ÙħÙĨØ
ĠØ³Ø¨ ÙĪØ±Øª
Ù ĨØ¨Ø
ĠØ§ ÙħØ§
µ Ø¯
ĠØ§ÙĦØ£Ø³Ø ªØ§Ø°
Ø¦Ø ª
ĠØªØ± ÙĥÙĬ
ØªØ³ÙĪÙĤ ÙĪØ§
ĠØ¥ ÙħØ§
¶ÙĪ Ø¹Ø§Øª
± ÙĩØ§Ø¨
ÙĪÙĦÙ ĬØ§
Ø¨Øª ÙĩØ§
ĠÙĪÙĦÙ Ī
Ø¯ Ø¨
ĠÙħÙĦ ØŃ
ĠØ§ÙĦ Ø¯ÙĨÙĬØ§
or y
ĠØªØ´ ÙĥÙĬÙĦ
Ĩ ÙħÙĪ
Ī Ø³ÙĪÙģ
Ġ ÙĪÙĤØ§
ur n
ĠØ§ÙĦØ¹Ø±Ø§ ÙĤÙĬ
ØŃ Ø¨Ø§
ĠÙħØª ÙĨØ§
ĠÙĬØ ¸ÙĩØ±
ĠÙĬÙĨØ ª
a j
ĠÙĦØ§ Ø³Øª
Ù ĪØ³ÙĪÙģ
ĠÙħØ¹ ÙĩØ§
ÙħØ µØ§ÙĨØ¹
ĠÙĩ Ø¯Ø§ÙĬØ§
ĠÙģ ÙĬØ
ĠØ® Ø¨Ø±Ø©
Ù ħØ§ÙĦÙĥ
Ø¬ØªÙħØ§ Ø¹ÙĬØ©
Ø¯ ÙĦÙĬÙĦ
th is
Ø· ÙĦ
Ĩ ÙĬÙĪ
ĠÙĪØ§ÙĦÙĥ Ø
ĠÙĪÙĩ ÙĨØ§Ùĥ
ou nd
ÙĪÙĦÙ ĩØ§
ĠÙĬØ±Ø ¬Ùī
ĠØªØµ ÙħÙĬ
ÙĬØ ŃØ§Øª
ÙĪØ ¬Ø
ĠIn d
ter n
· ÙĤ
ĠÙĨØ ¬Ø§ØŃ
ĠØŃ ÙĤÙĬÙĤØ©
´Ø§ Ø´Ø©
ĠØ§ÙĦ Ø¨ÙĨ
ĠØ¥ÙĨ Ø¯ÙĪÙĨÙĬØ³ÙĬØ§
9 5
Ġn ot
Ø§ÙĦÙĬ Ø¨
ĠÙĨÙĤØ§ Ø·
ĠÙĦØª Ø¹Ø¯ÙĬÙĨ
Ùģ ÙĦØª
ĠØ§ÙĦØµ ÙĦØ¨Ø©
ĠØ§ÙĦÙĪØ ¸Ø§Ø¦Ùģ
ĠØª ÙĥÙĨ
ÙĨÙ ĪÙģÙħØ¨Ø±
ĠØªØ ±Øª
ÙĦÙħÙ ĬØ¹
ĠØ§ÙĦØ£ ÙĬØ§Ùħ
ĠØ§Ø³ØªØ ±Ø§ØªÙĬØ¬ÙĬØ©
ÙĤÙĬ Ø¨
ĠØ ºØ°Ø§
ĠØµ ÙĦØ§Ø©
ĠØ§ÙĦØ¨ Ø¯Ø§ÙĬØ©
¸ ÙģÙĬÙĨ
ÙĥÙ ī
Ø· ÙĦØ§Ø¹
¶Ø§Ø ª
ĠØ§ÙĦØª ÙĪØ§
ĠØ§ÙĦØ£ ÙĪÙĦÙĬØ©
ĠÙĪØ§ÙĦÙģ Ø
ÙĥØ§ ÙħÙĦ
ĠØ§ÙĦØ§ ÙħØª
ĠØ¨Øµ ÙĪØ±Ø©
ĠÙĤ ÙĪÙĦ
ĠÙħØ ¬ØªÙħØ¹
ÙĦÙĤØ§Ø ª
ĠÙĦÙĦØ¨ ÙĨØ§Øª
ĠÙĩÙ ī
ĠØ§ÙĦØª Ø¯Ø±ÙĬØ¨
ĠØ¥Ø ª
ĠØ§ÙĦØ£Ø® ÙĬØ±
m m
° ÙĥØ±Ø©
re v
Ī Ø³Øª
Ø¯Ø§Ø ±ÙĬ
ĠØ§ÙĦØŃ ÙħØ§Ùħ
ºØ· ÙĬØ©
ÙĢØ §
ĠØ§ÙĦØ¨ ÙĬØ¶Ø§Ø¡
ĠØ§ÙĦ Ø©
Ø´ Ø±Ø§Ø¡
ÙħØ§ Ø³
ĠØ±Ø§ Ø³
Ĩ ÙĪØ§
ĠØ§ÙĦÙħØ§ Ø³
±ÙĪØ ±ÙĬ
ĠÙĪØŃ Ø¯Ø§Øª
ĠØª Ø³Ø¨Ø¨
am p
: :
§ Ø³ØªØ
ĠØ¥Øµ ÙĦØ§ØŃ
ĠØ§ÙĦÙĤØ¯ ÙĬÙħ
ĠØ¥ Ø¬Ø±Ø§Ø¡Ø§Øª
ÙĦÙĪ ÙĬØ§Øª
Ø³ Ø³Øª
Ø£ ÙĥÙħÙĦ
ĠØ· Ø¨ÙĬØ©
ĠØ³Ø§ Ø¨ÙĤ
Ø§ÙĦØµ ÙģØŃØ©
ĠØ§ÙĦØ µØ±Ùģ
±ÙĬ Ø¨Ø§
ĠØ§ÙĦØ£ÙĪØ±ÙĪ Ø¨ÙĬØ©
ħ Ø¯Ø§
ªØµØ§Ø ±
ÙģØ§Øª ÙĬØŃ
ĠÙĦÙĦØ§ Ø³Øª
ĠØ§ÙĦØ£Ù ħ
ĠØ³Ø ¬
ĠØ§ÙĦÙħØ´ ÙĥÙĦØ©
c k
ĠØ§ÙĦØ¨ ØŃ
ĠØ¨Ø§ÙĦÙħÙ ĨØ
ĠØª Ø¹Ø§
Ø§ÙĦÙĥØ §
Ī Ø¹ÙĨ
ĠÙĥÙĩØ±Ø¨Ø§ Ø¦ÙĬØ©
Ī ÙĥÙĬÙģ
ĠØ´Ø§ Ù
Ù ĪÙĥÙĬÙģ
Ù ĪØ¹ÙĨ
Ø³Ø§ Ø·Ø©
ĠØ² ÙĬÙħØ¨Ø§Ø¨ÙĪÙĬ
F acebook
ĠØ± ÙĤ
ĠØ§ÙĦÙĥ ÙĦÙħØ§Øª
ĠF or
Ø¯Ø« Ø©
ĠÙĪØ§ÙĦØ¯ ÙĥØªÙĪØ±
§ Ø®Ø
ĠØ§ÙĦØ£Ø®Ø ¶Ø±
ĠØ· Ø§ÙĦØ¨
ĠØ§ÙĦØ£ Ø¯ÙĪØ§Øª
ÙĬØ±Ø ªØ§Øª
¶Ø§Ø ±
ic s
ĠÙĦ Ø¨ÙĬØ¹
T M
ÙĩÙ ĬØ¯
ĠØ§ÙĦØ¯ ÙĩÙĪÙĨ
ĠÙĪØ ´Ø±
Ø §Ùĩ
ĠØ§ÙĦÙĨ Ø³
ment s
Ø §Ø³ØªØ
Ã Ĺ
Ø¨ Ø§ÙĦØ¥
ĠØ§ÙĦÙĥØ§ ØªØ¨
²Ø ª
h ai
ĠÙĦÙħØ µÙĨØ¹
Ġ ÙħÙĥØ
ĠØ§ÙĦÙħ Ø¯Ø±Ø³Ø©
ĠØ±Ø³ ÙĪÙħ
ĠØ§ÙĦÙĥÙ ĪÙĥ
ĠØ§ÙĦÙģ ÙĬØ³
Ø£ ÙĥØ«Ø±
ĠØ§ÙĦØ¬Ø§Ù ħØ¹Ø§Øª
ĠØ§ÙĦØ¨Ø§Ø± ÙĬØª
ĠØ§ÙĦÙħØ¤ Ø³Ø³Ø§Øª
Ø¹Øª ÙĩØ§
ĠØ§ÙĦÙħÙĤ Ø¨ÙĦ
ĠÙħØ±Ø§Ø¬ Ø¹Ø§Øª
] .
ÙĪÙĦÙ ĪÙĨ
ĠØªÙĨ Ø³ÙĬÙĤ
ĠØ¢ Ø³ÙĬØ§
ĠØ§ÙĦÙħØŃØ ±Ùĥ
ÙħÙ Ģ
Ø®Ø¨Ø§Ø± ÙĬØ©
ĠØ§ÙĦØ¹Ùħ ÙĦÙĬØ§Øª
ĠØ¥ ÙĦÙĩ
ĠØ§ÙĦØ¬Ù ĪÙĬØ©
Ø¯ Ø³Ø©
r iv
Ø§ÙĦ Ø¨Ø±ÙĬØ¯
Ø¯Ø± Ùĥ
ĠØ±Ø¬ Ø§ÙĦ
Ø §Ø®Ø
ĠØ¨Ø¯ ÙĦØ§
ĠØ§ÙĦØ¥ Ø¯Ø§Ø±ÙĬØ©
ÙĥØ§ Ø©
Ġ Ù£
5 1
i x
ĠÙĥ ÙĪØ±
ĠØ±Ø§ Ù
ŃØ§ ÙģØ¸Ø©
ºØ§Ø ±
ĠÙħØ§ Ø¡
Ø³Øª ÙĬØ±
ÙĪØ µÙĬÙĦ
ĠØ§ÙĦØ· Ø¨ÙĬØ¨
In quire
Ġ ÙħØ³Ø§Ø¨
ÙĤ Ø³Ø§Ùħ
Ġ z
Ù ĨÙħÙĪ
ĠØª ÙħØª
ĠØ§ ÙĥØ¨Ø±
ĠØ¹Ù Ĭ
Ĩ ÙħØ§Ø°Ø¬
ĪÙĦÙ ĬÙĨ
Ù ĪÙĥÙĬÙĦ
Ù ¦
ĠØ§ÙĦØ¬ ÙħØ¹ÙĬØ©
ĠØªØ¹Ø ªÙħØ¯
ĠØ§ Ø®Ø±Ùī
Ù ĪÙģØ±
ĠØ¬ ÙħÙĬÙĦØ©
Ø¹Øª Ø¨Ø§Ø±
ÙĨØ§ Ø¹Ø§Øª
ĠV SI
Ġ ÙĪÙĩÙħ
ĠØ§ÙĦØ¨Ø±Ø§Ø ²ÙĬÙĦ
ig h
ĠÙĦÙĨ Ø¯ÙĨ
ĠØ® ÙĬØ§Ø±
±ÙĪ ÙģØ©
®Ø§Ù Ĩ
ĠØ§ÙĦÙĨÙĩØ§ Ø¦ÙĬ
g y
ĠØºØ±Ø¨ Ø§ÙĦ
Ä ±
ÙĥØ ´
qu ip
ĠØ· ÙĪØ§ÙĦ
o h
ĠØ· ÙĪÙĦ
ĠØ§ÙĦÙĤÙ ĨÙĪØ§Øª
ĠØ§ÙĦ Ø³Ùħ
ĠØ·Ù Ĭ
ĠØ¬ ÙĪØ±Ø¬
Ġ he
ĠØ±ÙĪ Ùĥ
ĠØ§ÙĦÙħ Ø¯ÙĨÙĬ
ĠØªØ µØ§
ĠØ³ ÙĥØ§ÙĨ
Ø¬ ÙĦØ©
ĠØª Ø³Ø§
ĠØ¨Ø§Ù Ĩ
Ù ĨÙĬÙĪ
Ù ĨÙħØ§Ø°Ø¬
ĠØ³ Ùģ
Ø§ÙĦÙģ Ù
ÙĤØ ¶
ĠØ§ÙĦÙħØ ±Ùĥ
ĠØ³ÙĨ Ú¯
·Ù ĨØ©
ÙĥØ ªØ§Ø¨
ĠØ¨Ø§ÙĦÙĤØ ±Ø¨
ag ram
ĠÙħØ¬ ÙħÙĪØ¹Ø§Øª
ĠØ§ÙĦØ¥ Ø®
ĠÙĦØ¯ÙĬ ÙĩÙħ
ÙĪØ§ ÙĨÙĬØ©
ĠØ§ÙĦØ¹ ÙĨØ§ØµØ±
Ø¯Ø ²
´Ø ªØ
ĠØ£ Ø¹ÙĦÙĨØª
Ġ ÙħØ§ÙĦÙĥ
· ÙĦ
ĠØ§ Ø¬
ĠÙĦØ´ Ø±Ø§Ø¡
ĠØ¥Ù ħÙĥØ§ÙĨÙĬØ©
ĠØ³ Ø¹Ø©
Ø³ØªØ® Ø±Ø§Ø¬
ĠØ¹ ÙĨØ§
ÙĦØ ªØ
ÙħÙĪ ÙĬØ©
Ī ÙĦØ§Ø
Ø¨Ø ±ÙĪ
ĠØ§ÙĦØ ±ÙĬ
Ĭ Ø³ØªØ
ĠØªØŃØ ¶
ĠØªÙĪØ ²ÙĬØ¹
ĠÙĪØ§ÙĦÙ ĦÙ
ÙħØ ´Ø±ÙĪØ¹
Ø±Ø¥ ÙĥØ³
ĠØ´ Ø£ÙĨ
¶ ÙĬÙģ
ĠØ¬ ÙħØ¹ÙĬØ©
ĠØ¨ÙĦ Ø¯
ĠØ¢ ÙĦØ§Ùģ
ĠØ§ÙĦÙħ Ø³ØªØ«
ªØ±Ø§ ÙĪØŃ
ĠÙģØ ¥Ø°Ø§
ĠØ§ ÙĪÙĦ
ĠÙĥ Ø±Ø§
Re pl
ĠÙĦØ ¶ÙħØ§ÙĨ
ow nl
ĠØ§ÙĦØŃ Ø§ÙĦÙĬØ©
ĠØµÙĨØ§ Ø¹ÙĬØ©
ĠÙħØ±Ø§ ÙĤØ¨Ø©
Ø±Ø§Ø¡ Ø
ĠØŃ ÙĥÙĪÙħØ©
ĠØ§ÙĦÙĥ ÙĦÙĬØ©
ÙģÙ ĬÙģØ©
ĠØ§ÙĦÙħÙĩ ÙħØ©
on s
ĠÙĬØ º
ÙĦÙĪØ ±
Ø£ÙĨ ÙĪØ§Ø¹
ĠØ¥ ÙĬØ·Ø§ÙĦÙĬØ§
§ ÙħØªÙĦÙĥ
ØŃØ ªØ§Ø¬
Ø §ÙħØªÙĦÙĥ
A C
ĠÙĥ Ø³Ø±
O R
ĠÙħÙ ĩÙħ
ĠÙħØ¹ ÙĬÙĨ
ĠØªØ¨ Ø¯ÙĬÙĦ
ĠØ§ÙĦÙħØ³ØªØ®Ø¯ ÙħÙĬÙĨ
ĠØ§ÙĦØªØ ºØ°ÙĬØ©
ÙħÙĨØª Ø¯Ùī
Ġ ÙĪÙĥÙĬÙģ
ĠØ§ÙĦÙĤØ§ Ø¯ÙħØ©
ĠØ§ÙĦØ¨ÙĦØ§ Ø³ØªÙĬÙĥ
Ĩ ÙĤØ±
Ġ ÙĪØ³ÙĪÙģ
ĠØ± ÙħØŃ
ĠØ§ ÙĩÙħ
ĠØ§ÙĦ Ø¹Ø§Ø
Ø· Ø¦
Ù ĬØ³ØªØ
ĠØµ Ø¨
ĠÙĦØ§ Ø¹Ø¨
Ø¶ ÙĪØ±
Ī ÙĪØ
ĠÙħØ ªØ§Ø¨Ø¹Ø©
ĠØ§ÙĦØ¥Ø³ ÙħÙĨØª
Ø® ÙĬØ±
) )
ĠØ¥ Ø¹ÙĦØ§ÙĨ
Ù ĪØ³Ø
®Ø ²ÙĬÙĨ
Ġv si
ĠØ§ÙĦÙħ Ø¯Ø§Ø±Ø³
Ù ĪØ³Øª
ÙĦÙħØ§ Ø°Ø§
Ù ħØ§ÙĦÙĬØ©
ĠØ£ ÙĪÙĨ
ĠØ°Ø ±ÙĪØ©
ĠÙĥØª ÙĦØ©
ĠØŃ ØµØ±ÙĬØ©
ĠØ§ÙĦÙħÙĥ Ø³ÙĬÙĥ
ĠÙĤÙ Ĭ
ĠÙĪÙģØ§ Ø©
5 8
ĠÂ ©
ĠØ·Ø ±ØŃ
ªÙĪÙĤ ÙĬØª
Ùĩ Ø¯Ø§Øª
Ġ ÙĬØ¨Ø¯Ø£
ĠØ§ÙĦÙħØ¯ ÙĬØ±
ĠÙĤ ÙģØ§Ø²Ø§Øª
ħ ÙģÙĩÙĪÙħ
ĠÙĥ ÙĦØ§Ùħ
ĠØŃØ§ Ø¬Ø©
ĠØªØ£ ØªÙĬ
Ī ÙĦÙī
ÙĦØ§Ù ĪØ©
ĠØ§ÙĦØ ²Ø±
¶Ø §Ø¦
Ø¹ ÙĬÙħ
ownl oad
ĠØ§ÙĦÙĨØ ®
ĠØ§ÙĦØ³ÙĦØ ·Ø§Øª
Ġr es
ĠØ§ÙĦØ« ÙĨØ§Ø¦ÙĬØ©
ĠÙĥÙĩØ±Ø¨Ø§ Ø¦ÙĬ
ÙĦÙħÙ ĪÙĨ
ĠØ§ÙĦÙħØ¤ ÙħÙĨ
ØŃ ÙĥØ§Ùħ
5 4
ĠØ§ÙĦØ °Ùī
Ø¯ÙĬ ÙĦØ§Øª
·Ù ĪÙĦØ©
ĠØ§ÙĦØ¨ Ø³
ĠÙħØ± ÙĪØ±
±Ùħ Ø§ÙĦ
o y
ent s
ĠÙģ ÙĩØ°Ø§
ĠØ§ÙĦØŃ ÙĦ
Ø§ÙĦÙ Ī
' ,
ĠÙģÙ ĨØ¯ÙĤ
ĠØ§ÙĦØŃØ±Ø§Ø ±ÙĬØ©
ª Ø¹Ø¯ÙĬÙĨ
ÙĪØ§ Ø¯Ø«
s k
ĠØ§ÙĦÙĪØŃ Ø¯Ø©
ĠØº Ø¶
ĠÙĦÙĪØ§ Ø²Ùħ
ĠØ§ÙĦØŃ Ø³ÙĨ
ÙĦØ§ ÙħÙĬ
Ù ĪÙĪØ
ÙĦÙħØ§ ÙĨÙĬ
ĠM ar
µÙ ĬØ¯
ªÙ ĪØ¯
ĠÙĪØ§ÙĦØ® Ø¯ÙħØ§Øª
ÙĨØª ÙĩØ§
ÙħØ±ÙĬ ÙĥØ§
ÙĨØ§Ù ĨØ©
ĠØ§ÙĨØªØ ´Ø§Ø±
ĠÙĨØ ´Ø§Ø·
ªØ§ Ø²Ø©
ĪØ¹ ÙĬØ©
ĠØ£ ÙĨØ¸ÙħØ©
°ÙĬ Ø¨
ÙĬÙĨØ ¬
ĠÙĪÙħÙĨ ÙĩØ§
Ø³ Ùĩ
ĠØªØª ÙħÙĬØ²
od e
ĠÙģ ÙħØ§
ĠØ§ÙĦÙĪØ§ ØŃØ¯
ÙĨØ§Ù ĪÙĬÙĨ
Ø¨Ø§Ø ±ÙĬ
ĠÙħØ ¶Ø§
ĠØ¹ ÙħØ±ÙĪ
Ġ ÙħØ§ÙĦÙĬØ©
ħØ§ Ø¡
Ø£ ØŃØ¯Ø«
ĠØ§ÙĦÙħ Ø¯ÙĨÙĬØ©
ħ Ø¯Ø§Ø±Ø³
ĠØ§ÙĦØµØŃØ§ ÙģØ©
ĠÙħÙ ĪØ³
ĠØ§ÙĦØŃ ÙĤÙĬÙĤØ©
ÙħØ§Ø °Ø§
ĠØ´Ø ±ÙĬÙĥ
ØµØ ºØ±
ĠÙĪØ£ ÙĥØ«Ø±
ĠØ¨Ø§ÙĦ Ø¬ÙħÙĦØ©
Ġ200 7
ĠØ§ÙĦÙ ĩØ
ÙģØ¶ ÙĦØ©
ĠØ´ ÙĨØºÙĩØ§ÙĬ
Ùĩ ÙħÙĬØ©
Ġ ÙĨÙħÙĪ
ĠØ§ÙĦÙĥ ÙĦÙĨÙĥØ±
ĠÙĦÙ ĤØ§Ø¡
5 2
Ġ all
ĠØ¹Ø ´Ø±Ø©
Ø³Ø ªØ§Ø°
ĠØ§ÙĦ Ø¨ÙĬ
ĠØ§ÙĦØŃ Ø²
ĠØ§ÙĦØ¬Ø§ ÙħØ¹
ĠØŃ Ø¯Ø§Ø¦ÙĤ
ÙĢÙĢ ÙĢ
ĤØ§ ÙĨÙĪÙĨ
ĠØ§ÙĦØ µØºÙĬØ±
ĠØ³Ø§Ùħ Ø³ÙĪÙĨØ¬
ĠØ§ÙĦÙħÙĪØ§ ØµÙģØ§Øª
ĠØ§ÙĦÙħ Ø§ÙĦÙĬ
ĠØµ Ø¨Ø§
ĠØ¬ ÙħÙĬ
ĠØ¹Ø ±Ø¨
±ÙĪÙ ĨØ©
ĠØ¬Ù ħ
4 00
Ġ ÙĦØ§Øª
ĠØ§ÙĦØ² ÙĬØª
ĠÙĪØª ÙĤ
Ġ ÙĪÙĪØ
st agram
ĠØŃ Ø±Ø§Ø±Ø©
ĠØ· Ø¨Ø§Ø¹Ø©
: âĢı
ĠØ´Ø¹ Ø¨ÙĬØ©
ºØ§ Ø²
ĠØ§ÙĦØ§ ØªØµØ§ÙĦØ§Øª
ĠÙħØ¯Ø ±ÙĬØ¯
ĠØ³Ø¨ ØŃØ§ÙĨ
ÙĩØ§ ÙĨØ§Øª
ÙĪØ² ÙĬØ±
ĠØ§ÙĦÙħ Ø¯Ùī
Ø ªØ¹Ø¯ÙĬÙĨ
ÙĦØ ®
ĠØ¬Ø§Ù Ĩ
âĢ Į
ĠÙħØ ¬Ø±Ø¯
ĠØµ ØŃÙĬØ©
®Ø °
ĠÙĦÙĦØ§ Ø³ÙħÙĨØª
ĠØ§ÙĦØ· ÙĬØ±Ø§ÙĨ
A S
ĠØ§ ÙģØ±ÙĬÙĤÙĬØ§
±ÙĬØ Ń
ĠØ§ÙĦÙħÙĪØ ª
ĠØ§ÙĦÙħØ³Ø§ Ø¹Ø¯Ø©
ic h
ĠØ¬Ø² ÙĬØ±Ø©
ĠØ§ÙĦØŃ Ø¯ÙĪØ¯
ÙĨÙĬ ÙģØ§Øª
Ġn ew
²Ø§ Ø²
ĠØªØ ¬Ø§Ø±
ª Ø³Ø¬ÙĬÙĦ
ĠØ§ÙĦÙħÙĨØ§ Ø®
Ġm p
ĠÙĦÙĦ Ø±Ø¬Ø§ÙĦ
ĠØ§ÙĦØ§Øª ÙģØ§ÙĤ
Ø ªØ³Ø¬ÙĬÙĦ
ĠØ§ÙĦØ§ØµØ·ÙĨØ§ Ø¹ÙĬ
ĠØ¨Ø§ÙĦ Ø¨
ĠØ§ÙĦØª ÙģØ³ÙĬØ±
ĠâĿ Ŀ
ĠØ£ Ø®Ø°
ĠØ§ÙĦØŃ Ø³ÙĬÙĨ
ĠØ§ÙĦØ¬Ù Ī
ħ Ø¯ÙĨ
u al
ĠÙħØªØ ·ÙĦØ¨Ø§Øª
Ĭ ÙħØ§Øª
ĠØ§ÙĦØ£ÙĦÙĪ ÙħÙĨÙĬÙĪÙħ
. [
ĠØ´ ÙĪØª
ÙħØ§Ùĥ ÙĬÙĨØ©
ĠØ¹ ÙĨØ§ØµØ±
ĠØ§ÙĦØªØ ·
ĠØ§ÙĦØ§Ø «Ø§Ø«
ĠØ§ÙĦØ¹ÙĦØ§ ÙĤØ©
¥Ù ħÙĥØ§ÙĨ
Ĩ ØŃ
- %
ĠØ¹Ø¨Ø§ Ø³
Ø´ ÙĨØ
Ī ÙħØª
Ñ Ģ
ĠØ¥ ÙĥØ³
A T
ĠØ§ÙĦØ¹Ø ¶ÙĪ
ĠÙħØŃ ÙĦØ§Øª
ĠÙħØ ²ÙĬØ¯
ĠÙĪØ§Øª Ø³
ĠÙģØ± Ø¹
ĠØ¹Ø§ ÙħÙĦ
ĠØ§ÙĦØ¥ Ø¬Ø±Ø§Ø¡Ø§Øª
ĠØ· Ø¨ÙĬØ¹ÙĬØ©
ĠØµ ØŃÙĬ
ĠâĿ ŀ
ª Ø³ÙĪÙĤÙĬ
±Ø³ ÙĦ
____ ____
ØŃ ÙĨØ§Øª
ĠÙħÙĨ ÙĩØ¬
Ø ªØ³ÙĪÙĤÙĬ
ĠØ§ÙĦØ´Ø ±ÙĬÙģ
ĠØªÙĪØ µÙĬÙĦ
ĪÙĦÙ ĨØ¯Ø§
ĠØ§ÙĦØª Ø¯
ĠØ£ Ø¹Ùħ
´Ø ®Øµ
Ø±Ø§ ØŃØ©
ĠØ¨Ø£ Ø³Ø¹Ø§Ø±
ĠÙĪØ§ÙĦØ ªØ¹ÙĦÙĬÙħ
ĠØ¨Ø£ Ø³
ĠØ§ÙĦØ¬Ø² ÙĬØ±Ø©
ĠØ§ÙĦ Ø¨Ø§Ø¨
ĠØªØªØ ¶ÙħÙĨ
ĠØª ÙĪØ§ØµÙĦ
5 3
ĠØªØ «Ø¨ÙĬØª
Ġs p
ĠØ§ÙĦØ¨ ØŃØ±ÙĬØ©
ĠÙĬÙĨ Ø¨ØºÙĬ
ÙĤÙĪ ÙĬÙħ
Ġ9 00
ĠØ¨ ÙĥØ«
ĠÙĦÙĦÙĨ Ø³Ø§Ø¡
ÛĮÙ Ĩ
ĠØ§ÙĦÙĩ Ø¯Ùģ
Ĭ ÙħÙĬÙĨ
ĠØ§ÙĦÙĨ ÙĤØ§
ÙĩØ ¶Ø©
ĠØ§ÙĦØ´ ÙĥÙĦ
Ø¨Ø¯ Ø§ÙĦ
ĠÙĪÙģ Ø±Ø¥ÙĥØ³
ÙħØ ¤
ÙĨØ§ Ø³
ĠØ§ÙĦØ² Ø±Ø§Ø¹Ø©
ĠØ§ÙĦÙĨØ§ ØªØ¬
ÙĤ ÙĪØ·
ĠØ¬ Ø³Ùħ
ĠÙĦØµ ÙĨØ§Ø¹Ø©
ĠØ£Ø³Ø ¦ÙĦØ©
Ùģ ÙĬØ¶
ĠØ³ ÙģØ±
«Ø§ Ø¦ÙĤ
Ġ:: :
Ø¬ÙĨ Ø¨ÙĬ
ĠØ§ÙĦÙĪØ ±ÙĤ
ĠØ§ÙĦÙĥÙĬÙħÙĬØ§ Ø¦ÙĬØ©
Ø ªØ§Ø¨Ø¹
ĠØ¯Ø§Ø¦ Ø±Ø©
" ,
ĠÙħÙĨ Ùĥ
Ø¹Ùħ ÙĦØ§Ø¡
ĠØ µØ±Ùģ
ĠØ§ÙĦØ¢ ÙĦÙĬ
ĠØ§ÙĦØª ÙĤØ±ÙĬØ±
Ġ ÙħÙĥÙĪÙĨØ§Øª
ĠØª ÙĪØ§Ø¬Ùĩ
ĠØ§ÙĦØµÙ ĬØ¯
ÙĨØ¬Ø§ Ø²
ĠØ§ÙĦØ£ ØµÙĦ
Ġl ik
ĠÙħØŃØ§ Ø¬Ø±
ĠØ§ Ø¶ØºØ·
ĠØ§ÙĦØ´Ø¹ Ø¨ÙĬØ©
âĢ¦ ]
e ed
ĠØ§ÙĦÙĩÙ ĨØ¯ÙĬ
ĠÙĥÙ ħØ¨ÙĬÙĪØªØ±
ĠP h
ĠØ§ÙĦÙħ ÙĥØªØ¨
µÙĪ ÙħØ§Øª
Ġon line
ĠØ³Ø±ÙĬ Ø¹Ø©
ĠØ£ÙħØ±ÙĬ ÙĥÙĬ
ĠØ§ÙĦÙħ Ø¯Ø±
ĠÙħÙ ĪÙĤÙģ
Ø±Ø ±Ø©
Ġ/ /
¶ Ø±Ø§Ø¡
ĠÙĪÙħØ ±Ø§
Ġc ont
ĠØ§ÙĦØ£ ÙħÙĬØ
Ø¨ ÙĩØ§
ÙĪÙĬ Ùĩ
Ø³Ø ªÙĪÙĨ
ĠØ§ÙĦØ£ ÙĪØ±Ø§ÙĤ
ÙħØ§Ù ĨØ©
ĠØªØ ¬Ø§Ùĩ
ĠÙħØŃØ§ ÙģØ¸
ĠØ§ÙĦØ£Ø³Ø ¦ÙĦØ©
ĠØ¨Ø ´Ø±
ĠØ§ÙĦÙħØ¤ ØªÙħØ±
Ĩ ÙĪÙĨÙĬ
ĠØ£Ø ±Ø¨Ø¹Ø©
ĠÙĦÙ ĨÙĤÙĦ
ĠØ¨ØŃØ§ Ø¬Ø©
ÙģØ§ Ø¶Ø§Øª
ÙĤØ¯ ÙĬØ±
ĠØ§ÙĦØŃ Ø§ÙĦ
ĠØ· Ùģ
ÙĪØ¶ ÙĬØŃ
ĠØ§ÙĦÙĦÙ ĬÙĦ
ĠØ§ØŃØª ÙĬØ§Ø¬Ø§Øª
ĠÃ Ĺ
ĠØ§ÙĦØµ ÙĦØ©
ĠØ§ÙĦØ¹Ùħ Ø§ÙĦ
at h
ÙĬØ «Ø§
ĠØ ¶Ø§
ĠØ§ÙĦØ¬Ø ±
ĠØ§ÙĦØ£ Øº
ĠÙħØ³Øª Ø¹ÙħÙĦ
ÙħØ§ ÙħØ§Øª
Ø¹ ÙĦÙĬ
ªÙ ĪÙĤÙģ
ĠÙĨØ§ ØŃÙĬØ©
ĠØ§ÙĦØ¶ ÙĪØ¡
ªØ ¬Ø§
® ÙĦØµ
ĠØ§ÙĦØ¯Ø§Ø® ÙĦÙĬ
ĠØ£ÙĨ ÙĩÙħ
m s
ÙħØ ±Øª
Ī ÙĥØ³Ø§Ø±Ø©
ĠØ¨Ø¬ ÙħÙĬØ¹
ĠØªØ ªØ¨Ø¹
ĠØ§ÙĦÙħØ ªØ§ØŃØ©
Ø§ÙĦØª Ø¹Ø¯ÙĬÙĨ
Ù ĪÙĥØ³Ø§Ø±Ø©
ĠØ§ÙĦÙħÙĪ Ø³ÙĪØ¹Ø©
Ø¹Ùħ ÙĦÙĬØ§Øª
ĠØ§ÙĦÙĨ ÙģØ§ÙĬØ§Øª
ĠÙĨÙģØ³ Ùĥ
âĢı .âĢı
8 2
ĠØª ÙĦ
ĠØ§ÙĦÙħØ¨Ø§ Ø±Ø§Ø©
ĠØ§ ØŃØ¯
ĠØ¨Ø ªØµ
ÙĩØ§ Ø¯Ø§Øª
Ø¦ ØŃ
ĠØªÙ ĪÙĦÙĬØ¯
¶Ù ĪÙĬØ©
ĠØ¹Ø« ÙħØ§ÙĨ
± ÙĥØ²
Ø §Ø¯
ĠØ¨ÙĬØ± ÙĪØª
Ĩ ÙĬÙĪÙĬ
ĠÙĩØ ±
Ø³Ø ¦ÙĦØ©
ÙĤØ§Ø ±Ø¨
Ù ĪÙħØª
ĠÙĨÙĬ ÙĪØ²
Ù ĨÙĬÙĪÙĬ
«Ø§ ÙģØ©
ĠØ´Ø§Ø ´Ø§Øª
s er
Ø¨Ø§Ø ªÙĬ
ĠØ§ÙĦÙģ Ø±Ø²
ĠÙħØŃØ§ ÙĪÙĦØ©
Ø³ ÙĪÙĨ
ĠØ« Ø§ÙĦØ«
Ù ĨÙĪØ§
ÙĦÙģ ÙĦ
ĠØ± ÙĪØŃ
ĠØ§ÙĦÙħØ¬ Ø§ÙĦØ§Øª
Ġ ÙĪÙĥØ³Ø§Ø±Ø©
ĠØ¯ Ø±Ø¬Ø§Øª
ĠA b
ĠØ§ÙĦØ£ Ø±Ø¬
ÙģÙ ĪÙģ
ĠÙħÙĪ Ø³Ùī
ØŃØ ²Ø§Ùħ
f o
ĠØ£ÙĨ ÙĨØ§
ÙĦÙĪÙ ĨØ©
ĠØ§ÙĦÙĩ ÙĪØ§ØªÙģ
ªÙ Ģ
Ī ÙĬØ§Øª
ĠØ· ÙĪÙĬÙĦ
ide o
ĠØ¨Øº Ø¯Ø§Ø¯
Ù ħÙģÙĩÙĪÙħ
Ø§ÙĦ Ø¹Ø§Ø¨
ÙģÙĬ ÙĤ
ĠØªØ¨ ÙĦØº
ĠØ§ÙĦÙħÙĤ Ø§ÙĦØ©
ĠØ±Ø§Ø¦ Ø¹
ĠØ§ÙĦØ®Ø§Ùħ Ø³Ø©
Ùģ ÙĬØ§
ÙĨÙĬ Ø³Ø©
ĠÙĦÙĬ ÙĦØ©
ÙĤØª Ùĩ
d er
ĠØ§ÙĦØ ªÙĪÙĨ
ĠÙħØ³ ÙĦÙħ
Ī ÙĬØ§
Ø¯ÙĬ Ø³ÙħØ¨Ø±
Ġ ÙĪÙģØ±
ĪÙĦØ§ ÙĬØ§Øª
ĠÙĪØ§ÙĦØ£ Ø
ĠØ¹ ÙĤ
ÙħØ« ÙĦØ©
ĠÙĬÙĪ ÙħØ§
Ġ ÙĬØ³ØªØ
ĠØ¨Ø±ÙĬØ ·Ø§
ĠØ¹Ø¬ ÙħØ§ÙĨ
ĠØ± ÙģØ¶
Ø³Ø§ ÙĨÙĬ
Ĩ Ø³Ø¨
ation s
ĠØ§ÙĦØ® ÙĦÙģ
ĠØ§ÙĦÙħØ¹Ø ±ÙĪÙģ
ĠÙĪØ§ÙĦÙħØ Ń
ĠØ´ ÙĬØ®
ĠØ£ ÙħÙĨ
±Ø§ØªÙĬØ¬ ÙĬØ§Øª
ĠÙħÙĪØ§ Ø¶ÙĬØ¹
ĠS u
ĠØ¨ÙĬÙĨ ÙĩØ§
et t
ĠØ®Ø ·ÙĪØ©
ĠØŃ ÙĦÙĤØ©
Ø§ÙĦØ ªØ¹ÙĦÙĬ
ĠØ§ÙĦÙħÙĨØ µ
ĠØ£Ø¹ Ø±Ø§Ø¶
ĠÙħÙĨØ§ Ø³Ø¨
T he
ĠÙĬØ ±Øª
ĠØ§ÙĦÙħÙĤ Ø¨ÙĦØ©
Ø¬ Ø³ØªÙĬØ±
Ĩ ÙĩØ±
ĠØ¯ ÙĬÙĨØ§Ø±
E S
Ù ¥Ù
ĠØªØ ±Ø¬ÙħØ©
ĠÙĤ Ø§ÙĦØª
ĠØ§ÙĦØ¹Ù ĪØ¯Ø©
E N
ĠØ£ Ø¬ÙħÙĦ
ĠØ¨ ÙħÙĪØ
ĠÙĤ Ø¶ÙĬØ©
ĠØ§ÙĦØ£Ùĩ ÙĦÙĬ
I C
is e
ang hai
ĠØ£ ÙĬØ©
ĠØ§ÙĦÙħØ®Ø ªØµ
ĠØ£ Ø¨Ø§Ø¯
ĠØ§ÙĦØª ØŃØ±ÙĬØ±
ĠØªØ µÙĪÙĬØ±
Ùĥ ÙĬÙħ
ĠØŃ Ø³Ø§Ø¨Ø§Øª
' s
ht ml
Ø¯ÙĬØ¯Ø§ Ø³
Ø¯Ù ĪØ¨
ĠØ§ÙĦÙĤ ÙħØ±
ĠÙĨØ µØ±
oc al
Ø®Ù Ĭ
ÙĪØ ±Ùī
ĠP ost
ĠÙħÙĨØ®ÙģØ¶ Ø©
ĠØªØ§ Ø¬Ø±
Ġ[ âĢ¦]
ĠØ¨Ø³ ÙĬØ·
Ù ĨÙĩØ±
ªØµ Ùģ
ĠØ§ÙĦØ£Ø³ Ø¨Ø§Ø¨
ĠØ³Ø ¬ÙĦ
Ø® Ø±Ø§
ÙĬÙ ī
{ "
ĠØ§ÙĦØ´Ø± Ø¹ÙĬØ©
Ù ĨÙĩ
ĠØ¨ ÙĨØº
âĢı :âĢı
ĠØ§ÙĦØ±Ø£ Ø³ÙĬ
ip t
Ø¯ÙĪ ÙĦØ§Ø±
Ø¯ ÙĦØ§Øª
ÙĥØªØ ´Ùģ
ØªØ¹ ÙĦÙĬ
ÙħØ§Ø ±Ùĥ
ÙĦÙĬØ ª
Ĩ Ø³Ø®
ÙģÙ ĬÙĦ
ÙĦÙħÙ Ĭ
ĠØ¨Ø±ÙĬØ¯ Ùĥ
ĠÙĬØ³ ÙħØŃ
ĠØ¯ ÙĪØ±ÙĬ
ĠØ§ÙĦÙĥ ÙĦØ§Ùħ
Ġ ÙĨÙĬÙĪ
Ø³ÙĪ ÙħØ§Øª
ĠØªØ ®ØªÙĦÙģ
ĠØ§ÙĦØ¨ÙĦ Ø¯Ø§ÙĨ
ĠÙĩØ ¬
Ø´ÙĨØ ·ÙĨ
ĠØ§ÙĦØ«Ø§ ÙĨÙĪÙĬ
ÙĦØª ÙĩØ§
ħ Ø¹Ø±Ùģ
ĠÙħÙĨØ ´
ĠØ§ÙĦÙĥ Ø´Ùģ
ĠØ§ÙĦØ³Ø§Ø®Ù ĨØ©
´Ø§Ù Ĩ
ĠÙĦÙĦØ ±
ĠØ§ÙĦØ¹Ùħ ÙĦØ©
ÙĨØ ´Ø±
Ġweb site
Ġ ÙĪÙħØª
Ø¨Ø§ Ùĩ
ĠÙħÙħØ§ Ø±Ø³Ø©
Ĭ Ø¯ÙĬ
ĠØ®Ø ·Ø±
ĠØ¨Ø ²
ÙĬØ ¦Ø§Øª
ĠØ£ ÙĤØ¯Ùħ
ÙĪØµ ÙĦ
ĠØ§ÙĦÙħØ§Ø ±ÙĥØ§Øª
ĠØ§ÙĦØ¯ Ø³Øª
· Ø¨Ø©
Ġ ÙĪØ³Ø
Ø¯ÙĪ Ø©
ĠØ§ÙĦØ¹ ÙģØ´
ØŃÙ ĪØ§ÙĦ
Ø§ÙĦÙ ĪÙĨ
ĠÙħØ¤ ØªÙħØ±
ĠT r
¬Ø ªÙħ
ĠØ§ÙĦÙħ ÙĥØ
ĠØ§ÙĦÙħÙĬ ÙĦØ§Ø¯
ĠÙħØ ´Ø§Ø±
ĠØ§ÙĦØ´Ø± ÙĪØ·
Ø¹ ÙĦÙĩ
out ube
Ĭ Ø¹ÙĪØ¯
ĠØ¬ ÙħÙĬÙĦ
ĠØ§ÙĦÙģØ±ÙĨ Ø³ÙĬ
ĠÙĤØ§ Ø
ĠØªØŃ ÙĥÙħ
ĠØ§ÙĦÙģÙĦØ³ Ø¨Ø§Ø±
Ø® Ø¯ÙħØ©
ªÙ ĨÙĬ
ĠØªÙĨ ÙħÙĬØ©
ĠØ§ÙĦØ£ØŃ ÙĬØ§ÙĨ
at ing
Ø³Ø± Ø¨Ø§Øª
Ġh as
Ù ĬØ¹ÙĪØ¯
ĠØ§ÙĦÙħ ÙĦØŃ
ĠÙħØ· ÙĦÙĪØ¨
Ø¹Ø± Ø¨ÙĬ
Ù ħØ¹Ø±Ùģ
ÙĪÙĨ Ùĩ
Ī Ø¨Ø§
ĠØ¬ÙĬ Ø¯Ø§
ĠØ§ÙĦÙħØ±Ø ¶
ĠØ§ÙĦÙĥØ ±Ø¨ÙĪÙĨ
ĠØªØŃ ØµÙĦ
ÙħØ§ Ø¹ÙĬÙĦ
ĠÙģØ¶ ÙĦØ§
c i
ĠÙħØ±Ø§Ø¬ Ø¹Ø©
ÙĲ ØĮ
ĠØ§ÙĦØ ±Ø¨ØŃ
ĠØ¹ Ø¶
ÙĬØ§ ØŃ
ĠÙĦ Ø³ÙĨØ©
ÙĪØªÙĪ ÙħØ§ØªÙĬ
Ġ ÙĪØ³Øª
Ġof f
ĠØ§ÙĦØ« ÙĪØ±Ø©
ĠØ¨ÙĪØµ Ø©
ĠØ®Ù ħØ³Ø©
A D
Ø·Ø§ Ø¹Ø§Øª
ĠØ§ÙĦÙģØ ±Ø¯
ĠØ§ÙĦØºØ± ÙģØ©
ĠØ§ÙĦØ¢ ÙĬØ©
Ġ ÙĬÙĦ
ĠØ§ÙĦÙħ Ø³Ø§Ø±
ĠØ§ÙĦØ´ Ø¨ÙĥØ©
ĠØ§ÙĦØ¯ ÙĬÙĨÙĬØ©
ÙĬØ§ Ø±Ø©
ĠØ£ ÙĬÙĨ
ØµØ§ Ø¡
ĠØ§ÙĦØ®Ø· ÙĪØ§Øª
Ù ĨØ³Ø®
Ù ħØ¯Ø§Ø±Ø³
ĠØ¨ Ø¨Ø
ate g
ĠØ³ ÙĦÙħØ§ÙĨ
ĠØ¹Ùħ ÙĦØ©
ÙĬÙ ĪÙĦÙĪØ¬
ĠØ§ÙĦØ¬Ù ħØ§ÙĦ
20 17
ĠØ§ÙĦÙĨØ ¬Ø§ØŃ
ĠØ¹ ØµØ±
ĠØ§ÙĦØ¯ ÙĤØ©
Ġ7 5
ĠØ§ÙĦØº ÙĬØ±
ĠÙĪØ§ÙĦØ º
indow s
ĠÙħØ²Ø¯ ÙĪØ¬Ø©
ĠØ± ÙĥÙĨ
ĠØ¨ÙĪØ§ Ø¨Ø©
ĠØ§ÙĦØ³ÙĪ Ø¯Ø§Ø¡
ĠÙĬÙĪ ÙħÙĬ
ĠÙĦÙĦÙĥ ÙħØ¨ÙĬÙĪØªØ±
ÙĤØ ´Ø©
ĠØºØ§ Ø²
ĠØ§ÙĦØ± Ø³ÙĪÙĦ
Ġp h
Ù ĪÙĨØ§
ÙĨØ ¸Ø±
Ĭ ÙĤØ¯
ĠÙĬØ ±Ø§
«Ø ª
ĠÙĤØ ªÙĦ
ØŃØ§ ÙĤ
Ù ĬÙĤØ¯
Ø¹Ø± Ø¨
ĠØ§ÙĦÙħØºØ±Ø¨ ÙĬØ©
ĠØ§ÙĦÙħØŃ ÙĥÙħØ©
un g
ĠØ§ÙĦØŃ ÙĤÙĬÙĤÙĬ
ĠØ§ÙĦØªÙĤ ÙĦÙĬØ¯ÙĬØ©
ĠØ§ Ø·ÙģØ§ÙĦ
ĠØ° ÙĪÙĬ
ĠØ® Ø¯
ĠÙĪØ§ÙĦØ ªØ±
ĠÙħÙĪ Ø¯ÙĬÙĦ
´Ùģ Ø±Ø©
ĠØªØ ²ÙĬØ¯
quip ment
ĠØ´ Ø¹Ø§Ø±
Ø·Ø§ Ø¡
ĠØ¬ Ø¯ÙĪÙĦ
ĠØ¨Ø§ÙĦ Ø·
ØŃ ÙĬØ«
ĠØ§ÙĦØ§ ÙĨØªØ®Ø§Ø¨Ø§Øª
ĠØ¶ Ø¨Ø·
ĠØ§ÙĦØ³ Ø¹
Ø£ Øº
ĠØªØ®Ø ²ÙĬÙĨ
ĠØ§ÙĦØ¹Ø ¬
ĠÙģØ ±ÙĤ
ĠØ§ÙĦØ£ Ø±Ø²
Ġ ÙħØ§ÙĦ
§ Ø³Ùħ
ħ ÙĦÙħ
ĠØ¯ Ø¨
ĠÙĦÙĦ Ø¹Ø§Ùħ
Ú© Ù
±Ø¨ ÙħØ§
ĠØ³Øª ÙĥÙĪÙĨ
ĠØ¥ Ø¯
¸ ÙĦ
ĠØ§ÙĦØ±Ø µØ§Øµ
ĠÙĬØ¹ ÙĬØ´
ĠØ§ÙĦÙĪØ ²Ø§Ø±Ø©
ĠØ§ Ø¹ÙħØ§ÙĦ
ÙĬØµ ÙĦ
ĠØªÙĤØ ±ÙĬØ¨Ø§
ĠØ§ÙĦØ¹Ø ¶
ĠØ§ÙĦÙħÙ ĩÙħ
ĠÙħØ ¸ÙĦØ§Øª
ĠØ§Ø¨ ÙĪØ¸Ø¨ÙĬ
ĠÙģ ØªØ
Ø±Ø§ Ø³
ĠØ§ÙĦØ·Ù Ĭ
ØŁ ØŁ
ĠØ§ÙĦØ±ÙĬØ§Ø¶ ÙĬØ§Øª
ĠØµ Ø¯
6 8
ĠØ§ÙĦÙĤ ÙħØŃ
ÙĦÙĥ Ø
ĠØ§ÙĦØ£ Ø¹Ø
Ø §Ø³Ùħ
ªÙħ Ø¯ÙĨ
ĠÙħØ±Ø§ ØŃÙĦ
ĠÙģÙĬØ³ Ø¨ÙĪÙĥ
²ÙĬØ§ Ø±Ø©
° ÙĦ
ĠA pp
ĠØ§ÙĦÙħØ³ ÙĦØŃØ©
ĠØ§ÙĦØµØ ºØ±
±Ù ĨÙĬ
ĠÙħØª ØŃØ±ÙĥØ©
Ùģ Ø¹Øª
Ù ĬÙħÙĬÙĨ
ÙĬÙĨØ§ Ù
ÙĤÙ ĪÙĦØ©
ĠØ§ÙĦØ£Ø «Ø§Ø«
ĠØ§ÙĦØª ÙĦÙĤØ§Ø¦ÙĬ
Ø±Ø§ Ø¦Ø¨
ĠØ³ ÙĪÙĬ
ĠÙħØªØ ®ØµØµØ©
Ø³Ø§ Ø¹Ø©
± ÙĬÙĨ
ĠØ§ÙĦØ£Ù ĪÙĥ
Ø±Ø§ ÙģÙĬ
ĠÙħØ £
ĠÙħØªÙĪ Ø³Ø·Ø©
ĠØ¹ÙĦØ§ ÙħØ§Øª
Ø³Ø ¬ÙĦ
ĠØªØ¬ Ø¹ÙĦ
Ø¨ Ø±Øª
ĠØ§Ø³ØªØ®Ø¯Ø§ ÙħÙĩ
ĠØŃ Ø¨ÙĪØ¨
ÙĦØ§Ø ´
Ø¹Ù ĪØ¯Ø©
ĠØ« ÙħÙĨ
ĠØ§ Ø³Ø·ÙĨØ¨ÙĪÙĦ
ĠØ§ÙĦØ£ ÙħØ§ÙĥÙĨ
ĠØ¹Ø¨Ø¯ Ø§ÙĦ
ĠØ³ÙĬØ§ Ø³ÙĬØ©
Ø«Ù ħ
ĠØ§ÙĦÙĦÙ ĪØ§
ĠØªØ ®Ø·ÙĬØ·
ĠÙħØ ±Ùĥ
ĠÙĤ ÙĪÙĬ
´Ø§Ù ħ
ÙħØ ªØ±
ĠØ· ÙĦØ¨Ø§Øª
ĠÙĬØ¯ ÙĦ
ĠØ¯ ÙĬÙĨ
Ġc an
ĠØ§ÙĦÙħÙĦÙĥ ÙĬØ©
ĠØ§ÙĦØ¹Ø±Ø§ ÙĤÙĬØ©
ĠØ§ÙĦØ§Ø³ Ø¹Ø§Ø±
ĠØ¨Ù ħØ¯ÙĬÙĨØ©
ĠØ§ÙĦÙĤ ÙĪÙĦ
ĠØ¬ Ø¨ÙĦ
ĠØ¨ Ø¯Ø§
ĠÙĪØ¹ ÙĦØ§
Ĩ Ùĥ
ĠØ§ÙĦØŃ ÙħØ¯
Ø³ ÙĬÙħ
Ġ ÙĬÙĩ
ĠÙħØ ªØ¹
âĢ Ķ
Ø§ÙĦÙ ħØ¹
ÙĨØ ªØ§
Ø¹ÙĪ Ø¨Ø©
ĠØ§ÙĦØ¯ÙĬÙħÙĤØ±Ø§ Ø·ÙĬØ©
ĠØ¥ ÙĦ
ÙĥØ§ÙĨÙĬ ÙĥÙĬØ©
ĠØ§ÙĦØ³ ÙĦØ¹
Ġg rind
ªØ ±ÙĪÙĦ
Ø§ÙĦ Ø¨Ø©
Ġ ÙĬÙĤØ¯
ÙĬØ ²ÙĬ
ÙĬÙ ĬØ¯
ĠØ§ÙĦØ± Ø³Ø§ÙĦØ©
Ø§ÙĦÙģØ §
Ø¬Ø§Ù ħ
ĠÙĬØŃ ØµÙĦ
ĠÙĦÙĦÙħÙ ĪØ§
ĠØ§ÙĦØ± ÙĪØŃ
ĠØ§ÙĦØ¹ ÙħÙĪØ¯ÙĬ
n e
ĠØ¹ ÙħØ§
ĠÙħØ³Ø§ Ø¹Ø¯Ø©
ĠÙħØ ªØ§ØŃØ©
ÙĬÙĪØ¨ ÙĬØ§
ĠØ§ÙĦØ ²Ùħ
ĠØ§ÙĦØ§ÙĦÙĥØªØ ±ÙĪÙĨÙĬØ©
ÙħØ®Ø ±ÙĪØ·
Ø±Ø ®
ĠØ§ÙĦØ¬Ù ĪÙĦØ©
ĠØªØ§ Ø¨Ø¹
** **
ÙĪØ§ Ùģ
ĨÙ Ĩ
ĠØ§ÙĦØ· Ø§ÙĦØ¨
ÙĨÙĬÙĪÙĬ ÙĪØ±Ùĥ
ĠØ§ÙĦØ±Ø£ Ù
ĠØ§ÙĦØ±Ø£Ù Ĭ
ÙĪØŃ ÙĬØ¯
ĠØ¨Ø§ÙĦØ ´Ø±ÙĥØ©
ĠØ§ÙĦØ¨ÙĬØª ÙĥÙĪÙĬÙĨ
ĠØ§ÙĦØ³Ø§Ø¨ Ø¹
ĠÙħÙĪØ «ÙĪÙĤ
ªØ§ Ø¹
ĠØ§ÙĦØ£ ÙĥØ¨Ø±
ĠØ§ÙĦØ§Ø¬ØªÙħØ§ Ø¹
ĠÙĪØªØ ·ÙĪÙĬØ±
ĠØ§ÙĦØ§ ÙĤØªØ¨Ø§Ø³
Ù ħØ¯ÙĨ
ĠØ³ ÙĩÙĦ
ĠØ§ÙĦØ® Ù
Ø§ÙĦÙħÙ ĪØ§
ĠØ¶Ø ±ÙĪØ±Ø©
ĠØ§ÙĦÙħÙĤØ§ ÙĪÙħØ©
Ø¨Øª Ø¯Ø¦
ÙĤÙĪ Ø¨Ø§Øª
¸ ı
ĠÙĨØ§ Ø¬
Ø¬ ÙĬØ±Ø©
Ġ ÙĨØ¹Ùħ
l es
ĠÙĦØªØ £
ĠÙĪØµ ÙĦ
ĠØ¥ÙĦÙĬ Ùĥ
ÙĩØ ªÙħ
op yr
Ġ200 6
ĠØŃÙ ħÙĦØ©
ĠØ´ Ø¨Ø§Ø¨
Ø¹Øª ÙĤ
ĠØº Ø²Ø©
T witter
ħ Ø¯ÙĪÙĨØ©
y a
e al
ĠÙĦØ´Ø ¦ÙĪÙĨ
Ù ħÙĦÙħ
| |
ĠÙħÙħÙĬØ ²
Ġ3 7
ÙĤØª ÙĩØ§
Ø±Ø§ Ø·
ØŃ Ø¯Ø©
Ù ĨÙĤØ±
ĠØ§ÙĦØ¨Ø±Ø ªØº
opyr ight
ĠÙħØ¬ Ø§ÙĦØ§Øª
r es
Ùģ Ø³Ø§Ø±
Ø§ÙĦÙģ Ø©
ĠØªØŃØ¶ ÙĬØ±
ÙĨÙ ĪØ¯
ĠØ¨ ÙĦÙĪØ
Ø «Ø§
ºØ ±ÙĤ
ÙĦÙĬØ ·
ĠØ«Ø§ Ø¨ØªØ©
ĠÙĤ ÙĬØ§Ø¯Ø©
ÙħÙĪÙĨ Ø¯
Ġ am
ÙĦÙĬÙ ĬÙĨ
ĠÙĪØ§ÙĦÙ ħØ¹Ø¯Ø§Øª
ĠÙĨÙĩØ§ Ø¦ÙĬ
ĠØ§ÙĦØªØŃ ÙħÙĬÙĦ
Ġ8 00
ĠØ¨Ø§ÙĦØ¯ ÙħØ§Ùħ
Ġ ÙĪÙĥÙĬÙĦ
ĠÙĪØ±Ø ´Ø©
ĠØ± ØŃÙĦØ©
ĠØ§ÙĦØµÙ ĬÙģ
ĠØ§ØªØ ®Ø§Ø°
Ġ ÙĬØ¹ÙĪØ¯
ĠÙĪÙĦØ °ÙĦÙĥ
Ù ĨØŃ
ÙĢÙĢÙĢÙĢÙĢÙĢÙĢÙĢ ÙĢÙĢÙĢÙĢÙĢÙĢÙĢÙĢ
ĠÙĦÙħ Ø¹Ø±ÙģØ©
ĠØ§ÙĦØ¥Ø³Ø±Ø§Ø¦ÙĬ ÙĦÙĬ
Ī Ø¯Ø§
ÙĨØ ªÙĪÙĨ
¬ØªÙħ Ø¹Ø§Øª
ªØ§Ù Ĭ
ĠÙħÙĩ ÙħØ§
Ġ4 8
ĠAnd roid
Ø´ ÙĦ
ĠØ¨ Ø¹ÙĨÙĪØ§ÙĨ
ĠÙħØ®Øª Ø¨Ø±
ĠØª ØŃÙĤÙĤ
ÙĬØ§ Ø²
ĠÙĦÙĦØ§ ÙĬØ¬Ø§Ø±
ĠØ² Ø±Ø§Ø¹Ø©
ĠÙĪÙĦÙ Ħ
ĠØ¹ ÙĤÙĪØ¯
ĠØ¨Ø§ÙĦÙĥ ÙĪÙĬØª
ĠÙģØ§Ø¦ ÙĤØ©
ĠØ§ÙĦØ²Ø±Ø§ Ø¹ÙĬØ©
ĪÙĦÙ ĪØ
ĠØ¨Ø£ÙĨ ÙĩØ§
ĠØ§Ù ĨÙĤ
ÙħØ ŃØ
ĠØ§ÙĦØ£Ø¯ Ø¨
. ,
ĠØ§ÙĦØªØ ±Ø¬ÙħØ©
ĠÙĤ ÙĬØ§Ø³
ĠØ£ ØµÙĦ
ĠØ®Ø µØ§Ø¦Øµ
ĠØ§ÙĦØ® ÙĬØ§Ø±
ÙĤÙ ĪÙĦÙ
ĠØ§ÙĦØ¹ Ø¨Ø§
Ø¯ Ø±Ø§Ø³Ø©
ĠÙħÙĨ ØŃ
ĠÙĬØ ŃØ§
20 16
ĠØ§ÙĦØ¬Ø§ Ø±ÙĬ
ĠÙĦÙĦØ¥ ÙĬØ¬Ø§Ø±
Ø³ØªÙĤ Ø±Ø§Ùħ
´Ø±ÙĪ Ø¨Ø§Øª
Ø² ÙĪÙĨ
ĠØ§ÙĦÙĨ Ø³Ø®Ø©
ĠÙĩÙĬ Ø¯Ø±ÙĪÙĦÙĬÙĥÙĬØ©
ÙĥÙĬ Ùĩ
ĠØ§ÙĦØ¥ Ø¹ÙĦØ§ÙĨØ§Øª
ĠØ£Ø¨ ÙĪØ¸Ø¨ÙĬ
ĠÙĪÙ ĬØ³
ĠØ ´Ø§Øª
ĠØªØ ¤Ø«Ø±
ĠØ¹Ùħ ÙĦØ§Ø¡
ĠØ§ÙĦÙħØ§ Ùĥ
ĠÙĥØ ªØ§
Ø¶ Ø±Ø§Ø±
ÙħÙĬÙĨØ§ Ø
ĠØ£ Ø·ÙģØ§ÙĦ
ĠØ§ÙĦØª ÙģÙĥÙĬØ±
ĠØ§Ø³ ÙħØ§Ø¡
p ro
ĠØªØ ºÙĬØ±
ĠØ£Øµ Ø¯
ĠØ§ÙĦØª Ø¹Ø±Ùģ
±Ø³ ÙĪÙħ
ĠØ§ÙĦØ«ÙĤØ§ ÙģÙĬØ©
ĠØªØ ±ÙĬ
ĠØ§ÙĦØ« ÙĤÙĬÙĦÙĩ
ĠØ£ ÙĦ
ĠØ§ÙĦØŃ ÙĦÙħ
ĠØ§ÙĦØ³ÙĬØ§ ØŃÙĬØ©
ĠØ¨ ÙĦØ§Ø¯
ĠÙĬØ¹Ø ªÙħØ¯
ĠØ§ÙĦØ¬Ù ħÙĦØ©
ation al
Ù ħØ¯ÙĪÙĨØ©
ĠØ§ÙĦØ³ÙĬØ§ Ø³Ø©
ĠÙħÙ ĩÙ
ĠØ§ÙĦØ«ÙĤØ§ ÙģÙĬ
ÙħØ§Ø º
Ø¦Ø ±ÙĬØ©
ĠØ·Ø§ ÙĤØ©
6 4
olog y
ÙĪØ ŃØ§Øª
ĠØ¹Ø ¸
ĠØ¬ Ø±Ø§Ùħ
Ø¬Ø² Ø¡
Ġ ÙĨÙħØ§Ø°Ø¬
ĠI m
ĠØ§ÙĦÙħØ ®Ø§Ø·Ø±
ĠØ§ ÙĥØ³
ÙĬÙ ĪØ¯
Ùģ Ø³Ø©
ĠÙĥ ÙĦÙĩØ§
ĠØ§ÙĦØ¹ ÙĤØ¯
ĠØ· Ø¨ÙĬØ¨
ĠØ¨ÙĤ ÙĬÙħØ©
Ġ <
ĠÙħÙĤØ§ ÙĪÙħØ©
ĠÙħÙ ĪÙĨØ¯ÙĬØ§ÙĦ
ª ÙĤ
ĠÙħØ ²Ø§ÙĬØ§
ĠØ§ÙĨØ ´Ø§Ø¡
Ġ Ġ
Ù ĨØ³Ø¨
ÙħØ¬ ÙĦØ³
´Ø ±ÙĪÙĨ
Ģ Ù
¬ÙĪÙĩ Ø±Ø§Øª
ĠØ¯ ÙĥØªÙĪØ±
r et
ĠÙģ ÙĦÙĦ
ĠÙħØ ´Ø§Ø±ÙĥØ§Øª
ĠÙĪØ ²ÙĨ
ÙĬÙ ĪÙĨÙĬ
Ġ our
ØŃØ¶ ÙĬØ±
Ø¨ ÙĦØ§Øª
ÙĬØª Ùĥ
Ø£ ÙĥØ¨Ø±
ark et
ÙħÙĬÙĨØ§Ø ª
ĠØ§ÙĦØªØ±Ùĥ ÙĬØ²
·Ù ī
ĠØª Ø¯Ø±ÙĬØ¨
ĠØ§ÙĦØ°Ø§Øª ÙĬØ©
ĠÙħØ¬ ÙħÙĪØ¹
ĠØ§ÙĦØ¬Ø§ Ùģ
ĠØ§ÙĦØ§ ØŃØ
ud i
Ø£ ÙĥØªÙĪØ¨Ø±
ĠÙħØ ·Ø§Ø±
ĠØ§ÙĦØŃ Ø¶Ø§
ĠÙĦÙĪØ ŃØ§Øª
ĠØ§ÙĦØª Ùģ
Ø±Ø§ ÙĥØ©
Ø¯Ø±Ø§ Ø³Ø§Øª
Øµ Ùģ
Ø§ÙĦØ£ Ø
ªØµØ§ Øµ
ĠØ§ÙĦÙħØ ®Ø§
Ġ ÙħÙĦÙħ
ĠØŃØ¯ÙĬØ« Ø©
ĠØ£ Ø³Ø·
ĠØ§ÙĦØ³ ÙĬÙĨÙħØ§
ĠÙĬÙħÙĥÙĨ ÙĨØ§
ÙĬØ· Ø§ÙĦÙĬØ©
ĠØ§ÙĦØª ÙĤØ¯Ùħ
ic es
ĠØª ÙħØ±
Ø§ÙĦØ§ Ø³Ùħ
ĠØ§ÙĦØ¬Ø§ ÙģØ©
ĠØ§ÙĦÙĪÙĦØ§ Ø¯Ø©
ĠØ§ÙĦØ£ ÙħØ©
ÙĬØ ·Ø§ÙĨ
´Ø§ ÙĩØ¯Ø©
ĠØ§ÙĦÙģ ÙĤ
ĠØ§ÙĦØ§ Ø¹Ø
Ø¥ Ø±Ø³Ø§ÙĦ
ĠÙĪØ§ÙĦ Ø¹ÙħÙĦ
ĠÙħØ ºØ
ĠØ§ÙĦØ¨Ù ĨÙĪÙĥ
ĠØ£ ÙĪØ±
Ø·Ù ĬÙģ
ĠØ¨ ØŃØ±
Ù ĪÙĦÙĥ
ĠØ³ Ø¹ÙĪØ¯
E T
®Ø§ Ø±ÙĬ
ĠØ§ÙĦØ±ÙĤ ÙħÙĬ
ĠØ±Ø ®Ø§Ùħ
ÙĪØ£ Ø¶Ø§Ùģ
ĠC N
ĠØ«Ø§ ÙĨÙĪÙĬ
ĠØ³ ÙĦØ§ÙħØ©
ÙĤ Ø¹Ø©
ĠÙģ Ø¦Ø©
ÙĤÙĬ Ø¨Ø©
ĠØ§ Ø¹
ĪÙĥ Ø§ÙĦØ©
ĠØ§ÙĦØ± ÙĥØ§Ùħ
Ġin d
ĠØ£Ùģ Ø±Ø§Ø¯
ĠÙĪÙħ Ø³Øª
Ø¶ Ø±Ø§Øª
Ġc o
ĩÙĨØ¯ Ø³ÙĬÙĨ
ĠÙħÙĥ Ø¹Ø¨
ĠØ§ÙĦØ§Ø³Øª ÙģØ§Ø¯Ø©
ĠØª ÙĥØ±
ĠØ§ÙĦØŃ Ø¨ÙĬØ¨
oo t
ĠØº Ø³Ø§ÙĦØ§Øª
ĠØ¶ ÙĪØ¡
ĠØ§ÙĦÙħØ ´ØªØ±Ùĥ
Ø£ Ø¶Ùģ
ĠØ¶Ø ±
ĠØ§ÙĦØ³ Ø¨Ø§
ĠØ§ÙħØ ±Ø£Ø©
ĠØ§ÙĦØ§ ØŃØªØ±Ø§
ĠØŃ ÙĥÙĪ
ĠÙĪØºØ±Ø¨ ÙĦØ©
ĠØ§ÙĦÙĪØŃ ÙĬØ¯
ÙĦØ§Ø¦ ÙĨØ§
Ĭ Ø³Ø§
ÙĥÙĨÙ ĨÙĬ
ĠÙĨØ µØ§Ø¦ØŃ
ĠØ§ÙĦØ¬ Ø¯ÙĪÙĦ
Ġcrush ing
ĠØ§ÙĦØ³ ÙħØ§
ĠØ§ÙĦØ¬ ÙĩØ§Øª
Ø¶Ù ĬØ¨
ĠØ§ÙĦØ² ÙĬØªÙĪÙĨ
ĠÙĪØ£ Ø³
ĠØ¨ Ø¬ÙĪØ¯Ø©
ĠT witter
ĠØŃ Ø¨ÙĬ
ĠÙĦÙĦ Ø·Ø§ÙĤØ©
ÙħØ§Ùĥ ÙĬÙĨØ§Øª
Ð º
ĠØ³ ÙĪØ§
Ø¦ ÙħØ©
Ø§ÙĦØªØ ²Ø§Ùħ
ĠÙħØ· Ø¹Ùħ
ÙĦÙĪØ «
ĠØ¨Ø§ Ø±ÙĬØ³
£ ØªÙĬ
Ø ¤
ĠØ¨Ø ®Ø
in ter
ĠØª ØŃØ±ÙĬØ±
ĠÙĦÙħØ ·ØŃÙĨØ©
ĠØ¨Ø§ÙĦÙ ĨØ
== ==
ĠØŃÙĬØ§Øª Ùĩ
ĠØªØ£ Ø³ÙĬØ³
ª ØŃØ§Ø¯
Ø¹Ù ĪØ¨
ĠÙĦ Ø¹ÙĦØ§Ø¬
ĠØ§ÙĦØ§ÙĨ Ø³Ø§ÙĨ
Ù ħÙĦØª
ĠØ§ÙĦØ´Ø ±ÙĬ
ĠØ§ÙĦØ³ ÙĬØ±
ÙĥÙ ĨÙĬØ©
ĠØ§ÙĦØ¨Ø±ÙĬØ·Ø§ ÙĨÙĬØ©
ØµÙ Ĩ
ª ÙĤØ±ÙĬØ±
ĠØ§ÙĦÙĨ ÙħÙĪØ°Ø¬
ĠØ¨ÙĬÙĨ ÙĩÙħ
ĠØ§Ø³ØªØ ±
¬Ù ĬØ¯
s m
´ ÙĥÙĦ
ĠØ§ÙĦÙĨØ ª
±ÙĪ ÙĬØ©
ĠÙħØ« ÙĦØ§
ÙĨØº ÙĪÙĦØ§
ĠØŃØ§ Ù
Ø§ÙĦÙħÙ Ĥ
§ ÙĨÙĤØ±
Ġ ÙħØ¯Ø§Ø±Ø³
Ø §ÙĨÙĤØ±
ĠÙĥ Ø¬Ùħ
ĠØ§ÙĦÙħØ¤ ÙĦÙģ
Ġ ÙĨØ¨
ĠØ§ÙĦØªØ§Ø±ÙĬØ® ÙĬØ©
ĠÙħØŃ ÙĦÙĬØ©
ØŃ ÙĤØ§
ĠØ§ÙĦÙĤ ÙĪÙī
ĠØ¯Ø± ÙĩÙħ
Ù ĪØ¹Ø§
Ġ ÙĨÙĩØ±
ÙħØ§Ø± ÙĥØ§Øª
ĠØŃ ØµÙĦ
ĠÙĨÙ Ī
ĠÙĦ Ø¹Ø¨
ĠØ§ÙĦØ§ Ø¹Ø¯Ø§
ĠØ§ÙĦÙĨ Ø³Ø§
ĠÙĪØ§ÙĦØŃ ØµÙī
ĠÙĪØ ªÙĪ
.... ....
ĠØºÙĬØ± ÙĩØ§
ĠÙĥÙ Ĩ
Ø ªÙĤØ±ÙĬØ±
Ø §Ùģ
Ø£ÙĪÙĦØ§ Ø¯
ov e
ĠÙħØ¬ Ø§ÙĦØ³
k ing
ªÙ ĨÙĪØ¹
ĠØ§ÙĦÙĤØ §Ø¦Ùħ
Ĭ Ø¨Ø±
Ġ ÙħØ¯ÙĨ
ĠØ§ÙĦØ£ØŃ Ø¯Ø§Ø«
ĠØªØ±Ùĥ ÙĬØ²
ĠØŃ ÙģÙĦ
ØŃØ² Ø¨
ĠÙĪØ§ÙĦÙħØ ¤
ĠØ¨Ø¹Ø¶ ÙĩØ§
ĠØªØ· ÙĪØ±
Ùģ ÙĪØ±Ø©
ĠC S
ĠØ¯Ø±Ø§ Ø³Ø§Øª
ĠØ§ÙĦØ¹ ÙĤÙĪØ¯
ĠØ§ÙĦÙģ ÙĤÙĩ
Ù ĬØ³Ø§
ĠØª ÙħØªÙĦÙĥ
ĠÙħØ ºØ§
ĠØ§ÙĦÙ ĨÙĬ
ĠØ§ÙĦÙģ ÙĪØ±
ĠÙĤØ ª
ĠØ¢ Ø«Ø§Ø±
Ġ ÙĪØ¹ÙĨ
ĠÙĬØ² Ø§ÙĦ
Ø§ÙĦÙħØ ¬
ÙĤ ÙĬÙĨ
ÙĨØ ¸Ø§Ùħ
Ø§ÙĦÙ ĤØ
ĠØ§ÙĦØ¥ Ùģ
ĠÙģØ¹ Ø§ÙĦÙĬØ§Øª
ĠÙĬØ³ ÙħÙī
ĠØ§ÙĦÙħÙ ĩÙĨØ¯Ø³
ĠØ§ÙĦØŃ ÙħØ§ÙĬØ©
ĠØ¬ ÙĪÙĦ
ĠÙħÙĬØ¯ ÙĬØ§
ĠÙħØªØ ±Ø¬ÙħØ©
ĠØ¬ ÙĪØ²
ĠÙħÙĤØ ±
Ø·Ù ĬÙĦ
ÙģØª ÙĩØ§
²Ø§ Ø¡
ĠØ§ÙĦØ¬ ÙħÙĬÙĦØ©
Ð »
ĠÙĩÙĬ ÙĥÙĦ
Ĭ ÙĤØ©
ĠØ´ Ø¹Ø¨
ĠØ§ÙĦÙħ ÙĥÙĪÙĨØ§Øª
º ÙĦ
ĠØ§ÙĦÙħØŃ ÙĬØ·
Ġ ÙħØ¹Ø±Ùģ
± Ø¯ÙĬ
ob ile
ÙĤ ÙĦÙĬÙħ
ÙĨØª ÙĤØ§ÙĦ
ÙĨØ§ Ø³Ø¨
ĠØ¥ÙĦÙĥØªØ ±ÙĪÙĨÙĬ
ĠØ§ÙĦØ¹Ø§Ù ħÙĦØ©
ĠØ§ÙĦØ¹Ø³ ÙĥØ±ÙĬ
Ġ ÙħÙģÙĩÙĪÙħ
ĠØ§ÙĦÙĨ ÙĪØ§Ø¨
' ).
ĠÙĪØ¬ ÙĦ
ĠØ¹ ÙĩØ¯
ÙĤØ§Ø °
ĠÙĪØ§ÙĦ Ø±Ø
ĠØŃ ÙģØ±
ĠÙĦÙĥÙĨ Ùĩ
ĠÙĦÙĦØ§ Ù
ĠÙĤØ§ Ø¨ÙĦØ©
ĠØªÙħ ÙĥÙĨ
ĠØ³ ÙĬØ±Ø§ÙħÙĬÙĥ
ĠØ± Ø¨ÙĬØ¹
ĤØ§ ÙĩØ±Ø©
Ø¬Ø²Ø§ Ø¦Ø±
ĠØ§ÙĦØ£ØŃ Ø¬Ø§Ø±
ĠØ§ÙĦØ³ ÙĪÙĬØ¯
3 00
Ĩ Ø¹ÙħÙĦ
ĠØ§ÙĦÙħØ±ÙĥØ² ÙĬØ©
ĠØ§ÙĦÙĥØ§ ÙĪÙĦÙĬÙĨ
ĠÙĪØ¥ÙĨ ÙħØ§
ĠÙĪØ§ÙĦØªØ ·ÙĪÙĬØ±
ĠØ´ÙĬØ ¦Ø§
ĠØ§ÙĦØ£ Ø±Ø§Ø¶ÙĬ
ĠØ§ ÙģØªØªØ§ØŃ
ĠØ£ Ø²ÙħØ©
ĠÙĪØ¨ Ø¹Ø¶
Ø£ ÙĨØ§
ĠÙĥ Ø¨Ø§Ø±
Ġ Ø¯Ø±ÙĪØ³
ĠÙĦÙ ĤØ
ĠØ§ÙĦÙĨ ÙħÙĪ
ĠØ§ÙĦÙħØ³Øª ÙħØ±
ÙĥØ§Ù ħÙĦØ©
ĪÙĦ Ø¯
2 50
ĠØµ Ø¯ÙĬÙĤ
ĠÙħØ³ØªØ ´ÙģÙī
ĠØ ´Ø§Ø±Ùĥ
ĠØ§ Ø¯ÙĬØ¯Ø§Ø³
ĠØ³ ÙĦØ§
ĠÙĬØ «
ĠØ£Ù ĨÙĬ
ĠÙĨÙĤ Øµ
ĠØªØ¬ ÙħØ¹
Ġ12 00
Ģ ÙĢÙĢÙĢÙĢ
Ø³Ø§ Ø¦Ø±
Ù ħØ§ÙĦÙĬ
ĠÙħÙĦØ§ ÙĬÙĬÙĨ
ÙĤÙĬ Ùĩ
ĠØ£ÙħØ§ ÙĥÙĨ
ĠØ§ÙĦÙģÙĬ ÙĦÙħ
± Ø¯Ø©
ĠÙħÙĪ Ø³ÙĪØ¹Ø©
ĠØ¨ ÙĪØ±Ø¯
ĠØ³Ø¨ ÙĤ
ĠØªÙĥ Ø§ÙĦÙĬÙģ
ĠØ§ÙĦØ·Ø¨ÙĬ Ø¹Ø©
¶Ø ±ÙĪØ±Ø©
Ù ĪØ¨Ø§
ĠØ§ ï»Ł
f act
ĠØªØ «
Ġ ÙĨÙĬÙĪÙĬÙĪØ±Ùĥ
ĠØªØ¹ ÙĦÙĨ
A M
ĠØ§ÙĦØ¹ ÙĩØ¯
ĠØ£Ùħ Ø¨ÙĬØ±
v ar
ĠØ² ÙĪØ§Ø¬
ĠÙĪÙĦÙĥÙĨ Ùĩ
Øº ÙĬØ±
ĠØªØ ¬Ø±
u k
Ù ĨØ¹ÙħÙĦ
ĠÙĤÙ ĨÙĪØ§Øª
ĠÙĦÙĥØ §
ÙĤØ§ Ø¯
ĠØ§ÙĦØ£ Ø¯ÙĨÙī
ing s
ĠØ§ÙĦÙģ Ø¦Ø©
ĠØ§ÙĦÙħØª ØŃØ±ÙĥØ©
º ÙĦÙĬÙģ
ur es
ĠØ§ÙĦØ§ Ø·ÙģØ§ÙĦ
ĠØ§ÙĦÙĤ Ø·Ø¹
ØŃØ§Ù ĨÙĩ
ÙĪØŃ Ø©
ĠØ£Ø³ ÙĪØ§ÙĤ
6 3
·Ù ĪØ¨Ø©
°Ø ª
ĠÙĦØ£ ÙĪÙĦ
ow n
ĠØªØ¹ ÙĬÙĬÙĨ
Ã §
ħ Ø¨ÙĪ
ĠØ¥Ø¶Ø§ ÙģÙĬØ©
p g
ĠØ§ÙĦØ· ÙĤØ³
ĠØ³ Ø£
ÙĤÙ ĬÙĦ
ÙħØ ´ÙĬ
Ġ ÙĪÙĨØ§
ĠØ§ÙĦÙĨÙģ Ø³ÙĬØ©
ĠØ§ÙĦÙħØ· ÙĦÙĪØ¨
ÙħÙ ħØ
Ùģ ÙĬØ¶Ø§Øª
is s
ay s
an s
ÙħÙĬÙ ĪÙħ
ĠØ§ Ø¯Ø§Ø±Ø©
ĠØ± Ø¹Ø§ÙĬØ©
ÙĬØ§ Ø·
ĠÙĪÙĦÙ ĩ
ĠØ§ÙĦØ§Ø ´ØªØ±Ø§Ùĥ
Ø§ÙĦØ³ ÙĦØ§Ùħ
Ú©Ù Ĩ
ĠØ§ÙĦØªØ ®Øµ
ĠØ§ÙĦÙħ Ø§ÙĦÙĥ
¸Ø§ ÙģØ±
ĠØ§ÙĦØ£ ÙħÙĨÙĬØ©
ĠØªØ ¬Ø§Ø±ÙĬ
ĠØ§ÙĦØª Ø¹Ø¨
ĠØ§Øª ÙģØ§ÙĤ
Ĭ ÙĪØ±ÙĪ
Ø§ÙĦÙĥ Ø³Ø§Ø±Ø§Øª
ĠÙĪØŃ Ø¯Ùĩ
ĠØ§Ø¹Øª ÙħØ§Ø¯
Ø¹ ÙĤØ©
ĠØµ Ø¯Ø±
Ø±Ø§Ø ªÙĬ
Ø°Ø§Ø ±
Ø¶ Ø¹
ĠØªØµ Ø¨ØŃ
ĠÙĨØ ¬Ø¯
ÛĮØ §
ÙĬØ ´Ø©
ĠØ£ÙĤ ØµÙī
ĠÙĦÙĦÙĥ Ø³Ø§Ø±Ø©
Ø³ÙĬØ§ ØŃØ©
Ī ÙĥÙĬÙģÙĬØ©
ĠØ§Ø³Øª ÙĩÙĦØ§Ùĥ
Ø¯Ø§Ù Ĭ
ĠØ¹Ø¬ ÙĦØ©
Ù ĪÙĥÙĬÙģÙĬØ©
ĠØ§ÙĦÙĨ ÙĩØ±
±Ø³ Ø§ÙĦ
U R
ĠÙħÙħÙĬØ ²Ø§Øª
ic k
Ù ĬÙħÙĨ
ĠC rusher
ĠØ§ÙĦØªÙĨÙģÙĬØ °ÙĬ
ÙĦÙĬØ ´
ĠÙĤØ§ÙĨÙĪÙĨ ÙĬØ©
ØŃ Ø¯Ø§Ø«
ĠÙħØ ´ØªØ±
ĠØ§ÙĦØ§ ÙĨØ¬ÙĦÙĬØ²ÙĬØ©
ĠÙĤ Ø¨ÙĬÙĦØ©
1 30
ĠÙģ ÙĨØ§Ø¯ÙĤ
ĠÙħØªÙĨØ§ ÙĩÙĬØ©
ĠC on
ĠÙģ Ø±Ø¶
ĠØªØ³ Ø¹
Ġ ÙĪØ¹Ø§
Ø±Ø§ Ùĥ
Ī ÙħÙĪØ
ĠE n
ĠØ¥ Ø¹ÙĦØ§ÙĨØ§Øª
ĠØ£ ÙħÙĬÙĨ
Ø· Ø¨
ĠØ§ÙĦØ± Ø¨ÙĬØ¹
Ùģ ÙĨÙĬ
Ø§ÙĦÙ ĪØ¬
¶Ø ±Ø¨
qu ir
ĠØ¨Øª ÙĤØ¯ÙĬÙħ
ĠØ§ÙĦØ¹ÙĦØ§ ÙħØ§Øª
Ù ĪÙħÙĪØ
ĠØ§ÙĦØ³ÙĪ Ø¯Ø§ÙĨÙĬ
ĠD ec
ĠØ£ ÙģØ
Ġ ÙĩØ§Ø
ĠÙħÙħØ «
Ø³ ÙĦØ§Ùħ
ĠØ¯Ø§Ù ĪØ¯
Ñ Ĥ
ĠØ§ÙĦÙħØªØ ®ØµØµØ©
ĠØ£Ø¯ ÙĨØ§Ùĩ
Ø£ Ø¨
ĠÙĬÙħ ÙĥÙĨÙĨÙĬ
ĠØ§ÙĦØ¯ ÙħØ§Ùħ
ĠØ§ ØªØµØ§ÙĦ
Ġl a
ĠS p
ĠØ³ ÙĩÙĪÙĦØ©
ÙħÙĬ Ùĩ
20 11
ĠØ§ÙĦØ¹Ù ĨÙģ
ĠØ§ÙĦÙħØ§Ø¦ Ø©
ï¿½ï¿½ ï¿½ï¿½
ĠØ¨Ø§Ø ª
ĠØªØ³ ÙĪÙĬÙĤ
ĠØªØ¤ Ø¯ÙĬ
Ġ ÙĪÙĥÙĬÙģÙĬØ©
os e
ÙħØ³ Ø£ÙĦØ©
ĠP ol
Ø¬ Ø¨
ĠØ¬ ÙĩÙĪØ¯
ÙĤØ§ Ø±Ø§Øª
ĠÙĪØ¬ ÙħÙĬØ¹
Ø« Ø©
ĠØ µØ±
Ø¯ Ø¹
US D
ÙĦØ§ ØŃÙĬØ©
ĠØª ÙĤÙĪÙĦ
´Ùģ ÙĬØ§Øª
ÙĦØ§ Ø¬Ø§Øª
ĠØªØ ´Ø§
ĠÙĥØ§ ÙħÙĬØ±Ø§Øª
ÙģØ ±ÙĨ
Ø¨Øª ÙĥØ§Ø±
ĠÙĬØµ Ø¨ØŃ
ĠØ¬Ø±Ø§ ØŃØ©
ĠÙĦÙħØ¹ Ø§ÙĦØ¬Ø©
Ġ ÙĬØ³Ø§
ĠØªÙĪ ÙħÙĬ
ÙĬØ² ÙĬØ§Ø¡
n ame
ĠØ§ÙĦØ·Ø§ ØŃÙĪÙĨØ©
ĠÙĥÙĩØ±Ø¨Ø§ Ø¡
ÙĦ Ø§ÙĦØ§Øª
ĠØª Ø³Ø±Ø¨Ø§Øª
´Ø ¢Øª
an n
Ġ ÙĨØ³Ø¨
Ġ ÙĪÙħÙĪØ
ĠØ§ÙĦÙĦÙ ĤØ§Ø¡
ĠØ§ÙĦØ¬ ÙħØ¹
Ø§ÙĦÙģÙ Ĩ
ĠØ¨ ÙĥØ§
Ø¨Øª Ùĥ
Ø§ÙĦØª ÙĩØ§
ĠØ§ÙĦÙĨ Ø¨
ĠØ§ÙĦÙĥØ ªØ§Ø¨Ø©
Ø¹Ø§Ù ĬÙĬØ±
ĠØ§ÙĦÙħØ £
ĠØ§ÙĦØ´Ø§ Ø¹Ø±
ĠØªØ ¬Ø±ÙĬ
ÙĪÙ ĬÙģ
ĠÙħÙĩ Ø±Ø¬Ø§ÙĨ
ØªØ ±Ø§
ĠØ§ÙĦÙħÙĪØ ¬ÙĪØ¯
ĠØ§ÙĦÙĪ ÙĤÙĪØ¯
ĠÙĦÙĦØ´ Ø¹Ø±
ĠØ§ÙĦØ¬ ÙĬÙĦ
ĠÙĦØª ÙĤØ¯ÙĬÙħ
ĠØ§ÙĦÙĨÙĩØ§ ÙĬØ©
ĠØ¨ ÙĤØ§
ĠØ °ÙĬ
A L
t o
ĠÙĤØ§ Ø¯Ø±
ĠØ¶Ø¹ Ùģ
Ø¨ÙĬ Ùĥ
ÙĪØ¬Ø ªÙĩ
ĠØªØ³ ÙħØŃ
ÙĪØ¬ÙĬ Ùĩ
s c
ħ Ø³ØªØ®Ø¯
ØªØ£ Ø«ÙĬØ±
i ous
ĠØ¹ ÙĨØµØ±
Ø¯Ø§ ÙĨÙĬØ©
ØŃ ÙĪÙħ
ĠØª Ø¯Ø®ÙĦ
form ation
ĠØ§ÙĦÙģØ¶ Ø©
ĠØª ÙĥÙĪÙĬÙĨ
ĠØ§ÙĦØ ²ÙĨÙĥ
ĠØ¥ Ø¬ÙħØ§ÙĦÙĬ
ĠÙħÙĩØ§ Ø±Ø§Øª
ĠÙħÙĪØ ¬
ĠØ¹ ÙĦÙħØ§Ø¡
ĠÙĦØ§ÙĨ ÙĥØ§
ĠØ§ÙĦØ¯Ø±Ø§ Ø³ÙĬØ©
´Ø§Ø ´Ø§Øª
Ġâ Ĩ
ĠØ§ÙĦÙħØ¹ Ø§ÙĦØ¬Ø©
ĠØ§ÙĦØ§ ÙĩØªØ²Ø§Ø²
ĠÙĪØ§ Ø³ØªØ
ĠØ§ÙĦÙħØ³Ø ¬Ø¯
ĠÙħØ ªÙī
ĠØªØ ®ØµØµ
ĠØ§ÙĦØ¹ ÙĪØ§ÙħÙĦ
ĠØ£ Ø¹ÙĦÙĨ
Ġm achine
ĠØ¹ ÙħÙĪØ¯ÙĬ
ĠØ§ÙĦÙħÙĨØ ªØ
ÙĪØ§Ù Ĭ
ĪØ§ÙĦÙ ĬØ¯
ĠØ§ÙĦØ§Ù ĪÙĦÙī
ħ Ø¯Ø±
ĠØ§ÙĦØ¬ Ø¯
ĠØ§ÙĦØ¢ Ø«Ø§Ø±
ĠØ§ÙĦØ£Ø³Ø§ Ø³
ĠÙģ ÙĦÙħ
ĠØ§ÙĦÙĨØ§ Ø¬
ĠØªÙĪØ ¬ÙĬ
ĠØ§ÙĦÙĦØ¨ÙĨØ§ ÙĨÙĬØ©
ĠØ§ÙĦØ§ Ø´
Ù ĪÙĤØ¹
ĠØ§ÙĦØªØ£ ÙħÙĬÙĨ
ĠÙĪØ§ÙĦ Ø¨Ø
ÙĨØ§ Ø¯
ĠØ¬ Ø¨Ø³
Ġ ÙħØ§ÙĦÙĬ
ĠÙĪØ§ÙĦØ ªØ¹
ÙĨØ¸Ù Ĭ
Ð µ
ĠÙĪØªØ± ÙĥÙĬØ¨
ĠØ§Ø³Øª ÙħØ±Ø§Ø±
Ġus ed
ĠØ£ ÙĥØ¯
ĠØªØ ªÙħÙĥÙĨ
Ø§ÙĦØ ¢
Ø¨ÙĪØ§ Ø³Ø·Ø©
ÙĥØ§ ÙģØŃØ©
} ,
ĠÙĥØ¨ ÙĬØ±Ø§
ÙĬØ§Ø ªÙĬ
n et
ĠØ§ÙĦØ´Ø§ Ø¦Ø¹Ø©
ĠØ¨Ø±Ø ¦Ø§Ø³Ø©
® ÙħØ©
ĠØ±Ø ¶Ø§
Ù ĬÙĤØ©
Øµ ÙĬØ§ÙĨØ©
ĠØ§ÙĦØ³ ÙħØ§Ø¡
A r
ĠÙĪÙħØ ¤
ĠØ§ÙĦØ£Ùģ Ø±Ø§Ø¯
ub lish
ĠØ§ÙĦØŃ ÙģØ±
ĠÙĪÙħÙ Ĥ
ĠØ£ ÙĨØºÙĪÙĦØ§
ĠÙħÙĤØ§ Ø·Ø¹
Ùĳ Ùĭ
Ð ½
ĠØ£Ùĥ Ø³ÙĬØ¯
ÙĦØ ²Ùħ
ĠØ§ÙĦØ£ Ø¯ÙĪÙĬØ©
ĠÙĤØ ±
ĠØŃØ ªÙĬ
ĩØ °Ø§
ĠØ§ÙĦÙħØ ´ÙģØ±Ø©
ĠÙħØ¯ ÙĬÙĨ
ÙĪØ§ÙĦ Ø¨
Ø¦ ÙĬØ§
Ø¹Ø§ Ø©
ħØ³Ø§ Ø¹Ø¯Ø©
ĠØ§ÙĦ Ø¹ÙĨÙĪØ§ÙĨ
ĠØ±ÙĬØ§Ø¶ Ø©
ĠÙĨØ ¸Ø§
ĠÙĪÙĬÙĨ Ø¯ÙĪØ²
Ø³ ÙĪÙĬÙĤ
ÙħÙĨ ØŃ
ÙĨØ ¬Ø±
ÙĥÙĬ ÙĦØ©
ĠN ov
ĠÙĬØŃ ÙħÙĦ
ĠØ§ÙĦØ£Ø³ Ø¯
ĠØ§ÙĦÙħØª ÙĤØ¯ÙħØ©
ĠO nline
ÙĤ ØµØ©
ĠØ§ÙĦØ± Ø¹Ø§ÙĬØ©
ĠØ¹ÙĦÙħÙ ĬØ©
ÙĪØ§ÙĨ Ø¨
ĠØµØ¨Ø§ ØŃØ§
ÙĪØ ¸Ø§Ø¦Ùģ
ï» ´
ĠØ§ Ø±Ø
ĠØ§ÙĦØ£Ù ĨÙģ
ĠØ§ÙĦØª ÙĩØ§Ø¨
Ī ÙĤØ
ĠØ¨ ØŃØ¶ÙĪØ±
Ġi P
ĠØ§ÙĦ Ø¯Ø§Ø®ÙĦ
ĠØ§ÙĦØ§ ÙĨÙģ
ĠØ§ÙĦÙħØŃØ§ ÙģØ¸Ø©
ÙĥØ§ Ø¨
= "
Ġa pp
± Ø¯ÙĨ
Ùĩ ÙĦÙĬ
ØµØ§ Ø¨Ø§Øª
ĠØªÙĨØ ªØ¬
ÙĥØ§ ÙĨØª
Ø³Ù ĪÙĬØ©
ĠÙĦØŃ ÙĤÙĪÙĤ
ĠØ§ÙĨØª ÙĩØ§Ø¡
ÙĨØªÙĪÙĨ ÙĬØª
Ġ3 9
ĠØ£ Ø³Ø±Ø¹
ĬØ ª
ªØ§ Ø¯
ĠØ±ÙĪ ÙħØ§ÙĨ
ĠØ£ÙĨ ÙģØ³
Ø¨Ù ĨØ©
Ø§ÙĦÙ ĩÙħ
ĠØ£ ÙħØ±Ø§Ø¶
u y
ĠØ¬ÙĦ Ø³Ø©
ĠÙģ ÙĪØ±ÙĥØ³
ĠØ§ÙĦØ³ ÙĥØ§ÙĨ
ĠØ§ÙĦØ³Ø¹Ø± WhatsApp
ħ ÙĥÙĬÙģØ§Øª
ĠØ§ÙĦØ£ÙĨØ ´Ø·Ø©
E nglish
ĠØ¥ Ùģ
um b
Ø¨Ø±Ø§ Ø¬
ĠØ§ÙĦØ°Ùĩ Ø¨ÙĬØ©
ĠØ§ÙĦØ±Ø§Ø¦ Ø¹Ø©
Ĩ ÙĬÙĪÙħ
«Ø ±ÙĪØ©
Ù ħØ¯Ø±
ÙĨØ¨Ø °Ø©
ĠÙĪÙĦÙ Ĩ
ĠØ§ÙĦÙĦÙ ĩÙħ
ĠØ®Ø °
¤ ÙĩØ§
ĠÙĪØ§ÙĦØ «Ø§
ĠØ§ÙĦØ¹ ÙĤÙĦ
¶Ù ĬÙĤ
ÙĦ Ø¹Ø©
ĠØ§ÙĦÙĥØ§ÙĦØ³ ÙĬØª
Ø¦ Ø¯Ø©
Ø§ÙĦÙħÙ ĪØ
Ø±Ø§ ÙĨÙĬØ©
Ùĥ Ø±Øª
ħ Ø³Ø§Ø±
² Ø¹
ĠØ§ÙĦØªØ ¬Ø§Ø±
ĤØ ±
Ġm an
ĠØ§Ø®Ø ªØ±Ø§
ØªÙĪ ÙĬØªØ±
ĠØ§ÙĦØ§ Ø®Ø¨Ø§Ø±
Ī ÙĬØ¬Ø¨
ÙĪØ§Ø¦ Ø²
µ Ø¯Ø±
Ù ĪÙĬØ¬Ø¨
ĠÙħØ¬ ÙħØ¹
ĠØ³ Ø§ÙĦÙħ
ĠÙĬØª ÙħÙĬØ²
Ġ Ù¢Ù
Ġ ÙĨÙĪØ§
ĠØ§ÙĦÙĥ ÙĦÙħØ©
Ù ĪÙĤØ
ĠØ´Ø§ ÙħÙĦ
ÙĨÙ ĨÙĬ
Ø¨Ø§ Ø¦ÙĦ
ĠC l
Ø§ÙĦÙħÙ ĪÙĤØ¹
un d
ĠØ§ÙĦØªØ§ Ø³Ø¹
ĠÙĬØ±Ø ºØ¨
ĠØ§ÙĦØ³ ÙĦØ§ÙħØ©
ĠØ§ÙĦØ¹Ø ´
ĠØ¨Ø§ÙĦØª Ø¹Ø§ÙĪÙĨ
ĠØ§ÙĨØªØ ®Ø§
ÙħÙĬ ÙĬØ²
ĠÙģ Ø³
ĠÙħÙĪØ ª
ĠØª Ø³ØªØ
ÙĤØ§ Ø¨Ø©
a ir
ĠØ§ÙĦÙĩ Ø¬
ÙĦØ ªÙĬ
ĠØ£ÙĤ ÙĪÙī
ĠØ±ØŃ ÙħÙĩ
ĠÙĬØ ±Ùī
ĠØµØ§ Ø
ĠØ§ÙĦØµØŃÙĬØŃ Ø©
ĠÙĨÙģ Ø³ÙĬ
ĠØ§ÙĦÙ ĪØ³
±ÙĪ Ø¯
ÙħÙĬØ ±Ø©
Ø§ÙĦÙħÙĨØ ªØ¬Ø§Øª
v el
ĠÙĤ ÙħØª
ĠÙĨÙĬ Ø³Ø§ÙĨ
6 00
Ù ħÙĥÙĬÙģØ§Øª
ĠØ¹Ø¨Ø¯Ø§ÙĦ Ø¹Ø²ÙĬØ²
Ġ ÙĪØ¨Ø§
oc um
ĠÙĩÙĨØ¯ Ø³Ø©
ÙĦØ§ ÙĬØª
Ġ$ )
ĠÙĦÙģ ØªØ±Ø©
ĠØ´Ø§ Ø¡
ĠÙĪØªØª ÙħÙĬØ²
Ġs c
Ø±Ø§Ø¡Ø §
Ø¨ØŃ ÙĪØ«
ĠØ¹ Ø±Ø§
ĠØ§ÙĦØ¥ Ø·ÙĦØ§ÙĤ
ĠØ¨Ø§ÙĦØ§ ÙĨØ¬ÙĦÙĬØ²ÙĬ
Ġag o
ĠØ§ÙĦÙħØ¬Ø§ ÙĨÙĬØ©
ĠØª ÙĤØ§Ø±ÙĬØ±
ĠÙĪØ¬ Ø¯
ĠØ§ÙĦÙĥÙĩØ±Ø¨Ø§ Ø¦ÙĬ
ĠØ§ÙĦØ§Ø³ ÙĦØ§ÙħÙĬØ©
ĠØ§ÙĦÙĤ Ø¶ÙĬØ©
Ùģ ÙĪØ±
an a
ĠÙĦÙĦØ§Ù Ĩ
d it
ÙģØ§ Ø©
Ġy ear
Ø¯Ø ¬
Ī ÙĩÙĦ
ĠØªØ ¶Ùħ
ĠØ§ÙĦÙħØ ºØ°ÙĬØ©
ĠØ£Ø ±Ø¨Ø¹
ĨÙ ĪÙĬØ©
ĠW indows
Ù ĪÙĩÙĦ
ÙħØ ªØ§Ø¹
cr ipt
co in
Ġb l
Ø ªØ§
Ù ĪÙĬØ±
ĠØ£Ø´ ÙĥØ§ÙĦ
ĠØ¥Ù ħ
âĢı /
ÙĤØ§ ÙģÙĬØ©
Ø¥ Ø¶Ø§ÙģØ©
ĠÙĪØ§ÙĦØª Ø¹Ø¯ÙĬÙĨ
b m
ĠØ®Ø ±ÙĪØ¬
ĠØ³ ØŃØ¨
Ø¨ ÙĦØ¬
ĠØ§ÙĦØ£ ÙħØ§
ĠÙĬØ³ Ø¨Ø¨
ĠØ§ÙĦØªØŃ ÙĦÙĬÙĦ
ĠÙĨØ¬ ÙĪÙħ
Ġ( (
pan y
ÙĥØª ÙĪØ±Ø©
ĠÙĤ ÙĦÙĬÙĦ
°Ø§ ÙĥØ±Ø©
ĠØ§ÙĦÙħØ§Ø ±ÙĥØ©
ØŃØ ±ÙĬ
ĠØ· ÙĦØ§Ø¨
Ø§ÙĦØ ®Ø
ĠØ¨Ø ±ÙĪØ
ĠØ§ÙĦØµØŃ Ùģ
ĠÙĪØ¬ ÙĩØ©
ĠÙĬØ´ ÙĬØ±
ĠØª Ø¹ÙĪÙĬÙħ
ĠØ£Ø¨ ÙĨØ§Ø¡
Øµ ÙĪØ±Ø©
ĠØ§ÙĦØŃØ² Ø¨
le ct
ĠØ³Ø¨ ØŃØ§ÙĨÙĩ
ĠØ¨ Ø¹ÙħÙĦ
ĠØ§ÙĦØ°Ùĩ Ø¨ÙĬ
ĠÙĩØ ²Ø§Ø²
ĠÙĦØ¥ Ø¹Ø§Ø¯Ø©
ÙĦØ ªØ±Ø§
ĠØ§ÙĦØºØ°Ø§ Ø¦ÙĬ
ĠØ§ÙĦÙħÙĨØ ¸ÙħØ©
ĠÙĥ ÙĦÙĩ
Ø§ÙĦØ ªØµ
ÙģØ±ÙĬÙĤ ÙĬØ©
th er
·Ø± ØŃ
ĠØ§ÙĦÙĨØ§ Ø´Ø
ĠØ§ÙĦØ£ Ø¬
ÙĢÙĢÙĢÙĢ Ø©
iz e
Ġ el
ĠØ³ Ø¹
ÙħØ§ ÙħØ©
¶ ØŃ
ĠØ§ÙĦØ±ÙĬØ§Ø¶ Ù
ĠÙħØ µØ§
ĠØŃ ÙĤØ§
Ù ĬÙĪØ±ÙĪ
ĠØ§ÙĦØ£ Ø²ÙħØ©
ĠÙĪØ ¬Ø
ĠØ§ Ø¹ÙĦØ§ÙĨØ§Øª
ĠÙĤØ§ Ø¨ÙĦ
ĠØ§ÙĦØ±ÙĬØ§Ø¶Ù Ĭ
ĠØ¨ ØŃÙĤ
g ram
ĠØ§ÙĦØµÙĬÙĨ Ù
ĠØ§ÙĦÙĨØ ´Ø§Ø·
ĠE nglish
ÙħØ« Ø§ÙĦ
ÙĬÙ ĪÙĦ
ÙĬØ ªØ§Øª
ĠØ§ÙĦØ§ Ø®
ĠÙħÙģÙĬØ¯ Ø©
ĠØ§ÙĦØŃ ÙĦÙĪÙĦ
ĠØ¨Ø¯ ÙĤØ©
A d
ĠØ§ÙĦØµÙĬÙĨÙ Ĭ
Ġ ÙħÙĥÙĬÙģØ§Øª
ĠÙĪØ§ÙĦØ °
ĠÙĪØ ŃØ§
ħ ÙĥØ§ØªØ¨
et ail
ĠØ§ÙĦØ²Ùħ Ø§ÙĦÙĥ
Ø±Ø§Ø¡Ø§ Ø
Ø·Ùģ ÙĦ
ĠØ§ÙĦÙģ ÙĪØ³
ÙĤ ÙĦØ§Øª
ĠØªØ´ ÙĬØ±
ĠØ§ÙĦÙĦ Ø¹Ø¨
9 00
Ø¨ÙĪ Ø©
Ø§ÙĦØ ªØŃ
ĠØ§ÙĦØ§ ÙĩØªÙħØ§Ùħ
ÙĪØ ¬Ø§
ĠØ§Øª ÙģØ§ÙĤÙĬØ©
ĠÙģ ÙĬØªØ§ÙħÙĬÙĨ
ol ut
ĠØ¹Ø§ Ø¯ÙĦ
ĠØªÙ ĪÙĤÙģ
·Ø¨ ÙĤ
Ùĥ ÙĬØ§
ĠØ¨Ø§ Ø¹ØªØ¨Ø§Ø±
? ?
anu fact
" ).
ĠØ§ÙĦÙģ Ø¶Ø§Ø¡
ĠÙħØŃ ÙĥÙħØ©
Ġ ÙĪÙĤØ
Ø¨ØªØ¯Ø¦ ÙĬÙĨ
ĠÙģ Ø±ÙĬ
ĠØ§ÙĦØ£Øµ ÙĦÙĬØ©
ĠØ§ÙĦØ¬ Ø¯Ø¯
ĠØ¢ Ø¨
ÙĨØª Ùĩ
ħ ÙģØªÙĪØŃØ©
Ø§Ø³ Ø£ÙĦ
¬Ø§ Ø¨Ø©
ĠØ¨ ÙħÙĤ
Ù ħÙģØªÙĪØŃØ©
ĠØ®Ø§Ø±Ø¬ ÙĬØ©
ĠØŃØ§ Ø¯Ø«
ĠØºÙĬØ± Ùĩ
il d
Ø¶ Ø±Ø©
ĠÙħØ¹ ÙĩØ¯
ĠØ§ÙĦØªØ± Ø¨Ø©
ĠØ¹Ø§ Ø
ac y
Ø¬Ø§ Ø¨
ĠØ§ÙĦØŃØ§ Ø³Ø¨
Ġ200 5
at es
ik i
ĠØ§ÙĦØ¥ ÙĤÙĦÙĬ
ĠØ§ÙĦØ£ ÙĨØ§
g e
ĠØ§ÙĦÙħØ ±Ø©
Ø¹Ø ·Ø§Ø¡
ĠØªÙĤ Ø·ÙĬØ¹
ĠÙħØ§Ø ª
ĠØ§ÙĦÙħØ¹ Ø¯Ø©
ĠØ§ÙĦÙĥØ ªÙĦØ©
ĠØªÙ ĪÙģÙĬ
ÙģØ ¦Ø©
e at
ĠØ§ÙĦÙħØ ¶Ø§
ĠS T
ĠØ£ØŃ Ø¯Ø§Ø«
ĠØ§ÙĦÙģ Ø¬ÙĬØ±Ø©
ÙĦÙĤØ§ Ø¡
ak e
ĠØ±Ø¦ÙĬØ³ ÙĬØ©
Ø§ÙĦØ ´Ø±ÙĥØ§Øª
r and
ĠØªØ¬ ÙħÙĬÙĦ
ĠÙĪÙĤ Ùģ
Ø§ÙĦØ£ Ø®Ø¨Ø§Ø±
ĠØªØ¬ Ø¯ÙĬØ¯
ĠÙĨØ¸ Ø±Ø§
ĠÙģ ÙģÙĬ
ĠØ¨ ÙģØ¶ÙĦ
ĠÙĪØ§ÙĦØªØ £
ħØ§ Ø±Ø³Ø©
ĠÙģ Ø³Ø§ØªÙĬÙĨ
ĠC re
ĠØ§ÙĦØ¯ Ø±Ø¬Ø©
Repl y
ĠÙĪØ§ÙĦÙħØ ±Ø§
ĠØ¨Ø±ÙĬØ·Ø§ ÙĨÙĬØ§
ĠØ¬ Ø³
ĠØ§ÙĦØ ¸Ø±ÙĪÙģ
£ Ø³
ĠØ§ÙĦØ¥ Ø³Øª
ÙĪÙĬ ÙĦØ§
ĠÙħØŃ Ø¯Ø¯Ø©
B y
ĠØ§ÙĦÙħØ±Ø ´
ĠØ§ÙĦÙħÙħÙĬØ ²Ø§Øª
Ø±Ø§Ø¡Ø§Ø ª
º ÙĬØ±Ø©
ĠØ£Ø ´Ø®Ø§Øµ
Ùģ ÙĩÙħ
°Ø§Ø ªÙĬ
ªØ§Ø¨ Ø¹ÙĬÙĨ
Ġ Ø¯Ø®ÙĦ
Ù ħØ³Ø§Ø±
ĠØ§ÙĦØ² ÙħÙĨ
Ø¹Øª ÙħØ§Ø¯
ver t
ħÙĬØ ²Ø§Øª
ĠØªØ² Ø§ÙĦ
ÙģØ±ÙĬ ÙĤÙĬ
ĠØ§ÙĦØ®Ø§ Ø±Ø¬ÙĬ
ĠØ§ÙĦØ¨ Ø¯Ø¡
Ø¹Ø§ Ø¯ÙĦ
ĠØ§ÙĦÙĤ ÙĨØ§Ø©
ĠÙħÙħÙ Ĩ
Ġ Ø©
ĠØŃ ÙħÙĦ
Ġï» ¿
ĠØ§ÙĦÙĤØ §Ø¦
Ø³Ø ªÙĪ
ĠÙĪÙĬ ÙĥÙĪÙĨ
ĠÙĪÙħÙ ĤØ§
ºØ§ ÙģÙĪØ±Ø©
a u
ĠØ§ÙĦØ¨Ø ·
ĠØª ÙħØ«ÙĦ
ĠÙĪØ ¬Ø§
Ø ªÙĩ
ĠØ¨ ÙĬØ¦Ø©
ĠÙĪØ µÙĪÙĦ
ĠØ²Ø§ ÙĬØ¯
Ø ±ÙĬØ§Ø¶Ø©
¤Ø §Ø¯
ĠØ§ÙĦØ£ ÙĦÙĪØ§ÙĨ
Ø¨ ÙĨØ§Ø¡
ĠØªØ ±Ùī
µÙ ī
ĠÙĦÙĦ Ø®
· ÙĪØ±Ø©
ĠÙĦØ¯ Ø¹Ùħ
Ġ ÙħÙģØªÙĪØŃØ©
C h
G P
ĠÙħØ¹ Ù
ĠØ¹ÙĬ Ø³Ùī
ĠÙĬØ ®Øµ
ÙĦÙĥÙ ħ
ĠÙĦÙĦÙ ħØ¹
ĠØªØ¹ Ø¨Ø¦Ø©
ĠØ§ÙĦØµ Ø¨Ø§ØŃ
ĠØ´ Ú©ÙĨ
ĬÙ ĪÙħ
ĠØ§ÙĦØ³ ÙĬØ·Ø±Ø©
ĠÙĤØ ±ÙĬØ©
ÙĦØ§Ù ĨÙĬØ©
ĠÙĦÙĦØ ´Ø±ÙĥØ§Øª
ħ Ø¯Ø±Ø¨
Ø¦ Ùĥ
Ī Ø³ØªØ
Ø¹Ø§ Ùģ
ĠÙħÙĨÙ Ī
ÙĪØ§ Ø±Ø§Øª
ĠØ¨ÙĨØ§ Ø·ÙĬÙĦ
Ø ´Ø§Ø±
ĠØ§ÙĦØ§ ÙģØªØ±Ø§
ĠÙĦØ ªØ¹
ÙĬØ ·ÙĬ
ĠØ§ÙĦØ¥ Ø´
ĠØ® Ø¨Ø±Ø§Ø¡
Ù ħÙĥØ§ØªØ¨
ĠØ§ÙĦØª ÙħØ±
ĠØ§ÙĦØ¥ÙĬ ÙħØ§ÙĨ
ĠÙĪØ£ ÙĨØ§
ĠÙĩ ÙĪØ§ØªÙģ
ĠØ¹ ÙħÙĬ
Ø±Ø µØ©
Ń Ø¯Ø©
§ ØªØ±Ùĥ
ĠØ§ÙĦØªØ ´Ø±ÙĬ
Ø±Ø ªØ§
9 8
ĠØ§ÙĦØªØ¬ ÙħÙĬÙĦ
ĠØ§ÙĦØ¨Ø± ÙĦÙħØ§ÙĨ
ĠÙĦØ¨ Ø¹Ø¶
Ø´ ÙĩØ±
ĠØ§ÙĦÙħØ´ØªØ± ÙĥØ©
Ø §ØªØ±Ùĥ
Ø³ØªØ®Ø¯Ø§ ÙħØ§Øª
ĠØ£ ÙĪØ§
7 6
ĠØ³ÙĬØ ªÙĬ
Ù ĪØ³ØªØ
ĠØŃØµ ÙĦØª
ÙĬØ ±ÙĪÙĨ
m ed
ÙĬØ ŃØ
ĠØ§ÙĦØ³ÙĬØ¯ Ø©
Ø³ÙĪ Ø¯Ø§ÙĨ
ĠØŃØ ±ÙĪÙģ
ĠØ§ÙĦØ¹Ø§Ùħ ÙĦÙĬÙĨ
ĠØ³ ÙĨØªØ±
ĠØ§ÙĦÙĪØ³Ø· Ùī
we et
ØŃØ§ ÙģØ©
ØŃØ ²Ø§Ø¨
ĠØ§ ÙĤØªØ±Ø§
Ø£Ù ħ
Ĭ ÙħØ«ÙĦ
ÙħØ« ÙĬÙĦ
ÙĤÙ ĬØ¯Ø©
ĠÙħØ§ Ø³
ĠÙĨØ§ ÙģØ°Ø©
ĠØ´Ø§ Ùĩ
ÙĦÙ ĩÙĬ
ĠØ¥ ÙĤØ§ÙħØ©
ĠÙħØ ªÙĨÙĤÙĦ
Ġ3 50
ĠÙĪØ® Ø¯ÙħØ§Øª
Ø¨Ø§Ø± ÙĬØ§Øª
ï ¸ı
ĠØ¨ÙĥØ« ÙĬØ±
S T
ĠØ£ Ø³ÙĪØ¯
ĠØª ÙħÙĪØ²
ĠM achinery
7 8
µØ§ Ù
Ġ Ù¤
ĠÙĨØ¸ Ø±Ø©
ĠÙĪÙħÙĨØ ªØ¬Ø§Øª
Ù ĬÙħØ«ÙĦ
ov er
Ġâ ľ
ÙĨØ ¦Ø©
ĠÙĦÙĦØ ªØ¹
Ùģ ÙĪØ§Ø¦Ø¯
ĠÙģÙ Ī
Ø ªØ³
±Ø ²
Ġ ÙħØ¯Ø±
ĠÙĪØ§ÙĦØ· ÙĦØ§Ø¨
ĠØ¨Ù ĬØ¯
ĠÙĦÙĥÙ ĨÙĩØ§
¬ÙĬ ÙĥØ§
ĠØªÙĤØ¯ ÙħÙĩØ§
ĠØ§ÙĦØŃØ¯ÙĬØ¯ ÙĬØ©
¬Ù ĪØ¹
Ĭ ÙħØªÙĦÙĥ
ĠØ§ÙĦØ¨Ø ®Ø§Ø±ÙĬ
ĠØ¹ÙĦØ§ ÙĤØ§Øª
ĠØ§ÙĦØ®Ø· ÙĪØ·
ĠØ¹ ÙĤØ¨
ÙĥÙĪ Ùĥ
ĠØº Ù
Ĩ Ø³Ø§Ø¡
Ø¬ØªÙħØ§ Ø¹ÙĬ
ĠØ§ÙĦØ± ÙħØ§Ø¯
ĠÙĤØ ±Ø¨
ĠØ³Ù ħØ¹
ĪÙĦØ§Ø °
Ù ħØ¯Ø±Ø¨
ĠØ§ÙĦØ±ØŃ ÙĬÙħ
Ø±ÙĪØ§ Ø¨Ø·
ĠØ§ÙĦØ³ÙĬ Ø³ÙĬ
ÙĬØª ÙĬÙĨ
Ø§ÙĦÙĥ Ø³Ø§Ø±Ø©
ĠØ§ ÙĤØªØµØ§Ø¯
ĠØ§ÙĦÙĪ ÙĤØ§
ĠØ¬Ù ĨØ³
ÙĦÙĬÙ Ī
ĠØŃØ¯ ÙĬØ«Ø§
Ĭ Ø¯Ø®ÙĦ
ĠØ² ÙħÙĨ
ĠÙĤ Ø¶Ø§ÙĬØ§
ĠÙĪØ§ÙĦÙħØ¹Ø§ Ø¯ÙĨ
Ù ĬÙħØªÙĦÙĥ
ĠØ¥ Ø¬Ø§
t e
Øµ Ø±Ø©
ĠØ§ÙĦÙħØªØ ¬Ø±
Ø¯Ø±ÙĪÙĦÙĬ ÙĥÙĬ
Ġw ill
ĨØ º
± ÙĤØ§Ùħ
Ù ĬØ¯Ø®ÙĦ
ªØ ª
ĠÙĪØ§ÙĦØ ªØµ
Ġ5 5
ÙĬØ§ Ø·Ø©
ªØ± Ùģ
A A
Ø±Ø§ Ø³Ø§Øª
Ø§ÙĦØª Ùĩ
ĠI t
ĠØ§ÙĦ Ø³Øª
ĠØ§ÙĦØ§Ø ´ØªØ±Ø§
ĠØ§ÙĦØ®Ø ±ÙĪØ¬
ĠØ§ÙĦØ¨ ÙĪØ±ØµØ©
Ĩ Ø¨Ø§Øª
ĠØ§ÙĦÙģ ÙĥØ±
ĠØ· ÙĦ
or s
®Ù Ĭ
ĠØ§ÙĦØ« Ø¯ÙĬ
ĠØ§ÙĦØ¨Ø ·ÙĨ
ĠØ®Ø· Ø£
Ø¦ ØŃØ©
ĠØ£Ùģ ÙĥØ§Ø±
ĠØ¬ÙħÙĬ Ø¹Ø§
ĠØ§ÙĦÙħØ ±ÙĬØ¶
ĠØ§ÙĦÙĤÙ ĪÙħÙĬ
ĠØ¨Ø ªÙĪÙĤÙĬØª
Ġ ÙĪÙĬØ¬Ø¨
Ġ ÙĬÙħÙĨ
ĠØ§ÙĦØ£ØŃ ÙĥØ§Ùħ
ÙĦÙĪ ÙħØ§
ÙĦÙĥØ §
A b
ĠØ£Ø± ÙĤØ§Ùħ
ĠØ¨ Ø¯Ø±
ĠØª ÙĤÙĦ
ĠÙĦÙĦØ¬ ÙħÙĬØ¹
ĠØ§ÙĦÙĩ Ø¬Ø±Ø©
ĠÙĬØªØ ·ÙĦØ¨
ĠØ§ØªØ ¬Ø§Ùĩ
Ø¯Ù ĪÙħ
ĠØ§ÙĦØ³ ÙĪÙĬ
ĠØ§ÙĦØ£ ØµÙĪÙĦ
Ø¬Ø¦ ÙĬÙĨ
ĠØªÙĤ ÙĦÙĬÙĦ
ĠØ§ÙĦØ®Ø ¶Ø±Ø§Ø¡
ĠØ£ ÙģÙĦØ§Ùħ
ĠØ³ ÙĩÙħ
ĠØ§ÙĦ Ø¹ÙĬØ¯
Ø±Ø§ ØŃ
Ù ĨÙĥ
ĠÙħØ³Ø¤ ÙĪÙĦÙĬØ©
ĠÙħØ¹ ÙĦÙħ
ÙĬÙ ĪÙĦÙĬÙĪ
Ġw e
ĠÙħØ·Ø§ Ø¹Ùħ
ªØ±ÙĬ ÙĦ
ĠÙĪØ§ÙĦØ¨ ØŃØ«
ĠØ§ Ø¯ÙĪØ§Øª
ÙĦÙħØ ª
ĪÙĦÙĪØ ¬ÙĬ
Ø¬Ùħ Ø§ÙĦ
ĠØ§ÙĦØ±Ø ´
ĠÙĦÙĦÙ ĨØ§
ĠÙĦÙĦ Ø¹ÙħÙĦØ§Ø¡
ĠØªØ ªØ±
ĠÙģ ÙĬØª
ĠØªØª ÙħØªØ¹
ink ed
Â ©
ÙĤØ§ Ø¨
i j
ĠÙĪØ£ ØŃ
ĠØ®Ù Ĭ
ĠØ§ÙĦØ§Ø®Øª ÙĬØ§Ø±
ĠØ³Ø§ ÙĨØª
1 50
ĠØµÙģ ØŃØ§Øª
Ø³ÙĬØ§ Ø±Ø©
ĠÙĪØ§ ÙĨØª
ĠØª ÙĦÙģ
Ùĥ Ùĥ
ÙĨØ¸Ù ħ
ĠÙĪØ§Ø¶ ØŃ
ĠØ§ÙĦØ´ ÙĬØ¡
Ø£ Ø¹ÙĦÙĨ
ĠÙħÙħØ ªØ§Ø²
Ø¨ ÙĪØª
ĠØ§ÙĦØµØ§Ø¨ ÙĪÙĨ
ĠØ§ÙĦØ³Ø¹Ù ĬØ¯
ĠØ§ÙĦÙĤ Ø±ÙĬ
ÙĦÙħÙ ĩ
ĠØ§ÙĦØ«ÙĦØ§Ø« Ø©
ĠØ³Ø§ Ø®Ù
ĠÙħÙħØ ªØ§Ø²Ø©
´ ÙĬØ±
ĠØ£ ÙĪØ±Ø§ÙĤ
ĠØ§ÙĦÙħØµ ÙĨÙĪØ¹Ø©
ĠØ§ÙĦØ£ÙĨ ÙĪØ§Ø¹
Ġpro du
Ùĥ Ø³ÙĬ
ĠÙĦØŃ ÙħØ§ÙĬØ©
Ø£ ØŃÙħØ¯
ĠØ§ÙĦØª ØŃØ¯
iew s
ĠØ§ÙĦØ¬ ÙħÙĩÙĪØ±
ĠØ¬Ø§ ÙĩØ²Ø©
ĠÙĥØ ´
ĠÙħØ¤ Ø®Ø±Ø§
ĠÙĪØ§Ø¶ ØŃØ©
Ġ ÙĪÙĤØ¹
Ø´Ø ªØ±Ø§
ĠÙĨØ³Ø§ Ø¦ÙĬØ©
ĠØ§ÙĥØªØ ´Ø§Ùģ
ĠØ¨ÙĤÙ ĪØ©
Ø³Ù ĨØ¯
M T
ĠÙĥÙĦØ§ ÙĬÙĨ
±ÙĪÙ ī
ĠÙħÙĪØ ¬ÙĪØ¯
ØŃØ °Ùģ
°Ø§Ø ±
Ġex per
ĠØ¥Ø³ Ø¨Ø§ÙĨÙĬØ§
ĠØ´Ø§ ÙħÙĦØ©
Ñ ĥ
ĠØ¹Ø§ Ø´
T ag
ÙħØ µØ§Ø¯Ø±
I D
ĠN ew
ĠØ§ÙĦØ£ ÙģÙĦØ§Ùħ
ØŃØ¶ Ø±Ø§Øª
ĠØªÙ ĨÙĤ
Ù ĬÙħØ§Øª
â Ĥ
§Ø¦ Ø
ĠÙĥÙ ĪÙĥ
ĠØ§ÙĪÙĨ ÙĦØ§ÙĬÙĨ
ĠH P
ĠØ§ÙĦÙħ ÙģØ¶ÙĦØ©
ĠØ¬Ù ĨØ¨
ĠØªØ£ ÙħÙĬÙĨ
ĠØ§ÙĦØ´ÙħØ³ ÙĬØ©
Ø±Ø¬ ÙĦ
y s
ĠÙĪØ³ÙĬ ÙĦØ©
Ġl ive
ĠÙĨÙĤ Ø¯
ĠØ§ÙĦÙģ Ø¹ÙĦ
ĠØ®Ø ªÙħ
ĠÙĪØ¢ ÙĦØ§Øª
Ø§ÙĦ Ø¨Ø§Øª
Ġ200 4
ĬÙģ ÙĪÙĨ
ĠÙĬØª ÙĥÙĪÙĨ
Ù ĨØ¨Ø§Øª
ÙħØ§Ù Ĭ
ĠØ´Ø± ÙĥÙĩ
Û ŀ
ĠØ§ÙĦØ¯ ÙĪØ§Ø±
y st
ÙĪØ§Ø± Ø¹
ÙĤ Ø¯Ø©
ĠØ§ÙĦÙĥ Ø±Ø§Ùħ
ÙĥØª ÙĪØ±Ø§
ĠØ¯ÙĪÙĦÙ ĬØ©
ĠØ§ÙĦØ§Ø¹Øª ÙħØ§Ø¯
ĠØ§ÙĦÙĥ ÙĪÙĨ
ĠØ¨ÙĬ ÙĦÙĬÙĩ
Ù ħØ³ØªØ®Ø¯
ĠØ£Ø³ ÙĩÙħ
ĠØ¹ Ø·Ø±
Ø¶Ø§Ø¡ Ø©
ar a
ÙĪØ§Ø ±ÙĬØ®
ĠØ¯ Ø¹Ø§Ø¡
ĠÙĦ Ø¹Ùħ
ĠÙħØ¯ Ø¨ÙĦØ¬
ÙģØ§ Ø¯
ĠØ¬Ø§ ÙħØ¹
ĠØ§ÙĦØµØ ®Ø
Ġp ost
Ø±Ø§ ÙĨÙĬ
ÙĬØ ´ÙĨ
ĠØ§ÙĦÙħÙĨØ¸ ÙģØ§Øª
ĠÙĪØ§ÙĦØ§ Ø
ĠÙĤ ÙĪØ§
Øº Ù
ªØ§ ÙĪÙī
ĠØ£ Ø¹ÙĦØ§
ºÙĬ ÙĬØ±Ø§Øª
ĠØ£ Ø¯Ùī
ÙĦÙĦ Ø
ĠØ®Øµ ÙĪØµØ§
ĠØ¬Ø§Ø¦ Ø²Ø©
ĠØ§Ø³Øª Ø¹ÙħØ§ÙĦ
ĠØ§ Ø¨Ø±Ø§ÙĩÙĬÙħ
ĠØ§ÙĦØ±Ø ¤ÙĬØ©
ĠÙħÙĨØ ªØ
ĠØ§ÙĦØªØ µÙĪÙĬØ±
ĠÙħØ¹ ÙĩÙħ
ĠÙĬØ· ÙĦÙĤ
ĢÙĢØ §
ĠØ³ ÙħÙĬØ±
ĠØ§ÙĦØ§ ÙħØ±ÙĬ
ĠâĿ Ģ
ĠØ¨Ø¹Ø¯ ÙĩØ§
Ġ ÙĪÙĩÙĦ
ĠÙĦ ØŃÙħ
ÙĩØ ªØ²
°Ø§ Ø¨
ØŃØª Ùĩ
ĠØ§ÙĦÙħØ³Øª ÙĩÙĦÙĥ
ĠØª Ø¹ÙĨÙĬ
ÙĦØ ¦
ĠØ®ÙĦÙģ ÙĬØ©
Ùĩ Ø±Ø§Ø¡
ĠØ§ÙĦÙħØ ªØ¬
ĠØ§ÙĦÙħ ÙĦ
ĠÙĪØ§ÙĦØ³ ÙĦØ§Ùħ
ĠØª Ø¹Ø±
ÙħØ ·Ø§Ø±
ØŁ .
Ø³ÙĬ Ø¹
ĠØ¹ ÙĥØ³
· ÙĦÙĤ
ĠØ· Ùĩ
Ø¢ Ù
ØªØ± ÙĥÙĬØ¨
²Ø§Ù ĨÙĬØ§
ĠØ§ÙĦØ¬Ø º
ÙĨÙĤ ÙĦ
ĠØ§ÙĦØ¨Ø ±ÙĪ
ÙħØ§Ø ±ÙĬ
Ġm in
ĠÙĤÙĦÙĬ ÙĦØ©
ĠÙģÙĤ Ø¯Ø§ÙĨ
ĠØ¹Ø§Ø¦ ÙĦØ©
ĠØ¯Ø§Ø® ÙĦÙĬØ©
ĠÙĪØ³ ÙĬØ·
ĠØ§ Ø¨ØªØ¯Ø§Ø¦ÙĬ
ĠAl l
ĠÙĦØ§ Ø¨Ø¯
Ġpl ant
ĠØ§ÙĦÙħØ µØ§Ø¨
ĠÙĥØ§ Ø±ÙĬ
ĠØªØ µÙĨØ¹
ĠØ§ÙĦØ¹Ø§ Ø¦ÙĦØ©
ĠØ³ÙĪ Ø¨Ø±
ĠØ§ÙĦØª ÙĤÙĨÙĬØ§Øª
lic k
ÙĪØµ Ùģ
ÙħØ±Ø§ Ù
ĠØ§ÙĦØŃ ÙĪØ«
ĠØ§ÙĦØ¹Ø ¶ÙĪÙĬØ©
ĠØ§ÙĦ Ø³Ø·
qu e
ĠØªÙģ Ø¹ÙĬÙĦ
ĠØ±Ø£ Ùī
ocum ent
ĠØ¹Ùħ Ø§ÙĦ
Ġ if
ĠØª ÙĬØ´
ÙĦÙĦ Ø¨ÙĬØ¹
ĠØ¨ÙħÙĪØ ¬Ø¨
' '
ĠØ®Ø· Ø·
Ī ÙħÙĬØ©
ª ÙĪØ§ØµÙĦ
ĠÙĤØ±ÙĬ Ø¨
ĠØ§ÙĦÙħÙĪØ ¸ÙģÙĬÙĨ
Ø§ÙĦ ØŃØ©
Ĭ Ø¹Ø§ÙĨÙĬ
] [
ĠØ¥ ØµØ§Ø¨Ø©
¶ ÙħØ§Ùħ
ĠØ§ÙĦÙħØ ªÙĪÙĤØ¹
ĠÙĥ Ø£
ĠØªØª ÙĥÙĪÙĨ
ĠØ¢ ÙĦÙĬØ©
ĠØ¯ Ø¹Ø§
ĠØ³Ø ±Ø§
m a
Ù ĬØ¹Ø§ÙĨÙĬ
Ø±Ø§ ÙģÙĬØ©
Ġ ÙĬÙĪØ±ÙĪ
ĠØªØªØ¹ ÙĦÙĤ
p x
ĠØ§ÙĦØ ¸ÙĩØ±
it al
Ø³ Ø¨ØªÙħØ¨Ø±
Ġ ÙĪØ³ØªØ
ĠØ¥ÙĨ ÙħØ§
ĠÙĤ ÙĬØ§Ùħ
ĠØ¨ Ø¬Ø§ÙĨØ¨
ĠØ¨Ø§ÙĦØ ±
²Ø§ Ø¯
ĠØ§ÙĦØ³ ÙĩÙħ
ĠØ§ÙĦØ£Ø· Ø¹ÙħØ©
ĠQ u
& &
ĠÙĬØŃ ÙĬÙī
ÙħØª ÙĨØ§
ĠØ§ ÙĤØªØ¨Ø§Ø³
ĠÙĪØ§ÙĦÙ ħØ³
ĠÙĪØ§ÙĦ ØŃØ
ĠØ§ÙĦØ¨ ÙĬØ¶
ĠØ³ ÙĬÙĨØ§
ÙħÙĬÙ ĨÙĬ
º ÙĪØ·
Ø¹ÙĪ ÙĨØ§
ĠÙħÙĬ ÙĦØ§Ø¯
º ÙĬØ±Ø§Øª
ĠÙħÙ ĩØ
7 9
ĠÙĪØ§ÙĦØ ªÙĨÙħÙĬØ©
Ġp r
ĠØ® Ø¨Ø±
ĠØŃØ °Ùģ
inter est
Ġw as
ĠÙĦØ¢ ÙĦØ©
ĠÙĦÙĦ Ø®Ø
ĠØ§ÙĦÙĪØ µ
ent er
ĠØ§ Ø³ØªØ®Ø¯Ùħ
ĠØ§ÙĦÙħØ±Ø¬ ÙĦ
ĠÙħÙĬØ ²Ø©
ĠÙĪØ§ Ø´ÙĨØ·ÙĨ
Ī ÙĬØ¬
Ġ ÙħØ³Ø§Ø±
ĠØ§ÙĦØ´Ø¹ ÙĪØ±
Ġ ÙħÙĦØª
ĠØ¥ Ø¯Ø®Ø§ÙĦ
ĠÙħØŃ ÙħÙĪÙĦ
ÙĦØª Ùĥ
·Ù Ī
ĠØªØ¹ÙĦÙĬ ÙĤØ§
ÙĬØ± ÙĦÙĨØ¯Ø§
ĠØ´ ÙĤØ©
ĠØ§ÙĦØ§ Ùģ
ĠØª ÙĤÙĨÙĬØ§Øª
ĠØ§ÙĦØª ØŃÙĤÙĤ
ĠØ®Ø ´Ø¨
ĠÙĪØ£ ÙĬØ¶Ø§
Ø¨ ÙĬØ§ÙĨ
ÙĬØ ŃØ§
ĠØ§ÙĦØ´Ø ªØ§Ø¡
ĠØ±Ø ®ØµØ©
6 1
ĨÙĪ Ø¹Ø§Øª
Ĭ ÙĥØ´Ùģ
ĠÙħÙ ĬØ§
ÛĮ Ø©
âĢ¬ âĢİ
ĠÙħÙĨØ µØ§Øª
Ù ĬÙĥØ´Ùģ
ĠØ§ÙĦÙħØªØµ ÙģØŃ
ĠÙħÙĨØ ªØµÙģ
ÙħÙĪØ§ ØµÙģØ§Øª
ĢÙĢÙĢ ÙĢ
ĠØ§ÙĦÙĨÙĩØ§ Ø¦ÙĬØ©
ÙĦÙĬØ§ Ùģ
j pg
s et
ĠØ§Ø³ØªØ ¦
Ġ ÙĬØ¯Ø®ÙĦ
ĠØ§Ù ī
ªØ§Ù ĨØ©
ĠÙĥÙĬ ÙħÙĬØ§
ĠØ«Ø§ Ø¨Øª
ĠÙĤÙĦÙĬ ÙĦØ§
ĠØ´ Ø¯ÙĬØ¯
ħ ÙģØ§ØªÙĬØŃ
² Ø²
Ø±Ø§ Ø¨Ø§Øª
ĠØ§ÙĦØŃ Ø³Ø§Ø¨Ø§Øª
ÙĪØ± ÙĩØ§
ĠØ¯ÙĬ ÙĥÙĪØ±
ÙĥØ§Øª Ùĩ
ÙĬÙĪ ÙĬÙĨ
ĠØ¨Ø§ ÙĤÙĬ
ĠØ§ÙĦØ¹Ø§ Ø¯ÙĬØ©
ĠØ§ÙĦÙħØ ´Ø±
a is
ĠØ§ÙĦØ³ ÙĪØ±
ĠØ§ Ø¶Ø·
ĠØ¢ Ø°Ø§Ø±
Ø¦ Ø·
ĠÙĥØ§ ØªØ¨
6 2
ĠØªÙ ĪØ¨
ĠØ§ÙĦØ¯Ø§Ø¦ Ø±Ø©
ĠØ§ÙĦÙĦØ ºØ§Øª
ĠØ« ÙĤØ§ÙģØ©
ÙĨØ§ Ø¨
ĠÙĦØ µÙĨØ¹
ĪØ¬ Ùĩ
ĠØ§ÙĦØ£Øµ ÙĦÙĬ
ĠØ·Ø§ Ø±ÙĤ
t on
Ġd is
Ù ĪÙĬØ¬
Ø¦ Ø±ÙĬ
Ġ ÙĨØŃ
Ġ ÙħØ³ØªØ®Ø¯
ĠØ§ÙĦØ ¶Ø§
ĠØ§ÙĦÙĬÙĪ ÙħÙĬ
Ġ ÙĬÙħØ«ÙĦ
ÙħØ±Ø§Ù Ĩ
ĠØ®Ø ´
ĠÙħØ¶Ø ®Ø©
Ø±Ø§Ø ´
ĠØ§ÙĦØŃ ÙħØ±Ø§Ø¡
ĪÙģ ÙĬØ©
Ø¨ÙĦ Ø³
Ø£ Ø¹ÙĦÙĨØª
Ġ3 3
ĠØ± ÙĪØŃØ§
ĠØ¬ÙħØ§ Ø¹Ø©
ĠÙĪØ§ÙĦÙħÙ ĪØ±Ø¯ÙĬÙĨ
ĠØ °Ùĩ
ĠÙģØ ±Ø¯
ĠØ§ÙĦØº Ø±Ø§ÙĨÙĬØª
ĠØ£Ø³ ÙģÙĦ
ĠØ§ Ø«ÙĨÙĬÙĨ
ÙĦØ§ Ø³
ĠÂ Ń
ĠØ§ÙĦØªØ ®Ø·ÙĬØ·
ĠØ§ÙħØª ØŃØ§ÙĨØ§Øª
ĠÙĨØ ®
Ø³ ÙĦØ³ÙĦØ©
ĠØ±Ø³ ÙħÙĬ
Ġ3 8
ĠÙħØ¨ ÙĦØº
ÙĬØ ªÙĪ
ĠÙħÙĨÙ Ĭ
Ø§ÙĦÙ ħØ¹Ø¯Ø§Øª
ÙĦØ ªØ±
ĠÙĦÙĦØŃ Ø¬Ø±
ØŃØ °
Ġ ÙĨØ³Ø®
ħ ÙĥØª
ĠØ§ Ø±Ø¶
ĠÙħØ· Ø¨Ø®
ĠÙĤØµ ÙĬØ±
ĠÙĬÙĨØ§ Ø³Ø¨
ĠØº ÙĬÙĨÙĬØ§
U n
ĠÙĦÙĦØ ¢
ĠÙĦÙĦÙħÙ ĨØ§
ħØ¯ ÙĬØ±
ĠÙħØ¨Ø§Ø± Ùĥ
Ø¹Ø ªÙħØ¯
ĠØªØµÙħÙĬ ÙħÙĩØ§
Ù ħÙģØ§ØªÙĬØŃ
ħØ¨ ÙĬØ§
ĠA m
ĠÙĪØ§ Ø¯ÙĬ
Ġus e
Ø¹ Ø¯Ø§Øª
ĠØªØ ±Ø¨ÙĬØ©
ĠØ§ÙĦÙĥ Ø«
§ Ø³ØªØ®Ø¯Ø§Ùħ
ĠAr ab
Ġ ÙĬÙĥØ´Ùģ
ªÙħ Ø§ÙĦ
ØŃØª ÙĩØ§
ĠØ§ÙĦØ¬Ù ĨØ©
ĠØ§ÙĦÙĤ ÙĬÙĪÙĬÙĨ
ĠÙĦØ¨ ÙĨØ§Ø¡
Ø¹ Ø§ÙĦÙĬØ©
ĠØ§ÙĦÙħ Ø¨Ø§Ø±Ùĥ
ĠÙĥ Ø§ÙĦÙģÙĨ
ĠØ§ÙĦØ¹ ÙħÙĪ
ĠØ§ÙĦØªØ¹ ÙĦÙħ
ÙĬØ ªØ§ÙĨ
ĠØ µØ§ÙĨØ¹
ĠØª ÙĦØ§
ĠØªÙĨØ§ Ø³Ø¨
anufact ur
ĠØ§ÙĦØ£Ø «Ø±
ĠØ¹Ù ĪØ¯Ø©
Ġïº į
our ce
re en
c ount
ĠØ®Ø§ ÙħØ§Øª
ĠO ct
ĠØµÙ ĬØ¯
ÙĩÙ ĪÙĦ
ĠØªÙĪÙĤ Ø¹Ø§Øª
ĠØ§ÙĦØªØ¯Ø±ÙĬ Ø³
ĠØ§Øº ÙĨÙĬØ©
ĠØ¨Ø·Ø§ ÙĨØ©
ĠØ§ÙĦÙħÙĬ ÙĥØ§ÙĨÙĬÙĥÙĬØ©
ĠØ§ÙĦÙģ ØŃØµ
ĠØ§Øª Ø¨Ø§Ø¹
ĠØ§ÙĦØ£ ÙħÙĬÙĨ
t op
ĠØ¨Ø¹Ø¯ ÙħØ§
ÙħÙ ĪÙĬ
ĠÙĪÙĦÙĥÙĨ ÙĩØ§
ĠØ§ÙĦÙģ ÙĪØ§Ø¦Ø¯
Ġ15 00
ur l
ĠÙĪØ§ÙĦÙħÙ ĪØ
ĠØ§ÙĦØ¯Ø ¬Ø§Ø¬
ĠØªØ£ Ø³Ø³Øª
Ø±Ø ªÙĬ
ÙĤÙ ĪØ§ÙĦ
ĠØ§ÙĦÙħØ ªØ§Ø¬Ø±
Ĩ Ø³Øª
ĠØ§ÙĦØ¹ÙĤØ§ Ø±ÙĬ
ĬÙ ĨØ§
ĠØŃ Ø¬Ø²
ĠØ§ÙĦÙħ Ø³Ø§Ø¨
ĠØ§ÙĦÙģØ ª
ĠÙĥ ÙĨØ§
ĠØ§ÙĦØ«Ø§ ÙħÙĨ
´Ø§ Ø±ÙĬ
ĠM ay
ØŃØ§ ÙĬØ§
ÙĥÙ ĪÙĦ
ĠØ³Ù ĬÙģ
Ġ ÙĨØ¹ÙħÙĦ
ĠÙĥÙ ĨØ¨
ar i
Ø³ØªØ®Ø¯Ø§ ÙħÙĩØ§
j ect
ĠØ§ÙĦØ¨Ø ±ÙĬ
Ġ9 9
Ø §Ø¦
ĠØ¨Ø ¥ÙħÙĥØ§ÙĨ
ĠØŃ Ø±Ø§Ø
Ī Ø¹Ø¯Ø¯
Ù ĪØ¹Ø¯Ø¯
Ø£Øº Ø³Ø·Ø³
Øµ Ø¨
ÙĥØ± Ùĩ
ĠØ§ÙĦØ µÙĨØ¹
ĠÙĪÙħØ ŃØ§
Ùĩ Ø±Ø§Øª
ĠÙĬØªÙħ ÙĥÙĨ
Ø§ÙĦØ£ ÙĥØ«Ø±
Ø´Ø± ØŃ
ĠØ¬ ÙĬØ¬Ø§
Ġwor ld
Ùĥ Ø¨Ø©
Ø³Ø¨ ÙĤ
ĠØ¨ÙĬÙĨ ÙĩÙħØ§
re m
ĠØ§Ø³Øª ÙĤ
ÙĨÙ ĬØ¯
ĠØ§ÙĦØ³Ø§ Ø¯Ø³Ø©
Ø§Ø¨ ØŃØ«
ĠØ§ÙĦØ³Ø¹Ø± Ø§ÙĦØŃØµÙĪÙĦ
ÙĪØ§Ø ±Ø¨
ang e
ºØ ±ÙĬ
Ø§ÙĦØ³ Ø¹ÙĪØ¯ÙĬØ©
ĠÙĪØ§ÙĦØ· ØŃÙĨ
ĠØ§Ø±Øª Ø¯Ø§Ø¡
ĠØ§ÙĦÙħØ³ØªØ« ÙħØ±ÙĬÙĨ
ĠÙĪØ§ Ø³
ĠØº Ø§ÙĦØ¨
ic y
ÙĦØ§ Ø·
ĠÙħØ ®Ø§Ø·Ø±
ĠØ§ÙĦØ£ Ùĥ
ĠØ¨Ø·Ø§ ÙĤØ§Øª
ĠÙħØ³ ÙĦØ³ÙĦØ§Øª
ĠØ§ÙĦÙģ ÙĨØ§ÙĨØ©
ĠØ²Ø§ Ø¯
ĠØ§ÙĦÙħØ µØ§
Ø §Ø³ØªØ®Ø¯Ø§Ùħ
ĠÙĥÙ ħØ§ÙĦ
ĠØ¯ ÙĤØ©
ĠØ³Øª Ø©
ĠØ§ÙĦØµ Ø¹Ø¨
Ø¨Ø§ ØŃÙĬØ©
Ø¬Ùħ Ø§ÙĦÙĬØ©
ĠØ§ÙĦØ£ÙħÙĬØ ±ÙĥÙĬØ©
ĠÙĬØ ªØŃØ¯Ø«
ĠÙĬØªØ ¶ÙħÙĨ
ĠÙħÙĥ ÙĬØ§Ø¬
Ø® ÙĪØ±
Ø¹ÙĬ Ø¯Ø§
ÙħØª Ùĥ
Ù ĨØ³Øª
ĠØª ÙĥØ´Ùģ
²Ø§ ÙĬØ¯
ĠØ¥ Ø³Øª
d a
ÙĨØ ¦
ĠØµÙĨØ§ Ø¹ÙĬ
ÙĪØ±ÙĨ ÙĬØ§
ÙħÙĨØ ªØ¬Ø§Øª
ĠØ§ÙĦÙĨ ØŃÙĪ
f er
ĠØ« ÙĤÙĬÙĦÙĩ
§ ÙĨØª
Ø¯Ø ªÙĬ
ĠØ§ÙĦØªØ±Ø§ Ø«
ĠØ§ÙĦØ§ ØªØ¬Ø§Ùĩ
ĠØ§ÙĦØªØŃ ÙĤÙĬÙĤ
el s
g er
ĠØ§ÙĦØ® Ø¨Ø±Ø§Ø¡
ĠÙģØ¶ ÙĦ
Ø±Ø§Ø¦ Ø·
Ġï ´
ĠØ§ÙĦØ¥Ø ±ÙĩØ§Ø¨
Ø±Ø ¶Øª
ĠØ¨Ø§ÙĦ Ø±Ø
20 15
Ī ÙħØ±
ĠØ§ÙĦØ¯ Ø¨
ĠØ³ ÙĥØ±
r it
ÙĤØª Ùĥ
ĠÙħØ¹ Ø¯ÙĨ
Ġ ÙĬÙħØªÙĦÙĥ
ĠÙĦÙĦÙħØ ´Ø§Ø±ÙĥØ©
Ġ ÙĪØ¹Ø¯Ø¯
enc y
ÙĪØ§ Øµ
Ø «Ø±
Ø¨ Ø¯Ø©
± Ø³Ø§Øª
ĠØ ´Ø§Ø±
ic t
Ø¯ÙĬ Ø³
ÙħØ ´Ø§Ø±ÙĥØ©
Ùģ Ø±Ø§Øª
Ùģ Ø³Ø§Ø±Ø§Øª
Ø§ÙĦÙģ ØŃÙħ
ĠØ¨ÙĬØª ÙĥÙĪÙĬÙĨ
7 4
ĠÙĩ Ø¯
«Ø§ Ø¨Ø©
ĠÙĪØ£ Ø®
ĠØ¨ Ø¹Ø
ĠÙģ ÙĬØ±
ĠØ§ÙĦØ®ÙĦØ§ ÙĬØ§
á ĥ
ĠØ§ÙĦØ¥ÙĬØ±Ø§ ÙĨÙĬ
ĠØ§ÙĦÙħØ ¶
Ġst one
ĠØ§ ÙĤØ
Ø¯ Ø¹Ø§Ø¡
Ġ Ú
ĠØ§ÙĦØ£Ùģ ÙĥØ§Ø±
ĠØ¯Ø± Ø³
ÙĬØ ²Ø§Øª
ÙĤÙ ĬØ¯
ÙĬØ· Ø§ÙĦÙĬ
ĠØ§ÙĨ ÙĤØ±
Ø³ØªØ§ ÙĨÙĬ
Ġh ave
²ÙĬ ÙĪØª
ĠØ± Ø¨Ø¹
ĠØ§ÙĦØ£Ø· Ø¨Ø§Ø¡
ĠÙĪØ§ÙĦÙħØ ª
Ø§Ø®Ø ªØ±
( )
Ī ÙĨØª
ĠÙĪØ ·Ø
ĠÙĪØ§ÙĦÙ ĨØ§
ĠØ¨ÙħØ ¬Ø±Ø¯
´Ø± ØŃ
ĠÙħØŃØ ±ÙĥØ§Øª
ÙħØ ®Ø·Ø·
Ø¹Ø¯Øª Ùĥ
ĠØ® ÙĦØ¹
ĠØ§ÙĦÙħØ®Ø ·
ĠØ¨Ø§ÙĦÙħÙĪØ±Ø¯ WhatsApp
ĠØ§ÙĦØ´Ø§ ÙħÙĦ
ĠÙģ Øµ
ĠØ¯ ÙĬØ±
ĠÙħØ±Ø ´
Ø¯Ø ´
Ø±Ø· ÙĪÙħ
ĠØ§ÙĦÙĤ Ø¨ÙĪÙĦ
Ùĥ ÙĪÙħ
ĠÙĨÙ ĪÙģØ±
ĠØ§ÙĦÙĤÙ ĪÙĬØ©
ĠØ§ÙĦØ¬ ÙĪÙĬ
ĠÙħÙĬ ÙĦØ§
T H
ĠÙĬØ ¤Ø«Ø±
ĠØ§ÙĦØ¨ ÙĬØ§ÙĨ
Ġ4 2
ĠØ§ÙĦØ¹Ø§ Ø¦
ĠØ¨ÙĦØ ºØª
ĠØ§ÙĦÙĦØ§Ø¹Ø¨ ÙĬÙĨ
ĠØ§ÙĦÙĤ Ø¶Ø§ÙĬØ§
ÙĦÙĪÙ ħØ©
ĠØ§ÙĦØªØ ´Ø
Ø §ÙĨØª
ĠÙħØ ªØŃ
ĠÙĪØ± ØŃÙħØ©
Ġk ora
ĠÙĦÙħÙ ĨØ§
Ù ĪÙħØ±
ĠØ®ÙĦ Ø§ÙĦÙĩ
ĠØºØ ±ÙĬØ¨
ĠH ome
ĠØ§ÙĦÙħÙĤ Ø¯Ø³
ĠØªØ´ ÙĥÙĦ
Ġ ÙĨØ¨Ø§Øª
Ġ ÙħØ¯ÙĪÙĨØ©
µÙĨ Ø¯ÙĪÙĤ
ĠØ§ÙĦØ¨ ÙĨØªÙĪÙĨÙĬØª
Ø´ ÙĬØ©
ĠAr abic
ĠØŃ ÙģØ§Ø¶Ø§Øª
ĠØŃ ÙĦÙĪ
ĠØª ÙĩØ¯Ùģ
ic ro
ĠØ§ÙĦØ§ÙĨØª ÙĩØ§Ø¡
ĠÙħØ¹ Ùĥ
ĠØ£ÙĪ ÙĦÙī
ĠØ§ÙĦÙĤØ ±
ĠØ¨ÙĨØ ¸Ø§Ùħ
Ø§ÙĦÙĬÙģ ÙĪØ±ÙĨÙĬØ§
ĠØ§ÙĦØ³Ø ¬
ĠÙģ ÙĪØ²
ĠÙģ Ùĩ
ºØ± ÙģØ©
Ġ ÙħØ¯Ø±Ø¨
ĠØ§ÙĦØ¥ ÙĨØ
ĠÙħÙ ĬÙĦ
Ī ÙĬÙĨØ
ĠØ§ÙĦÙħØ¬ ÙħÙĪØ¹Ø§Øª
ĠÙħÙĨØ² ÙĦÙĥ
ĠØ¹Ø§ÙĦÙħÙ Ĭ
ĠÙĦÙĦØ§ÙĨ Ø¯Ø±ÙĪÙĬØ¯
Ø ±Ø³Ø§Øª
Ġ ÙĬØ¹Ø§ÙĨÙĬ
Ø§ÙĦ Ø¹ÙĦØ§
ïº ĺ
ĠØ§ÙĦØ¥ Ø´Ø§Ø±Ø©
ª Ø¨Ø©
ĠØ¨ Ø±Ø´
ĠØ§ÙĦÙĨ ÙĬØ§
± ØŃÙĦØ©
ĠØª Ø¹ÙĪØ¯
Ø¨ ÙĤØ©
ĠØ· Ø¹Ø§Ùħ
ĠØ§ÙĦØ¬Ø§ ÙħØ¹ÙĬØ©
Ġ ÙĪÙĬØ±
ĠÙĪØ ¬Ù
ĠØ§ÙĦØ±Ø ·Ø¨Ø©
Ùĥ ÙĩØ©
ĠØ®Ø± Ø³Ø§ÙĨØ©
ĠÙħÙĪØ ¬ÙĪØ¯Ø©
ĠÙĪØ ´Ù
ĠØ¨Ø§ÙĦØ¨Ø ®Ø§Ø±
ĠØ· ÙģÙĦ
Ù ĪÙĬÙĨØ
p ar
ĠØ§ÙĦÙħØ µØ§ÙĨØ¹
ĠØ§ÙĦØ¥ Ø®Ø¨Ø§Ø±ÙĬØ©
ÙĨØ ¬ÙĪ
Ø´ ÙĬØ±Ø©
Ø§ÙĦ Ø¹Ø
ĠÙĪØ§ ÙĤØ¹
ĠJ un
ĠØ¬ ÙĬÙĨØ²
Ġexper i
ĠÙħÙĤØ ªÙĦ
9 4
Ġ Ø³Ø·
ĠØ§ÙĦØ´Ùĩ ÙĬØ±Ø©
ĠÙĩÙ ĪÙĦÙĨØ¯Ø§
Ø¨ ØŃØ§Ø«
ĠØªØ§ÙĬ ÙĦØ§ÙĨØ¯
ĠØ´ Ø¨ÙĥØ§Øª
ĠØ§ÙĦÙģØ§Ø¦ Ø¯Ø©
ÙħØ³ ØŃÙĪÙĤ
ÙĥØ ªÙĬ
Ø³Ø§ ÙħØ©
Ø °ÙĨ
ÙĥØ« Ùģ
ĠÙĨØ§ Ø¯ÙĪ
ĠØ§ÙĦÙĤØ§ Ø¯Ùħ
ĠØ§Øª ØŃØ§Ø¯
ĠÙĪØµ ÙģØ§Øª
ĠÙĪØªØ ®
ĠØ¯ ÙĪØ±Ø§Øª
ĠÙĦÙĦÙħØ Ń
ĠØ§ÙĦÙħÙĨØª Ø¯ÙĬØ§Øª
Ø³ÙĪØ§ ÙĤ
ÙĪØ¬ Ø¨
ĠØ§ÙĦØ¥ Ø«ÙĨÙĬÙĨ
Ùĥ ÙĦÙģØ©
ĠÙĤ ÙĦØª
ĠØ¬ ÙĨÙĬ
ĠØ§ÙĦØª Ø¨
Ġ ÙħÙĥØ§ØªØ¨
ĠØ§ÙĦÙ ĪÙģ
ĠØ¨Ø§ÙĦÙ ĪØ
ĠØ¨ÙħØ «Ø§Ø¨Ø©
µØ ±Ùī
Ø§ÙĦÙģØ ±ÙĤ
Ġ ÙĪÙħØ±
ÙĥØ ±Ùħ
ĠØ§ÙĦØµÙĪØª ÙĬØ©
§ ÙĤØªØ¨Ø§Ø³
¬Ø§ ÙĩØ§Øª
ĠØ§ÙĦØ§Ø³ØªØ ±Ø§ØªÙĬØ¬ÙĬØ©
duct s
ÙĪØª Ùĩ
ĠØ§ÙĦØ¯ÙĪØ§ Ø¦Ø±
ĠØ§ÙĦØŃ ÙĦÙĬØ¨
ĠØ³ÙĬ ÙħØ§
ĠÙĪØ µÙ
ĠØ¬Ù ĬØ¨
ĠÙĬØ ¶Ùħ
b e
Ī Ø¹ÙĨØ¯ÙħØ§
ĠØ¬ Ø±ÙĬØ¯Ø©
Ø¬Ù ĬØ¹
Ù ĪØ¹ÙĨØ¯ÙħØ§
â ĸ
ĠØ§Ø¨ ÙĪØ§Ø¨
ĠØ§ÙĦØ¬Ø ±ÙĬ
ĠØ§ÙĦØ§ Ø¦Øª
ĠÙħØ¹ ÙħÙĦ
ĠØ· Ø±Ø§Ø²
Ø§ÙĦØ ±ØŃ
ÙĨØ ´Ø·Ø©
Ù ħÙĥØª
Ø¬ Ùĩ
ĠØ¨Ø ®ØµÙĪØµ
£ ÙĥÙĬØ¯
ĠØ§ÙĦÙĨÙģ Ø³ÙĬ
ĠØ§ÙĦØ¹ Ø¯ÙĦ
ĠØ§ÙĦØ¹ ÙĬÙĪÙĨ
Ø³Ù ĬÙģ
ĠØ¨Ø¨ Ø¹Ø¶
ĠÙħØ§Ø ±ÙĥØ©
oll ow
Ø·Ø ±ÙĬØ©
Ø®Øª Ø¨Ø§Ø±
Ø« Ø±Ø©
Ø¯ÙĪ Ø³
ĠØ§ÙĦØ£ Ø¹Ø±Ø§Ø¶
¤ Ùĩ
ĠÙĪØ±Ø ¦ÙĬØ³
ĠØª ÙĪØ§ÙģÙĤ
ĠL ive
ĠØ§ÙĦÙħØª ÙĪØ§Ø¬
ĠØªØ³ ÙĦÙĬÙĥ
ĠÙĬÙħÙĥÙĨ ÙĥÙħ
Ø³ØªÙĬ ÙĥÙĬØ©
all a
ÙĪØ ´ÙĬ
·Ù ĬÙĦ
ÙĬÙĨØ§Ù Ĭ
´Ø± ÙĪØ·
ĠØ§ÙĦÙĤ ØµØ©
± ÙĤØ©
ĠØ§ÙĦØ£Ø· Ø±Ø§Ùģ
Ĭ ÙħÙĨØ¹
ÙĨÙ ħ
ĠÙĥ ÙĦÙħØ§
Ø¹Ùħ ÙĦÙĩ
ÙĤÙ ĪØ¨
Ø §ÙĤØªØ¨Ø§Ø³
ĠM ining
ĠØŃ ØµØ§
ĠØ®Ø ±ÙĬØ·Ø©
ĠA c
ĠØ§ÙĦØ¯ ÙĬØ²ÙĦ
Ø§ÙĦØŃ Ø¯ÙĬØ¯
ĠØ¬Ø§Ø¡ Ø
if ic
etail s
ĠØªÙĨØ ²Ø§ÙĨÙĬØ§
ÙĦÙĪØ§ ØŃ
ĠØ§ÙĦÙĪØ² ÙĬØ±
ĠÙĥ Ø±ØªÙĪÙĨ
ĠØ¨ ÙħÙ
ĠØªØ´ Ø¹Ø±
ĠØªØ§ ÙħÙĬÙĦ
ªÙ ĨØ¯
ĠØ§ÙĦÙħØ¤ÙħÙĨ ÙĬÙĨ
ÙĥØ§ Ø¯
ĠÙĦÙ ħØ³
ĠØ§ÙĦÙģ ÙĪØ²
or k
20 13
ĠØ£ÙĨ Ø¨ÙĪØ¨
ĠØ ¸Ø±ÙĪÙģ
ĠÙħØ± ØŃØ¨Ø§
ĠÙģ Ø±ÙĬØ¯
Ø§ÙĦØ «Ø§
ĠÙģÙ ĪÙĦØª
ØªØ ·Ø¨ÙĬÙĤ
Ù ĬÙħÙĨØ¹
ĠØ¯ÙĬ ÙĥÙĪØ±Ø§Øª
ĠÙħØ¹Ø ±ÙĪÙģ
ĠØ¶ Ø¹Ù
Ø´Ø ®Ø§Øµ
Ø¹ÙĪ ÙĬØ¶
ĠÙĬØ ªØŃ
Ùĥ ÙĦÙħØ©
ĠØ¹Ùħ ÙĦÙĩ
ĠÙĦØªØµ ÙĨÙĬØ¹
ĠØ§Ø± ÙĤØ§Ùħ
Ġlik es
Ġ ÙĨØ¯
ĠP ress
ĠØªØ±Ø§ Ø¬Ø¹
ĠØªÙĪØ ±ÙĬØ¯
ÙĪØ ªØ´
Ùģ ÙĤØ¯
ĠØ§ÙĦØ³Ø±ÙĬ Ø¹Ø©
ĠÙģØ ±ÙĪØ¹
ĠÙĬÙĨØ ªØ¬
ĠØ§ÙĦÙĥ Ø±ÙĬ
ĠÙħÙĦ Ø¹ÙĤØ©
Ø§ÙĦØ³ Ø¹Ø±
ĠØ§ÙĦØ¹Ø ¸Ø§Ùħ
ĠØ§Ø³ØªØ« ÙħØ§Ø±
ĠØ§ÙĦØ£ÙĤ ØµÙī
ĠÙĪØ¬ Ø¯Øª
ĠØ§ÙĦØ¥Øµ Ø¯Ø§Ø±
Ø´Ø§ Ø±Ø§Øª
ÙĦØ ²Ø§
or ld
Ø³Øª ÙħØ±
ĠØ§Ø¹Øª Ø¨Ø§Ø±
ĠØ§ÙĦØ¹ ÙĤ
ĠØŃ ÙĤÙĬÙĤÙĬØ©
ĠØŃ Ø³
a e
a ut
ĠØ¨ÙĪÙĦÙ Ī
ĠÙĬØª ÙĬØŃ
h one
ĠØ§ÙĦÙĨØ§ Ø¯ÙĬ
ÙħÙĩØ§ Ø
Ĩ ÙħØ·
ĠØ§ÙĦØ° ÙĩØ§Ø¨
Ø±Ø ¬Ø§
ĠÙĥÙĪÙĦÙ ĪÙħ
ĠØ³Ø§Ø ª
ĠØ§ÙĦÙģÙĪØ³ ÙģØ§Øª
ĠÙħØªØ £
ĠØ±Ø ¦ÙĬØ³ÙĬ
ĠØ·Ø¨ÙĬ Ø¹Ø©
Ġ !!
v e
Ø±Ø§ Øµ
Ĭ ÙĤÙĦ
ÙĪØŃ Ø¯Ø©
ÙģÙĪ Ø¹Ø©
ĠÙħÙĪ Ø³Ùħ
ĠÙħÙ ĬØ³
ÙħÙ ħØ©
Ùĥ ÙĬØ±
ĠØ¨Ø °ÙĪØ±
ÙħÙĪØ§ ÙĤØ¹
Ī Ø¨ÙĬØ¹
ÙĪØ§ ÙĥÙĩ
ĠØ§ÙĦÙĩØ§ ÙħØ©
ĠØªØµ Ø¯Ø±
·Ø ª
ĠØ´Ø§Ø ±Ø¨
Ø·Ù ĬØ³
ĠØ¨Ø§Ø³Øª ÙħØ±Ø§Ø±
ÙħÙĪØ Ń
ĠØ° ÙĥØ±Ùī
ĠÙĦØªØŃ Ø³ÙĬÙĨ
ÙĤØªØµØ§ Ø¯ÙĬ
ĠÙĪØ§ÙĦÙħÙ Ĥ
ĠØ§ÙĦÙĥØ± ÙĬÙħØ©
Ī Ø¹ÙĨØ¯
Ù ĪØ¹ÙĨØ¯
ÙģØªØ ªØŃ
²Ù ī
Ù ĪØ¨ÙĬØ¹
Ø³Ø§Ø¨ ÙĤ
ĠØ³ ÙĪØ±
it ed
p s
ĠØ§ÙĦØ¹ Ø³ÙĦ
ĠØ¨Ø ªØ¹
ĠØªØµØ± ÙĬØŃ
ĠÙĪØ§ÙĦÙħÙ ĤØ§
Ø±Ø ¢ÙĨ
ØŃ Ø¨Ø©
ÙĤ ÙĦØª
or n
ºØ ªÙĬ
ub lic
ĠÙĦØµ Ø§ÙĦØŃ
Ù ¾
ĠÙĬØ´ ÙħÙĦ
ĠØ§ÙĦØª Ùĩ
ĠØ§ÙĦØ®Ø ·ÙĪØ©
ĠØ§ÙĦØ¨ ÙĪØ§
Ø¶Ø §Ø¦
ĠØ§ÙĦÙħ ÙĦÙĥÙĬ
ĠØ¨ ÙĬØ±ÙĪ
´Ø§ ÙĤ
ers ion
ĠÙħØ³Øª ÙħØ±
Ġ ÙĪØ¨ÙĬØ¹
ĠØ§ÙĦØ¨Ø±ÙĬØ·Ø§ ÙĨÙĬ
ĠØ³Ù ĨÙĪ
ĠØ¨Ù ĪÙĦÙĬ
ĠØªØ¹ Ø¨Ø±
ĠØ§Ø³ØªØ® Ø¯
ĠÙĬØ ®ØªÙĦÙģ
ĠØ§ÙĦÙħØµØ± ÙģÙĬØ©
ĠØ£Øº ÙĦØ¨
ĠØ§ÙĦÙĤ ÙĪØ§ÙĨÙĬÙĨ
ĠP F
ĠÙħÙĤ Ø§ÙĦ
Ù ĨÙħØ·
ĠØ§ ÙĤØªØµØ§Ø¯ÙĬØ©
ĠØ§ÙĦÙĨØ ªØ±ÙĬÙĦ
ĠÙħØµØ± ÙĬØ©
ĠØ£Ø· ÙĦÙĤØª
ĠØ§ÙĦØ³ ÙĦØ©
ĠÙĦØ² ÙĬØ§Ø¯Ø©
ÙģØªØ ±Ø¶
Ù ĨØ³Ø§Ø¡
ĠØ§ÙĦØ¯ÙĪØ§ Ø±Ø©
ĠØ§ÙĦØª ÙħÙĪÙĬÙĦ
Ø¹Ø¯ ÙĦ
Ã ¼
ĠØ§ÙĦÙħØ °Ùĥ
ĠØ³ÙĨØ ºØ§ÙģÙĪØ±Ø©
ĠØ§ÙĦØ£ ÙĪØ
ĠÙĦ ØŃØ¸Ø©
ĠØ§ÙĦØ ±Ø¨
Ø§ÙĦÙħÙ ĬØ©
ĠØ§ÙĦÙĦØ¨ÙĨØ§ ÙĨÙĬ
ĠÙħØ¤ Ùĥ
Ø¬Ø §Ø¦
iv ers
ĠØª ÙĦÙħÙĬØ¹
ÙħÙĪØ§ Ø¶ÙĬØ¹
ØŃ ÙĤÙĪÙĤ
Ø¬ Ø£Ø©
A l
µ ØŃ
ĠØ¬Ø§Ø¡Ø ª
¥ÙĨ Ø³Ø§ÙĨ
9 2
ÙĤÙĬ ÙĤØ§Øª
ĠÙĥØ§ ÙģÙĬØ©
Ġf unction
ĠØ£Ø¶ Ùģ
Ø²Ù Ī
ĠÙĪØ§ Ø·
Ġ1 10
ĠÙĤ Ø±Ø§
ĠØ§ÙĦÙħØ ªÙĨÙĪØ¹Ø©
ĠÙģ ÙĬØµÙĦ
Ùģ ØµÙĬÙĦ
±Ø§Øª Ø¨
ĠÙħÙĪ Ø³ÙĬÙĤÙī
Ø¨Ø ´
ĠØ§ÙĦØ´ ÙĩÙĬØ±
ĠØ¯ Ø¹ÙĪØ©
ĠÙĦÙĦÙĪØ µÙĪÙĦ
ĠØ§Ø³Øª ÙĬØ±Ø§Ø¯
Ø¹ ÙħØ§Ø±
ĠØ§ Ø¬ÙĦ
ĠØŃØ¯Ø« ÙĨØ§
¸ Ø©
Ġ19 87
Ġw ww
Ġ ÙĨÙĪÙĨ
Ø±Ø§Ùģ ÙĬØ§
ÙĥØ ´Ø§Ùģ
ĠØ£ ÙĤØ±Ø¨
ĠÙĤ ÙĪØ§ÙĨÙĬÙĨ
ĠØ§ÙĦÙħØ ´Ø§Ø±ÙĥØ§Øª
ĠÙĪØ´ Ø±Ø§Ø¡
ĠØ²Ø§Ù ħØ¨ÙĬØ§
ĠØ§ÙĦÙħ ÙģØªÙĪØŃØ©
ĠL ocal
ĠÙħØ¹Ø§Ù ĬÙĬØ±
Ø§ÙĦØ§ Ø³Øª
ĠØ³Ù ĪØ³
ĠÙĦÙĦØ °ÙĩØ¨
ĠØ§ÙĦÙħØ §Ø¦ÙĬØ©
ĠÙĦØ ªÙĪÙģÙĬØ±
Ù ±
ĠØ³Ø ªØ§Ø±
¶Ø§Ø¦ Ø¹
ĠØ¨Ø£ Ø¹ÙħØ§ÙĦ
ĠØ¸ ÙĩØ±Øª
Ø§ÙĦØ® Ø¯ÙħØ©
±ÙĪØ ŃØ©
Ø¯ ÙĤØ§Ø¡
ĠÙĪØ§ÙĦ Ø¯ÙĬ
ÙĬØª ÙĨØ§
I S
ÙĥØªÙĪ Ø¨Ø©
ĨÙĬÙĥ Ø±Ø²
ĠÙħØµØ± ÙģÙĬ
Ġs ervice
ĠØª Ø¹Ø§ÙĪÙĨ
ĠØ¬ÙĪØ±Ø¬ ÙĬØ§
Ù ĬÙĤÙĦ
ÙłÙł Ùł
ĠÙĦÙĦÙħØ ±Ø£Ø©
ħÙĦ ØŃ
ĠÙĪØµ ÙĬØ§ÙĨØ©
ĠÙĪØµ ÙĦØª
ĠÙħÙĤØ§ Ø
echn ology
ĠØ¨ÙĥØ§ ÙģØ©
ĠØ§ÙĦÙ ĬØ
ĠØ§ÙĦØ£Ø± Ø¨Ø§ØŃ
ĠÙĪØ§Ù Ĭ
ĠÙħØ³ Ø£ÙĦØ©
ĠÙĤØ¯ Ø±Ø§Øª
ĠØ§ÙĦØ±Ø ¤
ĠÙģØ ¤Ø§Ø¯
ĠØ¨ÙĦØ ¬ÙĬÙĥØ§
ĠØ§ÙĦØªØµ ÙĨÙĬÙģ
at al
Sh are
ĠØ§Øµ Ø¯Ø§Ø±
ĠØ³ÙĬØ± ÙĬÙĨ
ĠØ® ÙĦÙĬÙģØ©
ÙĨØ§ Ø·ÙĬØ³
ĠÙĪÙĬ Ø³ØªØ®Ø¯Ùħ
ed u
ÙħÙĩØ§Ø ª
ĠØªÙĬØ´ ÙĬØ±ØªØ§Øª
ĠØ§ÙĦØ§ Ø¬ÙĩØ²Ø©
Ġ ÙħÙĥØª
ĠØªØ³ ÙħÙī
ĠØ§ÙĦÙħ ÙĥØ§
ĠØºØ¶ ÙĪÙĨ
§ ÙĤ
ĠØ§ÙĦÙĬØ§ Ø¨Ø§ÙĨÙĬØ©
Ġl ine
c s
ÙĦÙĬ ÙĦØ©
ĠØ¨Ø§ÙĦØ º
±ÙĬØ ŃØ©
ĠØ§ÙĦÙħÙĨØ µØ©
ĠÙĪØ§ÙĦÙ ħØ³Ø§
Ø¹Øª ÙĬÙĨ
Ø£ Øµ
ÙĬÙĪ Ùģ
ĠØ§ÙĦÙĨÙĪÙ ĪÙĬ
£ ï»
ĠØªØ¹ÙĦÙĬ ÙħÙĬØ©
ÙĤØª ÙĦ
ĠØ§ÙĦÙģ ÙĨÙĪÙĨ
ªØ§ Ø±Ø©
ĠÙħÙħØ ª
Ø¹Ø§ Ø´
s a
ĠØ¥Ø« ÙĬÙĪØ¨ÙĬØ§
ĠÙħØ·Ø§ Ø¨Ø®
Ġp er
ĠÙħØ¬Ø§ Ù
ĠÙħØ³Ø§Ø¨ ÙĤØ©
ĠØ§ÙĦÙĤØ§ Ø¶ÙĬ
ĠÙĪØ§ÙĦ Ø¹ÙĦÙĪÙħ
i er
Ù ĬØ¯ÙĬ
Ùģ Ø£Ø©
®Ø§ Ø¡
ĠØª Ø¹Ø§ÙĨÙĬ
ÙħÙĪ ÙĨØ²
Ġ6 5
ĠØ§Ù ĬÙģÙĪÙĨ
ĠØ¬ ÙĩØ¯
Ġin formation
Ġ ÙĬÙĤÙĦ
ĠÙĥÙĪØ¨ ÙĪÙĨ
ĠØ§ÙĦØ¨Ø «
ĠØ§ÙĦØ³Ø§Ø¨ Ø¹Ø©
g h
i el
ĠØ¨ ÙĪÙĦ
ĠÙĦÙĦÙħÙ ĪØ§Ø¯
ÙħØ ²Ø©
) âĢı
Ø³Ø ¤Ø§ÙĦ
ĠØ§ÙĦØª ÙĦÙģØ²ÙĬÙĪÙĨ
ĠÙħØ ªØ§ØŃ
ĠØ§Ø³ ÙħÙĨØª
ĠÙĥ Ø§ÙĦÙĬÙģÙĪØ±ÙĨÙĬØ§
ÙĬØ² ÙĬØ§
TM L
ĠØ³ ÙĦÙĬÙħ
ĠÙĪÙĦÙ ĩØ°Ø§
ĠÙĦÙĦ Ø³ÙĬØ§Ø±Ø§Øª
ĠÙĤ Ø¶ÙĬØ¨
ĠØª ØŃØ§ÙĪÙĦ
âĢ ª
ĠÙģ ÙĩÙĦ
ãĢ ĳ
ĠØ§ÙĦØ¥ ÙĬØ¬Ø§
ĠØ§ÙĦØªØ ºÙĬÙĬØ±
ĠÙģ ÙĪØ±ÙĬ
ĠØ£Ø¨ ÙĪØ§Ø¨
ĠØ§ÙĦØ¥ Ø¬
ĠØ¨ ÙĥØ±Ø©
ĠØ¹ Ø¨
ÙĬØ§ ÙĨÙĬØ©
ĠÙĦÙħÙ ĪÙĤØ¹
ĠÙĨØ ±
ÙĪØ ¬Ø§Øª
Ø² ÙĬÙĨ
ĠØ§ÙĦØ¬Ø²Ø§ Ø¦Ø±ÙĬ
ĠØªØ¹ ÙĬØ´
ÙĬÙĨ ÙĬÙĬÙĨ
ħ Ø³ØªØ®Ø¯Ùħ
ĠØªØµ Ø¯ÙĬØ±
ĠØ§ÙĦØ±Ø§ ØŃØ©
am s
ĠØ§ÙĦÙģ ÙĥØ±ÙĬØ©
ĠØªØ±Ùĥ ÙĬØ©
ĠÙĦÙĦØ º
ĠÙģØ ªØ§Ø©
Ī Ø¹Ø§Ø¡
ĠØ§ÙĦØ³ ÙĪÙĬØ³
ÙĬØ§ Ø¯Ø§Øª
ĠÙħÙĨØ§ Ùģ
Ø³Øª Ùĩ
ĠÙĥ ÙģØ±
µØ§Ù Ĩ
ĠÙĤ ÙĬØ¯
ĠØ§ÙĦÙħÙĤØ§ ÙĪÙħ
ĠÙĤ Ø±Ø£
ĠØ§ÙĦØ¨ØŃ ÙĪØ«
Ġ.. ..
ĠØ§ÙĦØ«Ø§ ÙħÙĨØ©
Ġ ~
ÙĦÙĥ ÙĬØ©
ĠØ¹ ÙĪØ§ÙħÙĦ
ĠØ§ÙĦÙĩÙĨØ¯ ÙĬØ©
ĠÙĦØ ¬Ø§ÙĨ
Ø« ÙĦØ©
ª ÙģØ§ØµÙĬÙĦ
Ø¯ Ø¯Ø§
ĠÙĪØ§ÙĦÙħØ ŃØ§
ÙĬØ±ÙĪ Ø³Ø§Øª
Ø §ÙĤ
Ġ ÙĨØ³Øª
Ġs a
ĠÙħØµ ÙĨÙĪØ¹Ø©
Ùĳ ØĮ
ÙĥØª ÙĬØ±ÙĬØ§
ĠØ§ÙĦØºØ°Ø§ Ø¡
ad a
ĠC O
ĠØ§ÙĦØ£ ÙĦÙħØ§ÙĨÙĬ
ĠØª ÙħÙĪÙĬÙĦ
ĠØªØ ¬Ø§
ħØ¨ÙĬ Ø¹Ø§Øª
Ī Ø¹Ø¯
ĠÙħÙĬÙ ĨØ§
ĠÙħÙĨØµ ÙĪØ±
Ø³ÙĬ Ùĩ
ĠØªØ±Ø§ ÙħØ¨
´Ø§ ÙĩØ¯
ĠÙĪØ§ÙĦØ¥ ÙĨØªØ§Ø¬
ĠÙĤ ÙħØ©
ĠØ§ÙĦØ³Ù ĨÙĪÙĬ
Ġ ÙĪÙĬØ¬
ĠØªØ ¬Ø§ÙĪØ²
ÙĪØ§Ø±Ø ¦
ĠÙģØ¹ Ø§ÙĦØ©
st r
²Ù ĬÙģ
ĠØ³ ÙĨØª
ĠM ill
ĠØ£Ø³ ÙħÙĨØª
ĠÙħØ³Øª ÙĦØ²ÙħØ§Øª
ĠØŃÙĬØ§Øª Ùĥ
ĠØ£ ØµÙĪÙĦ
ĠØ¢ ÙħÙĨ
º Ø±Ø©
i um
Ø ªÙģØ§ØµÙĬÙĦ
ĠØ£ ÙĦÙħ
ĠØ§ÙĦÙĥÙ ĪÙĨØ
ĠØ· ÙĪØ§ØŃÙĬÙĨ
ĠØ°Ø§Øª Ùĩ
ĠÙħÙģØ ªØ§ØŃ
Ġd o
Ùĥ ÙĦÙħØ§Øª
ĠØ¥ Ø´Ø§Ø±Ø©
ĠÙĦÙħØŃ Ø·Ø©
ĠØ§ÙĦÙħÙĪØ§ Ø·ÙĨ
ĠÙħÙĤ Ø¯
ĠØ§ÙĦÙĨÙ ħÙĦ
ĠØ¨Ø ²ÙĬØ§Ø±Ø©
ĠÙĨØ§ ÙĬÙĥ
ĠÙĦØº Ø±Ø¶
ĠØªØ ±Ø¯
p os
¶Ø ®Ùħ
7 3
ØŁ !
ĠÙĦÙĦØ§ Ø·ÙģØ§ÙĦ
ĠØ§ÙĦØ³Ø§ Ø¦ÙĦ
±ÙĬØ ²
Ø§ÙĦÙĬÙ ĪÙħ
ĠØ§ÙĦØ ´Ø§Ø±Ø¹
ĠÙĤ ØµØ±
Ø³ ÙĦØ©
ĠØ§ÙĦØºØ± Ø¨ÙĬ
ĠÙĪØ ·Ø±ÙĤ
ĠÙĪØ§ÙĦ Ø³ÙĬØ§
ĠØ§ÙĦÙĨØ µØ±
Ø§ÙĦÙ ĩÙĨØ¯
ÙģØ§ Ùĩ
ĠÙĪØª ÙĤØ¯ÙĬÙħ
ĠØ³Ø§Ø¨ ÙĤØ§
Ø³ÙĬ ÙħØ§Øª
Ġ Û
ĠÙħÙĦ Ø¹Ø¨
Ġt ime
ĠA f
ĠØª ÙĪØ¸ÙĬÙģ
ĠÙĤØ¯ ÙĬÙħØ©
ĠÙĪÙħ Ø³
ĠØ§ÙĦØ¹ ÙħÙĪØ¯
ĠØ¨Ø ªØ±
ĠØ¥ Ø¬
Ø¦ ÙĩÙħ
ĠØ£ Ø®Ø±
ĠÙħÙ ĩÙĨØ¯Ø³
ÙĥØ³ ÙĦ
Ń Ø¯
ĠÙħØ¨Ø§ Ø¯Ø±Ø©
00 00
ĠÙħÙĬØ ²Ø§Øª
ĠØ§ÙĦØ£Ø³ ÙħØ§Ø¡
ĠØ§ÙĦÙħÙĪ Ø³ÙĬÙĤÙī
Ø¶ Ø¨
Ø¨Ø± ÙĬØª
Ø£ÙĨ Ùĩ
9 3
c on
Ø¨ÙĦ Ø¯
ĠØ±ÙĪØ§ ÙĬØ§Øª
E L
·Ø§Ø ±ÙĬØ©
em b
ĠØ¬Ø§ ÙĩØ²
ĠR es
ĠØ³ ÙĤÙĪØ·
Ø²Ù ĨØ©
ĠØ£ÙĨ Ø¯Ø±ÙĪÙĬØ¯
ĠÙĪØ§ÙĦÙħÙ ĪØ§Ø¯
ĠØ§ÙĦØªØ¹ÙĦÙĬ ÙĤ
ĠØªØ® Ø±Ø¬
ĠØ§ÙĦØŃØ¬Ø± ÙĬØ©
ĠØ¥ ØºÙĦØ§ÙĤ
ĠØ²ÙĪØ¬ ÙĩØ§
ĠØ§ÙĦØ® ÙħØ³
ĠØ¹ ÙĦ
ĠØ¨Ø¯ ÙĦ
Ù °
ĠÙĦØª ÙĥÙĪÙĨ
°Ùĩ ÙĦØ©
ĠØ§ÙĦØ´Ù ħØ§ÙĦ
ĪÙĦÙ ĩØ§
ĠÙĤ ÙħÙĨØ§
ĠØ§ÙĦÙħÙĨØ§ Ø¬Ùħ
ĠØ§ÙĦØ¯ ÙħØ§Øº
Ø¨Ù ĨÙĬØ©
ĠØ¨Ø§Ø ªÙĪ
Ġh igh
ĠØ§ÙĦØ¥Ø³Ø±Ø§Ø¦ÙĬ ÙĦÙĬØ©
ĠØ² Ø¬Ø§Ø¬
l and
Øµ ÙĨØ§Ø¹Ø©
Ø³Ø§ Ø·
ĠØ§ÙĦÙĤÙĬØ§ Ø³ÙĬØ©
ĠØ§ÙĦÙħØ³Ø¤ ÙĪÙĦÙĬØ©
ĠØ§ÙĦØµØŃ Ø±Ø§Ø¡
Ø³ØªØ ±Ø§
Ø³ØªØ ±Ø§ØªÙĬØ¬ÙĬØ©
ĠÙĦØ¥ ÙĨØ´Ø§Ø¡
ĠÙĬØ ¶ÙħÙĨ
ad ing
ĠØªØ³ Ø¹Ùī
ÙĦØªØ ²Ùħ
E C
ÙĥÙ ĨÙĬ
Ġ ÙĬÙħÙĨØ¹
Ø¯Ø «Øª
Ġg t
ÙĦØ§ Ø¨Ø©
ĠØ§ÙĦÙħØ³ ÙĦØ³ÙĦ
ĠØ´Ø± ÙĬØ·
ĠÙĪØ§ ÙĤ
ĠÙĦÙĦØ§ Ø³ØªØ®Ø¯Ø§Ùħ
ĠF l
ĠØ® Ø§ÙĦÙĬØ©
ĠØ§ÙĦØ« ÙĤØ©
ÙĪØ ²Ø§Ø±Ø©
ĠØ§ÙĦÙģ Ø¬Ø±
ï ¼
Ø¨Ù ĪØ¯
ªØ ±Ø¨
Ĭ ÙĦØª
ÙĥØ ´ÙĨ
ĠÙħØ³Ø¤ ÙĪÙĦ
Øº Ø±Ø§Ø¶
ĠØ§ÙĦØ¨Ø ´Ø±ÙĬ
ĠÙģÙ ĨÙĬØ©
ĠÙĪØª Ø¯
ĠÙħØªØ µÙģ
Ø³ØªØ« ÙħØ±
Ùį ØĮ
Ù ĪØ¹Ø§Ø¡
Ġ ×
ĠØ§ÙĦØªØ¹Ø¨ ÙĬØ±
Ø·Ù ħØ©
ĠØ§ÙĦØŃØ ±ÙĬØ©
ĠØ§ÙĦÙģÙ ĪÙĦØ§Ø°
ĠØ¥ÙĦÙĥØªØ ±ÙĪÙĨÙĬØ©
ĠØ§ÙĦØ³ ÙĥØ±ÙĬ
es ign
²Ø§ ÙĨÙĬØ©
ï» ¤
ateg or
ĠØªØª ÙĬØŃ
ĠØ§ÙĦÙħØ³ØªØ ´Ø§Ø±
´Øº Ø§ÙĦ
ĠÙħØ¬Ø§Ù Ĩ
ÙĦØ§ Ø¬Ø©
Ø²Ø§ Ø®
Ùģ ÙĥØ§Ø±
ÙĪØ§Øª Ø¨
ĠØ§ÙĦÙħØ·Ø§ Ø·
ÙģØ ¦
ØµÙ ħ
ĠØ³ÙĦØ ·ÙĨØ©
ĠÙĨØ§ ÙĤÙĦØ©
ĠØ¨ ÙĦØ³
ĠÙĩØ§Øª ÙģÙĥ
Ø¬ Ø¨Ø§Øª
ĠÙĦÙĦ Ø¯Ø±Ø¯Ø´Ø©
ĠØ§ÙĦÙħ ÙģØªÙĪØŃ
ÙĦÙĪ ÙĬØ©
ĠØ¨Ø§ÙĦ Ø¬Ø§ÙħØ¹Ø©
ÙĪØ¬ ÙĬÙĨ
ÙĩÙ ĨÙĬØ©
ĠØ« ÙĤØ©
Ø¬Ù ĪØ¯
ĠÙĥ Ø³
B C
ĠØ¨ÙħØ µØ±
ħ ÙģØªÙĪØŃ
ator s
Ùģ ÙĪÙĨ
ĠÙħØ« ÙĬØ±
Ù ħÙģØªÙĪØŃ
Ø¦ Ùī
ĠØ§ÙĦØ³ ØŃØ±
² ÙĪÙĨ
ĠØ§ÙĦØ³ ÙĬØ±Ø©
ĠØ§ÙĦØµ Ø¯Ø±
ÙĤÙĪ Ø¨Ø©
ĠØºØ§ ÙĬØ©
Ĭ Ø¹Ø§Ù
ÙħØŃ Ø¬Ø±
² ÙĤ
ĠØ§ÙĦØ´Ù ħØ§ÙĦÙĬ
Ø¦ ÙĨØ§
ĠØ´ Ø±Ø§Ø¦
ĠØ§ÙĦÙħÙĬØ ª
ĠÙĦÙĦØŃ ÙģØ§Ø¸
Ġ `
Ù ĬØ¹Ø§Ù
rev ious
le arn
ĠØ± Ø¨Ø·
ĠØ£ Ø¨Ø§
ĠØ§ÙĦØ³ ÙĩÙĦ
¬Ø² Ø¦Ø©
ĠÙħÙĬØ ª
¦Ù ĪÙĬØ©
ĠØ§ÙĦØ¥ Ø¬Ø§Ø¨Ø©
al es
Ġ \
ĠØ¨ÙĦ Ø¯Ø§ÙĨ
ĠØ£Ø¨ ÙĬØ¶
ĠØ§ ÙĤØª
ÙĦÙĦÙ Ĭ
Ġ ÙĪÙĬÙĨØ
ÙĬØ £
Ġ ÙĨÙħØ·
ĠØª ÙĤÙ
ĠØ§ÙĦØ³Ø ¬Ø§Ø¯
ĠØª ÙĪØµ
ØªØ ®
ĠØ§ÙĦØ¹Ø§ Ø¯ÙĬ
ÙħÙĬÙ ĬÙĨ
ħ Ø¹Øª
ht tp
ĠØªØ ¶ÙħÙĨ
ĠØ§ÙĦØ±Ø º
¶Ø§ ÙħÙĨ
ĠØ§ÙĦÙģ Ø³Ø§Ø¯
ØµØ ºÙĬØ±Ø©
ĠÙĦØª ÙĤ
ĠÙĪØ§ ÙĨØ
ÙħØ§ Ø·
ĠÙħØŃ Ù
ĠÙĨÙĬ ÙĪØ²ÙĬ
ĠÙĩØ§ ÙħØ©
ĠØ¨Ø¹Ø¶ ÙĩÙħ
ħ ÙģØ±
ĠÙĤ ÙĩÙĪØ©
ĠÙħØ ®ØµØµØ©
ou se
ĠÙĪÙħ Ø³Ø§
ĠÙĬØ ¬Ø±ÙĬ
ÙĪØ¶ Ø©
% ØĮ
ĠØ¢ ÙħÙĨØ©
ĠØ§ÙĦØ´Ø§Ù ħ
Ġ ÙĬØ¹Ø§Ù
ĠØ§ÙĦÙħØ µØ§Ø¯Ø±
ĠØ§ÙĦØ±Ø ¦Ø§
ĠØ§ÙĦÙĨ ÙĪØ±
ĠÙĪÙĬÙħÙĥÙĨ Ùĥ
ĠØŃØ ª
ÙĥØªÙĪØ±Ø§ Ùĩ
ĠÙĨØ ¬Ø§Ø±
ĠØ§ÙĦÙĨØ§ ÙĤÙĦØ©
Ī ÙĪØ¶Ø¹
Ġyear s
ÙĬØªØ§ ÙħÙĬÙĨØ§Øª
Ġ ÙħÙģØ§ØªÙĬØŃ
ĠØªØ ¬Ø
ĠØ±ØŃ ÙĦØ§Øª
ĠØ§Ø³ ÙħÙĩ
ª Ø¹ØªØ¨Ø±
ĠØªØ¹ ÙĤÙĬÙħ
ĠØ§ÙĦØ£Ø³ ÙģÙĦØª
Ù ĪÙĪØ¶Ø¹
ĠØ¹ Ø¨ÙĬØ¯
ĠØ§ÙĦØ¨Ø³ ÙĬØ·Ø©
ĠØ§ÙĦØ¬Ø§Ù Ĩ
â Ĩ
ĠÙħÙĦØª ÙĤÙī
Ùģ Ø¹ÙĬ
ĠØ¥Ø³ ÙħØ§Ø¹ÙĬÙĦ
Ø¨Ø§ Ø¯Ø©
Ø§ÙĦØ± Ø¯ÙĪØ¯
ÙĨØªØ ¸Ø§Ø±
ĠØ§ÙĦØ§ Ø¹ÙħØ§ÙĦ
ĠØ¹Ø³ ÙĥØ±ÙĬØ©
Ġb all
Ø¹Ùħ ÙĦØ§Øª
Ø ªØ¹ØªØ¨Ø±
Ø§ÙĦÙĦ ØºØ©
ĠØ§ÙĦØ§ Ø¹ÙĦØ§Ùħ
ĠÙħØª Ø¹Ø¯Ø¯
ĠØ§ÙĦØµ Ø±Ø§Ø¹
Ġ out
ĠÙĪØ£ÙĨ ÙĪØ§Ø¹
ĠØ¨ÙĨØº Ø§ÙĦÙĪØ±
ĠØªØªØ ·ÙĦØ¨
¶Ø¹ Ùģ
ħ Ø¨Øª
ĠØ¨Ø±Ø§ Ø¯
ÙģØ± ÙĬØº
riv acy
ĠC ontact
ĠØ£Ø³ ÙĦÙĪØ¨
Ġ3 4
¤ ÙħÙĨ
Ġp art
ĠØªØ³ ÙĦÙĬÙħ
ĠØ§ÙĦÙģ Ø·Ø±
âĹ Ħ
ĠØ§ÙĦÙĩ ÙĦØ§ÙĦ
ĠØ£ Ø¯ÙĨÙī
ÙĦÙĪÙ ī
ĠØ§ÙĦÙĤØ ª
ĠÙĦØ¬ Ø¹ÙĦ
ĠØ®ÙĦØ§ Ø·
ĠÙĦÙħÙĪØ§ Ø¬ÙĩØ©
ĠA ug
ĠÙĤ Ø±Ø§Ø±Ø§Øª
ĠÙĦØªØ ·ÙĪÙĬØ±
ĠØ§ÙĦÙĤØ§ Ù
ÙħØ¹ ÙĩØ¯
ĠØ§ÙĦÙħÙĤ Ø±Ø±
ĠØŃØ §Ø¦
-- -
ĠØ£Ø³Ø§ Ø¨ÙĬØ¹
ĠÙĬØ® Ø±Ø¬
Ġo ver
ĠØ§ÙĦÙĨ ÙĪØ§
Ø§ÙĦØ£ Ø±Ø´ÙĬÙģ
ĠØ§ÙĦ Ø¯Ø§Ø±
Ù¢ Ùł
ĠØ§ÙĦÙħØ³ ÙĦÙħ
ĠØ¯ ÙĪØ±Ø§
ĠØ¨ Ø¯ÙĬ
ªØ±Ø§ Ùģ
Ùģ Øµ
ÙĪØ´ ÙĪØ¨
ĠØ§ÙĦØ®Ø ·Ø§Ø¨
Ĭ ÙĤÙĪ
ĠÙĦÙĦØµ Ø¯Ø£
ĠØ§ÙĦÙħÙ ħÙ
ĠØ§ÙĦØ³ ÙĦÙĪÙĥ
E M
ĠÙĪØ§ÙĦÙ ħØ³Øª
ĠØ¬Ù ħÙĦØ©
ĠØ¹ ÙħÙĪ
ĠC opyright
ĠØµ Ø¹ÙĪØ¨Ø©
ĠØŃ Ø±Ø§Ø¬
ĠØ§ÙĦÙħ ÙĥØªØ¨Ø©
Ù ĪØ¯Ø§
ar s
Ø§ÙĦÙ ĪØ³
ĠØ§ÙĦØ±ÙĪØ§ ÙĬØ©
ÙģØ§ Ø³
ÙĪØ ¶Ø§Øª
ĠØ§ÙĦØŃ Ø³
ĠØ§ÙĦØªØ ±Ø
ĠÙĪØ§ÙĦÙ ħØ§
Ù ħØ¨Øª
ĠÙĦÙĦÙĥØ §
ÙĨØ ²Ø§
ĠÙĪØ¨ ÙĨØ§Ø¡
Ġ18 0
ĠÙĩ ÙĥØ°Ø§
ĠØªØ® ÙģÙĬØ¶
°Ø§ ÙĥØ±
±Ø ¬Ø§Ø¹
ĠØ§ ÙħØ§Ùħ
Ùģ ÙĬØ²
ĠÙĪØ³ ØŃÙĤ
ĪÙĦÙ ĬØ©
ĠØ§ÙĦØ§Ø³ ÙĩÙħ
ĠÙħØ§Ù Ĩ
ĠØª Ø¯ÙĦ
ÙģØ± ÙĬÙĨ
Ĭ Ø³Ø±
ªØ ¸Ø±
ĠS a
ÙĪØ§ Ø¨Ø·
yst em
Ĩ Ø³ØªØ®Ø¯Ùħ
ĠÙĪØ§ÙĦØ ¶
ĠØ§ÙĦÙħØªØ ®ØµØµ
Ø¨Ø ·Ø§
20 12
Ù ĨØ³ØªØ®Ø¯Ùħ
ĠØ£ÙĬ ÙĦÙĪÙĦ
Ø ªÙĪØ§ØµÙĦ
ĠØ¹Ø§ÙĦÙħÙ ĬØ§
I M
ĠÙħØŃØ§ Ø
±ÙĪ Ø¨Ø§Øª
Ø¬ØªÙħØ§ Ø¹
ĠØ£Ø³Ø§ Ø³Ø§
Ø§ÙĦØŃ ÙĦÙĤØ©
ĠØ³Ø ªÙĬ
ĠØ´ Ø¬Ø±Ø©
ĠØªÙĤØ¯ ÙĬØ±
ĠØ§ÙĦØ®Ø µÙħ
ĠÙĦÙĦØ¨ ØŃØ«
±ÙĪ ÙĤØ§Øª
ĠÙĤ Ø¶
enc es
quir y
ĠÙĬØª ÙħØªØ¹
Ø¨ ÙĪØ
ĠØ§ÙĦÙĤØµ Øµ
ĠØºØ±Ø¨ ÙĦØ©
ĠÙħØ¬ ÙģÙģ
ĠØ§ÙĦÙĦØ§ Ø
ĠÙħÙĤØ§ Ø³
ĢÙĢÙĢ Ø
Ĩ ÙģØ
ĠØ§ÙĦØ¹ Ø¨Ø¯
ÙĪØª ÙĪØ´ÙĪØ¨
ĠÙĪØ§ÙĦØ¬ Ø±Ø§ÙĨÙĬØª
ĠØ£Ø± Ø¨Ø§ØŃ
ĠØªØµ ÙģØŃ
ĠØªØ´ ÙĬÙĨØ§ÙĬ
ĠÙĪØ§ÙĦ Ø¹Ø§
ĠØ§ÙĦÙģÙ ħ
ÙĪØ µÙĬ
ÙĩØ±Ø¨Ø§ Ø¡
ĠØ§ÙĦÙħØ¹Ø ªÙħØ¯Ø©
Ġ ÙħÙģØªÙĪØŃ
ÙĦÙĬ Ø¯ÙĬ
ĠØ§ÙĦØ¯ ÙħÙĪÙĬØ©
ĠÙĩØ ´Ø§Ùħ
ĠÙĬÙĥ ÙģÙĬ
ar m
ĠØ¹Ø¨Ø§ Ø±Ø§Øª
ĠÙĪØ£ ÙģØ¶ÙĦ
ĠØªØ ¬ÙĨØ¨
ĠØ§ÙĦØ£Ø±Ø¶ ÙĬØ©
ĠÙĪØ¨Ø± ÙĥØ§ØªÙĩ
ĠØ§ÙĦØµ Ø§ÙĦØŃ
ĠÙĨØ ¸Ø±ÙĬØ©
ĠØ§ÙĦØ¥Ø¹ÙĦØ§ ÙħÙĬ
ĠØ§ ÙĥØª
ĠØ§ÙĦØ· ÙĪÙĬÙĦ
ĠÙĪÙĬØ ŃØ
Ø« ÙĤØ§ÙģØ©
ĠÙģÙ ĨØŃÙĨ
ÙĬØ¬Ø§ Ù
o f
ĠØ§ÙĦØ¬Ù ĨÙĬÙĨ
ĠÙĦØª Ø³
ĠØ§ÙĦÙĨÙ ĬÙĦ
ÙĬØ¶ Ø©
ĠÙĦÙĦÙħÙ ĤØ§
so ft
ĠØ§ÙĦØ¯ ÙĦÙĬÙĦ
ÙĪØ§ Ø¶
ĠØ§Ø¨ ØŃØ«
ĠØ§ÙĦÙĨ ÙĤØ§Ø·
ĠØ§ÙĦØ¶Ø ±ÙĪØ±ÙĬ
ÙĬØ§ Ø·ÙĬ
Ùĥ Ø±Ø±
Ġ ÙĪÙĦÙĥ
Ġf ree
Ġ} );
Ø¹ÙĦØ§ Ùģ
ĠØ³Ø§ ØŃØ©
ur r
ĠØ² Ø±Ø§
Ø®Ù ĪØ©
ªÙĪ ÙħØ§ØªÙĬ
Ø¨Ø±Ø§ Ø·
ĠØ¨Ø§ÙĦØ ²
Øµ ÙĪØ¯
ĠØªØ ªØ±Ø§ÙĪØŃ
¬ ÙĦØ©
ĠØªØ ±Ø¯Ø¯
ĠØ« ÙĨØ§Ø¦ÙĬ
ĠØ§ÙĦÙħØ±Ø ¶Ùī
´Ø§ Ø·Ø§Øª
Ø§ÙĦÙħØ§ Ø¯Ø©
Ø¨ÙĬ Ø¹Ø©
Ĭ ÙĪØ§Ø¬Ùĩ
ĠØ¨Ù ĪÙĦØ§
Ù ĬÙĪØ§Ø¬Ùĩ
ÙħÙ ĨÙĪØ¹Ø§Øª
ĠW e
Ù ħØ³ØªØ®Ø¯Ùħ
Ī ÙħØ¬
ĠÙĥÙĬØ± Ø§ÙĦØ§
Ġm e
Ġ ÙĪÙĪØ¶Ø¹
T h
ĠÙĪØª Ø¨
ĠÙħÙĬØ ¬Ø§
20 14
ĠInd ustr
ÙĩÙĪ ÙĬØ©
ĠØ¨Ø§ÙĦØ ¶ØºØ·
ĠØ³ÙĦØ ·Ø§ÙĨ
ĠW hatsapp
Ù ĪÙħØ¬
r on
ªÙħ ÙĦØ©
ĠÙĬØ¹ Ø±Ø¶
ĠØ¥ Ø¹ÙĦØ§
ĠØ¨Ø§ÙĦØ¨Ø ´Ø±Ø©
ÙĨÙĪ Ø¨ÙĬ
ĠØ§ÙĦØ¬ ÙĬØ²Ø§
ĠÙħØ ´ØªØ±Ùĥ
ÙĨØº Ø§ÙĦ
ÙĪØ§ Ø¦ÙĬ
ĠØ§ÙĦØ®Ù Ĭ
Ø¬Ù Ī
ĠE l
ĠÙĬØ´ Ø¹Ø±
ĠI S
ĠØ³Ø§ Ø¦ÙĤ
ĠØ§ÙĦØ®Ø§ ÙħØ§Øª
ou d
ĠÙħØ¯ÙĬÙĨ ÙĢÙĢÙĢÙĢØ©
Ġcon s
ĠØ§ÙĦØ·Ø§Ø¦ Ø±Ø©
ĠØ ²ÙĬØ¯
ĠÙĨØ ¬Ùħ
ĠØ§ÙĦÙĪ Ø¹ÙĬ
Ø§ÙĦ Ø¯ÙĪ
ĠØ±Ø³ ÙħÙĬØ©
ÙĪØ« ÙĬÙĤ
7 2
Ġâ Ļ
ĠÙģ ÙĬÙĨ
Ø¨Ø ¶Ø©
Ġ ÙħØ¨Øª
ĠØ§ÙĦØ± ØŃÙħ
ĠØªØ¬ ÙħÙĬØ¹
7 1
Øµ Ø¯Ø§Ø±
Ø³ÙĬ ÙĥÙĬØ©
ĠØ§ÙĦÙħØª ÙĤØ¯Ùħ
ĠØ±Ø§Ø¦ Ø¯Ø©
ĠÙĪØ ªÙĪÙģÙĬØ±
ĠØ§ÙĦØ£Ø¨ Ø¹Ø§Ø¯
ÙĬØª Ø³
Ø§ÙĦØ ªÙĬ
z h
ĠÙģØ¹ Ø§ÙĦ
ĠI sl
ĠØ¨Ø °
ĠPl ay
ĠØ§ÙĦÙĪØ§Ø ±Ø¯Ø©
Ø±Ø§ ÙĪÙĬ
re at
±ÙĪ Ø³ÙĬØ§
ĠÙĪØ¥ ÙĦÙī
ÙĬØª ÙĩÙħ
ĠØ´Ø ®Ø
Ø±Ø§ Ø¯Ø©
Ġ up
ĠTh is
Ø§ÙĦÙĪØ± ÙĬÙĪØ³
Ġc l
¸Ù Ĩ
Ùĥ ÙĪØ§
ÛĮ Ø¯
ĠØ¨ÙĤ ÙĦÙħ
ĠÙħØ³Øª ÙĤØ¨ÙĦ
ĠØ§ÙĦØŃ ÙĤÙĬÙĤÙĬØ©
ĠØŃ Ø¯ÙĬÙĤØ©
ĠØ§ÙĦÙĤ ÙĪØ§
ĠØ§ÙĦØµ ÙĪÙħ
ĪÙĦÙ Ī
ÙĦÙħÙ ĨÙĬÙĪÙħ
id d
ÙĦØ³ ÙģØ©
ÙĨÙĬ Ø³
ĠØ§ÙĦÙħ Ø¹Ø±
ØªØ±Ùģ ÙĬÙĨ
ÙĦÙĪØ ŃØ©
ĠÙĬØ· ÙĦØ¨
¬ Ø¯Ø§Øª
ĠØ§ÙĦØ´Ø±ÙĬ Ø¹Ø©
Ø±ÙĬ Ø§ÙĦ
ĠØ§ÙĦØŃ Ø¯Ø§Ø¦ÙĤ
ªØ £
ĠØªØ§ÙĬ ÙĪØ§ÙĨ
ĠÙħØ¹ Ø¯ÙĨÙĬØ©
Ġ ÙĪØ¹ÙĨØ¯
ĠÙĦÙĦØ§ Ø³ØªØ«ÙħØ§Ø±
ret urn
Ġ ÙĪÙħØ¬
ĠØŃ ÙħØ¯
Ø¬Ù ĪØ¨Ø©
ĠÙĦ Ø¹ÙħÙĦÙĬØ©
Ø£ Ø·
ĠØ· ÙĦØ§Ø¡
erv ices
´Ø§ Ø±ÙĬØ¹
ĠÙĥØªØ§Ø¨ Ùĩ
ĠÙĬØ¯ ÙģØ¹
ĠØ§ÙĦÙħØ³Ø§ ØŃØ©
ĠØ§ÙĦØªØ£ Ø«ÙĬØ±
ĠG roup
ÙĤØ§Ø ±ÙĬØ©
ĠØ§ÙĦÙħØ¨Ø§ ÙĨÙĬ
Ù ħØ¹Øª
ĠÙĪÙĥØ °Ø§
ĠØªÙĪØ¬ÙĬ Ùĩ
Ùĥ ÙĨØª
ĠÙĪÙĨØ ¸Ø§Ùħ
¶ Ø¨Ø·
Ĭ Ø³Ø
ĠØ£ Ø±Ø
ĠÙĥØ§ Ø´
ÙĦØºØ§ Ø
Ø¬Ø§Ù Ĩ
ĠØ§Ù ĨØ¹
ĠØ§ÙĦØ´ÙĩØ± ÙĬØ©
ĠÙĤØ§Ø¦ Ø¯
ĠØ£Ø³Ø§ Ø³ÙĬØ©
ĠÙĦØ£ Ø³
§ ÙĨØ
Ġ7 50
" )
ĠØ¹Ø ±Ùģ
ĠØ§ÙĦÙħØ´Ø§ ÙĩØ¯Ø§Øª
ĠØ§ÙĦØ§ ÙĥØªØ
ĠØ« ÙĪØ±Ø©
Ġ ÙĪØ¹Ø§Ø¡
Ø¬Ù ĬÙĦ
Ù ħÙģØ±
Ù ĬÙĦØª
ĠÙħØŃ Ø¯ÙĪØ¯Ø©
ĠØ§ÙĦÙĤ ÙĬÙħ
ĠÙĪØ¥ Ø¹Ø§Ø¯Ø©
Ø¶ Ø©
ÙħØ§ Ø¯ÙĬ
Ø±Ø³ Ø§ÙĦØ©
±ÙĤ ÙĬØ©
ĠÙħÙĦØ ®Øµ
ĠØª ØŃÙĪÙĦ
Ø¨ÙĪ Ø³
ĠØŃ ØµØ±
Û© Ûŀ
ĠØ§ÙĦÙħØ·Ø§ Ø¹Ùħ
±Ø¨ ÙĬÙĨ
ev el
ª ÙĤØ¯Ùħ
ĠâĢ ĭ
ĠØŃ Ø¶ÙĪØ±
ĠØ§ÙĨ Ùĥ
ªÙĨ Ø¯Ø§Øª
ĠÙĬØ¹ ÙĦÙħ
ĠS e
ĠØ§ÙĦØ¥ ÙĤØ§ÙħØ©
Ġ ÙĪØ¹ÙĨØ¯ÙħØ§
ĠØ¬Ø§ Ø
ÙĪØ ±ÙĬØ¯
Ø ªÙĤ
ĠØ§ÙĦÙĨØ ·Ø§ÙĤ
ĠØ§ÙĦÙħØ±Øª Ø¨Ø·Ø©
ĠØ§Ø³ØªØ ±Ø§ØªÙĬØ¬ÙĬØ§Øª
Ùģ Ø±Ø§Ø¯
al s
ĠØªØ¨ Ø¯ÙĪ
ĠÙħØŃ Ø¯Ø¯
ĠÙħÙĪØ ¸
ĠØªÙĪ ÙĥÙĬÙĦ
ĠØ§ÙĦÙħÙĪØ ¬
ĠÙħØ¹ Ø¯ÙĦØ§Øª
ĠØ¨ ÙĪØ±ØµØ©
ĠØ¬ ÙĪÙĨ
ÙĨØªØ ´Ø§Ø±
ĠØ³ÙĬ Ø¯ÙĬ
à ¹
ĠØ§ÙĦØŃ Ø¯Ø«
ĠM T
ĠØ² ÙĪØ¬ØªÙĩ
ÙģØ ¢Øª
ĠØ£ ÙĥØ§Ø¯ÙĬÙħÙĬØ©
ĠØ¬ ÙĪØ§
ĠØ¬Ø§ Ø¨Ø±
ÙĥØ§Ù ĨØ©
ĠØ±ÙĪØ§ Ø¨Ø·
ĠØ§ÙĦÙĤØ¯ Ø±Ø§Øª
ĠØ² Ø¬Ø§
ĠØ¯ ÙĬÙĨØ§
ĠØ¨Ø ®Ø§Ø±
Ø±Ø¬ Ùĩ
ĠØ§ÙĦØªØ ·ÙĪÙĬØ±
ĠØ§ÙĦØ¹Ø ²
ĠØ§ÙĦØ§ ÙĨÙĤ
ÙģØ± Ø¨ÙĪÙĦ
ĠØ§ÙĦØ¹ÙĤØ§ Ø±Ø§Øª
Ø±Ø§ Ø¨Ø·
ĠØ£Ø¹ÙĦØ§ Ùĩ
ĠÙĪØ§ Ø³ØªØ®Ø¯Ø§Ùħ
Ī ÙĥÙħ
ĠØ£ÙĨØ ´Ø·Ø©
ĠØ§ÙĦØ® Ø¨Ø²
ÙĦÙģØ ª
ĠØ¢ ÙĬØ©
ÙģØ ªØ§Ø¡
ĠØ§ÙĦØªØ¬ ÙħØ¹
ĠØ¨ÙħØ¹ ÙĨÙī
ĠÙĪØ ±Ø¨ÙħØ§
ĠÙģØ§ ÙĬØ±
ĠÙĪØ£Ù ĨÙĩ
P S
ĠØ§ÙĦÙħÙĥØ ±ÙħØ©
ĠÙĬØ¤ ÙĥØ¯
ĠÙħØ¤ Ø³Ø³Ø§Øª
Ø³ØªØ®Ø¯ ÙħÙĩØ§
ĠØ§ÙĦÙģ ÙĨØ§Ø¯ÙĤ
c he
ĠØ§ÙĦÙħØª Ø¯Ø§Ù
ĠÙĦÙħÙ ĨØ¹
ĠÙħØªÙĪ ÙģØ±
ĠØ¨Ø¹ Ø¯Ùħ
ĠØ¹ÙĦÙħÙ Ĭ
u x
ĠØªØ¯ ÙĪØ±
ĠØ§ÙĦÙħÙĨØ² ÙĦÙĬ
Ø§ÙĦØ±ØŃ ÙħÙĨ
ÙĦÙĬØ º
id th
Ġp m
ĠØ§ÙĦØ´Ù Ī
ÙĬÙĨØ§ ÙĬØ±
ĠØ£ Ø¨Ø·Ø§ÙĦ
ĠØ§ÙĦÙģ Ø¦Ø§Øª
ĠØ§Ø³ØªØ ·Ø§
ĠØ´Ø§ ÙĥØ±
ĠØª ÙĪÙĬ
Û©Ûŀ Û©
en u
ĠØ¬Ø¯ Ø±Ø§ÙĨ
ĠØ§ÙĦØ¨ÙĬØ ¦ÙĬØ©
Ĩ ÙĩØ¬
ÙĬØ§Ø ±ÙĬ
h er
ĠØ§ÙĦØ ¬Ø§Ø
ĠØ®Ø ·Ø§Ø¨
Ø¦ ÙĬØ§Øª
ĠØŃ ÙĤÙĨ
ĠØŃ ÙħØ§Ùħ
ĠÙĪØ² ÙĬØ§Ø¯Ø©
Ġt al
ĠÙħÙĨØ º
Ø±Ø´Ø§ Ø¯
ĠØ³ÙĪÙĬ Ø³Ø±Ø§
ĠÙħØ®Ø ªØµ
ĠØ§ ÙĩØªÙħØ§Ùħ
ĠØµ Ø¯ÙĬ
ĠÙĤØ§Ø¦ ÙĦØ§
ĠØ§ÙĦØª ÙĤØ¯ÙĬÙħ
Ø¨ÙĪ Ø¹Ø©
Ġdes ign
ĠØ³Ø¨Ø§ ØŃØ©
ad d
´Øª ÙĩØ±
²Ø§Ø± Ø¹
ĠØ§ÙĦÙħØ² Ø¯
ĠØ§ÙĦ Ø§ÙĦØªØ²Ø§Ùħ
ĠÙĬÙĤ Ø§ÙĦ
ĠØ§ÙĦØ´Ø§ ÙħÙĦØ©
ĠØ³ÙĨÙĪ ÙĬØ§
ĠO r
ĠØ§ÙĦÙĪØ§ Ù
Ø³Ù ĨÙĬ
Ġ6 4
ÙĬØ ºØ±
ĠØ§ÙĦØ´Ø ¤ÙĪÙĨ
ĠØ¨ ÙĪØ±Ø
ĠØ§ÙĦÙĩÙ ĪÙĬØ©
Ø³ÙĬØ¯ Ø³
ĠØ§ÙĦØ¨ÙĪ ÙĦÙĬ
ÙĬØ¬Ø§Ù Ĩ
I T
ħ Ø¨ÙĨÙī
Ø§ÙĦÙħØ§ Ø
ĠØ²Ø§Ù ĪÙĬØ©
ĠØ§ÙĦÙħØ´ ÙĥÙĦØ§Øª
ª Ø¯
ĠØ§ÙĦØ· ÙĦØ¨Ø©
·Ø§ ÙĬØ±
ĠØ§ÙĦÙĨØ§ Ø¦Ø¨
ĠØ¯ÙĬ ÙĪØ§ÙĨ
ĠÙĩÙ ĪØ¯
Ø³ÙĬ ÙĤÙĬØ©
ĠØ§ÙĦÙħ Ø¨Ø§Ø±ÙĬØ§Øª
pr ess
ĠÙĤ Ø¨ÙĪÙĦ
Ø¨Ø± ÙĬØ©
ĠØ§ÙĦØ£ ÙĪÙĦÙ
ĠØ§ÙĦÙħØ¨ ÙĦØº
ĠÙĪØ «Ø§
ĠØ¨ÙĨØ ´Ø±
ĠØª Ø¨Ø§Ø¯ÙĦ
ÙĨØ² ÙĬÙĨ
ĠØ§ÙĦÙĬ ÙĪØªÙĬÙĪØ¨
Ĩ ÙħØ´ÙĬ
§ Ø±Ø³ÙĦ
Ĭ ÙĥØªØ¨
ĠØ§ÙĦÙħØªÙĪ ÙģØ±Ø©
x x
Ø §Ø±Ø³ÙĦ
ĠÙĪØ§ÙĦ Ø£Ù
ĠØªØ ¬Ø§Ø±Ø¨
ÙģØ¹ Ø§ÙĦ
ĠÙĩÙ Ĩ
ĠØ§ÙĦÙĥØ§ Ø´
Ø§ÙĦÙ ĨØ³Ø¨Ø©
Ø¬Ø§ Ø¡
Ġ$ (
ĠØ§ÙĦØªÙ ĪÙĤ
ĠØ§ÙĦ Ø¯Ø®ÙĦ
ĠØ§ÙĦÙģ ÙĦÙģÙĦ
Ġ ãĢ
ĠØ§ÙĦØªØ ¬Ø±Ø¨Ø©
ĠØ§ÙĦÙħÙĩØ§ Ù
z z
ÙĦÙĪ Ùģ
Ù ĬÙĥØªØ¨
Ù ĨÙħØ´ÙĬ
ÙĨØ ªÙĪ
ÙĬØ§Øª Ùĩ
ĠØ§ÙĦÙħÙĨØ ®ÙģØ¶
ĠØ§ ÙĩØª
ĠØ§ÙĦØ² ÙĪØ§Ø±
ĠØ£ ÙħÙ
ĠÙĬÙħ ÙĦÙĥ
ĠØ§ÙĦØ³ ØŃÙĤ
ĠØ§ÙĦØ§Ø³Øª ÙĤ
ĠØ§ÙĦØ¯ ÙĪØ§Ø¡
ĠØ§ÙĦÙ ĨØ¹
ĠØµ ÙĬÙĨÙĬØ©
ĠØ§ÙĦØ´ Ø¯ÙĬØ¯
Ø¹ÙĬ Ùĩ
ĠÙĪØ§ÙĦØ£ Ø³
Ø¹Ø· Ø§ÙĦ
Y ou
Ø¢Ù Ĩ
ic a
Ù ĬØ³Ø
ĠØ§ÙĦØ¢ ÙĬØ§Øª
ĠØªÙĥ Ø³Ø§Ø³
ĠØ® ÙģÙĬÙģØ©
ĠÙĥ ÙħÙĬØ§Øª
Ø¯Ø ¦Ø©
== =
Ġ ÙħØ³ØªØ®Ø¯Ùħ
ĠØ£ Ø±Ø§Ø¯
O nline
ĠØ ¸Ø§ÙĩØ±Ø©
ĠØªØ ´Ø§Ø±Ùĥ
ĠØ§ÙĦÙħÙĩØ§Ù ħ
ĠÙĪÙ ĬØ¯
ĠØ§ÙĦÙĦØ§Ø ª
ĠØ±Ø¬ Ø¨
ĠØ« ÙĦØ§Ø¬Ø§Øª
ĠØ§ÙĦØ£Ùĩ Ø¯Ø§Ùģ
®Ø· ÙĬØ·ÙĬ
ĢÙĢ Ù
ÙĨØ ªØ¬
Ø §ÙĨØ
ĠÙĦÙĨØ ¸Ø§Ùħ
Ġ ÙĨØ³Ø§Ø¡
Ġm achinery
ot e
ĠØ¯ÙĪ ÙĦØ§
±Ø§Øª ÙĬØ¬ÙĬ
Ø¯ÙĬ Ø¨
ĠØ´Ø§ Ø¨
ĠØ£Ù ĨÙ
ĠØ§ÙĦÙħØ ´Ø§Ø±Ùĥ
ĠØªØ¹ Ø¨ÙĬØ±
ĠØ§ÙĦØ£ Ø²Ø±ÙĤ
ÙĬØ§Øª ÙĩØ§
ÙĨØ§ ÙĨÙĬØ©
ĠØŃ ÙĤÙĬØ¨Ø©
ĠØ§ Ø³ØªÙĬ
ĠØ§ÙĦØªØ¹ Ø¨Ø¦Ø©
ĠØ§ÙĦØªÙ ĨÙģÙĬØ°
ĠØ§ÙĦØµ Ø¯
ĠA P
ĠA ut
ĠØ§ÙĦÙĪØ§ ØŃØ¯Ø©
ĠÙħØ ®Ø§
ĠØ§ÙĦØªØ£ ÙĥØ¯
Ģ Ø©
ĠØ§ÙĦØ§Ù Ĭ
ĠØ¨ØŃ Ø¬Ùħ
ºÙ ĬØ¨
ĠØ§ÙĦØ° ÙĥØ§Ø¡
±Ø¨ Ø¹ÙĬÙĨ
ªØµ ÙĦ
ĠØªØ ªØŃ
ĠJ ul
ĠØ§ÙĦÙĥ ÙĨÙĬØ³Ø©
gy pt
ĠB e
ĠÙĦ Ø£Ù
Ĩ ÙĥÙĪÙĨ
ĠÙĤØ¯ ÙĬÙħ
ĠÙĦÙĦÙħ Ø¨ØªØ¯Ø¦ÙĬÙĨ
ĠÙħÙĬ ÙĥØ±ÙĪÙĨ
ĠØª ÙĪØ±
ĠØ§ÙĦØŃØ §Ø¦
ĠØ³ÙĬØ§ Ø³ÙĬ
p en
ĠØ§ÙĦØ¹Ø§Ø ´Ø±
Ø±ÙĬ Ùģ
Ø¬Ø§Ù ħØ¹Ø§Øª
ÙĤÙ ĬÙģ
ĠØ´ Ø¯ÙĬØ¯Ø©
ĠØ§Ø ºØ§ÙĨÙĬ
«Ø§ Ø±Ø©
ĠÙĦÙĦÙĤ ÙĬØ§Ùħ
ĠØ§ÙĦØ£ ÙĦ
ĠØ§ÙĥØªØ ´Ùģ
ĠØ§ÙĦÙĦÙĪØ§ Ø¡
ĠÙģ Ø®
ĠØ£ ÙħÙĪØ±
Ù ĨÙĥÙĪÙĨ
ÙĬØ «Ø§Øª
ĠIn stagram
i y
°Ø ±Ø¨
ĠØ§ÙĦØª ØŃØª
ĠÙĦÙĦÙħØ ¬
Ī Ø³Ùħ
ĠÙģ ÙĩØ¯
ĠØ§ÙĦÙĥ ÙĪØ§
ĠÙĥØ ±ÙĪØ
ĠØ§ÙĦÙĩÙĨØ¯ Ø³ÙĬØ©
ĠÙĦÙĦØ ´Ø±ÙĥØ©
ĠÙĥ ÙĨØ
§ ÙĤØªØµØ§Ø¯
ĠØ¬ ÙĪØ§Ø²
ĠØ§ÙĦÙħÙ ĪÙĤÙģ
Ùģ Ø·
ĠÙĦÙĦØ¨Ø ´Ø±Ø©
ĨØ¨ ÙĬØ§Ø¡
ĠÙħÙ Ģ
ĠØº Ø§ÙĦØ¨Ø§
ĠÙħØ± ÙĬÙħ
ĠÙĪØªØŃ ÙħÙĬÙĦ
ĠØ§ÙĦØ³ ÙĦØ³ÙĦØ©
Ġ ÙħÙģØ±
§ Ø¹
Ī Ø³ÙĪ
ÙĪÙĨ Ø¯
ĠØ§ Ø±Ø®Øµ
Ġ$ ('
ĠØ§ÙĦØŃ ÙĤÙĪÙĦ
ĠÙħØ´ ÙĬØ±Ø§
ight s
ĠØ´ ÙĩØ¯
ĠØ§ÙĦØ£ÙĤ Ø³Ø§Ùħ
ĠØªØŃ ÙħÙĬ
ª ÙħØ±Ø§Øª
ĪÙĬØ ªÙĬ
âĤ ª
ĠÙħØ§Ùĥ ÙĨØ§Øª
ĪÙ ĪÙ
ĠÙ¢Ùł Ù¡
ĠÙĪØ£ ÙħØ§
ĠØ§ÙĦØ·ÙĬ ÙĪØ±
ĠØ§ÙĦØµ Ø±Ø§
ÙĦØ ªØ§
ĠØ£Ø «Ø§Ø«
ØŃØ§ ÙģØ¸
ØŃØ§ Ø¯ÙĬØ©
Ĭ ÙħØ±
ĠØ§ÙĦØ³Ø ±Ø·Ø§ÙĨ
Ø ´ØªØ±Ùĥ
ĠØ¹ ÙĬÙĪØ¨
Ø³ ÙħÙĬÙĨ
µØ ª
ĠØ® Ø±Ø¬
( [
ØµØ§Ø¦ ÙĬØ§Øª
Ġ4 4
ĠØŃ ÙģØ±Ø©
ĠÙĩÙĪØ§ Ø¯Ø©
ĠØªÙĤØ ±ÙĬØ¨
ĠÙĪØ§ Ø¨ÙĨ
ĠØ§ÙĦØ£ ØŃÙĪØ§ÙĦ
ĠØ¨Ù ħÙĥØ©
ÙĤØ ±ÙĬ
P H
ĠÙĦÙ ħØ¹Ø¯Ø§Øª
Ùİ :
´Ø ªØ§
ÙĥØ± ÙĬÙħ
ĠÙĪØ§ÙĦØµ ØŃØ©
ĠØ§ÙĦÙħØ ®ØµØµØ©
ĠØ¨ÙħØ ŃØ§ÙģØ¸Ø©
ĠÙĦÙĦÙĨØ ´Ø±
Ġ ÛĮ
ĠIn tern
±ÙĪÙĨ ÙĬØ§Øª
ĠØªØ °ÙĥØ±
ĠÙĪØ °Ø§Øª
ĠØ§ÙĦÙħØ³ØªØ ´ÙģÙī
ĠØ¨Ø§ÙĦØ§ Ø¶Ø§ÙģØ©
ÙĩØ± Ø³
Ġ ÙĨÙĥÙĪÙĨ
ĠÙģØ§ Ø®Ø±Ø©
ĠÙħÙĨØ¸ ÙĪÙħØ©
ĠØ¹ ÙĬÙĪÙĨ
ĠØµÙĨØ§ Ø¯ÙĦ
ĠØ³ÙĦØ ·Ø©
ĠÙĪÙħ Ø³Ø
ĠN ews
ĠÙħØ ªØ§Ø¨
ĠÙĪØ ®Ø·
ĠØ¬ Ø¯Ùĩ
± Ùĩ
ÙĬÙģ ÙĬØ©
ÙĦÙ ĪØ¯
ØŃ Ø³ÙĨ
ĠØ§ÙĦØµ Ùĩ
Ø´Ø± ÙĪØ·
ĠÙĪØªØ¹ Ø§ÙĦÙī
ĠØ§ÙĦØ¯ ÙĬÙĨÙĬ
ĠØ¹ ÙħÙĬØ¯
Ġ ÙĬÙĪØ§Ø¬Ùĩ
ĠÙĬØ¯ Ø¹Ùħ
ĠØ§ÙĦØ¥ÙĬØ±Ø§ ÙĨÙĬØ©
ĠÙĦÙĥØ§ ÙģØ©
ĠØªØ ´ÙĬ
ĠØ§ÙĦØ¥ÙĨØªØ§Ø¬ ÙĬØ©
ĠÙĩÙĬ ÙĦÙģ
ĠØªØ®Ø ±ÙĬØ¬
ĠÙĬØªØ¹ Ø±Ø¶
Ø·Ø§ Ù
ĠØ§ÙĦØ¨Ø ªØ±ÙĪÙĦ
C O
iz ed
ĠØ§ÙĦØµ Ø¯Ùħ
ØŃØ ªÙī
ĠØ§ÙĦØ£ÙħÙĬØ± ÙĥÙĬ
ĠØ§ÙĦØª Ø¹Ø±ÙĬÙģ
ĠØŃÙĬ ÙĪØ§ÙĨØ§Øª
ĠØ®Ø§ Ø±Ø¬ÙĬ
ĠÙħØ¨Ø§ Ø¯Ø¦
Ġgrind ing
ĠØ§ÙĦØ£ÙĪÙĥ Ø±Ø§ÙĨÙĬØ©
Ø¹Ø§ Ø±Ø§Øª
Ø §ÙĤØªØµØ§Ø¯
ĠØ³ ÙĪØ¡
Ø ±ÙĨ
Ġm t
ĠØ§ÙĨ Ø³
ħ ÙĦÙĬØ§
ĠØ§ÙĦØ¹Ø ´Ø±ÙĬÙĨ
ĠØ¯ ÙĦÙĪ
ĠØ ±ÙĪÙĨ
20 10
ĠØ§ÙĦÙħØ±Ø§ ØŃÙĦ
ĠÙĪÙħØ µ
ĠØ§ÙĦØ¥Ø³ ÙĥÙĨØ¯Ø±ÙĬØ©
ĠØ§ÙĦÙĨØª ÙĬØ¬Ø©
9 1
ĠØ§ÙĦØªØŃØª ÙĬØ©
ĠØ¨ ÙħØ±ÙĥØ²
Ø§ÙĦÙ ħØ³
b o
ĠS ervice
ÙĤÙ ĪÙģ
ĠØ¨ÙĦØ§ Ø·
Ø¬ ÙĩØ§Øª
ĠØªØµØ§ ÙħÙĬÙħ
ĠØªØ ¶Ø¹
ĠÙĪØ§ÙĦÙģ Ù
ec ess
ĠØ§ÙĦÙħØ¹Ø ±ÙĪÙģØ©
ĠØ§ÙĦÙĤØ§Ù ĨÙĪÙĨÙĬ
ĠØ§ÙĦØ¬Ø§ÙħØ¹ Ù
ĠØ§ÙĦØ¬Ø§ÙħØ¹Ù Ĭ
Ġ4 6
ĠM in
ĠØ§ÙĦØ¬Ø²Ø§ Ø¦Ø±ÙĬØ©
et y
ĠÙĩÙĬÙĦÙģ ÙĬØºØ±
µØ± ÙĬØ©
ĠP R
ĠØ§ÙĦÙħÙĨ ÙĩØ¬
ĠÙĤ ÙĦÙĪØ¨
ĠÙĬØ¹Ø§Ù ĨÙĪÙĨ
ĠÙĪØ§ÙĦØ¨ ÙĨØ§Ø¡
ĠØ§Ù ĪÙĦØ§
ĠØ§ÙĦØ§Ø®Øª Ø¨Ø§Ø±
Ø²Ø ª
Ġ ÙĨÙħØ´ÙĬ
ÙĦÙ ĪØ¬
Øµ Ø§ÙĦ
ĠÙĨØ ¸Ùħ
ĠØ§ÙĦØ¯ Ø¹ÙĪØ©
ĠØ¬ ÙĪØ§ÙĦ
Ġ u
ÙĬÙĪ ÙģØ±
ªÙ ħØ©
ĠØ§ÙĦÙĤ ÙĪØ§Ø¹Ø¯
ĠiP hone
ÙĪØ§ Ø·Ø±
Ø§ÙĦÙ ĤØ§
ĠØ§ÙĦØ§Ø¹Øª Ø¨Ø§Ø±
Ø¶ ÙĦ
ĠØ¹ÙĨ ÙĩÙħ
ĠØ§ÙĦÙħØªØ¬ Ø¯Ø¯Ø©
ĠØ§ÙĦÙħØ¹ Ø±Ø¶
ĠÙĪØ§ÙĦØŃ Ø¬Ø±
ÙĨØ¬ ÙĦØªØ±Ø§
ab l
Ø¬ ÙĪØ¡
ĠØ§ÙĦØ¬ ÙĬØ²Ø©
ĠØ§ Ø¶Ø§ÙģØ©
ĠØ¹Ø§ Ø¯
ĠØ§ÙĦØ«Ø§ Ø¨ØªØ©
ĠÙĪÙĦÙ ħØ§
ĠØ§ÙĦÙħØ ªÙħØ¯ÙĨ
ĠÙĤØ§ Ø¯Ø±Ø©
ĠØª ÙģØª
ĠØ§ÙĦÙĨÙĬ ÙĥÙĦ
ĠØ§ÙĦØª Ø¯ÙĪÙĬØ±
ĠÙģ Ø±Ø²
Ø¥ ÙĤØ±Ø£
ĠÙĪØ§ÙĦØ ªÙī
ĠÙĪØ§ÙĦØ§ Ø³ØªØ
ĠØ£Ø¨ Ø¯Ø§
ªÙĪ Ø³Ø·Ø©
ĠØº Ø¯Ø§
ÙĦÙĬØ ¬ÙĬ
Ø¨Ø± ÙĨØ§
ĠØŃØ§ ÙħÙĦ
ĠÙħØ¤ ÙĤØª
ĠØ§ÙĦØ¬ Ø³
Ùİ ØĮ
ĠÙĦ Ø¹ÙħÙĦ
ĠÙħØŃ ÙĪØ±
Ø£ Ø¯ÙĪØ§Øª
ĠØ§ÙĦÙħÙĪØ ¶ÙĪØ¹Ø§Øª
ÙĪØ ·Ø©
ĠØ§ÙĦØª ÙĪØ¸ÙĬÙģ
ÙħØ¬ ÙĬØ§Øª
ĠØ¬Ø¹ ÙģØ±
ÙħØ º
ĠØ§ÙĦØ¬Ø¯ Ø±Ø§ÙĨ
µÙ ĪÙĬØª
ĠØ§ Ø¹Ø±Ùģ
ĠØ§ÙĦÙĪ Ø³Ø§Ø¦ÙĦ
ĠØ±Ø§Ø¦ ØŃØ©
·Ø§ Ø·
ĠØ· Ø±Ø§
ĠØ¬Ù ĪÙĦØ©
ĠÙĥÙĪÙĦÙĪÙħ Ø¨ÙĬØ§
ÙĨØ§ ÙĨÙĬ
ØŃØ² ÙħØ©
ĠÙĪØª ÙĥÙĪÙĨ
it s
®Ø§Ù ĪÙģ
all y
atal og
ĠØ¹ Øµ
ĠÙĪÙĩ ÙĨØ§
ĠÙħØ§Ø± ÙĥØª
Ġ Ø¯ÙĨ
ĠÙħØ ®ØµØµ
ĠÙħÙĨØ ·
ĠÙĦØ£ ÙĥØ«Ø±
ÙĪÙ ħØ¹
Ø¹Ø ±Ø©
ĠPE W
ĠØ§ÙĦØ± Ø¯ÙĪØ¯
Ġs e
ĠØªØ§Ø±ÙĬØ® ÙĬØ©
ĠØ§ÙĨ Ø³ØªÙĤØ±Ø§Ùħ
ĠÙħØªÙĪ ÙģØ±Ø©
ÙĤ Ø·Ø±
ĠØªØ®Øµ ÙĬØµ
ĠØ§ÙĦÙĨØ ²
ÙħØ§ Ø¹ÙĬ
ĠS c
ĠÙĪØ§ÙĦØª ÙĥÙĨÙĪÙĦÙĪØ¬ÙĬØ§
ĠØ§ÙĦØ§ Ø·ÙĦØ§Ø¹
ĠØ§ÙĦØŃ Ø¬Ø±ÙĬ
Ø£ Ø±Ø³ÙĦ
ĠØ§ÙĦÙĥ ÙĦÙī
ÙĪØ§ ÙģØ±
âĢ¦âĢ¦ âĢ¦âĢ¦
ĠØ¢ Ø
ĠØ§ÙĦ Ø¯ÙĨ
®Ø§Ø ±ÙĬØ©
ĠØ§ÙĦØ¨ Ùĥ
ĠÙĤ ÙĪØ§ÙĦØ¨
ĠØ±Ø¬ Ø§ÙĦÙĬØ©
Ġs m
Ĩ Ø¹Ø±Ùģ
ĠØ§Ø®Øª Ø¨Ø§Ø±Ø§Øª
ĠØ¢Ø®Ø± ÙĬÙĨ
ÙĥØª Ùĩ
Ù ĪØ¯ÙĬ
ĠØ§ÙĦØ¬ ÙĩØ©
ĠØ§ÙĦØ²ÙĪØ¬ ÙĬØ©
ĠØ§ÙĦØª ÙĬØ§Ø±
ĠØ´ Ø±Ø·Ø©
ĠØ§ÙĦØ¥ Ø·Ø§Ø±
Ø ªÙĤØ¯Ùħ
Ø´ØªØ±Ø§ Ùĥ
±ÙĬ Ø§ÙĦ
Ù ĨØ¹Ø±Ùģ
Ùĥ ÙĦÙħ
ĠØ¨ÙĨÙģØ³ Ùĥ
ªØ ±ÙĪ
ĠÙĨØ§ Ø¹Ùħ
u ro
ĠØ£ÙĨ Ø¨Ø§Ø¡
ĠØ£ ØµØ§
¤ Ø¯ÙĬ
ĠØ§ÙĦÙħØ°Ùĥ ÙĪØ±Ø©
ĠØª ÙħØ
ĠØ´Ùĥ Ø±Ø§
ĠØªØ´ ÙĩØ¯
ĠÙĬØ¹ ÙĦÙĨ
µÙĨØ¹ ÙĬÙĨ
ĪÙģÙ ĬØ¯
ĠØªØ³Ø¹ ÙĬØ±Ø©
Ø¨Ø§ ØŃØ«
Ø· ÙĨÙĬ
Ġ ÙħØ¹Øª
ĠØª ÙħØ§Ø±ÙĬÙĨ
ªØ§Ù ĨÙĬØ§
ul ar
ĠP r
Ø·Ø§Ø ±ÙĬØ©
ĠG u
ĠØ¨Ùĥ ÙĦÙĬØ©
ĠØ§ÙĦØ£Ùĩ ÙĦÙĬØ©
ÙģÙĬØ¯ Ø©
Ø² ÙĬÙĨÙĪ
ÙĪØ ºØ§ÙĨ
1 20
ĠØ§ÙĦØ§ÙĨØª ÙĤØ§ÙĦ
ĠØ¹ ÙĬØ§Ø±
ĠØ§ÙĦØ °Ø§ØªÙĬ
Ġ ÙĬÙĥØªØ¨
ĠØ§ÙĦÙħÙĪØ§ ÙģÙĤØ©
Ø§ÙĦÙĪØ³ ÙĪÙħ
ĠØ§ÙĦØŃØ§ Ø³ÙĪØ¨
ĠØ¯ ÙĬØ²ÙĦ
ÙĦØª ÙĬÙĨ
ĠØ§ÙĦØª ÙĦÙĥ
ĠØ³Ø ¤
Ø§ÙĦÙ ĬÙĨ
Ø¨Ø§ÙĦØ¥ ÙĨØ¬ÙĦÙĬØ²ÙĬØ©
ĠØª Ø¯Ø§Ù
ĠÙĪØ£ Ø¨
ĠØ¹ ÙĬÙĨØ©
ĠØ§ÙĦÙħØ ´Ø±ÙĪØ¹Ø§Øª
in ess
ĠÙģ Ø§ÙĦ
ĠØªØŃ Ø¯
ĠØ§ÙĦØ³ÙĦØ ·Ø§ÙĨ
ĠØ® ÙĦÙĬÙĦ
ol or
ĠÙĬØ¯ Ø¹ÙĪ
Ġ8 5
ĠØªØ£ ÙĥÙĬØ¯
Ġ200 3
inked In
ĠØ§ÙĦÙģ Ø±ØµØ©
ĠØ§Ø³ØªØ º
Ġ ÙĬÙĦØª
Ø§ÙĦØ ±ÙħØ§ÙĦ
St ep
w a
ĠØ¨ ÙĪØª
ĠÙĦÙĦ ØŃØ§
ĠÙĦÙĦÙģ ØŃÙħ
ĠØ£Ø· ÙĦÙĤ
Ø®Ø± ÙĬÙĨ
ĠÙĬÙĪ ÙħÙĬÙĨ
ĠÙĬØ£ Ø®Ø°
ÙħÙĬÙ ĨØ©
ĠÙĬØ °ÙĥØ±
µ Ø¨
Ī ÙĩØ§
ĠØ§ ÙĬØ±Ø§ÙĨ
Ù ĪÙĥÙħ
ĠØ§Ø®Øª ÙĦØ§Ùģ
Øµ ÙĨØ¹
ĠØ¬ ÙĦØ¨
Ùĩ ÙĬØ²Ø§Øª
Ø¨ ÙĪØ·
ÙĤØ¨ ÙĦÙĬØ©
le ment
Ù ĪØ³ÙĪ
ĠØ¹Ùħ ÙĦØ§Ø¦ÙĨØ§
Â °
ĠØ§Ø³Øª Ø¨Ø¯Ø§ÙĦ
ĠÙĬØ¬ ÙħØ¹
ĠØ§ÙĦØ£ ÙĦÙħ
Ġ Ø³ØªØ±
ÙĦÙĬÙ ħØ©
ĠØ§ÙĦÙħØ® ÙĬÙħØ§Øª
¤Ø §
ĠØ§ÙĦØªØ ·ÙĪØ±
ØµØ §ØŃ
ÙĥØ§ Ø³
ĠÙĦØ °
ĠÙħØ« Ø§ÙĦ
ĠÙħÙĤØ§ Ø·Ø¹Ø©
ÙĦÙĬÙ ĨÙĬ
ĠÙĩ ÙħØ§
ĠÙĦÙĦØ§ Ø
ĠØ¨Ø§ÙĦØ´ Ø¹Ø±
ĠØ·Ø§Ø¦ Ø±Ø©
ĠÙħØ¹Ù Ĭ
ĠÙħØ¤ Ø´Ø±Ø§Øª
Ø¬ Ø¯ÙĬØ¯
ÙĦØ ·Ø§Øª
ĢÙĢ Ø©
ÙĥØ³ Ø¨
ĠÙĪØªØŃ ÙĤÙĬÙĤ
ĠØ³ Ø¹ÙĪØ¯ÙĬØ©
ĠØ²ÙĬÙĨ ÙĬØ«
ĠØ§ÙĦØ§ØŃØª ÙĬØ§Ø¬Ø§Øª
ecess ary
ĠØ§ÙĦØ¥Ø¹ÙĦØ§ ÙħÙĬØ©
s ch
ĠØ§ÙĦØ´Ø§ Ø¨
ÙģØ¶ Ø©
Ø³Ù ĪØ¹
Ø§ÙĦØ§ Ù
ĠÙħØ« Ø§ÙĦÙĬØ©
µØ§ Ø¦ÙĬ
Ø£ Ø®
ĠÙħØ³Øª ÙħØ±Ø©
ĠÙħÙ ĪÙĤ
Ø§ÙĦÙģØ§ Ø
Ø²Ø§Ø® Ø³ØªØ§ÙĨ
ĠØ§ÙĨØ ¸Ø±
Ġ9 5
ĠØªÙħ ÙĦÙĥ
ĠØ¨ÙĦØ§ Ø¯Ùĩ
ÙħØ £
ĠØ·Ùģ ÙĦÙĥ
ĠØ§ÙĦÙħØ³Øª Ø¯Ø§ÙħØ©
²Ø± Ø¹Ø©
Ġ Ù¾
Ø¥ ÙĦÙī
Ġ ÙĪØ³ÙĪ
ĠØ§ÙĦÙħØªØ ·Ø§ÙĬØ±
Ġ ÙĨØ¹Ø±Ùģ
Ī ÙĩÙī
ĠÙĦØªØŃ Ø¯ÙĬØ¯
Ø£ ÙĨØª
d e
Ù ĪÙĨØª
ĠØ³Ø ¬Ø§Ø¯
ĠØ¨ÙĪÙĦÙ ĨØ¯Ø§
Ġ Ø¯Ùħ
ĠØ§ÙĦÙĨ ÙĩØ§Ø±
ĠØ§ÙĦÙħØ¹ ÙĩØ¯
ĠÙĦÙĦ ØŃØ¯
Ù ĪÙĩÙī
¤Ø ªÙħØ±
ĠØ§ ï»
> >
ĠØªØ ªÙĪÙģØ±
ĠÙĦÙĦØªØ ¬Ø§Ø±Ø©
« Ùī
ĠÙĪØ ·Ø§
Ġ: -
Ø®Ø ±ÙĪÙĨ
ĠØ§ÙĦØ§ Ø²
ĠH e
Ø£ Ø¹ÙĦÙī
ĠØ¨Ø§ÙĦÙ ĩ
ØŃ Ø¨Ùĩ
ĠØ§ÙĦÙħØ ¸
ĠØ§ÙĦØ¬ ÙĩÙĪØ¯
ĠÙĦÙħØ ´Ø±ÙĪØ¹
ÙħØ§ Ø¯Ø©
Ġb row
ĠØ§ÙĦÙĥ ÙĦÙĬØ§Øª
ĠØ§ÙĦÙħÙĪØ ²
ĠØ§ÙĦØªÙ ĪØ§ÙĦÙĬ
en er
ĠØ¬ÙĩØ§Ø² Ùĥ
ĠØ¯ ÙĩØ§ÙĨØ§Øª
ª ÙĩØªØ²
ĠÙħÙĪØ ±Ø¯ÙĬ
Ø±Ø ²Ø©
²Ø§ Ø¹
ĠÙħÙ ĪÙħ
ĠÙħØ²Ø¯ ÙĪØ¬
ÙĦÙĬ ÙĦØ§Øª
Ø²Ø§Ù Ĩ
ĠØ§ÙĦØ¹Ø¯ Ø§ÙĦØ©
ĠÙĨØ§ Ù
ĠØ¨ Ø¹ÙĬØ¯Ø§
ĠØ¨Ø±Ø§Ø¯ ÙĬØ´
ĠØ§ÙĦØ¯ ÙĪØ±Ø§ÙĨ
·Ø ±ÙĬØ©
ĠØµ ÙĬØºØ©
Ø ªÙĩØªØ²
ĠØ§ÙĦÙĬ Ø¯ÙĪÙĬØ©
ÙĩØ± ÙĬØ©
Ø¨Ø ¥
ĠØ§ÙĦØ° ÙĥÙĬ
ØŃ ØµÙĦ
ĠØ¬ ÙĨØ§
ĠØªØ ºØ·ÙĬØ©
r en
ĠØ§ÙĦØ·Ø§Ø¦ Ø±Ø§Øª
Ø² ÙĬØ©
ĠØ§ÙĦØ£Ø±Ø¬ ÙĨØªÙĬÙĨ
ØŃ ÙĪÙĨ
Ø£ ÙĪÙĦ
ĠØ§ÙĦÙħÙ ħØ§
ĠD ownload
ĠÙģ ÙĥØ§ÙĨ
Ġ ÙĬØ³Ø
ĠØ§ÙĦØ¥ ÙĨØ¬ÙĦÙĬØ²ÙĬ
ĠØ¨Ø±Ø´ ÙĦÙĪÙĨØ©
ĠØ§ÙĦØ£ ÙħØ§ÙĨ
ĠØ§ÙĦÙģØ ªØ§Ø©
ĠØ§ÙĦÙģÙĬØ³ Ø¨ÙĪÙĥ
ĠØ§ÙĦØ¯ Ø¹
ĠØ§ÙĦÙĦØ§ Ø¬Ø¦ÙĬÙĨ
ĠØ§ÙĦÙģØ ªØŃ
Ø£ ÙĩÙħ
ĠØ´ ÙĬØ±
ĠÙħØ³Ø§ Ø¹Ø¯
ĠØ§ÙĦØ ªØ§Ø¨Ø¹
Ø¨ ÙĦÙĬØ©
ĠÙĬØ¬ Ø¯
ĠØ§ÙĦØ¥ Ø¶Ø§
ĠØ§ÙĦÙħÙ ĩÙĨØ¯Ø³ÙĬÙĨ
ĠØ§ÙĦØŃ ÙĬØ©
ĠÙĦÙ ĪÙĥ
¦Ø§ Ø¨
ĠØ§ÙĦÙħÙĩØ§ Ø±Ø§Øª
ĠØ§ÙĦØ§ÙĨ Ø¯Ø±ÙĪÙĬØ¯
ĠØ£ ÙĦÙĪØ§ÙĨ
ĠØ§ÙĦØŃ ÙħÙĬØ¯
ºØ °ÙĬ
Ø±Ø ¬Øª
ĠØ§ÙĦØ¥Ø ±ÙĩØ§
ĠÙĦÙ ĬÙĥÙĪÙĨ
ï» ¨
ĠØ§ÙĦØ§ Ø®Ø±Ùī
ĠØ§ÙĦÙħØª Ø¹Ø¯Ø¯Ø©
ĠÙĬØ ¶Ø¹
C om
ĠØ§ÙĦÙĤ Ø±Ø§ÙĨ
ĠØ£ÙĪ ÙĤØ§Øª
ĠØ§ÙĦÙĤ Ø±Ø§Ø±Ø§Øª
µ Ø¨ØŃ
°Ù ĪÙĤ
ĠØ³ÙĬ ÙĪØ±
Ùģ ÙĬØ
ĠØ§ÙĦØ¢ ÙĦØ©
ĠØ¥ Ø®Ø
ĠØ¹ ÙĨØ§ÙĪÙĬÙĨ
ĠØ§ÙĦØ·Ø± Ùģ
ĠÙħØ² ÙĬØ¬
Ī Ø¨Ù
ĠØ¨Ø§ÙĦÙ ħØ§Ø¡
ĠØ§ÙĦØ¶Ø ±
ĠØ¥ Ø¬Ø§Ø¨Ø©
ĠØ®Øµ ÙĪØµ
ĠØµØ§ Ø¨ÙĪÙĨ
ĠØ§ÙĦØ£ Ø³Ø·
ĠD e
Ø§ÙĦØ °
ĠØªÙĪÙĬ ÙĪØªØ§
ĠØªØ£ Ø®Ø°
ĠB y
· ÙĦØ¹
ÙĪØ§ Ùĩ
ĨÙ ĬÙĦ
ĠØ§ÙĦØ¨Ø ·ÙĪÙĦØ©
ºØ§ÙĨ Ø³ØªØ§ÙĨ
ĠÙĨØ ±Ùī
ĠØ§ÙĦØ£ ÙĨØ¸ÙħØ©
ĠØªÙĤ Ø¯ÙĬ
ØŃØªØ±Ø§ Ù
ØŃØªØ±Ø§Ù ħ
ĠÙĬÙħÙĥÙĨ Ùĩ
Ġc s
ĠD r
ĠØ¨Ø§Ø ±Ùĥ
ĠØ¥Ø «Ø±
ĠÙģ Ø±ÙĬØ¯Ø©
ĠØ§ÙĦØªØ¯Ø±ÙĬ Ø¨ÙĬØ©
ĠØ·Ø ±
ĠPost s
ĠØ¨Ø ªÙĪÙģÙĬØ±
ĠØ§ÙĦØ´Ø§Ù Ĭ
ØŃ Ø³Ø§Ø¨
ÙĥØ§ ÙĬØ©
Ø ¸Ø±
ĠØ§ÙĦØ¨ Ø§ÙĦØº
es in
ĠØ§ÙĦÙģØ§ Ø
ĠØ§ÙĦØ«Ø§ ÙĨÙī
ÙĬØ ²ÙĪ
ĠØ§ÙĦÙħ ÙĥØª
ØµÙĬ ÙĦØ©
ØªØµ ÙĨÙĬØ¹
ĠØ³ØªØ ¬Ø¯
Ø³ØªØ± Ø¯Ø§Ø¯
ĠÙĪÙĨØ ´
ĠØ§ÙĦÙĤØ§ Ø
ĠØ¨Ø§ÙĬ Ø¯ÙĨ
ĠØ§Ø³ØªØ® ÙĦØ§Øµ
ĩÙ Ĩ
Ø¶ ØŃ
ĠÙĬØ¨ ÙĤÙī
Ù ĬÙĤÙĪ
ĠÙħØª ÙħÙĬØ²
ĠØ§ÙĦÙħØ ¬ØªÙħØ¹Ø§Øª
ĠØ¨ Ø±Ø§Ø
Ø¨ Ø¹Ø§Øª
ÙģØ§ Ø±Ø§Øª
ĠØ§ÙĦØ®Ø ´
Ø¥ ÙĨØªØ§Ø¬
Ù ħØ¨ÙĨÙī
ĠÙĦÙĦØªØ£ Ø¬ÙĬØ±
ĠØ§ÙĦÙħØ¹ ÙĦÙħ
Ø³Ù ĪØ³
ĠÙĩÙ ĨØ¯ÙĬ
pl ete
ĠØ¨Ø§ Ø¨Ø§
¤ ÙĥØ¯
âĤª âĢ¢
ĠÙĬØ¹Ø ·ÙĬ
ĠØ§ ÙĬØ§Ùħ
Ø §Ø¹
ÙĩØªØ²Ø§ Ø²ÙĬ
Ġ ÙĬØ¯ÙĬ
C M
ĠØ§ÙĦØ¥ Ø¨ØªØ¯Ø§Ø¦ÙĬ
ĠÙĪØ ¸
ĠØ³ÙĬ ÙħÙĪÙĨØ²
ĠÙģØ£ ÙĨØª
ĠØ¬ ÙĩØ§Øª
Ø³ ÙĤ
ĠØ§ÙĦØªÙĨ Ø³ÙĬÙĤ
ØŃÙ ĬÙĤ
ĠØ§ÙĦÙħØ¹ ÙĨÙĬØ©
ĠØ§ÙĦØ±Ø ¬Ø§Ø¡
Øµ Øµ
ĠÙĦÙĦ Ø£ÙĪÙĦØ§Ø¯
ĠØªÙĪ ÙĤÙĬØ¹
ĠØªØ· ÙĦÙĤ
ĠØ¹Ø¯ Ø¯Ø§
y d
ĠØ§ÙĦØ¹Ø ²ÙĦ
ĠÙĨØ ¸Ø§ÙģØ©
ĠØ¨Ø§ÙĦØª ÙģØµÙĬÙĦ
ĠÙħÙĤ Ø·Ø¹
in s
ĠØª ÙĪØ¶ÙĬØŃ
ĠØ§ÙĦØ£ Ø¶
ĠØ§ÙĦØ¶ ÙĪØ
Ø¹ÙĪ Ø¨Ø§Øª
ĠØ§ÙĦØ· ÙĪØ§ØŃÙĬÙĨ
ĠØ¥ÙĬØ¬Ø§ Ø¯
ÙħØ ±Ø
ĠØ§ÙĦØ¬ ÙĬØ¯
Ġ4 3
µ Ø±Ø©
ĠÙħØ ´Ø±ÙĪ
ĠÙĥ Ø¨Ø±
ĠØ ²Ø
ÙĨØ§Ø ªØ§
' )
ØŃÙ ĬØ¨
Ġ Ù±
ĠØ§ÙĦØ´ ÙĩÙĬØ¯
y z
ĠØ§ÙĦØªØ¹ÙĦÙĬ ÙħÙĬ
ĠÙĪÙĦÙ ĬØ¯
ÙĪÙĬ ÙĤÙĬØ©
ÙģÙ ĪÙĦØ©
Ùı ØĮ
¦ ÙĪÙĦÙĬØ©
ĠÙģØ§Ø¦ Ø¯Ø©
ĠØ¹ ØµÙĬØ±
ĠØªÙ ĪÙĥ
Ø¹ ÙĦÙĥ
ĠÙĪØ£ Ø´
ĠØ§ÙĦÙĨØ® ÙĬÙĦ
ĠØ£ÙĤ Ø³Ø§Ùħ
ĠØ§ ÙĥØªÙĪØ¨Ø±
ĠØ§ÙĦÙĥÙ Ī
ĠØ·Ø§ØŃ ÙĪÙĨ
ĠÙĪØªØµ ÙħÙĬÙħ
âĹ ı
Ù ĨÙģØ
ÙĥÙĬ Ùĥ
ĠØ¨Ø ±Ø³
Ø³ØªØ®Ø¯ ÙħÙĬÙĨ
ĠØ£ØŃ Ø¨
ĠØ§ÙĦÙĨØµ ÙĪØµ
ĠØŃ Ùĥ
ĠÙħØ °ÙĥØ±Ø©
ĠØ¨ØŃ ÙĦÙĪÙĦ
Ĩ ÙĪØ§Ø¹
Ùĩ ÙĪØ±Ø©
Ø±Ø§Ùģ ÙĬØª
ĠØ¨Ù ĪÙħØ§
ĠØ§ÙĦØ¹ ÙĪØ§
ĠÙĪÙħØ ªØ§ÙĨØ©
ĠÙĦÙĦØ³ ÙģØ±
ĠØŃØ ¸Ø±
ĠÙĪØ§ÙĦÙ ĤØ
ĠÙĪÙĤ Ø·Ø¹
Ù ĪØ¨Ù
ĠØ¨ÙħÙĨØ ·ÙĤØ©
b ox
ÙĤÙ ĪÙĦÙĩ
Ø¨Ù ĪÙĤ
ĠØ§ÙĦ Ø³Ø·ØŃ
ĠÙĦÙĦØµ ÙĨØ§Ø¹Ø§Øª
re ad
ĠÙĪØ· ÙĨÙĬØ©
Ġ ï¿½
ĠØŃ ÙĤÙĬÙĤÙĬ
ã ĥ
Ĭ Ø¹ØªÙĤØ¯
ĠÙĪØ§ÙĦØ ±ÙħÙĦ
ĠÙĪØ§ÙĦÙĦ Ø
ĠØ§ÙĦØª ÙĨØ§
ĠÙĪÙĬ Ø¹ØªØ¨Ø±
ªØ ´Ø±
Ù ĬØ¹ØªÙĤØ¯
ĠØªÙĨØ ´
Ù ĪØ©
ĠÙĦÙĬØ ª
ºØ ´
¶Ù ĬØ¹
ÙħÙĬØ µ
ĠØ¥ Ø¹
Ġ ÙĪØ¯Ø§
ĠPol icy
ĠØ¹ ÙħÙĪØ¯
ĠØªØµØ± ÙĬØŃØ§Øª
ĠØ±ÙĬ Ùģ
ÙĦØ§ ÙĬØ§Øª
ĠØ¨Ø§ÙĦÙ ĤØ§ÙĩØ±Ø©
P ost
ĠØ³ÙĪØ³ Ùĩ
ĠÙħÙĪØ³ ÙĥÙĪ
ĠØ³ Ø¨Ø¹
ĠÙĪØªØŃ Ø¯ÙĬØ¯
Ġm ay
ħ Ø¯Ø®ÙĦ
ĠSh anghai
ĠØ§ÙĦÙħØ¹ ÙĨÙī
ĠØ¨ Ø·Ø§Ø±ÙĬØ©
ÙĬØ§ÙĨ Ùĩ
ĠÙģØ¹ Ø§ÙĦÙĬØ©
ĠØ£Ø¹ ÙĦÙħ
ĠØ¬ ÙĪØ±
ÙħÙĪØ ±Ø¯
ĠØªØ¨ ÙĤÙī
ÙĨØ¬Ø§ Ø²Ø§Øª
ĠØ³ ÙĦÙĪÙĥ
ÙĪØ±Ø º
ĠØ´Ø§ ØŃÙĨØ©
l ay
ª ÙĨØ¸ÙĬÙģ
Ġa f
ers on
ĠÙģ Ø¨
ĠØ§ÙĦÙħØ±Ùĥ Ø¨Ø§Øª
ģ Ø
Ġ8 2
ĠØ§ÙĦØ¨Ù ĨÙĬØ©
Ø· Ø±Ø©
ĠØ´Ùĩ Ø¯Øª
ĠÙħÙĪÙĤØ¹ Ùĥ
Ø¹ Ø¨ÙĬ
Ù ĪØ¹Ø¯
Ġ ÙĪÙĩÙī
ÙĬØ °
ĠØ¨ÙĪØ ¬ÙĪØ¯
ĠØ§ÙĦÙħØŃØ§ ÙģØ¸Ø§Øª
ĠÙĥ ÙĪØ
Ġht tp
Ĭ Ø¹Ùħ
ĠØ§ÙĦÙĬ ÙĩÙĪØ¯
ĠØ§ÙĦØ£Ø¨ ØŃØ§Ø«
ĠØ§ ÙħØ§ÙĥÙĨ
ĠØ£Ø³ Ø³
Ġ ÙĬÙĤÙĪ
ĠØ¨Ø¹ ÙĨØ§ÙĬØ©
Ī Ø¹Ùħ
ĠØ¬ ÙĬØ±
ÙħÙĦØ§ ØŃØ¸Ø§Øª
ĠØ§ÙĦØ´Ø± ÙĤÙĬ
ĠØ§ÙĦØ¥ ÙĦØ²Ø§
Ù ĬØ¹Ùħ
ĠØ§ÙĦØ µØ§Ø¯Ø±
Ù ĪØ¹Ùħ
ĠØ§ÙĦØŃØ±Ø§Ø ±ÙĬ
ĠØµ Ø¯ÙĪØ±
ĬÙ ĬÙĨ
ĠÙħÙĥØ ªÙĪØ¨
Ø§ÙĦÙħØ§Ø ª
ĠØ¯ Ø³Øª
Ø¬Ø§ Ø¨Ø§Øª
ĠØ§ÙĦØ£ØŃ ÙĦØ§Ùħ
ĠØªÙĤ Ø³ÙĬÙħ
ÙĬÙ ĪØ¹
·Ø± Ùģ
ĠØªØ³Ø§Ø¹Ø¯ Ùĥ
Ġ ÙĨØ³ØªØ®Ø¯Ùħ
âĢİ .
ĠÙģÙ ĪÙĦ
ĠÙĦÙĬØ ±Ø©
ĠØ§ÙĦØ¹ÙħÙĪ ÙħÙĬØ©
ĠØ£Øº ÙĨÙĬØ©
Ø ªÙĨØ¸ÙĬÙģ
A n
a a
Ġwh ich
Ġad min
ĠØ· ÙĬØ±Ø§ÙĨ
ĠØ§ÙĦØ£Ø± ÙĤØ§Ùħ
§ Ø®Ø±
ĠØ§ÙĦÙģ ÙĪÙĦ
ÙĪÙĤ Ø§ÙĦØª
ĠØ§ÙĦØª ÙĪØµÙĬÙĦ
ĠÙĥ ÙĪØ§
ĠØ§ÙĦØ´ ÙĩØ§Ø¯Ø©
ĠÙĦØª Ø¹Ø²ÙĬØ²
ĠÙĪØ§ÙĦØ¹ Ø§ÙĦÙħ
ĠØ¨ÙĬ ÙĪØª
ÙĬÙĨØ «
Ø±Ø£ Ù
ĠØ¬ ÙĦÙĬ
ĠÙģØ¥ÙĨ ÙĩØ§
ĠØ§ÙĦØ¶ ÙħØ§ÙĨ
ĠØ§ÙĦØ³ Ø¹Ø§Ø¯Ø©
ĠØ§ÙĦÙĬÙĪ ÙĨØ§ÙĨ
ØªØ§Ø¨Ø¹ ÙĨØ§
Ø§ÙĦØ´ ÙĬØ®
ĠØ¨ Ø¯ÙĬÙĦ
ĠØ§ÙĦÙħÙĨØ§ ÙģØ³Ø©
ĠØ§ÙĦÙħØµÙĨØ¹Ø© WhatsApp
ĠÙĪØ§ÙĦ Ø¹ÙĦØ§
ĠØ´Ø ¤ÙĪÙĨ
-------- --------
ĠÙĦÙĦÙħØ ±Ø©
ĠØ§Ø³ØªØ ´
ÙĦÙĬØ µ
ĠÙĪØ¥ Ø¯Ø§Ø±Ø©
ĠØ§ÙĦÙĦÙĬ ÙħÙĪÙĨ
ĠF eb
ĠØ´Ø®Øµ ÙĬØ§Øª
ĠØ§ÙĦÙĤØ§ Ø¹Ø¯Ø©
ĠØ§ÙĦØ®Ø ²Ø§ÙĨØ§Øª
ĠØ§ÙĦØ£ÙĪ ÙĦÙĬ
ĠÙĦØªØ ´
ĠØ§ÙĦÙĨ Ø¨ÙĪÙĬØ©
ÙĥØ§Ù Ĭ
ĠØ¥ ÙĨØ¬Ø§Ø²
ĠÙĨØ§Ø ±
Ġï´ ¿
ØªØ¹ÙĦÙĬ ÙĤØ§Øª
ĠØ§ÙĦÙħØ¬Ø§ ÙĨÙĬ
Ø§ÙĦÙ ĬØ¯
ĠØ³ÙĬÙĨØ§ Ø¡
ĠØ§ÙĦÙģÙĦØ³Ø· ÙĬÙĨÙĬÙĬÙĨ
Ø¨Ø§ Ø±Ø§
ÙħØ§ Ø¹Ø©
Ù¥Ù ł
c ent
ĠØŃØ ±ÙĬØ©
ĠØ§ÙĦØªØ§ Ø³Ø¹Ø©
ĠM icro
ĠØ§ÙĦÙĤ Ø±Øµ
ĠØ§ÙĦØ´Ø®Øµ ÙĬØ§Øª
ĠÚ© Ø
ĠØ¨Ø§ÙĦÙħÙ ħÙĦÙĥØ©
ĠÙģ ØŃØ³Ø¨
Ø§ÙĦÙĤØ §Ø¦ÙħØ©
ĠØ§ÙĦØª ØŃØ¶ÙĬØ±
ĠØ¯ ÙĩØ§ÙĨ
ĠØ³Ùħ Ø¹Øª
Ĥ Ø¯
ÙĢÙĢ Ø
ĠØ§ÙĦÙĤ Ø¶Ø§Ø¦ÙĬØ©
L ive
Ø¯Ø±ÙĬ Ø³
Ġ ÙĬØ¹Ùħ
ĠØµØŃ ÙģÙĬ
ĠØ§ÙĦÙħÙĩ ÙĨÙĬ
ĠÙĦÙ ĪØ³
ĠÙĥØ§ Ø±Ø¯
Ø§ÙĦÙ ħØ©
ĠØ³Ø ªÙĪÙĨ
Ø¹Ø§Ù ĨØ©
ĠØ§ÙĦÙħØ±Ø§ Ø¯
· Ø§ÙĦ
ook s
ÙĤ ÙĩØ§
Ġar ab
ĠØ§ÙĦØµØŃØ§ Ø¨Ø©
ÙĦÙĬÙ ĪØ¨
ĠÙĦØ¥ Ø¯Ø§Ø±Ø©
ĬØ ²Ø±
ÙģØ ±Ø¯
Ù ĨÙĪØ§Ø¹
ÙģØ ªØ±
Ø §Ø®Ø±
ĠØ§ÙĦØ¨Ø§ØŃØ« ÙĬÙĨ
ĠØ¨Ø£ Ø
ĠÙĪØ¢ ÙĦÙĩ
ĠØ¥ Ø·
ĠÙĦÙĦØ· ÙĦØ§Ø¨
µØ§ ÙħÙĬÙħ
ĠØ§ÙĦØ· ÙĦØ§ÙĤ
Ø·Ø §Ø¦
Ù ħÙĦÙĬØ§
ĠØ§ÙĦÙĨØ§Ø´Ø ¦Ø©
ĠØ§ÙĦÙĨØ µÙģ
ĠÙĪÙħØ ·ØŃÙĨØ©
ĠÙĥÙ ĪÙģÙĬØ¯
ĠØ§ÙĦÙĤ Ø¯Ø±
ĠØ§ÙĦØ· ÙĦØ¨Ø§Øª
ĠØ§ÙĦØ±Ø ¶Ø§
ĠCN C
ĠØ±Ø ®ÙĬØµ
Ø¹ Ø§ÙĦÙħ
ĠØ® ÙĦØ§Ùģ
ĠØ§Øµ ÙĦØ§ØŃ
ÙĬÙĨØ§Ø± ÙĬÙĪ
²Ø§Ù ĪÙĬØ©
Ġv ar
ĠÙĤ ÙĦØ¨ÙĬ
ĠØ´ÙĬØ ¦
ĠÙĦØ ¥ÙĨ
ĠØŃØ ¸
ĠØ¨ÙħØ ®ØªÙĦÙģ
ĠØŃØ§ ÙĪÙĦ
ĠÙħÙ ĪÙĨ
Ĭ ÙĩØ¯Ùģ
Ġ1 30
Ø¯Ø§ ÙģØ¹
Ġal so
Ù ĬÙĩØ¯Ùģ
ĠE quipment
ĠØªÙĥØ± ÙĬØ±
ĠØ§ÙĦØ° ÙĥØ±Ùī
o on
ĠÙĩ ÙĬØ±
ĠØ¨ÙĦØ§ Ùĥ
Ø¬Ø± ÙĬÙĨ
ĠØ¶Ø ±Ø¨
C l
ĠØ§ÙĦØ µÙĨØ¯ÙĪÙĤ
ØªØ ®Ø§Ø°
ĠØ§ÙĦØ³ ÙĥÙĨÙĬØ©
ÙģÙĬ Ùĥ
ĠØ§ÙĦØªÙĥ Ø§ÙĦÙĬÙģ
ĠØ¨Ø§ÙĦØ¹ Ø¯ÙĬØ¯
ĠØªØ±Ø ®ÙĬØµ
Ø±Ø§ ÙħØ§Øª
ĠÙħØ ¬Ø
ĠØ® ÙģØ¶
ĠÙħØª ÙĪØ§
ĠØ¥ÙĬ ÙħØ§ÙĨ
ĠØ¨Ø§ Ø±Ø¯
ĠØ§ÙĦÙĤØ· Ø·
ĠØªØ®Ø ªØ§Ø±
ĠØ§ÙĦÙĬ ÙħÙĨÙĬ
ĠÙħÙĪØ ¶Ø¹
ĠØ§Ø³Øª Ø¹Ø§Ø¯Ø©
us iness
Ø§ÙĦÙħÙ ĪØ±Ø¯ÙĬÙĨ
ħ ÙĦÙĩ
ĠØ§ÙĦÙĨÙĪÙ ĪÙĬØ©
ĠØ®ÙĦØ§ ÙĬØ§
§ Ø¶ØºØ·
ĠÙĪØª ÙĨØ¸ÙĬÙģ
Ġ7 00
Ø §Ø¶ØºØ·
Ġ4 7
ØµØ§Ø ±
Ùģ ÙĩØ§
ĠØ§ÙĦØŃØ§ ÙħÙĦ
Ø§ÙĦÙģØ§Ø ª
ĠØ§ÙĦØªÙĪØ§ Ø¨ÙĦ
ØµØ§Ø¦ Ø¯
ĠØ±ÙĪØ§ Ùĩ
ĠØ§ÙĦØ·Ø¨ ÙĤØ©
ĠÙĬØ¹Ø ¬
ĠØ§ÙĦÙħØª Ø¯Ø§ÙĪÙĦ
ĠÙĦØ¹ Ø¯Ùħ
ÙĦÙ ĨÙĬ
ÙģØ§ Ø¹ÙĦ
ÙĬØ ¦
ĠØ§ÙĦÙģØ ªØ§ØŃ
ÙħØ µØ§ÙĨ
ĠØ£Ø² ÙĬØ§Ø¡
ĠÙĪØ§ ÙĬØ¶Ø§
Ġsu pp
ÙĪØ§ÙĦØ §
ĠÙĪØ§ÙĦÙħØ ¬ØªÙħØ¹
ĠØ·Ø¨ ÙĤØ©
ĠØ§ÙĦØ§ ÙĤ
ĠÙĦÙĦØ ªÙĨÙħÙĬØ©
ÙĦÙ Ģ
ĠÙģØ ±ÙĬØ
ĠØ´ Ø¯
ĠÙħØº ÙĦÙĤØ©
ĠØ¨ÙĦ Ø¯ÙĬØ©
ĠÙģ ÙĦÙĪØ
am es
ĠØ£ÙĨÙģØ³ ÙĩÙħ
ÙĦØº Ø©
ĠØ§ÙĦØ³Ø§ Ø¹Ø§Øª
ic le
ĠØ§ÙĦØ´ ÙĬØ·Ø§ÙĨ
ĠØ´ Ø±Ø·
Ø¬Ø ²Ø±
Ø« ÙĬØ±Ø§Øª
ĠØ§ÙĦØ ²ÙĬÙĪØª
Ġon e
ĠÙĬØ ±Ø¬Ø¹
ĠØ¨Ø§ÙĦØªØ £ÙĥÙĬØ¯
ĠØ¶Ø ®ÙħØ©
ĠØ¨Ø±Ø§ Ø¨Ø·
Ø§ÙĦÙģ ØµÙĦ
Ġ ÙĪØ¹Ùħ
ªÙ ĨØ©
S S
ĠÙģ Ø¹ÙĦØ§
Ġg o
ï ´
ĠØ§ÙĦÙĥ Ø¨Ø¯
Ġ ÙĪØ¨Ù
ÙĤÙģ Ø§ÙĦ
ªÙĪ Ø³Ø·
Ø£ Ø¨ÙĪ
Ĩ ÙĤÙĪÙĦ
ĠØ£Ø³ ÙĩÙĦ
Ġ ÙħØ¨ÙĨÙī
ĠØ§ÙĦÙĪØ ¸ÙĬÙģØ©
evel op
ir st
ª Ø¹Ø¯
ħØ¯Ø§ Ø¯Ø§Øª
ĠØºØ°Ø§ Ø¦ÙĬØ©
ĠÙħØ ¸ÙĩØ±
ĠÙĪØ ®Ø§Ùħ
âĢĶ âĢĶ
ĠÙĪØ§ÙĦÙ ħØ¨ÙĬØ¹Ø§Øª
§ Ø·ÙĦØ¨
ĠØ£ Ø±Ø´ÙĬÙģ
ªÙĪÙħØ§ØªÙĬ Ùĥ
ÙĦ Ø¹Ø¨Ø©
Ø §Ø·ÙĦØ¨
{ {
Ùģ ØµÙĦ
ĠIm age
ĠL e
ĠSu pp
E mail
ĠØ¥ÙĨ Ø³Ø§ÙĨ
ĠØ¢ Ø¯Ùħ
ĠØ§ÙĦØ· ÙĬØ¨
ĠÙĦØ® Ø¯ÙħØ©
Ùģ Ø¨Ø±Ø§ÙĬØ±
ĠØ¹ÙĨØ¯ Ùĩ
ĠØ§ÙĦØªØ± ÙĥÙĬØ¨
ĠÙĩØ§Ù ħ
ĠØ³ØªØ§ ÙĬÙĦ
ĠØ§ÙĦØ¯Ø³Øª ÙĪØ±
Ġ ÙħÙĦÙĬØ§
ÙĦÙģ Ù
Ø¹Ø§ ÙĤØ©
ĠÙĦØ ®Ø
Ø³ ÙĪØ±Ø©
ĠØ§ÙĨ ÙħÙĬ
ĠØ§ÙĦÙħØ® Ø¯Ø±Ø§Øª
ĠØªÙĨØ§ Ùģ
Ð ¹
ĠØ¹ ÙĬÙĨÙĬ
ØµÙĦ Ø¨
ĠØ§ÙĨØª ÙĩØ§
ĠØ£Ø· ÙĪÙĦ
ÙĪØ§ ØŃ
ĠÙħØ§ Ø³ØªØ±
ĠÙĤ Ø¶Ø§Ø¡
Ġ ÙĪØ¯ÙĬ
ï» ł
ĠØ¥Ø °ÙĨ
ĠØ§ÙĦÙħÙĩ Ø¯ÙĬ
ĠØ§ÙĦØ° ÙĥØ±
G oogle
ĠÙħÙĪØ±Ø¯ ÙĬÙĨ
ĠØ¯ ÙĪØ§Ø¡
ĠÙĪÙĬØ ´
ĠØ±ÙĪØŃØ§ ÙĨÙĬ
Ù ĪÙĦØª
ĠÙĦ Ø¹Ø
ĠØ§ÙĦÙħØµØ± ÙĬÙĬÙĨ
Ø¯Ø§ Ø¨ÙĬØ±
ĠØ¹Ø§ ÙħØ±
ĠØµ ÙĦ
ran sl
ĠÙĬØ³ Ø¹Ùī
ar ab
ĠÙģØ¥ÙĨ ÙĨØ§
ĠØ§ÙĦÙĤØµ Ø¯ÙĬØ±
ĠÙĪØ§ÙĦÙ ĪØ§
ĠØ§ÙĦÙĨ Ø¨Ø§ØªÙĬ
ĠØª Ø¯Ø±
Ø±Ø ¶Ø§
Ġtal king
ĠØ¨Ø§ÙĦØ °ÙĥØ±
ĠØ¨Ø§ ÙĪØ±
ĠØ¬Ø± ÙĬÙħØ©
ĠÙĪØ§ ÙĬØª
ĠØ§ÙĦØªØŃØ¯ ÙĬØ§Øª
Ø ªØ¹Ø¯
Ø³Øª ÙĩØ§
ĠÙħÙĥØ§ Ø¦ÙĨ
ĠØ§ÙĦØ£Ø± Ø¯ÙĨÙĬØ©
ĠÙĪØµ ÙģØ©
et s
Ø§ÙĦÙ ĬÙħ
ĠØ§ÙĦØ£ ØŃØ§Ø¯ÙĬØ«
ĠØ§ÙĦØ§ Ø·
ĠØ¹ Ø´Ø±Ø§Øª
ĠØ¨ ÙĪØ¶Ø¹
ĠA pr
ĠÙĥ Ø¨Ø±Ùī
Ù ħØ¯Ø®ÙĦ
Ĭ ÙĤØ±Ø¨
ĠØ¯ÙĪ ÙĦÙĬ
ĠÙħÙĪØ§ Ø±Ø¯
ŃØ ªÙĪÙī
±ÙĬØ ªØ§ÙĨÙĬØ§
Ù ĬÙĤØ±Ø¨
ĠØ¸ Ø¨ÙĬ
Ù ĬÙħØ±
ĠÙĨØ ªØ
Ġj aw
ÙĬØ ±Ùī
ĠØ§ÙĦØ¹Ø¶ ÙĦØ§Øª
ĠØ§ÙĦÙģÙĬØ¯ÙĬÙĪ ÙĩØ§Øª
it ies
Ø®Øª ÙĦØ§Ùģ
Ġv is
Ø·Ù ĨØ©
ĠØ§ÙĦØ§Ø¨ ÙĬØ¶
ĠØ£ØŃ ÙĬØ§ÙĨØ§
ĠØ§ÙĦÙĤØµ ÙĬØ±Ø©
ÙģØ ±ÙĪ
Ø³ ÙĬØ·
ĠÙĦØ§Ø ®Øª
ĠÙĪØ³ Ø¹Ø±
µØ ±ÙĬÙģ
Ġ ÙĬÙĤØ±Ø¨
ĠØ§ÙĦÙĬ ÙħÙĨÙĬØ©
ĠØ¥ ÙĦØ®
ĠØ¨ ÙĪØªÙĬÙĨ
ĠÙħØ ¦Ø§Øª
ĠØ§ÙĦØ¥ Ø¹
y m
ĠØ§ÙĦÙħÙĪØ ±
ĠØŃ ÙĦØ¨
ĠÙħØ« Ø§ÙĦÙĬ
ÙģÙ ĪØ³
ĠØª ÙĤØ§
Ùģ Ø¹Ø§Øª
ÙģØ§ Ø¯Øª
ĠØ§ ÙħØ±ÙĬÙĥØ§
ĠØ§ÙĦØªØ ´ÙĬ
ĠØ§ÙĦØ£Ø² ÙĬØ§Ø¡
ĠÙĥ Ùģ
P ro
ar b
ÙĪØ§Øª ÙĬØ§
ĠÙĪØ§ÙĦØ¹Ø ´Ø±ÙĪÙĨ
o ff
Ø®Ø ·Ø©
ĠØ³ ÙĦ
ĠØ§ Ùĩ
Ø¨Ø§ ÙĬØª
ĠØ§ÙĦÙĤ ÙĬØ§Ø³
Ø§ÙĦÙħÙ ĨØ§
ĠÙģØ§ Ø±Ø³
ĠØ§ÙĦØ§ØŃ Ø¬Ø§Ø±
Ø¯Ø «Ø§Øª
ĠØ§ÙĦØ£Ø³ ÙĦØŃØ©
ĠØªØ§ Ø¨Ø¹Ø©
ÙĤØ³ ÙĬØ·
ĠÙħØ¤ Ø
ĠÙĪØ¬ Ø¨Ø©
ĠØ±Ø§ Ø´Ø¯
ĠØ§ÙĦØ ªÙħ
ĠÙĨØ´ Ø±Øª
ĠØ§ÙĦØ· Ø¨Ø§Ø¹Ø©
ĠÙĪÙĩ ÙĥØ°Ø§
av ig
ĠØ§ÙĦØ³Ùģ ÙĬÙĨØ©
ĠØ§ÙĦØŃÙĬ ÙĪØ§ÙĨ
ÙĦÙĪØ ª
ĠÙĦØ§ Ø³ØªØ®Ø±Ø§Ø¬
ĠØ§ÙĦÙĨ ÙĩØ¶Ø©
ĠØ§ÙĦØ¥ ÙĬØ·Ø§ÙĦÙĬØ©
ĠØ§ÙĦÙĨØ ¸
ÙģÙĬ ÙĩÙĬØ©
ĠÙĬØŃ ÙĤÙĤ
ĠØ§ÙĦÙĪØ ±Ø¯
ĠØªØŃ ÙĪÙĬ
ĠÙħØ® ÙĦÙģØ§Øª
ĠÙĤ ÙĬÙĦ
ĠØ§ÙĦØªÙĪÙĨ Ø³ÙĬ
b ack
ĠÙĪØ§ÙĦØŃ ØµÙĪÙĦ
Ø¨Ø§ Ø¦ÙĨ
ÙĤØª ÙĬÙĨ
ĠØ§ÙĦÙĨØ µØ§Ø¦ØŃ
Ø¹Ø¯Ø§ Ø¯ÙĬ
ĠN ext
ĠØ£Ø ±Ø¯
Ø¶Ø§ ÙģØª
ĠÙĪØ§ Ø¬ÙĩØ©
ĠÙħÙĨ ØŃØ±Ùģ
ĠØ¨Ø± ÙħØ¬Ø©
ĠØ§ÙĦÙħØ¹Ø§ Ø±Ø¶Ø©
ĠØ¨Ø¨ Ø³Ø§Ø·Ø©
Ø°Ø§ Ù
ĠÙħØ§ Ø²
ĠØ±Ø µÙĬØ¯
ĠÙħØŃØ ªÙĪÙĬØ§Øª
ĠØ´Ø®Ø µØ§
c ont
ĠÙĪØªØŃ Ø³ÙĬÙĨ
ĠÙħØ§ ÙĥØ³
ĠÙĪØ§ÙĦ Ø¨ØŃÙĪØ«
ØŃ Ø§ÙĦØ©
ĠÙħÙĦØ§ ØŃØ¸Ø©
Ø§ÙĦØ® ÙħÙĬØ³
ĠØ§ÙĦÙĤ ÙĦÙĤ
ĠØ§ÙĦÙħ Ø¹Ø±ÙĪØ¶
Ġcrush ers
ĠØªØ¯ Ø¹Ùħ
ĠÙħÙĤ Ø¯Ø§Ø±
ĠØº ÙĬØ§Ø¨
ĠØ¨ ØŃØ±ÙĬØ©
ĠØ§ÙĦØ¹ ÙĤÙĪØ¨Ø§Øª
ĠØ¹Ø¨Ø¯ Ø§ÙĦØ±ØŃÙħÙĨ
Ø³Ø§Ø ¤
ĠØ§ÙĦØ¢ Ø¬ÙĦØ©
is tr
Ġ14 43
ĠØ§ÙĨ Ø¯Ø±ÙĪÙĬØ¯
ĠÙĪÙģ Ø¯
ĠÙĪØª Ùĥ
Ø§ÙĦÙħØŃ ÙħÙĪÙĦ
ÙĪØ£ Ø´Ø§Ø±
ĠØ¯ ÙĪØª
Ø§ÙĦÙħØ ´Ø§Ø±ÙĥØ§Øª
ÙĦÙĤ Ùĩ
y t
ĠÙħØ± Ø³ÙĬØ¯Ø³
ĠØ§ÙĦØªØ®Øµ ØµØ§Øª
Ø³ÙĬ Ø¨
ĠØ§Ø ´ØªØ±ÙĬ
ou th
ÙĥØ ªØ§Ø¨Ø©
ĠØ§ÙĦØ¨ ØŃØ±ÙĬ
¢ ÙĦØ©
ĠÙĤ Ø§ÙĦØ¨
' );
ĠØ¨Ø¥ ÙĨØ´Ø§Ø¡
ÙĬØ¬Ø§ Ø¯
ħ ÙĥÙĪÙĨ
ĠØ§ÙĦÙħØ§ ÙĨÙĬØ§
re am
ĠÙĬØ ±ÙĬ
Ø²Ø§ Ø¡
ĠØŃ Ø§ÙĦÙĬ
ĠÙĥØ§ Ø³
ĠB it
ĠØª ÙĩÙħ
ĠÙĪØ °
ĠØ¬ Ø±Ø§Ø¡
ĠÙħØ¹Ø§ Ø¯ÙĨ
ĠØ¨Ø§ÙĦ Ø¹ÙħÙĦ
ĠØ¨Ø§ÙĦÙĦÙ ĪÙĨ
Ĩ Ø¯ÙĪØ©
ĠØªØªØ± Ø¯Ø¯
ĠÙĪÙħØ µÙĨØ¹
ĠØµØŃÙĬØŃ Ø©
ĠØµ Ø¨Ø§Øº
ĠØ§ÙĦØ£ ÙħØ«ÙĦ
if i
Ø¹Ù Ģ
Ø³Ø§ Ø³Ø©
ran Ã§
ĠØŃ ÙĦÙĤØ§Øª
ĠØ§ÙĦØ¬ÙĦ Ø³Ø©
ĠØ¯ÙĪØ§ ÙħØ©
ĠØµÙĨØ§ Ø¹Ø§Øª
ĠM an
ĠØ§ÙĦØ£ ÙħÙĦ
ĠÙ¢Ùł Ù¢Ù
ĠØ³ ÙĦØ§Ùħ
ĠØ§ÙĦØ®Ø· Ø£
ĠØ¨Ø§ÙĦØ· Ø¨Ø¹
ĠØ±Ø§Ù Ĭ
ĠÙĦÙĦ Ø¯Ø±Ø§Ø³Ø§Øª
ĠØ§ÙĦÙĩ Ø¶
ĠØ§ÙĦØ¨ ÙĤØ§Ø¡
Ġ( +
ĠÙħÙĪØ ¸Ùģ
ÙħÙĬØ ±ÙĪÙĨ
ĠØ² ÙĬÙĨØ«
Ġ ÙĪÙĨØª
ĠØ§Ø ´ØªØ±
Ø£ ÙĥØ¯
le ase
±Ø ·
ĠØ³ÙĬØ§ ØŃÙĬØ©
ĠØ§ÙĦÙħ Ø¹Ø§ÙĬÙĬØ±
ĠÙĨØ¸ ÙĬØ±Ùĩ
Ġon ly
ĠÙĦÙħ ÙĥØ§ÙģØŃØ©
ĠØ£ ØµØºØ±
Ø°Ø§Ù Ĩ
ĠØ§ÙĦØ¨Ø§Ø± Ø¯Ø©
ĠØŃ ÙĪØ§Ø¡
ĠØ§ÙĦÙĩ ÙĪØ§Ø¦ÙĬØ©
ĠÙģØ§Ù Ĭ
ª ÙĥÙĨÙĪÙĦÙĪØ¬ÙĬØ§
Ù ĨØ¯ÙĪØ©
ĠØ§ÙĦØ± ÙĬØ§ØŃ
ĠØŃ Ø¨ÙĬØ¨
ĠØ§ÙĦØ¯ ÙĥØªÙĪØ±Ø©
ĠØ§ÙĦÙĨÙĤØ¯ ÙĬØ©
ØªØ ¬Ø§ÙĩØ§Øª
ĠØ§Ø¬ØªÙħØ§ Ø¹ÙĬØ©
rush ers
´Ø§ ÙĥÙĦ
ĠØ§ÙĦØ²Ø§ ØŃÙģ
ĠØ£Ù ħÙĦ
ĠØ§ÙĦÙĪØ§ ÙĤØ¹Ø©
ĠÙħÙĨ ÙĩÙħØ§
ĠØ§ÙĦ Ø§ÙĦØª
Ø¨Ø± Ùĥ
ĠØ§ÙĦØ¥ Ø¯Ø§Ø±ÙĬ
Ø§ÙĦÙħØ ¤
ĠÙĪÙĨ ÙĤ
ĠØ¥ Ø³Ø±Ø§Ø¦ÙĬ
ĠÙĨÙĬÙĪØ²ÙĬ ÙĦÙĨØ¯Ø§
ĠØ§ÙĦÙħØ¯Ø± Ø³ÙĬØ©
¬Ø ²Ø©
ĠØ§ÙĦØ§ ÙĤØªØ±Ø§
eng th
ĠS k
Ø§ÙĦØ§ ÙĨØªÙĤØ§ÙĦ
ĠØ¨Ø§ÙĦ Ø£Ø³
ĠØµÙģ ÙĤØ©
ĠÙĪØª Ø¹ØªØ¨Ø±
ĠÙĪØŃ ÙħØ§ÙĬØ©
ĠØ§ÙĦØ¹ ÙĦÙĪÙĬ
±Ù ĨØ©
ĠÙħØ· Ø§ÙĦØ¨
bl og
Ø¬ Ø¹Ø§Øª
ĠØ³ ÙĤÙģ
ĠØ§ÙĦØ³ Ø¨Ø¹
ĠØ§ÙĦØ® ÙĪÙģ
ĠØ¨ ÙħÙĪØ§
±Ø§ Ø«
ĠØ§ÙĦØ °Ø§ÙĥØ±Ø©
ØªØ ´ÙĪ
ÙĬÙĪÙĦÙĪØ¬ ÙĬØ©
ĠØ±ÙĪØ§ Ø¯
ĠãĢ Ĳ
ĠØ§Ø³Øª ÙĤØ¨Ø§ÙĦ
ĠØ«ÙĦØ§Ø« ÙĬØ©
ĠÙĪØ§ÙĦÙħØ ¬
ĠÙĪØ£ Ø·
ÙĥÙ ĪØ³
ÙĦØ¬ Ø£
ĠÙĦÙĬÙĨ Ùĥ
Ø§ÙĦØªØ¹ÙĦÙĬ ÙĤØ§Øª
t s
ĠÙĥØ§ ÙħÙĬØ±Ø§
ÙĨØ´ Ø³ØªØ±
8 00
ĠÙħÙĬ ÙĥØ§ÙĨÙĬ
st ru
ĠÙĨÙĬ Ùĥ
ÙĬÙĬ ÙħØ§Øª
Ø§ÙĦØ ±ÙĬØ§Ø¶
ĠØ¨ ÙĤÙĬØ©
ĠØ§ÙĦØ¬ ÙĨØ§
it le
Ø ªÙĥÙĨÙĪÙĦÙĪØ¬ÙĬØ§
ĠØ£ Ø±Ø§Ø¶ÙĬ
Ø±Ø´Ø§ Ø¯Ø§Øª
ĠÙĦÙĬ ÙģØ±Ø¨ÙĪÙĦ
ĠØ¨ ÙĦØ§ÙĬ
ĠØ§ÙĦÙħØ ·Ø§Ø±
ĠØ§ÙĦÙħ Ø¯Ø±Ø¨
Ġ2 20
ØŃØ± ÙĬÙĨ
ĠØ§ÙĦØ¬ÙĨ Ø³ÙĬ
±Ø´ ØŃ
ĠØŃÙĥÙĪ ÙħÙĬØ©
" }
l ob
ĠØ®Ø· ÙĬØ±Ø©
ĠØ§ÙĦØ² ÙģØ§Ùģ
ĠØ§ÙĦØªÙĤ ÙĬÙĬÙħ
ĠØŃ ÙħØ¶
ºÙ ĨØ¯Ø§
ĠØ§ÙĦØ¨ ÙĤØ±Ø©
ÙħØª Ø¯
Ġg m
´Ù ĪÙģ
± ÙĬØ§
Ġ ÙĪØ¹Ø¯
ØªØ °Ø©
ĠØ§ÙĦÙĥ ÙĦØ§
ĠØª ØŃØ±
Ī ÙħÙĩ
ĠÙĬØ± Ø¯
G M
ÙĨØ§ ÙĩØ§
A P
ĠØ§ÙĦÙĨØ ¬Ùħ
ĠÙħØ ±Ø¬
ĠÙĪØ ªÙĨÙħÙĬØ©
ĠØ§ÙĦØ¢ Ø¯Ø§Ø¨
ĠØ§ ÙħØ±ÙĬ
now n
ĠÙĦÙĦ Ø®Ø¯ÙħØ§Øª
ĠØ§ÙĦØ´ ÙĩØ±ÙĬ
ĠØ£ÙĪÙĨ ÙĦØ§ÙĬÙĨ
ĠØ¨Ø® Ø¯ÙħØ©
C S
ĠW ord
ĠØ· Ø§ÙĦ
ĠØ§ÙĦØµØ§Ø¨ ÙĪØ±Ø©
ĠÙħÙĨØµ Ø¨
ĠØ¨ØªØ £
ĠØ¬Ø ±Ùī
ÙĤØ ªÙĬ
Ø£ Ø¬Ø²Ø§Ø¡
ĠØ® ÙĦÙĬØ¬
ĠØ§ÙĦÙģ Ø±Øµ
ÙģØ± Ø³
ĠÙĪØ§ÙĦÙħÙĨØ ªØ¬Ø§Øª
ĠÙĬØµ Ø¯Ø±
ĠÙĪØ·Ø ±ÙĬÙĤØ©
ĠØ£ Ø¬Ø±
Ġprodu ction
´Ø§ Ø¹Ø±
in es
ĠØ§ÙĦØ¹ Ø¯ÙĪ
ĠÙĦÙħØ ´Ø§ÙĩØ¯Ø©
ĠØ§ÙĦØ®ÙĦÙģ ÙĬØ©
ÙĪØ± Ø¯Ø©
ĠT er
ĠØ§ÙĦÙħØ µØ±Ùī
Ø¬Ø§ Ø²
ĠØ§ Ø¶Ø§
ĠCh ina
ħ ÙĦÙĬØ
ĠO ff
Ġh d
ĠØ§ÙĨØ· ÙĦØ§ÙĤ
ĠÙħØ¹Ø± ÙĥØ©
ĠØ¯ Ùĩ
ĠØ¹Ø§ Ø¯ÙĬ
ĠØ§ÙĦÙħØŃ Ø·Ø©
ÙģØ§Øª Ùĩ
Ĭ Ø¯ÙĪÙĬØ©
ĠØ§ÙĦØ´ÙĬ Ø¹Ø©
ĠØ§ÙĦÙħØ±Øª Ø¨Ø©
T C
ĠØ§ÙĦØ¨Ø±ØªØº Ø§ÙĦ
ĠÙħØµ ÙĦØŃØ©
Ø® ÙĦØ§ÙĦ
ater ial
ĠÙĪØ§ÙĦÙ ħØ¹Ø
ĠØ§ÙĦØ« ÙħÙĨ
ĠÙħÙĪØ§ ÙģÙĤØ©
ĠØ´ ÙĨØª
od y
ĠÙĤØ§ Ø³Ùħ
ĠÙĦÙĦ Ø¶
ĠÙĪÙħØ ªØ
ĠF ree
ĠÙĦ Ø³Ø§ÙĨ
Ġ ï¿½ï¿½
Ñģ Ðº
ĠØ£Ù ī
ÙĪØ¶ ØŃØª
ĠÙĪÙģ Ø¹
Ø±Ø§Ù ĨØ¯
ĠÙĤØµ ÙĬØ¯Ø©
ĠÙĪØ§ÙĦØ§ Ø¬ØªÙħØ§Ø¹ÙĬØ©
Ġ Ø¯Ø§ÙĨ
ĠØ¹ ÙĤØ§Ø±Ø§Øª
Ĭ ÙĩØªÙħ
ĠÙħÙĪÙħ Ø¨Ø§ÙĬ
ĠØ¨ÙĬ Ø¨ÙĬ
Ù ħÙĥÙĪÙĨ
Ġ4 1
Ġf l
ail able
ĠØ´Ø± Ø¨
ĠØ§ÙĦØ®Ø µØ§Ø¦Øµ
ĠÙħØµ Ø§ÙĦØŃ
´Ø ¤ÙĪÙĨ
ĠÙĪØ£ ÙĨØª
ĠØ£Ø´ ÙĬØ§Ø¡
Ġ ÙĬØ§Ø
ĠØªØŃ Ø¯Ø¯
ĠØ§ÙĦÙħØ§Ùĥ ÙĬÙĨØ§Øª
ĠØ§ÙĦØ¹ ÙĨØµØ±
·Ø§ Ø¹Ùħ
ĠT echnology
ĠÙĪØ§ÙĦØ ´Ø±ÙĥØ§Øª
ĠØ§ÙĦÙħ Ø¯ÙĪÙĨØ©
Ġb ut
ĠØ± ÙĥÙĪØ¨
Ù ĬÙĩØªÙħ
ĠØ§Ø ´ØªØ±Ø§Ùĥ
ĠÙħØª ÙħÙĬØ²Ø©
Ġ6 6
ĠØ§ÙĦÙĦ Øº
ĠÙģ Ø·
ĠØªÙĦ Ø¹Ø¨
Ø¨Ø °
ĠØ§ÙĦÙĪØ ¶
h am
ĠÙĪØ¢ ÙĦØ©
ĠØ§ÙĦØº Ø±Ø¶
U M
ĠÙĤ ÙĪÙī
ĠØŃ ÙĪØ§Ø±
ÙģØ ¶Øª
ĠÙģØ¹ ÙĦÙĩ
ÙħØ ªÙĬ
. ØĮ
S D
ĠÙħÙĤ ÙĬØ§Ø³
ĠØ§ÙĦÙĪØ³ ÙĬØ·
ÙĤÙĪÙĦÙ ĪÙĨ
Ø¯Ø±Ø§ Ùĥ
ĠØ§ÙĦØ£Øµ Ø¯ÙĤØ§Ø¡
ªØ¬Ø§ Ø¬Ø§Øª
ĠØ§ÙĦØ§Ø¹Ø¯Ø§ Ø¯ÙĬØ©
Ġïºį ï»Ł
Ø³Ù Ģ
ĠØ§ÙĦÙħÙĨØ¸ ÙħØ§Øª
C hat
our s
ĠÙħÙĬÙĨØ§ Ø¡
ĠØ£Ø· ÙĤÙħ
Øµ ØŃØ©
ĠÙĪØ§ÙĦ ØŃÙħØ¯
Ã ±
ħ Ø¹Ø§Ø
ĠØ§ÙĦØ· ÙĦØ§
ĠÙħØ¹Ø ·
ĠØ¥ ÙĤ
ĠØ§ÙĦÙħØ·Ø§ Ø¨Ø®
ĠÙĪØ§ÙĦØ£ ØŃ
ĠÙĪØ§ Ø®Ø
ĠØ¹ ÙĦÙħØ§
ĠØŃØµ Ø±ÙĬ
ĠØ¥ Ø¯Ø§Ø±ÙĬØ©
ĠØ§ ÙĬØ¬Ø§Ø±
ĠØ§ÙĦØ£ÙĪ ÙĤØ§Øª
ĠØ§ ÙĨÙĬ
ĠØ§ÙĦÙĦ Ø¬ÙĪØ¡
Ø¨Ø± Ø¹
Ġ ÙĬÙħØ±
ĠØªØ¹Ø ·ÙĬ
§ Ùĥ
ĠØ§ÙĦØµÙģ ØŃØ§Øª
] ØĮ
ĠØ§ÙĦÙĥ ÙĪØ¨
ĠØ§ÙĦØ¹ ÙĬØ´
ĠØ§ÙĦÙĪØŃ Ø¯Ø§Øª
Ø·Ø ª
ĠÙĪØ§ÙĦ Ø¯Ùĩ
ĠÙĦÙĦ Ø¯ÙĪÙĦØ©
Ùĩ ÙĬØ¦Ø©
ĠØ´Ø ¦
ĠØ§ÙĦØ² ÙħØ§ÙĨ
Ù ĨÙĤÙĪÙĦ
ÙħØ¹ Ø§ÙĦØ¬Ø©
ĠÙĬØ ´Ø§Ø±Ùĥ
ĠØ§ÙĦÙħÙ ĩØ
Ø¯ÙĬ Ø¯Ø§Øª
ĠÙĪØª Ø¹Ø²ÙĬØ²
ĪÙĦÙ ĪØ¯
Ø¹ ÙĤØ¯
ĠØ§ÙĦÙħØ¨Ø§Ø ´Ø±Ø©
ªÙĪÙĨ Ø³
ÙĬØª Ø¹ÙĦÙħ
ĠØ® Ø³Ø§Ø±Ø©
ÙĦÙĬ Ø³Øª
ĠØ§ÙĦØ£Ø¯ Ø¨ÙĬØ©
Ġ5 1
Ù ĬØ¯ÙĪÙĬØ©
ĠØ§ÙĦÙħØ ªØ¨
ĠØ³Ù ĨÙĬÙĥØ±Ø²
ĠÙĪØ§ÙĦ Ø¨Ø±
ĠØ§ÙĦÙĥ Ø¨Ø±ÙĬØª
o in
Ġ ÙĩØ§Ø±
ĠØ¨Ø§ÙĦØ ªØŃ
Ġd ata
ÙĬØ§ ÙģØ©
ĠØ§ÙĦØ§ÙħØª ØŃØ§ÙĨØ§Øª
Ù ħÙĦÙĬØ
ĠØ§ÙĦØ§Ø³ ÙĥÙĨØ¯Ø±ÙĬØ©
ĠØ§ÙĦÙĨØ¨Ø§Øª ÙĬØ©
ĠØ§ÙĦ Ø¯Ø±Ø³
ÙĥÙĪ Ø³Øª
ĠØ§ÙĦÙĨØ¬ ÙĪÙħ
Ġpro v
ħ ÙĥØªÙĪØ¨Ø©
ĠØ§ÙĦÙĤ Ø·Ø§Ø¹Ø§Øª
Ø³Ø¬ ÙĬÙĨ
ÙĪØ£ ÙĥØ¯
ĠØ¥Ø® Ø±Ø§Ø¬
Ø¹Ø¬Ø§ Ø²
Ù ħÙĥØªÙĪØ¨Ø©
ĠØ£ Ø±ÙĬØ¯
´Ø ¦
ĠØ´ Ø¨Ø§Ø·
": [
Ġa ut
ĠØªÙģ ÙĤØ¯
oh am
ĠØ³Ø§Ø¨ ÙĤØ©
ĠØ§ÙĦØ¹Ø ·
n c
Ĭ ÙĩÙħ
Ġ ÙĬØ¯ÙĪÙĬØ©
¸ÙĬ ÙģÙĬ
ĠÙģ ÙĥØ±
p on
ĠØŃ Ø¯Ø¯
Ø¯Ø ±ÙĨ
ĠØ§ÙĦØ¹ ÙĤØ§Ø±ÙĬØ©
ĠØ§ÙĦ Ø¹ÙĨ
ĠØ§ÙĦÙĬØ¯ ÙĬÙĨ
ĠØ§ÙĦØ§ ÙħØ±
ĠØ¹Ø§ ØµÙħØ©
ÙĥØ§Ø¯ÙĬ ÙħÙĬ
Ø· ÙģÙī
( ){
% .
Ġ200 1
ĠÙĦØ ºØ§Øª
Ø¯ÙĬ Ùĥ
ĠÙĬØ³Øª ØŃÙĤ
ĠØ§ÙĦØµØŃ ÙģÙĬ
ĠØ¨ÙĪ ÙĬÙĨØª
Øµ Ø®Ø±Ø©
ĠÙĪÙĤ Ø§ÙĦØª
ĠÙħØ³Øª ÙĤÙĦØ©
at t
l p
ĠR e
ĠÙģÙĬ ÙĦØ§
ÙħØ ´Ø©
ĠÙĦØ£ ØŃØ¯
ĢÙĢÙĢØ §
Ġ5 2
ĠØŃ ÙĤÙĤ
ĠØ§ÙĦØ¬ÙħØ§ Ø¹Ø©
ĠØ°Ø§Øª ÙĬØ©
ĠD evelop
ĠØ§ÙĦØª ÙĨØ¸ÙĬ
Ġ200 2
ÙĢ Ù
ĠÙģØ± ÙĤØ©
ĠØ§ÙĦÙģ ÙĬØ²ÙĬØ§Ø¡
Ø§ÙĦØªØ¹ÙĦÙĬ ÙĤ
Ø±Ø ¬Ø§Ø¹
ĠØ¨ÙĨØ ¬Ø§ØŃ
ĠâĢ¢ âĤªâĢ¢
Ī ÙħØ§Øª
ĠÙĥØ «Ø§ÙģØ©
ÙĦØ§Ø¯ ÙĬØ´
ÙĨØ± Ø§ÙĦ
Ø§ÙĦØµ Ùģ
ĠÙĬØ ¶
ĠÙĤØ¯ ÙħØª
ĠØ§ÙĦØ ±Ø¨Ø¹
il y
Ġ ÙħÙĥØªÙĪØ¨Ø©
ĠØ§ÙĦÙĤ Ø¨Ø¶
ĠÙĪÙĬ Ø³Øª
Ø§ÙĦÙħØ ·Ø±ÙĤØ©
ĠØ§ÙĦØ· Ø¨Ø®
ĠØ§ÙĦÙĪÙĤØ§ ÙĬØ©
ĠØ§ÙĦÙħÙĬØ ²Ø§Øª
ĠM et
ĠØªØ¯ ÙģØ¹
Ø³ ÙĥØ±
ÙĦØ °ÙĦÙĥ
Ø¨ Ø¯Ø§Ø¹
ĠØ§ÙĦÙħØª ÙħÙĬØ²
( );
ĠÙĦÙ ĨÙģØ³
ĠL a
ĠØ¹ ÙĦØ¨Ø©
ĠØ¢Ù Ĭ
ĠØ§ÙĦØ£Ù ĨØ¨ÙĬØ§Ø¡
ĠØ§ÙĦØ¬ Ø³ÙĬÙħØ§Øª
ÙĬØ ªÙ
ĠØªØ§ ÙħØ±
ĠÙĦÙħØ¬ ÙħÙĪØ¹Ø©
ĠÙĦ ØŃØ§Ùħ
ĠW orld
ĠØŃ ÙĦÙĬØ¨
ĠØ§Ø³ØªØ ´Ø§Ø±Ø©
ÙĪØ±Ø ªØ§Øª
Ġ5 4
ĠÙĪØ¨ Ø¯ÙĪÙĨ
" );
´Ø± Ø¨
Ø¬Ø§Ø¦ Ø²Ø©
ĠØ§ Ø¨ÙĬ
ĠÙĤØ±ÙĬ Ø¨Ø§
ĠÙģØ§ Ø·ÙħØ©
ranÃ§ ais
ĠØ§ÙĦØµØ§ Ø¯Ø±Ø©
ĠÙĪÙħÙ ĪØ§Ø¯
ĠØ§ÙĦÙĥÙ ĨØ¨
ĠØªØ§ Ø¨
ĠØ§ÙĦØª ØŃÙĪÙĦ
ĠÙĬØ´ ÙĥÙĦ
Ġm y
ħ Ø¨Ø±Ø§Ø·
ÙĦØ§Ø« Ø©
ÙĥØ§Ù Ī
Ø§ÙĦØ¹ ÙĨØ§ÙĬØ©
à ¦
ĠÙħÙĪØ ¶ÙĪ
ÙĤ ÙģØ§Ø²Ø§Øª
Ġf eat
¶Ø± ÙĪØ§Øª
ĠØ£Ø³Ø ±Ø©
ĠØ§ÙĦÙħØ®ØªØµ Ø©
ĠØ´ Ø¨
e k
ĠØ¯Ø§Ø® ÙĦÙĬ
Ø¨Ù Ģ
§Ø¦Ø ±
ĠØ£Ø¶ Ø±Ø§Ø±
al t
Ø§ÙĦÙħÙ ĪØ±Ø¯
ØŃØª Ùĥ
ĠØ§ÙĦØ¬ ÙĨÙĬÙĩ
²Ø§Ù ĨØ©
h or
Ø¹ ÙĩØ§
ĠÙĪØ§ÙĦØ ªØ¬
ĠØ§ÙĦØ³Ø ¬ÙĨ
Ġ ÙħÙĦÙĬØ
ĠØ³Ø ±Ø·Ø§ÙĨ
ĠÙĪØ§ ÙĨØ§
ĠØ§ÙĦÙħØ¹Ø ªÙħØ¯
ĠÙħØ¨ÙĬ Ø¹Ø§
am b
ØŃØ ´
ĠÙĤØ±Ø ±Øª
ĠÙģ Ø¶ÙĬ
ÙĬØ ´ÙĬ
ĠCre ators
on es
ĠÙģ ÙĩÙĨØ§Ùĥ
ĠØªÙħ ÙĥÙĬÙĨ
d ay
Ø ªØ§Ø¨
ĠØ§ÙĦØª ÙĪØªØ±
ĠØ§ÙĦØ¥ÙĦØ²Ø§ ÙħÙĬØ©
ĠØ§ÙĦØ³ ÙģÙĬØ±
ĠÙģ Ø´ÙĦ
ĠØ§ÙĦÙĤÙ ĪÙħÙĬØ©
ĠØ§ Ø³Ø§
ĠÙĪØ§ Øµ
ĠØ£ÙĨÙ ĨÙĬ
§ Ø´ØªØ±Ùĥ
Ø¬ ÙĩØ§Ø²
±Ø¨ ÙĪÙĬ
ĠÙħØ³Ø ¬Ø¯
ĠÙĪØ§ÙĦØ¯ Ø¹Ùħ
ust om
±Ø ¶Ùī
ĠØ§ÙĦÙģØ§Ø¦ ÙĤØ©
Ġ ÙĬØ¹ØªÙĤØ¯
ĠF ind
ĠÙħØ¹Ø ªÙħØ¯Ø©
er a
Ø §Ø´ØªØ±Ùĥ
Ø³Ø§ Ø¹Ø§Øª
ÙĦÙ ĪÙĤ
° ÙĥÙĪØ±
ĠÙĥØ ±ÙĪÙĬØ©
ĠC ont
Ġh ow
Ø±Ø§Ø «
ĠÙĦÙĪØ Ń
ĠØ¨Ø§Ø± ÙĥØ±
ØŃ Ø¬Ùħ
ÙĦÙĬÙĪØ¨ ÙĬØ©
ÙħØ§ Ø¬
ĠØ§ÙĦØµÙ ĪÙĬØ§
ĠØ°ÙĥØ± Ùĩ
ĠØ§ÙĦØ§Ø³ ÙĦØ§ÙħÙĬ
ĠÙĪØ§ØŃ Ø¯Ø§
ĠØ§ÙĦØ£ Ø¬Ø²Ø§Ø¡
ĠØ «Ø±
´Ù ĨØ©
Ø§ÙĦ Ø¬Ø²Ø§Ø¦Ø±
el y
ĠØ¨Ø§ Ø³
´Ø± ÙĬØ©
Ġ4 9
ĠØ§ÙĦÙħÙħÙĬØ ²
ĠØ´ ÙĬØ±ØªØ§Øª
ĠØ§ÙĦØ¯Ø§ Ø¦Ùħ
ĠØ§ÙĦØ¨ ÙĨØ§Øª
ĠØ§ÙĦØ¨ Ø¯ÙĬÙĦ
ØŃØ ±Ø¨
Ġ ra
ĠØ§ÙĦØ´ Ø¹ÙĪØ¨
ĠØ¨Ø¨Ø ¬ÙĬ
in quiry
Ø³ÙĨ ÙĪØ§Øª
ĠØ§ÙĦØªÙĨÙģÙĬØ °ÙĬØ©
Ġ ).
B B
ĠØ§ÙĦØ·Ø ±Ø¯
ĠØ§ ØªØµØ§ÙĦØ§Øª
Ù ħØ¹Ø§Ø
ĠØ§ÙĦØŃØ§ Ø¶Ø±
ĠØ§ÙĦØ¬ ÙĩØ¯
b ig
ĠØ¯ ÙĬÙĨÙĬØ©
ÙĥØ ªØ§
ĠØ§ÙĦØ³Ø§ ØŃÙĦ
ĠT V
ĠØ® Ø¨ÙĬØ±
ĠØ¬ ÙĬÙĦ
ĠØ³Ø¨Ø§ ÙĤ
ele gram
Ø§ÙĦØ§ Ø³ÙħÙĨØª
±Ø³ ÙĦØ©
ĠØ§ÙĦØª ÙĤØ§Ø±ÙĬØ±
Ġ q
ĠØ§ÙĦØ¯ÙĪØ§ Ø¬ÙĨ
ĠØ§ÙĦØ¬ Ø¨ÙĦ
ĠØªÙĩØ ªÙħ
ÙĪÙĬ Ø¨
Ø´ Ùĩ
Ø§ÙĦ Ø³Ø§Ø¨ÙĤ
ÙĦÙģ Ùĩ
ĠØ§ÙĦØ¥Ø® ÙĪØ§ÙĨ
Ùĥ ÙĪØ±Ø©
Ñ ħ
ĠØª ÙģØ¹ÙĦ
ĠÙĦÙĦØª ÙĪØ§ØµÙĦ
ĠØ§ÙĦØ§ ÙħØ§Ùħ
ĠØ§ÙĦÙħØ±Ø§ ÙĤØ¨Ø©
E n
ĠÙĥØ±ÙĬ Ø³Øª
ot os
ĠØ§ÙĦØ¹Ùħ Ø§ÙĦØ©
º ÙĦØ¨
ĠØ§ÙĦ Ø¯Ø±ÙĪØ³
Ø³Ø± ØŃÙĬØ©
ĠØ´ ÙĩÙĪØ±
I F
ĠØ±Ø§Ù ħ
Ùĥ Ø¯Øª
ÙĦÙĬ ÙĩØ§
á »
ĠØ£ ÙħØ§ÙĨ
ele ct
T S
ĠØ´ ÙģØ§
ĠØ£ Ø±Ø®Øµ
ØŃ ÙĥÙħ
Ø§ÙĦÙħÙ ħÙĦÙĥØ©
ĠØ§ÙĦ Ø¨ÙĪÙĦ
ĠØ§Ø· ÙĦØ¹
ĠØ§ÙĦØ¯ Ø¹Ø§Ø¡
ĠØª ÙģØ¶
Ġ ÙĨÙĩ
Ø¦ Ø¨Ø©
Ġ ÙĨÙĤÙĪÙĦ
ĠÙħÙĪØ§ Ø¹ÙĬØ¯
ÙĨØ· ÙĦØ§ÙĤ
ĠÙħÙĨØ§Ùģ Ø³Ø§Øª
ĠØ§Ø ´Ø
ĠØ¬Ø±Ø§ Ø¦Ùħ
ĠB ank
ĠØŃ ØµÙī
Ø §Ùĥ
ĠÙĪØ£ Ùĩ
Ġ ÙħÙĥÙĪÙĨ
ÙħÙĪØ °
ĠØ§ÙĦØ¥ Ø¬ÙħØ§ÙĦÙĬØ©
ªØ¬ Ùĩ
ĠØ§ÙĦÙĪ Ø³Ø§
ĠØ§ÙĦÙĥØ ±ÙĪ
ĠØ¬ ÙĬØ´
Ġ14 44
ĠØ¨Ø±ÙĬ ÙħÙĬÙĪÙħ
Ø¯ÙĬ ÙĩØ§
ÙĬØ§ Ùĩ
ĠØ§ÙĦØ¹ ÙĤÙĬØ¯Ø©
ĠØ¹ ÙĦØ§Ø¡
f acebook
sm all
y le
ĠÙĥØ§Ø±ÙĬ ÙĬØ±
ĠØª ÙĦÙģØ²ÙĬÙĪÙĨ
Ø§ÙĦ Ø³ÙĬ
ĠØ§ÙĦÙħÙ ħ
Ġ16 0
ª ØŃØª
§ Ø´Ø
w ord
ĠØ§ÙĦØ¶ ÙģØ©
ĠØ§ÙĦÙħØŃ Ø±Ø±
ĠA v
ĠØ§ÙĦØ±Øº Ø¨Ø©
ÙĦÙħÙ ĬØ
ĠÙĨØ§ Ø³
ĠØ¹Ø¬ ÙĦØ§Øª
ĠÙħØ± ÙĥØ²ÙĬ
ĠØ ²Ù
°Ø±Ø¨ ÙĬØ¬Ø§ÙĨ
ĠØ§ÙĦÙħØ±Ø§ ÙĥØ²
ĠØ¨ ÙĤØ
ÙĥØª ÙĩØ§
Ĭ ÙĦØ²Ùħ
ÙħØª ØŃØ§ÙĨØ§Øª
Ø³ÙĪ ÙģØª
ÙĦØ¦ Ùĥ
ĠÙĪÙĥ ÙħØ§
ĠØ§ÙĦØ¨Ø± ÙĬØ©
h a
cr ib
Ø¨Ø±ÙĬ Ø³
i pp
ĠÙĥ ÙĬØ³
ĠÙħØ§Ø ±Ùĥ
ĠÙģÙĬØ¯ÙĬÙĪ ÙĩØ§Øª
ÙĦØ§ÙĨ ÙĥØ§
ĠØ§ÙĦØ£ ÙĥØ§Ø¯ÙĬÙħÙĬØ©
ĠÙĬØªØ £
ĠØ£ ÙħÙĪØ§ÙĦ
ÙĪÙĥ Ø§ÙĦØ©
Ùģ Ø£
ĠÙĦÙĦÙ ħØ³Ø§
Ø ºØ§
ĨÙģ Ø·
ĠØ§ÙĦØ¨ÙĦØ¯ ÙĬÙĨ
ĠØ§ÙĦØ³Ù ĨÙĪÙĬØ©
ÙĤØ§ Ø¹
ĠÙĪØ³ ÙĬØ§
Ī ÙĤÙĪØ¯
Ù ĬÙĦØ²Ùħ
ĠÙĨÙĪØ¹ ÙĩØ§
ĠØ§ÙĦÙħØ ¶Ø§ÙģØ©
ĠØ§ÙĦØ¬Ø§ ÙĩØ²Ø©
ĠØ§ÙĦØ¹ ÙħÙĬ
ĠÙĥØ´ ÙģØª
ĠØ§ÙĦÙħÙĨØ´ ÙĪØ±Ø©
Ġ12 4
ĠØ§ÙĦÙħØ ¶Ø
ĠØ§ÙĦØ³ÙĬÙĦÙĬ ÙĥÙĪÙĨ
ĠÙĤ Ø§ÙĦÙĪØ§
ĠØ§ÙĦÙĬ Ùĩ
±ÙĪØ ®
ĠÙħØŃ Ø¯ÙĪØ¯
ĠÙĪØ±Ø ´
ÙĪØ£ ÙĪØ¶ØŃ
ĠÙĪØ® Ø¯ÙħØ©
G B
ĠØ§ÙĦÙĥ Ø¨Ø§Ø±
Ø³ ÙĥÙĬ
ĠØ®Ø¯ÙħØ§Øª ÙĨØ§
ĠØ² ÙĪØ§Ø±
ïº ®
ĠÙĦÙĦÙ ħØ¹Ø§
ord er
ĠØ¹ ÙĪØ§
ĠØ§Ø³Øª Ø¹Ø¯Ø§Ø¯
ĠÙĦÙĦØ´ Ø±Ø§Ø¡
ĠÙĪØ§ÙĦÙ ĩÙĨØ¯
ĠÙħØŃ Ø·
ØŃØ ¶Ø±
Ø³ØªØ« ÙĨØ§Ø¡
ĠÙĪØ§ÙĦÙ ħØ³Ø
Ġac count
ĠÙĬÙĦ Ø¹Ø¨
R ed
ØŃ ÙģØ¸
ĠÙĪØ§Ø ±
ª ÙĤØ§Ø±ÙĬØ±
ĠÙĪÙħ Ø¹Ø±ÙģØ©
ĠÙħØ ´ØºÙĦ
ĠØ§ÙĦØ± ÙħØ²
ĠØ§ÙĦØŃØ§ ÙĥÙħ
ĠØ± Ùĥ
Ø§ÙĦ Ø¹Ø±Ø¨ÙĬØ©
Ø· Ø³
Ġs ale
Ø §Ø´Ø
ĠÙĦÙĦ Ø¹Ø
Ø¹ ÙĤ
ÙĪØªØ§ Ø³
Ġ{ {
ĠØ§ÙĦØ¨ÙĬØ ¦ÙĬ
ĠØ§Ø« ÙĨØ§Ø¡
ĠØ³ÙĬØ§ ÙĤ
Ø ªÙĤØ§Ø±ÙĬØ±
ĠØ¹ÙĨ Ø¯ÙĬ
ĠØ¶Ø¹Ù ĬÙģ
±ÙĪØ ´
ĠØ§ÙĦØ¥ ÙĬØ¬Ø§Ø±
ĠØ®Ø§Øµ ÙĬØ©
Ĭ ÙģØ¶ÙĦ
ĠÙĪØ§ÙĦÙĨØ ´Ø±
ĠÙħØ¹Ø ªÙħØ¯
ĠØ³ ØŃ
Ø¨Ø§ÙĦØ¥ Ø¶Ø§ÙģØ©
ĠÙĪØ§ÙĦØª ÙĤ
ØŃÙĬ ÙĪØ§ÙĨØ§Øª
ĠÙĪÙĤÙ ĪØ¹
ĠÙĪØŃ Ù
um bl
ĠØ§ÙĦØ·Ø§Ø¦ Ùģ
ĠØ´ÙħØ³ ÙĬØ©
ĠÙĪØ³ÙĪ ÙĬØª
ĠØ· Ø¨ÙĤ
ĠÙĥ Ø³Ø¨
ĠØ¨Ø ºÙĬØ±
ĠÙĩÙĪØ¯ ÙĬØ§Øª
Ī Ø¹ÙĬ
ĠØ³ ÙĦÙħ
Ù ĬÙģØ¶ÙĦ
ĠÙħÙĬØ ²Ø§ÙĨ
ĠØ§ÙĦÙĥÙĬÙħÙĬØ§ Ø¡
ĠØ¶Ø ±ÙĬØ¨Ø©
ĠÙĥØ§ Ùģ
ĠØ§ÙĦØ§ Ø¯
ĠÙģÙĬØª ÙĨØ§Ùħ
ĠØµÙģ ÙĤØ§Øª
ĠÙĦÙħØ¬ ÙĦØ³
ĠØ§ÙĦÙħÙ ĤØ
ĠØ§ÙĦØª ÙĨØ¸ÙĬÙħ
ĠÙĪØ ªÙĨ
ÙĦÙĬÙģ ÙĪÙĨ
§ ØªØµØ§ÙĦ
. "
ĠØ± Ø¨ØŃ
ĠØ´Ø ®ØµÙĬ
ÙĩØ§ Ø¬
ħ ÙĦØ§Øª
ĠØ§ÙĦÙħØŃØ ªÙħÙĦ
ĠØ§ÙĦØ§ ÙĨØªØ®Ø§
ĠÙħÙ ĬÙĨ
ĠØ§ÙĦØ³Ø¹ÙĪØ¯ÙĬ Ùĩ
b y
ĠØµ ÙģØ©
Ø¯ ÙĪØ§
ĠØ¨ÙĦ Ø¯Ø©
id s
Ø§ÙĦØª Ùĥ
ĠØªØº ÙĦÙĬÙģ
ĠØŃ ØµØ©
is m
1 000
â Ļ
ĠÙħØ´ØªØ± ÙĥØ©
ĠU s
ĠØ§ÙĦØª Ø¹Ø
Ġm ining
ĠÙĤØ§Ù ĨÙĪÙĨÙĬ
ĠØ§ÙĦØ¨ÙĦØ§ Ø·
ĠØ¥ÙĬ ÙĤØ§Ùģ
ĠØ§ÙĦØ§Ø®Øª Ø¨Ø§Ø±Ø§Øª
ĠÙĬÙħÙĥÙĨ ÙĩØ§
ĠØ§ÙĦÙħØ ²Ø§
ĠÙĪÙĨØ µÙģ
ĠØ§ÙĦØ£ ÙĦÙħÙĨÙĬÙĪÙħ
ÙĥÙĨÙĪÙĦÙĪØ¬ ÙĬØ©
ĠÙĤ Ø±Ø±
ĠÙĦØª ÙĦØ¨ÙĬØ©
ĠÙģ Ø´
Ù ħØ¯Ø§
Ġa v
ĠØ§ÙĦÙħ ÙĥÙĬÙģØ§Øª
ÙĪØ® Ø©
ĠØ§ÙĦÙħØ¤ Ø
ĠØ§ÙĦÙħØ· Ø¨ÙĪØ¹Ø©
ĠÙĬØ ªÙĪÙģØ±
ĠØ§ÙĦØªÙĨ ÙĤÙĬØ¨
ĠØ§ÙĦØ¥ ØµÙĦØ§ØŃ
Ø§ÙĦÙħØ ŃØ§
ĢØ ±
ĠÙĦÙħØ³Ø§ Ø¹Ø¯ØªÙĥ
Ø ¥Ù
ĠØ³ ÙĬØŃ
ħ Ø³Ø±ØŃ
ĠØ¯Ø§ Ø¹Ø´
ĠP ower
ĠØ§ÙĦØ£ØŃ ÙĬØ§Ø¡
ĠÙĦØª ÙĨØ¸ÙĬÙģ
Ø§ÙĦÙ ĪÙĦØ§ÙĬØ§Øª
ĠÙħØŃØ§ ÙģØ¸Ø§Øª
ĠØ§ÙĦØ³ÙĬØ§ ÙĤ
ĠÙħØ ²Ø§
C lass
Ġ Ø¯Ø±ÙĪ
Ø£ ØŃ
ĠÙħØ´Ø§ Ø¹Ø±
ĠÙĦÙĦØªØ ®ÙĦØµ
ĠÙħØ§ Ø±Øª
ĠØ§ÙĦØŃ Øµ
ÙĪØ§ Ø³
ĠÙħØ¯ÙĬØ± ÙĬØ©
ĠØ§ÙĦØ °Ø
ĠØ§ÙĦÙħØ¨Ø§ Ø¯Ø±Ø©
ĠØ¬Ø§Ùĥ Ø±ØªØ§
Ø¨ÙĪ ÙĦÙĬ
ĠØªÙĩ ÙĨØ¦Ø©
ÙĥÙħ ÙĦØ§Øª
Ġy alla
ºØ±Ø¨ ÙĬØ©
ĠØ§ÙĦØ¨ÙĦØ§ Ø³ØªÙĬÙĥÙĬØ©
ĠÙħØ ±Ø¨
£Ø «Ø±
ĠØ¨ ÙĪØ´
ĠØµØ§Ø ±
ĠØªØ±Ø ´
Ġ ÙħØ¯Ø®ÙĦ
ÙĪØ±Ø§Ù ħ
ĠØ§ÙĦÙĤØ§ Ø¨ÙĦØ©
ĠØ§ÙĦÙĦ ØŃÙĪÙħ
¶Ø§ ÙĬØ§
p k
ĠØ§ÙĦØ· ÙĪØ§Ø±Ø¦
ĠÙĦØ¥ Ø²Ø§ÙĦØ©
ÙĨØ ²ÙĬ
ĠØ§ÙĦÙĤÙĬØ§ ÙħØ©
ĠØ§ÙĦØ¥ Ø·Ø§Ø±Ø§Øª
ĠØ§ÙĦØ±ÙĪØ§ Ø¨Ø·
ĠØ§ÙĦÙĪØŃ ÙĬØ¯Ø©
ĠØ¨ÙħØ ´Ø§Ø±ÙĥØ©
ĠØ¨ Ø¹ÙĬÙĨ
ĠØ£ÙĪ ÙĦÙĬØ©
ØŃÙĨ Ùĩ
ĠØŃ Ø¶Ø±
ĠØ§ÙĦØ³ ÙĦØ§ØŃ
ĠØ¹Ø¨Ø§ Ø¯
r ad
ØªØ£ Ø¬ÙĬØ±
ĠÙĪØ¹ ÙĬÙĪØ¨
ĠÙģ ÙĪØ
ĠØ¹Ùħ ÙĦÙĩØ§
ÙħÙĬØ§ Ø·
ĠØ¨Ø§ÙĦÙ ħØ¹
ĠØ§ÙĦÙħØ ¦Ø©
H D
ĠN o
Ø³Ø§Ø¹Ø¯ Ùĥ
ĠØ§ÙĦÙħ Ø¨Øª
ĠÙĪØ§ÙĦÙħØ¹ ÙĦÙĪÙħØ§Øª
ĠØ° ÙĥØ±Øª
Ø¹Ù ĨÙī
Ø¨Ø µ
ÙĦÙħÙ ĬØ©
ĠW eb
ÙĥØ« ÙĬÙģ
ĠØ§ÙĦØ¯ÙĬ ÙĥÙĪØ±
ĠØ§ÙĦØ¯ ÙĪØŃØ©
ĠØ³Ø§ Ø¦ÙĦ
ĠØ§ÙĦÙģÙ ĨØ¯ÙĤ
ĠÙĪØ§ÙĦÙĥØ §
ĠØ®Ø ·Ø§
Ù ĬÙĩÙħ
ĠØ§ Ø¹ÙĦØ§ÙĨ
Ĩ ÙĪÙī
ĠÙħØ¬Ø§ Ø±ÙĬ
Ġm ak
Ġs o
ĠØ§ÙĦÙħØµØ± ÙģÙĬ
ĠØ§ÙĦØªØ ¬Ø±ÙĬ
Ġ5 6
ĠØ§ÙĦ Ø¨Ø§Ø
ot o
ĠØ¨ÙĤ ÙĬØ§Ø¯Ø©
ĠØ±ÙĤ ÙħÙĬØ©
Ĭ ÙĪØ¶ØŃ
ĠØ¹Ø§Ø¦ Ø´Ø©
Ù ĬÙĪØ¶ØŃ
ĠÙĥØ§ Ø²Ø§Ø®Ø³ØªØ§ÙĨ
ĠØ§ÙĦØ ´Ø§Ø
ĠØ§ÙĦÙħÙ ĪØ³
ĠØ§ÙĦØ¶ Ø±Ø§Ø¦Ø¨
ĠØ§ÙĦÙħ Ø¹Ø§ÙħÙĦØ§Øª
ĠØ§ ÙĪØ±
ĠØ§ÙĦØ¹Ø§ ÙħÙĦ
ĠÙħØ ªÙĨ
Ġ ÙĬÙĦØ²Ùħ
Ø£ Ø¨Ø±ÙĬÙĦ
Ġ.. ....
ĠØ¨Ø§ÙĦØ ¶Ø±ÙĪØ±Ø©
ĠØ§ÙĦØŃØ¶Ø§ Ø±Ø©
: -
ĠÙĪÙħ Ø¹Ø§
ÙĪØ¬Ø§ Ø±Ø§Øª
ĠØ§ÙĦÙ ĪÙĥØ§ÙĦØ©
ÙģØ±ÙĨ Ø³Ø§
ĠØªØªØ ¬Ø§ÙĪØ²
Ġ ÙĪÙĥÙħ
ĠÙħØ¬ Ø¯Ø¯Ø§
ĠØ³ØªØ§ Ø¦Ø±
ĠØ§ÙĦØ£Ø®Ø ·Ø§Ø¡
ĠØ¹ Ø¯Ø§
Ø¹ÙĦÙ ĨØ§
Ùĩ ÙĨØ§
] ,
ĠØ§ÙĦÙĤ ÙĦÙĬÙĦ
Ø¨ØªØ¯Ø§ Ø¦ÙĬØ©
ĠØ¢Ù Ĩ
ĠØ§ÙĦØª ÙĤÙĪÙĬÙħ
ĠØ§ÙĦÙĬ ÙĪØ±ÙĪ
ĠØ§ÙĦÙħØŃ ÙĪØ±ÙĬØ©
ĠÙħÙĪØ§ ÙĤÙģ
ĠØªØ¤ ÙĥØ¯
ĠM ag
ĠØ§ÙĦÙħ Ø¯Ø©
Ġbe en
ĠØµ Ø¹Ø¨Ø©
ĠÙĬØŃ Ø¯Ø¯
Ø´ ÙĥØ§ÙĦ
ĠÙħØª ÙĥØ§ÙħÙĦØ©
ªÙĪ ÙĦÙī
Ø¬ÙĬ Ø§ÙĦ
Ø¨ Ø±Ø¬
ĠØŃÙħØ§ ÙħØ§Øª
Ī ÙģØ
ĠØ§ÙĦÙĪØ «
ĠØ§ÙĦØ§Ø³ØªØ« ÙħØ§Ø±Ø§Øª
ĠØ§ÙĦÙħØªØ £
p ut
Ø¬Ù ĬÙĥ
ĠØ§ÙĦÙħØ³ÙĬØŃ ÙĬØ©
ºØ± Ùģ
ÙĪÙĨ ÙĩØ§
ÙĨØ¬ ØŃ
ĠÙħØ ¶Øª
§ ÙĨÙĪØ§Ø¹
ĠÙĥ ÙĪÙĦ
ÙĬØ ¬Ø±
ĠØ§ÙĦØ¬ Ø±Ø§ÙģÙĬØª
Ĭ ÙħØ
ÙħØ±Ø§ Ø¬Ø¹Ø©
ĠØµ ÙĦØ§ØŃÙĬØ©
ÙĥÙĪÙĦØ§Øª Ø©
ĠØ£ÙĨØ ´
ĠØ§ÙĦØ¶Ø ±ÙĬ
Ġm esin
ÙĪØ§ ØªØ±
ĠØ¨Ø· ÙĦØ¨
ÙħÙĦØ§ Ø¨Ø³
Ø¬ Ø¯ÙĪÙĦ
ĠØªØªØ¹ Ø±Ø¶
ĠØ·Ø§ ÙĪÙĦØ©
Ġan y
ĠØ§ÙĦÙĤ ÙħØ©
ÙĦØ§ ÙĨÙĬ
ĠÙĨØ ¬Ø§
Ø³ÙĬ ÙĥÙĬ
Ø§ÙĦÙĬÙ ĬÙĨ
ĠØ´ ÙĥØ±
ĠØªØ· ÙĦØ¨
c c
ĠØ§ÙĨØªØ®Ø§ Ø¨Ø§Øª
ĠØ§ÙĦØ¹ ÙĤØ§Ø±
ec ial
ĠØ§ÙĦÙģÙĦØ³ ÙģØ©
ĠÙĪØ µØ§
ĠØ§ÙĦØ ªÙĨÙĤÙĦ
r ed
umbl r
ĠÙĪØ¯ Ø¹Ùħ
ĠØ§ÙĦÙĩÙĬ ÙĥÙĦ
ĠØ§ÙĦÙħØª ÙħÙĬØ²Ø©
ik ip
Ø¹ ÙĪØ±
Ġat t
Ĩ Ø³ÙħØ©
ÙĦÙĬ ÙĥØ³
ª ÙĬØ©
ÙĬÙĪÙĦÙĪØ¬ ÙĬØ§
Ù ĨØ³ÙħØ©
ĠÙĦÙĦÙ ĪØ¬Ùĩ
Øµ ÙģØŃØ©
": {"
ħ ÙĦÙĦÙĬ
ĠÙħØ¹Ø§ Ø±Ø¶
ĠØ§ÙĦØ¹Ø§Ø ´Ø±Ø©
ĠØª ÙĦØ¨ÙĬ
Ùĥ ÙĦÙĬØ©
ĠØªÙĨØª ÙĩÙĬ
ĠÙģØ§Ø ª
ÙħØ§ ÙĤ
ĪÙĦÙ ĨØ¯ÙĬØ©
ĠØ¬ ÙĪØ
ĠÙĥ Ø£ÙĨ
Ø §ÙĨÙĪØ§Ø¹
ĠØ§Ø´ ÙĩØ±
ĠI P
ĠÙĥ Ø§ÙĦ
n a
Øµ ØŃØ§Ø¨
ĠØ² ÙĪØ¬Ø©
at ic
ÙĩÙ ĨÙĬ
ĠApp le
Ø±Ø£ Ø³
ĠØ® Ø¨Ø«
ĠØ§ÙĦØ´Ø± Ø¹ÙĬ
¸ Ùī
ĠØ¬ÙħØ§ Ø¯Ùī
ĠØ¬Ø§Ø¦ ØŃØ©
] )
Ġ ÙĬÙĩØ¯Ùģ
ĠØ£ Ø¨Ø¯
Ø ªØ¯
Ĩ Ø¨ÙĬÙĦ
ĠØ§ÙĦØŃØ ±ÙĪÙģ
ĠØ§ÙĦÙħØ±Ø§ Ùĩ
Ù ĨÙĪÙī
ĠØ§ÙĦØ£Ø´ ÙĩØ±
ĠØ§ÙĦØªØ·Ø¨ÙĬÙĤ ÙĬØ©
ªØ± ØŃ
ĠØªØµ ØŃÙĬØŃ
Ø¬Ù ĨØ³
ĠÙħØµ ÙħÙħ
ĠÙĬØŃØ§ ÙĪÙĦ
ĠØ¥Ø³ ÙĦØ§ÙħÙĬØ©
ĠØµØ§ Ø¯ÙĤ
ĠØ§ÙĦØ¥ ÙħØ§
ĠÙĦ ØŃÙĦ
¬ ÙĪÙĨ
ĠØ´ ÙĪØ±ØªØ§Øª
ĠÙĤ ÙĦ
ĠÙģ Ø¦Ø§Øª
Ù ĪÙĬØ©
ĠØ·ÙĬ Ø¨Ø©
Ī ÙĬØ·
Ġ3 60
ÙģÙĤ ÙĬØ©
ĠØ§ÙĦÙĥØ§ ÙħÙĬØ±Ø§
Ø° ÙĥØ±
ĠØ§ÙĦØ§ Ø¶Ø·
ĠÙħÙĪØ ¶Ø©
ĠâĢĭ âĢĭ
ĠÙĦÙĦÙħØ ¤
Ù ħÙĦÙĦÙĬ
Ù Ķ
ĪÙĨØ ²
Q u
ĠØ§ ÙĪØª
ĠÙĪÙĬØ ªØ
Ø³Ø ±Ø·Ø§ÙĨ
ĠØ§ÙĦØ¬Ø§Ø °
ĠØŃÙĬØ§Øª ÙĨØ§
ĢØ§ Ø
O T
ĠÙĦÙĦÙħÙ ĪØ
ĠØ§ÙĦØ´ ÙĪØ±Ùī
ĠÙħÙ ĪØ§ÙĦÙĬØ¯
ĠÙĦØ§ Ø³ØªØ®Ø¯Ø§ÙħÙĩØ§
ĠØ§ÙĦÙħØ µÙĨÙģ
ĠØ¹ÙħØ± Ùĩ
ĠØ§ÙĦÙħÙĨØ ´Ø¢Øª
ĠØ§ÙĦØ± ÙħØ
Ġ7 4
ĠØ³Ùħ Ùĥ
Ġb est
ĠØ§ÙĦØ¨ ÙĤØ¹
ĠØ¨Ø§ÙĦÙħØ ºØ±Ø¨
ĠØ¥ ÙĬØ±Ø§
ĠS m
ĠØ·Ù ĬØ¨
ĠØªØ´ ÙĥÙĬÙĦØ©
ĠÙĦÙħØ ±Ø§
ĠØ¯ÙĪØ§ Ø±Ø©
ĠÙħØ±Øª ÙĬÙĨ
Ùģ Ø¯
ĠÙĬØŃ Ù
ĠØ·Ø¨ ÙĤØ§Øª
ĠH ow
ĠØ§ÙĦÙħØ ºØ§
ĠØ§ÙĦÙħØ³Ø¤ ÙĪÙĦ
ØµØ± Ùģ
ĠØ£ÙĪ ÙĦØ¦Ùĥ
Ø§ÙĦÙħ Ø¯Ø±Ø³Ø©
ĠØ³ ÙĦØ§ØŃ
ĠØ³ÙĨ ÙĪÙĬ
ĠØ§ÙĦÙħ Ø³Ø±ØŃ
ÙħÙĬ ÙħØ§Øª
ĠÙĪØ§ÙĦÙħØ ªØ
Ø¬Øª ÙĩØ§
Ø§ÙĦÙĥ Ù
ĠØ§ÙĦÙĤØ§ Ø¯Ø±
ĠÙĦÙĦÙ ħØ³
ĠÙĬØ´ ÙĩØ¯
ĠÙĥØª Ø§ÙĦÙĪØ¬
Ù ĨØ¨ÙĬÙĦ
Ø¹Ù ĪÙĦ
ĠØ§ÙĦØ£Ø³ ÙħØ§Ùĥ
Ø¦ Ø±Ø§ÙĨ
Ġp ublish
ĠØ² ÙħØ§ÙĨ
ĠÙĪØ ªØ§Ø±ÙĬØ®
ĠÙĪØ§ÙĦÙ Ĭ
ĠØ±Ø§ Ø¬
ĠA ir
ĠÙħØ³ ÙĬØ±Ø©
ĠØ§ÙĦÙħØ§ Ø¬Ø³ØªÙĬØ±
ĠØ¨Ø§ÙĦÙĦÙ ĬØ²Ø±
Ù ĪÙģØ
ÙĪØ±ÙĪ Ø¨ÙĬØ©
ĠÙĦØ «
ĠØ¨ ÙħØ±
ĠØ§ÙĦØ§ Ø¨Øª
®Øª Ø¨Ø±
A B
Ġ ÙĬÙĩØªÙħ
ikip edia
ide os
ĠÙĦØ ªÙĨÙģÙĬØ°
ĠØ§ÙĦÙĦ ØŃÙħ
ĠØ¬ÙĦ Ø³Ø§Øª
ĠØ§ÙĦÙĥØªØ±ÙĪÙĨÙĬ WhatsApp
ĠÙĪØ§ÙĦØŃ ÙģØ§Ø¸
Ø®Ø± Ø³Ø§ÙĨØ©
ĠØ§ ÙĬÙĨ
ĠÙĩØ¬ ÙĪÙħ
ĠG M
Ø¨ÙĬ Ø³
ĠØ§ÙĦÙĨ Ø³Ø®
ĠØ§ÙĦÙħØŃ Ø¯Ø¯
Ø§ÙĦØ« ÙĦØ§Ø«Ø§Ø¡
ĠØ§ÙĦÙĪ ÙĩØ§Ø¨
ÙģÙĪ Ø¹Ø§Øª
Ø¹Ø ´Ø§Ø¨
ĠØ§ÙĦØ¨Ø ®Ø§Ø±
ĠØ¨Ø£ ÙĤÙĦ
ĠÙĥØ ±ÙĬØ©
pan el
ĠÙħØµØ· ÙĦØŃ
Ġ ÙĨØ³ÙħØ©
Ġ ÙĨÙĥ
p d
ĠØŃ Ø¨Ø©
ÙĥØ§ ÙĪÙī
ĠÙĦØ§ ØŃÙĤ
ĠØ´Ø º
ÙħØ¹ ÙĨÙī
ĠØ§ ÙĬØ±
ĠÙħØ¹Ø§ ÙĨÙĬ
Ð ²
ĠØªØª ÙħØ«ÙĦ
Ø¹Ù ĨÙģ
ĠØ§ÙĦØªØ ®Ø²ÙĬÙĨ
Ø§ÙĦØµ ØŃØ©
av y
ĠØ¨Ù ĨØ¯
ĠØ´ ÙĩØ±Ø©
ÙĲ .
ĠØ® ÙĦÙĬØ©
ĠØ§ ÙģØªØ±Ø§
v est
ĠØ§ÙĦÙħØ¤ Ø´Ø±Ø§Øª
ĠØ§ÙĦÙĨÙ ħØ³Ø§
ÙĬØ§Ø ºØ©
Ġ ÙĨÙģØ
ĠØ§ÙĦØ£ ÙĦÙģ
Ù ĬÙħØ
Ġn o
Ø¹Ø¬ Ø©
§Ø¦ ÙĨØ§Øª
ĠØŃØ§ ÙħØ¯
ÙĬØ ·Ø±
ÙĪØªÙĪÙħØ§ØªÙĬ ÙĥÙĬØ©
ĠØ§ÙĦØ¬ÙĬØ²Ø§ ÙĪÙĬ
ÙħÙĪØ± Ø¯ÙĬ
ĠØ§ÙĦØªØ¹ Ø±Ø¶
ĠÙĪÙħÙ ħØ
ĠÙĬÙĤÙĪ ÙħÙĪÙĨ
ĠØªÙĪØ ´ÙĬ
ÙĦØ§Ø¦ ÙĩØ§
ĠØº Ø·Ø§Ø¡
ĠØ§ÙĦÙĦÙĬØ ²Ø±
Ø¹ ÙĪØ§
ĠØ§ÙĦØºØ± Ùģ
ĠØªÙĤ Ø¯Ø±
ÙĨØ§ØªØ§ ÙĥØ§
Ø§ÙĦØ¹ Ø§ÙĦÙħ
ĠØ¹Ø² ÙĬØ²ÙĬ
= âĢĿ
us s
ĪÙĥ ÙĬØª
ĠØ¨Ø´ Ø¯Ø©
ĠØ§ÙĦØŃØ§ Ø¬
ĠÙĬØª Ø³Ø¨Ø¨
ĠØ§ÙĦØ¨Ø±ÙĬØ¯ ÙĬØ©
ĠØ¨Ù ħØ³Ø§
Ġ5 7
in n
ra ph
ĠØ§ÙĦØ§Ø³ Ø¨ÙĪØ¹
ĠØ§ÙĦØ¨Ø ¶Ø§Ø¦Ø¹
ĠØ³Ù ĨÙĨ
ĠØ± ÙħÙĪØ²
ĠØ§ÙĦÙħØ¹Ø§ ØµØ±
Ø¦ ÙĥØ©
ĠØ§ÙĦØ³Ùħ Ùĥ
Ġ ÙħÙĦÙĦÙĬ
ĠD etails
Ù ĪÙĬØ·
ĠÙĬØŃØ ª
ĠØ· Ø¨Ø®
ĠØ§ÙĦØ£Ø´ ÙĥØ§ÙĦ
ªØ§ ØŃÙĬØ©
ĠÙħØ¨ÙĬ Ø¯Ø§Øª
ĠØª ÙĪØ¬Ùĩ
§ ÙĨØ§
ĠÙĪÙĥ Ø£ÙĨ
ĠØ§ÙĦØ§ÙħØ±ÙĬ ÙĥÙĬØ©
ÙĨØ§ ÙĬØª
A F
Â ®
ĠÙĦØªØ ¬ÙĨØ¨
ĠÙħØª ÙģØ±
ĠØ§ÙĦØªÙĥ ÙĬÙĬÙģ
«Ø ±ÙĬ
+ +
ĠØ§ÙĦÙħØ´ ÙĩØ¯
ĠØª Ø³ÙĪÙĤÙĬ
ĠÙħØ °ÙĩÙĦØ©
Ø³Ø±ÙĬ Ø¹
ĠÙĪØ³ ÙĬØªÙħ
ĠØ±Ø³ ÙħÙĬØ§
ĠØ§ÙĦÙĨØ ¸Ø§ÙģØ©
ĠØ§ÙĦÙħØ ²Ø§ÙĬØ§
ĠØ§ÙĦØµ Ø¹ÙĬØ¯
ÙĪØ ±ÙĪÙĨ
V iew
ĠÙħØ§ Ø¬Ø³ØªÙĬØ±
ĠÙĩØ§Ù Ĭ
ĠØ§ÙĦÙĩØ¬ ÙĪÙħ
ĠØ§ÙĦØ¹Ø ²Ø§Ø¡
ĠØ§ÙĦÙĨÙĬØ§ Ø¨Ø©
ĠØ§Ø³ ÙħÙĬ
ĠÙĪØ£ Ø³Ø¹Ø§Ø±
Ġ ÙĪÙģØ
ĠÙħØ§ ÙĥÙĨØ©
ub s
ĠØ§ÙĦÙħØŃ Ø¯Ø¯Ø©
ĠÙħØ ¸
ĠØ¨Ø· ÙĦ
ÙģÙĬ ÙĦÙħ
ÑģÐº Ð¸
ĠÙħÙĨØªØ¬Ø§Øª ÙĨØ§
ĠØ¨Ø§ÙĦÙħÙ ĪØ§
ĠØ§ÙĦØ¥Ø³ Ø¨Ø§ÙĨÙĬØ©
ĠØ§ÙĦØ¹Ø °
·Ø ±ÙĬ
ĠØ§ÙĦØ¥Ø¨ Ø¯Ø§
ĠØ ±ÙĪÙĬ
ĠÙĨØ§Ø¬ ØŃØ©
ĠØ§ÙĦØ´Ø§ ÙģØ¹ÙĬ
Ĭ Ø³ÙĪØ¹
ro l
ĠØ§ÙĦÙģØª ÙĬØ§Øª
Ø§ÙĦÙħØŃ ÙħÙĪÙĦØ©
ĠØ§ÙĦÙģØ¹ Ø§ÙĦØ©
ĠØ§ÙĦØ£ ØŃØ²Ø§Ø¨
Ù ¦Ù
Ø¶Ø §Ø¦ÙĬ
ĠÙĪØ ±ÙĬÙģ
ÙĪØµ ÙĦÙĨØ§
ik e
ĠØ¬ Ø¨
Ø³Ù ĪØ©
ħ Ø¯ÙĪ
Ù ĬØ³ÙĪØ¹
ĠØ§ÙĦØ¨Ø·Ø§ ÙĤØ©
µÙ ĬÙģ
ĠØªØ ±Ø¬
Ø§ÙĦ Ø¹ÙĨÙĪØ§ÙĨ
ur ing
ĠØ§ÙĨÙģ Ø¬Ø§Ø±
Ø¯ÙĪÙĦÙ ĬØ©
ĠÙĪØ§ÙĦ ØŃØ§
ĠØ¨ Ø¹ÙħÙĦÙĬØ©
ĠÙĦÙĦÙħÙĨØ ªØ¯Ùī
ĠØ§ÙĦÙĥÙĪÙĬØª ÙĬØ©
ÙħÙĪÙ ĨØ©
µØ§Ø ±Ùģ
±Ø¨Ø¹ ÙĪÙĨ
ĠÙĨØ± ØŃØ¨
Ùģ Ø±Ø§ÙĨ
ĠØ§ÙĦÙģ Ø¶Ø§Ø¦ÙĬØ©
ĠÙħØ§Ø³ ÙĨØ¬Ø±
v is
ĠÙĪØºÙĬØ± ÙĩÙħ
ĠØ¥ Ø¹ÙĦØ§Ùħ
ĠØ§ÙĦØ¥ÙĨ Ø³Ø§ÙĨÙĬ
lob al
ĠÙĪØ§ÙĦÙħÙ ĪÙĤØ¹
ĠØªØ¯Ø±ÙĬ Ø¨ÙĬØ©
ĠØ§ÙĦÙĩØ§ Ø´
Ø³ ÙĪØ±
ÙģÙĤ Ùĩ
ĠØŃÙĬ ÙĪØ§ÙĨ
Ùĭ Ùĳ
ª ÙĨØ²ÙĬÙĦ
ĠØ¥ Ø¹Ø·Ø§Ø¡
Ø§ÙĦÙħØ µØ¯Ø±
ĠÙħØ± ÙĥØ
" ..
] ,"
ÙĦØ§ ÙģØ§Øª
ĠÙĬØ´ Ø¨Ùĩ
ĠE gypt
Ġ es
°Ùĥ Ø±Ø§Øª
ĠØ§ÙĦÙħØªØŃ Ø¯Ø«
ĠØ§ÙĦÙħØ±Ø§ ÙģÙĤ
ħ ÙĦÙĬ
ĠØ§ÙĦÙħÙĨØ§ Ø³Ø¨Ø§Øª
ĠØªÙĪØ´ÙĬ Ø¨Ø§
ĠØ§ÙĦØ² ÙĪØ¬Ø©
ĠØ³ ÙĬØª
ĠÙĪÙģÙ ī
® Ø±Ø¬
Ġ ÙħØ¹Ø§Ø
ĠÙĦÙĦØªØ£ ÙĥØ¯
b le
ÙĪØ§ ÙĩØ±
Ġe quipment
Ī Ø¹Ø§Ø¯Ø©
ĠÙĦØ ®Ø·
Ø§ÙĦØ¬ ÙħØ¹Ø©
ĠØª ÙĦÙĤÙĬ
ĠÙħØ³Øª ØŃØ¶Ø±Ø§Øª
Ù ĪØ¹Ø§Ø¯Ø©
ĠØ¨Ù ĬØ³
ro ll
Ī ÙħÙĪ
ĠÙħØ¤ Ø±Ø
ĠÙĦØ§ Ø³ØªØ®Ø¯Ø§Ùħ
ĠØ¹Ùħ ÙĦÙĬ
âĢ ĺ
ĠÙħØªØµÙģ ØŃ
ĠÙħØ³Ø§ ÙĩÙħØ©
ĠØªØŃ Ø¨
ĠÙĪØ ¬Ø§Ø¡
ĠØ§ÙĦØ³ÙĬØ§ Ø³Ø§Øª
Ø´ ÙĨØ·
ĠØ£Ø ´Ø±Ùģ
ĠØ§ÙĦÙĥ ÙĦØ§Ø¨
ĠÙģ ÙĦÙħØ§
Ø ¥ÙĬ
ĠØ§ÙĦØªØ§Ø±ÙĬØ® Ù
ĠØ§ÙĦØªØ§Ø±ÙĬØ®Ù Ĭ
Ø®Øª Ø¨Ø§Ø±Ø§Øª
Ĩ ÙĬÙĬÙĨ
ĠÙģ ÙĦÙĨ
ĠØ§ÙĦØŃØ ¸
ĠØ¨ ØŃØ±Ùģ
ĠÙħØ¨ Ø§ÙĦØº
ĠØ§ÙĦØªÙĪÙĨ Ø³ÙĬØ©
k a
ĠÙĬØ§ Ø³ÙĬÙĨ
Ø ªÙĨØ²ÙĬÙĦ
Ø¹Ø« Ø©
Ġad d
ĠÙĥØ§Ø± ÙĨØ§ØªØ§ÙĥØ§
ÙħÙĪØ ¶ÙĪØ¹
ĠØ§ÙĦÙ ĪØ§ÙĦ
ĠØ¨ Ø³Ùħ
ĠÙĦÙĬÙ ĪÙħ
in o
ĠÙħØ®Ø ªØµØ±
Ġ art
ÙĨØ¬Ø§ Ø¨
ĠØ§ÙĦÙĥØªØ ±ÙĪÙĨÙĬØ©
ĠØ¨Ø¹Ø¯ Ø¯
ĠØ³Ø¨ Ø¹Ø©
ĠØ£ ÙĬØ§
ÙģØ ªÙĬ
t witter
ĠØ¨Ø£ ÙĥÙħ
ĠØ§ÙĦØ¯ ÙĪØ±Ø§Øª
ĠMicro soft
ÙĬØ±Ø º
ĠÙĦØ¢ Ø®Ø±
ter s
ĠÙĪÙ ĪÙģ
ĠÙĪØª ÙĥÙĨÙĪÙĦÙĪØ¬ÙĬØ§
ÙħÙ ĪÙĤ
ĠØ§ÙĦÙħØ ±Ø³Ø§ÙĦ
ĠØ§ÙĦØŃÙĥÙĪ ÙħÙĬ
ÙĦØ§ ÙĤÙĬØ©
ĠØ§ÙĦØµ Ø¹Ø¨Ø©
Ø¥ Ø¹Ø§Ø¯Ø©
ĠÙĥÙĪØ± Ø³
ĠÙĤ Ø³
ĠØ§ÙĦØ« ÙĦØ¬
Ġl ink
ØµØ§Ù ħ
ĠÙħØ§ÙĬ ÙĥØ±ÙĪ
ĠØ¨ÙĨ ØŃÙĪ
ĠÙĦ Ø¨Ø
ĠÙĦØŃ Ø³Ø§Ø¨
ĠØ§ÙĦØ£ Ø¬ÙĨØ¨ÙĬ
ĠØ® Ø³Ø§Ø¦Ø±
Ø¯Ø§ ÙĤØ©
ĠØ§Ø³ØªØ ¶Ø§ÙģØ©
ĠØµ ÙģÙĪÙģ
ĠØ¬ Ø¯ÙĬØ¯Ø§
ĠØ§ÙĦØªØŃ ÙĪÙĬÙĦ
ĠÙĪÙĨ ÙĤÙĦ
ĠÙĪØ¶ Ø¹Øª
Ø¹Ø ·ÙĬ
ÙĥØ§ Ø±ÙĬ
ĠØ§ÙĦØ§ Ø¬
ĠN et
Ġo pt
ÙĬØ±Ø ¬Ùī
ĠØ£ÙħØ±ÙĬ ÙĥÙĬØ©
ĠØ§ÙĦØ¨Ø§Ø± Ø¯
ÙĦÙĪØ º
ĠÙĦÙĦ Ø±Ø
ĠØ§ÙĦØ¬ ÙĨÙĪØ¨ÙĬ
ĠØ§ÙĦØ£ÙĨØ§ Ø¨ÙĬØ¨
ĠØ£ ÙĦØ¨
ĠØªØªØ £
I P
Ø §ØªØµØ§ÙĦ
Ø±Ø£Ù Ĭ
Ø§ÙĦØ£Ø ±Ø¨Ø¹Ø§Ø¡
k ey
ÙħÙĨØª Ø¯ÙĬØ§Øª
Ø´Ù ħ
ĠØ¶ Ø±Ø±
§ Ø¬
ĠÙĦØ§ Ø³
ĠÙħØ ´Ø±ÙĪØ¹Ø§Øª
ĠØ³ ÙĬÙĨÙħØ§
ĠØ§ÙĦÙĥ Ø±Ø§Øª
ĠØŃ Ø¬Ø§Ø±Ø©
ĠØ§ÙĦØª Ø³Ø
ĠÙħØº ÙĨØ§Ø·ÙĬØ³ÙĬ
s u
ĠØ§ÙĦØ³ÙĪØ± ÙĬÙĬÙĨ
Ø±Ø§Ù Ĭ
ĠØ§ÙĦØªØ· ÙĪØ±Ø§Øª
ÙĤØ§ ÙĤ
Ù ĪÙĩØ§
ĠØ®Ø· ÙĪØ±Ø©
ĠØ§ÙĦÙħÙĪØ§ ÙĤÙģ
ĠØ§ÙĦÙģ ÙĥØ±Ø©
ï ¯
ĠØ¨ÙĤ Ø¯Ø±
ĠØ«Ø§ ÙĨÙĪÙĬØ©
ĠØº ÙĪØ¬Ø§Ø±Ø§Øª
ĠÙĥØ± Ø¨ÙĬØ¯
ĠØ¨ ÙĬØ¶Ø§Ø¡
ĠØ´ ÙĬÙĪ
ĠØ§ÙĦØ´ Ø±Ø§
ĠØµ Ø¹Ø¨
ĠØ§ÙĦÙĤØ§Ø¦ Ø¯
ĠØ§ÙĦÙħÙĤØ§ Ù
ĠØ§ÙĦØ£Ø ±Ø¨Ø¹Ø©
ÙĬÙĨ ÙĬØ§Øª
¦Ø ª
ĠØ§ÙĦÙħØ« Ø§ÙĦÙĬØ©
Ĭ ÙĪØ
ĠP ort
ĠÙĪØ¹ Ø±Ø¶
ĠØ· Ø±ÙĬ
ĠØ§ÙĦÙĨØ§ ØŃÙĬØ©
k nown
ĠØ¨Ø ¢
ĠØ§ÙĦÙĩÙĬ Ø¯Ø±ÙĪÙĦÙĬÙĥÙĬ
ĠØ§ÙĦØŃØ§ Ø
ip s
ĠÙħØŃ ØªØ±Ùģ
Ġus er
ÙĩÙ ĨØ©
ĬÙĥ ÙĬØ§
ÙħÙ ħÙĬØ²Ø§Øª
Ø®Ø± ÙģØ©
ĠØ§ÙĦØ¥ Ø¬ØªÙħØ§Ø¹ÙĬ
Ø²Ø§ Ø²
Ø§ÙĦØµ ÙĪØ±
Ø³ Ø¹ÙĬØ¯
Ùĥ ÙĦÙĩ
Ø³Ø¬ Ø©
Ø¥ Ø¯Ø§Ø±Ø©
ĠØ³ ØŃØ±
ĠØ§ÙĦØŃ ÙĥÙħØ©
ĠY outube
ĠÙĦÙĦ Ø¨Ø±
Ù ĪÙħÙĬ
ĠÙģÙĬ ÙĩÙħ
ĠØ§ÙĦØ¬ ÙħÙĬÙĦ
Ø¯ÙĬ Ùģ
Ø¨ ÙĨØ§ÙĨ
ĠØ§ÙĦØ¢ Ø
ĪÙĤØ§ ÙĬØ©
ĠÙĦØ§ ÙĥÙĪØ³Øª
ĠØ§ÙĦÙħØ¹ Ø¯ÙĨ
ĠÙħØªØ¹ ÙĦÙĤØ©
ĠØ§ÙĦØ§Ø³ØªØ« ÙħØ§Ø±ÙĬØ©
ĠØ§ÙĦØ¬ ÙĬØ¯Ø©
Ø§ÙĦØ¬ Ø±Ø§ÙĨÙĬØª
ĠØ§ÙĦÙĤ Ø·Ø±ÙĬØ©
ĠÙĪØª ÙĤØ¯Ùħ
Ġ email
ĠØ§ÙĦØ¨ ÙĩØ§
ÙĬÙĨ Ø§ÙĦ
r id
Ú© Ø
ØŃØª ÙĬØ§Ø¬Ø§Øª
Ġ|| |
ĠØªØ¯ Ø¨Ø±
¸ ÙĩØ±Øª
ĠÙħØ³ Ø¨
ĠØ£Ø ´Ø§Ø±
ĠÙĬØ§ Ø³Ø±
ĠØ§ÙĦÙĥ ÙħÙĬØ©
K ey
Ø³ ÙĩÙħ
ÙĢÙĢÙĢÙĢ ÙĢÙĢ
ĠÙĤÙĬ ÙħØªÙĩØ§
ĠÙĪÙĤ Ø¹Øª
ĠØ£Ø¹Ø ¸Ùħ
Ġ( @
ĠÙģ ÙĩØ°Ùĩ
ÙĦÙĪÙħØ§ Ø³ÙĬØ©
Ø§ÙĦÙ ĬÙĦ
Ù ħØ³Ø±ØŃ
ĠØ§ÙĦÙĦ Ø°
ĠØ¨Ù ħ
± Ø³Ùħ
Ø¯Ø® ÙĬÙĨ
ĠÙħØ³Øª Ø¹ÙħÙĦÙĩ
Ġc panel
Ø §ÙĨØ§
Ø§ÙĦ Ø¨ÙĬØ©
Ø£ ÙĬÙĨ
i h
ĠÙħÙĦÙĬØ§ Ø±Ø§Øª
ĠÙĪØ¨ Ø¯
ĠØŃØ ±ÙĤ
ĠØ¨Øµ ÙģØ©
ĠÙĪØ§ÙĦÙħØ¤ Ø³Ø³Ø§Øª
ĠØŃ ÙĪØ§Ø¯Ø«
ĠØ§ Ø¶
ÙĪØ±Øª Ùĩ
ĠØ§ÙĦÙħÙĪ Ø¨Ø§ÙĬÙĦ
Ġ ÙĬØ³ÙĪØ¹
ĠØ§ÙĦØº Ø§ÙĦØ¨
ĠØªÙ ĪÙĤØ¹
ĠS H
ĠÙĦÙĦÙ ĪØ§
ĠØ³Ø§Ø®Ù Ĩ
ĠE m
I t
ĠØ§ÙĦØ ®Øµ
Ġ ÙĨÙĬØ§
ĠÙĪØ± ÙģØ¹
Ùĩ ÙħØ§Øª
ĠØ§ÙĦÙħØ ªØ±
ĠØ¨Ø± ÙĤÙħ
ain t
ÙħØ¬ ÙĦØ©
Ø´Ø§Ø±Ùĥ ÙĩØ§
Ġ8 6
ĠØ¬Ø²Ø¡ Ø
ÙĦÙĪ ÙĬÙĨ
ĠØ¬ ÙĪØ§ÙĨØ¨
ĠØªØ£ ÙĦÙĬÙģ
ĠÙģ ÙĬØ¬Ø¨
ĠØ¬Ø²Ø¡Ø §
Øµ ÙĦØ§Øª
ĠØ§ÙĦØ· ÙĪÙĬÙĦØ©
·Ù ĪØ¹
Ġâľ ¨
ØŃØ ªÙĪÙĬ
ĠÙħØ³ ÙĤØ·
ÙĪÙĥØ§ ÙĨØª
ØŃ ÙħØ§Ùħ
az on
Ø¯Ø ¥ÙĨ
c ss
Ø®Ø µ
ĠE uro
ĠØ§ Ø¬Ø
±Ø ®Ø§Ø¡
ĠÙĦØ ºÙĬØ±
Ø§ÙĦ Ø¨Ø
ĠS af
Ø¶ Ùī
¢ ÙĥÙĦ
¸ ÙĩØ§Ø±
ĠØ§ÙĦØªØ ±Ø¯Ø¯
a Ã±
ĠØ¹Ùħ ÙĦÙĥ
ĠØ§ÙĦÙĨØ³Ø§ Ø¦ÙĬ
× Ļ
ĠØ§ÙĦØ§Ø´ØªØ±Ø§ ÙĥØ§Øª
ĠA t
\ \
ĠØ¬ ÙĦØ¯
ĠÙħØ µÙĨÙģ
ĠÙĦØ® Ø¯ÙħØ§Øª
ïº ´
±ÙĬØ ±ÙĬ
°Ø§ Ø¨Ø©
Ø³ÙĬ ÙģØ±
ĠØ®Ø± Ø³Ø§ÙĨÙĬØ©
ĠÙĪØ§ÙĦØ« ÙĦØ§Ø«
Ø¹Ø« ÙĪØ±
ĠØ±Ø ¦Ø§Ø³Ø©
ĠØ§ÙĦØ³Ø§ ØŃ
ĠØ§ÙĦÙħØŃØ§ Ø¶Ø±Ø§Øª
ØªØµ ÙģØŃ
th umb
ĠÙħØ³Ø§ ÙģØ©
ĠÙĦØª ÙĥØ³ÙĬØ±
ÙĥØ ±ÙĪÙ
Ø§ÙĦ ØµØ§
ĠØ§ÙĦØªÙ ĨÙģØ³
Ī ÙĪØ±Ø¯
ĠØ± ØŃÙħØ©
ĠØ§ÙĦØ§ØŃ ÙĦØ§Ùħ
ĠØ§ÙĦÙħØ´Ø§Ø±Ùĥ ÙĬÙĨ
ĠÙĤ Ø¨Ø§Ø¦ÙĦ
ĠØ´Ø§Ø ºØ±Ø©
Ġ5 3
ÙĬØ§ ÙĨÙĪ
°Ø§ Ùĥ
Ab out
¸ ÙħØ§Øª
ĠØ§ÙĦØ¹Ø ·ÙĪØ±
ĠØ§ÙĦØ±ØŃ ÙĦØ§Øª
ĠØ¨Ù ĨÙĬØ©
ÙĪØ¶ Ùī
ĠÙħØ ¦ÙĪÙĬØ©
ĠØ§ÙĦ Ø§ÙĦØ¹Ø§Ø¨
ĠØ§ÙĦØº Ø²
ĠØ§ÙĦØ§Ø®Ø ªØ±Ø§
Ġd el
ĠØ§Ø³Ø ¦ÙĦØ©
Ĭ ÙĤÙĪØ¯
ĠØ§ÙĦØ±Ø§Ø¦ Ø¹
ĠØ§ÙĦØ¬Ø± ÙĬÙħØ©
Ù ĬÙĤÙĪØ¯
ÙħÙĨØ ·ÙĤØ©
Ø¦ Ø±Ø©
±ÙĪØ ´Ø§Øª
ĠØ§ÙĦÙħÙĨ ØŃ
Ġ9 7
ĠØªÙĨØ§Ùģ Ø³ÙĬØ©
à ¥
ang u
ĠØ§ÙĦØ¨ ÙĬØ§ÙĨÙĬØ©
ĠÙĪØ±ÙĬÙģ ÙĩØ§
ĠØ§ÙĦØªØ´ ÙĥÙĬ
ĠØ§ÙĦÙĥØ ±Ø¯
ĠØ ²ÙĨ
ÙħÙ ĩÙ
ÙģØ± ÙĤ
¶Ø§ Ùģ
ĠÙĪÙħØ¹ Ø§ÙĦØ¬Ø©
ïº ³
i que
ĠØ´Ø§ ØŃÙĨØ§Øª
Ġs k
ĠØ§ÙĦØ¹Ø µØ§
Ø§ÙĦØª ÙģØ§ØµÙĬÙĦ
ĠØ§ÙĦØª ÙĤØ§
ĠØ§ÙĦØ±Ø ¬ÙĪØ¹
e ach
Ø§ÙĦÙħ Ø³Ø§
Ø ªÙĨ
ĠØ§ÙĦØª ÙħÙĬØ²
ĠØŃ Ø±Øµ
ĠÙĥ Ø³Ø§
ĠØ§ÙĦÙĤ ØµØ±
ĠÙģØ ¥
ĠØ§Ø³ØªØ± Ø¯Ø§Ø¯
ªÙ ĨØ¹
ÙħØ§ Ø©
ŃØ ±Ùĥ
Ġ ÙĬÙĪØ¶ØŃ
ĠÙĥÙĪÙĨ ÙĩØ§
Ġm od
O L
ĠST K
ĠØ§ÙĦØ¬Ø§ÙĨ Ø¨ÙĬØ©
Ġfeat ures
Ø·Ø §Ø¦Ùģ
Ġ Ùª
ÙĬØ ±ÙĨ
ĠÙĦ Ø¹Ø¯Ø¯
ĠÙĩ ÙĪÙĨ
ĠÙĪØ³Ø ·Ø§Ø¡
in ce
ÙħÙĬØª ÙĩØ§
ĠÙħØ§ ÙĨØ¬ÙĪ
ĠØ§ÙĦØ¥Ø³ Ø¨Ø§ÙĨÙĬ
ĠØ±ÙĪÙĨ Ø§ÙĦØ¯ÙĪ
ĠØ§ÙĦÙħØ³Ø§ ÙĪØ§Ø©
ĠÙħÙĪØ§ Ø·ÙĨ
ĠÙħÙħØ «ÙĦ
ĠØ§ÙĦÙģØ§ ØªØŃ
Ùģ Ø¹ÙĬÙĦ
ĠØ¹Ùħ ÙĦØ§Øª
ĠÙĥØ§Ø ª
ĠØ§ÙĦÙĪØ±ÙĤ ÙĬØ©
ÙĨØ £
°Ø§ Ø¡
ÙĦÙĬØ´ ÙĬØ§Øª
ÙĥØªØ ´Ø§Ùģ
®Ø§Ø ªÙħ
ĠØ¨ÙĪ Ø¯Ø±Ø©
ĠØ¯ ÙĦÙĬ
ĠØ§ÙĦØ¨Ø§ Ø¨Ø§
ĠØ³ÙĦØ§ Ø³ÙĦ
Ø§ÙĦÙħ Ø¹Ø§
ĠØª ÙĦÙĤØ
ĠÙħØ±Ø§ Ø¹Ø§Ø©
Ġar abic
ØªØ ¬Ø§Ø±
ĠØ§ÙĦØ§Ø³Øª ÙĤØ±Ø§Ø±
ĠØ¨Ø³ Ø¹Ø©
ĠØ§ÙĦØ£Ø ºØ°ÙĬØ©
ĠØ§ÙĦØ³ ÙĦÙģ
Ġbrow ser
§ Ø±ØªÙģØ§Ø¹
Ø§ÙĦÙĬ Ùĩ
Ø§ÙĦÙħÙ ĪØ§Ø¯
âĢ ĥ
Ġ ÙĬÙĩÙħ
ĠÙĪØºÙĬØ± Ùĩ
Ø§ÙĦØ£ ØŃØ¯
ĠØ§ÙĦÙħÙĪØ ¶Ø©
ĠØªÙĤ Ø¨ÙĦ
ĠØ³ÙĬØ§ Ø³Ø§Øª
ĠØ§ÙĦØ´ Ø¨
ĠØ¨Ø ¶
ĠÙĪÙĤ Ø¨ÙĦ
Ġ20 30
Ø¦ Ø³
Ø§ÙĦÙħØ ºØ±Ø¨
ÙĦÙĬØ ²
Ø£Ø ±
ĠØªØ£ Ø´ÙĬØ±Ø©
ĠÙħØª ØŃØ±Ùĥ
ĠÙĦØ§ ØŃÙĤØ§
ÙĬØªØ´ Ø±Ø²
ĠÙĤ ÙĬÙħ
ĠØ³Øª ÙĦØ§ÙĬØª
Ø¯Ø§ ÙĤÙĬØ©
ĠÙĪØ§ÙĦÙħØ ²ÙĬØ¯
Ù ħØ¯ÙĪ
ĠØ§ÙĦØ´ Ø¨ÙĥØ§Øª
ĠÙĦÙĪØ ±ÙĬÙĨ
ĠÙĤ ÙĨØ§
ĠØ£ Ø¹Ø¯Ø§Ø¯
ĠØ£ Ø·Ùģ
ĠØ´ ÙĬÙĪØ¹
ĠØ§ÙĦÙħØ³ØªØ ´ÙģÙĬØ§Øª
ĠØ§ÙĦØ¨ ÙĤ
ĠÙĬØ±ÙĬ Ø¯ÙĪÙĨ
ĠØ¯ ÙĦÙĩÙĬ
ÙĨØ ·Ø§
° ÙĬØ§Øª
ĠÙĪØ« ÙĬÙĤØ©
ĠØ¹ ÙħØ±Ø§ÙĨ
ĠØ¨ ÙħÙĪÙĤØ¹
ĠÙħØ« ÙĬØ±Ø©
ĠØ§ÙĦØªØ ±ØªÙĬØ¨
ĠØ§ÙĦÙĬ ÙħÙĬÙĨ
ĠÙħÙĬ Ø¯Ø§ÙĨ
ÙģØ§Ø¶ Ø©
Ġp re
ĠÙĦØ´Ø ®Øµ
ĠØ§ÙĦØ¬Ø§Ø° Ø¨ÙĬØ©
ĠØ§ÙĦØ¨ Ø¯ÙĨÙĬØ©
ĠØ£ ØŃØ§Ø¯ÙĬØ«
ĠØ§ÙĦÙħØª ØŃØ±Ùĥ
ĠØ§Ø¨Øª Ø¯Ø§Ø¡
Ġ. ::
ĠØŃÙĬØ§Øª ÙĩØ§
Ø §Ø¬
ĠØªØµ ÙģÙĬØ©
ĠÙĨÙĩØ§ Ø¦ÙĬØ§
ĠØ§ÙĦÙħ ÙģØ¶ÙĦ
ĠØ§ÙĦØ²Ø±Ø§ Ø¹ÙĬ
ØŃ ÙĬÙħ
ĠØº Ø±Ø§Ùħ
d ocument
Ù ĪÙĪØ±Ø¯
ĠÙĪØª Ø³ØªØ®Ø¯Ùħ
ĠØŃ ÙĦØ§
ÙĬØ« Ù
ĠØ§ÙĦØ¬ÙħØ§ ÙĩÙĬØ±
Ø±Ø¯ ØŃØ°Ùģ
ĠØ§ÙĦØ´Ùĩ Ø¯Ø§Ø¡
ĠH TML
Ġp f
C ont
ĠØ§ ÙĬØ·Ø§ÙĦÙĬØ§
ĠØ§ÙĦÙĤ ÙĪÙĬ
ĠÙħØ ªØ§Ø¬Ø±
ĠØ§Ø ´Øª
Ø³Ø® ÙĬÙĨ
ĠØ§ÙĦØŃÙ ħÙĦØ©
ig ital
ĠIndustr y
ĠØ§ÙĦØµÙģ ÙĤØ§Øª
ĠØ§ÙĦØªØŃ Ø§ÙĦÙģ
ĠÙģ Ø±Ø§ÙĨ
¢ Ø©
ĠØ³ Ø¨ÙĦ
Ùĩ ÙħÙĬÙĨ
m ad
ĠØ¹ ÙħÙĪÙħ
ĠØ§Ø °
ĠØ¬Ø² ÙĬØ±Ùĩ
ĠØ§ÙĦØ¬ Ø³Ø¯
Ø ±ØŃ
Ø §Ø±ØªÙģØ§Ø¹
´Ø§Ø ±ÙĬØ©
ĠØ¥ ÙĤÙĦÙĬÙħ
ĠØ§ÙĦØªØ ¬Ø§Ø±Ø¨
ĠÙĤ ÙħØµØ§ÙĨ
ĠØ£Ø³Ø¨ÙĪØ¹ ÙĬÙĨ
ĠØ§ÙĦØ³Ø¨Ø§ ØŃØ©
Ø³ ÙĥÙĨØ¯Ø±ÙĬØ©
Ø·Ù ī
Ġ ÙĨØ¨Ø°Ø©
Ø§ÙĦÙħØ ±Ø§
ĠÙħØ¹ ÙĤÙĪÙĦØ©
âĢ¬ âĢ¬
Ĭ ÙĦØ§Øª
Ġ5 8
ĠØªØ³Ø ±ÙĬ
Ø§ÙĦÙħÙ ĤØ§
ĠØ§ÙĦØ§Ø³ ÙĨØ§ÙĨ
ĠØ§ÙĦÙħØ ´Ø±Ùģ
ĠØµ Ø¨Øº
ĠØŃ Ø¶
ĠÙĪÙħÙĪØ§ ØµÙģØ§Øª
ĠØ±Øº Ø¨Ø©
Ġm anufactur
ÙĪØ§ Ø·
Ġ ÙĪÙĬØ·
ĠØ§ÙĦÙħÙħØ ªØ§Ø²
ĠÙħÙĪØ ¶
ĠÙĦÙĦÙħØ ŃØ§
Ġ5 000
Ø¬ ÙĨÙĪØ¨
ĠØ±Ø£ ÙĬØª
ĠØŃ Ø¶Ø§
ĠØ±Ø ¦ÙĬ
Ø¹Ø¯ ÙĨØ§
ĠØ§ÙĦØ£Ø² ÙĩØ±
ĠØ§ÙĦÙħØ ´ÙĬ
Ø¨ÙĬ Ø¯ÙĬ
ĠØ£Ø³ Ø§ÙĦÙĬØ¨
ã ģ
ĠØ§ÙĦÙħÙħØ ª
ĠØ¨Ø¹Ø¯ Ùĩ
ĠØ§ÙĦÙĦ ØŃØ¸Ø©
ÙĦØ§ ÙĤØ§
ĠÙĦÙħØ ²ÙĬØ¯
Ã ¡
Ġ 000
Ù ĬÙĪØ
ĠØ§ÙĦØ³ÙħØ§ ØŃ
ĠØ§ÙĦØ®Ø ·Ø©
ĠØµ ÙĩØ±
Ù ĪÙħÙĪ
ĠÙĬØªØ ¬Ø§ÙĪØ²
ĠØª ÙħÙĨØ¹
ĠØ§ÙĦØµØ®Ø ±ÙĬ
ĠÙĦØ£ÙĨ ÙĨØ§
ĠÙģÙĬ ÙĥØªÙĪØ±
Ø¹Ø ¸
ĠØ¨Ø£ ÙĥØ«Ø±
ĠØ§ÙĦÙħÙ ĪÙĨØ¯ÙĬØ§ÙĦ
ĠÙħØ´ ÙĥÙĦØ§Øª
Ø¨Ø ªØª
ĠÙĪØ´Ù ħØ§ÙĦ
ĠØ¯ ÙħØ¬
ï´ ¾
ĠØµ ÙģØ§Øª
ĠØ§ÙĦØŃØ ±Ùħ
ĠÙĦÙģ ØªØŃ
ĠØ£ ÙĥÙħÙĦ
ĠJ an
ĠÙħÙħØ§ Ø«ÙĦØ©
ĠØ§ÙĦØ±Ø§ Ø¬
ĠØ§ÙĦØ¹Øµ Ø¨ÙĬ
ĠÙĪØ§ÙĦØ¹Ø ´Ø±ÙĬÙĨ
ÙĩÙ ĨØ¯
ĠÙĬØªØ¹ ÙĬÙĨ
ĠÙĥØ± ÙĬÙħØ©
ÙģØ§ Ø®
ĠØ·Ø±ÙĬÙĤ Ùĩ
ĠØ§ÙĦÙħÙĪØ ¸Ùģ
ĠÙĪØ§ÙĦØ ºØ§Ø²
ĠØªØ¹ÙĦÙĬ ÙħØ§Øª
Ù ĨÙĩØ¬
ĠA g
ĠØ§ÙĦÙĩØ ±
ĠÙĦ Ø¹Ø±Ø¶
Ø³Ø ªØ§Ø
ħÙĥØ§ÙĨ ÙĬØ§Øª
Ø¨Ø± Ùĩ
Ø ±Ø³Ùħ
Ø³ØªØ ´Ø§Ø±Ø§Øª
ĠØ¬Ø± ÙĬØ±
ĠØºØ°Ø§ Ø¦ÙĬ
ĠÙĦØ£ ØºØ±Ø§Ø¶
Ø§ÙĦØ ºØ©
ĠM y
¸Ø ª
ĠØ¨Ø ®Ø·
ĠØ§ÙĦØªÙĤ ÙĦÙĬØ¯ÙĬ
ÙĬÙĢ Ø©
ĠØ§ÙĦÙģ ÙĪØ±ÙĬØ©
ĠØ´Ø§Ùĩ ÙĬÙĨ
ĠÙĤ ÙħØ§Ø´
ĠØ§ÙĦØ³ ÙĦØ¨ÙĬØ©
ĠÙĪØªØ´ ÙħÙĦ
Ī Ø¹ÙħÙĦ
Ù ĪØ¹ÙħÙĦ
v al
ĠÙĪØ¨Ø ´ÙĥÙĦ
ĠÙĤØ§ Ø¯Ø©
ĠÙħÙĤØ§ Ø¨ÙĦØ©
ĠÙħÙĨØ¸ ÙģØ§Øª
ÙĥØ³ ÙĬØ©
ĠØ§ÙĦØ¨ÙĪØ§ Ø¨Ø©
ĠØ§ÙĦØ¹Ø ªÙĬ
ĠØ£ØŃ Ø³ÙĨ
ĠÙĩ ÙĪØ§Ø¡
ĠØªØŃØ °
ĠØ¨ÙĨÙģØ³ Ùĩ
ÙĦØª ÙĤÙī
Ø¥ ØºÙĦØ§ÙĤ
Ùĥ ÙĬØª
ĠØ§Ø³ØªØº ÙĦØ§ÙĦ
ĠÙĥÙĪÙĨ Ùĩ
Ġs tr
Ø·ÙĦ ØŃØ§Øª
ĠH ot
p le
ĠØ§ÙĦØ±ÙĪØ§ ÙĬØ§Øª
ĠÙĥ ÙĬÙĨ
ĠÙĬØ µÙĨØ¹
Ġm arket
ĠØ¬ ÙĬÙħ
Ġ ÙĬÙĤÙĪØ¯
ĠØ§ÙĦØ¥ÙĤÙĦÙĬ ÙħÙĬØ©
ĠØ¹ ÙĦØ§ÙĪØ©
Ø³Ø ±Ø§Øª
ĠØ¨ÙĦØ§ Ø³ØªÙĬÙĥ
ĠÙĤØ§ ÙħÙĪØ³
Ø¥ Ø¹Ø¬Ø§
ĠØ§ÙĦÙħØ¹Ø§ Ø±Ø¶
Ø³Ø§ Ø©
ĠØµÙĨØ§ Ø¯ÙĬÙĤ
ĠØ§ÙĦÙħØ ´Ø±ÙĪØ¨Ø§Øª
ĠC ook
ÙĪØ§ ÙħØ±
ĠÙĪØ ´Ø§
el ated
ĠØ§ÙĦÙħÙ ĨÙ
cr ete
Ø§ÙĦÙħÙ Ĭ
ĠA s
c atalog
ĠÙĪØ£ ÙĩÙħ
H e
ĠÙĪÙĨØ ´Ø±
Ġis o
ĠØª ÙĦÙĤØ§Ø¦ÙĬ
ĠÙħÙĨØ§ ÙĤØ´Ø©
ĠØ£Ø· Ø±Ø§Ùģ
ra in
er n
ĠØ¥Øª ÙħØ§Ùħ
ĠØ£Ø³Ø§Ø³ ÙĬØ§Øª
âĨ ĳ
ĠØ§ÙĦØªÙģØ§ Ø¹ÙĦ
Ø±Ø ±Ø§Øª
ĠÙĦ Ø¹Ø¯Ø©
ĠØ¬ ÙĪØ§Ø¦Ø²
ĠÙħØ§ ÙĨØ´Ø³ØªØ±
ĠØ§Ø³Øª ÙĤØ±Ø§Ø±
ĠØ§ÙĦØ³Ù ħØ¹
±ÙĬ Ø¯Ø§
ĠØ§ÙĦÙħØ¨ÙĬ Ø¯Ø§Øª
ĠÙħÙĤØ§ Ø¹Ø¯
´ Ùī
Ġâ Ĥ
Ø² ÙĬØ§Ø±Ø©
Ø³Ø§ ÙħØŃ
ĠYouT ub
ĠÙĦÙħØ ªØ§Ø¨Ø¹Ø©
ĠÙĪØ§ÙĦ Ø³Ø§
Ġ ÙĨØ¯ÙĪØ©
ÙĪØ± ÙĬÙĨ
ĠØ¨Ùģ ÙĬØ±ÙĪØ³
°Ù ĨØ¨
ĠØ§ÙĦØ£ ÙĦÙĬØ§Ùģ
ĠØ± Ø³ÙĪÙħØ§Øª
Ø¨Ø¥ Ø¹Ø¬Ø§Ø¨
ĠØ¬ÙĪØ± Ø¯ÙĨ
Ø ªÙĩØ§
ĠÙĪØ ®Ø§Ø±Ø¬
Ġsh oot
ĠÙĦØ¨ Ø¯Ø¡
ĠØ± Ø§ÙĦÙģ
ĠØ§ÙĦØ· ÙĦØ§Ø¡
ĠØ´Ø ±ÙĬÙģ
ĠØ² ÙĩØ±Ø©
ĠØ§ÙĦØ³ Ø¹Ø©
ĠØ§ÙĦØ±Ø´ ÙĬØ¯
ĠØ§ÙĦÙħØ¹ ÙĬØ´Ø©
ÙĥØ ªØ±
ĠØ¢ ÙĬØ§Øª
Ø´ Ø¨ÙĥØ©
ĠØ°Ø§ ÙĥØ±Ø©
ĠØ§ÙĦÙĥÙĪÙĨØ ºÙĪ
S earch
ĠÙħØ¤Ø±Ø ´Ùģ
ĠÙħØ¤Ùĥ Ø¯Ø§
Ġ ÙĬÙħØ
ÙģØª ÙĬØ´
ĠØ§ÙĦÙħØ¤ ÙĤØª
ĠØµÙĨ Ø¹Ø§Ø¡
ĠØ¨Ø±ÙĬ Ø¯ÙĬ
ĠØ´Ø ±ÙĬ
ĠØ« ÙĤØ§
¤ Ù
Ø¥Ø¹Ø¬Ø§ Ø¨Ø¥Ø¹Ø¬Ø§Ø¨
ĠØ§Ø±Øª ÙģØ¹
ĠØ£Ø³Ø§ ÙħØ©
ĠÙĪØ§ÙĦÙ ĤØ§
ĠØ§ÙĦØ± ØŃÙĦØ©
ĠØ³ ÙĬØ±Ø©
ĠØ£Ø³Ø ªØ§Ø°
ĠØªØ² ÙĪÙĬØ¯
ĠØ§ Ø³Ø·ÙĪØ§ÙĨØ©
a ur
ĠØ§ÙĦÙħØ³Ø ªÙĪÙĬØ§Øª
ĠØ¹Ø§ Ø¬ÙĦ
ÙħÙĬÙĨ ÙĬØ§
ĠØ§ÙĦØ§Ø±Øª ÙģØ§Ø¹
ĠØ¢ ÙĦÙĬØ§Øª
ĠÙĪØ² ÙĬØ±Ø©
ĠØ§ÙĦÙĨØ³Ø§ Ø¦ÙĬØ©
ĠÙĬØ ¬Ø
ĠØ§ÙĦÙħØ« Ø§ÙĦÙĬ
f r
ĠØ§ÙĦØ® ÙĦÙĤ
ĠØª ÙĦØ¨ÙĬØ©
ĠØªÙĪÙģÙĬ ÙĤ
ĠØ§ÙĦØ¨Ø± ÙħØ¬Ø©
ĠØ§ÙĦØª ÙĥÙĪÙĬÙĨ
ÙħØ§ ÙĨØ§Øª
ĠØªØº Ø·ÙĬ
ĠÙĦÙĦØ£ Ø´Ø®Ø§Øµ
ĠØ§ÙĦØ£Ø± Ø¯ÙĨÙĬ
ĠÙĪØ¥ ÙĦØ§
ĠØ¬ ÙħØ¹Ø©
ĠØ§ÙĦÙĨØ¨ ÙĪÙĬ
ĠÙĦØ¥ Ø¬Ø±Ø§Ø¡
ÙĦØºØ§ Ø²
ut e
Ø±Ø ºØ©
ĠÙĪØ§ÙĦØµ ÙĬÙĨ
er ies
ÙĥØ± ÙĬØ§
Ø² ÙĬØ§Ø¡
ĠØ« ÙĤØ§ÙģÙĬØ©
ªØ ¬Ø§Ø¬
ĠØ§ÙĦØ¨Ø ·Ø§Ø±ÙĬØ©
ĠØ£Ø³Ø ±Ø§Ø±
±ÙĬ Ø³
ĠØ§ÙĦØ¹Øµ ÙĪØ±
ĠØ§ÙĦØªØ ²Ø§
ĠØ¨ ÙħØŃ
ªÙ ĪÙħ
· ÙĪÙĬ
ĠØ¯Ø® ÙĦØª
Ø£ Ø±Ø´ÙĬÙģ
ph p
ĠÙħÙĨ Ùī
ĠÙĪØ§ Ø¯
at ive
o int
ĠÙħØ³ØªØ®Ø¯ ÙħÙĬ
ĠØ§ÙĦÙĨØ§ØªØ¬ Ø©
ĠØ§ÙĦÙħÙ ĬØ§
ĠØ§Ù ĬÙĩ
ĠØ£ØŃ ÙħØ±
ĠÙĨØ¹ ÙĦÙħ
ĠØ¹Ø¸ ÙĬÙħ
ar ch
Ġs port
and s
ĠØº ÙĨÙĬ
ĠØ´ ÙĩØ§Ø¯Ø§Øª
ĠÙĨÙĤØ§ Ø¨Ø©
ĠØ§ÙĦØª Ø¨Ø±ÙĬØ¯
P R
ĠØ§ÙĦØ§ÙģØªØ±Ø§ Ø¶ÙĬ
ĠØ§ØªØ ´
ĠĠ ĠĠ
Ġexperi ence
N ov
ĠR eal
ĠÙĬÙĪÙĨ Ø³
a ult
ÙħØ ªÙī
ĠØ§ÙĦ Ø§ÙĦÙħØ§
ĠØ± Ø¯ÙĪØ¯
Ġre g
ÙĨØ§ Ø´
ĠÙħØ§ÙĬ ÙĥÙĦ
ĠØ§ÙĦÙħØªØ ·ÙĪØ±Ø©
ĠØ¢ ÙĦÙĬ
Ø¨ Ø¹Ø§Ø¯
ĠÙħØ³ Ø¨ÙĤ
ĠÙĦÙĦØ¨ ÙĬØ¦Ø©
ĠØ¨Øº Ø¶
ĠÙĬÙģ Ø¹ÙĦ
Ġ ÙĬÙģØ¶ÙĦ
ĠØªØ¹ÙĦÙĬÙĤ Ùĥ
ĠÙħØ´Ø§ Ø¨ÙĩØ©
ĠÙĦÙĦÙ ħØ³Øª
ĠM obile
ÙħØ¹ Ø±Ø¶
ĠØ§ÙĦØµ Ø¯ÙĬÙĤ
Ù ĨÙĪØ§Øª
ĠÙĦÙĦ Ø®Ø±Ø³Ø§ÙĨØ©
it em
ĠØ´Ø§ Ø¦Ø¹Ø©
ĠØ§ÙĦÙģ Øµ
ĨØ ¬
ÙĤØ§Ø¦ Ø¯
us e
ĠØ§ÙĦØ¥ Ø¬ØªÙħØ§Ø¹ÙĬØ©
ĠØ§ÙĦØ£Ø® ÙĦØ§ÙĤ
ĠØ§ ÙĤÙĦ
Ġ ÙĪÙħÙĪ
®Ø§ ÙħØ©
Ø§ÙĦÙĦÙ ĩÙħ
ĠØ´ Ø¹Ø¨Ø©
ĠØ¨Ø§ÙĦØª ÙĤØ³ÙĬØ·
Ø¹ ÙĦÙĬÙĩ
ĠØµÙĨØ§ Ø¹
ĠØ§ÙĦØªØ¹ÙĦÙĬ ÙħØ§Øª
ĠØ§ÙĦÙĥØ§ Ø
ĠÙĦÙĤ Ø¨
ĠÙĦÙĪØ ²Ø§Ø±Ø©
e el
Ġ ÙĪØ¹ÙħÙĦ
ĠØ§ Ø¹Ø§Ø¯Ø©
ÙĢØ ±
ĠØ§ÙĦØ³ Ø¨
ÙĬØ ºØ§ÙĨ
Ø§ÙĦÙĥ ÙĪÙĬØª
ĠØ§ÙĦØ± ÙĤØ§Ø¨Ø©
ĠØ¨Ù ħØ³Ø
ĠÙĪÙĬ ÙĪØ¬Ø¯
Ø® Ø±Ø§Ø¬
ĠØ¥ Ø²
ĠØ§ÙĦÙħØ ·Ø
ĠØ§ÙĦØ¢ ÙĦØ§Ùģ
ĠÙĦÙĦØ£ ÙħÙħ
ĠØ¥ÙĦÙĬ ÙĩÙħ
ªÙ ĪÙĦÙĬØ¯
ĠØ§ÙĦØªÙĤ ÙĨÙĬ
ĠUn ivers
iel d
Ùģ ÙĤØ§Øª
¸Ø§ ÙĩØ±Ø§Øª
ĠØ¥ÙĨ ÙĩØ§Ø¡
d ata
ÙĬÙĪÙĨ ÙĬØ©
ĠØ£ÙĨØ§ Ø¨ÙĬØ¨
ĠØ¬ ÙħÙĩÙĪØ±
ĠØ¨Ø§ÙĦÙ Ĩ
ĠØ¨ ÙģØªØŃ
ĠØ¨Øµ ÙĬØºØ©
ĠØ§ÙĦÙħØ³ ÙħØ§Ø±
ams ung
ĠØ¨Ø§ÙĦØ «
O ff
Ġ Ø³Ø§Ø±Ø©
Ġ3 000
ĠÙĦÙĦØ· Ø¨Ø§Ø¹Ø©
Ġ- ---
ÙħÙĤØ±Ø§ Ø·ÙĬØ©
ĠØ§ÙĦØ²Ø§ Ø¦Ø¯
I L
Ġ ÙĪØ¹Ø§Ø¯Ø©
ĠÙħØŃØ§ ÙħÙĬ
ĠÙĪØ °ÙĥØ±
ĠØ§Ø®Ø ªØ
d iv
Ø±Ù ĪÙĤ
ĠÙĦÙĦÙĥØ§ ØªØ¨
in fo
Ġs ur
ĠØ§ÙĦÙħÙĤ ØµÙĪØ¯
Ø¨ÙĬ Ø¨Ø©
Ġin ter
ĠØ§ÙĦØ³Ù ĨÙĬÙĨ
Ùģ Ø§ÙĦØ§Øª
Ø³ÙĬ ÙħØ§
Ø³Ø ±ÙĬØ©
ĠØ§ÙĦØ£Ø¨ ÙĪØ§Ø¨
ĠÙĬÙħÙĨ ØŃ
le an
ĠØ§ÙĦÙħØŃ ÙĪØ±
ĠØ£ Ø¨Ø
ĠØŃ ÙħÙĬØ¯
ĠÙģ ÙĪØ±Ø§
ĠØ·Ø±Ø§ Ø¨ÙĦØ³
ĠO ver
ĠSa udi
Ġ ÙħØ¯Ø§
ĠÙĩÙĪ ÙĬØ©
Ø¹ ÙĪÙħØ©
ĠØ£ÙģØ ºØ§ÙĨØ³ØªØ§ÙĨ
ĠÙĪØ§ÙĦØªØ ¬Ø§Ø±Ø©
ĠØªØ³Øª ÙħØ±
Ø² ÙħØ§
ĠNov ember
ĠØ§ÙĦØŃ ÙĦÙĪ
Ġbe in
ĠÙĪÙ ħØ¯
Ø¹Ø§ ØµÙħØ©
Ø§ÙĦÙħØ ·Ø§ØŃÙĨ
ĠØ§ÙĦÙĪ ÙĤÙĪÙģ
ħ Ø¯ÙĬ
ÙĦ Ø³ÙĬ
ĠØ£Ø¨ ØŃØ§Ø«
ĠØ¨Ø§ÙĦ Ø¹Ø±Ø¨ÙĬ
Ø¯Ø® ÙĦØ§Øª
ĠG al
ĠØ§ÙĦÙħØ¹ ÙĦÙħÙĬÙĨ
ĠD is
ªØ² ÙĪØ¬Ø©
ÙĨØ µØ§Ø¦ØŃ
er b
ĠÙħØ ¶Ø§Ø¹
ºØ ±Ùī
· Ø¹
ĠØ§ÙĦØªØ± Ø¨ÙĪÙĬØ©
ĠØ§ÙĦÙħÙĨØ§ Ø¹Ø©
ÙĦÙĬ ÙĥØ§
ĠØ§ÙĦÙħØ³ ÙĦÙħÙĪÙĨ
ĠS AR
2 000
ï» §
ĠÙħØºØ °ÙĬ
ĠÙĩ Ø¯ÙĬØ©
ĠØªØ£ ÙĥØ¯
com e
Ġ Ø¯Ø§Ø
ĠÙĪØ§ÙĦØ¹ Ø¯ÙĬØ¯
( @
ÙĬÙ ĬØ³
ĠÙĦÙĦÙħ Ø³ØªØ®Ø¯ÙħÙĬÙĨ
ĠÙģØ ±ÙĬØ´
Ġt ype
S ave
Ø³ÙĨ ÙĬÙĨ
ĠØ§ÙĦØŃØ§Ø¦ Ø·
v iew
ÙĪØ¬ ÙĩØ§Øª
Ĭ ÙĪØŃ
ĠÙĪØ§ÙĦØ£ Ø¬ÙĩØ²Ø©
ĠØ§ÙĦØ£Ùĩ ÙħÙĬØ©
ĠâĢ ª
ĠØ±ÙĬØ§Ø¶ ÙĬØ§Øª
ĠØ§ÙĦÙħØ ªØ§ØŃ
ĠØ¨ ÙħØ¬
ĠØ§ÙĦØµØ±Ø§ ØµÙĬØ±
ÙĩØ¯ ÙĬÙĨ
ÙĦØ§ ØŃØ§Øª
ĠØ§ÙĦÙĨØ ¸Ø§
Ĭ ÙģØªØŃ
at form
ĠØ§ÙĦÙħØµ Ø§ÙĦØŃ
ĠØ§ÙĦØ§ ÙĩÙĦÙĬ
ĠØ§ÙĦÙħ Ø³Ø¨
ĠØ§ÙĦØ² ÙĬØ§Ø±Ø©
B M
ĠÙĦÙĦØ£ Ø
ĠØ§ÙĦØ¨ÙĬ ÙĪØª
Ùģ ÙĤÙĬ
ÙĥØ³ Ø¯Ø©
ĠA mer
ĠÙĩØ§ ÙħØ´
Ù ĬÙĪØŃ
as ed
ĠÙħØ ´Ø±
ĠØ§ÙĦØ¯ÙĬÙħÙĤØ±Ø§ Ø·ÙĬ
en se
ĠØ§Ø³Øª Ø¹Ø±Ø§Ø¶
ĠS K
Ī ÙĪØ§
ĠØ¬ ÙĬÙĨ
ĠØ§ÙĦØ§ÙĨØª ÙĤ
ĠÙģ ÙĦ
ªØ§ Ø¬ÙĬ
Ø§ÙĦØ¹ Ø±Ø§ÙĤ
ĠØ§ÙĦÙħØ³Øª ÙĤØ¨ÙĦÙĬØ©
ĠØ°Ø§ Ùĥ
ĠØ£ ÙĪØ²
ĠØ§ÙĦØ³Ø¹ Ø±Ø§Øª
ĠØ§ÙĦØ¨ Ø¯ÙĬ
ĠÙĦÙħØ ¤
ĠØ§ÙĦØª ÙĪØŃÙĬØ¯
ĠØ§ÙĦØº Ø³Ø§ÙĦØ©
ĠØ§ÙĦÙħÙĨ ÙĬÙĪÙħ
ĠØŃ ÙĪØ¶
o ora
ĠA L
ªÙĪ ÙĬØ©
ĠØ§ÙĦØµØ§ Ø¯ÙĤ
ĠÙĥ ÙĦÙĬ
ĠÙĦÙĦ Ø·ÙĨ
ĪÙĦÙ ģ
ĠØ¢ Ø±Ø§Ø¡
ĠØ§ÙĦÙħØ§ Ø¯ÙĬØ©
ĠØ§ÙĦÙĤØµ ÙĬØ±
Ġ ÙħÙĥÙĨ
ÙħÙĬÙ ĨØº
ĠØ® ÙģÙĬÙģ
ĠØ³ Ø¯
ĠÙĪØ£ Ø¶Ø§Ùģ
ĠØ³Ù ĨÙĤ
ĠÙģØ§ Ø¹
Ġpro cess
ĠØ§ÙĦÙħØŃØ ªÙĦØ©
ĠÙĦÙĦ Ø¹ÙĦÙĪÙħ
ĠÙħØ ¶Ùī
Ø§ÙĦØ ªØ§Ø±ÙĬØ®
ĠÙĦØ· ÙĦØ§Ø¨
ĠÙĦÙĦØ¬ Ø³Ùħ
ĠØ¨ ÙĬÙĨØª
ÙģØ§ ØµÙĦ
ĠÙħÙħ ÙĥÙĨØ©
¬Ùħ Ø¹Ø§Øª
ĠØ¹ Ø¯ÙĨ
$ (
T weet
Ø³ÙĬ ÙĦØ©
Ġs ite
ĠW h
ĠØ´ ÙĪØ¨
ĠØ§ÙĦÙĨ ÙĤØ±
ÙĦÙĪØ§ Ø
ÙĦØ§ ØŃØ¸
ĠØ¨Ø§ÙĦÙħØ ¦Ø©
ĠØ§ÙĦØª ÙĩØ§
ĠØ£ÙĬ Ø¯ÙĬ
Ø¯ ÙĥØªÙĪØ±
ÙħØ¤ Ø³Ø³Ø©
Ø¹ Ø¯Ùħ
ĠØ£ ÙħØ«ÙĦØ©
ĠØ§ÙĦØ¹ ÙĦÙģ
ÙĪØ¹ ÙĦÙī
ĠÙĪØªØµ ÙĨÙĬØ¹
ĠØº Ø²
ĠÙĪØ§ÙĦØ§ Ù
ĠØ§ÙĦØ¬ Ø¨Ø§ÙĦ
ĠØªØ ªØŃØ¯Ø«
Ø¶Ø§ Ø©
ĠÙĪÙħÙ ĨØ¹
Ã ª
ĠÙĪØ ®Øµ
ĠÙĪØ¨ Ø±Ø§ÙħØ¬
ĠØ§ÙĦÙĨÙĤ Ø¯ÙĬ
ĠR ed
Ġin t
Ġ' '
ĠØ¨ ÙĬÙĪ
if e
Ĭ ÙħÙĬØ²
ĠÙĪØ¶Ø¹ ÙĩØ§
ĠØ£Ø®Ø ·Ø§Ø¡
ÙĦØ¯ ÙĬÙĨØ§
Ø¹ Ø¨Ø§
ĠØ§ÙĦØŃÙĪØ« Ù
ĠØ§ÙĦØŃÙĪØ«Ù Ĭ
ĠØ§ÙĦÙģØ¶ ÙĦ
ĠØ¶Ø± ÙĪØ±ÙĬØ©
aÃ± ol
P ress
ħÙĦØ§ Ø¨Ø³
Ù ĬÙħÙĬØ²
ĠØ§ÙĦØŃ Ø¯ÙĬÙĤØ©
ĠØªØ ±Ø³
ĠØ§ÙĦØ²Ø± ÙĤØ§Ø¡
Ø³Ø ±Øª
an im
Ù ĬÙģØªØŃ
ĠØ§ÙĦØ³Ø¹Ù ĪØ¯
Ú ¾
ĠØ¹ÙĨ Ùĥ
ħ ÙĥØ³
Û ¡
ĠÙħØ³Øª ÙĤØ¨
P N
ÙħÙĩ ÙĪØ±ÙĬ
c ed
Ø·Ø§ Ø¨
ĠØ¨ Ø£Ù
ØŃÙ ĪØ§ÙĦÙĬ
Ø§ÙĦÙħØ µÙĨØ¹ÙĬÙĨ
ĠØŃÙĬÙĨ ÙħØ§
ĠÙĪØ§ Ø¦ÙĦ
ĠØ§ÙĦØªØ ±Ùħ
ĠØ§ÙĦØŃ Ø¬Ø²
Ġ8 7
ĠÙħØ³ØªØ ´Ø§Ø±
ĠÙĪØ§Ø¬ Ø¨
ĠÙģ Ø§ÙĦØ£
ess age
ĠÙħØ§ ÙĩÙĪ
ĠØ§ÙĦØ¬ ÙĪØ§Ø¨
Ī ÙĬØ¶
ĠØ³ Ø¹Ø§Ø¯Ø©
E GP
ĠÙĥØ§Ù ħÙĦØ§
ØªØŃ ÙĦÙĬÙĦ
ĠØ§ÙĦØ®Ø ´ÙĨØ©
ĠØ§ÙĦØ² ÙĥØ§Ø©
ĠÙĪÙħØ «
ĠØ§Ø³Øª ÙĦØ§Ùħ
Ùĥ Ø±Ø±Ø©
Ø³ØªØ« ÙħØ±ÙĬÙĨ
w are
ĠØ´ ÙģØ·
Ġth ese
ĠÙĪØªØ ªØ
ĠØ§ÙĦØ£Ø °ÙĨ
ĠÙħÙĩØ§ Ù
Ø´ Ø±Ø§Ùģ
ĠÙħÙĨ Ø¯ÙĪØ¨
Øµ ÙĦÙī
ĠØªÙ ĪØ³
ĠØ§ÙĦØª ÙħÙĬÙĬØ²
ÙĪØ§Ø±Ø «
ÙħØ§ Ø·Ùħ
Ġ6 7
ĠØŃØ§ ØªÙħ
ĠØ§ Ø¬ÙĨØ¨ÙĬ
h ow
ĠØ§ÙĦÙħØ¹ Ù
ĠØ§ÙĦÙħØ³Øª Ø¹ÙħÙĦ
ĠÙĬØ³ ÙĩÙĦ
Ġ7 7
ĠÙħØ¹Ø ±ÙĪÙģØ©
ĠØ§ÙĦØ³ ØŃØ§
ĠØ§ÙĦÙħÙĤØ§ Ø¨ÙĦ
ĠØ§ÙĦØ£ Ø±Ø´ÙĬÙģ
ĠG old
Ø§ÙĦØ¥ ÙħØ§Ø±Ø§Øª
ĠØ´Ø± Ùģ
ĠØŃØ§ ÙģØ¸
ĠØ§ÙĦØ§ Ùĩ
´ØªØ ±Ùī
ĠØºØ ±ÙĬØ¨Ø©
ĠW atch
Ø¯ÙĪ ÙĦÙĬ
Ġo ther
ĠÙĨØ¸Ø§ Ø±Ø§Øª
ĠØ§ÙĦØ´ Ø£ÙĨ
ĠØ¨ÙĬ ÙĥÙĪ
ĠØ§Ø®ØªØ±Ø§ Ø¹
ĠØ¨Øµ ÙĪØª
ĠØ¹Ø´Ø± ÙĬÙĨ
Ġ7 2
p act
Ã ³
ĠØ§ÙĦØ§ Ø¯Ø§Ø±ÙĬØ©
ĠÙĦÙĦÙħÙ ĪÙĤØ¹
ĠÙħÙĩØ§Ù ħ
: "
ĠØ§ÙĦØªØ³ ÙĦÙĬÙħ
Ø³Ø§Ø¡ Ø©
Ø§ÙĦÙħØ ´Ø§Ø±ÙĥØ©
ĠØ§ÙĦØªØ ¬Ø§
ØŃÙħØ¯ Ùĩ
ÙĨØ§Ø·ÙĬØ³ ÙĬØ©
ĠØ®Ø µÙĪÙħØ§Øª
ĠØ§ÙĦÙĤ ÙĦÙĬÙĪØ¨ÙĬØ©
ĠØ§ÙĦÙĥÙ ĪÙĬØªÙĬ
Ĩ ØŃØª
ĠØ§ÙĦØ§Ø³ØªØ ´Ø§Ø±Ø§Øª
´ØªØ ±Ø·
ĠØ±ÙĬØ§Ø¶ Ù
Ġ ÙĬÙħÙĬØ²
ÙĪÙĦ Ø¯
ĠØ±ÙĬØ§Ø¶Ù Ĭ
ÙħØ ®
ĠØ§ÙĦÙĨ Ø³Ø¨Ø©
ªÙĪÙĤ Ø¹Ø©
ÙĥÙ ĪÙģ
ĠP C
Ġ ÙĨÙĩØ¬
ĠØ§ÙĦØ±Ø§ ØŃÙĦ
Ø ´ØªØ±
u c
ĠØ§ÙĦÙĤ ÙĦÙĬÙĦØ©
ĠÙĩ ÙĬÙĪÙĨ
Ø¹Ø ¸Ùħ
P interest
ºØ±Ø¨ ÙĦØ©
ĠØ§ÙĦØ³ ÙĨØºØ§ÙĦ
Ø¹Ø¯ Ø§ÙĦØ©
ĠØ²Ø¬Ø§ Ø¬Ø©
Ġun der
ĠÙĦÙĦ Ø£ÙĨ
Ø¬ ÙĬÙĨ
n ull
ĠÙĦÙĦÙħØ ª
E x
ĠÙģØ¥ÙĨ Ùĥ
anu ary
Ù ĨØŃØª
ĠØ£ ÙħØ±Ø§
Ġï ·
ï¼ ļ
ĠÙħØŃ ÙĦÙĬ
ØĮ ØĮ
ĠØª ÙĦÙĤ
ĠØ§ÙĦÙĨØ ±ÙĪÙĬØ¬
ÙģÙĬØ ¸
ĠØ§ÙĦØ ²Ø§ÙĪÙĬØ©
ĠØ§ÙĦÙħØ³Ø¤ ÙĪÙĦÙĬÙĨ
Ġc lass
ĠØ§ÙĦØ® ÙĬØ±ÙĬØ©
ĠØ®Ø ²Ø§ÙĨ
Ø¥ ØŃ
´Ø§ Ø¯
ĠÙħÙĪØ ±ÙĬØªØ§ÙĨÙĬØ§
ĠØ¨Ø¯ Ø¹Ùħ
ĠØ§ÙĦÙĪØ «Ø§Ø¦ÙĤ
V ersion
ĠØ´Ø± ÙĪØŃØ§Øª
ĠÙĬÙĤØ¯ ÙħÙĩØ§
Ø¯ÙĪ ÙĬÙĨ
ÙĦÙĬ ÙĤ
Ø¨Ø ¤
¦ ÙĬØ§Øª
ĠØº Ø¯
ĠÙģ ÙĪØ±Ø¯
==== ====
ÙĦÙĪØ§Ø ª
ĠÙĪÙĦÙ ĦÙ
ĠØ§ÙĦÙĦÙĬ ÙĦØ©
ĠØ£Ø °
ĠÙħØ· ÙĦØ¹
l ist
Ġ ÙĪÙĪØ±Ø¯
Ġit s
ĠÙĦØª ÙĦÙĥ
´ Ø¹Ø±
ĠÙĦÙĦØ ªØ¹ÙĦÙĬÙħ
ĠØ¥Ø ±
Ø¨Ø ºØ©
ĠØ§Ø³Ùħ Ùĥ
Ġm aterial
ĠØ§Ø³Øª Ø¹Ùħ
Ø±Ø ªØ±
ĠØ¨Ø§ÙĦÙħÙĨØ ²ÙĦ
ĠÙĬØ± ÙģØ¹
ĠØªØ® ÙģÙĬÙģ
ĠÙĬÙĪÙĨ ÙĬÙĪÙĨ
ĠÙĥÙ ĬÙĥ
Ī ÙĩØ
ã Ĥ
ĠÙħØ³ Ø¹ÙĪØ¯
ïº į
ħØ¹Ø§ Ø¡
Ø§ÙĦØ ªØ¹ÙĦÙĬÙħ
ĠØ§ÙĦØ¹Ø§ÙĦÙħÙ ĬÙĨ
ĠÙĦÙĬÙĨÙĥ Ø¯Ø¥ÙĨ
ĠØ³ ÙĨØ§Ø¨
ĠØŃ ÙĪØ§
ĠØ§ÙĦÙģ ÙĤØ±
Ġhe lp
ĠÙĪÙ Ī
ĠØ§ÙĦÙħ ÙĥØ«Ùģ
Ø¯Ùĩ ÙĪØ±
ĠØ±Ø ¶
ĠØ§ÙĦØ³ ÙĥÙĥ
ĠØ¥ ÙĦÙĬÙĨØ§
ĠØª ÙĪØ§Ø¬Ø¯
ĠÙħØ µØ§Ø¨
ĠØ§ÙĦØªØ ¶Ø®Ùħ
oc ial
Ùı :
ĠÙĤ Ø±Øµ
Ø¹Ø§Ø «Ø§Øª
ĠâĢı (
cl ud
it es
ĠØ¨ØŃ ÙĪØ«
Ø§ÙĦØ ªØ±
ÙĦÙģØ§ Ø¡
ª Ø¹Ø±ÙĬÙģ
ªÙĪÙĤ Ø¹Ø§Øª
ĠØ±Ø´ ÙĬØ¯
Ù ĪÙĬØ¶
ĠÙĥØ« Ø±Ø©
ĠØ± ÙģÙĬ
ĠØ§ÙĦØ§Ø³Øª ÙħØ±Ø§Ø±
ÙĤ ÙĪØ§
D el
ĠØ£ Ø®Ù
Ø³Ùħ Ø¯Ø©
ĠÙħØª ÙĥØ§ÙħÙĦ
ĠØ§ÙĦØ«Ø§ Ø¨Øª
ÙĨØ¬ Ø©
ĠØ§Ø¨ ÙĬØ¶
ĠØ§ÙĦÙĪØ ¸ÙĬÙģÙĬ
200 9
c el
ĠØ§ÙĦÙħØ³Ø§ ÙĩÙħØ©
Ø§ÙĦØ³ Ø¨Øª
Ø¹Ø µØ§Ø±
§ Øµ
Ø³Ø§Ø¡ ÙĦ
ĠØ§ÙĦÙĦÙĬ Ø¨ÙĬØ©
ĠS P
ĠØ§ÙĦÙĪØ§ Ø¬Ø¨
ĠØ£ ÙĤÙĪÙĦ
| --
ħ ÙĥØ§ÙĨØ©
Ø· Ø¦Ø©
ĠÙĪÙĩ ÙħØ§
ĠØ³ ÙħÙĪ
ĠÙĪÙĬ ÙĤÙĪÙĦ
ĠØªÙ ĨÙģÙĬØ
ĠÙħØ§ Ø³Ùĥ
ĠØ£ ÙĪØ§Ø¦ÙĦ
Ù ĪÙĪØ§
ĠÙĨØ§ ÙĤÙĦØ§Øª
ÙħØ ¦
ĠØ¨ÙĪ Ø³Øª
ĠÙĦØ¢ ÙĦØ§Øª
Ø±Øª ÙĨØ§
ĠØ£Ùĩ ÙħÙĩØ§
ĠØ¯Ø¨ ÙĦÙĬÙĪ
ĠR ep
if y
ĠØ¹ ÙĨØ§ÙĬØ©
ĠÙĪØ¹ÙĦØ§ Ø¬
ĠØ§ÙĦØ® Ø¯
ĠÙĬØ¹ ÙĤÙĪØ¨
ĬØ§ ÙĤØ©
ĠØ·Ùĩ Ø±Ø§ÙĨ
ĠØ³ Ø¯Ø§Ø¯
Ø ªØ¹Ø±ÙĬÙģ
ĠØ´Ø¹ Ø¨Ø§ÙĨ
Ø±Ø« Ø©
ĠÙģ ÛĮ
Ù ĪÙĩØ
ĠØ§ÙĦØ®Ø ²
l a
ħ Ø§ÙĦØ§
ĠÙĪØ§ÙĦØ¥ Ø³
ĠÙħØ§ ÙĩÙĬ
ÙĤØ§ ÙĨÙĪÙĨ
$ -
Ġ ÙĨØ¨ÙĬÙĦ
ĠÙĪÙģÙĬ ÙħØ§
ĠØ§ÙĦÙĪØ§ Ø¶ØŃ
ĠÙħØ³Øª ÙĤÙĦ
ind ex
ĠØ£ÙħÙ ĪØ§ÙĦÙ
Ø¨Ø§ Ø¯ÙĬ
i en
ĠÙĦÙĦØ¹ Ø¯ÙĬØ¯
Ù ĬØ³Ø±
Ġ Ù§
ĠØ¨Ø´ Ø±Ø§Ø¡
Ø¬Ø§ Ø²Ø©
ĠØ§ÙĦØ µØ§Ø¯
ĠØ³Ùĥ ÙĬØªØ´Ø±Ø²
ÙĨØ ®
ĠÙħØ³Ø§ Ø¦ÙĦ
ĠØ§ÙĦØ³ ØŃØ¨
iv er
ĠÙĪØ ·ÙĨ
ĠØ¥ Ø¹Ø¯Ø§Ø¯Ø§Øª
ĠØ§ÙĦÙĥÙĬÙħÙĬØ§ Ø¦ÙĬ
ĠØ¨ÙĪÙĦØ§ ÙĬØ©
±Ø ¬ÙĪ
ĠØ§ÙĦÙģ ÙĪØ±ÙĬ
ĠÙĪØ§ÙĦØ« ÙĤØ§ÙģØ©
ĠØªØ¹ Ø¨
ĠØ§ÙĦÙĨØ§Ø ±ÙĬØ©
ĠØ§ÙĦÙģ ÙĬØ±ÙĪØ³
ĠØ§ÙĦØ¬ÙĨØ³ ÙĬÙĨ
ÙĦØ¨ ÙĨØ§ÙĨ
ĠØ£ÙĨÙĪØ§Ø¹ ÙĩØ§
pl ay
ĠÙħØ¹Ø§ ÙħÙĦ
ĠÙĪÙĦÙ ĩØ§
ĠØ§ÙĦØ§ ÙĬÙģÙĪÙĨ
ĠÙĪØ§Ø¬ ÙĩØ§Øª
ĠÙĦ Ø³Øª
Ĩ ÙģÙĬ
Ø¯Ø§Ø¹ ÙĬØ§Øª
ĠÙĩØ ²
Ø¨Ø§Ø ®Ø§Øª
ĠØŃ Ø±ÙĬÙĤ
ĠÙĨØª Ø¹Ø±Ùģ
Ø¨ ÙĬØ§ÙĨØ§Øª
ÙħØ§Ù ĪÙĬØ©
or p
ĠØ´Ø£ÙĨ ÙĩØ§
ĠØ¯ ÙĦ
Ġ5 9
ĠØ§ÙĦØ¶ Ø±Ø±
D ec
ÙĤØ§ ÙħØª
ĠØ³ ÙĦÙĥ
ĠØªØ¨ ÙĬÙĨ
ĠØ§ÙĦØ§Ø³Øª ÙħØªØ§Ø¹
ĠØ§ÙĦÙĨØ ¸Ø±ÙĬØ©
ĠÙĦÙĦ Ø³ÙĨØ©
ĠÙĦØªØµ Ø¨ØŃ
ÙĪØ§Ø¦ Ø·
ĠÙĪØªØ ·
ÙħØ§Ù ĪÙĬØ§Øª
ĠØ§ÙĦÙģ Ø±Ø§
ĠØ¨Ø§ÙĦØ ®Ø
ĠØª ÙħÙĬØ²
Øµ ÙģØ©
ĠØ§ÙĦØ¥Ø³ ÙĥØ§ÙĨ
ĠØ§ÙĦØŃØ ±Ùģ
ĠØŃ Ø¯Ø©
ï» £
ĠÙĪØª Ø¹Ø¯
ĠØ¥ Ø´Ø§Ø±Ø§Øª
ĠÙģ ØŃ
ĠÙĪØ§ÙĦØª ÙĪØ²ÙĬØ¹
ĠØ±ÙĬ Ø¨ÙĪÙĥ
ĠØ³ÙĬØ¯ ÙĨØ§
ĠCom plete
Ġqu ot
Ùĥ ÙĦÙĬØ
ÙģØ ±ÙĪÙĨ
ħ ÙĥÙĬÙģ
ĠØ§ÙĦØªØ ±ÙĪÙĬØ¬
ĠÙĦÙĦØ´ Ø¨Ø§Ø¨
ĠØ´ÙĩØ± ÙĬÙĨ
ĠØ§ÙĦÙħØŃØ§ Ø³Ø¨Ø©
ĠÙħÙ ħÙĦÙĥØ©
ĠØ¹ ÙĨÙĬ
R E
ĠØ§ÙĦØ ªÙħØ¯ÙĨ
Ø ¸ÙĩØ±
ĠØªØ±ÙĬ ÙĦÙĬÙĪÙĨ
ĠØ§ÙĦØ¬ ÙħØ±
it t
ĠÙħÙĪ Ø¯Ø±ÙĨ
Ø±Ø ¤
ĪÙģ Ø±Ø©
ÙĬØ§ Ø²Ø§Øª
Ø§ÙĦÙħÙĪØ ¶ÙĪØ¹
j a
ĠØ§ÙĦØ µØ±
ĠÙħÙĪ Ø¯ÙĬÙĦØ§Øª
ĠB all
ĠØ£ ÙħÙĨÙĬØ©
Ġst or
ĠÙħØµ ÙħÙħØ©
ĠO n
ĠØ§ÙĦÙĤØ§ Ø³Ùħ
ĠØ§ÙĦØŃØ§ Ø¯ÙĬ
Ġ4 50
ĠC an
ĠÙĪØ ±Ø¬
ĠÙħØ ±ÙĬØŃØ©
ĠØ§ÙĦÙĤØ±Ø ¢
§ Ø·
Ø³Ø ªØ§Øª
ĠØ§ÙĦÙħØ´Ø§ Ø¹Ø±
Ĭ Ø³ØªØ®Ø¯
ĠL ED
Ù ĬØ³ØªØ®Ø¯
Ġ12 5
ĠÙħØ±Øª Ø¨Ø·Ø©
ĠÙĪÙĦÙĬ Ø³Øª
ĠAr t
Ø³ØªØº ÙĦØ§ÙĦ
ĠØ§ÙĦØ±Ø§ Øº
Ġin to
ĠØ§ÙĦÙħÙĬ ÙĥØ§
ĠØ§ÙĦØ£ ÙĦÙĬÙģØ©
ĠØª Ø¨ÙĪÙĥ
ĠØªØ®Ø ¶Ø¹
Ù ħÙĥØ§ÙĨØ©
ĠØ§ÙĨÙĩ ÙĬØ§Ø±
ÙģØ ªØ§
Ø³ØªØ ¬
Ø ±Ø¨
ĠØ§Ø³ØªØ ´Ø§Ø±ÙĬ
Ø°Ø§ Ø¹Ø©
olut ions
ĠØ§ÙĦÙħØ±Ùĥ Ø¨Ø©
ĠBit coin
Ġ ÙĪÙĪØ§
ĠØ£ÙħØ§ Ø²ÙĪÙĨ
ĠÙħÙĤ Ø¯Ùħ
ĠØ§ÙĦØ¨Ø º
ÙĪØ¨ Ø¹Ø¯
ÙħÙĬØ °
ĠØ§ÙĦØ¥ÙĤÙĦÙĬ ÙħÙĬ
ĠØ§Øµ Ø·
ap er
ĠÙĨØ´Ø± Ùĩ
Ùĥ Ùģ
ĠØ§ÙĦØ£ Ø¬Ø§ÙĨØ¨
ĠØ§ÙĦØ¬Ø±Ø§ Ø¦Ùħ
ĠØª ØŃÙĪ
ot h
ĠØ¹ Ø§ÙĦ
ĠØ§ÙĦØµÙĩ ÙĬÙĪÙĨÙĬ
ĠØ§ÙĦØªÙĪØ§ Ø²ÙĨ
ĠØ£ ÙĦÙĪØ§ØŃ
Ø³ÙĬ ÙĪØ·
ĠØ§ÙĦÙģØ±Ø¯ ÙĬØ©
Ø¬Ø² ÙĬØ±Ø©
ĠØ§ÙĦØ´Ø± Ø¨
Ø³Ø± ÙĬÙĨ
ĠÙĥØ± ÙĪØ§ØªÙĬØ§
ĠØ¨Ø§Ø¹ØªØ¨Ø§Ø± ÙĩØ§
ÙĢÙĢÙĢÙĢ ÙĢ
ĠØ§ÙĦÙĪØ ¬ÙĪØ¯
ĠØ¨Ø¯ ÙĪØ±
Ġcom pany
Ġ6 8
ĠÙĥÙĬÙĦÙĪ ÙħØªØ±
id er
ĠØªÙĪØ§ ÙģØ±
ĠÙħÙĦØŃ ÙĪØ¸
ÙĪØ£ Ù
ĠØ¹ ÙħÙĤ
ĠØªØ¬ ÙģÙĬÙģ
ĠØ§ÙĦØ¯ ÙĩÙĨÙĬØ©
ĠØ¥ ÙĨÙĬ
ĠØ§ÙĦÙģ ÙĬØ±ÙĪØ³Ø§Øª
ĠØ§ÙĦØ£Ø¹Ø ´Ø§Ø¨
Ĭ Ø¯ÙĪÙĬ
ĠØ§ÙĦØ¨ÙĦ Ø¯ÙĬØ©
ĠØ§ÙĦÙĨ ØŃÙĦ
ĠÙĩØ§Ø ±Ø¯
ĠÙħØ§ ÙĩØ±
ĠØ®Ø§ Ø¯Ùħ
ĠØ£ ÙĦÙģØ§
ÙħØ¯ ÙĬÙĨØ©
Ù ĬØ¯ÙĪÙĬ
ĨØ¯ ÙĦØ³
ĠÙĪÙĬ Ø¹ÙħÙĦ
ĠL im
ĠØ·Ø¨ ÙĤØ§
ĠØ±Ø¦ÙĬ Ø³Ø§
ÙĦÙĪØ§ Ø²Ùħ
ĠÙħØ®Ø ªØ§Ø±Ø©
ĠØ§ÙĦØªØ ±Ø¨ÙĪÙĬ
ĠÙĬØ ªØ¨Ø¹
ĠØ§Ø±Øª Ø¨Ø§Ø·
ĠØ³ ÙĤ
ÙħÙĬØ§ Ø¡
ĠØ´ ÙĩØ±ÙĬ
ĠØ² Ø§ÙĦØª
Ø§ÙĦ Ø¹ÙħÙĦ
ĠØªØ´ Ø¨Ùĩ
ÙĪØ¶ ÙĬØ©
ĠØ§ÙĦØ£Ø¯ ÙĬØ§ÙĨ
Ġ ÙĬØ³ØªØ®Ø¯
ĠØ¨Ø§ÙĦØ³ Ø¹ÙĪØ¯ÙĬØ©
ĠØ§ÙĦØª ÙĪØ¬ÙĬÙĩ
ĠØ§ÙĦØ¥ ÙĦÙĩ
ĠØ§ÙĦØŃ ÙĤØ§Ø¦ÙĤ
ĬØ§ Ø
Ø³Ø ±Ùī
ĠØ² ÙģØ§Ùģ
W idth
ÙĦÙĥØ§ Ø
Ùģ ÙĦØ§
ĠAug ust
ĠØ§ÙĦÙħØ±Ø ¡
ĠÙĦØº Ø²
ĠØ§ÙĦØ·Ø± ÙģÙĬÙĨ
O M
ĠÙĦÙĦÙ ħØ³Ø§Ø¹Ø¯Ø©
ĠØ§ÙĦØ§ Ø¯Ø§Ø±Ø©
ĠÙĦÙĦØª Ø¯Ø§ÙĪÙĦ
ĠØ³ Ø¨ÙĬ
ÙĨØ ¬Ø§ÙĨ
ĠØ§ÙĦÙħØ³Øª ÙħØ±Ø©
±Ø³ Ø§ÙĦØ©
ĠÙħØ« ÙĬÙĦ
Ġd ownload
ĠØ§ÙĦÙħÙĤ Ø¯Ø³Ø©
ĠØ§ÙĤ ÙĪÙī
ĠØ¨ÙħÙĤ Ø¯Ø§Ø±
ĠÙħÙĬ Ø³ÙĬ
Ø±Ø§Ø ²Ø§Øª
ÙĤ Ø¯Ø±Ø©
ĩØ ±
Ùĩ Ø±Ø§ÙĨ
ÙĪØ ±Ùħ
ĠÙħØ¬ ÙĩÙĪÙĦ
r l
li er
Ø¬Ø ±Ùī
ĠØ´Ø±Ø§Ø¦ ØŃ
ĠØ§ÙĦÙĩ Ø¬Ø±ÙĬ
ĠØ¥Ø³ ØŃØ§ÙĤ
ĠØ§ÙĦØ¥ Ø¬ÙħØ§ÙĦÙĬ
ĠÙħÙĪØ«ÙĪÙĤ Ø©
ĠâĨ Ĵ
ĠØªØµ Ùģ
ĠØ¬ Ø¨Ø§ÙĦ
ÙħØ§ Ø¦Ø©
ĠØ³Ù ĬØ¯Ø©
ĠØŃ Ø²ÙħØ©
ĠÙĦÙħØ³Ø§ Ø¹Ø¯Ø©
ĠÙĨØ² ÙĪÙĦ
ĠÙģ ÙĥÙĦ
Ġs im
ĠÙĪØ§ÙĦØªØ ´
ĠÙĦÙ ĪÙ
ÙĨØ ¬ÙĬ
ĪÙĥ Ø±Ø§ÙĨÙĬØ§
ĠØ§ØŃØªØ±Ø§ ÙģÙĬØ©
ĠÙĥØ ´Ø§Ø´Ø©
ÙĬÙ ĪÙ
ĠØ¨Ø¥ Ø¬Ø±Ø§Ø¡
ĠØ§ÙĦÙħÙĤØ§Ù ħ
ĠØ§ÙĦØ§ Ø¹ÙĦØ§ÙĨØ§Øª
ĠØ¨Ù ĪØ³
ĠØ§ÙĦÙħ ÙģØ§ØªÙĬØŃ
ĠØ§ÙĦÙħØ ´ØªØ±ÙĬ
ĠØ§ÙĦØ§ØŃØª ÙģØ§ÙĦ
ĠØ¥ÙĬØ¬Ø§ Ø¨ÙĬØ©
ĠØŃØ±Ø§Ø ±ÙĬØ©
ĠØªØ¯ Ø¹ÙĪ
ĠØ§ÙĦØ±Ø ·ÙĪØ¨Ø©
Ġ6 3
ªÙĪØ¯ ÙĬÙĪ
ĠM B
Ġh p
S ource
Ø¹Ø§ Ø¯Ùĩ
ĠØ§Ø³ØªØ®Ø¯ ÙħØª
ĠÙĬØ³Øª ÙħØ±
ĠØ§ÙĦÙĥ Ø±Ø§
ĠCom pany
¥ÙĬ ÙħØ§ÙĨ
l ength
ĠØ¹ ÙĤØ§Ø±
ĠØ£ÙĬ ÙĩØ§
ĠØ§ÙĦÙĨØ³ ÙĬØ¬
ĠØ§ÙĦÙħØ³ Ø£ÙĦØ©
in ation
ĠÙĨØ º
ĠØ³ÙĪ Ø¯Ø§Ø¡
Ø´ ÙĥØ±Ø§
ĠÙĪØ ¬ÙĪÙĩ
ĠØ§ÙĦØ£ÙĪØ ¶Ø§Ø¹
ĠØ§ÙĦÙĥØ±ÙĪ ÙħÙĬØª
ut sch
N D
ot t
Ġe u
ĠÙħÙĪØ ¶ÙĪØ¹Ø§Øª
ĠØŃÙĬØ§Øª ÙĩÙħ
ĠØ§ÙĦØ¥Ø ª
ĠØ§ÙĦÙĩØ¶ ÙħÙĬ
Ġs ec
ĠØ§ÙĦØ§Ù ħ
op le
ÙĨØ§Ù Ĭ
ĠØ§ Ø³ÙĪØ¯
Ù ħÙĥØ³
ĠØ§ÙĦØ§Ø¦Øª ÙħØ§ÙĨ
Ġmill s
ĠØ§ÙĦØ¶Ø± ÙĪØ±ÙĬØ©
±Ø´ ÙĬØŃ
ĠØ¬ Ø³Ø¯
Ø¹ÙĦØ§ ÙħØ§Øª
ĠØ§ÙĦØ·Ø§ Ø²
ĠÙħÙĤ ÙĦØ¹
ĠÙĪØ¨Ø °ÙĦÙĥ
ĠØ² Ø§ÙĦ
ĠØ§ÙĦÙħØŃ ÙĬØ·Ø©
ĠØ§ÙĦØ® ÙĬØ§Ø·Ø©
ÙĤØµ Øµ
m un
ÙħÙĪÙ ħØ©
ĠØ£Ø³ ÙĨØ§ÙĨ
ÙĥÙ ĪÙĦØ§
ĠØ§ÙĦÙħÙħØ «
ĠØ§ÙĦÙģ ÙĤØ±Ø©
ĠØ§ Ø³Ø§Ø³
Ø³Ø§Ù Ī
e i
ĠØ£Ø ±Ø³ÙĦ
ĠØ§ÙĨØª ÙĩÙī
ĠÙĪØ³ ÙĦ
Ø³Ù ĪÙĦÙĩ
Ø±Øª ÙĬÙĨ
ºØ§Ø ±Ø¨Ø©
ÙĨØº ØªØ´ÙĪ
ĠÙĩÙĪØ§ ÙĪÙĬ
ĠØ¨Ø§ÙĦÙħÙ ĪØ
Ġ14 42
ĠØ§ÙĦØ³Ø§ ØŃØ©
sp aÃ±ol
ĠÙģ ÙĥÙĬÙģ
ĠAb out
Ġp ower
A G
ĠØ§ÙĦØ®Ø ·ÙĬØ¨
ĠØ°Ø§Øª ÙĩØ§
ĠÙĪØªØ ±Ø§
âĢ ®
ĠÙĪÙĥØ «
Ġv ideo
ĠÙħÙĦÙĥ ÙĬØ©
ĠØ¹ÙħÙĪ ÙħØ§
ax y
ÙĬØ§ Ø¹
ĠØªÙĪ Ø³ÙĬØ¹
ĠÙħÙĪÙĦ Ø¯
ĠÙĬÙĨØª ÙĩÙĬ
ĠØ§ÙĦØ³ÙĪ Ø¨Ø±
Ø¦ Ø²Ø©
ĪØ¯ ÙĬÙĪÙħ
ĉ ĉ
ĠØ§ÙĦØ³Ø ±Ø§
ab el
ÙĥÙĨ Ø¯Ø§
ud io
ÙĬØ±ÙĬ Ø³Øª
ĠØ§ÙĦØ´ ÙģØ§Ø¡
ĠØ´ ÙĤ
ĠÙĪØµ ÙĪØ±
Ø¯ÙĪÙĦÙ ĪÙħÙĬØª
ĠØ§ÙĦØ§Ø³ØªØ º
ĠØ§ÙĦÙħØ¹ Ø§ÙĦØ¬
ot al
Ġ Ù¨
ĠØµØ§ ÙģÙĬ
Ø¨Ø¯ ÙĬÙĨ
ĠØµ Ø¯ÙĤ
ĠÙĥ ÙĬÙĪ
Ġn avig
Ĩ Ø³ØªØ·ÙĬØ¹
ĠØ® ÙĬØ±Ø§
ÙĪØ ·Ø§Øª
´Ù ħ
ĠS earch
ĠÙĪØª Ø¹ÙħÙĦ
ĠÙĩØ§ Ø¦ÙĦØ©
ĠØ§ÙĦØª ØŃØ¯ÙĬØ«
Ù ĨØ³ØªØ·ÙĬØ¹
ĠØ§ÙĦØ³ ÙģØ§Ø±Ø©
ÙĦØ§ Ø²ÙħØ©
ĠÙĪÙ ĬÙĦ
ĠÙħØ±Ø´ ØŃ
ĠÙĬÙĤ Ø¯Ø±
ĠÙħÙĦØ ¡
ĠÙĪØ² Ø±Ø§Ø¡
ĠØ£ÙĪØ ºÙĨØ¯Ø§
ĠÙħØ± Ùĩ
ĠIntern ational
ĠØ§ÙĦØªØ «Ø¨ÙĬØª
ĠØ§ÙĦÙĦÙĪØ Ń
cont ent
ĠØ§ÙĦØ® Ø±Ø·ÙĪÙħ
ĠØ§ÙĦØ§Øª ÙģØ§ÙĤÙĬØ©
ĠØ§ÙĦØªØ ®ØµØµ
Ġ9 8
ĠØ§ÙĦØ´ ÙĥØ±
ĠØ§ÙĦÙħØ³Ø§ Ø¹Ø¯Ø§Øª
ØªØ± Ø¨Ø©
ÙĪØ§ÙĦØ§ Ø
Ġ ÙĬØ¯ÙĪÙĬ
Ø¨Ø¯ Ø¹ÙĬÙĨ
ÙħØ °ÙĬ
ou ld
ĠØ¨Ø§ÙĦØ¬ Ø³Ùħ
ĠÙĪØ¹ ÙĦÙĬÙĩ
ĠØ§ÙĦØ¨Ø§ Ø¦Ø¹
Ĭ Ø¹Ø§
ĠÙģ ÙĦÙĪ
ĠØ§ÙĦÙĥØ §Ø¦ÙĨØ§Øª
ĠØ·Ø ±Ø¯
ÙĨØ§ÙĬØª Ø¯
ĠØª ÙĨØ¸Ùħ
ÙħØ§ ØŃ
Ø§ØŃ Ø¯Ø«
ĠØ³ ÙĪØ±ÙĬ
ĠØ§ÙĦØŃ Ø¶ÙĪØ±
Ø¹Ù ĨØ©
ĠÙĤØ±ÙĬ Ø¨Ø©
Ø§ÙĦ ØŃØ²Ø§Ùħ
ĠØ£ ÙĪØ¶ØŃ
ĠØ£ÙĨ Ø³
ĠAP K
ÙĦÙĥØ§Ø ª
ĠØ§ÙĦÙħØ¤ Ø´Ø±
Ùĩ ÙħØª
ĠÙĬØ¹ Ø¨Ø±
ĠÙģÙĦÙĪØ ±ÙĬØ¯Ø§
ĠØ§ÙĦÙĦÙĬØ «
ĠØ§ÙĦØ§ Ø¨ØªÙĥØ§Ø±
Ĭ Ø¹Ø§Ø¯ÙĦ
ĠØ´ÙĬÙĪ Ø¹Ø§
ĠÙĪØ§ÙĦÙ ĤØ§ÙĨÙĪÙĨ
Ù ĬØ¹Ø§Ø¯ÙĦ
ÙĪØ§ ÙĬØ§
ĠÙħØ³ ÙĬØŃ
ĠØ±Ø§Ø¦ Ø¯
ĠØ§ÙĨØªØ ¸Ø§Ø±
ĠÙħØ¹ ÙĥÙħ
ĠØ¶Ø ±ÙĪØ±ÙĬ
ĠØ§ÙĦÙĨÙĤ Ø·Ø©
ĠÙĪØ§ÙĦÙħØ ·Ø§ØŃÙĨ
ĠØŃ ÙĬØ§ØªÙĬ
ĠÙĦÙĦØªØŃ ÙħÙĬÙĦ
Ø³ØªØ® Ø±Ø¬
ĠØ§ÙĦÙħÙĬØ ²Ø§ÙĨ
ĠØ£ÙĬ ÙħÙĨ
ĠÙĬÙĤ ÙĦÙĦ
ĠÙħÙĨ ÙĥÙħ
ÙĤ ÙĬØª
ĠØ§ÙĦØª ÙħØ§Ø±ÙĬÙĨ
ĠØ¥Ø« Ø¨Ø§Øª
ĠØ§Ø· Ø¨Ø§Ø¡
Ġ Ø¯ÙĨÙĬØ§
ĠØ§ÙĦØ§Ù ĨØ³
ĠÙħØ® Ø§ÙĦÙģØ©
ĬØ§Ø ª
ĠØ§ÙĦØ¬ ÙĦÙĪØ³
Ī ÙĥÙĬ
ĠØ§ÙĦÙĦÙ Ĥ
ĠÙĦØ§ ÙĬØª
ÙħØ§Øª Ø³ÙĪ
y n
ĠØ§ÙĦØ§Ø³ ÙĦØ§Ùħ
stru ction
Ø±Ø§ Ùĩ
ĠØªÙģ ØµÙĬÙĦ
Ġre ad
ĠØ´Ø§Ù ħØ¨ÙĪ
ĠØµ ÙĬÙĨÙĬ
ÙģØ§Ø¹ ÙĦÙĬØ©
ĠØ§ÙĦØ§ØŃ ÙħØ±
ĠØ§ÙĦØ´ Ùĥ
ĠØ¹Ù ĪØ¯
ÙĨØ ªØ§Ø¦Ø¬
ĠÙħÙĨÙĪ Ø¹Ø§Øª
Ù ħÙĥÙĬÙģ
ĠØ¹Ùħ ÙĦØª
Ġ ÙħØ³Ø±ØŃ
ĠØ§Ø ªÙĪÙħØ§ØªÙĬÙĥ
ĠØª ÙħÙĨØŃ
ĠÙħÙĪØ¸ ÙģÙĬ
ĠØ¹ ÙĦÙĬØ§
ÙĩØ² Ùĩ
am a
ĠØªÙĥ Ø±Ø§Ø±
ÛĮØ ±
ĠØ§ÙĦØ³ ÙĥÙĨ
Ġm on
ĠØ§ÙĦØ² ÙĬØ§Ø¯Ø©
ĠØ§ÙĦØŃ ÙĦÙĪÙĬØ§Øª
ÙĪØ§ÙĦØ§Ø ª
ĠØ§ÙĦÙĨ ÙħØ§Ø°Ø¬
Ġ ÙĬØ¹Ø§Ø¯ÙĦ
ĠØ§ÙĦØ¯Ø± ÙģÙĦØ©
IC E
ĠÙĦÙĬØ ²Ø±
ĠÙĦØ¯ Ø±Ø¬Ø©
âĢı )âĢı
ĠÙĪØ§ÙĦØµ ÙĪØ±
Ġ ÙħÙĥØ§ÙĨØ©
ob er
H ome
ĠÙħØ¹Ø± ÙģØªÙĩ
ĠÙħØŃ ÙĬØ·
ĠØŃ Ø³Ø§
L C
ĠØ§Ø´ ÙĥØ§ÙĦ
ĠÙĥØª Ø¨Øª
ĠØ§ÙĦØŃ ÙģÙĦØ§Øª
ĠØ§ÙĦÙħÙģØ ªØ§ØŃ
Ø³ ÙģØ§Ø±Ø©
ĠÙģ Ø±Ø§Øº
ĠØ§Ø±Øª ÙģØ¹Øª
**** ****
ÙĩØ ±ÙĪ
ore x
ĠØ° ÙĥÙĬØ©
ĠØªØ³Ø§ ÙĩÙħ
le ft
ch ool
ric a
. âĢĿ
Ī ÙĤØ§Øª
ĠÙĪØ£Ù Ĭ
Ø³ ÙĬÙĬÙĨ
ĠØ¨Ø§ÙĦØ§ ÙĨØ³
ĠÙĬØ¬ Ø¹ÙĦÙĩØ§
ĠØ´Ø¹ ÙĪØ±
Ġd u
ĠØ£ÙĪ ÙĦØ§Ø¯
ĠÙĦØªØŃ ÙħÙĬÙĦ
Ø´ Ø¹Ø©
Ø³ØªØ§ ÙĬÙĦ
ĠÙĬØ¹Ùħ ÙĦÙĪÙĨ
Ø¹ Ø¯ÙĬ
ĠÙĬØ °ÙĩØ¨
ĠØ´Ù ĬÙĦÙĬ
±Ù ĨØ³
ĠÙĬÙĪ ÙħÙĬØ©
ĠØ¨ Ø¹Ø¯Ø©
ĠØªØ³Ø ±Ø¨
Ġ ÙĬÙĪØŃ
Ø§ØŃ ÙģØ¸
Ù ĬØ¹Ø§
Ġ Ù¥
ĠÙħÙĥØ§ ÙģØ£Ø©
ĠØ§ÙĦØ¥Ø¨ Ø¯Ø§Ø¹
ĠØ§ÙĦÙħØ±Ø§ Ø¬Ø¹
ĠØ§ÙĦØ¯Ø±Ø§ ÙħØ§
ĠØ§ÙĦÙħØ ¬ÙĬØ¯
ĠØ£Ø¶ Ø¹Ø§Ùģ
ĠØŃ Ø¬Ø±ÙĬ
ĠØ§ ÙĨØªØ±
ĠØ§ÙĦØ§ Ø³ØªØ§Ø°
ĠÙĨÙģ Ø³ÙĬØ©
ĠÙĪØ§ÙĦÙħØ ªÙĪØ³Ø·Ø©
ĠØŃ Ø¬Ø©
ĠØ¨ØªØµ ÙħÙĬÙħ
ĠØªØª ØŃÙħÙĦ
ªØ±Ùĥ ÙĬØ²
as ter
ĠØ§ÙĦØ³ÙĬ Ø¯Ø§Øª
ĠØ§ÙĦØ¹Ø± Ø¨Ùī
Ø¥ Ø¹ÙĦØ§ÙĨ
ĠØ¨Ø¥ Ø°ÙĨ
ĠØ§ÙĦÙĥ ÙĪØ±ÙĬØ©
ĠÙĥÙĪÙĥ Ø¨
ĠÙĬØ³Ø§Ø¹Ø¯ Ùĥ
ator y
ØªØµ ÙĨÙĬÙģØ§Øª
Ø¹Ø ¶ÙĪ
Ø§ÙĦ ØŃØ§
ĠØ¬ Ø²Ø
ĠØ§ÙĦÙĩ Ø¯Ø§ÙĬØ§
ĠØ§ÙĦØ¯Ø¹ ÙĪÙī
Ø§ÙĦØ °ÙĬ
Ø¨Ø§ Ø¹ÙĬ
ÙħØ· ÙĦÙĪØ¨
ard s
( {
ĠÙħØ´Ø§ ÙĩØ¯
ĠÙĦ Ø¨Ø±ÙĨØ§ÙħØ¬
ĠØ¢ Ø³
ÙħØ§ Ø¶
t he
ĠØ¹Ø¶Ù ĪÙĬØ©
ĠØ§ÙĦØªØ ºÙĬØ±Ø§Øª
ĠØ§ÙĦØ´ ÙģØ§
§ Ø´ØªØ±
Ġd i
ĠØª ÙĪØ¶ØŃ
Ø¨ÙĪ Ø¹ÙĬ
ĠÙĦØ§Ù Ĭ
ur ation
ĠØ¯ ÙģØ¹Ø©
«Ø§ Ù
ĠØ§ÙĦÙħ Ø³Ø§Ø¹Ø¯
C H
ĠØ§ÙĦÙĤØ±ÙĬ Ø¨
ĠÙĪØ§ÙĦØ ®Ø§Ø±Ø¬
ĠP rivacy
ind ia
ĠØ§ÙĦØ®Ø± Ø³Ø§ÙĨÙĬØ©
ĠØ§ÙĦÙĤØ§ Ø±Ø©
ĠØ¬Ø¹ ÙĦØª
Ø §Ø´ØªØ±
Ã ¨
ĠØ§ÙĦØ¨ ÙĥØªÙĬØ±ÙĬØ§
ĠØ¹Ø³ ÙĥØ±ÙĬ
Ø¹ÙĬ Ø¨
Ø³ÙĬ ÙĬØ±
ĠØ¯ÙĬ Ø¨
ĠØ§ÙĦÙħØ³Ø§ ÙģØ©
ĠÙĪØ§ÙĦØ¹ Ø§ÙĦÙħÙĬØ©
ĠØ§ÙĦØ³Ùģ ÙĦÙĬ
ĠØ§ÙĦÙģØ¹ ÙĦÙĬ
ÙģÙ ĪØ¹
ĠÙħØ§ Ø¦Ø©
ĠØ§ÙĦØµ Ø¨
ĠØŃ Ø³Ø§Ùħ
ĠØ¬ Ø³Ø±
1 10
l ink
Ø§ÙĦØ§Øª ØŃØ§Ø¯
ĠÙĬØ¹Ø ²Ø²
ĠÙħÙĬØ ´
ir on
Ø±Øª ÙĩÙħ
Ø¨ Ø¹Ø¶
T V
ĠÙĬÙĨØ ¸Ø±
ĠÙĪÙĦÙ ĪØ§
ĠØ¨Ø± ÙħÙĬÙĦ
ĠØ¨Ø§ÙĦØ§ Ø³Øª
ug u
ĠØ¨Ø§ÙĦÙģ ÙĬØ¯ÙĬÙĪ
ĠØ¨Ø§ÙĦ Ø¹Ø±Ø¨ÙĬØ©
ĠØ§ÙĦØ³ÙĪ Ø¯Ø§ÙĨÙĬØ©
ĠØ£Ùĥ Ø¯Øª
ÙĨØ§ Ø«
ÙĦÙģÙ Ĭ
ĠØ§ÙĦÙĤØ ±ÙĬØ©
ĠÙĤ ÙĦÙĤ
ĠØ§ÙĦØ§ ÙĬØ±Ø§
Ġw hatsapp
ĠØ§ÙĦØ®Ø´ Ø¨ÙĬØ©
ĠÙĪØ§ Ø±Øª
ĠØªÙ ĪØ¯
4 60
ĠØ§Ù ĬÙĥÙĬØ§
ĠØ¨ ÙĬÙĪÙĨ
ĠÙħØ³ ØŃ
ĠÙĪØ¬ Ø¨
ĠØ§Ø³Øª ÙĥÙħØ§ÙĦ
Ø« ÙĨØ§Ø¡
ra w
iv es
I m
ĠÙĪØ§ÙĦØ£ ØŃÙĥØ§Ùħ
Ø¨ÙĪ ÙĬÙĨØª
ĠÙħØ¶Ø§ Ø¯
Ĭ ÙħÙĪØª
Ġtr ack
ĠÙĬØ ªØ±Ùĥ
Ø§ÙĦ Ø¨Ø±
ÙĤ ÙĪÙĨ
ïºİ ïº
Ġc he
ĠØ§ ÙĪØ±ÙĪØ¨Ø§
ĠØ§ÙĦÙĥØ ªØ§
al ian
ĠØ§Ø³ØªØ®Ø¯Ø§ ÙħØ§Øª
ĠØ§ÙĦÙĪ ÙĥÙĬÙĦ
ÙĪÙĦØ§ Ø¯
ĠÙħØ ¶ÙĬ
ĠØ§ÙĦÙĥÙ ĪØ¯
ĠØ§ÙĦØ¬ÙĦ Ø¯ÙĬØ©
²Ø§ ÙĤ
ĠØ§ÙĦØ§Ø³Øª ÙĦØ§Ùħ
ĠØ¬ ÙĨÙĬØ©
ĠØ³ØªØ± ÙĬØª
ÙħÙĪ Ø³ÙĪØ¹Ø©
ÙĬÙ ĬÙ
Tag s
§ Ø¶Ø§ÙģØ©
ĠØªÙģØ§ Ø¹ÙĦ
ĠØ§ÙĦÙħÙĨØªØ¬ Ø©
ĠØ§ÙĦÙħØ ¬Ø±
ĠÙĦÙĦÙ ħØ§
ĠÙĦÙĦØ£ Ø¹ÙħØ§ÙĦ
ĠØ§ÙĦØª ÙħØ«ÙĬÙĦ
ÙĬÙĬ ÙģØ§Øª
ĠÙĤØ§ Ø¹Ø©
ĠØ¥ ÙħØ§Ùħ
Ø³Ø· ØŃØ©
7 50
ĠÙĤ Ø¯ÙĬ
ĠØ§ÙĦÙĤ ÙħØ§Ø´
ĠØ£ ØŃØ²ÙħØ©
Ø³ØªÙĤ Ø±Ø§Ø±
ĠØŃ ÙħØ²Ø©
per t
ĠP revious
ĠØ ±ÙĪÙī
ĠØ§ÙĦÙħØ¨ ÙĥØ±
Ø §Ø¶Ø§ÙģØ©
ĠØ§ÙĦØ¥ ÙĬØ·Ø§ÙĦÙĬ
ĠØ§ÙĦÙĩØ§ Ø¯ÙĬ
ĠC ar
ĠÙĪØ§ÙĦÙħØ ±Ø
®Ø§ Ùģ
ĠØ§ÙĦØ³ Ø¹Ø±ÙĬ
ĠÙħÙĨØ§ Ø²
ĠØ² ÙħÙĨÙĬØ©
ĠØ§ÙĦÙħØµØ§Ø¨ ÙĬÙĨ
ÙĪÙĦÙ ģ
}, {"
ĠÙĬÙħÙĥÙĨ ÙĩÙħ
m en
ĠØ§ÙĦØ± ÙĤÙĬÙĤØ©
ĠØ³ ÙĦØ©
ï» Į
ĠÙħØ¹ Ø§ÙĦØ¬
ĠØ¨Ø§ÙĦØ±Ø ºÙħ
t ra
ĠØ§ÙĦÙħØ¶Ø§ Ø¯Ø©
Ġd uring
ĠØŃ ÙģÙĦØ§Øª
ĠØ§ÙĦÙħØ °ÙĥÙĪØ±
ÙħØ± ØŃØ¨Ø§
ÙĨØ² ÙĪÙĬÙĦØ§
ĠÙĪØ§ÙĦØ§ ÙĤØªØµØ§Ø¯ÙĬØ©
ĠÙħÙĤ ØªØ±
ĠØ§ÙĦØ§ÙĨØ ªØ§Ø¬ÙĬ
Ø¹Ø§ Ø¦
ĠØ§ÙĦØªÙģØ§ ØŃ
ĠØ§ÙĦØ® Ø³Ø§Ø±Ø©
ĠØ§ØŃØ ªÙħØ§ÙĦ
Ø³Ø§ Ø®
Ġlik e
ĠØ§ÙĦÙĤØ±ÙĬ Ø¨Ø©
Ø §Ø·
ĠMT W
ĠÙĦØ§ Ø³ØªØ
l ive
ĠÙħØµ ÙĨÙĪØ¹
u zz
ĠØ³ ÙĨØªÙĬÙĨ
ĠØ§ Ø±ÙĬØ¯
C N
ĠØ§ÙĦÙħÙ ĨØ³
ĠÙĥ Ø¹Ø¨
Ø¨Ø ¬
ÙĥÙĨÙ ĪÙĦÙĪØ¬ÙĬ
ĠÙĪÙĬ ÙĤ
ĠØ¨ ÙĦÙĪÙĥ
ĠØ±Ø§ ØŃØ©
ĠÙĨØ ¬ÙĬØ¨
ĠØ¬ÙĨÙĬ ÙĩØ§
ĠØ§ÙĦÙħØ ªØ§Ø¨Ø¹Ø©
ĠÙħØ±Ø§ Ø¯
Ġ est
ØŃØªØ±Ø§ ÙģÙĬØ©
n ews
ĠØªØ´ ÙĥÙĬ
Ĩ Ø¨ÙĬ
ĠØ§ÙĦØ§ÙĨØª Ø¨Ø§Ùĩ
ÙĨØ¸ Ø±Ø©
ĠÙĪØ§ÙĦÙĨ Ø³Ø§Ø¡
ĠØ§ÙĦØ¹Ø§ Ø¯Ø©
Ø¬Ù ĬØ¨
ĠØ§ÙĦØº ÙĨÙĬØ©
ĠØ¥ ÙĨØ¬ÙĦØªØ±Ø§
Ù ĬÙħÙĪØª
ĠØ§ÙĦØª ÙĪØ¬Ùĩ
Ø³Ø§ ÙĪÙĬ
ĠØ§Ø³ ÙĦØ§ÙħÙĬØ©
Ġ ÙĪÙĩØ
ĠØ§ÙĦØ ´Ø§Ø´Ø§Øª
ĠÙħØ ªØŃØ¯Ø«
ÙĨØ§ ÙģØ³
ĠÙģÙ ĨÙĪÙĨ
ĠØ¨Ø ªØ¬
ĠØ¢ ÙĦØ§Ùħ
j s
Ġ ÙĬÙģØªØŃ
ĠØ¹ ÙĬØ§Ø¯Ø©
Ġ Ù¦
ĠÙĪÙĬ ÙĤÙĪÙħ
ĠØª Ø¨ÙĬØ¹
®Øµ ÙĬØµ
ĠØ§ÙĦØ¨Ø±Ø§Ø ²ÙĬ
Ø³ØªØº Ø±Ø§Ùħ
Ġ ÙĨØ³ØªØ·ÙĬØ¹
ĠÙĨØ ±ÙĬØ¯
Ġ14 0
ĠØ§ÙĦØ³Ø§ Ø¦ÙĤ
ĠÙĬÙĤ Ùģ
ĠØ³ ÙĦÙĪ
ĠR ev
ĠØ¨Øª ÙĨØ¸ÙĬÙģ
ĠØ§ÙĦÙħØªÙĪØ§Ø¬ Ø¯ÙĪÙĨ
Ø¨ÙĬ ÙĬØ¶
ĠØ§ Ø¯Ø®ÙĦ
ÙĥØ§ ÙĨÙĬØ©
ĠÙĦÙĦÙħØ ²ÙĬØ¯
Ø³Ø ¬ÙĨ
N ext
ĠØ§ÙĦØ¨Ø§ Ø·ÙĨ
ĠØ§ÙĦÙħØ³ ÙĦØ³ÙĦØ§Øª
ĠO ne
ĠÙħØ ·Ø
±ÙĪØ ¡
ĠØ§ÙĦØª ÙħØ±ÙĬÙĨ
ĠØ¹Ø± Ø¨Ø©
¦Ù Ĩ
ĠØ§ÙĦÙĬ Ø³Ø§Ø±
ĠÙģØ§Ø ±
ĠÙģ ÙĦØ§Ø´
ÙħØŃ Ø·Ø§Øª
ĠÙħÙģ ØµÙĦ
ĠØ§ÙĦÙħØ ·Ø±
ĠØ¨Ø§ÙĦÙ ħ
ĠØ¥ Ø¹Ø¬Ø§Ø¨
ĠM achine
Ġvis it
ÙĪØ§Ø¦ Ø¨
Ġ ÙĬÙĪØ
Ġp age
ĠÙĦÙĦÙģ Ø
ÙĤØ§Ø¦ Ùĥ
ĠØ¨Ø± Ø¹Ø§ÙĬØ©
Ø¹Ø§Ùħ ÙĦÙĬÙĨ
ÙĩÙĩ ÙĩÙĩ
Ġm ost
ĠØ±ÙĪÙħØ§ÙĨ Ø³ÙĬØ©
et h
ĠÙħØŃØ§ ÙĪÙĦØ§Øª
y l
ØŃØ§ Ø¨Ùĩ
ÙħÙĬØ ªÙĩ
ÙĥÙĪ ÙĬØª
Ī ÙĨØ§Øª
He ight
ĠÙħØªØ ±ÙĬ
ÙĪØ¶ ÙĪØŃ
ĠÙĥØ ±ÙĪÙħ
ÙĥØ§ ÙĬØ§Øª
ĠØ¹Ø±Ø¶ Ø©
ĠÙĩ ÙĬÙĪ
Ù ĬÙĦØ§Øª
ĠÙĪØ§ ÙĥØ³Ø³ÙĪØ§Ø±Ø§Øª
ĠØ µÙĬ
z a
ĠØª ÙĦØ
·Ø ±ÙĬØ²
ĠØ§ÙĦÙĤØª Ø§ÙĦ
Red dit
ĠSh are
ĠÙĬØ³Øª ÙĤØ¨ÙĦ
ĠÙĦ Ø¯Ø®ÙĪÙĦ
Ø¯ Ø¨ÙĬ
Ġwh m
ĠØ¯Ø ¬Ø§Ø¬
ĠØ« ÙħØ§ÙĨÙĬØ©
ĠØ¨ Ø¯Ø§Ø®
ĨÙģ Ø³ÙĬ
ĠV ideo
ĠØ§ÙĦØŃØ± ÙħÙĬÙĨ
ĠØ§ÙĨÙĤ Ø·Ø§Ø¹
ĠØ¨ Ø·Ø±ÙĤ
ĠÙĦÙĦÙ ĤØ§
ĠØ£Ø±Ø¶ ÙĬØ©
ĠÙĬØ ´Ø
ÙĬÙĨØ ¬Ø±
ĠØªØ³Øª ÙĩØ¯Ùģ
Ø£ ÙĤ
ĠP age
ĠØ§ÙĦÙħÙĨØ§ ÙĩØ¬
ÙĪØ§Øª ÙĬØ±
ĠØ§ÙĦÙģ ÙĪØ§ÙĥÙĩ
ĠÙĦÙĦØª Ø¹Ø§ÙħÙĦ
ĠØ§ÙĦØŃ Ø±Ø§Ùħ
ÙĤØ °
Ø¨ ÙĦÙĬ
Ø§ÙĦØ ®Ø·
Ġv iews
Ùĳ ÙĮ
ĠÙħØ ªØ¬
ĠØ§ÙĦØ´ ÙĪØ§Ø±Ø¹
ĠØ§ÙĦÙħØ¬ ÙĦØ©
ĠØ§ÙĦØ¨Ø± ÙĪØªÙĬÙĨ
Ø§ÙĦØ£ ÙĤØ³Ø§Ùħ
os s
ĠØ§ÙĦÙħÙĪØ ŃØ¯
ĠØ§ÙĦØŃ ÙĪØ§
&& (
°Ùĥ Ø±Øª
ĠÙĪØ ªÙĨÙģÙĬØ°
Ġ7 8
Ø§ÙĦÙĨ ØŃØ§Ø³
ĠÙĪØªØ ·Ø¨ÙĬÙĤ
ĠØ§Ø®Ø ªØ§Ø±
Ð ³
ĠØªØ±Øª Ø¨Ø·
ĠØŃ ØµÙĪÙĦ
Ø¯Ø§Ø¡ Ø
h d
ĠØ§ÙĦÙĦÙĬ Ø¨ÙĬ
Ø§ÙĦØªØ ²Ø§
ĠØ§ÙĦÙģ ÙĦØ§
ÙĬÙħ Ø¨Ø§Øª
ÙĥØª Ùĥ
ĠØ¹ ÙħØ§Ø¯
ĠØ£Ø±Ø¯ ÙĪØºØ§ÙĨ
ĠÙĪØ³ ÙĦØ§ÙħØ©
ĠØ£ÙĪØ§ ÙħØ±
Ùĥ ÙĬÙĨØ§Øª
ĠÙħØ ±Ø³ÙĦØ©
Ø´Ø§ Ø´Ø©
ĠÙĪØªØ£ Ø«ÙĬØ±
ĠC ap
ØµØ §Ø¦ÙĬØ©
á Ģ
ĠØ¨Ø§ÙĦÙħÙ ĤØ§
Ġ ?
ĠØ§ÙĦØ¬ Ø¯Ø§Ø±
§ Ø²
Ġp erson
ĠØŃØ¯ÙĬØ« Ùĩ
ĠØ¨Øª ÙĤ
ÙħØ ¬Ø§
ĠØ§ÙĦØ£ Ø³Ø±
Ø¯ Ø§ÙĦ
ĠÙĪØ¨ ØŃÙħØ¯Ùĩ
ĠØ® ÙħÙĬØ³
ĠJ aw
ĠØ§ÙĦØ¢ Ø³
Ø´ ÙĤÙĤ
ÙĦØ§ ÙĤÙĬ
ĠØ§ÙĦØ· ÙĪØ§Ùģ
ĠÙĩ ÙĬØ§
ĠØ§ÙĦÙĤØ ªÙĦ
ĠØ±Ø¦ÙĬØ³ Ø©
ĠØ§ÙĦÙĪØ¬ Ø¨Ø§Øª
vert is
ÙħÙĪ ÙĬÙĨ
ĠØ§ÙĦØ¬ ÙĦÙĬØ¯
ĠØ§ÙĦØª ÙĦÙĪØ«
Ø¨Ø±ÙĬ ÙħÙĬÙĪÙħ
ĠÙģØ§ Ø²
Ĩ ÙĪÙ
o or
ĠØ§ÙĦÙħ Ø¹Øª
ĠØ§ ÙĪØ±Ø¬
re f
ĠØ£ÙĪØ§ Ø®Ø±
ĠØ¶ ØŃØ§ÙĬØ§
ĠØ³Ø ªÙĪ
ĠØ§ÙĦÙĦÙ ģ
ĠØªØª Ø³Ø¨Ø¨
ĠØ§ÙĦÙĤ Ø±Ø§Ø¡
ĠØ§ÙĦÙ ĨÙĪ
ĠÙĪÙħØŃ ÙħØ¯
w ay
ĠØ§ÙĦØ£ Ø³ØªØ±
ÙĪØª ÙĪØº
abl ed
ĠØ§ÙĦÙĥØ§ ÙģÙĬ
ĠT est
" >
ĠUS D
Ø¹Ø§ Ø¬ÙĦ
ĠÙĪØª ÙĦÙħÙĬØ¹
erv ed
ĠØ§ÙĦÙĤØ§ Ø¨Ø¶Ø©
Ī Ø¨ÙĬ
ĠØ§ÙĦØµ ÙĬØ§Ùħ
ĠØ· Ø¨Ø¹
ĠØ§ÙĦÙĪØ µÙģ
ĠØ´Ø§Ù Ĭ
Ø¨ ÙĦØ§Øº
ĠØ§ÙĦÙħÙĤ Ø¯
ĠØ§ ÙĨØ¬ÙĦÙĬØ²ÙĬ
ĠØ¹ ÙĪÙĨ
ĠØ§ÙĦØ´ Ø±Ø§ÙĥØ©
ĠÙĪÙĦØ§ Ø¯Ø©
ĠS ci
ĠØ§ Ø¹Ø¯Ø§Ø¯
Ġ ÙħÙĥØ³
ubs crib
ĠØ§ÙĨ ÙĨØ§
Ø³Ø§Ù ĪÙĬØ©
ĠÙĥØ ±Ø¯
ĠØ§ÙĦØ± Ø¨Ø§Ø·
ĠØ§ÙĦØ¥ ÙĤ
Ø¯ÙĪÙ ĨÙĬ
ĠØªØ³Ø§ ÙĤØ·
ĠØ§ÙĦÙĬ ÙĩØ§
ĠØ§ÙĦØ¹ Ø¨
ĠÙĩØ± ÙħÙĪÙĨ
ĠØŃ Ø±Ø§
ĠÙĪØ¨ Ø³
" âĢı
Ù ĪÙħØ§Øª
ĠØ¬ ÙĪÙĬ
ĠØ§ÙĦØ¹Ø° Ø±Ø§Ø¡
ØŃ Ø¯Ø¯
ĠÙĪØ§ÙĦÙħØ µ
ÙĦØ µØ©
ĠØ§ÙĦØ´ÙĬ ÙĪØ®
ĠØ§ØŃØ ªÙħ
ĠÙĦÙĦÙĤ ÙĪØ§Øª
ĠÙħØ¹ ÙĦÙĪÙħØ©
ĠØ¨ ÙħÙĤØ§
ÙĪÙĦÙ ĬØ
Ġpro f
Ø« Ø¨Ø§Øª
ĠØ§ÙĦÙĤØµ ÙĬÙħ
Ø´Ø§ Ø±Øª
Ġ0 11
ĠØ§ÙĦØªØ µØ§ÙħÙĬÙħ
ĠÙĦÙħÙ ĪØ
Ø¨ ÙĬØ§Øª
ĠØ« Ø¨Øª
ºØªÙĬ Ø§ÙĦ
ĠØ±Ø¬ Ø§ÙĦÙĬ
ÙĩØ ªÙĩ
ĠØ§ÙĦÙħÙĨ ÙĤÙĪÙĦØ©
ÙħØª Ø©
ĠØªØ ®Ø·ÙĬØ·ÙĬ
®Ø§ ÙħØ§Øª
ĠØ§ÙĨØª ÙĤÙĦ
Ø£Ø³ Ø¨Ø§Ø¨
ĠÙĦØ§Ù ĨØ¯
· Ø¨Ø®
ĠØ¬Ø °Ø¨
E lement
Ù ĨØ¨ÙĬ
ĠØ¥ Ø³ØªØ
Ù ĬØ¨Ø±
ĠØª Ø¨Ø±ÙĬØ¯
c rusher
ĠØ§ÙĦÙħ ÙģÙĬØ¯Ø©
ĠÙĪØ§ÙĦØ£ Ø®
Ù© Ù©
ĠÙħØ ¬Ø±
Ġd em
ĠÙĪÙĬ Ø¹Ø¯
ĠØ¬ Ø±ÙĬ
ĠÙĬÙĪ ÙĨØ§ÙĬØªØ¯
Ġ6 9
ÙĤØ§ Øµ
ÙĤÙĦÙĬ ÙħÙĬØ©
ĠÙĨØµ ÙĬØ©
ĠØª Ø³Ø¨
T umblr
ĠÙĥ ÙĬØ§
ĠØ§ÙĦØ¨ Ø¯
ÙħØ ±ÙĪÙĨ
ĠØ¨Ø² ÙĬØ§Ø¯Ø©
ett ings
ĠØ§ÙĦØµÙ ĪØ¯ÙĬÙĪÙħ
ĠØµ ÙĦØ§Ø¨Ø©
ĠØ§ÙĦÙħØ³ØªØ ¬Ø¯
ĠØ³Ùģ ÙĬØ§ÙĨ
ĠØ§ÙĦØ³ Ø¹ÙĬ
op t
ÙħØ§Øª ÙĬØª
Ø· ÙĬØ±
ĠØ§ÙĦÙħØ³Ø§ Ø¬Ø¯
ØŃ ÙĤØ©
ĠØ§Ø³ Ø¨Ø§Ø¨
tr ue
§ Ø®ØªÙĬØ§Ø±
ĠÙĤÙĬØ§ Ø³ÙĬ
ĠØ¹ ØµØ§Ùħ
ĠØ§ÙĦÙĪØ§Ø ªØ³
Ĭ ÙĤÙĪÙĦÙĪÙĨ
Ù ĬÙĤÙĪÙĦÙĪÙĨ
ĠØ¬Ù ĨÙĬÙĨ
Ø§ÙĦØª Ø³Ø¬ÙĬÙĦ
ire ct
ĠØ§ÙĦØ ¸Ø§ÙĩØ±Ø©
Ø¹Ø§Ù ħÙĦØ©
el come
ĠØ§Ø³Øª ÙħØ±
â Ŀ
ĠØ§Ø³ØªØ¦ Ø¬Ø§Ø±
ĠÙĪØŃ Ø¯
ĠÙĦÙĦÙĥØ ªØ§Ø¨
ĠØ¨Ø¬ ÙĪØ§Ø±
ĠØ§ÙĦØ¬ ÙĪØ§ÙĨØ¨
ĠØ§ÙĦØ¨ Ø±Øª
ĠÙħÙĪØ ²Ø¹
ĨÙ ĪØ¯
ĠØ§ÙĦØ£ÙĨ Ø¨Ø§Ø¡
Ø¬ ÙĪØ§ÙĦ
ĠÙĪØŃ Ø³Ø¨
ÙĨØ§Ø ±
ÙĬÙĤ ÙĪÙħ
ÙĬÙ ĪÙĦÙĪØ¬ÙĬ
ĠR T
ĠÙħØ ªØ±Ø§
ĠÙĬØª ØŃÙħÙĦ
ĠØŃ ÙĦÙĬ
y p
t ype
ĠØ§ÙĦØµ ØŃÙĬÙģØ©
ĠÙĦÙĪØ ¶Ø¹
ĠØ±Ø£ Ø³ÙĬØ©
ĠÙĦØ ¬Ø§
ĠÙģÙĬ ÙħØµØ±
ĠÙģÙĬ Ùĥ
ÙĪØ± Ø³
v ed
Ø±Ø ±Øª
ĠØ§ÙĦØ§ØŃØª ÙĬØ§Ø·ÙĬ
ĠØ§ÙĦØº Ø³Ø§ÙĦØ§Øª
ĠØ¨ÙĬ ÙĥØ±
·Ù ĬÙĥ
ĠØŃÙħ ÙĦØ§Øª
Ø §Ø®ØªÙĬØ§Ø±
ĠØ¨Ø§ÙĦ Ø·Ø§ÙĤØ©
ĠÙħØªØŃ Ùģ
in ue
ĠÙĨØ ¶
ÙĬÙħØ¨Ø§Øª ÙĪØ±
ĠØ§ÙĦØ¨ Ø¹Ø¯
ĠÙħØ¶Ø ®Ø§Øª
ĠÙĪØ§ÙĦÙĥ Ù
Ġ ÙĢÙĢ
Un known
m ill
ĠØ§Ø ±Ø³Ø§ÙĦ
ĠØ§ÙĦÙħØªØ®ØµØµ ÙĬÙĨ
ĠÙģ Ø³ÙĪÙģ
ĠØ§ÙĦØ¬ÙħØ§ Ø¹ÙĬ
ĠÙģØªØ ±Ø§Øª
ĠDec ember
ĠÙħÙĩÙ ĨØ©
ĠÙĬÙĥÙĪÙĨ ÙĪØ§
ÙĥØ§Ø «Ø±
ĠHe avy
°Ø§ ÙĩØ¨
ĠØ¨Ùĥ ÙģØ§Ø¡Ø©
ĠØŃ Ø³Ø§Ø³ÙĬØ©
ĠØªØ °Ø§ÙĥØ±
ĠØ¥ÙĦÙĬ ÙĥÙħ
ĠØ§ÙĦÙĦØ§ Ø²Ùħ
ĠÙĬØŃ ÙĤ
ĠØ§ÙĦØ² ÙĩØ±Ø§Ø¡
Ø¯Ø§Ø¡Ø §
ª ÙĤÙĪÙħ
ĠØªØ °
ĠÙģ Ø¹ÙĦÙī
ÙĩØ± Ùĩ
ĠØ¹Ø· ÙĦØ©
±Øª Ø¨
ĠØ§Ø³ Ø¨ÙĪØ¹
ĠØ§ÙĦØ¨ ÙĪØªØ§Ø³
ĠØ§ÙĦØ£Ùģ ÙĤÙĬ
ĠÙĦÙħÙ ĤØ§
ÙĥØ´ ÙģØª
ÙĪØ ²Ø©
ĠØ§ÙĦÙĤØ ±Ùī
ĠÙħØª ÙĤØ¯ÙħØ©
â ľ
sh ip
ĠM us
ĠÙĪØ§ÙĦ Ø¬ÙħØ§ÙĦ
ĠÙĨØ³Ø§ Ø¦ÙĬ
Ø§ÙĦØ« ÙĤØ§ÙģØ©
ĠØ§ ÙĥØªØ¨
ĠØ§ÙĦØ¨Ø± ÙħØ¬ÙĬØ§Øª
ĠÙĦÙ ĪÙĦØ§
ĠØª Ø¹Ø§ÙħÙĦØ§Øª
ĠØ§ÙĦØ³Ùħ Ø³Ùħ
ĠØ³Ø§Ø®Ù ĨØ©
Ġ Ú¯
ĠØªØ¹ Ø±Ø¶Øª
ĠÙĨØµ ÙĪØµ
ĠØ§ÙĦÙģ ÙĦÙĦ
ĠØ§ÙĦÙĪØ³Ø§ Ø¦Ø·
ĠÙħØµØ± Ùģ
Ø ªÙĤÙĪÙħ
ĠØ§ÙĦØ®Ø± Ø¯Ø©
ÙĦÙħÙ ĩØ§
ĠÙĦØªØ ®
re ak
Ġ6 2
ĠÙħØ§ Ø±Ø
ÙĨØ² Ø±Ø©
an i
ĠÙĦØ ·Ø§
ĠØ§ÙĦØ¯Ø³Øª ÙĪØ±ÙĬØ©
ĠØ§ÙĦÙģØ± Ø¹ÙĬØ©
ĠÙħØ¤ Ø³Ø³
ĠÙģØ±ÙĨ Ø³ÙĬØ©
ĠÙĪØ§ Ø³Ø¹Ø§Ø±
arg e
ĠØªØ³ ÙħÙĬØ©
ĠØ§ÙĨØª ÙĩØª
ĠF ound
ĠØ§ÙĦØŃ Ø¬Ø©
ĠÙĪØ§ ØŃØ©
ÙħØ±Ø§ ÙĨÙĬ
ĠØ§ÙĦØ£Ø² ÙħØ§Øª
ä ¸
ĠØ¨Ø§ Ø²
I A
ĠØ§Ø³ Ø¨Ø§ÙĨÙĬØ§
ĠÙģ Ø±Ø¬
ĠØ§Ø³ØªØ± Ø§ÙĦÙĬØ§
ĠC am
s w
ĠØ¨Ø§ ØŃØ«
ĠÙħÙĩ Ø¯ÙĬ
ĠÙĩØ± ÙĬØ±Ø©
ĠØ§ÙĦÙħØŃØ ªÙħÙĦØ©
ÙĬØª Ø§ÙĦ
pt ember
ÙĪØ§Ø¦ ØŃ
Ġ ÙħÙĥÙĬÙģ
ĠØ§ ÙĨØ¬ÙĦÙĬØ²ÙĬØ©
ĠÙħØ ²Ù
ĠØ§ÙĦØ¥ Ø³ØªØ
Ø³Ù ĨÙī
ĠØ§ÙĦØ ²Ø
ĠØªØ³Øª ØŃÙĤ
±ÙĪØ ª
Ġm obile
ĠØ§ÙĦØª Ø¯Ø®ÙĦ
Ø¹Ø¯ Ùĩ
ÙĪØµ ÙĬØ§Øª
Ġ ÙĬÙħÙĪØª
ĠØ£Ø¨ÙĬ Ùĩ
ĠØ£ ÙħÙĬ
ĠÙĪÙĥ ÙĦØ§Ø¡
ĠØ§ÙĦÙģØ§Ø ±
Ø·Ø± ØŃ
ĠØ§ÙĦØ µØ§Ø
ĠØ¹Ø§ Ø¬ÙĦØ©
Ġ em
ĠØ§ÙĦØ§ØµØ·ÙĨØ§ Ø¹ÙĬØ©
ion al
u an
ĠÙĪØ£ Ø¨ÙĪ
ran ite
ĠØ§ÙĦØ±Ø§Ø¬ ØŃÙĬ
ĠØŃØ§ Ø³Ø¨Ø©
Ġ19 99
20 23
ĠØªØ¯ ÙħÙĬØ±
ĠØ§ÙĦØµØ ºØ§Ø±
Ù ĪÙħÙĩ
Ĩ ÙĬÙħ
ĠØ§ÙĦØ£ ÙħØ·Ø§Ø±
ĠØ§ÙĦÙĥÙĪØ§ ÙĥØ¨
Ø §Øµ
ĠØ§ÙĦØ³ ÙħÙĪ
ĠØ§ÙĦØ§ ÙħÙĨ
ÙĨØ¬ Ø¨ÙĬÙĦ
ÙĨØµ ØŃ
ĠØµÙĪØª ÙĬØ©
ĠØ§ÙĦÙħØ ¬Ø
ĠØ¨ ÙħÙĨ
ĢÙ Ĭ
ĠØ§ÙĦÙħØ¹Ø± ÙĥØ©
Ø¯ ÙĬØ§
ĠØ§ÙĦØŃØ§Ø ±
ĠÙĪØ®Øµ ÙĪØµØ§
un n
ĠÙĬØ ªØ±
ÙĦÙĦØ §
ĠØ§ÙĦ Ø§ÙĦØ§Øª
ĠØ§ÙĦØ£Ø ¸Ø§ÙģØ±
ĠØº Ø¨Ø§Ø±
ĠØ±Ø§ Ø¬Ø¹
Ĩ Ø³Ø
Ġ ÙĨØŃØª
ĠØ§ÙĦØŃ ÙĥÙĬÙħ
ĠÙħÙĬØ³ ÙĬÙĨ
ĠØ£Ø· Ø¨Ø§Ø¡
ÙĦÙĨ Ø¯ÙĬ
±Ùģ ÙĪØ±
ĠÙĬÙĦØª ÙĤÙĬ
ĠØªØ´Ø ®ÙĬØµ
ĠØ§ÙĦÙĥ Ø±ØªÙĪÙĨ
L e
Ġï· º
ĠÙģØ ªØ§ÙĪÙī
im er
ĠÙĦÙĦÙħÙĪØ§ Ø·ÙĨÙĬÙĨ
ĠÙĦØ£ÙĨ ÙĩÙħ
ĠØ¨ ÙĨÙī
Ùĩ Ø±Ø§
ĠT o
ĠØŃ ÙĤØ§Ø¦ÙĤ
ÙĩØ ´
Ø«Ù Ĭ
ĠIn fo
Ø¹ÙĬ ÙĩØ§
ĠA ss
ĠÙĤ Ø·Ø§Ø¹Ø§Øª
y outube
ĠØ¹ ØµØ§
ĠØªØ µÙĬØ¨
ĠÙĦÙĦØ °
ĠØ®Ø ªØ§Ùħ
Ùģ ÙĤØª
ĠÙĪØ¬ ÙĩØ§Øª
Ø³Ø§Ø ±ÙĬØ©
Ø§ÙĦØŃ ØµÙī
ĠØ§ÙĦÙĤ Ø·ÙĨ
ĠØ³ ÙĥÙĨÙĬØ©
ĠØ§ÙĦØ¬ Ø¨ÙĩØ©
· ÙĦØ§Ø¹
ĠØ®Ø¯ÙħØ§Øª ÙĩØ§
ĠØ§ÙĦØ¨ Ø¹ÙĬØ¯
Ø§ÙĦØ ±ÙħÙĦ
ÙħØµ Ø¯Ø±
Ùģ ÙĥØ±
ĠØ§ÙĦÙħØ¹Ø±ÙĪØ¶ Ø©
ĠØ§ÙĦØªØ µØ±
ĠL M
ĠØ§ÙĦØª ÙĦØ§
ĠØ£Ø´ Ø¹Ø©
ĠÙĪØ£ Ø¹Ø¶Ø§Ø¡
ĠØ¨ÙĨØ§ Ø§ÙĦ
ĠØ¥ Ø³ØªØ®Ø¯Ø§Ùħ
ĠØ§ÙĦØ£Ø´ Ø¹Ø©
Ø§ÙĦØŃ ÙĬØ§Ø©
ĠÙĪØ ´Ø±ÙĥØ©
Ø ªÙĢ
ĠÙĬØµ Ø¹Ø¨
Ġ ÙĪÙĩØ§
ÙģØª Ùĥ
µ ÙĪØµ
±Ø¨ Ùĩ
ĠØ§ÙĦÙĨØ ¶
Ī ÙĨØ¬
ĠØ· ÙĪÙĬÙĦØ§
ĠØ§ÙĦÙģ Ø¦Ø±Ø§ÙĨ
ĠØ¥ Ùĥ
ØŃØª ÙĦØ§ÙĦ
ĠÙĪØ§ÙĦØª Ø³ÙĪÙĬÙĤ
ĠØ§ÙĦÙģ ÙĬÙĨ
´Ø§ Ø¨Ùĩ
Ġ ÙħØ¯ÙĪ
A ED
ĠIS O
×Ļ ×
ØªØ ±Ø§Øª
ĠØ§Ù ĬØ³
ÙĪÙĬ Ø¹
ĠØŃ ÙĦÙĪÙĬØ§Øª
ÙĪØª ÙĩØ§
ĠM ac
Ùĭ )
ĠØ³ ÙĬÙĨ
ĠÙĦÙĦ Ø¹Ø²
ĠØ§ÙĦÙħØŃ Ø±Ø²
ĠÙĪÙħ ÙĦØ§
ĠUS B
Ùĥ Ø£Ø³
ĠÙĨØª ØŃØ¯Ø«
ĠØ¨Ø¥ÙħÙĥØ§ÙĨ Ùĥ
Ġ ÙĨØ¨ÙĬ
ĠÙĬÙĤ Ø¨ÙĦ
ªØ ´ÙĬ
Ø´ ÙĬØ§Ø¡
ÙģÙĬ ÙħØ§
ĠØ´Ø£ÙĨ Ùĩ
ĠØ§ÙĦØ¬ ÙĩØ§Ø¯
ĠÙĦÙĦ Ø£Ù
ĠØ§ Ø¨Ø±ÙĬÙĦ
ĠØ§ÙĦØ£ ÙħØ§ÙĨØ©
Ù ħØ¨Ø±
ĠØ§ÙĦØ¹ Ø¯ÙĪÙī
G ET
el t
ĠØŃ Ø¯Ø§Ø¯
ĠAr ch
ÙĨÙĤ Ø¯Ùħ
ÙĩÙ ĪØ¯ÙĬØ©
U B
Ġre c
Ð ´
ĠØ£ ÙĨØ·
ĠØ¨Ù ĪØ¨
ĠCom ments
ĠØ§ÙĦØªØ ¬Ø²Ø¦Ø©
ÙĨØ «
ĠØ¨ÙĨ ÙħØ§
ĠØ§ÙĦÙħÙĤ ØªØ±
Th is
ĠÙĩÙĨ Ø§ÙĦÙĥ
ĠÙĨØ§ Ø¹ÙħØ©
b c
ĠØ·Ø§Ø¦ Ø±Ø§Øª
ĠÙĪØŃ ÙĤÙĪÙĤ
ĠÙĥ Ø§ÙĦØªØ§ÙĦÙĬ
ħ Ø¯ÙĨÙĬ
ĠÙħØ§ Ø´
Ø¦ ÙĤÙĬ
ĠØ§ÙĦØ®Ø ²Ø§ÙĨ
ĠÙĦÙĦØ§ ÙĬÙģÙĪÙĨ
Â» :
ĠØ¨Ø§ÙĦÙħÙ ĨØ§
f l
ĠØ§ÙĦØ³Ø ªØ§
ĠØ¨ÙĨ ÙĬØª
Ø¸ ÙĩØ§Ø±
ØªØ ·
ru ary
p rice
ĠØ§ÙĦØªØ¹ Ø¯ÙĬÙĦ
ØµØ§Ø¡ Ø
ĠØ£Ø °Ø±Ø¨ÙĬØ¬Ø§ÙĨ
ĠØ§ ÙĬØ¬ÙĬ
ĠÙĪØ§ÙĦØª Ø¹Ø§ÙĪÙĨ
ĠØ§ÙĦÙħØŃØ§ ÙģØ¸
ØµØ§Ø¡Ø §
Ġc e
ĠÙģ Ø¬
ĠØ¹Ø¸ ÙĬÙħØ©
ĠÙĬØ ªÙĪÙĤØ¹
Ø®Ø ±ÙĬØ·Ø©
Ø ªØŃØª
ĠÙħØ¹ Ø§ÙĦ
ĠÙħØ ¬Ù
ĠØ±Ø£Ø³ Ùĩ
Ù ħØ¯ÙĨÙĬ
ĠØ¨Ø§ ÙĤØ©
ĠÙĦÙĦÙĥ Ø´Ùģ
ĠØªØ¹Ø ±ÙĬ
Ø´ Ùĥ
ÙĬÙ ĢÙĢ
ÙĦØ ¤
ĠÙħØ¹Ø ¬Ùħ
Ø¬Ø±ÙĬ Ø¯Ø©
·Ù ĪÙĦØ§Øª
ĠØ¥ÙĬ Ø¯Ø§Ø¹
ĠØ¹Ø±Ø§ ÙĤÙĬ
ĠÙĥØ± Ø³ÙĬ
ĠØ§ÙĦÙĨÙĤØ§ Ø´
il ity
in al
ib le
ĠÚ©Ø §
ĠØ§ÙĦØ¨ Ø¹
ĠØ§ÙĦØºØ± ÙĬÙĨÙĬ
ĠØ§ÙĦØ·ÙĦØ§ Ø¨ÙĬØ©
ĠÙĦØ£Ø³ Ø¨Ø§Ø¨
ĠÙĪØª ÙĤÙĪÙħ
ĠØŃ ÙģØ§Ø±Ø©
ĠØ§ÙĦØ§Ø³Øª Ø¹ÙĦØ§Ùħ
ĠÙħØ´ ÙĬØ·
ÙĦÙĬØ§ Ù
ĠØ§ÙĦÙĤØ· Ø±ÙĬ
ĠØ§ÙĦØŃ Ø³Ø§Ø³Ø©
Ø¨ÙĪ Ø¨Ø©
ĠW ikipedia
ĠØ§ÙĦØ£Ø· Ø¨Ø§ÙĤ
ĠÙħØ±Ùĥ Ø¨
â µ
Ĩ ÙģØ§ÙĬØ§Øª
ØµØ§Ø¦ ÙĦ
ĠÙĪØ¨ ÙħØ§
ĠØ£Ø «Ø§Ø±
o om
ÙħØ§Ø¹ÙĬ ÙĦÙĬØ©
ĠÙħØ³Ø ¬ÙĦ
ĠØ·Ø¨ Ø¹Ø§
ĠØ³Ø± ÙĬØ±
ĠØ§ÙĦØ± ÙĬØ§
ĠØªØ± ÙħÙĬÙħ
ĠÙģ Ø³ØªØ§ÙĨ
ĠØ£ ÙħØ
ĠÙĬØ« Ø¨Øª
ĠØ²ÙĬ ÙĪØª
ªÙĪØ¯ Ø¹
ĠÙĦØ§ Ø¨
ĠÙĪØ· ÙĨÙĬ
ĠØºÙ Ĭ
ĠØ· Ø¨ÙĦ
ĠÙĬØ¬ Ø¹ÙĦÙĩ
Ĭ ÙģØ¶
ĠØ§ÙĦØ¯Ø§Ø¦ ÙħØ©
ĠØ ±Ùħ
ĠØ§Ø³ ÙħÙĩØ§
ÙħÙĤ Ø¯ÙħØ©
Ù ĬÙģØ¶
ĠÙĪØ£ Ø¬ÙĩØ²Ø©
ĠÙĪØ§ÙĦØ«ÙĦØ§Ø« ÙĪÙĨ
Ø³ ÙĥÙĪ
ĠÙĦÙĦØ³ ÙĦØ©
p ost
ØµØ¯ ÙĤØ§Ø¡
ĠØ§ÙĦØ¢ ØªÙĬ
±Ø¨ ÙĬØ§
Ø¯Øª ÙĩÙħ
ĠÙĪØ§ÙĦØŃ ÙĬØ§Ø©
ÙģØ§Ø °
ĠÙĪØ§ÙĦØ£ Ø±Ø¶
ĠØ§ÙĦÙħ Ø¨ÙĨÙī
Ù ĨÙģØ§ÙĬØ§Øª
ĠØ¹Ø´ ÙĤ
ĠÙĦÙĦØ ¥ÙĨØ³Ø§ÙĨ
O P
Ø³ØªØ® Ø¯ÙħØ©
ĠÙĦ Ø¨Ø³
ĠØ±Ø¬ ÙĦØ§
ĠØ§ÙĦØ¨ ÙĦØ
ĠØ¹Ø§ ÙħÙĬÙĨ
Ã ĺ
º ÙĪØ¨
ĠØ§ÙĦÙĨØ§ Ø¹Ùħ
ÙĪØª Ùĥ
ĠÙĪØ£ Ø¯ÙĪØ§Øª
ĠÙĩÙĬ Ø¯Ø±ÙĪÙĦÙĬÙĥÙĬ
ĠØŃ ÙĤÙĦ
Ø¯ÙĪÙĨ ÙĬØ§
ĠÙħÙĩÙ ĨÙĬØ©
ĠØ§ÙĦØ£ Ø¬ÙĦ
ĠØ§ÙĦÙħØª ÙĪØ§
ÙĥÙĪØ§ Ø¯ÙĪØ±
Ġm idd
ÙĬØ§Øª Ùĥ
L E
ran s
ÙĤ Ø§ÙĦØª
ĠØ§ÙĦØµØ ºØ±Ùī
ÙĪØ§ ÙĬØ©
ĠT ra
ĠØŃ ÙĦØ§ÙĤØ©
ĠØ§ÙĦÙħ Ø¹Ø§Ø±Ùģ
ĠÙĦÙĦÙĨØ§ Ø³
ĠØ§ÙĦØ¹ Ø¨Ø§Ø³
ÙĨØ§ ÙĤ
ĠØ§ÙĦØ´Ù ħ
Ġcont ent
ĠØ ±Ø§ØªØ¨
ĠØ£ÙĨÙĬ ÙĤØ©
ÙĨØµ ÙĦÙĬØ©
ĠÙĪØ§ÙĦ Ø·Ø§ÙĤØ©
ĠÙħÙĪØ¬ Ø©
Ġ ed
I G
ĠØ§ÙĦØ «Ø±ÙĪØ©
ĠØ§ÙĦØ£Øµ ÙģØ±
Ø³ ÙĥØ³
ĠÙĦÙħ Ø¨Ø§
Ġ8 4
Ġ0 10
ĠØ§ÙĦØ¥Ø±ÙĩØ§ Ø¨ÙĬØ©
ĠØ§ÙĦØªÙ ĪÙĤÙģ
ĠØ¹ ÙĤÙĪØ¨Ø©
ÙĥØ °ÙĦÙĥ
±ÙĪÙĨ ÙĬØ§
ĠØ§ÙĦÙĨÙĤ Ø§ÙĦØ©
Del ete
ĠØ¬ Ø¯Ø§Ø±
ĠØ§ÙĦÙĨØ ¬Ø§
Ø¹Ø ·Ø§
ĠÙĪØ¢ Ø®Ø±
Ġ" .
Ġ act
ĠØ§ÙĦÙħ ÙĦØ
ĠÙĬØ ªØ±Ø§ÙĪØŃ
Ø¨Øª ÙĩÙħ
ĠÙħØ³ Ø¨ÙĪÙĤ
Â §
re g
ÙĥÙ ĪÙĦÙ
ĠØŃÙĤ ÙĤØª
ÙĦØ¨ ÙĬØ§Øª
ÙħØŃ ÙħÙĪØ¯
Ġi OS
ĠØ§ÙĦØ·Ø§ ÙĤØ§Øª
ÙĤØ¯ ÙħÙĬÙĨ
ĠØ® ÙĦÙĬØ·
ÙĪØ« Ù
ĠØ§ÙĦØ£ ÙĪØ±
im ages
Î Ķ
Ī Ø¨Ø§Ø¡
ĠÙĪØ§ÙĦØ£ ÙħÙĨ
ÙĩÙ ĬØ¨
ĠÙĦÙĦØªØ ®
ĠØ§ÙĦÙħÙĨØ ·
ĠØ§ÙĦØ® ÙģÙĬÙģØ©
ĠØª ÙħØ«
ĠØ³ÙħØ§ Ø¹Ø§Øª
ĠÙĪØ§ÙĦ Ø¨Ø±Ø§ÙħØ¬
ĠØ§ÙĦØ§ÙĨ ØŃ
ØªØ¹ ÙĦÙħ
ĠØ§ÙĦØ³ Ùĥ
ÙģØ§ ÙĬØ©
á º
ĠØµ Ø§ÙĦÙĪÙĨ
ĠØ§ÙĦØ¨ ÙĨØ²ÙĬÙĨ
ĠÙħØ´ ÙĩØ¯
ĠØ§ÙĦØ§ØŃØª ÙģØ§Ø¸
ĠØ§ÙĦÙħØ§ÙĦÙĥ Ù
§ ÙĨØ¸Ø±
I V
Ø£ ØŃØ°ÙĬØ©
12 3
ĠØŃÙĬÙĨ ÙĩØ§
ĠÙģ Ø¶Ø§Ø¦
ĠÙĪÙ ĪÙĦ
Ġ ÙĬÙĤÙĪÙĦÙĪÙĨ
ĠÙĥÙĪ ÙĬÙħØ¨Ø§ØªÙĪØ±
Ø §ÙĨØ¸Ø±
T R
ĠØ§ÙĦØ£ ÙģØ±ÙĬÙĤÙĬØ©
ÙĨØº Ø³ØªÙĨ
ĠØ§ÙĦÙĨ ÙħØ·
al a
ĠPro ducts
ĠØ§ÙĦÙĦÙĪØ ²
ĠØ¨ ÙĦÙĪ
ĠÙĩÙĬÙĪÙĨ Ø¯Ø§ÙĬ
ĠØ§Ø³ØªØ« ÙħØ§Ø±Ø§Øª
ĠØ§ÙĨØ ®
ĠÙĪÙĤÙ ĬÙĦ
ĠØ§ÙĦØ³Ø ±ÙĬØ©
ĠØ§ÙĦÙħØ§ÙĦÙĥÙ Ĭ
ĠÙĬÙĨØ µØŃ
ĠØ§ÙĦØ±ÙĪ ÙħØ§ÙĨ
ĠÙģ Ø±Ø§Ø
ĠØ£Ø ±ÙĪØ¹
ĠØ±Ø µØ¯
r ie
Ġs bm
ĠØ§ÙĦÙĥØ§ ÙħÙĬØ±ÙĪÙĨ
ĠÙĥØ °Ø§
ategor ized
ªØ ¶Ùī
........ ........
Ø§ÙĦÙĤ Ø©
Ī ÙĥØªØ¨
Ù ĪÙĥØªØ¨
er m
ĠÙģØ§ ÙĨØ²
ĠØ¨ÙĤÙ ĪÙĦÙĩ
ĠØ§ÙĦØŃ ÙĪØ§Ø¯Ø«
ĠØ¨Ø¯ Ø±Ø¬Ø©
Ø§ÙĦÙĬÙ ĪÙĨ
ĠØ§ÙĦÙĨØ§ ØµØ±
Ø·Ù ĨÙĬØ©
ĠÙĪØ§ÙĦ Ø³ÙĨØ©
Ø§ÙĦÙĪØ± ÙĬØ§
ĠØ§ÙĦÙģØ± Ø¹
ĠØ£ Ø¯ÙĪÙĬØ©
ÙĬÙ ĬÙĨØ§
Ġpl atform
ĠS l
ĠÙĨØ¸ ÙĬÙģØ©
ĠØ¬Ù ĪÙĨØ²
ª Ø³Ø§Ø¨
rind ing
Ġ14 39
ªÙ ĪÙĦ
ĠØ§ÙĦØ¯ Ø¹Ø§
ÙĨØªØ ¸Ø§Ùħ
ØµØ§Ø¡Ø§ Ø
ĠÙĪØ§ÙĦÙħØ µØ§Ø¯Ø±
ØµØ§Ø¡Ø§Ø ª
ĠÙĪØ§ÙĦØ ±ÙĬØ§Ø¶Ø©
ĠÙĤ ÙħØ±
ĠÙĪØ¥ Ø³
ĠØ¨ ÙħØ±Ø§
ĠØŃ Ø±Ø©
Ø¨Ø§ ÙĬØ§
ĠØ§ÙĦÙĪÙĦØ§ ÙĬØ©
Ĭ ÙĦØ©
ĠØ³Ø ±ÙĬØ©
ĠØ§ÙĦØ£Ø´ Ø¬Ø§Ø±
Ġp at
Ùĥ Ø³Ø§Ø±Ùĩ
c es
ĠØ§ÙĦØ£Ø¯ Ø¨ÙĬ
ĠÙĦØ§ Ø¦ØŃØ©
ĠØµ ÙģØ±
ÙĥÙĪ ÙģÙĬØ¯
ĠØ§ÙĦØ¶Ø§ Ø±Ø©
ÙĨÙ Ģ
ÙħÙĪØ ²ÙĬÙĨ
ĠØ§ÙĦÙħØ ´Ø§Ø±
ĠØ¹Ù Ī
ĠÙĬØ ªÙĪÙĤÙģ
ĠØª ÙĥØªØ¨
ĠM arket
ĠØ§ÙĦØ¹ ÙĦÙĬ
ĠÙĦ ØŃØ§
ĠÙĪÙĦÙ ĤØ¯
ĠÙĦÙģ Ø¸
ĠØªØ¬ ÙĪÙĬÙģ
ªØ±Ø§ Ø¬Ø¹
ĠØ¹ ÙĤÙĪØ¨Ø§Øª
Ø ºØ
ĠÙĨØ ¶Ø¹
ĠØ§ÙĦØ ¸Ø§ÙĩØ±
ĠÙĦÙĦØŃØ§ ÙħÙĦ
ĠÙĤ Ø³Ù
ĠØµ Ø¯ÙĬÙĤØ©
ĠØ§ ÙĤØªØµØ§Ø¯ÙĬ
ï» ®
ĠØ§ÙĦÙħ Ø¨Ø
ĠØ§ÙĦØ®Ø ±ÙĬØ·Ø©
ĠØ¨ÙĨØº ÙĦØ§Ø¯ÙĬØ´
ÙĨØªØ ¸Ø±
p df
ĠØªØ µØ±ÙĬÙģ
ĠØ§ÙĦØ« ÙĦØ§Ø¬Ø©
ĠÙ¡ Ùł
Ùĩ Ùģ
ĠÙĪØ§ÙĦ ØµÙĦØ¨
Ĩ ØŃØªØ§Ø¬
ĠØ²Ø§ Ø¯Øª
v ers
Ġ Ùł
Ù ĨØŃØªØ§Ø¬
ĠØ§ÙĦØ¹Ø¸ ÙħÙī
ĠØ§ÙĦØ² ÙħÙĨÙĬØ©
ĠØµ ÙħØ§Ùħ
ĠØ§ÙĦØ¯Ø±Ø§ Ø¬Ø§Øª
ĠØª ÙģÙĬØ¯
Ø§ÙĦØ£ Ø®
ĠØ§ÙĦØ¹ÙĤ ÙĦÙĬØ©
ĠØ® Ø¨
ĠØ§ÙĦØ« ÙĨØ§Ø¦ÙĬ
Ø¹Ø§ Ø¬
ĠØª ÙģØªØŃ
Ġp ur
ĠÙĨØ§ Ø¯Ø±Ø©
ĠØ§ÙĦØ¥ Ø¨Ø§ØŃÙĬØ©
ÙĪØ±Ø «
ĠÙħØ ºØ±Ø¨ÙĬ
ÙħÙĪØ§ Ø
ÙĬØ °Ø©
ĠØ§ÙĦÙħÙĪØ «ÙĪÙĤ
ĠÙĦÙĦØ´ ÙĬØ®
N G
ĠØ§ÙĦØ§ Ø¬Ø²Ø§Ø¡
ĠÙĪØ§ÙĦ Ø·ÙģÙĦ
Ø¨ÙĬ ÙĩØ§Øª
ÙĦØ§Øª ÙĬÙĨ
il es
ĠÙĪØ§ÙĦÙĥ Ø«ÙĬØ±
v ent
ĠØªØ± ØŃÙĬ
ªØ¨ Ø±Ø§Øª
ĠØ¨Øª Ø³Ø¬ÙĬÙĦ
ĠØŃ ÙĪÙĦÙĩ
ant s
ĠÙħØ¹Ø§ Ø·Ùģ
Ø§ÙĦ Ø£Ù
ĠØ§ÙĦÙħ ÙģØ±
Ġ ÙĬØ¹Ø§
ĠÙģ Ø¶Ø§Ø¡
ĠØµ ÙħÙħÙ
ĠØ¨Ø¹ÙĬØ¯ Ø©
ĠØ§ØŃØªØ±Ø§ Ù
ar ry
ĠØ§ØŃØªØ±Ø§Ù ħ
ĠØ³Ø¬ ÙĦØª
Ġ ÙĬØ³Ø±
ĠÙĦÙĪ Ø¯Ø±
ĠØ§ÙĦØ§Ø¹Ø ªØ±Ø§Ùģ
um ber
ĠÙģ ÙĬØ²Ø§
ĠØªØ´Ø ºÙĬ
ĠØ§ÙĦÙħÙĬ ÙĦØ§
Ī ÙģØªØŃ
ĠØª Ø¨Ø§Ø¹
Ù ĪÙģØªØŃ
Ĩ Ø¯Ø§Ø¡
ºØ§ Ø¡
ĠÙĬØ¤ ÙħÙĨ
ĠØ¥ØŃ ÙĬØ§Ø¡
ĠØªØª ØŃØ±Ùĥ
ĠØ¨Ø§ÙĦ Ø·Ø§Ø¦Ùģ
ĠØ§ÙĦØªØ ºÙĬÙĬØ±Ø§Øª
ĠØ§Ø®ØªØ±Ø§ ÙĤ
ĠÙĪØ§ Ø±ØªÙģØ§Ø¹
ĠØ§ÙĦÙħØ§Ùĥ ÙĬÙĨØ©
ĠÙĪØ¨Ø¹Ø¯ ÙĩØ§
ĠAm azon
Ġp ar
ÙĬÙĤ Ø¯Ùħ
ÙħØª ÙĩÙħ
Ø¶ Ø±Ø§Ø¨
ħØ¨ ÙĦØº
ĠÙĪØ§ÙĦØ °ÙĩØ¨
ÙĦÙģ ÙĬØ§Øª
Ø±Ø ºÙħ
Ø³Ø§Ø± Ø¹
Ù ĨØ¯Ø§Ø¡
ĢÙ ħ
ĠØ¹Ø ´Ø§ÙĤ
ĠØ§ÙĦÙħØ®Øª Ø¨Ø±
ĠJ anuary
ĠØ¨ÙĬÙĨ Ù
ĠØ§ÙĦÙĤ ÙĪÙĦÙĪÙĨ
Ġ7 9
ĠØ§ÙĦØµ ÙģØ§Øª
Ġ ÙħØ¯ÙĨÙĬ
Ø¬ ÙĪØ±
ĠØ± ÙĪØ§ØªØ¨
Ø¨ Ø§ÙĦÙĨØ³Ø¨Ø©
ØªØ ·Ø¨ÙĬÙĤØ§Øª
ĠØ¶Ø ±Ø¨Ø©
ĠØªØ ±ÙĪ
ĠØ£Ø®Ø µØ§Ø¦ÙĬ
ĠØ§ÙĦØ¬Ø±Ø§ ØŃØ©
ĠØ´ Ø±Ø§
ĠØ¯ ÙĪØ±Ø§ÙĨ
ĠØ§ÙĦØ¨Ø °ÙĪØ±
ĠØ¬ ÙĦØ§ÙĦ
R elated
ĠÙħØ® ÙĬÙħ
ªØ±Ø§ Ø¶
ðŁ ĩ
ĠD esign
ĠÙĦÙĦÙħÙĨØ ²ÙĦ
ĠØ¢ ÙĦÙĩ
Repl ies
ħ ÙĦÙĪÙĨ
ĠÙĩØ °
ĠØªØ¬Ø± Ø¨ØªÙĬ
ĠØµØ§ Ø¯Ø±
ĠÙħØŃ ÙģØ¸Ø©
ÙħØ ¸ÙĦØ§Øª
ĠØ· Ø§ÙĦÙħØ§
ĠØ§ÙĦØªØ¯ ÙģÙĤ
ÙĬÙĪ ÙĨØ§Øª
ĠØ§ÙĦØ¬ Ø¯ÙĦ
ĠGal axy
ĠØ£ ÙĨØ¬
ĠØ§ØŃ ÙĦÙī
Ĭ ÙħØ§Ø±Ø³
Ø¥ Ø³
Ù ħØ¯ÙĬ
Ù ĬÙħØ§Ø±Ø³
zh ou
ĠØ¨Ø§ Ø®ØªÙĬØ§Ø±
ĠÙĥØ ªÙĦ
ĠØ§ÙĪØ±Ø¬ ÙĬÙĨØ§ÙĦ
Ġ199 8
ĠØ¨Ø§ÙĦ Ø·Ø±ÙĬÙĤØ©
Ġsm all
ĠØªÙĬ ÙħÙĬØ©
±ÙĬØ ªØ§
re ate
ĠØ§ÙĦÙħØ®Ø ²ÙĪÙĨ
ĠØ§ÙĦÙĨÙĪØ¹ ÙĬØ©
ÙĤ ÙĨØ§Ø©
ĠØ³Ø±ÙĬ ÙĦØ§ÙĨÙĥØ§
al i
ÙĦÙĪ Ùĩ
Ø« Ø±Ø§Ø¡
Ġaf ter
ĠØ§ÙĦØ¹Ø¯ ÙĪØ§ÙĨ
ĠÙĪØ£ ÙĤ
ĠØ§ÙĦØ£ÙĨØ ªÙĬ
ĠØº Ø³ÙĪÙĦ
ĠÙĦÙĦØ ªÙĪ
ĠÙģØ ±ÙĪØ©
ĠÙĪØ§ÙĦØ£ Ø¹ÙħØ§ÙĦ
Ø¯Ø± Ø§ÙĦÙĬØ©
ĠÙħÙĬØ ±
ÙĪØ±Ø§ÙĨ ÙĬÙĪÙħ
Ø±ÙĬ Ùĩ
Ĭ ÙĤØ§Ø±Ø¨
Ù ĬÙĤØ§Ø±Ø¨
ĠØ¨Ø§ÙĦ Ø¨ØŃØ«
Ø¹Ø§ Ø¹
ÙĪØ±Ø ²
ĠÙĪØ§ÙĦØ° ÙĬÙĨ
ĠÙĪØ£Øµ Ø¨ØŃ
as y
ÙĪØ¬ ÙĩØ§
ĠØ§ÙĦØ¹Ø§ Ø¦Ø¯
ĠØ§ÙĦØ®Ø ·Ø±
ĠØ§ÙĦÙħØ®Ø· Ø·
es h
Ùĩ Ø¯Ø§
Ġ8 8
ĠØ§ÙĨØª ÙĤØ§ÙĦ
ï¯ ¾
ĠS port
Ø±Ø§Ø ´ØªØ±Ø§
ĠØ§ÙĦÙħØ§ Ø¯ÙĬ
7 28
Ø±Ø§Ùħ ÙĥÙĪ
ĠØ§ ÙĩØªØ²Ø§Ø²ÙĬ
ĠØ§ÙĦÙģØ ±ÙĪÙĤØ§Øª
ĠØ§ÙĦØ§Ø® ÙĬØ±Ø©
ĠØ§ÙĦØ§ Ø¹ÙĦØ§
ĠØ¨ÙħØ¹ Ø¯ÙĦ
ÙĬØªØ§ÙĨ ÙĬÙĪÙħ
ff ect
ĠØ§ÙĦØ¹Øµ Ø¨ÙĬØ©
Ġ ÙĬÙģØ¶
ĠØ¨ Ø¹Ø±Ø¶
ĠØ£Ø± Ø¯Øª
ĠØ§ÙĦØ· ÙģÙĪÙĦØ©
ĠØ«ÙĦØ§Ø« Ù
Ġ ÙĬÙĤØ§Ø±Ø¨
ĠÙħÙĨØ² ÙĦÙĬ
ĠÙģ ÙĬÙħÙĥÙĨÙĥ
ĠÙħØ§Ø ±ÙĥØ§Øª
ÙĪØª Ø©
ĠØ§ÙĦÙģØ§ ÙĥÙĩØ©
ĠØ¯ ÙĦØ§ÙĦØ©
Ø§ÙĦØ§Ø ´ØªØ±Ø§Ùĥ
ĠP interest
Ø£ Ø®Ø±
ĠÙĩÙĪ ÙĨØº
ĠØ¯Ø§Ø¦ ÙħØ©
±ÙĬØ ¶Ø©
ĠÙĪØ «Ø§Ø¦ÙĤ
Ø§ÙĦÙģ ÙĬØ¯ÙĬÙĪ
m ax
ĠØ§ÙĦÙĥÙ Ĩ
ĠÙĦÙĦÙ ħØ§Ø¡
ĠØ«ÙĦØ§Ø«Ù Ĭ
ĠØªÙ ĪÙĦÙĬ
ĠØ§ÙĦÙħÙĨØ ¬Ùħ
ĪØ³ÙĬ ÙĤÙī
ĠØ§ÙĦØ¨Ù ĨÙĬ
ĠIn c
£ Ø®Ø°
ĠØ±ÙĪ Ø¨ÙĪ
ch er
ĠØ§ÙĦØ± ÙĪØŃØ§
ĠÙħØ±Øª ÙģØ¹Ø©
ĠØ¨Ø§ÙĦ ØŃÙĤ
ĠØ§ÙĦØŃ ÙħØ¶
Ġ à¤
ĠØ§ÙĦÙħØ¹Ø§ ØµØ±Ø©
if t
ĠØ§ÙĦÙĨØ ´Ø±Ø©
w iki
ĠÙĦÙħØ ŃØ§
w ork
ĠØ¨Øª Ø³
ĠÙĨÙĤØ¯ ÙħÙĩØ§
ĠÙĥ ÙĨÙĬØ³Ø©
e am
ĠØ¯ ÙħÙĬØ§Ø·
ØªØ ±ÙĬ
ĠÙĪØªØ ´ØºÙĬÙĦ
ĠÙĪØ£Ø ±
ĠØ³Ø¨Ø§ Ùĥ
ĠØª ØŃÙħ
ĠÙĪØ§ÙĦØ ´Ø±
ĠØ§ÙĦÙħÙģØ§ ØµÙĦ
Ġwor ks
ÙħÙĨØ§ Ø¡
k e
ÙĪØ±Ø ·
Ø±Ø§Ù ĨØ³
ĠÙħÙĥØ§ Ø³Ø¨
ĠØªØ¹Ø ·ÙĬÙĦ
ÙĦÙĤ Ø±Ø§Ùħ
ĠØŃØ±Ø§Ø ±ÙĬ
Ø³ØªØ®Ø¯Ø§ ÙħÙĩ
ĠØªÙĤÙ ĪÙĬØ©
ĠÙģÙĨ ÙĦÙĨØ¯Ø§
Ø®Ø· Ø£
ĠØ¨ÙĬÙĨØª ÙĬØ±ÙĬØ³Øª
Ġman y
Ġ199 0
ĠP e
ÙĪÙĦÙ ĩÙħ
Ø¹ÙĦØ§ ÙħØ©
ĠØ§ÙĨØ¯ Ø±Ø§
ÙħÙĩÙ ĬØ¯
ÙĦØ§Ø ´Ø§Øª
ĠÙĪØ¥ ÙĨØªØ§Ø¬
Ī ÙĨØ¸
ĠÙħØŃ Ø³ÙĨ
ĠØ§ÙĦÙħÙ ĨÙĬØ§
ĠÙĥÙ ĬØ¨
________ __
Ù ĪÙĨØ¸
ĠÙĪØ§ÙĦ Ø¹ÙĦØ§Ø¬
± Ø¹
Ø§ÙĦÙħÙ Ī
ĠÙĦÙ ī
ĠÙĩØ§Ù ĬØ¨Ø±
ÙħÙĪ ÙĨØ§Øª
ÙĬÙĨ Ø¯
Ġ ÙĪÙģØªØŃ
ĠØ§ÙĦØ§ÙĨØ ¶ÙħØ§Ùħ
ĠØªØ± ÙĥØ²
9 66
ĠÙĦØ£ ØµØŃØ§Ø¨
G T
Ø· ÙģÙĬ
av a
ĠØ§ÙĦØ² Ø¨Ø§Ø¦ÙĨ
ĠÙĤØ±Ø ·Ø§
Ø¹ Ø§ÙĦ
Ġ.:: .
ĠØ³ÙĨ Ùĩ
ÙĥØ§ Ø³Øª
ĠØ§ÙĦØ§Ø¹Ø¯Ø§ Ø¯ÙĬ
ĠÙĬØ³Ø§ ÙĩÙħ
ĠØ§ÙĦØµØ ®Ø±
ĠØ§ÙĦØ· Ø¨Ø¹Ø©
Ø§ÙĦØªÙĩØ§ Ø¨Ø§Øª
U rl
ed d
Ø¨Ø¯ ÙĦ
ĠÙĦØ ªÙĪ
ĠÙĩÙĨØ¯ ÙĬØ©
ĠØªØ§ Ø¬ÙĬØ±
ĠS ec
ce pt
Ø³ÙĬ ÙĤÙĬ
ÙħØ ¬Ø±Ø¯
ĠÙĦÙĦØ¹Ø² Ø¨Ø§Ø¡
ĠÙĦØ± ÙģØ¹
Ġm ag
ÙħÙĪØ§Ø ª
ĠØ§ÙĦØ§ Ø¹
ĠØ§ÙĦØ£Ø±Ø¶ ÙĬØ§Øª
er o
Ī ÙģØ§Ø¡
Ð ¼
ĠÙĦØ¹Ùħ ÙĦØ§Ø¦ÙĨØ§
Ġl ist
µØ§ Ø±ÙĬ
Ø³Ø ±Ø§Ø±
ĠØ§ÙĦØ¹Ø ´Ø±
Ùĩ ÙĦÙĩ
ĠØ´ÙĬØ¡ ÙĤØ¯ÙĬØ±
Ø¯ÙĪ ÙĨØº
ÙĦÙĪ ÙĥØ©
ģØ ª
Ġ18 3
ÙĪØŃ Ø¯Ø§Øª
ĠÙĥÙĪ ÙĨØº
ĠØ§ÙĦÙħØ¤ Ø³
ob e
ĠØ§ÙĦØ§Ø³ØªÙĤ ÙĦØ§ÙĦ
ĠØ¨ ÙĤÙĬ
ĠØŃ Ø¯Ø«Øª
ĠÙĦØªØµ ÙħÙĬÙħ
Ġcom ment
ĠØ§ÙĦØ±Ø¦Ø§ Ø³ÙĬØ©
Ø±Ø µØ§Ø¯
ĠÙĦÙĦÙĤ Ø¶Ø§Ø¡
ÙħØ« ÙĦØ§
ĠÙĨØ§ ØªØ¬
ĠØªØŃØ ±Ùĥ
ÙĨØª ÙĬØª
Ø§Ø´Ø ªØ±ÙĬ
ĠØ§ÙĦÙħØªØ ·ÙĦØ¨Ø§Øª
ĠØ£Ø ±Ø³
ĠØ ¶ÙĬÙĤ
ĠÙĦØ§Ù ĨÙĩ
ĠÙĪØ¹ ÙĦÙĬ
ĠÙĦÙĦØŃ Ø¬Ø§Ø±Ø©
ĠÙĦØ£ Ø¬ÙĩØ²Ø©
Ø¨Ùĥ Ø³ØªØ§ÙĨ
Ø±Ø ¤ÙĬØ©
ĠØ§ÙĦÙģØ§ Ø®Ø±Ø©
ĠPF W
Ġ6 1
ĠØ§ØŃ Ø³ÙĨ
m od
Ø§ÙĦØªØµ ÙĨÙĬÙģØ§Øª
ÙĬØ¬ ÙĦ
ĠØ¨Ø§ ÙģØ¶ÙĦ
ĠM od
ĠØ¨Ø ªÙĨÙģÙĬØ°
ĠØ§ÙĦØ· ÙĪÙĦ
ĠØ§ ÙħØ±
Ġ9 2
ĠØ£Ø ¸ÙĩØ±Øª
Ù ĪØ¹ÙĬ
ĠØ§ÙĦØ£ÙĨ Ø¯Ø±ÙĪÙĬØ¯
ĤØ §ØŃ
ateg ory
ĠM anufactur
§ Ø©
Ø§ÙĦ Ø³ÙĨØ©
ÙĪØ§Øª ÙĬÙħ
ÙĪØ§ÙĨ ÙĬØ§
Ġh ere
\/ \/
ÙĦÙĬØ¬ Ø±Ø§Ùħ
Ù ĨØ³Ø
ĠØ¹ ÙħØ§Ø±
ĠØ§ÙĦØ¶ Ø¹Ù
ĠG B
Ġ7 3
ĠØ ±ÙħØ§ÙĦ
ĠSaf ety
Ġs et
ĠØ§ÙĦÙĤ ÙĦÙĪØ¨
ÙĬÙ ĢÙĢÙĢ
n ect
Ø§ÙĦÙĥ ÙĦÙħØ§Øª
ĠØ¯ ÙĪØ§Ø±
ĠØ¨Ø§ÙĦØª Ø§ÙĦÙĬ
p re
al k
ĠØ§ÙĦÙħ Ø¨Ø±
ĠÙĤ Ø±Ø¶
Reply Delete
ĠÙĥ ÙĦÙĬÙ
ĠÙĪÙħØ µØ±
ĠÙĪØ§ÙĦØªØ ºÙĦÙĬÙģ
pp er
ĠÙĬØ ªØµ
ĠØ« ÙĨØ§
ÙĦÙĤ Ø¨
b r
ĠØŃØ¬Ø± ÙĬØ©
Ø¯ÙĬ ÙħÙĬØ±
ÙĤØ§ Ø¯Ø§Øª
ĠÙĦØªØ³ ÙĩÙĬÙĦ
Ø¹Ø µ
ÙĪØŃ Ø¯
ĠÙĦØªØ ´ØºÙĬÙĦ
ĠØ§ÙĦØ£Ø³ ÙĦØ§Ùĥ
ĠØ¨Ø§ÙĦØ´ ÙĥÙĦ
ÙĨØª Ùĥ
angu age
ØªØ§Ø¨ Ø¹ÙĪÙĨØ§
Ġ9 6
ĠÙĥ ÙĦÙĬØ§Øª
f ul
ĠØ¨Ø§ ØªØ¬Ø§Ùĩ
ÙģØª Ø©
ĠØº Ø±Ø§
Ĩ Ø¨Ø§ØªØ§Øª
ĠÙĦÙĦ Ø«
ĠØ§ÙĦØ§Ø³ØªØ ´
ĠØ¥Ø¶Ø§ ÙģÙĬ
ĠÙĩØ ª
oun tr
ĠÙĬÙĤ Ø±Ø£
ĠÙħØ³ØªØ ¬Ø¯Ø§Øª
Ø§Ø³ ÙħØ§Ø¡
ĠÙĨØ§Ø¬ ØŃ
ĠÙĤ ÙģÙĦ
Ø¹Ø± ÙĤ
ĠØ§ÙĦÙģØ± ÙĤØ©
ĠØ§ÙĦØ±Ø ¦Ø§Ø³Ø©
Ġ199 7
Ø£Ø³ ÙħØ§Ø¡
Ø°Ø§Ø ª
Ġ ÙĬÙħØ§Ø±Ø³
ĠØ§ÙħØª ØŃØ§ÙĨ
ĠÙĦÙĦÙĥ Ø³Ø§Ø±Ø§Øª
om en
ĠØ§ÙĦØ§ Øº
ĠØ§ÙĦØ§Ø³ØªØ ±Ø§ØªÙĬØ¬ÙĬ
ĠØ¨ ÙģØ¹ÙĦ
ĠÙĪØ§ÙĦ Ø¨Ø§
ÙĤÙ Ģ
ĠÙĥØ§Ø ±ÙģÙĪØ±
ĠÙģØ± ØŃ
Ġpl ay
ĠØªÙħ Ø¯ÙĬØ¯
ĠØ³ ÙĪÙĬÙģ
ÙĪØ«Ù Ĭ
Ī Ø¯ÙĪÙĨ
Ø¹Ø ªØ
ĠØ´Ø± ÙĬØŃØ©
Ġp ol
ĠØ§ÙĦÙĬ Ø¯ÙĪÙĬ
ÙĨØª ÙĩØ§Ø¡
º Ø±Ø§ÙģÙĬØ§
ĠØ§ÙĦØ® Ø§ÙĦ
ĠØ®Ø· ÙĬØ±
Ø¨ Ø¯Ø§
ĠØ£Ø¹ ÙĪØ§Ùħ
ÙħØ ±Ø£Ø©
ĠÙħØŃØ§ Ø¶Ø±Ø©
ĠØ§ÙĦØ£ ÙħÙĨÙĬ
ÙĪÙĦÙ Ī
ĠØ§ÙĦÙĪØ§Ù Ĩ
ĠØ±Ø§ÙĬ ÙħÙĪÙĨØ¯
Ø¨Ø§ ÙĬÙĨ
ĠØ§ÙĦÙħÙĨØµ ÙĪØ±Ø©
ÙĥØ§ ÙĪÙĬ
ÙĩØ§ Ø±Ø©
ĠØ§ÙĦÙħØ ®ØµØµ
ĠØ§ÙĦØ® Ø¨Ø±Ø§Øª
Ùĳ Ùį
Ġ ÙĪÙĬØ¶
ĠÙħÙĨØ¸ ÙħØ§Øª
ĠØ§ÙĦØŃØ ±ÙĪØ¨
ØµØ ª
ĠØ§ÙĦÙħÙĨØªØ ´Ø±Ø©
ĠØ§ÙĦØ´ ÙĤÙĤ
ĠÙĤ ÙĬÙĪØ¯
ĠØ§ ÙĨØªØ±ÙĨØª
ħÙĥØ§ ÙĨØ§Øª
ĠØ§ÙĦØ¥ÙħØ§Ø±Ø§Øª ÙĬØ©
ĠÙħØ¶ ÙħÙĪÙĨ
Ĩ ÙħØ§Ø±
16 0
Ø¯Ø§ Ø¯Ø§Øª
ĠØªÙ ĨØ³
ÙĤÙĬ ÙĤØ§
ĠØ§ÙĦØ£ÙĨØªÙĬ ÙħÙĪÙĨ
ª ÙĥØ³ÙĬØ±
Øµ ØŃÙĬÙģØ©
ĠØ§Ø³Øª ÙħØªØ¹
ĠØ§ÙĦØ§ Ø¹Ø¶Ø§Ø¡
ĪÙ ĬÙģ
ĠÙħØ±Øª ÙģØ¹
ĠArab ia
ÙĩØ§ Ø¶
ĠÙĪØªØ± Ùĥ
ĠØ¨ÙĪ ÙĥØ³
Ø· ÙĦØŃ
ĠØªØ§Ù ħ
ØŃ ÙĥØ©
ĠÙĨØ³ ÙĬØª
ĠG e
ass word
ØªÙĤ ÙĬÙĬÙħ
´ ÙĩØ¯
ĠØ§ÙĦØ« ÙĪØ±ÙĬ
ĠØ´ Ø¨Ø§
ĠØ£ ÙĬØ±ÙĦÙĨØ¯Ø§
ÙĪØ ²ÙĪ
ĠÙĤØ¨ Ø±Øµ
ĠØ§ÙĦÙħØŃ ØªØ±ÙģÙĬÙĨ
ĠÃ ł
ÙģØ§ Ø¹ÙĬ
Ø¦ Ùģ
ªÙĬ Ø§ÙĦ
ĠM ov
ĠHP T
ªØ±Ø§ Ø«
r ade
ĠÙħÙĦØ§ ÙħØŃ
Ø¹ ÙħØ±
H P
ad min
ĠÙħØ ªØ§Ø¨Ø¹
ĠØ¥ÙĨØªØ§Ø¬ ÙĬØ©
ĠÙħØ±Ø ¶Ùī
§ Ø°Ø§
Ã ¶
ad em
Ù ĨØ¨Ø§ØªØ§Øª
ĠØª ÙĥÙĪ
ĠØ ®Ø§ÙĨ
Ø®Ù ħ
ĠØ¹Ø¨Ø¯ Ùĩ
« Ø©
ĠØ§ÙĦÙħØ´Ø§ ÙĩÙĬØ±
ĠÙĦØª Ø¯Ø§ÙĪÙĦ
ĠÙĬØ¯ ÙĪØ±
Ø¨Ø± ÙĬÙĨ
ĠÙĪØ§ÙĦÙĥ Ø³Ø§Ø±Ø§Øª
ªÙĪØ¯ Ø¹Ø§Øª
Ġ ec
ĠØ§ÙĦÙħÙĥ ÙĬØ§Ø¬
ÙģÙĦ Ø³Ø·
ĠØ§ÙĦÙħÙĩ Ø¨ÙĦ
ĩØ§ ØªÙģ
ĠÙĥØ§Ù Ĭ
Ī Ø³ÙĨ
ĠÙĦØ¬ ÙĩØ§Ø²
ĠØ§ÙĦØ« ÙĪÙħ
ĠØ§ÙĦÙĪØ§ ÙĤ
ĠØ´Ø ºÙĦ
ĠØ§ÙĦØ¯ ÙĩØ§ÙĨØ§Øª
ĠØ¨Ø ´Ø±ÙĥØ©
ĠØ´ Ø¨Ø©
ĠØ¯ ÙĪØ±ÙĬØ©
B l
ĠÙĨØ¬ ØŃ
Ø§ÙĦÙ ĩÙĬ
ĠØ§ÙĦÙħØ· ÙĦÙĤØ©
ĠØ¨ÙĪØ ²Ø§Ø±Ø©
ĠØ£Ø± ÙĥØ§ÙĨ
ĠØ¬Ø§Ù ħØ¹Ø§Øª
ĠØ² Ø¨Ø¯Ø©
ÙĦÙĥ Ø³
T D
ĠØ§ÙĦÙĪØ ²Ø§
Ø ªÙĥØ³ÙĬØ±
ĠØ§ÙĨ ØŃ
Ø§ÙĦØ® Ø¯ÙħØ§Øª
ĠØ§ÙĦØ²Ø§ Ø¦Ø±
ĠØ£Øµ Ø¯Ø±
ĠØ¨ÙĬÙĨÙ Ĭ
ĠÙĪØªØŃ ÙĦÙĬÙĦ
ĠÙĨÙĤ Ø¯ÙĬØ©
ĠØ´Ø ±Ùħ
Øº Ø³Ø§ÙĦØ©
O ct
ÙĤÙ ĪØ³
ĠØªÙģ ÙĥØ±
ĠÙĪØŃ ÙĬØ¯
ĠØ§ÙĦØŃ Ø³Ø§Ø³ÙĬØ©
Ĩ Ø¨Ø¶
ĠØ§ÙĦØ² ÙĩÙĪØ±
ĠÙħØ§ÙĬÙĥØ±ÙĪ Ø³ÙĪÙģØª
ar r
ĪÙģØ§ Ù
ĠØ§ÙĦÙĨØ§ Ø¯Ø±Ø©
¤ ÙĪÙĦ
Ø§ÙĦÙĪØ ¸Ø§Ø¦Ùģ
Ù ĨÙħØ§Ø±
Ù ĨØ¨Ø¶
T ube
ĠØ§ÙĦÙĩ ÙĬØ¦Ø§Øª
ĠØ§Ø¬ØªÙħØ§ Ø¹ÙĬ
ĠØ§ÙĦØ¹Ø ±ÙĪØ³
ĠØ§ÙĦØ² ÙħÙĨÙĬ
Ø¯Ø§ Ø¹Ø´
ĠØ£ Ø¯Øª
ĠØ§ÙĦØª Ø¯Ø®ÙĬÙĨ
le x
Ø §Ø°Ø§
ĠAd d
ÙĥØ±ÙĪÙ ĪÙĬÙģ
ĠØ§ÙĦØ§Ø³ØªØ ¬Ø§Ø¨Ø©
ĠÙĬÙ ĪÙĨÙĬ
ĠØº ÙĨÙĬØ©
ĠØªÙ ĬØ¯
ĠØ¨Ø§ÙĦØ® Ø¨Ø±
ĠØ¨Ø ´Ø§Ø±
ĠÙĦÙĤØ §ØŃ
ĠØ¯Ø¹ ÙĪÙī
ĪÙģØ§Ù Ĩ
ĠÙĪØ§ÙĦÙģØ §
ÙĪØ§Øª Ø³Ø§Ø¨
ĠÙĪÙ ĨÙĪØ¹
Ùģ Ø¯ÙĬÙĨ
ĠÙħÙĨØº ÙĪÙĦÙĬØ§
Ĭ Ø³ÙħØ¹
ĠÙĦØ±Ø ¦ÙĬØ³
ÙĪØ ²Ø§Øª
ĠØ§ÙĦÙģ Ø±Ø§Ø´
Ù ĬØ³ÙħØ¹
ĠØ§ÙĦØ³ ÙĪØ§Ø¦ÙĦ
ĠØµ Ø±Ø§Ø¹
ĠØ§ÙĦÙģ Ø±Ø§Øº
Ġmidd ot
ĠÙĪÙħØ ªØ§Ø¨Ø¹Ø©
ĠØ£Ø¨Ø±Ø² ÙĩØ§
ĠÙħØ¹ Ø§ÙĦÙħ
âĢı .
ĠÙĪØ¥ ØµÙĦØ§ØŃ
ĠØªÙĤ ÙĬÙĬÙħØ§Øª
ĠÙĬØ¹Ø¬ Ø¨Ùĥ
Ù ĪØ¯ÙĪÙĨ
Ø·Ø§Ù Ĩ
ĠØªØªØ ®Ø°
Ø³Øª ÙĪØ±
ĠØµ ÙĦØ¨
ĠØ§ÙĦØŃ ÙĬÙĨ
ĠÙĩØ§ Ø´Ùħ
ĠÙĦØ§ ÙĨÙĩØ§
ĠØ§ÙĦÙħÙĨ ØŃØ±Ùģ
p u
Ø·Ùģ ÙĬØ©
ĠR ec
ĠØ§ÙĦØ¥ Ø¯
sp ot
ĠÙĬØ³Ø§ ÙĪÙĬ
ĠØ§ÙĦØ§ ÙĨØªØ¸Ø§Ø±
ÙĢÙĢØ §
/ %
ĠØ³ ÙĬØ·
ĠÙĬÙĨØ ªØ¸Ø±
ĠÙĥÙĪ ÙħØ§ØªØ³ÙĪ
ĠØ£ Ø®ÙĬ
ĠS ee
ĠØ§ÙĦØ£Øµ ÙĪØ§Øª
ÙĦØ§ ÙħÙĩ
ĠÙĪØ§ÙĦØ¯ Ø±Ø§Ø³Ø§Øª
ĠØŃÙ ĪÙĦÙĬ
Ø¯ Ø¹Ùħ
ºØ±Ø¨ Ø§ÙĦ
ĠÙĪØ§ÙĦÙ ĨÙĤØ§
ÙģØ§Ø¹ ÙĦØ§Øª
ĠUnivers ity
ÙĦØ ¥
ÙħÙĦØ ®Øµ
â ĺ
ªÙĪÙ ĨÙĬ
ĠØ¬ ÙĬØ³
Ġ ÙĨÙģØ§ÙĬØ§Øª
ol le
ĠØ§ÙħØª ÙĦØ§Ùĥ
ĠÙĪØªØ ²
Ø§ÙĦÙĥ ÙĪØ§Ø±ØªØ²
ĠØ§ÙĦØ¹Ø ´Ø¨
ÙĪØ² Ø¹
ĠØ§ÙĦØ´Ø± ØŃ
ĠØµÙ ĬÙģ
ĠØ¨Ø ¶Ø¹
Ùĳ .
: \/\/
ĠØ¬ÙħÙĬØ¹ ÙĩØ§
ĠÙĬØ µÙĬØ¨
ĠØ§ÙĦÙħØ³Øª ÙĤÙĦØ©
oad ing
Ø¶Ù ħ
Ġa pk
ĠÙħÙĬØ ªØ§
ĠØªØ´ ÙĬÙĦ
ĠØ§ÙĦØ¥Ù ħØ¨Ø±Ø§Ø·
ĠØ§ÙĦØ¹ ÙĥØ³
ĠÙĪØ§ÙĦ Ø£ÙĪÙĦØ§Ø¯
ĠÙħØŃØ ±Ùħ
ĠÙĪØ¹ ÙĦÙħ
Ø¨Ø§Ø ´Ø¨
ĠØ§ÙĦÙģÙĨ ÙĬÙĬÙĨ
ªØµØ§ Ø±Ø§Øª
ÙħØ ¬ØªÙħØ¹
( ).
ĠÙģ Ø§ÙĦÙ
Ī ÙħÙĩØ§
Ø¨ Ø³Ùħ
al m
Ø¨Ø§ Ø±Ø©
Ĩ ÙħÙĪØ°
ĠØ§ÙĦØº ÙĨÙĬ
Ù ĨÙħÙĪØ°
ĠØ§ÙĦØªØ µÙĪÙĬØª
ĠØ³Ø ªØ§ÙĨ
ĠØ§ÙĦØŃ ÙĦÙĤ
ĠØ§ÙĦØ³Ø§ Ø¯Ø©
ĠTer ms
Ø±ÙĬ ÙħÙĪÙĨØ¯
Ġ ÙĨØ¨Ø
Ø®Ø· ÙĪØ§Øª
ĠØ³Ø§ ØŃÙĦ
c ks
ĠØ¹Ø§ Ø¯ÙĬØ©
ĠØ§ÙĦÙħØ³Ø ¦ÙĪÙĦÙĬØ©
Ī Ø³Ø±
ĠØªÙ ĨÙģ
ĠØ§ÙĦÙħ ÙĥØ§ØªØ¨
Ø¨Ø±ÙĪ Ùĥ
ĠØ§ÙĦÙħØªØ¯Ø§Ù ĪÙĦØ©
at est
ĠâĢı( âĢı
Ġl td
ĨÙ ħ
ÙħÙĪ Ø¹Ø¯
Ø²Ø§Ø ±
ĠØ¨ÙĬØ§ÙĨØ§Øª Ùĥ
Ī Ø³Ø¨
ĠØ§ÙĦØµ ÙĦÙĬØ¨
ĠØŃÙħØ§ Ø³
ĠØ·ÙĦØ¨ Ùĥ
ĠÙĪØ§ÙĦÙĦØ §
Ø§ÙĦÙĦ Ø
ĠÙĪØ±Ø ºÙħ
ĠØ¥ÙĨ ÙĩÙħ
ĠØ§ÙĦØ ªØ§ÙĬ
ÙĦØµ ÙĤØ§Øª
ĠÙĨØ§ Ø¯Ø±
Ġ8 9
ĠÙĩØ§ Ø´
ĠÙĪØ§ Ø®ØªÙĬØ§Ø±
ĠÙĦÙĦÙħØ ±Ø§
ĠÙģÙ ĪÙĨ
olut ion
ĠÙħØµ ÙĬØ±
ĠØ§ ØªØµ
O D
ĠØªØ£ Ø®ÙĬØ±
Ø¯Ø§Ø¡Ø§ Ø
ĠÙĦÙĤ Ø·Ø¹
ØŃØ° ÙĬØ±
Ø¯Ø§Ø¡Ø§Ø ª
ÙģØ¹ ÙĬØ©
ÙĦØ ¬ÙĨØ©
ĠØ¯ÙĪÙĦØ§ Ø±Ø§
ĠØ§ÙĦØ¨ Ø¯Ø§
ĠÙĪØµ ÙĨØ§Ø¹Ø©
ĠØª ÙĦØ¨
ħ Ø³ÙĨØ¯
ĠØ§ÙĦØ¨ ÙĬØ±
ĠØ§ Ø¹ÙĦÙī
ĠØ§ÙĦØ¢ Ø¨Ø§Ø¡
ĠÙĦÙĦÙħÙ Ĥ
Ġt ra
Ġ ÙĬØ³ÙħØ¹
ĠØ§ÙĦØ£Ø³ Ø§ÙĦÙĬØ¨
ĠÙĤ ÙĦØ©
Ø§ÙĦÙ ĤØ§ÙĩØ±Ø©
ÙĦÙĦ Ø©
Ù ħØ³ÙĨØ¯
ĠØªÙĤ Ø±Ø±
Ġin clud
ĠØ¨ Ø±Ø§Ø¡Ø©
ag on
ef ault
ĠØ§ÙĦØ§ÙħØª ØŃØ§ÙĨ
Ø¨Ù ĨÙĪÙĥ
Ù ĪØ³ÙĨ
ĠØ¨ ÙĪØ±Øª
ĠØ§ÙĦØªØŃ Ø¯Ø«
Ø§ÙĦ Ø¹Ø§
± ÙĬÙħ
ĠÙģ ÙĦØªØ±
ĠØ§ÙĦØµÙĪØª ÙĬØ§Øª
Ġ ÙĨØŃØªØ§Ø¬
ĠØ¹Ø§ Ø¯Øª
ĠØ§ ÙĩØªØ²Ø§Ø²
ĠØ§ÙĦØ® ÙĦÙĬØ¬ÙĬ
ĠØ¬Ø§ Ùģ
Ġg old
ÙĦ Ø£
ĠØªØ³Ø ¬ÙĬ
ĠØ§ÙĦØ¢Ø ªÙĬØ©
ĠØªØ¹ÙĦÙĬ ÙĤÙĬ
ĠØ§ÙĦØ´Ø ±ÙĪÙĤ
ĠPR ICE
ĠA R
ï» ³
ĠÙĪØ¯ ÙĪØ±
ĠØªØª Ø¹Ø§ÙħÙĦ
ĠØ§ÙĦØ³ÙĬÙĨÙħØ§ Ø¦ÙĬ
ĠØ§ÙĦØ´Ø± ÙĬØ·
Ø· ÙĦÙĤ
ĠÙĩØ§ ÙĨÙĬ
ĠØ§ÙĦØ¥ Ø¬Ø±Ø§Ø¡
ĠØ£ Ø¯Ø§
±ÙĪÙ ĨÙī
Ù ĪØ³Ø±
ÙĪØªÙĪÙħØ§ØªÙĬ Ùĥ
Ø® ÙĬØµ
ĠØ§ÙĦØª ÙħØªØ¹
ÙħÙĨ ÙĩØ¬
Ġcons ent
ĠÙĪØ³ ÙĬØ
ĠÙĪÙĬ Ø¹
ĠØ¢ Ø¨ÙĦ
ĠÙĪØµÙ ĪÙĦØ§
ĠØ£ØŃ ÙĦØ§Ùħ
ĠØ§ÙĦØŃ Ø±ÙĬÙĤ
ĠØ§ÙĦÙħØ³Ø§Ø¨ ÙĤØ©
ĠØ£Ø¬ ÙħØ¹
ĠØ£Ø± ÙħÙĬÙĨÙĬØ§
Ġ18 7
ÙĬØ§ ÙĨØº
ĠØ¹ÙĨØ¯ ÙĩØ§
ÙħÙĪØ§ Ø¯
ĠØ§ÙĦØ³Ø± ÙĬØ±
ĠÙħÙħØª Ø¹Ø©
ĠØ¨ ÙĬØ¶
Ø§ÙĦØ¨ ØŃØ±ÙĬÙĨ
ÙĪØ ªØ§Ø¨Ø¹
Ø§ÙĦ Ø£ÙĨ
ĠØ§ÙĦÙħÙģØ§ ÙĪØ¶Ø§Øª
12 00
ĠÙĨØ¸ ÙĬÙģ
ĠØ¥Øµ Ø¯Ø§Ø±Ø§Øª
ĠØ¢Ù ħ
Ġan al
ĠÙĬØ· Ø§ÙĦØ¨
ĠØ· ÙĦØ¨Ø©
ĠÙħØ¹Ø ¸
ĠØ§ÙĦØ£ØŃ Ø¯Ø«
ªØ® Ø¨Ø§Øª
ĠØ§ÙĦØµ ÙĪØªÙĬ
ĠÙĦØ£ Ø¨ÙĬ
ĠÙĦÙĬ ÙĦØ§
ĠØ§ÙĦØ·Ø§ Ø¨ÙĤ
ĠØ£ ÙĥÙĦ
ÙĬÙĪ ÙĦØ©
ĠÙħØ® Ø§ÙĦÙģ
ĠØ¥Ø ¸ÙĩØ§Ø±
ĠØ§ÙĦØ§ÙģØªØ±Ø§ Ø¶ÙĬØ©
in c
ĠØªØª ÙĨØ§Ø³Ø¨
ĠC he
ĠØ¹Ø±Ø¶ ÙĩØ§
ĠØ® ÙĬØ§Ø·Ø©
ÙĦÙĦÙ ħØ
ĠØ§ÙĦØªÙģ Ø¬ÙĬØ±
Ø³Ø§ ÙĩÙħ
ĠØ§ÙĦØ¬ ÙĪØ§
¬Ø§Ø ±Ùī
Ġ ÙĪØ¯ÙĪÙĨ
ĠØ® Ø§ÙĦ
Ġ199 4
ÙĦÙĬØ´ ÙĬØ§
ĠÙĦÙĦ ØªØµ
ĠÙĨØ§Ø ±ÙĬØ©
< <
ĠØ§ÙĦÙĩÙ Ĩ
ĠØ¨Ø£ ØŃØ¯Ø«
ªØ ·ÙĦØ¨Ø§Øª
Ø³ ÙĦÙħ
ĠT ik
ĠØ§ÙĦÙħØµ ÙĨÙĪØ¹
en e
ĠÙĪÙĨ ØŃÙĪ
ĠØ¹Ø± ÙģØª
ħÙĦØŃ ÙĤØ§Øª
Ø§ÙĦÙħØ ±ÙĥØ²
M ar
ĠØ³Ø ¬ÙĨ
ĠØªØ§ ÙĪÙĨ
ĪÙĦÙ ĨØ¯ÙĬ
u id
ÙģØ§ Ø¦ØŃ
ĨØª Ø¯ÙĬØ§Øª
ĠØ¬ÙĨ Ø³ÙĬØ©
ÙĩØ§ ÙħØ§Øª
ÙĨØ§Ø ªÙĬ
ĠØ¯Ø±Ø§ Ø¬Ø©
ĠÙĬØ³ØªØ ºØ±ÙĤ
ĠÙĪØ§ÙĦØµ ÙĨØ§Ø¹Ø§Øª
Ø³ØªØ ±ÙĪÙĦ
ÙģØª ÙĬÙĨ
ĠÙĪØ ²Ø§
Ø ªÙĦ
Ĭ ÙģÙĬØ¯
ĠØ¯ÙĪ ÙħØ§
ĠØ§ÙĦÙħØ ±Ø¬Ø¹
b it
ĠØ§ÙĦÙģÙĨØ§ÙĨ ÙĬÙĨ
ĠØ³Ùģ ÙĬÙĨØ©
ĠØ¨Ø§ Ø³ØªØ«ÙĨØ§Ø¡
ÙħØ³ ÙĪÙĨ
ĠÙĪØ§ÙĦØ³ Ø¹Ø±
ĠØ§ ÙħÙĬØ±
Ùĩ Ø¯ÙĬ
ĠÙĦÙĬØ ªÙħ
± ÙĥÙĨ
ĠØ¥Ø¹ÙĦØ§ ÙħÙĬØ©
ÙĬØŃØ ªÙĪÙĬ
Ø³ØªØ§ Ø¯
g ov
ĠØ´ ÙĦØ§ÙĦØ§Øª
ĠØ§ÙĦÙħØ ´Ø
ĠÙħÙĪØ ²
ĠØ¨Ø§ÙĦÙħØ ¬
Ø´ Ø¹Ø±
ĠÙĪÙģÙĬ Ùĩ
Ġâ ĺ
Ø³Ø§ÙĨ Ùĩ
ÙģØŃ Ùĩ
ĠÙĪØ§ÙĦØª Ø¯Ø±ÙĬØ¨
ĠØ³ ÙĬØ¦Ø©
ĠÙħØŃØ§ Ø³Ø¨Ø©
ĠØ§ÙĦØªØ¹Ø§ ÙĤØ¯
Ī Ø¹ÙħÙĦÙĬØ©
ĠØ¥Ø ±ÙĩØ§
ĠØ§ÙĦØ¥ÙħØ§ Ø±Ø§ØªÙĬ
ĠØ§ÙĦÙĥØ «Ø§ÙģØ©
Ù ĪØ¹ÙħÙĦÙĬØ©
ĠØ§ÙĦÙħØ ªØ§Ø¨Ø¹ÙĬÙĨ
ĠÙħÙĥ ÙĪÙĨØ©
Ġ7 6
j i
Ĩ Ø¹ÙħØ©
ĠØ±ÙĪ ÙħØ§
Ø³Øª ÙĬØ©
ĠØ§ÙĦØ¹Ø ·Ø±
ĠØ® ÙĪÙģ
ĠØ¹ ÙĪØ¶
ĠÙħØ¹ÙĦÙĪÙħØ§Øª Ùĥ
§Ø¦ Ø¯Ø©
ĠØ¬Ø§ÙĨØ¨ Ùĩ
ĠØ§ÙĦÙħØ¹Ø§ Ø¯
Ù ĨØ¹ÙħØ©
ĠØ§ÙĦØ³ÙĬØ§ ØŃÙĬ
Ġet s
Ĭ Ø¯Ø§
Ø ´Ø§Øª
v o
ØŃ Ø¯Ùī
ÙĦÙħÙ ĪØ§
ĠØ§ Ø³Ø·
ÙĪÙĦÙ ĨØ§
ĠØŃ ÙħØµ
ĠÙĪØ· ÙĦØ¨
p art
al ity
Ø§ÙĦÙĤ Ø³Ùħ
ĠØ§ÙĦÙģØ¹ Ø§ÙĦÙĬØ§Øª
ĠØ¨ ØŃØ¯
ĠØ£ØŃ Ø¬Ø§Ø±
Ð ±
ĠÙĪØ³ ÙĩÙĪÙĦØ©
ĠÙĪØ¶Ø¹ Ùĩ
Ġ ÙĨØ³Ø
ÙħØ ²Ø§ÙĬØ§
ÙĥØ§ Ø²
ĠØ¨ØªØ± ÙĥÙĬØ¨
ategor ies
Ù ĪÙĤÙĪØ¯
ĠN ow
ĠÙĪØ§ÙĦØ« ÙĤØ§ÙģÙĬØ©
Ø£ Ø®Ø
ĠÙĨØ´Ø± ÙĩØ§
ĠØ§ Ø¹ØªØ¨Ø±
ĠØ§ÙĦØŃ ØµØ±ÙĬØ©
ĠØ§ÙĦØ¶Ø ®ÙħØ©
Ġ Ø¯Ùī
ĠØ·Ø§ Ø¨Ø¹Ø©
ĠØª ÙĤÙĪÙĬÙħ
ĠØ§ÙĦØ¬ ÙĨØ§Ø¦ÙĬØ©
Ø³ØªØ§ Ø±ÙĬ
Ø¨ÙĤ ÙĦÙħ
ÙħÙĬ ÙĩØ§
ÙĦØª ÙĨØ§
ĠÙħØŃØ§Ø ±Ùħ
ĠÙĩØ§ Ø¦ÙĦ
µØ§ ØŃØ¨
) }
ĠÙĨØ³ Ø¹Ùī
ĠØ§Ø ´ØªØ±Ø§
ÙħØ µØºØ±Ø©
i et
ag er
Ġb et
Ġsh anghai
ĠM ed
ĠØ§ÙĦÙħÙ ĤØ±
ĠÙĪÙģÙ Ĩ
ĠÙĥØ§Ù ħ
ĠØªÙ ĨÙĤÙĦ
ĠØ£ÙĤ Ø±Ø§Øµ
ĠØ§ÙĦØªÙĪÙĤ ÙĬØª
ĠØ§ØŃØªØ±Ø§ ÙģÙĬ
3 50
ĠØªØ³ ÙĩÙĬÙĦ
ĠØ§Ø³ØªØ·Ø§ Ø¹
ĠØ§ÙĦØ¨Ø± Ø¯
ĠØªØ ºØ±ÙĬ
ĠØªÙĦÙĤØ §Ø¦
ĠØ£Ù ĪÙĤ
ĠØ¨Ø±Ø§ ÙĪÙĨ
ÙĪØ±Ø§ Ø³
ÙĪØ±Ø ´
ĠØ§ÙĦØ· ÙĦÙĤ
Ø¨Ø¯ Ø¹
Ø´Ù Ī
ĠÙĤØµ Ø¯
ĠØ§ÙĦØŃ ÙħØ§ÙħØ§Øª
ĠÙģ ÙĦÙĬØ³
ĠØ£Øµ ÙĪØ§Øª
ÙħØ§ Ø²
ĠØ§ÙĦØ³ Ø¯
ĠØ¨Ø§ÙĦÙģ Ø±ÙĨ
ĠØ§ÙĤØªØ±Ø§ ØŃ
ĠÙħØ³Ø ¦
ĠO ut
Ø ±ÙĥÙĨ
ĠÙħØªØ ·ÙĪØ±Ø©
ĠÙĦÙ ĤØ§
ĠØ£Ø¨ ÙĨØ§
L inkedIn
op ular
ĠØª ÙĪØŃÙĬØ¯
ir d
ĠÙģ ÙĬÙħÙĥÙĨ
ĠÙĦÙĪØ ±ÙĬØ§ÙĦ
ĠØªÙħØª Ø¯
ĠØª ÙģØ
ÙĤÙ ĪÙĬØ©
ĠØ¨Ø® ÙĦØ§Ùģ
ry pt
ĠØ¨Ø® ÙĬØ±
am ily
ĠÙĬØ¯ Ùĩ
ÙĦÙģ ÙĬÙĨ
ĠØ§ÙĦÙĨØ§Ø¬ ØŃØ©
ĠØ§ÙĦØªØ´Ø±ÙĬ Ø¹ÙĬØ©
ĠØ§ÙĦÙĦ Ø·ÙĬÙģ
ĠÙĩØ§ ÛĮ
ĠØ§ÙĦÙĪØ ±Ø§
ĠÙĪØ¬Ø§ Ùĥ
ĠÙĬØ± ÙģØ¶
ħ ÙĦØ§Ø¡
ĠØ£ØŃØ¯ ÙĩÙħØ§
ĠÙĪÙħØ ¬ÙĪÙĩØ±Ø§Øª
ĠØ§ÙĦØªÙħØ± ÙĬØ¶
ÙħØ§ Ø¹Ø§Øª
ĠØŃØ °
Ġc nc
ÙĮ ØĮ
ÙĪÙĦÙ ħ
ĠØ²Ø±Ø§ Ø¹ÙĬØ©
Ġ1 15
ĠØ§Ø³ØªØ ±Ø§
ĠÙĪØ ´Ø±ÙĥØ§Øª
Ġ ÙĪØ¹ÙħÙĦÙĬØ©
ĠØªØª ÙĪØ§Ø¬Ø¯
ĠÙħØ ±ÙĬØ¶
ÙĬØªØ ±Ø²
Ø§ÙĦÙĪØ§ Ù
ĠØ¶Ø ®
ĠÙħÙĨ Ùģ
ĠØ£ Ø¹ØªÙĤØ¯
ĠÙĪÙħØ ´
Ø³Ø±Ø§Ø¦ÙĬ ÙĦÙĬ
ªØ¨ Ùĩ
ĠA S
ĠØªØ±Ø§ Ø¨
ĠØ§ÙĦØ¥ÙĬØ¬Ø§ Ø¨ÙĬØ©
ĠØ³ÙĪ Ø³Ø©
ĠØ² Ø¹ÙĬÙħ
ĠÙħÙĬÙ ĨÙĬ
ĠØª ÙģÙĪÙĤ
ĠØ§ÙĦÙħØ¬Ø§ ÙĪØ±Ø©
ĠØ§ÙĦØ® Ø¨ÙĬØ±
ĠÙĪØ§ÙĦØ¢ ÙĦØ§Øª
ĠØ§ÙĦÙħÙĤ Ø¯Ùħ
ĠÙĦØ§ ÙĨØ
ĠØ§ÙĦÙħØ® Ø±Ø¬
ĠØªÙħ ÙĥÙĨØª
ĠØ³Ùĥ ÙĪØªØ±
ĠØ¨Ø ´Ø
ĠØ° ÙĥÙĬ
ĠÙħØ¶Ø§ Ø¯Ø§Øª
Ø·ÙĤ Ø³
ĠÙĪÙħÙ ħÙĬØ
ĠÙĨÙĪØ¹ Ùĩ
ĠØªØ§ Ø¬
Ù ĬÙģÙĬØ¯
ĠÙģÙ ĪÙħ
ĠÙĥØªØ¨ ÙĩØ§
Ñĥ Ñģ
ĠØ§ÙĦÙĥØ«ÙĬØ± ÙĬÙĨ
ĠØ§ÙĦÙĤØ§ Ø¨ÙĦ
ĠÙĪØ§ÙĦØ«Ø§ ÙĨÙĬ
ĠØ§ÙĦØ¬ÙħØ§ Ø¹Ø§Øª
ĠÙĥÙĪ Ø¨ÙĪÙĨØ§Øª
ÙĩØ¬ Ø©
ĠØ§ÙĨØ ªØ´
ĠØ§ÙĦØ¨ Ø±Ø¬
ĠÙĪØ§ÙĦØª Ø³
ĠÙĦ Ø³ÙĨÙĪØ§Øª
ĠØªØ ºÙĬÙĬØ±Ø§Øª
ĠØ¨Ø§ÙĦÙ ĨØ§
ĠØ§ÙĦØ³ØªØ§ Ø¦Ø±
ĠØ§ÙĦÙĪØ« ÙĬÙĤØ©
ĠØ§ÙĦÙħ Ø¨Ø¯Ø£
ĠØ§ÙĦØ´Ø¹Ø± ÙĬØ©
ĠØªÙĨÙĤ ÙĬØ©
Ġ25 00
ĠØ´Ø± ÙĤÙĬ
Øº ÙĦØ§ÙĬØ©
ĠÙĦØ ªØ²
ĠØ§Ø² Ø¯
m ar
Ø§ÙĦÙħÙĨØ ªØ¯Ùī
ĠØ§ÙĦØ³ ÙģÙĨ
ĠÙħØªØ ²
Ġï» £
ĠÙĪØ£ Ø¹ÙħØ§ÙĦ
ĠÙĪÙģ Ø±Ø²
ĠØ§ÙĦÙħÙĦØ§ ÙĬÙĬÙĨ
Ø·Ù ĬØ¨
ĠØ§ÙĦØ¨Ø§ØŃØ« ÙĪÙĨ
ĠT ph
ĠQ ue
ĠØ±Ø§ ØŃ
c rushers
Ø§ÙĦØ£ Ø³
ÙĥØª Ø³Ø¨
p ower
Ġgo al
ult s
ĠØ¨Ø§ ÙĬØª
ĠÙĪØ¬Ù ĪØ¨
Ø¹Ùħ Ø¯Ø©
J un
ĠØ§ Ø¬Øª
ĠØª Ø¹ØªÙĤØ¯
ĠØ§ÙĦØ¬Ø ²Ø±
ĠØ¥Ù ħØ¯Ø§Ø¯Ø§Øª
Ø¬Ù ĪØ©
b a
ª Ø¹ÙħÙĦ
ĠÙĦØªÙĤ ÙĦÙĬÙĦ
ĠÙĦÙĦØ£ Ø³ÙħÙĨØª
ont ak
ĠØ³ÙĬØ§ Ø±ØªÙĥ
ĠÙĦØ£ Ø¬ÙĦ
ĠØ± ÙĬØ§Ø¯Ø©
Ùģ ÙĬØª
ĠÙĪØ§ÙĦØªØ ®
ir c
ĠØ§ÙĦÙģ ÙĦÙĥ
ĠØ§ÙĦØªØ ¶Ø§ÙħÙĨ
ĠØ¹Ø ´Ø§ÙĨ
ĠØ³Ø§ ÙħÙĬ
ĠÙĪØ¹ Ø¨Ø¯
Ġ ÙĨÙħÙĪØ°
ĠØªÙĨØ´ ÙĬØ·
ĠÙħØ¯ ÙģÙĪØ¹Ø©
T ok
ĠØ§ÙĦÙģ Ø±Ø§Ø
rem ove
ĠÙħØ ®Ø§ÙĪÙģ
ĠIn t
ĠØ§ÙĦØ± ÙħÙĪØ²
ĠØ¹Ø² ÙĬØ²
ĠØ§ÙĦÙħØŃ ÙĦØ§Øª
ĠØ§ÙĦÙħØ¹Ø§ ÙĨÙĬ
ĠÙħÙĤ Ø¹Ø¯
ĠÙĪØ£ ÙĨÙĩØ§
ĠØ§ÙĦÙħØ ¬Ø§Ø±ÙĬ
ĠØ²Ø§ Ø¦Ø±
ĠØ§ÙĬ ÙĦØ§
ĠØ§ÙĦØ¥ Ø¹Ø§ÙĤØ©
ain ed
ÙĦØ§ Ø¦ÙĦ
B S
®Ø§ Ø®
Ø³ÙĬ ÙĪØ±
ÙħÙĨØ§ Ø¬Ùħ
Ø¯ Ø¹ÙĬ
ĠØ§ÙĦØªØ ²Ø§Ùħ
k t
Ø£ Ø³Ø¦ÙĦØ©
Ø´ ÙĬØ®
ÙĥØ¨ ÙĪØª
Ùĩ Ø¯Ø§ÙĬØ§
ĠØ§ÙĦØ¥Ø¶Ø§ ÙģÙĬØ©
ĠØ£Ø¨ Ø¹Ø§Ø¯
ĠØ§ÙĦØ§ÙĨØªØ®Ø§ Ø¨ÙĬØ©
ĠØº ÙĦØ§ÙĬØ§Øª
ĠØ§ÙĦØ¬ ÙħÙĦ
ĠØ³Ù ĨØ¯
ĠP er
ĠØ§ÙĦØ¨ ÙĦÙĪØ
ĠØ§ÙĦØ£ ÙĥÙĦ
ĠØ±Ø§ Ø¨Ø·Ø©
Ġ3 65
ĠØ®Ø´ Ø¨ÙĬØ©
Ġ Ù©
ï» ²
ĠØ§ÙĦÙĦØ§ Ø³
ĠØ§ÙĦÙĩØ§ Ø¯Ø¦
ĪÙĤÙ ĪÙģ
ĠØ¨Øª ÙĦÙĥ
ĠÙģØ§ ØªØŃ
ĠØ§ÙĦÙģØ§ ØµÙĦ
ĠÙħØ ´Ø
ĠØ¨Ø§ÙĦØ °
ib r
ĠÙĬØ« ÙĬØ±
ĠÙĪØ§ÙĦØŃ ÙĪØ§Ø±Ø§Øª
ĨØ¯ ÙĤÙĬØ©
Ø ±ÙĩØ§Ø¨
ĠØª Ø¨ÙĨÙĬ
ĠÙħØ¤ Ø®Ø±
ĠÙĪØ§ÙĦØ ªØ¹ÙĦÙĬ
ĠØ§ÙĦÙģ ØµÙĪÙĦ
ĠØ§ÙĦØ¥ Ø¹Ø¯Ø§Ø¯
Ġind ustr
Ø¹ Ø¨Ø§ÙĨ
ªØ§ Ø¯Ø©
ĠÙĦÙĦÙĨØ ¸Ø§Ùħ
ÙħØ§ ÙĩÙĬ
ÙĦØ§Øª Ùĩ
i ent
Ø ªØ¹ÙħÙĦ
rou nd
ĠØ§Ø· ÙĦØ¨
ĠØ§ÙĦØ¯ ÙĪØ±ÙĬØ©
ĠØ§ÙĦØªØ ²
ĠØ§ÙĦØª ØŃØ
ÙħÙĬ ÙĦÙĬØ©
ĠØ³ ÙĬØ¬
ĠØ§ÙĦØªØ£ ÙĥÙĬØ¯
ĠÙħÙĨÙĪ Ø¹Ø©
ĠÙĪØ§ÙĦØ³ ÙģØ±
ĠØ§ÙĦØ¹Ø±Ø¨ÙĬ Ùĩ
Ø¬ Ø¦Ø©
Ġ ÙĪØ³ÙĨ
ĠÙĦÙĦØ¹ ÙĨØ§ÙĬØ©
ĠÙĪØªØ ±Ø
ÙħØªØ ¬Ø±
Ġ ÙĪØ³Ø±
ÙĦØ ªÙĪÙĨ
ĠØ§ÙĦØ±Ø¦Ø§ Ø³ÙĬ
ĠØ§ÙĦØµØ¯ ÙħÙĬØ©
ĠÙĤ ÙĪÙħ
ÙĦØ ´
ÙĤÙ ĪØ©
ĠØ´ ÙĪØ§Ø±Ø¹
ÙĨØ ºØ§
ĠØ§ÙĦÙĤØ§ Ø¯
u ild
ĠÙĬØªØ¹ ÙĦÙħ
ĠÙģØªØŃ Ø©
ĠØ§ÙĦØª ÙĥÙĨÙĪÙĦÙĪØ¬ÙĬØ©
an e
ĠØ¹Ø¶ ÙĪØ§
ĠØ§ÙĦØ¨Ùĥ Ø§ÙĦÙĪØ±ÙĬÙĪØ³
ĠØªØ °ÙĩØ¨
ÙĪØ ¥
ĠÙĥÙĨØ ²Ø§Øª
ª ÙħÙĬÙĨ
«Ø§ ÙĤ
ÙĥØ ±ÙĪÙĨØ©
ĠØ¥Ø «Ø§Ø±Ø©
ĠØ§ÙĦÙĤ Ø¨Ø§Ø¦ÙĦ
ĠØ¨Ø§ÙĦØ ®Ø·
ĠØªÙ ĬÙĥ
Ø¹Ø¨ ÙĬÙĨ
ĠM p
ĠØ§ÙĦÙħÙĪ Ø¹Ø¯
ÙĤÙ ĪØ¹
ĠÙħØ ´Øº
ØŃØ§ Ø¯ÙĬ
ĠØ§ÙĦÙħÙĩØ§ Ø¬Ø±ÙĬÙĨ
ĠØªØ ±ÙĤ
ĠØ§ÙĦØªÙĪ ÙģÙĬÙĤ
Ġ ÙĪÙħÙĩ
ĠØ§Ø³Øª ØŃ
ĠØ§ÙĦÙħØ¬Ø§ ÙħÙĬØ¹
ĠØ§ÙĦØª ÙĤØ§Ø·
Ġ9 1
ĠÙĦÙĦØ¹ ÙħÙĬÙĦ
ÙĬØ§ Ø¬ÙĬ
¶Ø§ Ø±Ø©
ÙĪØ µØ§Øª
ĠØ£ÙĪ ÙĨØ
Ø§ÙĦØ ¶
´Ùģ ÙĬØ±
ĠØ§Ø¶Ø· Ø±Ø§Ø¨
Ø¯Ù ĨØ©
Ġs l
Ù ĪÙĥÙĬ
ĠÙĥ Ø¹
ĠØ¨ÙħØ ±Ø¶
ĠØ¶Ø ®Ùħ
ĠØ³ÙĪ Ø¯Ø§ÙĨ
ĠØ§ÙĦÙħØ¯ÙĨ ÙĬÙĬÙĨ
ĠØ¯Ø±Ø§ ÙħØ§
f a
Ø³ÙĦ Ø¹
ØŃÙħ Ø¯ÙĬ
C opyright
ĠØ¥Ø¯ Ø±Ø§Ø¬
ĠØ§ÙĦØ± Ø¨Ø·
ĠØ£ Ø¬ÙĨØ¨ÙĬØ©
ĠØ£Ø´ Ø¯
Ø¯Øª Ùĥ
ķ ×
ĠÙĪØ§ÙĦØ´ Ø±Ø§Ø¡
ĠØ¨Ø±ÙĪØ ªÙĪ
ĠØ§ÙĦÙħÙĪ Ø³ÙĬÙĤÙĬØ©
ĠÙĦÙĦØŃ ÙĬØ§Ø©
Ġ2 15
ĠØ±Ø¤ Ø³Ø§Ø¡
¶Ø ®
Ø¬ Ø¹Øª
ĠØªØ¬Ø±ÙĬ Ø¨ÙĬ
ĠØ§ ÙħØ±Ø§Ø¶
Ø´ ÙĬØ±
ĠØ§ÙĦÙĥ ÙĦÙĪØ±
ĠØ§ÙĦÙħØ±Ø¬ Ø¹ÙĬØ©
ĠÙĪØ§ÙĦØ³ ÙĦØ§ÙħØ©
¶Ø§ ÙĨÙĬØ©
ĠÙĪØ§ÙĦÙģÙ Ĩ
Ġ199 5
ĠØ§ÙĦÙħÙħØ§ Ø±Ø³Ø§Øª
ĠBl ack
ĠØ§ÙĦÙ ĪÙĦÙĬØ¯
Ø¨Ø±Ø§ ÙĨÙĬ
ĠÙĪØ§ÙĦÙģ ØŃÙħ
ĠØ§ÙĦØ§ ÙĥØ«Ø±
ªÙĨ ÙĬØ§
ĠÙģØ§ ÙĬÙģ
ĠØ§ÙĦÙħØ´ØªØ± ÙĬØ§Øª
ÙĨØ§ Ø¯Ø§
ĠØ§ÙħØ§ Ø²ÙĪÙĨ
ĠØ§ÙĦØµØŃÙģ ÙĬÙĬÙĨ
ĠØ§ÙĦÙħÙģØ§ ÙĩÙĬÙħ
ĠØª ØŃØ§ÙģØ¸
§Ø¦ Ø©
ÙĬØµ Ø§ÙĦ
ï» ĺ
ĠÙħØ§ ÙĬÙĨ
ĢØ§Ø ª
ÙĪØ§Ø °
ĪÙĥ ÙĦØ§Ø¡
ÙĪØ§ Ø·Ø¦
ºÙ ĪØ©
à º
ĠÙħØ °ÙĥØ±Ø§Øª
ØŃØª ÙģØ§ÙĦ
ĠØ§ÙĦØŃ ÙĬÙĪÙĬ
ĠÙħØ§ ÙĩØ§
Ġre v
Ø´Ø± ÙĥÙĩ
ĠÙĦØªØ ·Ø¨ÙĬÙĤ
Ø¨ ÙĦØº
ĠÙħØ¤ Ø³
ĠØ³ ÙĥÙĨ
ĠØ§ÙĦØ§ Ø³ØªÙĬ
ĠØ¬ Ø¯Ø¯
ĠØ§ÙĦÙħØ¨Ø§ Ø¯Ø¦
ĠØ§ÙĦØ² Ø¬Ø§
.. ...
c d
ĠS E
ĠØ£ÙĨ Ø¯
ĠÙĨÙĤ Ø¯ÙĬ
ĠÙħÙĩ ÙĥØ±Ø©
ĠØ§ÙĦØ¹ ÙħØ±Ø©
ĠØ¨ÙĤØ§ ÙĬØ§
ĠÙģ Ø¬Ø±
ÙħØ¯ ÙĬØ±
ĠØ§ÙĦØ§ Ø³ÙĪØ¯
ĠÙĨØ ²ÙĦ
ĠØ±ÙħØ² ÙĬØ§Øª
Ø§ÙĦ Ø¯ÙĪÙĦØ©
ĠØ§ÙĦØº Ø¯Ø©
ĠØ²ÙĬÙĨ Ø¨
ĠØ§ÙĦØ£Ø· ÙĪØ§Ø±
ĠS outh
ĠØªÙĨØ ´Ø±
ĠÙĪØ§ Ø«
Ġ ÙħØ¨Ø±
ĠØ§ÙĦØ§Ø³Øª Ø¹Ø§ÙĨØ©
ĠØ§ÙĦÙħÙħØ ªØ§Ø²Ø©
Ġ ÙĬÙģÙĬØ¯
ĠØ§ÙĦØ¬Ù Ĭ
ĠÙĤ ÙĬØ³
Ð° ÑĢ
Ø³Ø±Ø§ Ø¡
ear n
ĠØ§ÙĦÙĥ ØŃÙĪÙĦ
ĠØ§ÙĦØ§Ø®Øª ÙĦØ§Ùģ
ĠØ§ÙĦÙĦ Ø³Ø§ÙĨ
ĠØ§ÙĦØ² ÙĬØ§Ø±Ø§Øª
ĠØ§ØŃ Ø¯Ùī
ĠS amsung
Ø¨Ø§ Ø³Ø§Øª
ĠÙĪØ§ÙĦØ ªØ§Ø±ÙĬØ®
²Ø§ ÙħÙĨ
Ø£ ÙĦÙħØ§ÙĨÙĬØ§
ÙħÙĥØ§ ÙģØŃØ©
¦ ÙĨØ§Ùģ
Ø° Ø¨ÙĬØ©
§ Ø®
ĠØ¨Ø§ÙĦ Ø£Ø
Ù ĪÙħÙĩØ§
ĠØ§ÙĦÙħØ¨ ÙĥØ±Ø©
ĠØ® Ø¨Ø±Ø§Øª
ĠØ¨Ø¯ Ø¨ÙĬ
ĠØ² Ø¹
ĠØªØ ´ØªØ±ÙĬ
ĠS tr
ïº ¤
ØªØ¹ ÙĦÙĬÙħ
ĠØ´ Ø¨Ø§Ø´Ø¨
ĠØ§ÙĦÙħØª ÙĥØ§ÙħÙĦØ©
ĬØ¯ ÙĬØ§
ĠÙĪØ§ ÙģÙĤ
ĠØ§ÙĦØ§ ÙģØ¶ÙĦ
ĠØ¹ Ø³ÙĦ
ĠØ§ÙĦÙħØ¹ Ø¯ÙĨÙĬ
ĠØ§ÙĦÙħØŃØ§ ÙħÙĬ
ĠØ¨ØªØ ·ÙĪÙĬØ±
ĠÙĦÙĦØ§ ÙĩØªÙħØ§Ùħ
ĠØ§ÙĦÙģ ÙĬØªØ§ÙħÙĬÙĨØ§Øª
Ø¨Ø· ÙĦ
ĠØ³ ÙĬØ·Ø±Ø©
ĠØ§ÙĦØ® ÙĦØ§Ùģ
ĠØ§ÙĦØ®ÙĦÙĬØ¬ ÙĬØ©
ĠÙĪØ§ÙĦÙħÙ ĩØ§
ver y
Ġs ince
ĠÙĪØ§ÙĦÙ ĨÙĤÙĦ
ĠØŃ ÙĬØ§
Ø¹Ù ĪÙĬØ©
ĠØ§ÙĦØ¹Ù ĨØ¨
ÙģØ§ ØŃ
ĠÙĩ ÙĨØ
Ø¹Ø§ ÙĤØ¯
ĠÙħÙĩØ ªÙħ
Ġr et
ïº Ĵ
ĠØ¨Ø§ÙĦØ ¶Ø¨Ø·
ĠØ±Ø£ Ø
Ġqu e
ĠØ§ÙĦÙħÙĪØ§ Ø¬ÙĩØ©
ĠØŃØµØ± ÙĬØ§
ÙħÙĪÙĨ Ø¯ÙĬØ§ÙĦ
ĠÙĥØ ±Ø¨
ĠØ§ÙĦØŃØ§ ÙģØ¸
S A
or ies
h u
®Ø ±ÙĪØ·
ĠØ§ÙĦØ£Ø ºØ§ÙĨÙĬ
ĠØ§ÙĦØª ÙĨØºØ³ØªÙĨ
ĠÙĦØ´ ÙĩØ±
ĠÙĪØ ±ÙĪØ¯
ĠØ§ÙĦØµ ÙģØ±
ĠØ§ÙĦØ¶Ø ±ÙĬØ¨Ø©
p ag
ĠØ§ÙĦØ¨Ø µØ±Ø©
ªØ¬ ÙħØ¹
ÙħØ± Ùĩ
ĠØªÙ ħØ³
ĠØ§ÙĦØ¢ ÙĪÙĨØ©
ĠÙĬØµ ØŃ
l er
ĠØ§ÙĦÙģ ØŃ
ĠØ£ ÙĪØ±ÙĬ
ĠØ§ÙĦÙģ Ø±ÙĬØ¯Ø©
ĠØ¯Ø±Ø§ Ø³ÙĬØ©
M E
ĠØªÙĤ Ø³ÙĬØ·
ĠØµØ®Ø ±ÙĬØ©
âĢ ¯
ĠØ§ÙĦØ¥ Ø¨ØªØ¯Ø§Ø¦ÙĬØ©
ĠÙĪØ§ÙĦØ ±ÙĪØ§
ĠØ§ÙĦÙĩ Ø²Ø§Ø²
ĠØ§ÙĦÙħØ¬ Ø§ÙĦØ³
Ø±Ø§Ø« ÙĬÙħ
ÙĦÙĬ ÙģØ²
ĠÙħØ ªÙĨÙĪØ¹
ØŃØ ¶Ø§Ø±
ĠØ§ÙĦØªØµ ÙĨÙĬÙģØ§Øª
ĠØ¨Ø¨ ÙĨØ§Ø¡
ĠØ§ÙĦØ£ÙħØ§ ÙħÙĬØ©
ĠØ§Ø³Øª ÙĥØ´Ø§Ùģ
er al
ĠÙĤÙĦØ¨ Ùĩ
ĠØ£Ø¯ Ø¨
ĠØ¬ÙĨ Ø¨Ø§
§ Ø¨ÙĨ
ĠØ¨ÙĬ Ùĥ
ĠØ§ÙĦØªØ± ÙģÙĬÙĩ
ĠÙĦÙģØ §
ĠØ£Ø¬ ÙĪØ§Ø¡
ĠØ§ÙĦØŃ ÙĪØ¶
ĠÙĪØ¬Ø ²Ø±
ĠÙĪØ§ÙĦ Ø·Ø±ÙĤ
ĠE ng
ĠØ£Ø® Ø¨Ø±ÙĨØ§
our n
ĠÙħØ§ Ø±Ø´
Ġ} ,
´Øª ÙĤØ§Øª
cript ion
Ø¨Ø ¦
ĠØ§ÙĦÙĥØ« ÙĬØ±ÙĪÙĨ
ĠØ¨ÙħØ ŃØ§
ĠØ ¸Ø§ÙĩØ±
ĠÙħØ¹ Ø¯ÙĨÙĬ
ĠØ§ÙĦØ¢ Ø®Ø±Ø©
P DF
Ù ĪØ³Ø¨
ur s
ĠØ³ ÙħØ§Ø¹
Ù ĪÙĨØ¬
ÙģØ ®
ĠØ§ÙĦØŃ Ø¬Ø§Ø¨
ĠØ§ÙĦØ¯ Ø±Ø¬Ø§Øª
ĠØ§ÙĦØ£ ØŃÙħØ¯
ĠØ§ÙħØ ªØµØ§Øµ
ĠØ°ÙĥØ± ÙĨØ§
ĠM e
ÙĥÙ ĬØ³
ĠØ§ÙĦØ´Ø§ Ø·Ø¦
ĠØ§ÙĦÙĨØ ²Ø§Ø¹
Ġ ÙĪÙĤÙĪØ¯
Ø¨ ÙĤÙī
ĠØ¨ÙĥØ« Ø±Ø©
ĠØ§ÙĦØªØ±Ø§ Ø¨
ĠØ£ÙĪØ ¶Ø§Ø¹
Ġ ÙĨØ¹ÙħØ©
·Ø§ Ø¨ÙĤ
ĠØ§ÙĦØ§ Ø¹ÙĦØ§ÙĨ
Ġc ustom
ĠÙĪÙĥ Ø§ÙĦØ§Øª
ĠØ£Ù ĪØ¯
ĠØªØ¯Ø±ÙĬ Ø¨Ø§Øª
ÙĦØª ÙĩÙħ
c b
â Ħ
ĠÙĪØ§ÙĦÙ ħÙĥ
ĠØªØ·ÙĪÙĬØ± ÙĩØ§
ĠP ay
ĠÙĦÙĪØ ¬ÙĪØ¯
ĠØ±Ø£Ø ª
ĠÙĬØŃ ÙĦ
ĠØªÙĦÙĤØ§Ø¦ ÙĬØ§
ĠØ§ÙĦØ£ Ø¹ÙĦØ§Ùģ
ĠÙĨØ °ÙĥØ±
ĠÙĤØ ±ÙĪØ¨
ĠØ£Ø ºØ§ÙĨÙĬ
Ø¯Ø ±ÙĪÙĨ
ĠØ§ÙĦØºØ± ÙĬÙĨÙĬØ©
ent ial
p m
ĠØ§ÙĦÙħØª ÙĨØ§
ĠÙĦØ£ Ø³ÙĪØ§ÙĤ
Ġâ Ĺ
ĠÙĪØ§ÙĦÙ ħØ¨Ø§
Ø§ÙĦØ§ ØªØµØ§ÙĦ
±ÙĬØ´ ÙĬÙĪØ³
Ġ ÙĪÙħÙĩØ§
ĠØ£Ø ªÙī
ĠØ§ÙĦØ¨ØŃ ÙĬØ±Ø©
Ġs ol
ÙĤØ§Ø¦ Ø¹
200 8
ØªØ¹ Ø¯ÙĬÙĦ
V K
ĠÙĬØ¨ØŃØ« ÙĪÙĨ
ĠÙħØ µÙĨ
ĠÙĦÙĦØ¬ ÙĩØ§Ø²
ĠØŃ Ø³Ø§ÙĨ
¦ Ø°
Ġo pen
ee u
ĠR et
ĠØ§ÙĦØŃÙĥÙĪ ÙħØ§Øª
ĠØ§ÙĦÙħÙĩÙ Ĩ
ĠM on
ĠÙĪØ§ÙĦØµ ÙĨØ§Ø¹Ø©
ĠØ§ÙĦÙħØ¬ØªÙħØ¹ ÙĬØ©
ĠØ±ÙĪ Ø¨Ø±Øª
ĠØ§ÙĦÙĥ ÙĦØ¨
ĠØ§ÙĦÙħ ÙĥÙĬÙģ
wiki how
ÙĪØ§ Ø±Ø²
ĠØ±Ø§ ÙģØ¹Ø©
ÙĨØ§ÙĨ ÙĬØ±
ĠØ¥ÙĨ Ùĥ
ĠâĤ ¬
18 0
ĠØ³ ÙĪÙĨÙĬ
Ø³ØªØ« ÙħØ§Ø±Ø§Øª
ĠÙĦÙĦØ² ÙĪØ§Ø¬
ĠÙĤÙĬØ§ Ø³ÙĬØ©
am ic
ĠÙĩØ§ Ø¯ÙĬ
ĠØ¨ÙĤ Ø¯Ø±Ø©
ĠØ§ÙĦØªØ µØ§Ø¯ÙħÙĬØ©
ra ft
ĠÙĪØ§ÙĦØ£ Ø¯ÙĪØ§Øª
ĠØ§ÙĦÙħØ®Ø§ Ø¨Ø±Ø§Øª
ØµÙĨ Ø¯ÙĪÙĤ
ĠØªØ¹ÙĦÙĬ ÙħÙĬ
ÙĪØ§Ø ªÙħ
ĠÙĪØ ·Ù
R ating
Ù ĪØ¨Ø§Ø¡
ªØ² ÙĪØ¬
ĠÙĨØ¹ Ø±Ø¶
Ùģ ÙĬÙĬÙĨ
ÑģÐºÐ¸ Ð¹
You Tube
Ø§ÙĦ Ø³ÙĬØ¯
ĠØ§ÙĦØ¹ ÙĦÙħØ§ÙĨÙĬØ©
ÙĤØ ´Ø§Øª
ĠØ³ÙĬØ§ ØŃØ©
ĠØªØ¹ ÙĦÙĤ
ĠÙĪØ§ÙĦ Ø¬Ø§
Ġ8 3
ïº Ń
ĠÙĪØ£ ÙĨØ
ĠØ£ØŃ Ø¬Ø§Ùħ
el f
ĠØ·ÙĬ ÙĪØ±
ĠØ£ ØªØ
ĠØ§ÙĦÙĪØ§ Ø³Ø¹Ø©
ĠÙĦÙĬØ µØ¨ØŃ
ĠØ§ÙĦØ¨ Ø±Ø§
10 5
âĢĿ :
ĠÙĦØªØ¹ ÙĦÙħ
ĠÙģÙĬ ÙĥÙĪÙĨ
O C
Ġexperi ences
ĠØ§ÙĦØ® ÙĦÙĬØ©
i qu
ĠØª ÙħÙĨ
Ĭ ÙĪØ§ÙģÙĤ
Ù ĬÙĪØ§ÙģÙĤ
ØªØª ÙħÙĬØ²
Ùģ ÙĪØ±ÙĬ
´ ÙģØª
ĠÙħØŃ ÙĦÙĪÙĦ
ĠØ§Ø³ØªØ ¬Ø§Ø¨Ø©
Ø¹Ø¬ Ø¨ÙĨÙĬ
ĠÙĪØ ·Ø¨
ĠØ§ÙĦØ¨Ø µÙĦ
ĠØ§ÙĦÙĥ ÙĨØ§
Ī ÙĤÙħ
ĠÙģÙĦØ§ Ø¯ÙĬÙħÙĬØ±
ĠØµ ØŃØ§
ĠØ§ÙĦÙħ Ø³Ø§Ø¡
ØŃ ÙĦÙĪÙĦ
ÙĩÙĪ Ø¯ÙĬ
Ø§ÙĦØ¥ Ø«ÙĨÙĬÙĨ
Ã¼ r
ªØ²Ø§ Ø²
ĠE GP
Ù ĪÙĤÙħ
ĠØŃ Ø±Ø§Ùħ
ØµØ§ Ø¨Ø¹
ĠÙĪÙ ħØ¯ÙĬØ±
ĠØ£ÙĨ ÙħØ§Ø·
ĠÙħÙĪØ§ ØµÙĦØ©
ĠÙĦÙĦØ§Ø ªØŃØ§Ø¯
ĠØ³ÙĦØ ·Ø§Øª
Ī ÙģØ§ØªÙĩ
ĠØ§ Ø³Ø±Ø§Ø¦ÙĬÙĦ
h o
Ø· ÙĬÙĨ
ĠØ¬Ø§ Ø²Ø§ÙĨ
W e
ĠÙĦÙĦÙ ĤØ
ĠØ§ÙĦØ ªØ§Ùħ
ĠØ¨ ÙĨØ²
ĠÙĪØ³ØªØ ±Ø§Øª
ĠØ§ÙĦØ´ Ø¯ÙĬØ¯Ø©
ĠØ§ÙĦØªØ¬ ÙĩÙĬØ²
ĠÙħÙħØ« ÙĦØ©
Ġ Î
ĠØ¨ ÙĬØ±Ø
ĠÙĥØ§Ø±Ø¯ ÙĬØºØ§ÙĨ
"} ,"
Ù ĪÙģØ§ØªÙĩ
f in
ĠØ§ÙĦÙħØŃØ§ ÙĥÙħ
ĠØ¨Ø§Ø± ÙĥÙĬÙĩ
Ø§ÙĦ Ø³Ø§
ĠØ§Ø¹Øª ÙĤØ§ÙĦ
Ġfor m
ĠØ§ÙĦØªØ± ÙħØ°ÙĬ
ĠØ§ÙĦØªØ ±ÙĪØ³
ĠØªÙĤ Ùģ
Ø£ ÙĤØ³Ø§Ùħ
Ø¯Ø§Ù ĨØ©
Ø¨Ø§ ØŃØ©
¬Ø§ Ø¨
ĠÙĪØ§ÙĦ ØŃØ¯ÙĬØ«
ĠÙĦÙĦ ØŃØ
Ù ĨÙĬÙĨ
ÙĩÙĬØ¯ Ø±Ø§Øª
ÙĦÙĬ ÙĦÙĬØ©
ĠØ§ÙĦØºØ§ ÙĬØ©
ĠS ervices
ÙĬØ ´Ø§
ĠØªØ±Ø§ Ø«
ĠØ§ÙĦØŃØ§ Ø¯Ø«
W hatsapp
ĠØ¬Ùħ Ø¹Øª
Ù ħÙĦÙĬ
Ø¨ÙĪ ÙĦØ©
7 00
ĠØ§ÙĦØŃ Ø¯ÙĬ
«Ø§Ù Ĩ
n xx
ĠØªØ£ Ø®Ø±
ĠØ§ÙĦÙħÙħØ «ÙĦ
ÙģØ§ Ø²
ĠØ§ÙĦØ¬ Ø¯ÙĪÙī
ĠØ§ÙĦØ¨Ø§ Ùĥ
ĠØ¨Ø¥ Ø¹Ø§Ø¯Ø©
ĠØ§ÙĦÙĨØ ·Ø§Ø·
Ġ ÙħØ³ÙĨØ¯
ĠØªÙĬ ÙĦÙĤØ±Ø§Ùħ
ĠÙĥ ÙĦÙĬÙĨ
Ø³Ø ¬ÙĬ
ÙħÙĪØ ´
ĠØ§ÙĦÙĨØ§ ÙĤÙĦØ§Øª
ĠÙĪØ§ÙĦÙ ĬØ§
ĠÙ¢Ùł Ù¢Ùł
ĠØ§ÙĦÙ ĢÙĢ
ÙĦÙħÙ ī
ÙĥØ§Øª ÙĬØ±
ĠØ§ÙĦÙħØ³Ø§ ÙģØ±
Ø¯ Ø±Ø¬
vert ise
ĠØ¨Ù ħØ³Ø§Ø¹Ø¯Ø©
ĠÙĦÙĦ Ø·ÙģÙĦ
Ø¨ÙĪØ§ Ø¨Ø©
ĠØ§ÙĦÙħØ¯ Ø±Ø¬Ø©
ĠØ¨Ø§ Ø´Ø§
ĠÙĦØ· ÙĦØ¨
ĠØ§ÙĦÙħÙĩ Ø±Ø¬Ø§ÙĨ
Ġsh are
ĠØ§ÙĦØ¹ Ø¨ÙĪØ±
Ø¨ Ø¯ÙĪÙĨ
Ã Ń
ĠØ¹Ø¶ ÙĦØ§Øª
ĠÙ¡ Ù¤
Ø §Ø¨ÙĨ
Ø ±ÙĬØ§Ø¶
ÙĪÙĨ ÙĬØ©
ĠÙĪØª ÙģØ§ØµÙĬÙĦ
ĠØ³ ÙģÙĬØ±
ĠØ³Ø§ Ø¦Ø±
ÙĤØªØ±Ø§ ØŃØ§Øª
ÙĪØ§ Ø¨Ø¹
Ġpost s
ĠÙĦÙħØ µ
ĠØ³Ø¨Ø§ Ø¦Ùĥ
pl ace
L M
ÙĪØ ¥Ø°Ø§
ur ity
M ay
Ġ Ø¯Ø±Ø¨
ĠØ§ÙĨ ØŃØ§Ø¡
ĠØº Ø³
c a
Ġ3 20
ĠØ¬ Ùī
ĠØ§ÙĦÙħØ¬ ÙħØ¹
g an
ĠØ§ÙĦÙĨØ ¬Ø§Ø±
ĠÙħØ¹ Ø§ÙĦÙĬ
ĠÙĪØ§ ØŃØª
ĠØ§ÙĦØ£ ÙħØ§Ùħ
ĠØ³Ø± ÙĤØ©
ĠÙĪØ¬ ÙħØ¹
´Ø§ ÙĪØ±
ĠØ¹Ø±Ø§ ÙĤÙĬØ©
ĠBl og
ÙĤØ§ Ø¶
ĠØŃØ§ ÙĥÙħ
Ġ$(' .
g roup
n ap
ĠØ§ÙĦÙħØ §Ø¦ÙĬ
Ġmaterial s
ÙħÙĪØ ¶
ĠØ§ÙĦÙħÙģØ ±ÙĪØ¶
ĠØ§ÙĦØ¨Ø· Ø§ÙĦØ©
ĠØ£Ùĥ ÙĬØ§Ø³
F or
ĠØ§ÙĦØªØµ Ø¯ÙĬØ±
ĠÙĪØ¬ Ø¨Ø§Øª
ħ ÛĮ
Ġs ize
Ġ) )
ÙģØ§ ÙĨÙĬ
ĠØ®ÙĦØ§ ØµØ©
ĠØ® Ø¨Ø²
ĠØªÙĤØ¯ÙĬ ÙħÙĩØ§
ĠØ§ÙĦØ£Ø¯ ÙĦØ©
ĠØ¥ØŃ Ø¯Ø§Ø«
ĠØ§ÙĦÙĤ ÙģØ§Ø²Ø§Øª
rou gh
Ø¯ ÙĪØ±Ø©
ĠÙĪØ§ÙĦØ ±ÙĬØ§Ø¶
®Ø ªØ§Ø±
ĠØ§ÙĦÙħÙĦØ§ Ø¦ÙĥØ©
Ġï» £ï»
Ġ ÙĪÙĥÙĬ
ĠØ«Ø§ÙĦØ« Ø©
¸ ÙĩÙĪØ±
ĠØ§ÙĦØ§ ÙĨØ¬ÙĦÙĬØ²ÙĬ
Ġ ÙĪÙĤÙħ
Ġs ub
ĠØº ÙĨÙī
ĠÙĪØ§ÙĦÙ ĬÙĪÙħ
ÛĮØ§ Ø
ÙħØŃØ§ Ø¬Ø±
ĠÙĬÙĤØ ¶ÙĬ
ĠØ¥Ø³ ÙĦØ§Ùħ
ÙħÙĨØ ²ÙĦ
ĠÙĬØ±ØºØ¨ ÙĪÙĨ
ĠØ¹ÙħØ± ÙĩØ§
ĠA C
ĠØªØ´ÙĬ ÙĦÙĬ
¸ ÙģØ§Øª
ĠØ§ÙĦÙħØ³Ø ªÙĨØ¯Ø§Øª
ĠØ§ÙĦØ£Ø °
ĠØ£Ø³ ÙĦØŃØ©
ĠØ§ÙĦØ® Ø³Ø§Ø¦Ø±
ĠØ§ÙĦØ¬Øº Ø±Ø§ÙģÙĬØ§
ĠØ§ÙĦÙħØŃ Ø¯Ø«
Å Ł
ĠØ§ÙĦÙĥØ§ Ø±ÙĬ
ĠØ§ÙĦØ³ ÙĤÙģ
ĠØªØ± ÙģØ¹
ĠÙģØ§ Ø³
ĠØ£Ø³ ÙĪØ£
Ġto p
ĠØ¨Ø ¶Ø±ÙĪØ±Ø©
ÙĬØ²ÙĬØ§ Ø¦ÙĬØ©
ĠØ±Ø¤ ÙĪØ³
ĠØ¨Ø§ Ø¦Ø¹
ĠØ§ï» ·
ĠÙĦÙĦØ ªÙĨ
ĠØ§ÙĦÙĦ ØºÙ
ĠØ§Øµ Ø¨ØŃ
±ÙĪØ¡ Ø©
ĠØ¨ØªØµ ÙĨÙĬØ¹
ĠØ§ÙĦÙĤ ÙħØ§ÙħØ©
Ġ7 1
ĠÙĦÙĪÙ ĬØ³
ĠØ¹ÙħÙĬ ÙĤ
; ,
ĠØ§ÙĦÙĬ Ùĥ
ĠÙħØ§ÙĩØ§ Ø±Ø§Ø´ØªØ±Ø§
´ØªØ§ ÙĬÙĨ
ÙħØ§ ÙĨØ§
ĠØ§ÙĦØ§ ØªØ¬Ø§ÙĩØ§Øª
ĠØ¨Ø§ Ø±Øª
ĠØ ¶Ùħ
± ÙħØ²
Ī ÙħÙĬØ
ĠØ¨ Ø¬Ø§
ĠÙĦÙĦ Ø³ÙĬ
ĠØ§ÙĦØµ Ø¨Ø±
Ø¨Ø ±ÙĪÙĨ
ÙĪØ§ Ùĥ
ĠÙĪØŃ ÙĦ
ª ÙģØ§ÙĤ
ĠØ§ÙĦØª ÙĤØ¯
ĠØµØŃ ÙģÙĬØ©
ĠJul y
ĠÙĪØ§ Ø¹Ø
ĠS ystem
ĠØ¯Ø±Ø§ ÙĬØ©
ĠÙĩ ÙĦØ§ÙĦ
Ġs and
ĠÙħØ¨ ÙĥØ±
Ø«Ø§ ÙĨÙĬØ§
ĠÙĦÙĦÙħ Ø¯Ø§Ø±Ø³
ĠÙĦØ±Ø ¤ÙĬØ©
ĠØ§ÙĦÙĥ ÙĬØ§ÙĨ
ĠØ·Ø§ ÙĤÙħ
ĠÙ¡ Ù©
Ġ ÙĪÙĨØ¸
ĠØ§ÙĦÙĩÙĬ ÙħØ§ØªÙĬØª
² ÙĬØ±
ĠÙĪØ§ÙĦ Ø¯ÙĪÙĦÙĬØ©
ÙĤÙ ħØ©
ĠØ¨Ø§ÙĦÙħØ §Ø¦Ø©
ĠØ§ÙĦØ± Ø³ÙĪÙħØ§Øª
ĠØ§ÙĦÙħÙ ĨØ¹
Ø¬Ø§ Ø²Ø§Øª
ĠÙĦÙĩ ÙħØ§
Ùĥ Ø±Ø§Øª
ĠÙĪØªØ ·Ø¨ÙĬÙĤØ§Øª
ªØº ÙĦ
ĠE dit
21 7
Ġh ot
ĠØ§ÙĦØ¢ ÙĦÙĬØ©
ĠØ³ ÙĬØ´
ĠÙĪÙģ ØŃØµ
ĠØ§ÙĦØŃØ§ Ø±Ø«
ĠØ£ Ø¨ÙĦ
ĠØª ÙĨØ¸
ĠÙĦØª ÙĨØ¸ÙĬÙħ
ĠØªØ· ÙĪØ±Ø§Øª
ĠÙĪØªØ¬ ÙĩÙĬØ²
ĠØ¹ ÙħÙĬÙĦ
Ø³Ø§Ø¤ ÙĦØ§Øª
Ø« ÙĦ
ĠOct ober
Ø¹ ÙĪÙħ
ĠÙĪØª ÙĤØ¹
Ø¹Ø§ Ø±Ø¶
ĠÙĦÙħØ ±ÙĥØ²
ĠØ§ÙĦØ³ ÙħÙĨØ©
ĠØ¬Ø °ÙĪØ±
ĠØ§ÙĦÙģØ ªØ§ÙĪÙī
ĠÙĪÙħØ¹ ÙĦÙĪÙħØ§Øª
Ĭ Ø¹Øª
ĠÙħØ®Ø· Ø·Ø§Øª
ºØ ±Ø³
ÙĦÙĩØ§ Ù
ĠØ§ÙĦØ¨Ø±ÙĬ Ø¯ÙĬ
ĠØ£ ØŃØ
ĠØ§ÙĦ Ø¹ÙĬ
ĠØ¨Ø®Ø ·ÙĪØ©
ĠÙĨÙĬ Ø¨Ø§ÙĦ
Ø ±ÙĩØ§
°Ø ±ÙĬ
ĠØ§ÙĦÙħØ¯Ø± Ø³ÙĬ
ÙģØ± Ø¹
ĠApr il
µØ§ Ùģ
Ù ĬØ¹Øª
ĠØ§Ù ħÙĥØ§ÙĨÙĬØ©
ĠØ§ÙĦØ ¶Ø¹Ùģ
ĠØ³ÙĨ ÙĬÙĨ
Ø² ÙĬØª
Ù ħÙĦÙĥØ©
ĠØ§ÙĦØ¹ Ø¨Ø§Ø¯
Ġ12 8
ĠÙħØ³Ø§Ø¨ ÙĤØ§Øª
ĠØ¨ ÙħØ¬ÙħÙĪØ¹Ø©
ĠØ§ÙĦØ¬ÙħØ§ Ø¹ÙĬØ©
Ø®Ø± Ùģ
et er
ĠÙħÙĤ Ø·Ù
ĠØ§ÙĦØ³ ÙĦØ¨ÙĬ
ÙħÙĨØ ¬Ùħ
ĠØ§ÙĦÙĪØ§ Ø¯ÙĬ
ÙĢ Ø©
ĠØ§ÙĦÙħÙĪØ ²Ø¹
ĠÙģØ¶ÙĬ ÙĦØ©
Ġm m
ÙĬØ² Ø³ØªØ§ÙĨ
Ġf irst
ĠÙĦÙĦ Ø¨ÙĬ
ØŃØª ÙĨØ§
ÙĥØ§ Ùĥ
ĠØ§ÙĦÙħØ±Ø§ Ø¬Ø¹Ø©
ĠÙĦØ ²ÙĬØ§Ø±Ø©
ĠØ§ÙĦØ§Øµ ÙĦÙĬØ©
ÙģØ´ ÙĦ
ªÙħ ÙĥÙĬÙĨ
ĠÙĬÙĤØ ªØµØ±
ĠÙħØŃÙ ħ
ĠÙĪØ§ÙĦ Ø¬ÙĪØ¯Ø©
urr ent
Ø¬Ù ĪÙĦØ©
ĠØ¨Ø¯ ÙĪØ±Ùĩ
ĠK ing
ºØ§ Ø¯Ø±
ĠØ®Ø ²
al se
ĠØ§ÙĦØ´Ø¹ Ø±Ø§Ø¡
ĠÙĪØ§ÙĦ Ø£ÙĨ
ÙĪØ ·Ù
·Ø§ ÙĤØ§Øª
ĠT ur
Ġ9 3
sp ower
ur al
ĠÙĦÙĦØªØ£ ÙħÙĬÙĨ
ĠØ§ÙĦØ¬ ÙĪØ²
ĠP ar
ĠØ³ØŃ ÙĤØª
ÙĪØ§Ø ±Ø¯
ĠØ§Ø± ÙħØ§ÙĨÙĬ
ÙģØ§Ø¡ Ø
um p
ĠÙĬØ®Ø ¶Ø¹
ÙĦØ§Ø ºØ©
Ġp ast
ĠÙĬØ±Øª Ø¨Ø·
ªØ¹ ÙĦÙħ
ĠØ§ÙĦÙĦØ §Ø¦
ar abic
ĠØ´Ø§ Ø·Ø¦
ĠØ§ÙĦÙħØ² Ø¹Ø¬Ø©
ĠÙĦØ¯ Ø±Ø§Ø³Ø©
ĠØ§ÙĦØ¨Ø ªØ±ÙĪ
ĠR M
Ø³Ùħ Ùĥ
ĠØµÙħÙħÙ ĩ
ĠØµ Ø§ÙĦØ©
Ø¨ ÙĦØ§
I R
ĠØ¹ ÙħØ§Ø±Ø©
´Ø§ Ø±Øª
Ø§ÙĦÙħÙĤ Ø§ÙĦØ§Øª
ĠÙĪØ§ ØŃØªØ±Ø§Ùħ
²Ø§ Ø¹Ø§Øª
ĠØ§ÙĦØ´ ÙģØ§Ùĩ
ĠÙħØ ´Ø±Ùģ
ĠØ§ Ø²Ø§ÙĦØ©
ĠÙĤØ §Ø¦Ùħ
ĠØµ ÙĬØ§ØºØ©
ĠØ¨Ø§ÙĦÙ ħØ§
ÙĪØ ²Ø§ÙĨ
ĠÙħÙĤ Ø§ÙĦØ©
Ø §Ø®
ĠÙĤÙĪØ§ Ø¦Ùħ
ĠA h
Ġd r
m y
ĠØ§ÙĦØ¯ ÙĬÙĨØ§
ĠØ§ÙĦÙĪ ÙģØ§Ø¡
37 1
ĠØ§ÙĦØ£ ØŃØ°ÙĬØ©
ĠØ§ÙĦØµ Ø¯Ø¯
ĠÙĨØ³Ø¨ ÙĬØ§
Ġthe ir
ªÙĨÙĬØ§ ÙĩÙĪ
ĠÙĪØ¬Ø§Ùĥ ÙĬØªØ§Øª
Ġ* *
ĠH J
Ø¨ÙĪ ÙĩÙĬØ¯Ø±Ø§Øª
ĠC ity
i ec
ĠØ§ÙĦØŃØ ¸Ø±
[...]
