{
  "version": "1.0",
  "truncation": null,
  "padding": null,
  "added_tokens": [
    {
      "id": 0,
      "content": "<|endoftext|>",
      "single_word": false,
      "lstrip": false,
      "rstrip": false,
      "normalized": true,
      "special": true
    }
  ],
  "normalizer": null,
  "pre_tokenizer": {
    "type": "ByteLevel",
    "add_prefix_space": false,
    "trim_offsets": true,
    "use_regex": true
  },
  "post_processor": {
    "type": "ByteLevel",
    "add_prefix_space": true,
    "trim_offsets": false,
    "use_regex": true
  },
  "decoder": {
    "type": "ByteLevel",
    "add_prefix_space": true,
    "trim_offsets": true,
    "use_regex": true
  },
  "model": {
    "type": "BPE",
    "dropout": null,
    "unk_token": null,
    "continuing_subword_prefix": "",
    "end_of_word_suffix": "",
    "fuse_unk": false,
    "byte_fallback": false,
    "ignore_merges": false,
    "vocab": {
      "<|endoftext|>": 0,
      "!": 1,
      "\"": 2,
      "#": 3,
      "$": 4,
      "%": 5,
      "&": 6,
      "'": 7,
      "(": 8,
      ")": 9,
      "*": 10,
      "+": 11,
      ",": 12,
      "-": 13,
      ".": 14,
      "/": 15,
      "0": 16,
      "1": 17,
      "2": 18,
      "3": 19,
      "4": 20,
      "5": 21,
      "6": 22,
      "7": 23,
      "8": 24,
      "9": 25,
      ":": 26,
      ";": 27,
      "<": 28,
      "=": 29,
      ">": 30,
      "?": 31,
      "@": 32,
      "A": 33,
      "B": 34,
      "C": 35,
      "D": 36,
      "E": 37,
      "F": 38,
      "G": 39,
      "H": 40,
      "I": 41,
      "J": 42,
      "K": 43,
      "L": 44,
      "M": 45,
      "N": 46,
      "O": 47,
      "P": 48,
      "Q": 49,
      "R": 50,
      "S": 51,
      "T": 52,
      "U": 53,
      "V": 54,
      "W": 55,
      "X": 56,
      "Y": 57,
      "Z": 58,
      "[": 59,
      "\\": 60,
      "]": 61,
      "^": 62,
      "_": 63,
      "`": 64,
      "a": 65,
      "b": 66,
      "c": 67,
      "d": 68,
      "e": 69,
      "f": 70,
      "g": 71,
      "h": 72,
      "i": 73,
      "j": 74,
      "k": 75,
      "l": 76,
      "m": 77,
      "n": 78,
      "o": 79,
      "p": 80,
      "q": 81,
      "r": 82,
      "s": 83,
      "t": 84,
      "u": 85,
      "v": 86,
      "w": 87,
      "x": 88,
      "y": 89,
      "z": 90,
      "{": 91,
      "|": 92,
      "}": 93,
      "~": 94,
      "¡": 95,
      "¢": 96,
      "£": 97,
      "¤": 98,
      "¥": 99,
      "¦": 100,
      "§": 101,
      "¨": 102,
      "©": 103,
      "ª": 104,
      "«": 105,
      "¬": 106,
      "®": 107,
      "¯": 108,
      "°": 109,
      "±": 110,
      "²": 111,
      "³": 112,
      "´": 113,
      "µ": 114,
      "¶": 115,
      "·": 116,
      "¸": 117,
      "¹": 118,
      "º": 119,
      "»": 120,
      "¼": 121,
      "½": 122,
      "¾": 123,
      "¿": 124,
      "À": 125,
      "Á": 126,
      "Â": 127,
      "Ã": 128,
      "Ä": 129,
      "Å": 130,
      "Æ": 131,
      "Ç": 132,
      "È": 133,
      "É": 134,
      "Ê": 135,
      "Ë": 136,
      "Ì": 137,
      "Í": 138,
      "Î": 139,
      "Ï": 140,
      "Ð": 141,
      "Ñ": 142,
      "Ò": 143,
      "Ó": 144,
      "Ô": 145,
      "Õ": 146,
      "Ö": 147,
      "×": 148,
      "Ø": 149,
      "Ù": 150,
      "Ú": 151,
      "Û": 152,
      "Ü": 153,
      "Ý": 154,
      "Þ": 155,
      "ß": 156,
      "à": 157,
      "á": 158,
      "â": 159,
      "ã": 160,
      "ä": 161,
      "å": 162,
      "æ": 163,
      "ç": 164,
      "è": 165,
      "é": 166,
      "ê": 167,
      "ë": 168,
      "ì": 169,
      "í": 170,
      "î": 171,
      "ï": 172,
      "ð": 173,
      "ñ": 174,
      "ò": 175,
      "ó": 176,
      "ô": 177,
      "õ": 178,
      "ö": 179,
      "÷": 180,
      "ø": 181,
      "ù": 182,
      "ú": 183,
      "û": 184,
      "ü": 185,
      "ý": 186,
      "þ": 187,
      "ÿ": 188,
      "Ā": 189,
      "ā": 190,
      "Ă": 191,
      "ă": 192,
      "Ą": 193,
      "ą": 194,
      "Ć": 195,
      "ć": 196,
      "Ĉ": 197,
      "ĉ": 198,
      "Ċ": 199,
      "ċ": 200,
      "Č": 201,
      "č": 202,
      "Ď": 203,
      "ď": 204,
      "Đ": 205,
      "đ": 206,
      "Ē": 207,
      "ē": 208,
      "Ĕ": 209,
      "ĕ": 210,
      "Ė": 211,
      "ė": 212,
      "Ę": 213,
      "ę": 214,
      "Ě": 215,
      "ě": 216,
      "Ĝ": 217,
      "ĝ": 218,
      "Ğ": 219,
      "ğ": 220,
      "Ġ": 221,
      "ġ": 222,
      "Ģ": 223,
      "ģ": 224,
      "Ĥ": 225,
      "ĥ": 226,
      "Ħ": 227,
      "ħ": 228,
      "Ĩ": 229,
      "ĩ": 230,
      "Ī": 231,
      "ī": 232,
      "Ĭ": 233,
      "ĭ": 234,
      "Į": 235,
      "į": 236,
      "İ": 237,
      "ı": 238,
      "Ĳ": 239,
      "ĳ": 240,
      "Ĵ": 241,
      "ĵ": 242,
      "Ķ": 243,
      "ķ": 244,
      "ĸ": 245,
      "Ĺ": 246,
      "ĺ": 247,
      "Ļ": 248,
      "ļ": 249,
      "Ľ": 250,
      "ľ": 251,
      "Ŀ": 252,
      "ŀ": 253,
      "Ł": 254,
      "ł": 255,
      "Ń": 256,
      "§Ù": 257,
      "Ø§Ù": 258,
      "ÙĬ": 259,
      "Ø§ÙĦ": 260,
      "ĠÙ": 261,
      "ĠØ§ÙĦ": 262,
      "Ø±": 263,
      "Øª": 264,
      "Ùħ": 265,
      "ÙĨ": 266,
      "Ø©": 267,
      "Ø¹": 268,
      "ÙĪ": 269,
      "Ø¨": 270,
      "Ø¯": 271,
      "Ø³": 272,
      "\":": 273,
      "ØŃ": 274,
      "ĠÙħ": 275,
      "Ùĥ": 276,
      "Ø¬": 277,
      "Ø£": 278,
      "Ùĩ": 279,
      ",\"": 280,
      "ÙĤ": 281,
      "ar": 282,
      "ĠÙĪ": 283,
      "\":\"": 284,
      "\",\"": 285,
      "Ùģ": 286,
      "Øµ": 287,
      "Ø·": 288,
      "la": 289,
      "{\"": 290,
      "ro": 291,
      "be": 292,
      "§Øª": 293,
      "Ø§Øª": 294,
      "pro": 295,
      "bel": 296,
      "label": 297,
      "prob": 298,
      "99": 299,
      "},": 300,
      "Ø´": 301,
      "Ø®": 302,
      "ĠØ¨": 303,
      "ĠÙģ": 304,
      "ĠÙĦ": 305,
      "§Ø±": 306,
      "Ø§Ø±": 307,
      "},{\"": 308,
      "ĠØ§ÙĦÙħ": 309,
      "ÙĬØ©": 310,
      "ĠØª": 311,
      "ĠØ¹": 312,
      "§Ø": 313,
      "Ø§Ø": 314,
      "ĠØ£": 315,
      "Ùī": 316,
      "Ø§ÙĨ": 317,
      "ĠÙģÙĬ": 318,
      "ØĮ": 319,
      "Ø¥": 320,
      "Ø²": 321,
      "ÙĬÙĨ": 322,
      "Ø§Ùħ": 323,
      "ĠÙħÙĨ": 324,
      "ĠÙĥ": 325,
      "Ø°": 326,
      "Ø«": 327,
      "Ø¶": 328,
      "ĠÙĬ": 329,
      "ĦÙī": 330,
      "ÙĦÙī": 331,
      "ÙĬØ±": 332,
      "Øº": 333,
      "en": 334,
      "ĠØ§ÙĦØª": 335,
      "ĠØ³": 336,
      "§Ø³": 337,
      "Ø§Ø³": 338,
      "Ø±ÙĬ": 339,
      "ÙĪÙĨ": 340,
      "ÙĪÙ": 341,
      "ÙĪÙĦ": 342,
      "ĠÙĪØ§ÙĦ": 343,
      "ĠØ¥": 344,
      "ĠØŃ": 345,
      "§Ø¨": 346,
      "Ø§Ø¨": 347,
      "ĠØ§ÙĦØ£": 348,
      "20": 349,
      "ÙĪØ±": 350,
      "Ø¯ÙĬ": 351,
      "ĠÙĦÙ": 352,
      "ĠØ§ÙĦØ¹": 353,
      "Ø§Ø¡": 354,
      "ĠÙĦÙĦ": 355,
      "on": 356,
      "ÙĩØ": 357,
      "ÙĩØ§": 358,
      ".\\": 359,
      "ĠØ§ÙĦØŃ": 360,
      "ĦÙĬ": 361,
      "ÙĦÙĬ": 362,
      "ĠØ¹ÙĦÙī": 363,
      "ĠÙĨ": 364,
      "Ø¨ÙĬ": 365,
      "ĠÙĩ": 366,
      "§Ø¹": 367,
      "Ø§Ø¹": 368,
      "§Ø¯": 369,
      "Ø§Ø¯": 370,
      "ĠØ¬": 371,
      "ĠÙĤ": 372,
      "ent": 373,
      "Ø§Ø±Ø©": 374,
      "ul": 375,
      "Ø§Ø¦": 376,
      "Ø´Ø±": 377,
      "ĠØ§ÙĦØ³": 378,
      "war": 379,
      "ĦØ©": 380,
      "ÙĦØ©": 381,
      "§ØŃ": 382,
      "Ø§ØŃ": 383,
      "warc": 384,
      "ull": 385,
      "null": 386,
      "Ùİ": 387,
      "999": 388,
      "Ø¹Ø¯": 389,
      "ĠØ®": 390,
      "Ø§ÙĬ": 391,
      "at": 392,
      "ÙĪÙħ": 393,
      "Ø§Ùģ": 394,
      "er": 395,
      "00": 396,
      "Ø¸": 397,
      "ÙħÙ": 398,
      "Ø³Øª": 399,
      "ÙħÙĦ": 400,
      "ĠØ±": 401,
      "ĠØ§ÙĦÙĥ": 402,
      "ĠØ§ÙĦÙģ": 403,
      "Ø¢": 404,
      "id": 405,
      "§Ø¬": 406,
      "Ø§Ø¬": 407,
      "Ø§ÙĤ": 408,
      "ÙħÙĬ": 409,
      "Ø³Ø§Ø±Ø©": 410,
      "ĠØ·": 411,
      "in": 412,
      "ĠØ¯": 413,
      "âĢ": 414,
      "Ùĭ": 415,
      "ĠØ§ÙĦØ¬": 416,
      "Ø¨Ø±": 417,
      "ĠØµ": 418,
      "Ø¯Ø©": 419,
      "98": 420,
      "ĠØ£ÙĨ": 421,
      "nØ§ÙĦ": 422,
      "Ø¹Ø±": 423,
      "ØŃÙĨ": 424,
      "Ġ1": 425,
      "ĠØ§ÙĦØµ": 426,
      "ØªØ±": 427,
      "Ġ(": 428,
      "ĠØ¨Ø§ÙĦ": 429,
      "Ø¯Ùħ": 430,
      "998": 431,
      "Ø¬Ø±": 432,
      "ĠØ§ÙĦØ±": 433,
      "Ġ20": 434,
      "ĠØ´": 435,
      "ÙĬØ": 436,
      "ĠÙħØŃ": 437,
      "ĠØ§ÙĦÙĨ": 438,
      "Ġ.": 439,
      "ÙħÙĨ": 440,
      "ĠØĮ": 441,
      "ÙĬÙ": 442,
      "ĠØ¹ÙĨ": 443,
      "22": 444,
      "or": 445,
      "con": 446,
      "ÙĪÙĤ": 447,
      "Ùĳ": 448,
      "ÙĬÙĦ": 449,
      "ĠØ§ÙĦÙĤ": 450,
      "Ø±Ø©": 451,
      "ĠØ§ÙĦØ¥": 452,
      "es": 453,
      "ĠÙħØ¹": 454,
      "ĠÙĥØ³Ø§Ø±Ø©": 455,
      "Ø§Ùĥ": 456,
      "ÙħØ": 457,
      ",{\"": 458,
      "97": 459,
      "Ø¹Ø©": 460,
      "ÙĬØ§": 461,
      "Ø§ÙĪ": 462,
      "ĦÙĥ": 463,
      "ÙĦÙĥ": 464,
      "ĠØ§ÙĦØ¨": 465,
      "ĠØ§ÙĦØ®": 466,
      "ĠØ§ÙĦØ¯": 467,
      "ÙħØ§": 468,
      "Ø±Ø¨": 469,
      "ÙĬØ¯": 470,
      "sh": 471,
      "Ø§Ø³Øª": 472,
      "ÙĢ": 473,
      "ÙĤØ©": 474,
      "ÙĨØ": 475,
      "ÙĬÙģ": 476,
      "ÙĨØ§": 477,
      "ØªÙħ": 478,
      "21": 479,
      "ÙĪØ¯": 480,
      "cont": 481,
      "ÙĩÙħ": 482,
      "Ø§Ùĩ": 483,
      "content": 484,
      "ÙĥØ©": 485,
      "ur": 486,
      "ion": 487,
      "§Øµ": 488,
      "Ø§Øµ": 489,
      "ĦÙħ": 490,
      "ÙĦÙħ": 491,
      "ØµÙĨ": 492,
      "84": 493,
      "ic": 494,
      "ĠØ¢": 495,
      "\\\"": 496,
      "ĠØ¥ÙĦÙī": 497,
      "Ùı": 498,
      "Ø±ÙĪ": 499,
      "ĠØ§ÙĦØ´": 500,
      "997": 501,
      "et": 502,
      "30": 503,
      "Ġ-": 504,
      "Ø¦": 505,
      "ÙĨØª": 506,
      "Ø°Ùĩ": 507,
      "Ø§Ø±Ø§Øª": 508,
      "96": 509,
      "31": 510,
      "ad": 511,
      "Ø·ØŃÙĨ": 512,
      "nÙħ": 513,
      "ÙĪØ¨": 514,
      "Ø³ÙĬ": 515,
      "Ø°Ø": 516,
      "Ø°Ø§": 517,
      "25": 518,
      "35": 519,
      "ers": 520,
      "ÙĪÙĬ": 521,
      "ÙħØ©": 522,
      "ÙĥÙĨ": 523,
      "ÙĲ": 524,
      "ĠØ£ÙĪ": 525,
      "85": 526,
      "34": 527,
      "36": 528,
      "ty": 529,
      "ĠØ§ÙĦÙ": 530,
      "ĠØ§ÙĦÙĦ": 531,
      "11": 532,
      "95": 533,
      "if": 534,
      "ĠØº": 535,
      "24": 536,
      "Ø§Ø²": 537,
      "86": 538,
      "87": 539,
      "ØµÙ": 540,
      "ØµÙĦ": 541,
      "Ø¹Ù": 542,
      "Ø¹ÙĦ": 543,
      "Ø¨ÙĬØ¹": 544,
      "re": 545,
      "26": 546,
      "Ø§Ø¶": 547,
      "al": 548,
      "ØªØŃ": 549,
      "27": 550,
      "ident": 551,
      "identif": 552,
      "\":{\"": 553,
      "Ø·ØŃÙĨØ©": 554,
      "94": 555,
      "ĠØ§ÙĦØ·": 556,
      "Ø¨Ø©": 557,
      "ÙĪØ¹": 558,
      "ÙģÙĬ": 559,
      "16": 560,
      "ÙĤÙĬ": 561,
      "ĠÙħØŃØ·": 562,
      "ÙĥÙ": 563,
      "ÙĥÙĦ": 564,
      "ØŃÙħ": 565,
      "14": 566,
      "ĦØ": 567,
      "ÙĦØ": 568,
      "ĠØ§ÙĨ": 569,
      "37": 570,
      "Ø³Ùħ": 571,
      "ØªÙĬ": 572,
      "15": 573,
      "ĠØ§ÙĦØªÙĬ": 574,
      "an": 575,
      "ÙĦØ§": 576,
      "ĠÙħØ": 577,
      "§Ø®": 578,
      "Ø§Ø®": 579,
      "996": 580,
      "ĠâĢ": 581,
      "ÙĨÙĬ": 582,
      "ĠØ´Ø±": 583,
      "ĠØªØŃ": 584,
      "..": 585,
      "17": 586,
      "ØªÙĪ": 587,
      "Ø¯ÙĬØ¯": 588,
      "06": 589,
      "Ø§ÙĨÙĬ": 590,
      "ÙĨØ¯": 591,
      "Ø¬Ùħ": 592,
      "05": 593,
      "ÙħØ±": 594,
      "ĠØ§ÙĦØŃØ¬Ø±": 595,
      "th": 596,
      "§Ø·": 597,
      "Ø§Ø·": 598,
      "04": 599,
      "ÙĬØ³": 600,
      "ĠÙħØ·ØŃÙĨØ©": 601,
      "ed": 602,
      "ÙĪØ¬": 603,
      "ÙĬØ¹": 604,
      "ØµØ±": 605,
      "ation": 606,
      "ĠÙĪØª": 607,
      "Ø±Ùĥ": 608,
      "Ø³Ù": 609,
      "Ø³ÙĦ": 610,
      "07": 611,
      "pe": 612,
      "ĠÙħØŃØ·Ùħ": 613,
      "ÙĬØ±Ø©": 614,
      "ĠØ¨ÙĨ": 615,
      "ĠØ§ÙĦÙĩ": 616,
      "ØµÙĨØ¹": 617,
      "ĠØ°": 618,
      "ate": 619,
      "Ø¯Ø±": 620,
      "ÙĴ": 621,
      "ÙĪÙģ": 622,
      "12": 623,
      "Ø¹Ø¯Ø§Øª": 624,
      "47": 625,
      "ÙĥØ³": 626,
      "ÙĢÙĢ": 627,
      "ĠØªØ¹": 628,
      "Ø®Ø±": 629,
      "ĠÙħØ§": 630,
      "Ø³Ø¨": 631,
      "ĠØ§ÙĦØ«": 632,
      "ÙĬÙħ": 633,
      "ing": 634,
      "ĠØ§ÙĦÙĪ": 635,
      "88": 636,
      "ÙģØ©": 637,
      "nØª": 638,
      "ÙĥØ±": 639,
      "Ø§ÙĦÙħ": 640,
      "Ø¨Ù": 641,
      "Ø¨ÙĦ": 642,
      "tl": 643,
      "urn": 644,
      "ĠØ¹ÙĦÙĬ": 645,
      "ĠØ¢ÙĦØ©": 646,
      "ĠÙĦÙħ": 647,
      "ĠØ§ÙĦØ°": 648,
      "57": 649,
      "ication": 650,
      "ĠÙĪÙħ": 651,
      "type": 652,
      "ĠÙĦÙĦØ¨ÙĬØ¹": 653,
      "uid": 654,
      "Ø²ÙĬ": 655,
      "Ø«Ø±": 656,
      "ÙħØ§ÙĦ": 657,
      "ĠØ§Ø³Øª": 658,
      "Ø®Ø¯Ùħ": 659,
      "\":\"<": 660,
      "identification": 661,
      "uuid": 662,
      "},\"": 663,
      "ØŃØ©": 664,
      "tlsh": 665,
      "Ø¨Ø¯": 666,
      "ĠÙĦØ": 667,
      "ĠÙĦØ§": 668,
      "23": 669,
      "ĠÙħØª": 670,
      "46": 671,
      "Ø¤": 672,
      "ĠØ§ÙĦÙħÙĨ": 673,
      "ØªØ¨": 674,
      "ÙĤØ¯": 675,
      "ÙĪØ³": 676,
      "Ġ|": 677,
      "ĠØ«": 678,
      "ĦØ§Øª": 679,
      "ÙĦØ§Øª": 680,
      "ØŃÙĤ": 681,
      "Ø§Ø±ÙĬ": 682,
      "to": 683,
      "ĠÙĪØ£": 684,
      "83": 685,
      "te": 686,
      "ĦØ§ÙĦ": 687,
      "ÙĦØ§ÙĦ": 688,
      "nØ£": 689,
      "\":[": 690,
      "56": 691,
      "ĠÙĥÙ": 692,
      "ĠÙĥÙĦ": 693,
      "ĠÙĩÙĪ": 694,
      "Ġ..": 695,
      "nÙĥ": 696,
      "ĠØ£Ùĥ": 697,
      "ĦØ¨": 698,
      "ÙĦØ¨": 699,
      "§Ø´": 700,
      "Ø§Ø¯Ø©": 701,
      "Ø§Ø´": 702,
      ">\",\"": 703,
      "BF": 704,
      "ce": 705,
      "10": 706,
      "ĠÙħØ®": 707,
      "ĠØ£ÙĬ": 708,
      "ag": 709,
      "Ø§Ø¹Ø©": 710,
      "ÙĩØ±": 711,
      "ØŃØ¯": 712,
      "Ø§Ø«": 713,
      "Ø§ÙĬØ©": 714,
      "ÙĥÙĪÙĨ": 715,
      "Ø§ÙĦÙĬ": 716,
      "BD": 717,
      "-%": 718,
      "ÙĪØ±Ø©": 719,
      "ht": 720,
      "93": 721,
      "ĠÙĩØ°Ø§": 722,
      "ĦØ³": 723,
      "ÙĦØ³": 724,
      "ĠØ·ØŃÙĨ": 725,
      "he": 726,
      "ÙģØ±": 727,
      "Ø¹Ø¯ÙĬÙĨ": 728,
      "Ø®Øµ": 729,
      "ĠØ§ÙĦÙĬ": 730,
      "13": 731,
      "lo": 732,
      "Ø°ÙĩØ¨": 733,
      "ØªÙĩ": 734,
      "ĠØªÙĤ": 735,
      "ĠP": 736,
      "Ġ:": 737,
      "ĦÙģ": 738,
      "ÙĦÙģ": 739,
      "ĠØ§ÙĦØ£Ø³": 740,
      "Ø·Ø©": 741,
      "ĠÙħÙĪ": 742,
      "44": 743,
      "67": 744,
      "ĠØ§ÙĦÙħÙĪ": 745,
      "ÙģØ¶": 746,
      "18": 747,
      "pp": 748,
      "eng": 749,
      "995": 750,
      "ĠØ§ÙĦÙĦÙĩ": 751,
      "Ø·Ø±": 752,
      "ÙĤÙ": 753,
      "ÙĤÙĦ": 754,
      "ÙĥØ§Øª": 755,
      "ĠM": 756,
      "ÙĨØ©": 757,
      "ÙĪØ": 758,
      "ĠÙĪØ§ÙĦÙħ": 759,
      "ÙħÙĥÙĨ": 760,
      "19": 761,
      "ÙĥÙĬ": 762,
      "sent": 763,
      "ĠØªÙĨ": 764,
      "ĠÙĥØ§ÙĨ": 765,
      "co": 766,
      "28": 767,
      "Ø§ÙĨÙĬØ©": 768,
      "ĠØ§ÙĦÙħØŃ": 769,
      "senten": 770,
      "ĠÙħØ³": 771,
      "ig": 772,
      "ÙĪÙĤØ¹": 773,
      "ÙĥÙħ": 774,
      "Ø§ÙĦÙĬØ©": 775,
      "ÙĪØ§Øª": 776,
      "ĠÙħØ¬": 777,
      "Ø³ØªØ®Ø¯Ùħ": 778,
      "Ø±ÙĬÙĤ": 779,
      "ĠÙħØµÙĨØ¹": 780,
      "03": 781,
      "45": 782,
      "Ø¯Ø¯": 783,
      "ĠS": 784,
      "ĠØ§ÙĦÙģÙĥ": 785,
      "ĠA": 786,
      "ĠØ§ÙĦØº": 787,
      "ĠÙĪÙĩ": 788,
      "tp": 789,
      "ĠØ§ÙĦØ´Ø±": 790,
      "Ø¯ÙĬÙĨ": 791,
      "ĠØ²": 792,
      "Ġ...\\": 793,
      "ĠÙĩØ°Ùĩ": 794,
      "Ġ\\\"": 795,
      "ĠØ¨ÙĬÙĨ": 796,
      "ĠØ§ÙĦÙħØª": 797,
      "ÙĪØª": 798,
      "2022": 799,
      "ĠC": 800,
      "ÙĪÙĦØ©": 801,
      "Ø¹Ø§Ø±": 802,
      "ĠØ§ÙĦØ³Ø¹Ø±": 803,
      "Ø§ÙģØ©": 804,
      "Ø§ÙĦØ©": 805,
      "EF": 806,
      "ĠØ§ÙĦØ°ÙĩØ¨": 807,
      "Ø¨Ø§Ø±": 808,
      "ĠØ³ÙĬ": 809,
      "qu": 810,
      "Ø¹Ùħ": 811,
      "ØŁ": 812,
      "ĠØ¹ÙħÙĦ": 813,
      "ÙĪØ§": 814,
      "ĠÙĩÙĬ": 815,
      "ĠØ¨Ø±": 816,
      "ĠØ¶": 817,
      "Ø§ÙħØ©": 818,
      "Ø£ÙĨ": 819,
      "ĠÙħØ±": 820,
      "ÙĤØ±": 821,
      "76": 822,
      "ÙĪØ§ÙĨ": 823,
      "ÙĥØª": 824,
      "head": 825,
      "33": 826,
      "55": 827,
      "ck": 828,
      "ÙģØ³": 829,
      "ĠØ®Ø§Ùħ": 830,
      "ĠØŃÙĬ": 831,
      "08": 832,
      "ÙħÙĬØ¹": 833,
      "ÙĨØ³": 834,
      "get": 835,
      "est": 836,
      "29": 837,
      "is": 838,
      "Ø¬Ø©": 839,
      "ĠÙĪÙĬ": 840,
      "ĠØ§ÙĦÙĥØ±Ø©": 841,
      "Ø¨ØŃ": 842,
      "ĠÙĬÙħÙĥÙĨ": 843,
      "ÙĨÙĬØ©": 844,
      "ĠØ£Ø³": 845,
      "ĠØ§Ø³": 846,
      "ĠÙĦØª": 847,
      "Ġp": 848,
      "ies": 849,
      "Ø´Ø§Ø±": 850,
      "ĠØ¨Ø¹Ø¯": 851,
      "//": 852,
      "ÙĪÙĥ": 853,
      "ng": 854,
      "age": 855,
      "ÙĪÙĨÙĬ": 856,
      "ĠÂ": 857,
      "Ø¦ÙĬØ³": 858,
      "Ġs": 859,
      "ÙħÙĪ": 860,
      "09": 861,
      "ĠØ§ÙĦØ°ÙĬ": 862,
      "ĠØ§ÙĦØ¢": 863,
      "ĠØ®ÙĦØ§ÙĦ": 864,
      "ĠÙħØ¹Ø¯Ø§Øª": 865,
      "Ø±Ø¨ÙĬØ©": 866,
      "ĠØ§ÙĦÙħØ±": 867,
      "ara": 868,
      "Ġ5": 869,
      "http": 870,
      "ØµÙĪÙĦ": 871,
      "Ø·Ù": 872,
      "Ø·ÙĦ": 873,
      "ĠØ¥ÙĨ": 874,
      "://": 875,
      "Ø®Ø¯": 876,
      "Ø«ÙĬØ±": 877,
      "Ġm": 878,
      "ØŃÙĬ": 879,
      "75": 880,
      "ÙħÙĨØª": 881,
      "Ø§ÙĪÙ": 882,
      "Ø§ÙĪÙĦ": 883,
      "Ø¬Ùĩ": 884,
      "ity": 885,
      "43": 886,
      "66": 887,
      "har": 888,
      "ÙħØ¯": 889,
      "ord": 890,
      "ĠØ§ÙĦØ¹ÙħÙĦ": 891,
      "ĠØ°ÙĦÙĥ": 892,
      "ÙħÙĬÙ": 893,
      "ÙħÙĬÙĦ": 894,
      "Ø¥ÙĨ": 895,
      "xt": 896,
      "ĠØ´Ø±ÙĥØ©": 897,
      "Ġ3": 898,
      "ÙĬÙĥ": 899,
      "ÙģØ¶Ù": 900,
      "ÙģØ¶ÙĦ": 901,
      "ĠØ§ÙĦØ²": 902,
      "Ø¹Ø¶": 903,
      "ÙĬØ¨": 904,
      "ĠØ§ÙĦØ§ÙĨ": 905,
      "ĠÙħØ³Øª": 906,
      "ÙĬØª": 907,
      "Ġ2022": 908,
      "ĠØ³ØŃÙĤ": 909,
      "tar": 910,
      "Ø®Ø¯Ø§Ùħ": 911,
      "ĠØ§ÙĦØ³ÙĬ": 912,
      "le": 913,
      "blo": 914,
      "Ø±Ø¶": 915,
      "ĠØªØµ": 916,
      "ata": 917,
      "pla": 918,
      "ÙĪØ¹Ø©": 919,
      "ateg": 920,
      "vers": 921,
      "ategor": 922,
      "https": 923,
      "ØªØµ": 924,
      "74": 925,
      "Ø§ÙħÙ": 926,
      "Ø§ÙħÙĦ": 927,
      "ÙĩØ¯": 928,
      "Ø«Ù": 929,
      "Ø«ÙĦ": 930,
      "ØªØ¯": 931,
      "Ø²Ø©": 932,
      "rec": 933,
      "ĠÙħØµØ±": 934,
      "}}": 935,
      "01": 936,
      "nÙĪ": 937,
      "ĠØªÙħ": 938,
      "Ġ4": 939,
      "AA": 940,
      "categor": 941,
      "ÙĪÙĨØ©": 942,
      "ings": 943,
      "ĠÙħÙĤ": 944,
      "Ø±Ø¯": 945,
      "Ø§Ø°": 946,
      "met": 947,
      "ĠØ³Ø¹Ø±": 948,
      "ref": 949,
      "sha": 950,
      "ÙĪÙĬØ©": 951,
      "ied": 952,
      "ĦØ§Ùħ": 953,
      "ÙĦØ§Ùħ": 954,
      "Ø±ÙĤ": 955,
      "ÙĪØ¯ÙĬØ©": 956,
      "text": 957,
      "ength": 958,
      "uri": 959,
      "harm": 960,
      "Ø§ÙĨØ©": 961,
      "date": 962,
      "dig": 963,
      "lang": 964,
      "ality": 965,
      "ĠØ§ÙĦØµÙĬÙĨ": 966,
      "ĠØ¨Ø¯": 967,
      "ĠØ£Ùħ": 968,
      "ac": 969,
      "Ø³Ø©": 970,
      "length": 971,
      "Ø°ÙĦÙĥ": 972,
      "ful": 973,
      "uage": 974,
      "block": 975,
      "ØªÙ": 976,
      "ØªÙĦ": 977,
      "ĠÙĪÙĤ": 978,
      "Ø³Ø§Ø±Ø§Øª": 979,
      "quality": 980,
      "version": 981,
      "ĠØ£ÙĥØ«Ø±": 982,
      "Ø§Ø¦ÙĬ": 983,
      "language": 984,
      "target": 985,
      "ĠÙĬØ¹": 986,
      "record": 987,
      "ĠT": 988,
      "categories": 989,
      "plain": 990,
      "ÙĪØ±ÙĬ": 991,
      "warn": 992,
      "adata": 993,
      "headers": 994,
      "conversion": 995,
      "refers": 996,
      "digest": 997,
      "sentence": 998,
      "harmful": 999,
      "]}}": 1000,
      "metadata": 1001,
      "warnings": 1002,
      "identifications": 1003,
      "\"},\"": 1004,
      "identified": 1005,
      "Ø¬Ù": 1006,
      "Ø¬ÙĦ": 1007,
      "Ø¹Ø¨": 1008,
      "ĠØ§Ø¨": 1009,
      "Ø§Ø¦ÙĬØ©": 1010,
      "ĠØ§ÙĦÙĩÙĨØ¯": 1011,
      "ĠÙģÙī": 1012,
      "com": 1013,
      "ĠØªØ±": 1014,
      "994": 1015,
      "ĠØ§ÙĦØ¹Ø§ÙĦÙħ": 1016,
      "ĠÙĪØ¨": 1017,
      "ĠÙĪØ³": 1018,
      "ĠØµÙĨ": 1019,
      "\":[{\"": 1020,
      "ww": 1021,
      "ĠØ§ÙĦØ£Ùħ": 1022,
      "Ø±ÙĪØ·": 1023,
      "ØŃØ±": 1024,
      "âĢĿ": 1025,
      "ĠØ§ÙĦÙħØ¹": 1026,
      "ĠÙĪÙ": 1027,
      "ĠÙĪÙĦ": 1028,
      "65": 1029,
      "ĠÙĦÙĦÙħ": 1030,
      "ÙĳÙİ": 1031,
      "ĠØ§ÙĦÙħØ³": 1032,
      "ĠØ§ÙĦØªØ¹Ø¯ÙĬÙĨ": 1033,
      "as": 1034,
      "77": 1035,
      "Ø¨Ø§Øª": 1036,
      "ĠØ§ÙĦØ³Ø¹": 1037,
      "Ø±ÙĬØ§Ø¶": 1038,
      "}]}}": 1039,
      "Ġ/": 1040,
      "Ġ.\\": 1041,
      "Ø¬Ø§Ø±": 1042,
      "ĠØ§ÙĦÙĬÙĪÙħ": 1043,
      "ĠÙĪÙĥ": 1044,
      "ĠÙĪØ§ÙĦØª": 1045,
      "Ø£Ø³": 1046,
      "oo": 1047,
      "ĠÙħØµ": 1048,
      "ÙĪØ¯Ø©": 1049,
      "ĠÙĤØ¯": 1050,
      "ĠØ¨Ø´": 1051,
      "it": 1052,
      "02": 1053,
      "ĠØ¨Ùħ": 1054,
      "ĠØŃÙĬØ«": 1055,
      "81": 1056,
      "ĠØ¹Ø§Ùħ": 1057,
      "ĠØ¨Ù": 1058,
      "ĠØ¨ÙĦ": 1059,
      "ĠØ¹Ø¯Ø¯": 1060,
      "ÙĦÙĬÙħ": 1061,
      "ÙĪØ²": 1062,
      "89": 1063,
      "Ġ2": 1064,
      "ÙģØ¹": 1065,
      "Ø®Ù": 1066,
      "Ø®ÙĦ": 1067,
      "Ø¨Ø": 1068,
      "ĠØªØ³": 1069,
      "ĠØ§ØŃ": 1070,
      "64": 1071,
      "ou": 1072,
      "Ø¨Ø§": 1073,
      "ÙĪÙħØ§Øª": 1074,
      "ĠØ§ÙĦØªØ¹": 1075,
      "ĠØ§ÙĦØ§Ø³": 1076,
      "Ø¸ÙĬÙģ": 1077,
      "ÙĪÙī": 1078,
      "ĠØŃØ¬Ø±": 1079,
      "§Ø©": 1080,
      "Ø§Ø©": 1081,
      "--": 1082,
      "Ø§Ø¨Ø©": 1083,
      "ĠÙħØ´": 1084,
      "ØªÙī": 1085,
      "ØµØ©": 1086,
      "Ø²ÙĬØ¯": 1087,
      "ĠÙħÙĥ": 1088,
      "ÙĤØ·": 1089,
      "Ø§ÙħØ¬": 1090,
      "ØªÙĩØ§": 1091,
      "ĠØ§ÙĦÙħØ³Øª": 1092,
      "Ø§ÙĦØ§Øª": 1093,
      "ÙĨÙĤ": 1094,
      "ĠØªØ¯": 1095,
      "ÙĪØ©": 1096,
      "Ø±ÙĬØ¯": 1097,
      "ÙĪÙĦÙĬ": 1098,
      "Ġth": 1099,
      "Ø§ÙĨØ§Øª": 1100,
      "ĦÙĬØ©": 1101,
      "ÙĦÙĬØ©": 1102,
      "ĠØªØ´": 1103,
      "ĠØ§ÙĦØ§Ø³Øª": 1104,
      "ØµÙģ": 1105,
      "ØºÙĬØ±": 1106,
      "ÙĥÙĬØ©": 1107,
      "il": 1108,
      "nÙĥØ³Ø§Ø±Ø©": 1109,
      "am": 1110,
      "ĠØ§ÙĪ": 1111,
      "63": 1112,
      "ĠØ§Ø®": 1113,
      "ĠÙĬÙĨ": 1114,
      "ÙĬØ§Øª": 1115,
      "ĠØ¨ÙĬ": 1116,
      "ĠÙĬÙĤ": 1117,
      "Ø·Ø¨ÙĬ": 1118,
      "ĠØ¨Øª": 1119,
      "ĠØ¯ÙĬ": 1120,
      "Ø¯ÙĬØ¯Ø©": 1121,
      "Ġf": 1122,
      "Ø§ÙĤØ©": 1123,
      "0000": 1124,
      "Ø³Ø§Ø¨": 1125,
      "ĠÙħØ¯": 1126,
      "\"]": 1127,
      "\":[\"": 1128,
      "\"],\"": 1129,
      "ĠØ¹Ø¨Ø¯": 1130,
      "ĠØªØ£": 1131,
      "AD": 1132,
      "ĠØ£Ø¨": 1133,
      "ab": 1134,
      "ĠÙĬØª": 1135,
      "ĠÙĦÙĩ": 1136,
      "ĠÙħØ®Ø±ÙĪØ·": 1137,
      "Ø¬Ø§Øª": 1138,
      "ĠØ§ÙĦÙħÙĨØª": 1139,
      "§Ø¯ÙĬ": 1140,
      "Ø§Ø¯ÙĬ": 1141,
      "ĠØ®Ø·": 1142,
      "Ġc": 1143,
      "ĠØºÙĬØ±": 1144,
      "ĠØ§ÙĦÙħÙĤ": 1145,
      "ÙĪØ§Ø±": 1146,
      "ÙĨØ§Ø¡": 1147,
      "Ġ,": 1148,
      "Ø¹ÙħÙĦ": 1149,
      "ĠÙĥÙħØ§": 1150,
      "Ø±Ø³": 1151,
      "Ø§ØµØ©": 1152,
      "ĠØ§ÙĦØŃØ¯ÙĬØ¯": 1153,
      "ice": 1154,
      "82": 1155,
      "ĠâĢľ": 1156,
      "ter": 1157,
      "ØºÙĬØ±Ø©": 1158,
      "ÙĪØ§Ø¹": 1159,
      "nØ§ÙĦÙħ": 1160,
      "Ø¬Ø¨": 1161,
      "ĠØ§ÙĦØ¨ÙĬ": 1162,
      "ĠØ¬ÙħÙĬØ¹": 1163,
      "ĠØ§ÙĦØ¹Ø±Ø¨ÙĬØ©": 1164,
      "Ġd": 1165,
      "AF": 1166,
      "ĠØ§ÙĦÙħØªØŃ": 1167,
      "Ø´Ø©": 1168,
      "Ø¨ÙĬØ©": 1169,
      "ï»": 1170,
      "ĠÙĦÙĬ": 1171,
      "ĠØ§ÙĦÙģØŃÙħ": 1172,
      "Ġ6": 1173,
      "ÙĤØ§Øª": 1174,
      "Ø§ØŃÙĪÙĨØ©": 1175,
      "ÙĦÙĬÙ": 1176,
      "ÙĦÙĬÙĦ": 1177,
      "Ø¶Ø¹": 1178,
      "ÙĨØªØ§Ø¬": 1179,
      "ĠÙĤØ¨ÙĦ": 1180,
      "39": 1181,
      "Ø¸Ø§Ùħ": 1182,
      "ÙĩÙ": 1183,
      "ÙĩÙĦ": 1184,
      "ort": 1185,
      "ĠâĢĵ": 1186,
      "ĠB": 1187,
      "38": 1188,
      "ĠÙĥØ¨": 1189,
      "ÙħÙĬÙħ": 1190,
      "ĠØ¬ÙĨ": 1191,
      "ØªØ²": 1192,
      "ĠÙĪØ§ØŃ": 1193,
      "Ø§Øº": 1194,
      "ØªÙĥ": 1195,
      "Ø¹Ø±Ùģ": 1196,
      "Ġ...": 1197,
      "Ø·Ø¨": 1198,
      "54": 1199,
      "Ø§Ø¦Ù": 1200,
      "Ø§Ø¦ÙĦ": 1201,
      "ĠG": 1202,
      "ĠÙĬØªÙħ": 1203,
      "Ø¯ÙĬØ«": 1204,
      "ĠÙĪØ¬": 1205,
      "ĠØ§ÙĬ": 1206,
      "ĠÙĪØŃ": 1207,
      "ï¿": 1208,
      "ï¿½": 1209,
      ")\\": 1210,
      "ĠÙħÙ": 1211,
      "ĠÙħÙĦ": 1212,
      "nØ§ØŃ": 1213,
      "st": 1214,
      "ÙĤÙħ": 1215,
      "Ø§Ø³Ø©": 1216,
      "ĠÙħÙĪÙĤØ¹": 1217,
      "ĠÙĪØ¹": 1218,
      "ØªÙģ": 1219,
      "ĠØ¹Ùħ": 1220,
      "Ġ2021": 1221,
      "AC": 1222,
      "Ġo": 1223,
      "ĠØ§ÙĦÙħØ¬": 1224,
      "ĠØªØ¬": 1225,
      "ĦÙĤØ©": 1226,
      "ÙĦÙĤØ©": 1227,
      "ĠØ§Ø¹": 1228,
      "ĠÙĬÙĪÙħ": 1229,
      "ÙĥØ³ÙĬØ±": 1230,
      "ĠÙĥØ³Ø§Ø±Ø§Øª": 1231,
      "ĠØ·ÙĨ": 1232,
      "ĠØ§ÙĦÙħØŃÙħ": 1233,
      "ĠÙĪØ§ÙĦØ£": 1234,
      "Ø§Ø±ÙĬØ®": 1235,
      "ĠØ§ÙĦÙħØ®": 1236,
      "ÙĬØ±ÙĬ": 1237,
      "ØªØ§Ø¨": 1238,
      "ÙĪØ·": 1239,
      "ĠØ§ÙĦÙĤØ±": 1240,
      "ĠØ¹ÙĦÙĬÙĩ": 1241,
      "ĠÙħØŃÙħØ¯": 1242,
      "Ø®ÙĪØ±": 1243,
      "Ø¯ÙħØ©": 1244,
      "Ø§ØŃØ©": 1245,
      "ĠØ¨Ùĩ": 1246,
      "Ø²Ù": 1247,
      "Ø²ÙĦ": 1248,
      "ÙĬØ²": 1249,
      "ĠÙĬØŃ": 1250,
      "ĠH": 1251,
      "ĠØ¹Ù": 1252,
      "ĠØ¹ÙĦ": 1253,
      "ore": 1254,
      "Ø³Ø±": 1255,
      "Ø¯ÙĬÙĨØ©": 1256,
      "ĠF": 1257,
      "ces": 1258,
      "ĠØ§ÙĦØ³Ø¹ÙĪØ¯ÙĬØ©": 1259,
      "ĠD": 1260,
      "ĠL": 1261,
      "80": 1262,
      "Ø±Ø¨ÙĬ": 1263,
      "and": 1264,
      "ĠØªØ±Ùĥ": 1265,
      "ĠØ§ÙĦØ¨Ø±": 1266,
      "ÙĢÙĢÙĢÙĢ": 1267,
      "Ø¡": 1268,
      "Ø´Ùģ": 1269,
      "ÙĬØ¬": 1270,
      "Ø±Ùģ": 1271,
      ":\\": 1272,
      "ĠØ§Ø±": 1273,
      "Ġw": 1274,
      "ĠØ¨Ø¹Ø¶": 1275,
      "Ø§Ø¦Ø±": 1276,
      "ĠØŃØªÙī": 1277,
      "rice": 1278,
      "ĠØ£ÙģØ¶ÙĦ": 1279,
      "ĠØ£Ùģ": 1280,
      "ØªØ¹": 1281,
      "ĠÙĪÙĨ": 1282,
      "ĠØ§Ùħ": 1283,
      "ĠØ§ÙĦÙī": 1284,
      "Ø±ÙĬÙħ": 1285,
      "Ø¯Ùī": 1286,
      "ĠØ§ÙĦÙħØªØŃØ¯Ø©": 1287,
      "ĠÙģØ±": 1288,
      "ĠØ¹ÙĨØ¯": 1289,
      "Ø§ØµÙ": 1290,
      "Ø§ØµÙĦ": 1291,
      "AE": 1292,
      "ĠØ§Øª": 1293,
      "ĠØ³Ø¨": 1294,
      "53": 1295,
      "ow": 1296,
      "ĦÙĩ": 1297,
      "ÙĦÙĩ": 1298,
      "ĠØ¨Ø´ÙĥÙĦ": 1299,
      "Ø§Ø¡Ø©": 1300,
      "ĠI": 1301,
      "ĠÙĪÙħÙĨ": 1302,
      "41": 1303,
      "Ø¹Ø±Ø¶": 1304,
      "nØ§ØŃØµÙĦ": 1305,
      "Ø§ÙħØ¹Ø©": 1306,
      "ÙĬÙĨØ©": 1307,
      "Ø´Ø±ÙĪØ¹": 1308,
      "9997": 1309,
      "ÙģØ§Øª": 1310,
      "ĠÙĦÙĥ": 1311,
      "ĠØ¨Ø£": 1312,
      "ĠØ¯Ø±": 1313,
      "ĠÙĥÙĬÙģ": 1314,
      "Ø¬ÙħÙĪØ¹Ø©": 1315,
      "ĠØ§ÙĦØ§Øª": 1316,
      "ĠØ¹ÙħÙĦÙĬØ©": 1317,
      "91": 1318,
      "ĠØ£ÙĬØ¶": 1319,
      "ĠØ³ÙĨ": 1320,
      "ĠØ¹Ø¨Ø±": 1321,
      "ĠØŃÙĪÙĦ": 1322,
      "ch": 1323,
      "ĠØ¨ØŃ": 1324,
      "ØªØ±ÙĨØª": 1325,
      "ĠØ¨Ø§ÙĦÙħ": 1326,
      "Ø§ØŃÙĨ": 1327,
      "ĠØ§ÙĦØ¹Ù": 1328,
      "ĠØ§ÙĦØ¹ÙĦ": 1329,
      "Ø®Ø±Ùī": 1330,
      "ĠÙĤØ·": 1331,
      "Ø§ÙĬØ±": 1332,
      "nØ¥": 1333,
      "Ø±ÙĬÙĤØ©": 1334,
      "Ø§ÙĬØ§Øª": 1335,
      "ĠØ§Ùģ": 1336,
      "ÙĪÙĬØ±": 1337,
      "ØªØ§Ø¬": 1338,
      "ĠE": 1339,
      "nØ¨": 1340,
      "Ø®Ø·": 1341,
      "Ø§Ø¹ÙĬ": 1342,
      "ĠÙħØ«ÙĦ": 1343,
      "ĠR": 1344,
      "Ø§Ø¹Ø¯": 1345,
      "ĠÙĦØ£": 1346,
      "ÙĪØ±Ø¯": 1347,
      "ĠØ¨ÙĬØ¹": 1348,
      "ĠÙĪÙĦØ§": 1349,
      "Ø³Ø·": 1350,
      "ĠÙĪØ¥": 1351,
      "ÛĮ": 1352,
      "Ø´ÙĬ": 1353,
      "ct": 1354,
      "90": 1355,
      "ĠØ¥Ø°Ø§": 1356,
      "ÙĨÙĤÙĦØ©": 1357,
      "Ø¹ÙħØ§ÙĦ": 1358,
      "li": 1359,
      "Ø§Ø¹ÙĬØ©": 1360,
      "ĠØ§ÙĦØ¶": 1361,
      "ØĽ": 1362,
      "ÙĪØ¶": 1363,
      "Ø·Ùģ": 1364,
      "ĠØªØª": 1365,
      "ÙĤÙĬÙĤ": 1366,
      "ĠW": 1367,
      "Ġin": 1368,
      "9996": 1369,
      "Ø¯ÙĬÙħ": 1370,
      "ĠØ¬Ø¯": 1371,
      "ÙħØ§Ø±": 1372,
      "ØµÙĨÙĬØ¹": 1373,
      "ĠÙĪÙģ": 1374,
      "ĠØ§ÙĦØµØ®ÙĪØ±": 1375,
      "ÙħÙĬØ©": 1376,
      "us": 1377,
      "Ġb": 1378,
      "ĠØ§ÙĦØªÙĨ": 1379,
      "Ġthe": 1380,
      "Ġ10": 1381,
      "Ø±Ø¬": 1382,
      "32": 1383,
      "ØºØ©": 1384,
      "ĠØ§ÙĦÙħØµ": 1385,
      "Ø´Ø±ÙĥØ©": 1386,
      "Ø¹ÙĬ": 1387,
      "Ø¬Ø²": 1388,
      "Â»": 1389,
      "ÙĨØ§ÙħØ¬": 1390,
      "ØªÙĤ": 1391,
      "ĠØ§ÙĦØªØŃ": 1392,
      "un": 1393,
      "ÙĪØ±ÙĬØ©": 1394,
      "ĠÙħØ¤": 1395,
      "ĠØ·Ø§ØŃÙĪÙĨØ©": 1396,
      "Ø§ÙĨØ¹": 1397,
      "Ø·Ø¨ÙĬÙĤ": 1398,
      "Ø¸Ø±": 1399,
      "ĠØ¹Ø§ÙĦÙĬØ©": 1400,
      "Ø§Ø³ÙĬ": 1401,
      "DB": 1402,
      "ĠØ§Ø³ØªØ®Ø¯Ø§Ùħ": 1403,
      "Ø¦Ø©": 1404,
      "nÙĨ": 1405,
      "el": 1406,
      "ĠØ§ÙĦØ¥ÙĨ": 1407,
      "Ø§ÙĨÙĬØ§": 1408,
      "Ø§Ø³ÙĬØ©": 1409,
      "9995": 1410,
      "78": 1411,
      "ØµØ¯": 1412,
      "ĠÙħØ§Ùĥ": 1413,
      "ĠÙĪØ²": 1414,
      "ĠÙĬÙĥÙĪÙĨ": 1415,
      "Ø³ÙĦØ§Ùħ": 1416,
      "Ø´Ø±Ø©": 1417,
      "ĠÙħØ·": 1418,
      "ÙĪØµ": 1419,
      "Ùį": 1420,
      "ÙĨØ§Ùĥ": 1421,
      "ĠØ£ØŃØ¯": 1422,
      "ĠÙĨÙĤ": 1423,
      "Ø±ÙĬÙĤÙĬØ§": 1424,
      "ÙħÙĬØ²": 1425,
      "ĦÙĤ": 1426,
      "ÙĦÙĤ": 1427,
      "ÙĦÙĥØªØ±": 1428,
      "ĠØ§Ùĥ": 1429,
      "Ø®Ø¨Ø§Ø±": 1430,
      "nØ³": 1431,
      "Ø¨ÙĨ": 1432,
      "ĠÙĪØ±": 1433,
      "fa": 1434,
      "âĢı": 1435,
      "ĠØ¬ÙĨÙĪØ¨": 1436,
      "short": 1437,
      "92": 1438,
      "ĠÙĤØ±": 1439,
      "FD": 1440,
      "ïº": 1441,
      "Ø§ÙĤØ¹": 1442,
      "ĠØ¨Ùĥ": 1443,
      "48": 1444,
      "ĠØ¨ÙĪ": 1445,
      "sentences": 1446,
      "ĠØ³Øª": 1447,
      "ĠØ§ÙĦØ¯ÙĪÙĦ": 1448,
      "ĠØ§ÙĦÙħØº": 1449,
      "ĠÙħÙĨØª": 1450,
      "ĠØ§ÙĦØ¹Ø§Ùħ": 1451,
      "BE": 1452,
      "ØªØ¨Ø±": 1453,
      "Ø§Ø¹Ø§Øª": 1454,
      "68": 1455,
      "Ġ7": 1456,
      "ĠØ§ÙĦÙħØ´": 1457,
      "ÙĬØ¦": 1458,
      "ĠÙĤØ§ÙĦ": 1459,
      "ØŃÙħØ¯": 1460,
      "ĠÙĪÙĩÙĪ": 1461,
      "ĠØ±Ø¦ÙĬØ³": 1462,
      "ĠØ£ÙĨÙĩ": 1463,
      "ĠØ§ÙĦØ¬Ø²": 1464,
      "ĠÙĦÙĦØª": 1465,
      "42": 1466,
      "nÙĬ": 1467,
      "ÙģÙ": 1468,
      "ÙģÙĦ": 1469,
      "Ø§Ø¬ØªÙħ": 1470,
      "Ø§Ø¦ÙħØ©": 1471,
      "ÙħØ³": 1472,
      "Ġa": 1473,
      "ÙħØ§ÙĨ": 1474,
      "ĠÂ«": 1475,
      "ÙħØ¹": 1476,
      "ÙħÙĦÙĥØ©": 1477,
      "ĠØ£Ø¯": 1478,
      "ĠØ²ÙĬ": 1479,
      "nÙħÙĨ": 1480,
      "Ø§Ø±Ø³": 1481,
      "ÙĪØ§ÙĦ": 1482,
      "ve": 1483,
      "Ġ2020": 1484,
      "ØºØ·": 1485,
      "ØŃÙĪÙĤ": 1486,
      "ĠØªÙģ": 1487,
      "ĠØ¨ÙĩØ§": 1488,
      "/%": 1489,
      "ĠØ§ÙĦÙħØ¯": 1490,
      "Ø§Ø¨Ø¹": 1491,
      "nØŃ": 1492,
      "49": 1493,
      "ÙĬÙĨÙĬ": 1494,
      "Ø¶Ø±": 1495,
      "ÙĦØ³ÙĦØ©": 1496,
      "Ø§Ø¬Ùĩ": 1497,
      "ØŁ\\": 1498,
      "ÙĦÙĥÙĨ": 1499,
      "ĠØ«Ùħ": 1500,
      "Ø¯ÙħØ§Øª": 1501,
      "ÙĪØ§Ø¡": 1502,
      "ĠØ§ÙĦØ£ÙĪÙĦ": 1503,
      "ĠØ§ÙĦØµÙĨ": 1504,
      "ĠØ§ÙĦØ±ÙĬØ§Ø¶": 1505,
      "Ùł": 1506,
      "Ø§ÙĬØ": 1507,
      "Ø§ÙĬØ§": 1508,
      "Ø¬Ø§Ø±Ø©": 1509,
      "ĠØ´Ø±ÙĥØ§Øª": 1510,
      "ĠÙģØ¥ÙĨ": 1511,
      "ĠØªØ¹Ø¯ÙĬÙĨ": 1512,
      "Ø§Ø¯Ø±": 1513,
      "ĠØ§ÙĦÙħØ²ÙĬØ¯": 1514,
      "ĠØ±Ø³": 1515,
      "www": 1516,
      "ÙĪØŃ": 1517,
      "Ø§Ø±Ø¬": 1518,
      "Ø·ÙĤØ©": 1519,
      "Ø¹ÙĨ": 1520,
      "ĠØ¨Ø·": 1521,
      "ĠØªØ³ØªØ®Ø¯Ùħ": 1522,
      "Ø±ÙĥØ²": 1523,
      "ØºØ±": 1524,
      "Ø¶Ø§ÙģØ©": 1525,
      "Ø¯ÙĬÙĪ": 1526,
      "ÙĬØ§Ø±": 1527,
      "Ø¶Ù": 1528,
      "Ø¶ÙĦ": 1529,
      "ED": 1530,
      "Ġ[": 1531,
      "nÙģ": 1532,
      "Ø¨Ùĩ": 1533,
      "Ø¬Ø¯": 1534,
      "ĠÙĨÙĪØ¹": 1535,
      "Ġh": 1536,
      "Ø§ÙĦØŃ": 1537,
      "ÙħØª": 1538,
      "Ġ100": 1539,
      "ĠØ§ÙĦÙģØ±": 1540,
      "ÙĥÙĦÙģØ©": 1541,
      "Ø§ÙĨÙĪÙĨ": 1542,
      "ÙĥØ": 1543,
      "ÙĥØ§": 1544,
      "Ø³ÙĨ": 1545,
      "ru": 1546,
      "ÙĩØ±Ø¨": 1547,
      "50": 1548,
      "ĠØ¸": 1549,
      "ĠØ³ÙĦØ³ÙĦØ©": 1550,
      "987": 1551,
      "Ø¯Ø«": 1552,
      "Ġof": 1553,
      "ĠØ°Ø§Øª": 1554,
      "Ø§ÙĨØ": 1555,
      "Ø§ÙĨØ§": 1556,
      "hat": 1557,
      "ĠÙĥØ§ÙĨØª": 1558,
      "ĠÙĦÙĦØ£": 1559,
      "58": 1560,
      "ĠØ§ÙĤ": 1561,
      "ĠØ§ÙĦØ¨Ù": 1562,
      "ĠØ§ÙĦØ¨ÙĦ": 1563,
      "ĠØ§ÙĦØ¬ÙĬØ±ÙĬ": 1564,
      "ĠØªÙĥØ³ÙĬØ±": 1565,
      "ĠØ§ÙĦÙħØ¤": 1566,
      "ĠØ§ÙĦÙħØµÙĨ": 1567,
      "ĠØ¯ÙĪÙĦ": 1568,
      "nÙ": 1569,
      "ia": 1570,
      "ĠØ§ÙĦØ¢ÙĨ": 1571,
      "ĠÙĪÙĦÙĥÙĨ": 1572,
      "im": 1573,
      "âĢĤ": 1574,
      "Ø®Ø§Ùħ": 1575,
      "nÙĦ": 1576,
      "Ø¨ØŃØ«": 1577,
      "ĠØªØŃÙħÙĬÙĦ": 1578,
      "ĠØ§ÙĦØ±ÙħÙĦ": 1579,
      "ĠØ§ÙĦØªØ¯": 1580,
      "ÙĥØ§ÙĨ": 1581,
      "nÙĤ": 1582,
      "ĠØ§ÙĦÙħØ³ØªØ®Ø¯Ùħ": 1583,
      "ĠÙħØ¬ÙħÙĪØ¹Ø©": 1584,
      "Ø§ÙĦØ¬Ø©": 1585,
      "Ø³Ø¨Ø¨": 1586,
      "ĠØªÙĪ": 1587,
      "ĠØµÙĨØ¹": 1588,
      "Ġand": 1589,
      "ĠØ§ÙĦØ´Ø±ÙĥØ©": 1590,
      "ĠØ¢ÙĦØ§Øª": 1591,
      "Ø°ÙĬØ©": 1592,
      "Ġto": 1593,
      "Ø§Ø¦Ø¯": 1594,
      "ĠÙĦØ£ÙĨ": 1595,
      "Ø§Ø±ÙĬØ©": 1596,
      "Ø²Ø±": 1597,
      "ĠØ§ÙĦØ±Ø¦ÙĬØ³": 1598,
      "ĠØ§ÙĦØ¨ØŃ": 1599,
      "ĦØ§Ø«": 1600,
      "ÙĦØ§Ø«": 1601,
      "ÙĥØªÙĪØ±": 1602,
      "ĠØ§ÙĦÙħØ¹Ø¯Ø§Øª": 1603,
      "ĠØ¬Ùĩ": 1604,
      "ĠÙħØŃØ·Ø©": 1605,
      "Ø³ÙĬÙĨ": 1606,
      "Ø§ÙħÙĦØ©": 1607,
      "ĠØ§ÙĦØ¥ÙĦÙĥØªØ±": 1608,
      "ĠØ§ÙĦØŃØ±": 1609,
      "73": 1610,
      "Ø¹ÙĦÙĪÙħØ§Øª": 1611,
      "ÙĪÙĬØª": 1612,
      "Ø§ÙĦÙĥ": 1613,
      "ĠN": 1614,
      "ĠÙĨØ³": 1615,
      "ĠØ§ÙĦØªÙĤ": 1616,
      "71": 1617,
      "ĠØ£ØŃ": 1618,
      "40": 1619,
      "ĠÙĦØ¥": 1620,
      "Ø¨Ø¹": 1621,
      "ĠÙĨÙģØ³": 1622,
      "nØ¢": 1623,
      "Ġn": 1624,
      "de": 1625,
      "Ø·Ø±ÙĤØ©": 1626,
      "ol": 1627,
      "ÙĬÙĩ": 1628,
      "om": 1629,
      "Ø¬ÙĬÙĦ": 1630,
      "Ø¯Ø§Ø±Ø©": 1631,
      "ĠØ¬Ø¯ÙĬØ¯": 1632,
      "Ø¹Ø¨Ø©": 1633,
      "nØ§ÙĦØŃ": 1634,
      "ĠØªÙĨØ¸ÙĬÙģ": 1635,
      "70": 1636,
      "993": 1637,
      "ĠØ§ÙĦÙħÙħÙĦÙĥØ©": 1638,
      "ĠØ§ÙĦÙĪÙĤ": 1639,
      "ew": 1640,
      "ÙħÙĩ": 1641,
      "ÙĬØ§Ø©": 1642,
      "ĠØ§ÙĦÙĪØ·": 1643,
      "Ø¸Ø©": 1644,
      "Ø¨Ø§Ø¨": 1645,
      "Ø±ÙĬÙģ": 1646,
      "ĠØ§ÙĦØ§Ùħ": 1647,
      "Ġt": 1648,
      "ĠØµØºÙĬØ±Ø©": 1649,
      "ra": 1650,
      "ĠÙģÙĬÙĩØ§": 1651,
      "ĠØ£ÙģØ±ÙĬÙĤÙĬØ§": 1652,
      "Ø±Ø£": 1653,
      "ĠØ§ÙĦØ®Ø§ØµØ©": 1654,
      "ĠÙĦÙĦØŃ": 1655,
      "ÙĬØ§ÙĨØ©": 1656,
      "ĠØ¥ÙĦØ§": 1657,
      "ĠØªØµÙĨÙĬØ¹": 1658,
      "Ø¹ÙĦÙī": 1659,
      "ÙĬØ·": 1660,
      "ĠO": 1661,
      "ĠØ£ÙĪÙĦ": 1662,
      "ĠØ§ÙĦØ®Ø§Ùħ": 1663,
      "ÙĪÙħØ©": 1664,
      ".\",\"": 1665,
      "ÙĬÙĨØ§Øª": 1666,
      "72": 1667,
      "ĠØ¥ÙĨØªØ§Ø¬": 1668,
      "79": 1669,
      "Ø§ÙĦØ¨": 1670,
      "ĠØ¥ÙĦÙĬ": 1671,
      "ĠØªØµÙħÙĬÙħ": 1672,
      "ĠÙģÙĤØ·": 1673,
      "Ġg": 1674,
      "ĠØ§ÙĦÙħØ·": 1675,
      "ĠØ§ÙĦÙĪÙĦ": 1676,
      "Ø¸Ùħ": 1677,
      "Ġ)": 1678,
      "ĠÙĬØ¯": 1679,
      "ĠØŃØ³Ø§Ø¨": 1680,
      "Ġ8": 1681,
      "ĠÙĦÙĩØ§": 1682,
      "9994": 1683,
      "ÙĪÙĬÙĦ": 1684,
      "Ø¬ÙĨ": 1685,
      "ĠØ§ÙĦØ¯Ø±": 1686,
      "ĠØŃÙĤ": 1687,
      "ÙĪØ§Ø¨": 1688,
      "Ġ25": 1689,
      "ĠØµÙĪØ±": 1690,
      "Ø²Ø§Ùħ": 1691,
      "ĠÙĪÙģÙĬ": 1692,
      "ĠØ§ÙĦØ§ØŃ": 1693,
      "Ø§Ø¬Ø±": 1694,
      "ÙĪÙĦÙĪØ¬": 1695,
      "Ø±Ø§ÙĤ": 1696,
      "ĠØªÙĥÙĪÙĨ": 1697,
      "ĠØ§ÙĦÙĤÙĬ": 1698,
      "ÙħØ¨Ø±": 1699,
      "ĠÙĦÙĪ": 1700,
      "Ġ#": 1701,
      "ĠØ¢Ø®Ø±": 1702,
      "âĢ¦": 1703,
      "69": 1704,
      "ĠÙĦÙĨ": 1705,
      "ĠÙĪÙĩÙĬ": 1706,
      "ĠPrice": 1707,
      "ĠØ§ÙĦØŃÙĦÙĤØ©": 1708,
      "Ø§Ø´Ø©": 1709,
      "Ø§ÙĦØª": 1710,
      "Ø§ÙĦØ«": 1711,
      "ÙĦÙĬØ§Øª": 1712,
      "Ø¹Ø§Øª": 1713,
      "ĠØ§ÙĦØªØ³": 1714,
      "ĠØ¬Ø¯ÙĬØ¯Ø©": 1715,
      "Ø§Ø®Ù": 1716,
      "Ø§Ø®ÙĦ": 1717,
      "ÙĨÙĬÙĨ": 1718,
      "ĠØ¨Ø¥": 1719,
      "ĠÙĬØ¬Ø¨": 1720,
      "ÙĥÙĪ": 1721,
      "ĠÙĪØ§ÙĦØŃ": 1722,
      "51": 1723,
      "ĠÙĩÙĨØ§Ùĥ": 1724,
      "Ø±ÙĬØ¨": 1725,
      "ĠÙħØ³ØŃÙĪÙĤ": 1726,
      "Ø§Ø¯ÙĬØ©": 1727,
      "FC": 1728,
      "Ġ|--": 1729,
      "ĠÙħØ¨Ø§": 1730,
      "ĠØ§ÙĦØ§ÙĤ": 1731,
      "Ø§Ø³ØªØ®Ø¯Ø§Ùħ": 1732,
      "Ø¶ÙĪØ¹": 1733,
      "Ø±Ø§Øª": 1734,
      "ÙĬØ´": 1735,
      "Ø§Ø¦ÙĤ": 1736,
      "EB": 1737,
      "ĠØ§ÙĦØ±ÙħØ§ÙĦ": 1738,
      "ine": 1739,
      "ĠØ§ÙĦØ¹Ùħ": 1740,
      "ĠØ·Ø±ÙĬÙĤ": 1741,
      "ĠØ¨Ø£ÙĨ": 1742,
      "Ø§Ø³Ùħ": 1743,
      "ØºÙĬ": 1744,
      "ĠÙĦÙĥÙĨ": 1745,
      "Ø¨Øª": 1746,
      "AB": 1747,
      "ĠÙģÙĬÙĩ": 1748,
      "59": 1749,
      "ĠØ§ÙĦÙħØµÙĨØ¹Ø©": 1750,
      "eb": 1751,
      "ĠÙĪØ§ÙĦØªÙĬ": 1752,
      "ÙĩÙĬ": 1753,
      "Ġe": 1754,
      "nÙģÙĬ": 1755,
      "ĠØ§ÙĦØªÙĪ": 1756,
      "ØªÙĦÙģØ©": 1757,
      "ĠØ§ÙĦØ¹Ø¯ÙĬØ¯": 1758,
      "ĠØ§ÙĦÙħÙ": 1759,
      "ĠØ§ÙĦÙħÙĦ": 1760,
      "ĠØªØŃØª": 1761,
      "Ø¹Ø§Ø¯Ø©": 1762,
      "ĠØ£Øµ": 1763,
      "Ø§ÙĨØª": 1764,
      "ØµÙī": 1765,
      "ĠØ£Ø®Ø±Ùī": 1766,
      "ĠØ§ÙĦØ£ÙĪ": 1767,
      "ÙĪØ¯ÙĬ": 1768,
      "ĠØ§ÙĦÙħÙĩ": 1769,
      "9999": 1770,
      "ĠØ§ÙĦØ¥Ùħ": 1771,
      "ĠØŃÙ": 1772,
      "ĠØŃÙĦ": 1773,
      "Ø§Ø±Ø¯": 1774,
      "ĠÙħØªÙĨÙĤÙĦØ©": 1775,
      "ĠØ£ÙĬØ¶Ø": 1776,
      "ĠØ£ÙĬØ¶Ø§": 1777,
      "ĠØ§ÙĦÙħÙĪÙĤØ¹": 1778,
      "ĠÙĬØ³": 1779,
      "ĠØ§ÙĦØ³Ù": 1780,
      "ĠØ§ÙĦØ³ÙĦ": 1781,
      "ØµØ§ÙĦ": 1782,
      "ÙĪÙģÙħØ¨Ø±": 1783,
      "ÙĥØ«Ø±": 1784,
      "ĠÙĨÙĤÙĦ": 1785,
      "Ø¯ÙĬÙ": 1786,
      "Ø¯ÙĬÙĦ": 1787,
      "ĠÙĬÙħÙĥÙĨÙĥ": 1788,
      "ĠØ¨Ø±ÙĨØ§ÙħØ¬": 1789,
      "ĠØ§ÙĦØµÙģ": 1790,
      "ĠØ¨ÙĨØ§": 1791,
      "ĠØŃØ±": 1792,
      "ĠØ§ÙĦÙĨØŃ": 1793,
      "ĠØ£Ø´": 1794,
      "Ø§ØªÙģ": 1795,
      "Ø¯ÙħØ": 1796,
      "Ø¯ÙħØ§": 1797,
      "52": 1798,
      "ÙĨÙī": 1799,
      "ÙĪØ«": 1800,
      "ĠØ§ÙĦØ£ÙħØ±ÙĬ": 1801,
      "ay": 1802,
      "60": 1803,
      "ĠØ±ÙĤÙħ": 1804,
      "61": 1805,
      "Ġ0": 1806,
      "ĠØ§ÙĦÙħØŃÙħÙĪÙĦ": 1807,
      "Ø¨Ø³": 1808,
      "Ø£Ø©": 1809,
      "Ø°ÙĬ": 1810,
      "um": 1811,
      "ĠØ´Ø®Øµ": 1812,
      "ĠØ±ÙĬ": 1813,
      "ĠÙħÙĦÙĬ": 1814,
      "Ø§Ø°Ø": 1815,
      "Ø§Ø°Ø§": 1816,
      "ĠØªØ®": 1817,
      "Ø§ÙĩØ¯": 1818,
      "ØµÙĪØ±": 1819,
      "Ø¨Ø¯Ø£": 1820,
      "ÙĬØ±Ø§ÙĨ": 1821,
      "ĠØ¹ÙĦÙĬÙĩØ§": 1822,
      "ĠÙĦØ¯ÙĬ": 1823,
      "Ø§Ø³Ø¨": 1824,
      "ÙĨØ§ÙĨ": 1825,
      "nG": 1826,
      "ĠØ¬Ø±": 1827,
      "ĠÙħÙģ": 1828,
      "ĠØ¨ÙĤ": 1829,
      "ĠØ§ÙĦØ¨ØŃØ«": 1830,
      "ĠØ£Ø³Ø¹Ø§Ø±": 1831,
      "ĠÙĪÙĤØ¯": 1832,
      "ï¿½\\": 1833,
      "ir": 1834,
      "Ġâ": 1835,
      "ĠÂ»": 1836,
      "ĠÙħÙĬ": 1837,
      "ĠØ§ÙĦØ«Ø§ÙĨÙĬ": 1838,
      "ĠÙĪØ°ÙĦÙĥ": 1839,
      "ĠØ§ÙĦØ£ÙĨ": 1840,
      "974": 1841,
      "Ġ30": 1842,
      "ĠØ§ÙĦØ¥Ø³ÙĦØ§Ùħ": 1843,
      "Ø³ÙĬÙĤ": 1844,
      "ĠÙĪØ§ÙĦØ¥": 1845,
      "foo": 1846,
      "ĠØ³Ø§Ø¹Ø©": 1847,
      "ĠØ§ÙĦØ´Ø±ÙĥØ§Øª": 1848,
      "Ø±ÙĪØ¶": 1849,
      "Ø§Ø¨Ù": 1850,
      "Ø§Ø¨ÙĦ": 1851,
      "ĠÙħÙĨÙĩØ§": 1852,
      "9998": 1853,
      "ÙĪØ¨Ø©": 1854,
      "ĠØ§ÙĦÙĨÙģ": 1855,
      "df": 1856,
      "ĠØ®Ù": 1857,
      "ĠØ®ÙĦ": 1858,
      "hats": 1859,
      "Ø§Ø¨Ø³": 1860,
      "Ø¨ÙĬØ±": 1861,
      "Ġ2016": 1862,
      "ÙĦÙħØ©": 1863,
      "Ġ2019": 1864,
      "ÙĬØ¦Ø©": 1865,
      "ĠÙħØ´Ø±ÙĪØ¹": 1866,
      "ĠMore": 1867,
      "ØªÙĦÙģ": 1868,
      "Ø¸ÙĩØ±": 1869,
      "ĠØ§ÙĦØ¹Ø§ÙħØ©": 1870,
      "ĠÙĥØ¨ÙĬØ±Ø©": 1871,
      "ĠØ¯ÙĪÙĨ": 1872,
      "9990": 1873,
      "Ġy": 1874,
      "ĠØ¨Ø¬": 1875,
      "ÙĤÙĬÙĤØ©": 1876,
      "ĠØªØ£Ø«ÙĬØ±": 1877,
      "footer": 1878,
      "Ø§Ø¦Ùģ": 1879,
      "ĠÙĨØ¸Ø§Ùħ": 1880,
      "ĠÙĤØ³Ùħ": 1881,
      "ĠÙĤÙĬ": 1882,
      "ri": 1883,
      "Ø·ÙĦØ¨": 1884,
      "ĠØªØ·Ø¨ÙĬÙĤ": 1885,
      "Ø§Ø³Ø§Øª": 1886,
      "ØºÙĬÙĦ": 1887,
      "ĠÙĥØ¨ÙĬØ±": 1888,
      "Ø·ÙģØ§ÙĦ": 1889,
      "ĠØ®Ø¯ÙħØ©": 1890,
      "ĠÙĥØªØ§Ø¨": 1891,
      "...\\": 1892,
      "ĠÙĪØ§ÙĦØ¹": 1893,
      "ĠØ§ÙĦØ¥ÙĨØªØ±ÙĨØª": 1894,
      "ĠØ§ÙĦØªÙģ": 1895,
      "ĠØ§ÙĦÙĥØ«ÙĬØ±": 1896,
      "Ø§ØµÙĬÙĦ": 1897,
      "ĠÙĦØ¬": 1898,
      "Ġv": 1899,
      "Ø³ÙĦØ³ÙĦ": 1900,
      "ĠÙħØ§ÙĬ": 1901,
      "ÙĪÙĩ": 1902,
      "ml": 1903,
      "nØ´": 1904,
      "ÙĬÙĨØ": 1905,
      "ÙĬÙĨØ§": 1906,
      "Ø´Ø§Ø¡": 1907,
      "986": 1908,
      "Ø³Ø³": 1909,
      "ĠØ§Ø¨ÙĨ": 1910,
      "Ø§Ø¯ÙĨ": 1911,
      "ĠØ§ÙĦØŃØµÙĪÙĦ": 1912,
      "ØªÙĪØ¨Ø±": 1913,
      "Ø³ÙħØ¨Ø±": 1914,
      "Ġ12": 1915,
      "Ø¬ÙĦÙĬ": 1916,
      "ÙĬØ¡": 1917,
      "Ø§Ø¶ÙĬ": 1918,
      "Ø¹Ø§Ùħ": 1919,
      "ĠÙħØ²": 1920,
      "ĠØ£Øº": 1921,
      "ĠÙĥÙħ": 1922,
      "ĠØ§ÙĦØ®Ø·": 1923,
      "000": 1924,
      "ĠÙĪØ§ØŃØ¯": 1925,
      "Ø¨Ø·": 1926,
      "ĠØ§ÙĦØ£Ø¯": 1927,
      "ÙĪØ¬Ø¯": 1928,
      "Ø§Ø¯Ø§Øª": 1929,
      "af": 1930,
      "ĠÙĤØ·Ø¹": 1931,
      "ĠØµÙĨØ§Ø¹Ø©": 1932,
      "/\",\"": 1933,
      "9987": 1934,
      "ĠØ§ÙĦØ¬Ø±": 1935,
      "ĠÙħÙĩ": 1936,
      "Ø·ÙĪÙĬØ±": 1937,
      "ÙĥØ¯": 1938,
      "Ø·ÙĪØ±": 1939,
      "ÙģÙĤ": 1940,
      "ĠØ§ÙĦØµØŃ": 1941,
      "ĠØ¨Ø³": 1942,
      "ĠØ§ÙĦØ¹Ø±Ø§ÙĤ": 1943,
      "ĠØ£ÙĨÙĪØ§Ø¹": 1944,
      "ĠÙħØªØ±": 1945,
      "ĠØŃÙħ": 1946,
      "ĠØ§ÙĦØ±Ø³": 1947,
      ").": 1948,
      "ĠÙĬØ³Øª": 1949,
      "ĠØ³Ù": 1950,
      "ĠØ³ÙĦ": 1951,
      "ĠØ¹Ø¨": 1952,
      "ÙİÙĳ": 1953,
      "Ø®ÙĬ": 1954,
      "ĠØ§ÙĦØ´Ø®Øµ": 1955,
      "ĠØŃØ¯": 1956,
      "ma": 1957,
      "ĠU": 1958,
      "Ø§Ø¦Ùħ": 1959,
      "ĠÙħÙĨØ°": 1960,
      "Ø¹ÙħÙĦØ©": 1961,
      "ĠØ§ÙĦØ´ÙĬ": 1962,
      "ĠØªÙĩ": 1963,
      "Ø¹ÙĦØ§Ùħ": 1964,
      "CA": 1965,
      "ĠØ§ÙĦÙħÙĪØ§Ø¯": 1966,
      "ĠØŃØ³Ø¨": 1967,
      "ĠÙĥÙĨØª": 1968,
      "html": 1969,
      "ĠÙħØ¹Ø§ÙĦØ¬Ø©": 1970,
      "ĠØ®Øµ": 1971,
      "Ø·ÙĨ": 1972,
      "ĠØ§ÙĦØ§Ø¬ØªÙħ": 1973,
      "ĠV": 1974,
      "Ø¶Ø§Ø¡": 1975,
      "Ø§Ø¨Ø§Øª": 1976,
      "Ø§Ø²Ù": 1977,
      "Ø§Ø²ÙĦ": 1978,
      "Â·": 1979,
      "ĠØ§ÙĦÙĥØ³Ø§Ø±Ø©": 1980,
      "ÙĪÙģØ±": 1981,
      "Ø§ÙĦÙĬØ§": 1982,
      "__": 1983,
      "ĠÙĥÙĬÙģÙĬØ©": 1984,
      "Ø±ÙĬÙ": 1985,
      "Ø¶Ø©": 1986,
      "Ø±ÙĬÙĦ": 1987,
      "ĠØ§ÙĦØ¥ÙĦÙĥØªØ±ÙĪÙĨÙĬ": 1988,
      "nØ§ÙĦØ£": 1989,
      "ÙĥÙĨÙĪÙĦÙĪØ¬": 1990,
      "Ø§ÙģÙĬØ©": 1991,
      "ĠØªØ³Øª": 1992,
      "Ø§ÙĬÙĨ": 1993,
      "ĠØ§ÙĦÙħØŃÙħÙĪÙĦØ©": 1994,
      "Ø®Ø°": 1995,
      "830": 1996,
      "ĠØºØ³": 1997,
      "ĠØ§ÙĦØµØºÙĬØ±Ø©": 1998,
      "Ø®ÙĪÙĦ": 1999,
      "ØŃÙĦØ©": 2000,
      "ĠØ§ÙĦØ§Ø¹": 2001,
      "ÙĪÙĨÙĬØ©": 2002,
      "ĠÙĨÙĪÙģÙħØ¨Ø±": 2003,
      "ÙĤÙĬÙĦØ©": 2004,
      "ĠØ±Ùħ": 2005,
      "Ġ>": 2006,
      "ĠÙħØ¬ÙĦØ³": 2007,
      "ĠÙħØ¨": 2008,
      "ÙĪÙĨÙĬÙĪ": 2009,
      "ÙģØ³ÙĬØ±": 2010,
      "ĠØ§ÙĦÙĪÙĦØ§ÙĬØ§Øª": 2011,
      "ĠØ§ÙĦØ§Ø®": 2012,
      "ĠØ§ÙĦÙħØ·Ø±ÙĤØ©": 2013,
      "ÙĦØ³Ø·": 2014,
      "ĠØ£ÙĤ": 2015,
      "62": 2016,
      "ĠØ¬Ø§ÙħØ¹Ø©": 2017,
      "ÙħÙĬÙĨ": 2018,
      "Ø§ÙģÙĬ": 2019,
      "Ø¬ÙħØ¹": 2020,
      "Ø¹ÙĬØ¯": 2021,
      "Ø§Ø¹Ø¯Ø©": 2022,
      "nØ§Øª": 2023,
      "ØŃÙĪ": 2024,
      "ĠØ£ÙĩÙħ": 2025,
      "991": 2026,
      "ĠÙĪØ§ÙĦØ¯": 2027,
      "ĠØ§ÙĦØªØ±": 2028,
      "Ø´Ø§Ø±ÙĥØ©": 2029,
      "ĠØ§ÙĦÙĪÙĤØª": 2030,
      "ĠÙĪØ§ØŃØ¯Ø©": 2031,
      "Ø¹Ø±ÙģØ©": 2032,
      "ØªÙĬÙĨ": 2033,
      "ff": 2034,
      "ÙĮ": 2035,
      "ment": 2036,
      "ØªØ±Ø©": 2037,
      "Ġ2018": 2038,
      "ĠÙĦØŃ": 2039,
      "ĠØ§ÙĦØ§Ø³ÙħÙĨØª": 2040,
      "ec": 2041,
      "ÙĥØ³Ø§Ø±Ø©": 2042,
      "Ġ15": 2043,
      "ØºÙ": 2044,
      "Ø¬Ø§Ø±ÙĬØ©": 2045,
      "ØºÙĦ": 2046,
      "ĠØ§ÙĦØ¹ÙĦÙħ": 2047,
      "header": 2048,
      "Ø§ÙĤÙ": 2049,
      "Ø§ÙĤÙĦ": 2050,
      "ĠÙĬØ¬": 2051,
      "ÙĨØ¯Ø": 2052,
      "ÙĨØ¯Ø§": 2053,
      "ĠØ¬Ø²": 2054,
      "ÙĬÙĨÙĬØ©": 2055,
      "ĠØ§ÙĦØ£Ø³Ø¹Ø§Ø±": 2056,
      "Ø§Ø¸": 2057,
      "Ġ24": 2058,
      "ĠØ§ÙĦØ°ÙĬÙĨ": 2059,
      "Ġ9": 2060,
      "ĠÙĬØ´": 2061,
      "ĠJ": 2062,
      "Ø§ÙĨÙĬØª": 2063,
      "985": 2064,
      "act": 2065,
      "Ø§ÙĦÙģ": 2066,
      "ĠØ§ÙĦØ¬Ø¯ÙĬØ¯Ø©": 2067,
      "nd": 2068,
      "Ø¬ÙĬ": 2069,
      "ĠØ§ÙĦØ®Ø§Øµ": 2070,
      "Ø·ÙĬ": 2071,
      "ĠØ£Ø¨ÙĪ": 2072,
      "ĠØ§ÙĦÙħØ³ØªØ®Ø¯ÙħØ©": 2073,
      "ĠØ§ÙĦÙĥØ³Ø§Ø±Ø§Øª": 2074,
      "ĠØ£ÙĥØ¨Ø±": 2075,
      "Ø±ÙĪØ³": 2076,
      "ĠÙħØ®Ø±ÙĪØ·ÙĬØ©": 2077,
      "ØªÙħØ¹": 2078,
      "Ø§ÙģÙĤ": 2079,
      "EE": 2080,
      "Ø§ÙĨØ¯": 2081,
      "ĠÙĨÙĩ": 2082,
      "nÙħØ·ØŃÙĨØ©": 2083,
      "Ø·Ø§ÙĤ": 2084,
      "Ø¬Ø±Ø§Ø¡": 2085,
      "ĠØ§ÙĦØ¥ÙĨØ³": 2086,
      "Ø³ØªØ§ÙĨ": 2087,
      "ĠØ§ÙĦØ§Ø¨": 2088,
      "ĠØ§Ø³Ùħ": 2089,
      "ØªÙĬØ§Ø±": 2090,
      "ĠÙĪØªØŃ": 2091,
      "ĠØ§ÙĦØŃÙĥ": 2092,
      "ĠÙĪØ§ÙĦÙĨ": 2093,
      "ÙĪÙĨØ§Øª": 2094,
      "ĠØ§ÙĦØªØ´": 2095,
      "ÙĪØ¨ÙĬ": 2096,
      "ĠÙĪØ¯": 2097,
      "ĠØ§ÙĦØ¹Ø±Ø¨ÙĬ": 2098,
      "ĠØªÙĦÙĥ": 2099,
      "ĠØ§ÙĦØ³Ø§Ø¹Ø©": 2100,
      "App": 2101,
      "Ø§ÙĪÙĬ": 2102,
      "Ø´Ø±Ø§Øª": 2103,
      "Ø§Ø¨Ø¹Ø©": 2104,
      "Ø±Ø¨Ø¹": 2105,
      "ĠØ§ÙĦÙħØ¹ÙĦÙĪÙħØ§Øª": 2106,
      "ĠÙħØ¯ÙĬÙĨØ©": 2107,
      "2021": 2108,
      "nØ¹": 2109,
      "ĠØ§ÙĦØªØ¹ÙĦÙĬÙħ": 2110,
      "ĠØµÙģ": 2111,
      "Ø¬Ø§Ø¬": 2112,
      "ĠØ§ÙĦÙĨØ¨Ø§Øª": 2113,
      "ĠØ§ÙĦÙĨØŃØ§Ø³": 2114,
      "BC": 2115,
      "ØµØ±ÙĬØ©": 2116,
      "EC": 2117,
      "ot": 2118,
      "ĠÙĪØ´": 2119,
      "ĠØ·Ø±ÙĬÙĤØ©": 2120,
      "ĠØªØ¨": 2121,
      "ĠÙĬØ±": 2122,
      "ĠØ§ÙĦØ¬Ùĩ": 2123,
      "ĠÙĩÙĨØ§": 2124,
      "Ø¬ÙĩØ²Ø©": 2125,
      "Ø§ÙĪÙĨ": 2126,
      "ĠØ§ÙĦØ£Ø®": 2127,
      "ÙĤØ": 2128,
      "ÙĤØ§": 2129,
      "ĠÙħÙĨÙĩ": 2130,
      "nGet": 2131,
      "Ġon": 2132,
      "ĠØ´Ø±Ø§Ø¡": 2133,
      "ĠØ¨Ø§ÙĦØ¥": 2134,
      "Ø¨Ø§ØŃ": 2135,
      "ĠÙĪÙĤØª": 2136,
      "ĠØ¯ÙĬØ³ÙħØ¨Ø±": 2137,
      "Ø§Ø³Ø¨Ø©": 2138,
      "Ø¬ÙĩÙĬØ²": 2139,
      "ØªÙĨ": 2140,
      "ĠØ§ÙĦØ¬ÙĨ": 2141,
      "ĠÙģÙĥÙĬØ©": 2142,
      "rush": 2143,
      "Ø¸ÙħØ©": 2144,
      "Ø°ÙĥØ±": 2145,
      "ĠØ§ÙĦØ¨ØŃØ±": 2146,
      "nC": 2147,
      "ĠØ¹ÙĦÙħ": 2148,
      "ĠØ§ÙĦÙħÙĥ": 2149,
      "ĠØ´Ø¨": 2150,
      "ÙĤØ¨": 2151,
      "ÙĥØ³Ø§Ø±Ø§Øª": 2152,
      "nÙĥÙĬÙģ": 2153,
      "ĠØ¯Ø§Ø®ÙĦ": 2154,
      "9984": 2155,
      "ess": 2156,
      "990": 2157,
      "DE": 2158,
      "nØ¬": 2159,
      "Ø§ÙĩØ¯Ø©": 2160,
      "Ø§ÙĩØ±Ø©": 2161,
      "hatsApp": 2162,
      "ĠØ®Ø¯ÙħØ§Øª": 2163,
      "ĠÙħØ¬Ø§ÙĦ": 2164,
      "ÙĪØ¬Ùĩ": 2165,
      "ĠØªÙĥÙĦÙģØ©": 2166,
      "ĠØ§ÙĦØ£ÙĪÙĦÙī": 2167,
      "9986": 2168,
      "ĠÙĤØµ": 2169,
      "Ø§ÙĬÙ": 2170,
      "Ø§ÙĬÙĦ": 2171,
      "ĠØ¨ÙħØ§": 2172,
      "ÙĬÙħÙĥÙĨ": 2173,
      "ĠØ§ÙģØ¶ÙĦ": 2174,
      "Ġ+": 2175,
      "ba": 2176,
      "ut": 2177,
      "ØŃØ¯Ø«": 2178,
      "nR": 2179,
      "ĠÙĦÙĬØ³": 2180,
      "ØµØŃ": 2181,
      "984": 2182,
      "tin": 2183,
      "ĠÙħÙħØ§": 2184,
      "Ø¢ÙĨ": 2185,
      "ĠØªØ¹ÙĦÙĬ": 2186,
      "ĠØ¬Ø¯Ø": 2187,
      "ĠØ¬Ø¯Ø§": 2188,
      "Ø³ØªØ±": 2189,
      "ĠÙĪØ£ÙĨ": 2190,
      "Ġ11": 2191,
      "ĠY": 2192,
      "ĠØ§ÙĦØ¬Ùħ": 2193,
      "ĠÙħØ¶": 2194,
      "se": 2195,
      "ĠØ§ÙĦØ«Ø§ÙĦØ«": 2196,
      "Ø±ÙĬØ±": 2197,
      "Ø¯Ø±Ø¯": 2198,
      "ĠØ¯ÙĪØ±": 2199,
      "Ø§ÙĨØ¨": 2200,
      "ĠØ§ÙĦØ£Ù": 2201,
      "ĠØ§ÙĦØ£ÙĦ": 2202,
      "ĠÙĦÙĥÙĦ": 2203,
      "ÙĥØ§ÙĦ": 2204,
      "all": 2205,
      "ĠØªØ§Ø±ÙĬØ®": 2206,
      "nØ§ÙĤ": 2207,
      "ĠØ§ÙĦØŃØ¯ÙĬØ«": 2208,
      "nØ¯": 2209,
      "ØªØ¯Ùī": 2210,
      "ÙĥÙĨÙĪÙĦÙĪØ¬ÙĬØ§": 2211,
      "Ø§ÙĦØ¯": 2212,
      "ĠÙĩÙ": 2213,
      "ĠÙĩÙĦ": 2214,
      "Ġ2017": 2215,
      "Ø®ØµØµ": 2216,
      "ĠÙĦØ³": 2217,
      "ĠØ§ÙĦØ¯ÙĥØªÙĪØ±": 2218,
      "ĠÙħØ±ÙĥØ²": 2219,
      "ØºÙħ": 2220,
      "ĠØ§ÙĦÙħÙĬ": 2221,
      "ØŃØ§Øª": 2222,
      "Ø·ÙĪØ§ÙĨ": 2223,
      "Ø§Ø¨Ø·": 2224,
      "9985": 2225,
      "ĠØ§Ø´": 2226,
      "Ø¸ÙĬÙħ": 2227,
      "ĠK": 2228,
      "ĠØ§ÙĦØ§Ø±": 2229,
      "ĠÙĤØ§Ø¦ÙħØ©": 2230,
      "ĠØ¹Ø±Ø¶": 2231,
      "ee": 2232,
      "nØ´Ø±ÙĥØ©": 2233,
      "ĠÙĪØ§Ø³": 2234,
      "Ġl": 2235,
      "ØªØ¨Ø§Ø±": 2236,
      "ind": 2237,
      "ĠØ£Ø±": 2238,
      "ØªÙħØ¨Ø±": 2239,
      "\\\":": 2240,
      "ĠØ³ÙĨØ©": 2241,
      "976": 2242,
      "Ø§Ø¦Ø¨": 2243,
      "Ø§ÙĦÙī": 2244,
      "ĠØ¯ÙĪÙĦØ§Ø±": 2245,
      ")ØĮ": 2246,
      "ĠØ§ÙĦØ£ÙħØ±": 2247,
      "ĠØ«ÙĦØ§Ø«": 2248,
      "ĠØ§ÙĦÙħÙģ": 2249,
      "ĠØ§ÙĦÙĨØ§Ø³": 2250,
      "Ġ*": 2251,
      "ĠØ³Ùħ": 2252,
      "ÙĥØ±Ø©": 2253,
      "ĠØªÙ": 2254,
      "ĠØªÙĦ": 2255,
      "ĠÙħÙĨØªØ¬Ø§Øª": 2256,
      "Ø²ÙĬØ²": 2257,
      "Ø¨ÙĦØº": 2258,
      "ĠØ£ÙĥØªÙĪØ¨Ø±": 2259,
      "Ø±ØŃ": 2260,
      "ĠØ§ÙĦØ£Ø±Ø¶": 2261,
      "ĠØ§ÙĦÙĨØ³": 2262,
      "ÙĬÙģØ©": 2263,
      "ĠÙħÙĨØªØ¯Ùī": 2264,
      "Ø¯Ø±Ø¯Ø´Ø©": 2265,
      "ĠØ§ÙĦØ¯Ùħ": 2266,
      "ĠØ£Ø«": 2267,
      "ĠØ¹ÙĨØ¯ÙħØ§": 2268,
      "ĠØ±ÙĪ": 2269,
      "ĠÙģÙĩ": 2270,
      "nÙĩ": 2271,
      "ØŃØµ": 2272,
      "ĠØªØ±ÙĥÙĬØ¨": 2273,
      "ĠØ§ÙĦÙĥÙĩØ±Ø¨": 2274,
      "ĠØ§ÙĦØ¨ÙĨØ§Ø¡": 2275,
      "ÙĪÙĨØ": 2276,
      "ÙĪÙĨØ§": 2277,
      "992": 2278,
      "Ġfor": 2279,
      "Ø¶ÙĬ": 2280,
      "ĠØ§ÙĦØ¨ÙĨ": 2281,
      "ĠÙħØªÙĪ": 2282,
      "ÙĤÙĬØ©": 2283,
      "ĠØ£ØŃÙħØ¯": 2284,
      "ĠØºØ±": 2285,
      "ÙĬØ¯Ø±": 2286,
      "Ġ19": 2287,
      "Ġis": 2288,
      "ÙĪØªØ±": 2289,
      "ĠØ§ÙĦØŃØ¬Ø§Ø±Ø©": 2290,
      "Ø·ÙĦÙĤ": 2291,
      "EA": 2292,
      "ĠØ§ÙĦØ¬Ø¯ÙĬØ¯": 2293,
      "ĠÙħØ¹Ù": 2294,
      "ĠÙħØ¹ÙĦ": 2295,
      "ÙħØ¤": 2296,
      "ĠØ§ÙĦØ§ÙĤØªØµ": 2297,
      "ĠØ¨Ø¯ÙĪÙĨ": 2298,
      "ÙĪÙĤÙģ": 2299,
      "ÙĥØ§Ùħ": 2300,
      "Ø«ÙħØ§Ø±": 2301,
      "ØªØ±Ùĥ": 2302,
      "ĠÙĥØ±": 2303,
      "ĠØ§ÙĦÙĤØ·": 2304,
      "ĠØ®Ø§ØµØ©": 2305,
      "ĠÙĪØ§ÙĦØ³": 2306,
      "ĠØ£Ø¬ÙĦ": 2307,
      "ĠØ§ÙĦØªØµ": 2308,
      "nÙħØŃ": 2309,
      "ĠÙģÙ": 2310,
      "ĠÙģÙĦ": 2311,
      "ĠÙĪØ¶Ø¹": 2312,
      "ÙĭØĮ": 2313,
      "ĠÙĪØºÙĬØ±": 2314,
      "ĠØ§ÙĦØ±Ø¦ÙĬØ³ÙĬØ©": 2315,
      "ĠÙĦÙĦØ¥": 2316,
      "ĠØ§ÙĦØ£ÙħØ±ÙĬÙĥÙĬØ©": 2317,
      "nØ¢ÙĦØ©": 2318,
      "Ø·ÙĬØ¹": 2319,
      "ver": 2320,
      "ÙĪÙĦÙĬÙĪ": 2321,
      "ĠØ§ÙĦØ¹ÙĤ": 2322,
      "Ø¯Ø§Ø¯": 2323,
      "ĠØ§ÙĦØ´ÙĬØ®": 2324,
      "Ø¨ÙĬÙ": 2325,
      "Ø¨ÙĬÙĦ": 2326,
      "ĠÙħÙĦÙģ": 2327,
      "ĠÙģÙĤØ¯": 2328,
      "DA": 2329,
      "ĠØ§Ø¬": 2330,
      "Ø§ÙĤØ§Øª": 2331,
      "ĠØŃØ§ÙĦØ©": 2332,
      "ĠÙĨØª": 2333,
      "Ø²ÙĬØ©": 2334,
      "988": 2335,
      "ĠØ§ÙĦØ´Ø¹Ø±": 2336,
      "ĠØ§ÙĦÙĥÙĪÙĬØª": 2337,
      "\\\\": 2338,
      "ĠÙħØªÙĨ": 2339,
      "ÙĪØ±ÙĬØ": 2340,
      "ÙĪØ±ÙĬØ§": 2341,
      "ĠØ¨Ø³Ø¨Ø¨": 2342,
      "ĠÂ·": 2343,
      "nS": 2344,
      "ĠØ¨Ø§Ø±": 2345,
      "tiny": 2346,
      "ĠØ§ÙĦØ¬Ø²Ø§Ø¦Ø±": 2347,
      "ÙĩÙĪØ±": 2348,
      "ĠÙĪØ®": 2349,
      "ĠØµØŃ": 2350,
      "Ø§Ø¦Ø¹": 2351,
      "ĠØ¨ÙĨØ§Ø¡": 2352,
      "ØªÙĪÙĬ": 2353,
      "Ø¸Ø§Ø¦Ùģ": 2354,
      "ÙĦÙħØ§Øª": 2355,
      "9991": 2356,
      "Ø¶Ùħ": 2357,
      "nÙħØµÙĨØ¹": 2358,
      "Ġpro": 2359,
      "ĠØ§ÙĦØŃÙĤ": 2360,
      "ĠØ¯Ø¨ÙĬ": 2361,
      "ĠØ§ÙĦÙħÙĦÙĥ": 2362,
      "ĠØ´ÙĩØ±": 2363,
      "DF": 2364,
      "nØ±": 2365,
      "ÙĳÙĲ": 2366,
      "Ġk": 2367,
      "ead": 2368,
      "Ġ14": 2369,
      "Ø§ÙģØŃØ©": 2370,
      "ĠØ§ÙĦÙħÙĨØªØ¬Ø§Øª": 2371,
      "ĠÙħØ§Ø±Ø³": 2372,
      "Ġ200": 2373,
      "ĠØ§ÙĦØ£Ø³ÙħÙĨØª": 2374,
      "ĠØ§ÙĦÙħØµÙĨØ¹": 2375,
      "ĠØ§ÙĦØ¯ÙĬÙĨ": 2376,
      "ÙĪØ§Ø¬": 2377,
      "Ø§ØªÙĩ": 2378,
      "nØªØ³": 2379,
      "ĠÙĥØ§ÙħÙĦØ©": 2380,
      "nÙħØ¹Ø¯Ø§Øª": 2381,
      "ĠØ§ÙĦØ¹ÙĨ": 2382,
      "ĠØ§ÙĦØ·Ø§ÙĤØ©": 2383,
      "nØªØŃ": 2384,
      "Ø·ÙĪØ§ÙĨØ©": 2385,
      "ĠØ·Ø¨": 2386,
      "ĠØªØ¹ÙħÙĦ": 2387,
      "ĠØ§ÙĦØ¥ÙħØ§Ø±Ø§Øª": 2388,
      "Ø§ØŃÙĬØ©": 2389,
      "Ø®Ø¨": 2390,
      "ĠØ§ÙĦØŃÙĬ": 2391,
      "ĠØ§ÙĦÙħØ¹Ø¯": 2392,
      "ĠØŃØ¬Ùħ": 2393,
      "ĠØ§ÙĦÙģÙĬ": 2394,
      "Ø§Ø¦Ø¯Ø©": 2395,
      "Ø¹Ø§Ø¨": 2396,
      "ĠÙĦÙģ": 2397,
      "ĠØ£ÙĪØ±": 2398,
      "ÙĪØ¡": 2399,
      "ook": 2400,
      "ĠØŃØ¯ÙĬØ«": 2401,
      "Ø§ÙĦÙħÙĬ": 2402,
      "Ø¯ÙĬØ©": 2403,
      "tph": 2404,
      "ĠÙĨÙĬ": 2405,
      "Ø§Ø¨ÙĤ": 2406,
      "ÙĤØ¨ÙĦ": 2407,
      "ĠØªÙĤØ¯Ùħ": 2408,
      "ĠØµØºÙĬØ±": 2409,
      "ØªØ±Ø§Øª": 2410,
      "ĠØ§ÙĦÙħØªÙĪ": 2411,
      "Ø¨ÙĬÙĪØªØ±": 2412,
      "nØ·": 2413,
      "Ø²Ùħ": 2414,
      "bd": 2415,
      "Ø¹ÙĬØ©": 2416,
      "ØªÙģØ§Ø¹": 2417,
      "Ø±Ø¯Ø´Ø©": 2418,
      "nØ§ØªØµÙĦ": 2419,
      "ĠÙĦÙĥÙħ": 2420,
      "ĠØ§ÙĦØ¹ÙħÙĦØ§Ø¡": 2421,
      "]\\": 2422,
      "bc": 2423,
      "Ġ21": 2424,
      "Ø³Ø·Ø³": 2425,
      "ĠØ§ÙĦÙħØ¹Ø§Ø¯ÙĨ": 2426,
      "ĠØ§ÙĦØªØ¬Ø§Ø±ÙĬØ©": 2427,
      "Ø¹Ø¯Ø§Ø¯": 2428,
      "ĠÙħØ·Ø§ØŃÙĨ": 2429,
      "989": 2430,
      "Ġprice": 2431,
      "CB": 2432,
      "ØŃØ§Ø¯": 2433,
      "ae": 2434,
      "Ø§Ø¬Ø©": 2435,
      "Ø³Ø§Ùħ": 2436,
      "ÙĪØªÙĬ": 2437,
      "ÙĪØ±ÙĥØ³": 2438,
      "9988": 2439,
      "ÙĪØ§ÙĤ": 2440,
      "ÙĤØ§Ø¡": 2441,
      "ĠÙĥØªØ¨": 2442,
      "ÙĪÙħÙĬ": 2443,
      "ĠØ£Ø¨ÙĬ": 2444,
      "Ø®Ø©": 2445,
      "ĠÙĤØ·Ø±": 2446,
      "Ø´Ø§Ø±Ùĥ": 2447,
      "ĠØ³Ø±": 2448,
      "ÙĨÙĬÙĩ": 2449,
      "Ø¶Ø": 2450,
      "Ø¶Ø§": 2451,
      "Ø¦ÙĬ": 2452,
      "ĠØ¬ÙĬ": 2453,
      "ĠÙĪØ§ÙĦÙģ": 2454,
      "ĠØ§ÙĦÙĦØºØ©": 2455,
      "ĠØ§ÙĦÙħØªÙĨÙĤÙĦØ©": 2456,
      "ÙĪØ±Ø¯ÙĬÙĨ": 2457,
      "ĠØ³ÙĬØ±": 2458,
      "ĠØ§ÙĦØ®Ø§Ø±Ø¬": 2459,
      "Ø±Ø³Ø§ÙĨØ©": 2460,
      "pl": 2461,
      "ĠÙħØŃÙħ": 2462,
      "ĠØ£Ù": 2463,
      "ÙĪÙĨØ¯": 2464,
      "!\\": 2465,
      "ĠØ³Ø¨ØªÙħØ¨Ø±": 2466,
      "ĠØ£ÙĦ": 2467,
      "ÙĥØ±ÙĬ": 2468,
      "ØªÙħØ¯": 2469,
      "ĠØ§ÙĦØªØ¬": 2470,
      "ak": 2471,
      "ĠØ£ÙĨÙĩØ§": 2472,
      "ØªÙĪÙī": 2473,
      "Ø§ÙĦØ£": 2474,
      "ĠØ§ÙĦØ³ÙĬØ§Ø±Ø§Øª": 2475,
      "Ø®Ø§Øµ": 2476,
      "ĠØ§ÙĦØªØ£": 2477,
      "ĠØ§ÙĦØ£ØŃ": 2478,
      "ĠØ³ÙĨÙĪØ§Øª": 2479,
      "ØºÙĬÙĬØ±": 2480,
      "ĠØ§ÙĨØª": 2481,
      "ÙĬÙĤ": 2482,
      "ĠÙĪÙħØ§": 2483,
      "our": 2484,
      "ĠÙĬÙĪÙĨÙĬÙĪ": 2485,
      "ĠÙĬÙĨØ§ÙĬØ±": 2486,
      "ĠÙĨØ·Ø§ÙĤ": 2487,
      "Ø§ÙĩÙħ": 2488,
      "ĠØµÙĬØ§ÙĨØ©": 2489,
      "ĠØ§ÙĦØ¹Ø§ÙĦÙħÙĬØ©": 2490,
      "ĠÙĪÙĦÙĬ": 2491,
      "Ø§ÙģØ¸": 2492,
      "ĠØ§ÙĦÙħÙĨØªØ¬": 2493,
      "ĠØ§ÙĦÙĥØ±": 2494,
      "ĠØ¹Ø±ÙĪØ¶": 2495,
      "Ø¹ÙĦÙħ": 2496,
      "nØ§ÙĦØª": 2497,
      "ĠØ§ÙĦÙĥÙ": 2498,
      "ĠØ§ÙĦÙĥÙĦ": 2499,
      "ÙģØ§ÙĤ": 2500,
      ">\"},\"": 2501,
      "ĠØ¹ÙħØ±": 2502,
      "ite": 2503,
      "ĠÙħØ«": 2504,
      "9993": 2505,
      "ĠØ§ÙĦØ§ÙĨØªØ±ÙĨØª": 2506,
      "834": 2507,
      "ĠØ·ÙĦØ¨": 2508,
      "ĠØ³ÙĪÙģ": 2509,
      "ĠØ¹Ø§ÙĦÙħ": 2510,
      "Ø¯ÙĬØ§Øª": 2511,
      "ÙĩØ¯Ùģ": 2512,
      "Ġ18": 2513,
      "ĠØ§ÙĦØ³ÙĪÙĤ": 2514,
      "ub": 2515,
      "ĠÙĦØ¹Ø¨Ø©": 2516,
      "ĠØ§ÙĦÙħØ¨": 2517,
      "Ø¨Ø±Ø§ÙĬØ±": 2518,
      "ĠÙĦØªØŃ": 2519,
      "ØµÙĬ": 2520,
      "ĠÙħÙĨØ·ÙĤØ©": 2521,
      "ÙħÙĪØ°": 2522,
      "ĠØ§ÙĦØŃÙĬØ§Ø©": 2523,
      "ill": 2524,
      "ĠØ§ÙĦØ£ÙĪØ±": 2525,
      "Ġ22": 2526,
      "ip": 2527,
      "FE": 2528,
      "Ø²ÙĬÙĦ": 2529,
      "ĠØ§ÙĦØ³ÙĪØ¯": 2530,
      "ØŃÙĬØŃ": 2531,
      "Ġ50": 2532,
      "975": 2533,
      "Ø¨ÙĪ": 2534,
      "ĠÙĪØ¬ÙĪØ¯": 2535,
      "Ø·Ø§Ø±": 2536,
      "nÙħØ§": 2537,
      "op": 2538,
      "Ø§Ø¨ÙĬ": 2539,
      "...": 2540,
      "ĠØ¹Ø¯Ùħ": 2541,
      "nÙĪØ£": 2542,
      "ĠØ§ÙĦØ«ÙĤ": 2543,
      "100": 2544,
      "ÙĬÙĥÙĬØ©": 2545,
      "ĠØ§Ø¯": 2546,
      "Ġco": 2547,
      "ÙĬØ±Ø": 2548,
      "ÙĬØ±Ø§": 2549,
      "ĠØ¬ÙĩØ§Ø²": 2550,
      "ĠØ´ÙĬØ¡": 2551,
      "ĠÙħÙħ": 2552,
      "ÙĤØ§ÙĦ": 2553,
      "ĠØŃÙģ": 2554,
      "ĠØ§ÙĦØªØ±Ùĥ": 2555,
      "os": 2556,
      "Ø®Ø±Ø§Ø¬": 2557,
      "Ø²Ø¨": 2558,
      "ÙĤÙĤ": 2559,
      "ĠØ§ÙĦØ£Ø®Ø±Ùī": 2560,
      "Ø¹Øª": 2561,
      "out": 2562,
      "ØªØ´": 2563,
      "ĠÙħØ§ÙĬÙĪ": 2564,
      "ĠÙĨØŃÙĨ": 2565,
      "ĠâĢ¦": 2566,
      "bf": 2567,
      "ĠØ§ÙĦØ³ÙĨ": 2568,
      "ÙĩÙħØ§": 2569,
      "nM": 2570,
      "ĠÙħØº": 2571,
      "ĠÙģØªØŃ": 2572,
      "Ø§Ø¯Ù": 2573,
      "Ø§Ø¯ÙĦ": 2574,
      "ik": 2575,
      "ont": 2576,
      "ĠØ§ÙĦÙħÙĬØ§Ùĩ": 2577,
      "Ø§ÙħÙĬ": 2578,
      "Ø®Ø¯ÙħØ§Øª": 2579,
      "ach": 2580,
      "aa": 2581,
      "ĠØ§ÙĦØ·Ø¨": 2582,
      "Ø§Ø²Ø§Øª": 2583,
      "ĠØ§ÙĦØ¥ÙĨØ³Ø§ÙĨ": 2584,
      "ĠØ§ØŃØµÙĦ": 2585,
      "ĠÙħØ§ÙĥÙĬÙĨØ©": 2586,
      "Ø¨Ø§Ø±Ø§Ø©": 2587,
      "ĠØ§ÙĦØ£Ø´": 2588,
      "ĠØ§ÙĦÙħØ§ÙĦÙĬØ©": 2589,
      "nØ§ÙĦØŃØµÙĪÙĦ": 2590,
      "Ø²ÙĨ": 2591,
      "ÙħÙĪØ°Ø¬": 2592,
      "ÙĤØ¯Ùħ": 2593,
      "ĠØ³ÙĪÙĤ": 2594,
      "ĠÙħØ§Ø±": 2595,
      "ĠÙĪÙĦØ§ÙĬØ©": 2596,
      "ÙĥÙĪØ±": 2597,
      "CE": 2598,
      "ÙģÙĬØ±": 2599,
      "Ġus": 2600,
      "ĠÙħØ¹ÙĦÙĪÙħØ§Øª": 2601,
      ",\\\"": 2602,
      "Ø§Ø¬Ø§Øª": 2603,
      "Ø·ÙĦØ§ÙĤ": 2604,
      "Ġ16": 2605,
      "Ø§ÙĥÙ": 2606,
      "Ø§ÙĥÙĦ": 2607,
      "Ø¬ÙĬØ±": 2608,
      "ĠØªÙĥ": 2609,
      "ĠÙħØµØ§ÙĨØ¹": 2610,
      "ÙĤÙĪÙĦ": 2611,
      "ĠØ¶Ø¯": 2612,
      "Ø¶ÙħÙĨ": 2613,
      "ĠØ§ÙĦÙĨÙĩ": 2614,
      "Ú©": 2615,
      "ĠØ§ÙĦÙĨÙģØ·": 2616,
      "ÙĪØ¨ÙĬØ©": 2617,
      "ĠÙħÙĥØ§ÙĨ": 2618,
      "ĠØ¥Ø¯Ø§Ø±Ø©": 2619,
      "ĠØ§ÙĦØ±Ø³Ùħ": 2620,
      "Ø·ØŃ": 2621,
      "ĠÙĬØ¤": 2622,
      "Ø§ÙģØ±": 2623,
      "Ø§Ø±Ùĩ": 2624,
      "ost": 2625,
      "ĠÙħØ§ÙĦÙĬ": 2626,
      "9977": 2627,
      "ÙĪØ§Ø¯": 2628,
      "Ø§ÙħØ": 2629,
      "Ø§ÙħØ§": 2630,
      "ĠÙĪØµ": 2631,
      "Ġr": 2632,
      "DD": 2633,
      "BA": 2634,
      "ĠØ§ÙĦØ·Ø¨ÙĬØ¹": 2635,
      "ef": 2636,
      "ĠÙĥØª": 2637,
      "ĠØ§ÙĦØ·ØŃÙĨ": 2638,
      "ĠÙĬÙĪÙĦÙĬÙĪ": 2639,
      "Ø§Ø¦Ø¬": 2640,
      "ĠØªÙĤØ¯ÙĬÙħ": 2641,
      "977": 2642,
      "9957": 2643,
      "ang": 2644,
      "cc": 2645,
      "ĠÙĪØ²Ø§Ø±Ø©": 2646,
      "ĠâĢı": 2647,
      "Ġ$": 2648,
      "ØªØ§ØŃ": 2649,
      "ĠÙĥØ§ÙģØ©": 2650,
      "ĠØ£ÙĦÙħ": 2651,
      "ĠÙĪØ§Øª": 2652,
      "ews": 2653,
      "ĠØ§ÙĦÙħØŃØ¬Ø±": 2654,
      "ĠØ§ÙĦØ£Ø¹ÙħØ§ÙĦ": 2655,
      "Ø§ÙĬØª": 2656,
      "dd": 2657,
      "ÙģØ§Ø¡Ø©": 2658,
      "ĠÙħØ¹Ø¯": 2659,
      "ĠÙĪÙħØ¹": 2660,
      "Ø´Ø±ÙĥØ§Øª": 2661,
      "ĠÙħØ±Ø©": 2662,
      "ĠÙģÙĨ": 2663,
      "316": 2664,
      "ÙĪØ§Ø¦Ø¯": 2665,
      "ĠØ§ÙĦØ¬ÙĪØ¯Ø©": 2666,
      "Ø§ØµÙģØ§Øª": 2667,
      "Ø·ÙĤ": 2668,
      "Ø¤ÙĬØ©": 2669,
      "Ø§Ø¦ØŃ": 2670,
      "ĠØ¨Ø§Ø³ØªØ®Ø¯Ø§Ùħ": 2671,
      "9956": 2672,
      "Ø³Ø³Ø©": 2673,
      "ÙģØ´": 2674,
      "Ø¹ÙĬÙĨ": 2675,
      "Ø¨ÙĬØ": 2676,
      "Ø¨ÙĬØ§": 2677,
      "Ø§ÙĥÙĨ": 2678,
      "Ø³Ø¨ÙĪØ¹": 2679,
      "Ø§Ø³Ø·Ø©": 2680,
      "9989": 2681,
      "ction": 2682,
      "ÙĦÙĬÙģ": 2683,
      "ĠØ¹ÙĦÙĬÙĥ": 2684,
      "Ø¨ÙĬØ¨": 2685,
      "ĠØ§ÙĦØ³ÙĨØ©": 2686,
      "Ø·Ø§Øª": 2687,
      "ÙĪØ¹Ø§Øª": 2688,
      "ĠØ´ÙĨ": 2689,
      "nØ§ÙĦØ±": 2690,
      "nA": 2691,
      "ĠØ§ÙĦØ¯ÙĪÙĦÙĬ": 2692,
      "Ø¯Ø": 2693,
      "Ø¯Ø§": 2694,
      "ĠÙĥÙĪØ±": 2695,
      "ÙģØ§Ø¹": 2696,
      "ĠÙĥØ«ÙĬØ±": 2697,
      "Ø±ÙĬØ·": 2698,
      "ĠIn": 2699,
      "ĠØ¹Ø¨Ø¯Ø§ÙĦ": 2700,
      "ĠÙĦØ°ÙĦÙĥ": 2701,
      "ĠØ§ÙĦÙħØ§ÙĦ": 2702,
      "ĠØ³ÙĬØ§Ø±Ø§Øª": 2703,
      "ĠØ¬ÙĪØ¯Ø©": 2704,
      "306": 2705,
      "ĠØ§ÙĦØ±ØŃ": 2706,
      "ÙĪÙĬÙĨ": 2707,
      "Ø´Ø¨": 2708,
      "ÙĨØ³ÙĬØ©": 2709,
      "ĠÙģØ¨Ø±Ø§ÙĬØ±": 2710,
      "ĠÙĪØ§Ø³Øª": 2711,
      "ĠØ§ÙĦØªÙĪØ§ØµÙĦ": 2712,
      "ĠÙĪÙĩØ°Ø§": 2713,
      "ĠØ£ÙħØ±": 2714,
      "ĠÙħØ¨Ø§Ø´Ø±": 2715,
      "ĠØ¹ÙĨÙĩ": 2716,
      "Ø´Ø±Ø§Ø¡": 2717,
      "ĠØ§ÙĦØ¯ÙĪÙĦØ©": 2718,
      "Ø¬Ø²Ø§Ø¡": 2719,
      "Ø³ÙĬØ·": 2720,
      "ĠØ§ÙĦØ®Ø±Ø³Ø§ÙĨØ©": 2721,
      "Ġ13": 2722,
      "ĠØ±ÙĬÙħ": 2723,
      "ĠÙĦÙĢ": 2724,
      "ĦØª": 2725,
      "ÙĦØª": 2726,
      "da": 2727,
      "ĠØ§ÙĦÙģØµÙĦ": 2728,
      "ĠØ¨ÙĢ": 2729,
      "ĠÙĪØ¬Ùĩ": 2730,
      "ĠÙħØ®ØªÙĦÙģØ©": 2731,
      "ĠØ§ÙĦØ®Ø¯ÙħØ§Øª": 2732,
      "ĠØ§ÙĦØ«Ø§ÙĨÙĬØ©": 2733,
      "ĠØ§ÙĦÙħØµØ±ÙĬ": 2734,
      "ĠÙĨØ¬": 2735,
      "ĠØ£ØºØ³Ø·Ø³": 2736,
      "up": 2737,
      "ĠØ¶ÙħÙĨ": 2738,
      "ĠØ§ÙĦÙħÙĪØ¶ÙĪØ¹": 2739,
      "ØºØ°ÙĬØ©": 2740,
      "ĠØ§Ø·": 2741,
      "ØŃØ¨": 2742,
      "ÙĪÙĨØ³": 2743,
      "ĠÙħØ³ØªÙĪÙī": 2744,
      "ĠØ´ÙĬ": 2745,
      "ĠÙĪØ§ÙĨ": 2746,
      "Ġbe": 2747,
      "Ø¤ÙĪÙĦ": 2748,
      "âĢİ": 2749,
      "Ġ26": 2750,
      "ĠØ§Ø«": 2751,
      "ĠØ§ÙĦÙĦÙĬ": 2752,
      "ĠØ§ÙĦÙĤØ§ÙĨÙĪÙĨ": 2753,
      "Ø®Ùģ": 2754,
      "ÙĥØ§Ø±": 2755,
      "ĠÙģØ¹": 2756,
      "Ø®Ø±Ø¬": 2757,
      "em": 2758,
      "Ø¨ÙĪÙĦ": 2759,
      "Ġ2015": 2760,
      "ÙħÙĬØ²Ø©": 2761,
      "ĠÙħÙĦÙĬÙĪÙĨ": 2762,
      "Ø±ÙĬØ¹": 2763,
      "Ø·Ø¨ÙĬÙĤØ§Øª": 2764,
      "ĠØ§ÙĦØªÙĥØ³ÙĬØ±": 2765,
      "Ø¨Ø±Ø©": 2766,
      "966": 2767,
      "Ø±ÙĪÙģ": 2768,
      "ĠÙĪØ§ÙĦÙĤ": 2769,
      "ÙĨØ§Ø©": 2770,
      "ĠØ¨Ø§ÙĦØ£": 2771,
      "ĠØªÙĤÙĪÙħ": 2772,
      "ap": 2773,
      "ĠØ±ÙĬØ§Ø¶": 2774,
      "nT": 2775,
      "ĠØ§ÙĦØªØ§Ø±ÙĬØ®": 2776,
      "ĠØ°ÙĥØ±": 2777,
      "ĠØ§ÙĦØ§ØªØµØ§ÙĦ": 2778,
      "nØµ": 2779,
      "ĠÙħØ¨Ø§Ø´Ø±Ø©": 2780,
      "Ø¨ÙĬØ¹Ø§Øª": 2781,
      "ĠØ§ÙĦØ²ÙĬ": 2782,
      "ÙĨØ³Ø¨Ø©": 2783,
      "ĠØ§ÙĦØ«ÙĤÙĬÙĦØ©": 2784,
      "ÙĪØ¨Ø": 2785,
      "ÙĪØ¨Ø§": 2786,
      "ĠØ§ÙĦØ¹Ø±Ø¨": 2787,
      "ĠÙĬØ": 2788,
      "ĠÙĬØ§": 2789,
      "ĠØ§ÙĦØ´Ø§Ø´Ø©": 2790,
      "ĠØ£ÙħØ§Ùħ": 2791,
      "ĠÙħÙĪØ§ÙĤØ¹": 2792,
      "Ø§ÙģØ¸Ø©": 2793,
      "9937": 2794,
      "ĠÙĨØµ": 2795,
      "ØªØ±Ø§Ùĥ": 2796,
      "ĠÙĨØ´Ø±": 2797,
      "967": 2798,
      "ÙĤÙĩ": 2799,
      "ist": 2800,
      "Ø¹ÙĦÙĨ": 2801,
      "Ø¹Ø¯Ø¯": 2802,
      "nÙĪÙĤ": 2803,
      "ĠØ¨Ø§ÙĦÙĥ": 2804,
      "ĠØ¨Ø§Ùĥ": 2805,
      "Ø§Ø¹Ø¨": 2806,
      "ĠØªØ±ÙĥÙĬØ§": 2807,
      "Ø¯ÙĬÙĨØ": 2808,
      "Ø¯ÙĬÙĨØ§": 2809,
      "Ø²ÙĬÙĨ": 2810,
      "Ø§ØµØ±": 2811,
      "ĠØ§ÙĦØµÙĪØ±": 2812,
      "ĠØ§ÙĦØµÙĨØ§Ø¹ÙĬØ©": 2813,
      "ĠÙĬØ¹ÙħÙĦ": 2814,
      "ĠÙģÙĬÙħØ§": 2815,
      "ĠØ§ÙĦÙħÙĪØ±Ø¯": 2816,
      "Ø¬Ø§Ø¨": 2817,
      "Ø¬ÙĦÙĬØ²ÙĬØ©": 2818,
      "ĠØ§ÙĦØŃÙ": 2819,
      "ĠØ§ÙĦØŃÙĦ": 2820,
      "ĠØ¹Ø´Ø±": 2821,
      "ĠØ®Ø§Øµ": 2822,
      "ĠØ§ÙĦØ£Ø³Ø·ÙĪØ§ÙĨØ©": 2823,
      "ĠÙĦÙĦÙĨ": 2824,
      "Ø¹ÙĦÙĤ": 2825,
      "ÙĥÙĦØ©": 2826,
      "ĠØ£Ø¨Ø±ÙĬÙĦ": 2827,
      "Ġ2014": 2828,
      "ÙģÙĬØ°": 2829,
      "Ġ2013": 2830,
      "ĠØ§ÙĦÙħØ±Ø£Ø©": 2831,
      "ĠØ§ÙĦØ®Øµ": 2832,
      "ĠØ§ÙĦØŃÙħ": 2833,
      "ĠØ¨ØªÙĨ": 2834,
      "ĠØ§ÙĦÙħÙĨØ§": 2835,
      "ĠØ¨Øµ": 2836,
      "ĠØ§ÙĦØªØ¯Ø§ÙĪÙĦ": 2837,
      "ÙĪÙĬÙħ": 2838,
      "Ø§Ø¯Ø±Ø©": 2839,
      "ĠØ§ÙĦÙħØ«": 2840,
      "ĠÙħØ³ÙĦØ³ÙĦ": 2841,
      "ĠÙĬÙĤÙĪÙħ": 2842,
      "ÙģÙĬØ§Øª": 2843,
      "ĠÙħØ³ØªØ¹ÙħÙĦØ©": 2844,
      "ud": 2845,
      "ĠÙĪØªØ¹": 2846,
      "nØ§ÙĤØ±Ø£": 2847,
      "847": 2848,
      "ĠÙħØ§ÙĥÙĬÙĨØ§Øª": 2849,
      "ĠÙĪØ¥ÙĨ": 2850,
      "ĠÙĦØ§ÙĨ": 2851,
      "ĠØ§ÙĦØ³ÙĦØ§Ùħ": 2852,
      "ĠØ¹ÙĤ": 2853,
      "Ø§Ø¦Ø¹Ø©": 2854,
      "ĠÙĪØ§ÙĦØ´": 2855,
      "ĠÙħÙĥØ§ÙģØŃØ©": 2856,
      "ÙĪØ§ØŃ": 2857,
      "ĠØ¬Ùħ": 2858,
      "Ø·Ùħ": 2859,
      "ube": 2860,
      "ĠØ§ÙĦØ¹ÙħÙĦØ§Øª": 2861,
      "ĠØ¨ÙĨÙĩØ§": 2862,
      "ĠØ§ÙĦÙħÙĨØ²ÙĦ": 2863,
      "ĠØ§ÙĦØ«ÙĦØ§Ø«": 2864,
      "ĠØ§ÙĦÙĤØ¯": 2865,
      "art": 2866,
      "ÙģØ§ÙĦ": 2867,
      "ØµÙĨÙĬÙģ": 2868,
      "ĠÙħØŃØ¬Ø±": 2869,
      "du": 2870,
      "Ø§ÙĩØ±": 2871,
      "ĠÙĪØŃØ¯Ø©": 2872,
      "ĠÙĪØ³ÙĦÙħ": 2873,
      "ÙĪÙĦØ": 2874,
      "ÙĪÙĦØ§": 2875,
      "ĠØ±Ø£": 2876,
      "Ø¬Ø§ÙĦ": 2877,
      "Ġ17": 2878,
      "Ø§ÙĩÙĬÙħ": 2879,
      "ĠØªØ¯Ø§ÙĪÙĦ": 2880,
      "Ø²ÙĬØ§": 2881,
      "ĠØ§Ø³Ø¹Ø§Ø±": 2882,
      "ĠØ§ÙĦØ´Ø¹": 2883,
      "Ø§Ø¨Øª": 2884,
      "ĠÙĥÙĬ": 2885,
      "Ø°Ø±": 2886,
      "Ġ&": 2887,
      "ÙĢÙĢÙĢÙĢÙĢÙĢÙĢÙĢ": 2888,
      "ĠØ¨ÙĬØª": 2889,
      "Ø¯ÙĬØ": 2890,
      "Ø¯ÙĬØ§": 2891,
      "ØªØ±ÙĬ": 2892,
      "ĠØŃÙĬÙĨ": 2893,
      "ÙĩÙħØ©": 2894,
      "ĠØ§ÙĦØ³Ø±": 2895,
      "bb": 2896,
      "one": 2897,
      "ĠØ§ÙĦØ®ÙĬ": 2898,
      "ĠØ§ÙĦÙĨØ¸Ø§Ùħ": 2899,
      "Ġ{": 2900,
      "ĠØ´Ø§Ø±": 2901,
      "Ø³Ø§Øª": 2902,
      "Ø§Ø¶ÙĬØ¹": 2903,
      "ĠØ§ÙĦÙĤØ±Ø¢ÙĨ": 2904,
      "ĠØ§ÙĦÙĪØ·ÙĨÙĬ": 2905,
      "956": 2906,
      "947": 2907,
      "ĠØ§ÙĨØ¯": 2908,
      "ĠÙĦØ¯Ùī": 2909,
      "ÙĪØ§Ø±Ø§Øª": 2910,
      "ĠØµÙĦÙī": 2911,
      "9975": 2912,
      "ĠØŃØµ": 2913,
      "ĠØ§ÙĦØ¬Ø±Ø§ÙĨÙĬØª": 2914,
      "ĠØ§Øµ": 2915,
      "ĠØ§ÙĦØ«Ø§ÙĨ": 2916,
      "ĠÙĤØ§Ùħ": 2917,
      "Ø¨ÙĪØ¨": 2918,
      "ĠÙģØ±ÙĬÙĤ": 2919,
      "ĠØ§ÙĦØ¯Ø§Ø®": 2920,
      "Ġ27": 2921,
      "ĠØ¯ÙĦÙĬÙĦ": 2922,
      "ĠâĢ¬": 2923,
      "ea": 2924,
      "ĠÙĦÙĦØ³": 2925,
      "ĠØ§ÙĦØ³Ùħ": 2926,
      "ĠØ£ÙĦÙģ": 2927,
      "114": 2928,
      "ÙĪØ¬Ø©": 2929,
      "ĠÙĨÙģ": 2930,
      "ĠØ§ÙĦÙĨÙĤ": 2931,
      "ĠÙħÙĦØ§Ø¨Ø³": 2932,
      "ĠØ§ÙĦØŃØ¯": 2933,
      "ØŃÙĦÙĤØ©": 2934,
      "ĠØ¥Ù": 2935,
      "ĠØ¥ÙĦ": 2936,
      "ÙĪÙĨÙĬØ³": 2937,
      "ĠÙĬÙģ": 2938,
      "ĠÙĥØ§ÙħÙĦ": 2939,
      "Ġ:\\": 2940,
      "ĠØ¥Ø°": 2941,
      "ÙĦØ§Ø©": 2942,
      "Ø¯Ø±Ø³Ø©": 2943,
      "9976": 2944,
      "ĠØ³Ø¹": 2945,
      "ĠØ§Ø¶": 2946,
      "ĠØ¯ÙĪÙĦØ©": 2947,
      "ĠØ§ÙĦØ·Ù": 2948,
      "ĠØ§ÙĦØ·ÙĦ": 2949,
      "oc": 2950,
      "ĠØ¯Ø¹": 2951,
      "ĠÙĨØŃÙĪ": 2952,
      "ĠØ§ÙĦÙģÙĪØ±ÙĥØ³": 2953,
      "ÙĬØ±ÙĬØ§": 2954,
      "ÙĪÙĬØ§Øª": 2955,
      "ÙĨØ¨": 2956,
      "ĠØ£Ø®": 2957,
      "ĠØ¨Ø§ÙĦØ¥Ø¶Ø§ÙģØ©": 2958,
      "ĠØ§ÙĦØ¬Ø§ÙħØ¹Ø©": 2959,
      "Ø¯Ø§Øª": 2960,
      "ĠÙħÙĦÙħ": 2961,
      "ØºØ±Ø¨": 2962,
      "ĠÙĦØ¨ÙĨ": 2963,
      "nØ§ÙĨ": 2964,
      "ss": 2965,
      "ÙģÙĬØ©": 2966,
      "Ġre": 2967,
      "ĠØ§ÙĦØ¨Ø¯": 2968,
      "ÙĦÙĬØ": 2969,
      "ÙĦÙĬØ§": 2970,
      "ÙĪÙĬÙĤ": 2971,
      "Ø±Ø´": 2972,
      "202": 2973,
      "ph": 2974,
      "ÙĥÙĬÙĬÙģ": 2975,
      "ØªØ±Ø§ØªÙĬØ¬": 2976,
      "Ø®Ø±Ø©": 2977,
      "ok": 2978,
      "ĠØ§ÙĦÙĢ": 2979,
      "ĠÙĨØ´": 2980,
      "Ø§Ø¦ÙĬÙĦ": 2981,
      "ĠÙĢ": 2982,
      "ĠÙĥÙĦÙħØ©": 2983,
      "rusher": 2984,
      "nP": 2985,
      "ĠØºØ³ÙĦ": 2986,
      "ĠÙĪØ¢": 2987,
      "ĠØ£Ø¹ÙħØ§ÙĦ": 2988,
      "Ø¬Ø§ÙĨ": 2989,
      "ĠØ¥Ø¹Ø§Ø¯Ø©": 2990,
      "ĠØ§ÙĦØ¯ÙĪÙĦÙĬØ©": 2991,
      "979": 2992,
      "ie": 2993,
      "ĠØ´Ø¨ÙĥØ©": 2994,
      "Ø§Ø¬Ùħ": 2995,
      "978": 2996,
      "ĠØ§ÙĦØ¬ÙĩØ§Ø²": 2997,
      "ĠØ¯ÙĪØ±Ø©": 2998,
      "ĠÙĦÙħÙĨ": 2999,
      "ÙĪØ§Ø±ØªØ²": 3000,
      "ØµÙĬÙĨ": 3001,
      "ĠÙĤØ¶": 3002,
      "ĠØ§ÙĦÙħØ®ØªÙĦÙģØ©": 3003,
      "ĠØ§ÙĦØ£Ø·ÙģØ§ÙĦ": 3004,
      "ĠØªÙģØ³ÙĬØ±": 3005,
      "Ø°Ø©": 3006,
      "ĠØ§ÙĦØ¥ÙĨØªØ§Ø¬": 3007,
      "ĠØ§ÙĦÙĤØ§ÙĩØ±Ø©": 3008,
      "ĠØ§ÙĦÙħØ´Ø±ÙĪØ¹": 3009,
      "ĠÙĤØ¯Ø±Ø©": 3010,
      "ĠØ¨ÙĥÙĦ": 3011,
      "ĠØ§ÙĦØŃØµÙī": 3012,
      "ĠØ§ÙĦÙĥØªØ§Ø¨": 3013,
      "ĠØ§ÙĦÙĬÙħÙĨ": 3014,
      "Ø³Ø¨Ø§Ø¨": 3015,
      "0641": 3016,
      "Ø³ÙĬØ©": 3017,
      "ÙĤÙĬÙħ": 3018,
      "Ġde": 3019,
      "Ù¡": 3020,
      "Ø§Ø²ÙĬ": 3021,
      "983": 3022,
      "Ù¢": 3023,
      "ĠØ§ÙĦØ¸": 3024,
      "pt": 3025,
      "ĠÙĪØ·": 3026,
      "ØªÙĩÙħ": 3027,
      "ÙĥÙĬÙĦ": 3028,
      "ber": 3029,
      "ĠØ§ÙĦÙħØ¬ØªÙħØ¹": 3030,
      "ĠØ´ÙĥÙĦ": 3031,
      "ØªÙĪÙĨ": 3032,
      "ĠÙĪÙĦÙħ": 3033,
      "ĠÙĦÙĦØ´": 3034,
      "ĠØ£Ø¹": 3035,
      "ĠØŁ": 3036,
      "ĠÙĤÙĪØ©": 3037,
      "ĠÙĬÙĪØ¬Ø¯": 3038,
      "Ø¹Ø¶Ø§Ø¡": 3039,
      "ight": 3040,
      "9947": 3041,
      "ĠÙĪØªÙĪ": 3042,
      "ĠÙĩØ¯": 3043,
      "9740641": 3044,
      "Ø¬ÙħØ©": 3045,
      "9981": 3046,
      "ĠØ§ÙĦØ¬Ø³Ùħ": 3047,
      "ĠÙĬØ®": 3048,
      "net": 3049,
      "Ø¨Ø§ÙĦ": 3050,
      "ĠØ§ÙĦÙħÙĨØ·ÙĤØ©": 3051,
      "Ø§ÙĬÙģ": 3052,
      "ĠØ¨ÙĪÙĦ": 3053,
      "ĠØ§ÙĦÙħØ§Ø¡": 3054,
      "ÙĩØ§Ø¨": 3055,
      "==": 3056,
      ").\\": 3057,
      "Ø«Ùħ": 3058,
      "145": 3059,
      "Ø§Ø¨ÙĤØ©": 3060,
      "ĠØªØ¹Ø§ÙĦÙī": 3061,
      "Ø¦ÙĦØ©": 3062,
      "âĢŃ": 3063,
      "ØªÙħØ§Ùħ": 3064,
      "Ø¶Ø§ÙĨ": 3065,
      "ĠØ§Ø®ØªÙĬØ§Ø±": 3066,
      "Ø§Ø±Ø¦": 3067,
      "Ø¹ÙħÙĦÙĬØ©": 3068,
      "ÙģÙĬÙĨ": 3069,
      "965": 3070,
      "ĠØ¨Ø§ÙĦÙĤ": 3071,
      "Ø§ÙĩØ": 3072,
      "Ø§ÙĩØ§": 3073,
      "ĠØ£Ø«ÙĨØ§Ø¡": 3074,
      "ĠØªÙĩØªØ²": 3075,
      "ĠÙģÙĬØ¯ÙĬÙĪ": 3076,
      "957": 3077,
      "Ø§Ø¦Ø±Ø©": 3078,
      "Ø®Ø¯ÙħØ©": 3079,
      "ÙĪØ³Ø©": 3080,
      "ĠÙĤØ¯Ùħ": 3081,
      "ÙħØŃ": 3082,
      "317": 3083,
      "Ø±Ùī": 3084,
      "200": 3085,
      "nØªØ³ÙĪÙĤ": 3086,
      "Ø¶Ø§Ùģ": 3087,
      "Ø§ÙĦØ³ÙĬ": 3088,
      "ĠØ§ÙĦÙħØ²": 3089,
      "ĠØªÙĪÙģ": 3090,
      "od": 3091,
      "ĠÙħØ§ÙĦÙĬØ²ÙĬØ§": 3092,
      "ive": 3093,
      "----": 3094,
      "iz": 3095,
      "ith": 3096,
      "ÙĪØ¬ÙĪØ¯": 3097,
      "ĠÙĪØ§ÙĦØ±": 3098,
      "ĠØ¨Ø§Ø¨": 3099,
      "Ø®ÙģØ¶": 3100,
      "ÙģÙĪ": 3101,
      "Ġ23": 3102,
      "Ø§ÙĦØ¬": 3103,
      "Ø§ØŃÙ": 3104,
      "Ø§ØŃÙĦ": 3105,
      "ØºØ§ÙĦ": 3106,
      "ÙħÙĬØ³": 3107,
      "ĠØªØ¬ÙĩÙĬØ²": 3108,
      "ĠØ¨ÙĪØ§Ø³Ø·Ø©": 3109,
      "ÙĳÙı": 3110,
      "ĠÙħÙĪØ§Ø¯": 3111,
      "ÙĪÙĦÙĩ": 3112,
      "ĠØªØªÙħ": 3113,
      "Ø¤Ø§ÙĦ": 3114,
      "ĠØ§ÙĦÙĨØ§ÙĤÙĦ": 3115,
      "ĠÙħØ®ØªÙĦÙģ": 3116,
      "Ø¹ÙĦØ§ÙĨ": 3117,
      "ÙłÙł": 3118,
      "ca": 3119,
      "ĠÙĦÙĤ": 3120,
      "ĠØ§ÙĦØµÙģØŃØ©": 3121,
      "Ø«ÙĬ": 3122,
      "ÙħÙĩÙĪØ±ÙĬØ©": 3123,
      "ĠØ§ÙĦÙģÙĦØ³Ø·": 3124,
      "367": 3125,
      "ĠØ§ÙĦØ³Ø¹ÙĪØ¯ÙĬ": 3126,
      "ĠØ±ÙĬØ§ÙĦ": 3127,
      "206": 3128,
      "ĠÙĬØµ": 3129,
      "ÙħÙĨØªØ¬Ø§Øª": 3130,
      "ĠØ§ÙĦØ¹Ø¯": 3131,
      "\\\"ØĮ": 3132,
      "ĠØ§ÙĦØ¬Ø¨Ø³": 3133,
      "ĠÙģØ£": 3134,
      "ĠÙĪØªÙĨ": 3135,
      "ĠØ´Ø¹Ø±": 3136,
      "ĠÙĦØ´": 3137,
      "ace": 3138,
      "ÙĪÙħÙĬØ©": 3139,
      "ĠØ§ÙĦØ£ÙħÙĨ": 3140,
      "ĠØµÙ": 3141,
      "ĠØµÙĦ": 3142,
      "Ø§ÙĪÙĦØ©": 3143,
      "ĠØŃØ§ÙĦ": 3144,
      "ĠØºØ³ÙĬÙĦ": 3145,
      "ĠØ®Ø§Ø±Ø¬": 3146,
      "ĠØ²ÙĬØ§Ø¯Ø©": 3147,
      "Ø´Ø§Ø±ÙĬØ¹": 3148,
      "are": 3149,
      "ha": 3150,
      "ĠÙĤØ§ÙĨÙĪÙĨ": 3151,
      "ĠÙĪØ§ÙĦØ°ÙĬ": 3152,
      "ĠØ¨Ø§ÙĦØª": 3153,
      "ĠØ¬ÙħØ¹": 3154,
      "ĠØ²ÙĬØª": 3155,
      "ØµÙĦØ§ØŃ": 3156,
      "ĠØ¬ÙĬØ¯": 3157,
      "book": 3158,
      "Ø±ÙĬÙĥ": 3159,
      "ĠØ§ÙĦÙģÙĬØ¯ÙĬÙĪ": 3160,
      "ĠØ§ÙĦØ§Ø¨ØªØ¯": 3161,
      "ÙĩØ§Øª": 3162,
      "Ø§Ø·Ø±": 3163,
      "ĠØ§ÙĦØ£ÙĥØ«Ø±": 3164,
      "ĠÙħØ´Ø§ÙĩØ¯Ø©": 3165,
      "ĠØ§ÙĦØµØ§ÙĨØ¹": 3166,
      "ØªØ±ÙĥÙĬ": 3167,
      "ĠÙħÙĤØ§Ø¨ÙĦ": 3168,
      "ĠØ§ÙĦÙĪØ·ÙĨÙĬØ©": 3169,
      "ran": 3170,
      "Ġst": 3171,
      "ĠØ§ÙĦØ³ÙĬØ¯": 3172,
      "âĢ¬": 3173,
      "ĠØ¯Ø±Ø¬Ø©": 3174,
      "ĠØ¥Ùħ": 3175,
      "ĠØ§ÙĦÙĤØ¯Ùħ": 3176,
      "ĠØ§ÙĦÙħÙĨÙĪØ±Ø©": 3177,
      "9974": 3178,
      "ĠØ§ÙĦØ¯Ø®ÙĪÙĦ": 3179,
      "ĠØ¨ÙĪØ±": 3180,
      "356": 3181,
      "nÙĥØ³Ø§Ø±Ø§Øª": 3182,
      "ide": 3183,
      "ÙĪÙĨÙĬØ³ÙĬØ§": 3184,
      "ØªÙĨØ§": 3185,
      "ĠØ¹ÙĦØ§Ø¬": 3186,
      "ĠÙĪÙĥØ§ÙĨ": 3187,
      "ÙĢÙĢÙĢ": 3188,
      "ĠØ¢Ù": 3189,
      "ØªÙħØ±": 3190,
      "ØºØ¨": 3191,
      "ĠØ§ÙĦØ§Ø¬ØªÙħØ§Ø¹ÙĬ": 3192,
      "Ø±Ø³Ø§ÙĦ": 3193,
      "ÙĬØ±Ø§Øª": 3194,
      "ĠØ¢ÙĦ": 3195,
      "ĠØ³ÙĪØ§Ø¡": 3196,
      "ÙĪÙĦØ§Øª": 3197,
      "ĠØ§ÙĦÙħØµØ±ÙĬØ©": 3198,
      "ĠØ§ÙĦÙħØ¯ÙĬÙĨØ©": 3199,
      "line": 3200,
      "ĠÙĦÙĦØ¹": 3201,
      "ĠÙģÙĦØ§": 3202,
      "ĠØ¹Ø¯Ø©": 3203,
      "Ø·Ø§ÙĨ": 3204,
      "Ø¬Ø±Ø©": 3205,
      "ÙĥØ±ÙĬØ©": 3206,
      "ĠØªØ´ØºÙĬÙĦ": 3207,
      "Ø¹Ùī": 3208,
      "ĠÙĨØ¸": 3209,
      "Ø¹Ø±ÙĪÙģ": 3210,
      "ĠØ§ÙĦØ®Ù": 3211,
      "ĠØ§ÙĦØ®ÙĦ": 3212,
      "ĠØ§ÙĦÙĥØ±ÙĬÙħ": 3213,
      "ĠÙĦØ¯": 3214,
      "ĠØ§ÙĦÙģÙĨ": 3215,
      "nØ³Ø¹Ø±": 3216,
      "ĠÙĨØ¸Ø±": 3217,
      "876": 3218,
      "ĠØ§ÙĦØ£Ø³ÙĩÙħ": 3219,
      "nØ§ÙĦÙģ": 3220,
      "ĠØ¬Ø¹ÙĦ": 3221,
      "ĠØ§ÙĦÙħØºØ±Ø¨": 3222,
      "ĠØ±Ø£Ø³": 3223,
      "ĠÙĪØ§ÙĦÙĥ": 3224,
      "Ø²ÙħØ©": 3225,
      "ĠØŃÙĪ": 3226,
      "ĠØªØ·ÙĪÙĬØ±": 3227,
      "Ġ500": 3228,
      "Ø±ÙĬØ³": 3229,
      "ĠÙĪØ§ÙĦØ¨": 3230,
      "now": 3231,
      "Ø£Ù": 3232,
      "Ø·Ø¹": 3233,
      "Ø§Ø¹Ùħ": 3234,
      "ĠØ§ÙĦØ³ÙĬÙĦÙĬ": 3235,
      "Ø«ÙĤ": 3236,
      "ĠØ§ÙĦØ¨ÙĬØ§ÙĨØ§Øª": 3237,
      "ØªÙĬØ¬Ø©": 3238,
      "nÙĩÙĦ": 3239,
      "ĠÙ¢": 3240,
      "cf": 3241,
      "ĠØªØ¹Ø±Ùģ": 3242,
      "**": 3243,
      "ÙĪØ³ÙĬØ§": 3244,
      "ĠÙĥÙĩØ±Ø¨": 3245,
      "ĠØ£Ø®Ø¨Ø§Ø±": 3246,
      "ĠÙĪØ³ÙĬ": 3247,
      "ĠØ£Ø¹ÙĦÙī": 3248,
      "Ø¯Ùĩ": 3249,
      "9946": 3250,
      "ĠØ§ÙĦÙħØ±Ùĥ": 3251,
      "ĠÙĦØ¯ÙĬÙĨØ§": 3252,
      "ĠÙĦÙĦØ¬": 3253,
      "ÙĤÙĬÙĬÙħ": 3254,
      "Ø§ÙĪÙĬØ©": 3255,
      "216": 3256,
      "212": 3257,
      "Ø§ØªØ¨": 3258,
      "nt": 3259,
      "Ġby": 3260,
      "ĠÙĥØ§Ø±": 3261,
      "ĠØ§ÙĦØ¨Ø±ÙĬØ¯": 3262,
      "ĠØ£ÙĦÙħØ§ÙĨÙĬØ§": 3263,
      "Ø§Ø¯ÙĤ": 3264,
      "ĠØ§ÙĦØ¹Ø§ÙĦÙħÙĬ": 3265,
      "WhatsApp": 3266,
      "9978": 3267,
      "Ø§Ø±ÙĬØ§Øª": 3268,
      "Ø¹Ø§ÙĬØ©": 3269,
      "357": 3270,
      "Ø§Ø¬ÙĩØ©": 3271,
      "Ø£ÙĦ": 3272,
      "ÙĩÙĪÙĦØ©": 3273,
      "ĠÙĬÙĤÙĪÙĦ": 3274,
      "Ø¬Ø§Ùĩ": 3275,
      "Ø§ÙĬØ¯": 3276,
      "ĠØ§ÙĦØ±ÙĪ": 3277,
      "ĠØ£ØŃØ¯Ø«": 3278,
      "ĠØ§ÙĦØºØ°": 3279,
      "ÙĦÙĬÙĩ": 3280,
      "ĠØªÙĤØ±ÙĬØ±": 3281,
      "ĠÙĪØ§ÙĦØ®": 3282,
      "Ø´ÙĨ": 3283,
      "ĠÙĪØ¹ÙĦÙī": 3284,
      "ĠÙĪØ²ÙĬØ±": 3285,
      "\\\".\\": 3286,
      "ĠØŃÙĤÙĪÙĤ": 3287,
      "Ø·Ø§ÙĦ": 3288,
      "Ø¬Ø±Ø¨Ø©": 3289,
      "ĠØ¨ÙĬØ±": 3290,
      "Ø®ÙĦØµ": 3291,
      "ry": 3292,
      "Ø§ÙĨÙĩ": 3293,
      "ĠØªØŃÙĤÙĬÙĤ": 3294,
      "ĠØ§ÙĪÙĨ": 3295,
      "BFD": 3296,
      "Ġ2012": 3297,
      "_%": 3298,
      "Ġ250": 3299,
      "ĠØ¥Ø¬Ø±Ø§Ø¡": 3300,
      "ĠØ¹Ø±Ø¨ÙĬ": 3301,
      "934": 3302,
      "ĠÙĪÙģØ±": 3303,
      "ÙĬÙĨÙĬØ§": 3304,
      "mail": 3305,
      "ĠØ§ÙĦØ´Ø¹Ø¨": 3306,
      "ĠÙĬØ£": 3307,
      "ĠØ¬ÙĪ": 3308,
      "931": 3309,
      "ĠÙĦÙĦØº": 3310,
      "ĠØ¨Ø§ÙĦØ±ÙĬØ§Ø¶": 3311,
      "ĠØ¬ÙĨÙĬÙĩ": 3312,
      "org": 3313,
      "ĠØ¯Ùħ": 3314,
      "Ø±ÙĬØª": 3315,
      "104": 3316,
      "ĠØ§ÙĦÙħØ±ÙĥØ²": 3317,
      "ĠØ£ÙĬØ§Ùħ": 3318,
      "Ġj": 3319,
      "ĠÙĦÙĦÙģ": 3320,
      "ĠØ§ÙĦØ±ÙĤÙħ": 3321,
      "ĠØ§ÙĦØ±Ùħ": 3322,
      "Ø±ÙĪÙĬØ¯": 3323,
      "ĠØªÙĪÙģÙĬØ±": 3324,
      "Ø§Ø²Ùħ": 3325,
      "ÙĥØªØ¨Ø©": 3326,
      "Ø§ØªÙĩØ§": 3327,
      "ĠÙħØ¬Ø§ÙĨÙĬØ©": 3328,
      "ĠØ®ØµÙħ": 3329,
      ");": 3330,
      "ĠØ¨Ø±Ø§ÙħØ¬": 3331,
      "ĠØ±Ø¨": 3332,
      "925": 3333,
      "Ġ28": 3334,
      "nØ§Ø³Øª": 3335,
      "Ø±Ø¨ÙĪÙĨØ§Øª": 3336,
      "BFC": 3337,
      "ĠØ§ÙĦØ¢Ø®Ø±": 3338,
      "ĠØ¯Ø±Ø§Ø³Ø©": 3339,
      "Ø´Ø±ÙĬÙĨ": 3340,
      "pr": 3341,
      "964": 3342,
      "ĠÙĦÙĨØ§": 3343,
      "ĠØ§ÙĦØŃÙĥÙĪÙħØ©": 3344,
      "ĠÙħÙĪØ¶ÙĪØ¹": 3345,
      "ĠØ§ÙĦÙħØ·Ø§ØŃÙĨ": 3346,
      "ĠØ§ÙĦØ´Ùĩ": 3347,
      "004": 3348,
      "âĢ¦\\": 3349,
      "ear": 3350,
      "ĠØ£ÙĤÙĦ": 3351,
      "Ø²ÙĦÙĬØ©": 3352,
      "nRead": 3353,
      "954": 3354,
      "ĠØ§ÙĦØ§Ø´": 3355,
      "cd": 3356,
      "307": 3357,
      "ĠØ§ÙĦØºØ±": 3358,
      "ĠØ§Ùĩ": 3359,
      "ĠØ·Ø±ÙĤ": 3360,
      "ah": 3361,
      "ÙĦÙħÙĬÙĨ": 3362,
      "ðŁ": 3363,
      "ĠâĿ": 3364,
      "ĠØ£ÙħØ±ÙĬ": 3365,
      "ĦØ§Ø¡": 3366,
      "ÙĦØ§Ø¡": 3367,
      "036": 3368,
      "ĠØ¨ÙħÙĨ": 3369,
      "ØªØ§Ø±": 3370,
      "ĠYou": 3371,
      "ontact": 3372,
      "DC": 3373,
      "ĠØ§ÙĦÙħØ§Ø¶ÙĬ": 3374,
      "ØŃØ§Ø¨": 3375,
      "ØªØ±ÙĪÙĨÙĬ": 3376,
      "ĠÙĥÙĪÙĨ": 3377,
      "Ø§Ø¬Ø¹": 3378,
      "ĠÙģÙĪÙĤ": 3379,
      "ĠØªØ¤": 3380,
      "ĠÙĦØ¨": 3381,
      "ÙĨØ§Øª": 3382,
      "ĠÙĦÙĩÙħ": 3383,
      "ov": 3384,
      "ĠÙħÙĬÙĦ": 3385,
      "ÙĤØª": 3386,
      "ĠÙĪØ§ÙĦØµ": 3387,
      "ĠØ§ÙĦØ±Ø®Ø§Ùħ": 3388,
      "9967": 3389,
      "Ø§ÙĦØ³": 3390,
      "Ø§Ø¦ÙĦØ©": 3391,
      "ĠØ§ÙĦØªÙī": 3392,
      "203": 3393,
      "ĠØ§ÙĦØ²Ø±": 3394,
      "ĠÙ¡": 3395,
      "ĠØºØ±Ø¨": 3396,
      "ĠAl": 3397,
      "nØ§Ø®": 3398,
      "936": 3399,
      "ĠØ£Ø¬": 3400,
      "ĠØ§ÙĦØ¬Ø§Ùħ": 3401,
      "Ø³ÙĪÙĨ": 3402,
      "ĠØ³ÙĪØ±Ø©": 3403,
      "ĠØ§ÙĦØ³Ø¨": 3404,
      "ĠØ§ÙĦØ¨Ø·": 3405,
      "ĠØŃÙĥ": 3406,
      "ĠÙĥÙĦÙĬØ©": 3407,
      "945": 3408,
      "ĠØ£Ø´ÙĩØ±": 3409,
      "ĠØ§ÙĦØ¯ÙĪ": 3410,
      "ÙĨØ¯ÙĬ": 3411,
      "ĠØ§ÙĦÙĥÙħ": 3412,
      "ĠØºÙĬØ§Ø±": 3413,
      "ĠØ§ÙĦØ§Øµ": 3414,
      "ĠØ§Ø±ØªÙģØ§Ø¹": 3415,
      "235": 3416,
      "ĠØ§ÙĦØ¥Ø¹ÙĦØ§Ùħ": 3417,
      "ĠÙĤØ¯Ø±": 3418,
      "ĠØªØŃØ¯ÙĬØ¯": 3419,
      "ĠÙĨÙģØ³Ùĩ": 3420,
      "ĠÙħØ¬Ø§ÙĨØ§": 3421,
      "vi": 3422,
      "nÙĥÙĬÙģÙĬØ©": 3423,
      "Ø²Ø§ÙĦ": 3424,
      "ĠØ§ÙĦØ±Ø·Ø¨": 3425,
      "Ø§Ø¬Ø¯": 3426,
      "ĠØ§ÙĦÙĥÙĪØ§Ø±ØªØ²": 3427,
      "ÙĪÙħÙĬØª": 3428,
      "Ø´ÙĤ": 3429,
      "lat": 3430,
      "981": 3431,
      "ĠØ¬Ø¯Ø©": 3432,
      "ĠØ§ÙĦÙħÙĪØ±Ø¯ÙĬÙĨ": 3433,
      "ĠØ±ÙħØ¶Ø§ÙĨ": 3434,
      "ĠÙħÙĪØ³": 3435,
      "ĠÙĪÙĥØ°ÙĦÙĥ": 3436,
      "ĠØ£Ø¬Ø²Ø§Ø¡": 3437,
      "ĠØ§ÙĦÙħÙĨØªØ¯Ùī": 3438,
      "ĠØ¥Ø¶Ø§ÙģØ©": 3439,
      "ĠØ§Øº": 3440,
      "ĠÙħØ¯ÙĬØ±": 3441,
      "026": 3442,
      "nÙĦØ§": 3443,
      "ĠÙĨØ³Ø¨Ø©": 3444,
      "ÙĩØ¯Ø§Ùģ": 3445,
      "end": 3446,
      "ĠÙĥØ£Ø³": 3447,
      "ĠÙĦØº": 3448,
      "Ġ400": 3449,
      "Ġcom": 3450,
      "ĠØ§ÙĦÙĤØ§Ø±Ø¦": 3451,
      "955": 3452,
      "Ġ300": 3453,
      "ĠÙħØ¨Ø§Ø±Ø§Ø©": 3454,
      "fe": 3455,
      "831": 3456,
      "ĠØ§ÙĦØ¹ÙĦÙĪÙħ": 3457,
      "ĠØµÙĪØ±Ø©": 3458,
      "for": 3459,
      "Ø±ÙĪØ©": 3460,
      "Ġi": 3461,
      "ÙħÙĬØ¯": 3462,
      "ĠØ¨Ø§ÙĦÙĨØ³Ø¨Ø©": 3463,
      "ĠØ§ÙĦØ£Ø±": 3464,
      "ĠØ§ÙĦÙħØ¹Ø¯ÙĨÙĬØ©": 3465,
      "Ø§ÙĦÙĩ": 3466,
      "ĠØ§ÙĦØ¥Ø³": 3467,
      "Ø¹Ø±Ø§Ø¶": 3468,
      "ĠØ¬Ø²Ø¡": 3469,
      "Ø¬Ø§Ø²": 3470,
      "Ø§ØŃØ¨": 3471,
      "Ġtph": 3472,
      "ĠÙĪØ³Ø§Ø¦ÙĦ": 3473,
      "Ø«Ø§Ø±": 3474,
      "Ø³ÙĬÙĦ": 3475,
      "ĠÙĪØªÙĤ": 3476,
      "ĠÙĦÙĦØŃØµÙĪÙĦ": 3477,
      "ÙĪÙĬØ¯": 3478,
      "845": 3479,
      "ĦÙ": 3480,
      "ØµÙĬÙĦ": 3481,
      "ly": 3482,
      "nØªØ¹": 3483,
      "ÙĥÙĩ": 3484,
      "935": 3485,
      "9983": 3486,
      "ØµÙĨØ§Ø¹Ø©": 3487,
      "ĠØ§ÙĦØ§Ø«": 3488,
      "ĠÙĨÙĩØ§ÙĬØ©": 3489,
      "ĠØªØŃØªØ§Ø¬": 3490,
      "Ø¬ÙĦØ©": 3491,
      "Ø§ÙħØ§Øª": 3492,
      "946": 3493,
      "ĠØ§ÙĨØªØ§Ø¬": 3494,
      "ĠØªØ¹Ø±ÙĬÙģ": 3495,
      "Ø¶ØŃ": 3496,
      "ĠÙĦÙĦÙĩ": 3497,
      "205": 3498,
      "nF": 3499,
      "Ø±ÙĪØ¬": 3500,
      "Ø¯ÙĬÙħØ©": 3501,
      "ÙĤÙī": 3502,
      "ÙĦÙ": 3503,
      "ĠThe": 3504,
      "ĠØ¹ÙħÙĦÙĬØ§Øª": 3505,
      "ĠØ´Ø±ØŃ": 3506,
      "ĠÙĨÙĬØ¬": 3507,
      "ĠØ¹ÙĨÙĩØ§": 3508,
      "____": 3509,
      "ĠÙĬÙĥ": 3510,
      "nÙħÙĤ": 3511,
      "Ø§Ø¡Ø§Øª": 3512,
      "ÙĦÙĦ": 3513,
      "ĠØ§ÙĦØ£Ø±Ø¯": 3514,
      "ĠØ§ÙĦØ¥Ø³ÙĦØ§ÙħÙĬØ©": 3515,
      "ĠØ±ÙħÙĦ": 3516,
      "ĠÙģØª": 3517,
      "ĠØªØ³Ø¬ÙĬÙĦ": 3518,
      "ĠÙĦÙĦØ¯": 3519,
      "ĠØ§ÙĦØ®ÙĦÙĬ": 3520,
      "nØªØ³ØªØ®Ø¯Ùħ": 3521,
      "Ø¯ÙĬÙĤ": 3522,
      "ĠØ¨Ø®": 3523,
      "ÙħØ±Ùĥ": 3524,
      "ĠÙĦÙħØ§": 3525,
      "867": 3526,
      "bab": 3527,
      "ĠÙĬÙ": 3528,
      "ĠÙĬÙĦ": 3529,
      "Ø®Ø·ÙĬØ·": 3530,
      "9965": 3531,
      "nØ§ÙĦØ³": 3532,
      "ĠØ§ÙĦØ¹Ø³": 3533,
      "ĠÙĥØ«": 3534,
      "ÙĬÙĬÙĨ": 3535,
      "Ø±ÙĬØ¹Ø©": 3536,
      "Ø±ÙĬØŃ": 3537,
      "ĠØ§ÙĦØ´Ø®ØµÙĬØ©": 3538,
      "ĠØ¨Ø§ÙĦÙħØ¯ÙĬÙĨØ©": 3539,
      "ÙĦÙĬÙĥ": 3540,
      "ĠØ¨ØŃØ«": 3541,
      "ĠÙĬÙĤØ¯Ùħ": 3542,
      "Ø³Ø±Ø§Ø¦ÙĬÙĦ": 3543,
      "ĠØ§Ø¬ØªÙħ": 3544,
      "ĠØ§ÙĦØªØ·Ø¨ÙĬÙĤ": 3545,
      "ĠÙĬØ¹ÙĨÙĬ": 3546,
      "Ø§Ø¯Ùĩ": 3547,
      "ĠØ§ÙĦØ¯ÙĬ": 3548,
      "ĠØ¹Ø¯": 3549,
      "ĠÙģØ§ÙĦ": 3550,
      "nØ³ÙĬ": 3551,
      "rom": 3552,
      "ĠØ§ÙĦÙĪØ±": 3553,
      "ĠX": 3554,
      "9936": 3555,
      "9980": 3556,
      "ĠÙĪÙĬÙħÙĥÙĨ": 3557,
      "303": 3558,
      "ÙĪØ¨Ø§Øª": 3559,
      "ial": 3560,
      "980": 3561,
      "Ã©": 3562,
      "ĠÙĪØŃØ¯": 3563,
      "ĠØ§ÙĦØ¢ÙĦØ§Øª": 3564,
      "ĠØ¬ÙħØ§ÙĦ": 3565,
      "Ø¨ÙĬØª": 3566,
      "ĠÙĦØ§Ø¨": 3567,
      "ØµØ§Ø¨Ø©": 3568,
      "Ø§Ø·ÙĤ": 3569,
      "ĠØ§ÙĦØ£Ùģ": 3570,
      "ÙĪÙĬÙĦØ©": 3571,
      "ĠÙĪØºÙĬØ±ÙĩØ§": 3572,
      "ĠØ§ÙĦÙĤØµ": 3573,
      "ug": 3574,
      "ĠØ§ÙĦØ®Ø¯ÙħØ©": 3575,
      "973": 3576,
      "cb": 3577,
      "275": 3578,
      "ĠØ§ÙĦØ£ÙĦÙħ": 3579,
      "ĠØ¥ÙĦÙĬÙĩ": 3580,
      "305": 3581,
      "fr": 3582,
      "ĠÙĪØ§ÙĦÙħÙĨ": 3583,
      "ĠØ·Ø¨ÙĬØ¹": 3584,
      "ĠÙĬØ³ØªØ®Ø¯Ùħ": 3585,
      "ÙģØª": 3586,
      "Ø³Ø§ÙĨ": 3587,
      "ĠÙĦØ¨ÙĨØ§ÙĨ": 3588,
      "ĠØ«ÙĤ": 3589,
      "ĠØ£ØµØ¨ØŃ": 3590,
      "Ø¨Ø§Ø¡": 3591,
      "lish": 3592,
      "âĢ¢": 3593,
      "9992": 3594,
      "ØªÙĬØ¨": 3595,
      "ĠØ§ÙĦÙĨØµ": 3596,
      "ĠÙĨÙĤØ¯Ùħ": 3597,
      "ĠØ¹ÙģØ´": 3598,
      "ØŃÙĬØ«": 3599,
      "ĠØ§ÙĦØ¬Ù": 3600,
      "ĠØ§ÙĦØ¬ÙĦ": 3601,
      "ĠØ²Ø±": 3602,
      "ĠØ¨Ø¹": 3603,
      "Ø³Ø·Ø©": 3604,
      "924": 3605,
      "ĠØ§ÙĦÙĤØ¶": 3606,
      "ĠÙĦÙģØ©": 3607,
      "207": 3608,
      "sp": 3609,
      "ĠÙĦÙħØ¯Ø©": 3610,
      "ĠÙĬÙĪ": 3611,
      "9966": 3612,
      "ĠÙģÙĩÙĪ": 3613,
      "nØ£Ø®Ø¨Ø§Ø±": 3614,
      "Ø¦ÙĬØ³ÙĬ": 3615,
      "ĠØ§ÙĦØ®Ø§Ø±Ø¬ÙĬØ©": 3616,
      "Ġï»": 3617,
      "ĠÙģØ¹ÙĦ": 3618,
      "Ø³ÙħØ§Ø¡": 3619,
      "2020": 3620,
      "iv": 3621,
      "ÙĪÙĬØªØ±": 3622,
      "Ø¸ÙĬÙģØ©": 3623,
      "963": 3624,
      "Ø§Ø¤": 3625,
      "ĠØ§ÙĦÙĥØ¨": 3626,
      "ian": 3627,
      "ĠØ¹ÙħØ§ÙĨ": 3628,
      "ÙĦÙĬØ¨": 3629,
      "ÙĩØ§Ø¯Ø©": 3630,
      "nK": 3631,
      "ĠØ£ÙĪØ±ÙĪØ¨Ø§": 3632,
      "ĠØ±ÙĪØ³ÙĬØ§": 3633,
      "ĠAr": 3634,
      "ĠÙĨÙħÙĪØ°Ø¬": 3635,
      "ĠÙĪÙĥÙĦ": 3636,
      "ĠØ§ÙĦÙĥØ§ÙĦØ³ÙĬ": 3637,
      "ĠØ£Ø³Ø§Ø³": 3638,
      "Ø§Ø¯ÙħÙĬØ©": 3639,
      "Ø³ÙĬØ³": 3640,
      "ÙĬÙĢ": 3641,
      "ĠØ§ÙĦÙħØ·ÙĦ": 3642,
      "476": 3643,
      "215": 3644,
      "Ø¬Ø¹": 3645,
      "Ġ40": 3646,
      "ĠØµØ¨Ø§ØŃ": 3647,
      "Ø¹Ø¯Ø¯Ø©": 3648,
      "ĠØŃØ³ÙĨ": 3649,
      "ĠWhatsApp": 3650,
      "Ø·Ø§Ø¡": 3651,
      "ĠØ§ÙĦØ§ØªØŃØ§Ø¯": 3652,
      "254": 3653,
      "ĠØ§ÙĦØ¹Ø¶": 3654,
      "Ø«Ø©": 3655,
      "Ø±ÙĬØ¯Ø©": 3656,
      "Ġpdf": 3657,
      "CD": 3658,
      "874": 3659,
      "ĠØ§ÙĦÙħÙĦÙģ": 3660,
      "ĠGet": 3661,
      "ĠÙĨÙĬØ¬ÙĬØ±ÙĬØ§": 3662,
      "076": 3663,
      "ĠÙħØ®Ø·": 3664,
      "ĠÙģØªØ±Ø©": 3665,
      "ĠØ§ÙĦÙħØŃØ§Ø¬Ø±": 3666,
      "ï¿½ï¿½": 3667,
      "Ø¨Ø±Ø²": 3668,
      "gle": 3669,
      "ĠØ¨Ø§Ø³Ùħ": 3670,
      "ĠÙĥØ³": 3671,
      "âĢĿ.\\": 3672,
      "US": 3673,
      "ĠØ¥Ø«Ø±": 3674,
      "ĠÙģØµÙĦ": 3675,
      "Ġ}": 3676,
      "ĠØ§ÙĦÙĨÙĪØ¹": 3677,
      "224": 3678,
      "ĠØ§ÙĦØ³ÙĬÙĦÙĬÙĥØ§": 3679,
      "ĠØ§ÙĦØ§ÙĪ": 3680,
      "Ø¶ÙĪØ±": 3681,
      "302": 3682,
      "ĠÙĪØ§Ø³Ø¹": 3683,
      "204": 3684,
      "Ø·Ø§ØŃÙĨ": 3685,
      "835": 3686,
      "ĠØ¬Ù": 3687,
      "ĠØ¬ÙĦ": 3688,
      "nØ®": 3689,
      "ÙĪØ´": 3690,
      "ĠØªÙĨØª": 3691,
      "Ġal": 3692,
      "ĠØ§ÙĦØ§Ø³ØªØ«ÙħØ§Ø±": 3693,
      "ĠØ¨Ø§ÙĦÙģ": 3694,
      "ĠØ§ÙĦÙĩØ§ØªÙģ": 3695,
      "ĠâĢĿ": 3696,
      "ĠØ§ÙĦØµØŃØ©": 3697,
      "346": 3698,
      "ram": 3699,
      "Ø¹Ø±ÙĪØ¶": 3700,
      "erv": 3701,
      "ÙģØ¸": 3702,
      "ĠØªÙĨØ²ÙĬÙĦ": 3703,
      "ĠÙĦØ§ÙĬÙĨ": 3704,
      "Ú¯": 3705,
      "ÙĨÙĬØ§": 3706,
      "ĠØ§ÙĦØ§ÙħØ§Ø±Ø§Øª": 3707,
      "ĠØ³ÙĪØ±ÙĬØ§": 3708,
      "ĠØ§ÙĨÙĩ": 3709,
      "ĠØ§ÙĨÙĪØ§Ø¹": 3710,
      "Ø±Ø¨Ø©": 3711,
      "ĠØ¥ÙĨÙĩ": 3712,
      "ĠØªØ±ÙĬØ¯": 3713,
      "ĠØ¨Ø¯Ø£": 3714,
      "ĠØ§ÙĦØ³Ø§Ø¨ÙĤ": 3715,
      "ĠØ§ÙĦØŃØ²Ø§Ùħ": 3716,
      "ĠÙĪØ§ÙĦØ¬": 3717,
      "ĠØªØ¯ÙģÙĤ": 3718,
      "ĠØ§ÙĦØ´ÙħØ³": 3719,
      "Ø§Ø±ÙĨØ©": 3720,
      "Ø§Ø¨Ùĩ": 3721,
      "ĠØ±Ø³ÙĪÙĦ": 3722,
      "ĠØ§ÙĦØ·Ø±ÙĤ": 3723,
      "Ø®ÙĬØµ": 3724,
      "ĠØ§ÙĦØ¹Ø¨": 3725,
      "ĠØ£ÙĩÙĦ": 3726,
      "ĠØ§ÙĦØ¹ÙħÙĦÙĬØ©": 3727,
      "ÙĪØ±Øª": 3728,
      "ĠÙĨØªÙĬØ¬Ø©": 3729,
      "ĠÙĪÙģÙĤ": 3730,
      "ĠØ¹Ø¶": 3731,
      "ĠØ§ÙĦØªØ±Ø¨ÙĬØ©": 3732,
      "Ø·Ø±ÙĤ": 3733,
      "ĠØ§ÙĦØ¬Ø²Ø¡": 3734,
      "nØ§Ø³": 3735,
      "fd": 3736,
      "ÙĪØ¬ÙĪØ¯Ø©": 3737,
      "ire": 3738,
      "ĠØ§ÙĦØ§ÙĦÙĥ": 3739,
      "ĠØ§ÙĦÙĨØ¨ÙĬ": 3740,
      "ĠØ§ÙĦØ£ØŃØ¯": 3741,
      "ĠØ¥ÙĨØ´Ø§Ø¡": 3742,
      "Ø¹ÙĦØ§Ø¬": 3743,
      "ÙħÙĬØ²Ø§Øª": 3744,
      "ĠØ§ÙĦØªÙģØ§ØµÙĬÙĦ": 3745,
      "ĠÙħØ¹Ø±ÙģØ©": 3746,
      "Ġ29": 3747,
      "ĠÙģÙĨÙĬ": 3748,
      "074": 3749,
      "ĠØ§ÙĦÙĪØµÙĪÙĦ": 3750,
      "ĠØ¬Ø§Ø¡": 3751,
      "Ø±Ùħ": 3752,
      "ÙĬÙħÙĬ": 3753,
      "ĠÙĪØµÙģ": 3754,
      "wit": 3755,
      "Ø²Ø§ÙĦØ©": 3756,
      "ĠÙħØ¬Ùħ": 3757,
      "Ø´Ø§Ø±Ø©": 3758,
      "ĠÙĪÙĬÙĨ": 3759,
      "ĠØ§ÙĦØ£Ø®Ø¨Ø§Ø±": 3760,
      "ÙĪÙħØ": 3761,
      "ÙĪÙħØ§": 3762,
      "ĠØ§ÙĦØµÙĦØ¨": 3763,
      "ĠØ§ÙĦØµØŃÙĬØ©": 3764,
      "345": 3765,
      "217": 3766,
      "ĠØ§ÙĦÙĬØ¯": 3767,
      "968": 3768,
      "ĠÙĥØ´Ùģ": 3769,
      "ĠØ§ÙĦØ¹Ø§Ø¨": 3770,
      "ĠØ§ÙĦØ¨Ø´Ø±": 3771,
      "ĠØ¹Ø§ÙħØ©": 3772,
      "In": 3773,
      "ĠÙħÙĦÙģØ§Øª": 3774,
      "Ø§ÙĦØ¥": 3775,
      "274": 3776,
      "ĠØ¥Ø¯": 3777,
      "Ø·Ø¨Ø®": 3778,
      "ØªÙĤØ§ÙĦ": 3779,
      "Ġ2011": 3780,
      "Ø°Ø¨": 3781,
      "ĠØ§ÙĦØ´ÙħØ§ÙĦ": 3782,
      "BB": 3783,
      "ĠØ¨Ø«": 3784,
      "nØ£Ùĥ": 3785,
      "ØªØ¨Ø§Ø³": 3786,
      "ĠÙĦØ¯ÙĬÙĥ": 3787,
      "846": 3788,
      "ĠÙĤÙħ": 3789,
      "ØªÙĦÙĥ": 3790,
      "ÙħØ±Ø§Ø±": 3791,
      "971": 3792,
      "ÙĤØ±Ø§Ø¡Ø©": 3793,
      "Ø³Ø³ÙĪØ§Ø±Ø§Øª": 3794,
      "ĠÙħØªØŃ": 3795,
      "Ø§ÙĦÙĤ": 3796,
      "ĠÙħÙĦÙħÙĪØ³Ø©": 3797,
      "905": 3798,
      "045": 3799,
      "Ø§ÙģØ§Øª": 3800,
      "ĠØ§ÙĦÙĥÙĩØ±Ø¨Ø§Ø¦ÙĬØ©": 3801,
      "ĠÙĤØ±Ø§Ø¡Ø©": 3802,
      "ĠØ§Ø³ØªØ®Ø±Ø§Ø¬": 3803,
      "ĠÙĨÙħ": 3804,
      "ĠØ¯ÙĪ": 3805,
      "315": 3806,
      "Ø§Ø¹Ø±": 3807,
      "ÙĨÙĪØ§Øª": 3808,
      "ĠâĢ¢": 3809,
      "Ġ::": 3810,
      "ĠÙĪØ§ÙĦØ§Ø³Øª": 3811,
      "ĠÙħØ¹ÙĨØ§": 3812,
      "nØ§ÙĦØ¥": 3813,
      "Ø¨Ø«": 3814,
      "ĠÙģÙĦØ³Ø·": 3815,
      "ĠÂ»\\": 3816,
      "ĠØŃØ¯Ø«": 3817,
      "Ø¯ÙĬØ±": 3818,
      "ĠØ¨Ø±ÙĪ": 3819,
      "ÙĬØŃ": 3820,
      "ĠÙħØ³Ø§Ø¡": 3821,
      "Ø³Ø³Ø§Øª": 3822,
      "ĠØ²ÙĪØ¬": 3823,
      "ĠØ§ÙĦØ¹ÙĬÙĨ": 3824,
      "ÙĪØµÙĬØ©": 3825,
      "ØªÙħØ§Ø¯": 3826,
      "265": 3827,
      "343": 3828,
      "Ø³ØªØ±Ø§ÙĦÙĬØ§": 3829,
      "ĠØ§ÙĦØ§ØŃØª": 3830,
      "Ø§Ø²ÙħØ©": 3831,
      "Ø®ØµØµØ©": 3832,
      "ĠØ§ÙĦØ§Ùĩ": 3833,
      "Ø¢ÙĦØ©": 3834,
      "ĠØ¯ÙĬÙĨ": 3835,
      "Ø§ÙħÙĬÙĥ": 3836,
      "ĠØ£ÙħØ§": 3837,
      "ĠØ¹Ø¨Ø§Ø±Ø©": 3838,
      "ĠØ§ÙĦØªØ¹ÙĦÙĬ": 3839,
      "ĠØ¯Ø§Ø±": 3840,
      "ue": 3841,
      "ÙĤØ·Ø¹": 3842,
      "Ø§ØŃØ¸": 3843,
      "ĠØ§ÙĦØ£Ø®ÙĬØ±Ø©": 3844,
      "ĠØ±Ø¤ÙĬØ©": 3845,
      "ĠØ¹ÙĤØ¯": 3846,
      "ĠØ¬Ø§ÙĨØ¨": 3847,
      "ĠÙĥÙĪØ±ÙĪÙĨØ§": 3848,
      "ĠØ§ÙĦØ£ÙĪØ³": 3849,
      "ĠØ§ÙĦØ§ÙĦ": 3850,
      "ĠØ«ÙĦØ§Ø«Ø©": 3851,
      "ÙĦØ§Ø·": 3852,
      "ÙĥÙħØ©": 3853,
      "Ø´Ø·Ø©": 3854,
      "ary": 3855,
      "ĠØ£Ø¬ÙĩØ²Ø©": 3856,
      "Ø§Ø¨ÙĬØ©": 3857,
      "ĠÙĦÙĦÙĤ": 3858,
      "ĠØ§ÙĦØŃÙħÙĦ": 3859,
      "nØ¥ÙĨ": 3860,
      "ÙģØ§Ø¸": 3861,
      "ĠYouT": 3862,
      "Ø§ÙĪØ±": 3863,
      "ĠØ§ÙĦØ¯ÙģØ§Ø¹": 3864,
      "00006": 3865,
      "Ġ=": 3866,
      "ĠØ§ÙĦØ¯Ø§Ø®ÙĦÙĬØ©": 3867,
      "ĠØ¬ÙĩØ©": 3868,
      "ĠØ§ÙĦØ·ÙĦØ¨": 3869,
      "Ø³ÙħÙī": 3870,
      "ĠØªØºÙĬÙĬØ±": 3871,
      "ĠØ§ÙĦØ§ÙĪÙĦ": 3872,
      "aw": 3873,
      "ĠØ¨Ø§ÙĦØŃ": 3874,
      "ĠØ§ÙĦØ¯Ø±Ø¯Ø´Ø©": 3875,
      "256": 3876,
      "ĠØ§ÙĦØ¹ÙħÙĪØ¯ÙĬØ©": 3877,
      "Ø§Ø±Ø¨": 3878,
      "347": 3879,
      "944": 3880,
      "ØªÙģØ¹": 3881,
      "ĠØ³Ø§Ø¹Ø§Øª": 3882,
      "ĠØ¨ÙĬØ§ÙĨØ§Øª": 3883,
      "ÙĬØ¯Ø±ÙĪÙĦ": 3884,
      "ÙĨÙĩ": 3885,
      "ÙĪØ§ÙĨØ§Øª": 3886,
      "nØ£ÙģØ¶ÙĦ": 3887,
      "ĠØ§ÙĦØŃØ¬Ùħ": 3888,
      "ĠØ¨Ùģ": 3889,
      "nÙĥÙħØ§": 3890,
      "375": 3891,
      "ÙĨÙĥ": 3892,
      "ÙĪØ±Ø§Øª": 3893,
      "Ġli": 3894,
      "ĠØ¨Ø§ÙĦØ³": 3895,
      "ĠÙĪÙĪ": 3896,
      "176": 3897,
      "ĠÙħÙĥØªØ¨": 3898,
      "ĠØ¥ØŃØ¯": 3899,
      "nÙħÙĦ": 3900,
      "ĠÙħØ§Ø¯Ø©": 3901,
      "Ø¹ÙĦØ§ÙĨØ§Øª": 3902,
      "Ø§ØµÙħØ©": 3903,
      "Ø§Ø¦ÙħØ§": 3904,
      "ĠØ¥ÙĦÙĬÙĩØ§": 3905,
      "ĠØªØ¹ÙĦÙĬÙĤ": 3906,
      "ĠØ´Ø§Ø´Ø©": 3907,
      "ĠØ¨Ø±ÙĬØ¯": 3908,
      "ØºÙĨÙĬ": 3909,
      "dc": 3910,
      "Ø§ÙĪÙħØ©": 3911,
      "ĠÙĤÙĬÙħØ©": 3912,
      "ĠØŃØ²": 3913,
      "ØªØµØ§Ø¯": 3914,
      "ĠÙĪØ§ÙĦØªØ¹": 3915,
      "ĠØªÙĪÙģØ±": 3916,
      "nÙĪØª": 3917,
      "ĠØ§ÙĦØ¥ÙĦÙĥØªØ±ÙĪÙĨÙĬØ©": 3918,
      "ĠØ§ÙĦØ¹ÙĦÙħÙĬ": 3919,
      "ÙĨØ¬": 3920,
      "875": 3921,
      "per": 3922,
      "Ø³ÙħØŃ": 3923,
      "Ø§ÙĤÙĬ": 3924,
      "ÙĪØ§Ø¹Ø¯": 3925,
      "Ø±ÙĪØ¨": 3926,
      "ĠØªØ¹ÙĦÙĬÙħ": 3927,
      "ĠØ£ØŃØ°ÙĬØ©": 3928,
      "ain": 3929,
      "ØµØ¯Ø§Ø±": 3930,
      "214": 3931,
      "Ø§ÙĥØ±": 3932,
      "ÙĪØ³ÙĬØ©": 3933,
      "9945": 3934,
      "ĠØ¨Ø´Ø£ÙĨ": 3935,
      "ĠÙĥØ§Ùħ": 3936,
      "ĠÙĤÙ": 3937,
      "ĠÙĤÙĦ": 3938,
      "ÙģÙĬÙģ": 3939,
      "FA": 3940,
      "ĠØªØµØ§Ø¯ÙħÙĬØ©": 3941,
      "ÙĪØªÙĬÙĪØ¨": 3942,
      "ĠØ®ÙĬ": 3943,
      "3476": 3944,
      "ĠØ¨Ø¨": 3945,
      "ĠØ¨Ø§Øª": 3946,
      "ÙĥÙĪÙĬÙĨ": 3947,
      "ĠØ³ÙĥØ³": 3948,
      "Ø§Ø¦ÙĩØ§": 3949,
      "927": 3950,
      "Ø§ÙĥÙħ": 3951,
      "ĠÙĬØ¹ØªØ¨Ø±": 3952,
      "ĠSt": 3953,
      "ĠØ§ÙĦØ£Ø³Ø§Ø³ÙĬØ©": 3954,
      "ØŃØ§Ø¡": 3955,
      "ĠÙĤÙĨØ§Ø©": 3956,
      "ĠØ¸ÙĩØ±": 3957,
      "ÙĦÙĬØŃ": 3958,
      "Ø§Ø¬ÙĩØ²Ø©": 3959,
      "ĠØ¨Øº": 3960,
      "Ġ'": 3961,
      "ĠÙĥÙĨØ¯Ø§": 3962,
      "Ø³Ø¨ÙĪÙĥ": 3963,
      "Ø§Ø¦Ùĩ": 3964,
      "ĠÙĩÙħ": 3965,
      "ĠØ¯Ø±Ø¯Ø´Ø©": 3966,
      "ĠØªØ¹ØªØ¨Ø±": 3967,
      "246": 3968,
      "365": 3969,
      "nÙĬÙħÙĥÙĨ": 3970,
      "),": 3971,
      "ĠØ§ÙĦØ§Ùģ": 3972,
      "ile": 3973,
      "ĠØ±Ø³Ø§ÙĦØ©": 3974,
      "Ø³ØªØ§Ø°": 3975,
      "Ġpe": 3976,
      "ĠØ§ÙĦÙħØŃØ¯": 3977,
      "ĠÙĪØ¸Ø§Ø¦Ùģ": 3978,
      "nContact": 3979,
      "ØŃØª": 3980,
      "ĠØ§ÙĦØ´Ø±ÙĤ": 3981,
      "ĠÙĤÙĪØ§Øª": 3982,
      "ne": 3983,
      "gy": 3984,
      "Ġ35": 3985,
      "ÙģØ±Ø©": 3986,
      "ÙĲÙĳ": 3987,
      "ÙģØ±Ø§Ø¯": 3988,
      "nE": 3989,
      "ĠÙĥØ§ÙĦ": 3990,
      "ĠØ§Ø¨ÙĪ": 3991,
      "ĠØªØ¹ÙĦÙħ": 3992,
      "ĠØ±Ø¯": 3993,
      "9944": 3994,
      "ÙħØªØ§Ø²": 3995,
      "9964": 3996,
      "ĠØºÙ": 3997,
      "ĠØºÙĦ": 3998,
      "ØªÙĬÙĦ": 3999,
      "Ø¬Ø±ÙĬ": 4000,
      "ĠÙĥÙĬÙĦ": 4001,
      "ĠØ§ÙĦÙħØ±ØŃÙĦØ©": 4002,
      "ĠØ¯Ø¹Ùħ": 4003,
      "ĠØªÙĥÙĬÙĬÙģ": 4004,
      "..\\": 4005,
      "ĠÙĬØ¹Ø¯": 4006,
      "baba": 4007,
      "ĠØ´ÙĨØ·": 4008,
      "ÙħÙĨÙĬ": 4009,
      "SI": 4010,
      "ĠØ§ÙĦØ·ÙģÙĦ": 4011,
      "ĠÙĦØ±": 4012,
      "ĠØ§ÙĦÙĨØ³Ø§Ø¡": 4013,
      "ĠØ§ÙĦØ´Ø¨Ø§Ø¨": 4014,
      "ØªØ¨Ø¹": 4015,
      "ĠØ«ÙĤÙĬÙĦØ©": 4016,
      "ĠØ§ÙĦÙĥÙħØ¨ÙĬÙĪØªØ±": 4017,
      "106": 4018,
      "055": 4019,
      "ĠØ§ÙĦÙĨÙģØ³": 4020,
      "ĠØ®Ø·Ø©": 4021,
      "Ø§Ø¦Ø·": 4022,
      "ĠØ±ÙģØ¹": 4023,
      "\\\":\\\"": 4024,
      "ĠØªÙģØ§ØµÙĬÙĦ": 4025,
      "ÙĩØ§Ø¯": 4026,
      "Ø§ÙĥØ²": 4027,
      "ĠØ¹Ø±Ø¨ÙĬØ©": 4028,
      "ĠØ¥Ø³Øª": 4029,
      "ĠØ³ÙĬØ§Ø±Ø©": 4030,
      "ĠMP": 4031,
      "acebook": 4032,
      "855": 4033,
      "ÙĨÙĬØ§Øª": 4034,
      "oogle": 4035,
      "916": 4036,
      "ĠÙĬÙħ": 4037,
      "ob": 4038,
      "Ø¬ÙĪ": 4039,
      "ĠØ¨Ø§ÙĦÙ": 4040,
      "ÙĪÙĦØ¯": 4041,
      "ĠØ¨Ø§ÙĦÙĦ": 4042,
      "ĠØ§ÙĦØ£ÙĤ": 4043,
      "374": 4044,
      "ĠØ§ÙĦØ¬ÙħØ¹Ø©": 4045,
      "ĠØ¹ÙĨÙĪØ§ÙĨ": 4046,
      "ĠØ§ÙĦØªÙĥÙĨÙĪÙĦÙĪØ¬ÙĬØ§": 4047,
      "Ùĭ\\": 4048,
      "ĠÙĪØªÙħ": 4049,
      "ĠØ§ÙĦÙħØ®Ø±ÙĪØ·": 4050,
      "ĠØ§ÙĦÙĬØ§Ø¨": 4051,
      "ĠØŃÙĪØ§ÙĦÙĬ": 4052,
      "ØªØ§Ùħ": 4053,
      "ĠÙĦØ¬ÙħÙĬØ¹": 4054,
      "ink": 4055,
      "ĠØ³ÙĪ": 4056,
      "ÙĥÙĪÙĨØ§Øª": 4057,
      "ĠØ§ÙĦØ´ÙĩØ±": 4058,
      "CF": 4059,
      "Ġas": 4060,
      "Ø¯Ø§ÙĨ": 4061,
      "ĠØ§ÙĦØ±Ø¯": 4062,
      "Ø¨ÙĬØ¶": 4063,
      "ÙĪØ¨Ø§ÙĬÙĦ": 4064,
      "ÙĩÙĦØ©": 4065,
      "Ġ60": 4066,
      "ØªÙĪØ§ØµÙĦ": 4067,
      "ant": 4068,
      "db": 4069,
      "ĠÙħØ¬Ø§ÙĨÙĬ": 4070,
      "ĠÙĤØ·Ø§Ø¹": 4071,
      "225": 4072,
      "ÙĩÙĪØ©": 4073,
      "226": 4074,
      "ÙħÙĨØ©": 4075,
      "fc": 4076,
      "nØ¹ÙĨ": 4077,
      "355": 4078,
      "844": 4079,
      "og": 4080,
      "Ġsh": 4081,
      "933": 4082,
      "ĠØ¨ÙĨØ³": 4083,
      "ĠÙĦÙĩØ°Ø§": 4084,
      "Ø±ÙĬØ¶": 4085,
      "ĠØ§ÙĦÙĤÙĬØ§Ùħ": 4086,
      "ĠAli": 4087,
      "Ġyou": 4088,
      "ĠUS": 4089,
      "ĠØ£Ø¯ÙĪØ§Øª": 4090,
      "ØªØ±ÙĥÙĬØ¨": 4091,
      "ĠØ§ÙĦØµÙĬÙĨÙĬØ©": 4092,
      "ĠÙĬØŃØªÙĪÙĬ": 4093,
      "ĠÙĪÙĤØ§ÙĦ": 4094,
      "Ø§ØªÙĬ": 4095,
      "):": 4096,
      "ĠØ³Ø¨ÙĬÙĦ": 4097,
      "ĠØ§ÙĦØ³ÙĪØ¯Ø§ÙĨ": 4098,
      "ĠØ¨ØªÙĨØ³ÙĬÙĤ": 4099,
      "ĠÙĦØ·ØŃÙĨ": 4100,
      "116": 4101,
      "ĠØ§ÙĦØ¬Ø¯": 4102,
      "ĠØ§ÙĦØ¥ÙĤ": 4103,
      "ery": 4104,
      "ĠÙĦÙĤØ¯": 4105,
      "ĠØ§ÙĦØµØŃÙĬ": 4106,
      "Ġcon": 4107,
      "276": 4108,
      "ĠÙĦØ§Ø³Øª": 4109,
      "ĠÙģØ¶": 4110,
      "witter": 4111,
      "arab": 4112,
      "ĠØ§ÙĦØ£ÙħÙĬØ±": 4113,
      "ĠPro": 4114,
      "ĠÙĥØ°ÙĦÙĥ": 4115,
      "ĠØ§ÙĦØ¨Ø±ÙĨØ§ÙħØ¬": 4116,
      "ÙĬØ¯Ø±ÙĪÙĦÙĬÙĥÙĬØ©": 4117,
      "9914": 4118,
      "ĠØ§ÙĦÙħÙĤØ§ÙĦ": 4119,
      "366": 4120,
      "AAE": 4121,
      "ĠØ§ÙĦØ£Ø³Ø¨ÙĪØ¹": 4122,
      "ĠØ±Ø³Ùħ": 4123,
      "ĠØ§ÙĦØ¨ÙĦØ§Ø¯": 4124,
      "376": 4125,
      "Ø¨Ø¯ÙĪ": 4126,
      "99946": 4127,
      "ØŃÙĤÙĪÙĤ": 4128,
      "ĠØ§ÙĦØ£Ø´Ø®Ø§Øµ": 4129,
      "ĠØ§ÙĦØ´Ø§Ø±": 4130,
      "fb": 4131,
      "ĠØ§ÙĦØ«Ø§ÙĦØ«Ø©": 4132,
      "ĠØ§ÙĦÙħØ¬ÙĦØ³": 4133,
      "ĠØ´ÙħØ§ÙĦ": 4134,
      "ĠÙĥØ±Ø©": 4135,
      "066": 4136,
      "ĠÙĬØ¬Ø¹ÙĦ": 4137,
      "Ø³ÙĬÙħ": 4138,
      "344": 4139,
      "Ø³ÙĬØª": 4140,
      "Ø±ÙĬØ¨Ø©": 4141,
      "953": 4142,
      "ÙĤØ±Ø§Ø±": 4143,
      "ØºØ§Ø¡": 4144,
      "854": 4145,
      "ĠÙħØµØ¯Ø±": 4146,
      "ÙĦØ¨ÙĬØ©": 4147,
      "ĠØµØ¨": 4148,
      "Ø¬Ø±Ø¯": 4149,
      "175": 4150,
      "Ø§ÙĪÙī": 4151,
      "ĠØ¥ÙĬ": 4152,
      "ĠÙĩÙĬØ¦Ø©": 4153,
      "ÙĪØ³Ùģ": 4154,
      "Ø§Ø¦ÙĨ": 4155,
      "Ø§ÙĪØ²": 4156,
      "Ø«ÙħØ±": 4157,
      "ĠØ§ÙĦÙħÙĨØ§Ùħ": 4158,
      "ĠÙĬØªØŃ": 4159,
      "....": 4160,
      "ĠØ¨Ø¯Ø§ÙĬØ©": 4161,
      "247": 4162,
      "Ø§Ø¦ØŃØ©": 4163,
      "Ø§Ø¶ÙĬØ©": 4164,
      "Ø²Ø¹": 4165,
      "99916": 4166,
      "ÙħÙĬÙĦØ©": 4167,
      "ĠØ§ÙĦØ³Ø§Ø¯": 4168,
      "Ø´Ø§Ø±ÙĥØ§Øª": 4169,
      "ĠØ§ÙĦØªØ´ØºÙĬÙĦ": 4170,
      "Ġwith": 4171,
      "Ø£Ø³Ø¹Ø§Ø±": 4172,
      "ĠØªØµÙĦ": 4173,
      "ĠØ§ÙĦØªØ§ÙĦÙĬØ©": 4174,
      "Ø·ÙĦØ¨Ø§Øª": 4175,
      "ĠØ§ÙĦÙħÙĪØ§ÙĤØ¹": 4176,
      "Ø£Ùĥ": 4177,
      "ĠØ§ÙĦØ·Ø¨ÙĬØ©": 4178,
      "ÙħÙħ": 4179,
      "ĠØ¹ÙĬØ¯": 4180,
      "ĠØ±ÙĬÙħÙĪÙĨØ¯": 4181,
      "ĠØŃÙĬØ§Ø©": 4182,
      "ĠÙĪØ¨Ø±": 4183,
      "ĠØ¨Ø§ÙĦØ¨": 4184,
      "ĠØ§ÙĦØ£ÙħØ±ÙĬÙĥÙĬ": 4185,
      "nØ§ÙĦØ±Ø¦ÙĬØ³": 4186,
      "ĠØ§ÙĦØ§Ø¬ØªÙħØ§Ø¹ÙĬØ©": 4187,
      "ĠØ§ÙĦÙĩÙĪØ§Ø¡": 4188,
      "Ġat": 4189,
      "915": 4190,
      "ĠØ§ÙĦÙĪØŃ": 4191,
      "Ø§Ø·Ø¹": 4192,
      "ÙĬÙĦÙĩ": 4193,
      "244": 4194,
      "Ø§Ø¨ÙĦØ©": 4195,
      "ĠØ£Ø³ØªØ±Ø§ÙĦÙĬØ§": 4196,
      "Ø´Ø±Ùģ": 4197,
      "ĠØ§ÙĦØ³Ø§Ø®": 4198,
      "Ø¹Ø¯Ùħ": 4199,
      "Ø¶Ùī": 4200,
      "ĠØ§ÙĦÙĥØ¨ÙĬØ±": 4201,
      "ĠÙħØµÙĨØ¹ÙĬÙĨ": 4202,
      "ÙĥÙĬÙĨ": 4203,
      "ĠÙħØŃØ±Ùĥ": 4204,
      "Ø¬ÙĦÙĬØ²ÙĬ": 4205,
      "ĠØ§ÙĦÙģØ±ÙĤ": 4206,
      "ĠØ§ÙĦÙģÙ": 4207,
      "ĠØ§ÙĦÙģÙĦ": 4208,
      "ĠÙĦÙĦØ¨": 4209,
      "ĠØ§ÙĦØµÙĦØ§Ø©": 4210,
      "âĢĿØĮ": 4211,
      "ĠÙĦØµ": 4212,
      "ÙĦÙħØ§ÙĨ": 4213,
      "ho": 4214,
      "Ø¹ÙĦÙĪÙħ": 4215,
      "Ø±ÙĬØ§Øª": 4216,
      "ĠØªØ³Ø§Ø¹Ø¯": 4217,
      "Ø±Ø±": 4218,
      "ame": 4219,
      "ĠØªÙĨØ§ÙĪÙĦ": 4220,
      "ĠØ§ÙĦÙĤØ±Ø§Ø¡Ø©": 4221,
      "371": 4222,
      "Ġthis": 4223,
      "Ġ150": 4224,
      "Ø§ØŃØ§Øª": 4225,
      "ĠâĢ¦\\": 4226,
      "Ġmore": 4227,
      "av": 4228,
      "ĠQ": 4229,
      "866": 4230,
      "ĠØ·ÙĪÙĬÙĦØ©": 4231,
      "ĠÙĪÙħØŃ": 4232,
      "nØªØŃÙħÙĬÙĦ": 4233,
      "nØ±Ø¯": 4234,
      "Ø§ÙĤØ¨Ø©": 4235,
      "ĠÙĪØ§Ø¶": 4236,
      "364": 4237,
      "ÙĤØ±ÙĬØ±": 4238,
      "ĠØ´Ø¹Ø¨": 4239,
      "ĠØ¹ÙĬ": 4240,
      "ĠØ¨Ø§Ø³Øª": 4241,
      "ĠÙħØ¹Ø¸Ùħ": 4242,
      "ĠÙģÙĬÙĦÙħ": 4243,
      "nÙĪÙĬ": 4244,
      "883": 4245,
      "ĠÙĦÙĬØ³Øª": 4246,
      "ØµÙģØŃ": 4247,
      "ĠÙĩØ§ØªÙģ": 4248,
      "unction": 4249,
      "ĠÙĪØªØ±": 4250,
      "Ø¬Ø§Ø¨Ø©": 4251,
      "ĠØ§ÙĦØ¶ØºØ·": 4252,
      "ĠØ§ÙĦØªØ§ÙĦÙĬ": 4253,
      "ĠØ§ÙĦØ¯Ùĩ": 4254,
      "ĠÙĪÙĬØ¹": 4255,
      "ĠÙħØªØ¬Ø±": 4256,
      "ÙĨØ²": 4257,
      "Ġ05": 4258,
      "930": 4259,
      "ĠÙĦÙĦÙħÙĪ": 4260,
      "nKnow": 4261,
      "ĠÙģÙĩÙĬ": 4262,
      "Ùª": 4263,
      "ÙĬÙģÙĬØ©": 4264,
      "ĠØ¨Ø§ÙĦØ¬": 4265,
      "ÙĥØ§ØªØ¨": 4266,
      "ĠØ§ÙĦÙĥØªØ¨": 4267,
      "ĠØ§ÙĦØ³ÙĬØ§Ø³ÙĬØ©": 4268,
      "nÙħØµ": 4269,
      "ÙĤØ§Ùħ": 4270,
      "ĠØ³Ø§Ùħ": 4271,
      "Ġ>>": 4272,
      "ÙĥÙĬØ±": 4273,
      "ĠÙĪÙĦÙĬØ³": 4274,
      "ØªØ¨Ø§Ø·": 4275,
      "nL": 4276,
      "ĦÙĪÙĦ": 4277,
      "ÙĦÙĪÙĦ": 4278,
      "Ø§Ø¯Ùħ": 4279,
      "ĠØ§ÙĦÙħØµÙĨØ¹ÙĬÙĨ": 4280,
      "Ø¨Ø±Ùī": 4281,
      "314": 4282,
      "app": 4283,
      "ĠÙħØªØ±Ø¬Ùħ": 4284,
      "ĠÙĪØµÙĦ": 4285,
      "ĠØ£ÙĨØª": 4286,
      "ĠØ§ÙĦØºØ§Ø²": 4287,
      "ĠØ¶Ø¹": 4288,
      "ĠØ§ÙĦØ±Ø£": 4289,
      "805": 4290,
      "ĠØŃØ¨": 4291,
      "816": 4292,
      "Ø§ÙĦØ": 4293,
      "Ø§ÙĦØ§": 4294,
      "982": 4295,
      "ÙĦØ¨ÙĬÙĨ": 4296,
      "914": 4297,
      "IN": 4298,
      "ĠØ§ÙĦØ±ØŃÙħÙĨ": 4299,
      "ĠØ§ÙĦÙħØ§Ø±": 4300,
      "ĠØ§ØªØµÙĦ": 4301,
      "972": 4302,
      "Ø¯Øª": 4303,
      "ĠØµØ®Ø±Ø©": 4304,
      "ĠØ§Ø®ØªØ±": 4305,
      "ĠØŃÙĥÙħ": 4306,
      "ĠØ§ÙĦÙĨØ¨Ø§ØªØ§Øª": 4307,
      "213": 4308,
      "99956": 4309,
      "ĠØ§ÙĦØ§Ø¯": 4310,
      "ĠØµØŃÙĬØŃ": 4311,
      "ĠØ§ÙĦÙħÙĨØ§Ø·ÙĤ": 4312,
      "041": 4313,
      "ĠØ§ÙĦØ·Ø¨ÙĬØ¹ÙĬ": 4314,
      "Ġx": 4315,
      "ĠÙĦÙĦØ§Ø³Øª": 4316,
      "ĠØ§ÙĦØ³ÙĬØ§Ø±Ø©": 4317,
      "ĠØ·Ù": 4318,
      "ĠØ·ÙĦ": 4319,
      "nØ¹Ø±Ø¶": 4320,
      "ĠØ§ÙĦØŃØ¯ÙĬØ«Ø©": 4321,
      "Ġ1000": 4322,
      "ĠØ§ÙĦÙħØŃÙĦÙĬØ©": 4323,
      "ĠØ§ÙĦÙĨØª": 4324,
      "ĠØ§ÙĦØ§Ø·": 4325,
      "864": 4326,
      "ĠÙĦÙĪØŃØ©": 4327,
      "Ø±ÙĬÙħØ©": 4328,
      "ĠØ±Ø¬": 4329,
      "Ø³Ø±Ø¹Ø©": 4330,
      "Ø§Ø´Ø§Øª": 4331,
      "ĠØ§ÙĦØªØ¬Ø§Ø±Ø©": 4332,
      "926": 4333,
      "Ø³ÙĬØ·Ø©": 4334,
      "ØŃÙħØ±": 4335,
      "ĠÙĦÙĦØºØ§ÙĬØ©": 4336,
      "312": 4337,
      "ĠØ§ÙĦØ³ÙĬØ±": 4338,
      "ĠØªØ¹Ø¯": 4339,
      "ĠØ§ÙĦÙģØªØ±Ø©": 4340,
      "227": 4341,
      "Ø¨Ø±Ø§ÙĩÙĬÙħ": 4342,
      "ĠØ§ÙĦØµÙĨØ§Ø¹ÙĬ": 4343,
      "Ø¨ÙĬÙĨ": 4344,
      "ĠØ¨Ø§ÙĦØ¹": 4345,
      "ĠØ§ÙĦÙĪØ²": 4346,
      "ĠØ§ÙĦÙĨØ¬": 4347,
      "ĠØ¯ÙĤÙĬÙĤØ©": 4348,
      "ĠØµÙģØŃØ©": 4349,
      "ĠØ§ÙĦØŃØ±Ø¨": 4350,
      "ĠÙħØ®Ø·Ø·": 4351,
      "ĠØ¨Ø§ÙĥØ³ØªØ§ÙĨ": 4352,
      "ĠØ®Ø¨Ø±": 4353,
      "ĠØ¨ÙĬÙĨÙħØ§": 4354,
      "ØªØ³": 4355,
      "ĠØ§ÙĦØ¹ÙħØ±": 4356,
      "354": 4357,
      "ĠZ": 4358,
      "096": 4359,
      "ĠØ¯Ø§Ø¦ÙħØ§": 4360,
      "174": 4361,
      "865": 4362,
      "ĠØŃØ²Ø§Ùħ": 4363,
      "ĠØ§ÙĦÙĨÙĤÙĦ": 4364,
      "ĠØ§ÙĦÙħÙĨØ´": 4365,
      "ĠÙĪØ³Ø·": 4366,
      "Ø§Ø¹Ù": 4367,
      "Ø§Ø¹ÙĦ": 4368,
      "ĠÃ": 4369,
      "ĠÙħÙĪÙĨ": 4370,
      "ØµØ§ÙĦØ§Øª": 4371,
      "ĠÙĥÙĪØ¨": 4372,
      "ĠØ¥Ø«Ø±Ø§Ø¡": 4373,
      "ust": 4374,
      "Ø§ÙģØ¶ÙĦ": 4375,
      "ĠØ§ÙĦÙħØ³ØªÙĪÙī": 4376,
      "ĠØ®Ø²": 4377,
      "Ø¶ÙĬØ±": 4378,
      "ĠØ§ÙĦØ·Ø¨ÙĬ": 4379,
      "856": 4380,
      "ĠÙĦØªÙĨ": 4381,
      "ĠÙģÙĪØ±": 4382,
      "ĠØ§ÙĦØµÙĪØ±Ø©": 4383,
      "ĠØ§ÙĦØ®Ø¨Ø±": 4384,
      "Ø°Ùģ": 4385,
      "99967": 4386,
      "ĠØ§ÙĦØ£Ø¬ÙĨ": 4387,
      "ĠÙĦÙĦØ¹ÙħÙĦ": 4388,
      "Ø¸Ø¨ÙĬ": 4389,
      "CC": 4390,
      "Ø´Ù": 4391,
      "Ġ600": 4392,
      "Ø§Ø±ÙĬØ±": 4393,
      "ĠÙħØ±Ø§Ø¬": 4394,
      "ÙĩØ§Ø±": 4395,
      "Ø´ÙĦ": 4396,
      "Â«": 4397,
      "ĠØ§ÙĦØŃØ´Ø±Ø§Øª": 4398,
      "271": 4399,
      "\\\\/": 4400,
      "ĠØ³Ø¹ÙĬØ¯": 4401,
      "Ø¹ÙĦÙĤØ©": 4402,
      "AR": 4403,
      "255": 4404,
      "ÙĨØ³Ø": 4405,
      "ÙĨØ³Ø§": 4406,
      "nÙĪÙħ": 4407,
      "ĠØĽ": 4408,
      "ĠØ±ØŃ": 4409,
      "Ø®ÙģØ§Ø¶": 4410,
      "ĠCom": 4411,
      "ÙĪØŃØ§Øª": 4412,
      "ĠYouTube": 4413,
      "ĠÙĬÙĥÙĨ": 4414,
      "si": 4415,
      "Ø§ÙĦØªØ§ÙĦÙĬ": 4416,
      "ĠØ§ÙĦØ£Ø±Ø¨Ø¹": 4417,
      "ÙħÙĨØ": 4418,
      "ÙħÙĨØ§": 4419,
      "ĠÙĦØ£ÙĨÙĩ": 4420,
      "ON": 4421,
      "ÙĪÙĤØ§Øª": 4422,
      "Ù¬": 4423,
      "ĠØ§ÙĦÙĥØª": 4424,
      "ØªØ¯Ø§Ø¡": 4425,
      "Ġan": 4426,
      "ĠØ§ÙĦØµÙ": 4427,
      "ĠØ§ÙĦØµÙĦ": 4428,
      "ĠÙĬØµÙĦ": 4429,
      "ĠÙħÙĨØµØ©": 4430,
      "115": 4431,
      "ĠØªØŃØ¯ÙĬØ«": 4432,
      "ĠØ§ÙĦÙĪØ§ÙĤØ¹": 4433,
      "ĠRe": 4434,
      "\\\",\\\"": 4435,
      "ÙħØ±ÙĥØ²": 4436,
      "arz": 4437,
      "Ø§ÙĦÙĬØ§Øª": 4438,
      "475": 4439,
      "ĠØ§ÙĨØªÙĩ": 4440,
      "ĠØŃØ³ÙĬÙĨ": 4441,
      "ĠØ¬ÙĬØ¯Ø©": 4442,
      "ØµØ±Ùģ": 4443,
      "Ġ31": 4444,
      "Ø²ÙĬØ§Ø¡": 4445,
      "ft": 4446,
      "630": 4447,
      "ÙĤØ±Ø§Ø·": 4448,
      "ĠÙħØŃÙħÙĪØ¯": 4449,
      "863": 4450,
      "ĠØ§ÙĦØªØŃÙĥÙħ": 4451,
      "ĠØ§ÙĦØªØ³Ø¬ÙĬÙĦ": 4452,
      "ĠØ§ÙĦØŃÙĤÙĪÙĤ": 4453,
      "ult": 4454,
      "ÙĪØ§Ùģ": 4455,
      "Ø§Ø¨Ø±": 4456,
      "ĠØµØ¯": 4457,
      "99827": 4458,
      "ĠØ§ÙĦÙħÙĪØ§Ø·": 4459,
      "ĠØ§ÙĦØ£Øµ": 4460,
      "ĠÙĪØ¨Ø¹Ø¯": 4461,
      "ĠØ¨ÙĨÙĬ": 4462,
      "Ġ2010": 4463,
      "ĠÙĪØªØ´": 4464,
      "ÙĨØ¯ÙĤ": 4465,
      "ĠÙħØ´ÙĥÙĦØ©": 4466,
      "ĠØ§ÙĦÙĤØ¯ÙĬÙħØ©": 4467,
      "('": 4468,
      "Ø§Ø±Ø": 4469,
      "Ø§Ø±Ø§": 4470,
      "ĠØ§ÙĦØ±ÙĤ": 4471,
      "nØ¨Ø±": 4472,
      "ØªØ": 4473,
      "ĠØµØ§ØŃØ¨": 4474,
      "ĠØ§ÙĦØ¹Ø±Ø¶": 4475,
      "ØªØ§": 4476,
      "ĠCh": 4477,
      "ØªØ±Ø§ØªÙĬØ¬ÙĬØ©": 4478,
      "ĠÙħØ·ÙĦ": 4479,
      "ĠØ§ÙĦÙĨØ¸Ø±": 4480,
      "ÙħÙĦÙĥ": 4481,
      "Ø¦Ø§Øª": 4482,
      "Ø±ÙĪØ¹": 4483,
      "ĠØ§ÙĦØ¥Ø¯": 4484,
      "Ø¬ÙĦØ³": 4485,
      "ĠØªØŃØªÙĪÙĬ": 4486,
      "Ø¶Ø§Øª": 4487,
      "ĠÙģÙĥ": 4488,
      "ĠØªÙĨÙģÙĬØ°": 4489,
      "ÙĩÙĬÙĦ": 4490,
      "ĠØ§ÙĦÙĪØ¬Ùĩ": 4491,
      "99903476": 4492,
      "Ø·ÙģÙī": 4493,
      "ĠØ¥ØŃØ¯Ùī": 4494,
      "ĠÙĪÙĬÙĥÙĬ": 4495,
      "Ø¬ÙĨØ©": 4496,
      "ĠØ§ÙĦÙħÙĦØ§Ø¨Ø³": 4497,
      "nØ§ÙĦØ¯": 4498,
      "ØµØ¨ØŃ": 4499,
      "ĠØ§ÙĦØ¹ÙĦØ§Ø¬": 4500,
      "ign": 4501,
      "ĠØ®Ø§ÙĦØ¯": 4502,
      "ĠØŃÙĦÙħ": 4503,
      "Ø¤ÙĪÙĨ": 4504,
      "ĠÙħÙĨÙĩÙħ": 4505,
      "ĠØ§ÙĦØ±ÙĬØ§Ø¶ÙĬØ©": 4506,
      "ĠØ¶ØºØ·": 4507,
      "ĠÙĦÙħØŃ": 4508,
      "Ø«ÙĪØ±": 4509,
      "ĠØ§ÙĦØ®ÙħÙĬØ³": 4510,
      "ĠAlibaba": 4511,
      "ÙģØ§Ùģ": 4512,
      "Ø´Ø§ÙĩØ¯Ø©": 4513,
      "264": 4514,
      "Ø¨Ø§Ø±Ùĥ": 4515,
      "ĠÙħØ¤Ø³Ø³Ø©": 4516,
      "ÙĪØ§ÙĨÙĬÙĨ": 4517,
      "006": 4518,
      "ĠØ±Ø´": 4519,
      "ĠØ¥ÙĬØ±Ø§ÙĨ": 4520,
      "313": 4521,
      "ala": 4522,
      "ĠØ§ÙĦÙħØ³ØªØ¹ÙħÙĦØ©": 4523,
      "nÙħØ¹": 4524,
      "man": 4525,
      "ĠÙĨØ§ÙĤÙĦ": 4526,
      "ĠÙģÙĪØ§Ø¦Ø¯": 4527,
      "ĠØ£ÙĨØ": 4528,
      "ĠØ£ÙĨØ§": 4529,
      "Ø³ÙĦØŃØ©": 4530,
      "9955": 4531,
      "ĠÙĨØªØ§Ø¦Ø¬": 4532,
      "ĠÙĬÙĦÙĬ": 4533,
      "nÙĦÙħ": 4534,
      "907": 4535,
      "Ø¹ÙĪ": 4536,
      "ÙĥØ§Ø¡": 4537,
      "ĠØ§ÙĦØ§ÙĤØªØµØ§Ø¯ÙĬØ©": 4538,
      "ĠØ§ÙĦÙĪØ²ÙĨ": 4539,
      "nØ§ÙĦØ¨": 4540,
      "Ġcrusher": 4541,
      "ĠØ§ÙĦØŃØ³Ø§Ø¨": 4542,
      "Ø§Ø¨ÙĪÙĨ": 4543,
      "ØµØ¨": 4544,
      "Ø´ÙĬØ§Ø¡": 4545,
      "ĠCo": 4546,
      "ÙħÙĪØ§ÙĦ": 4547,
      "Ø§Ø¦Ø©": 4548,
      "ĠØ¹Ø´": 4549,
      "ĠØ§ÙĦØ·Ø±ÙĬÙĤ": 4550,
      "ĠØ¹Ø§ÙħØ": 4551,
      "ĠØ¹Ø§ÙħØ§": 4552,
      "ØºØ§Ùħ": 4553,
      "ĠÙħØªØ¹Ø¯Ø¯Ø©": 4554,
      "245": 4555,
      "Ġ@": 4556,
      "ĠØ§ÙĤØ±Ø£": 4557,
      "ÙĪØ¬Ù": 4558,
      "ÙĪØ¬ÙĦ": 4559,
      "ĠØ§ÙĦÙĤØ±ÙĨ": 4560,
      "266": 4561,
      "Ø§Ø¦Øµ": 4562,
      "ĠØ¨ÙĨØ³Ø¨Ø©": 4563,
      "ÙĬØ§Ùħ": 4564,
      "ĠØ¯Ùĩ": 4565,
      "ĠØ§ÙĦØ£ÙĪØ³Ø·": 4566,
      "ÙĪØº": 4567,
      "ĠØ§ÙĦØ£Ùĥ": 4568,
      "234": 4569,
      "Ø±Ø§Ø¡": 4570,
      "ĠØ³Ø·ØŃ": 4571,
      "ĠØ¥Ø³": 4572,
      "056": 4573,
      "nØ¥Ø°Ø§": 4574,
      "ĠØ§ÙĦØ¨ØŃØ±ÙĬÙĨ": 4575,
      "ĠØ¨ØŃØ±": 4576,
      "ĠÙħØ¹ÙĨÙī": 4577,
      "ÙĪØ³Øª": 4578,
      "ĠØ§ÙĦÙħÙĩÙĨÙĬØ©": 4579,
      "ØµÙħÙĬÙħ": 4580,
      "ÙĥØ§ÙĨÙĬØ©": 4581,
      "9935": 4582,
      "nÙħÙĪ": 4583,
      "ĠÙħÙĨØ²ÙĦ": 4584,
      "Ø§ÙĩÙĬØ©": 4585,
      "277": 4586,
      "ĠÙĥÙĪÙĦ": 4587,
      "868": 4588,
      "ØºØ±Ø©": 4589,
      "ÙĤØ¯ÙĬÙħ": 4590,
      "970": 4591,
      "ĠÙħØµØ§Ø¯Ø±": 4592,
      "857": 4593,
      "005": 4594,
      "ĠÙħØ¹Ø±Ø¶": 4595,
      "nØ£Ø³": 4596,
      "ĠâĢĶ": 4597,
      "ĠØ§ÙĦØ§Ùĥ": 4598,
      "AFC": 4599,
      "Ġ01": 4600,
      "ĠØ¨Ø§ÙĨ": 4601,
      "Ø¥Ø°Ø§": 4602,
      "304": 4603,
      "ĠØ§ÙĦØ±Ø¬ÙĦ": 4604,
      "ÙĪÙĨØº": 4605,
      "ĠØ¨Ø§ÙĦÙĦÙĩ": 4606,
      "ĠØŃØ²ÙĬØ±Ø§ÙĨ": 4607,
      "ĠØªØ¶": 4608,
      "Ø§ÙħÙĬØ©": 4609,
      "Ġor": 4610,
      "\\\".": 4611,
      "Ø¯Ø±Ø§Ø³Ø©": 4612,
      "nÙĪÙģÙĬ": 4613,
      "ĠØ£ÙĩÙħÙĬØ©": 4614,
      "ĠÙĩÙĨØ¯": 4615,
      "ĠØ§ÙĦØ³ÙĪØ±ÙĬ": 4616,
      "166": 4617,
      "ĠÙħØªÙĨÙĪØ¹Ø©": 4618,
      "877": 4619,
      "ĠØ§ÙĦÙĪØ²Ø±": 4620,
      "ĠÙħÙĨØ§Ø²ÙĦ": 4621,
      "Ø¯ÙĬØ§ÙĦ": 4622,
      "ĠÙĪÙħØ±": 4623,
      "Ø§ÙĤÙĬØ©": 4624,
      "ĠØ³ÙĦÙĬÙħ": 4625,
      "ÙģÙĩ": 4626,
      "nÙĪÙĦ": 4627,
      "nØ§ÙĦØ±Ø¦ÙĬØ³ÙĬØ©": 4628,
      "ĠØ§ÙĦÙģÙĨÙĬ": 4629,
      "ĠØ´Ùĩ": 4630,
      "Ø«ÙĦØ§Ø«": 4631,
      "ÙĪÙĨÙĩ": 4632,
      "ĠÙĬØ³Ø§Ø¹Ø¯": 4633,
      "ĠØ¥ÙĤ": 4634,
      "ĠØ§ÙĦØ·Ø¹Ø§Ùħ": 4635,
      "âĢĵ": 4636,
      "no": 4637,
      "Ø¹ÙĦÙĨØª": 4638,
      "ØµØ§Øª": 4639,
      "ĠÙĥØ±ÙĬÙħ": 4640,
      "ĠÙħÙĦÙĬØ§Ø±": 4641,
      "ØŃÙħØ§ÙĬØ©": 4642,
      "ĠÙĦØ³ØŃÙĤ": 4643,
      "674": 4644,
      "FF": 4645,
      "ĠØ¯ÙģØ¹": 4646,
      "311": 4647,
      "io": 4648,
      "904": 4649,
      "ĠØ§ÙĦØ±ØºÙħ": 4650,
      "ĠØ§ÙĦÙĪØ²Ø±Ø§Ø¡": 4651,
      "ĠØ§ÙĦØ±ÙĪØ³ÙĬØ©": 4652,
      "ĠÙħØŃØ¯": 4653,
      "ĠØªØ¯ÙĪÙĬØ±": 4654,
      "Ù¥": 4655,
      "ĠØ§ÙĦÙħØ¶": 4656,
      "Ø¨ÙĬÙĩ": 4657,
      "ree": 4658,
      "Ġ*\\": 4659,
      "ĠØ§ÙĦØ¹ÙĦÙħÙĬØ©": 4660,
      "ĠØ§ÙĦÙĥÙĩØ±Ø¨Ø§Ø¡": 4661,
      "nØªÙħ": 4662,
      "ĠØ¨Ø§ÙĦØ´": 4663,
      "ĠÙĪØ§ÙĦÙħØ¹": 4664,
      "Ø³Ø¯": 4665,
      "906": 4666,
      "Ø§ÙĦØ±": 4667,
      "Ø§ÙħÙĨ": 4668,
      "377": 4669,
      "ĠØ§ÙĦÙģÙĦØ¨ÙĬÙĨ": 4670,
      "155": 4671,
      "ĠØ§ÙĦØªØµÙħÙĬÙħ": 4672,
      "ĠÙģÙĤØ§ÙĦ": 4673,
      "ÙĪØªÙĪ": 4674,
      "ĠØ§ÙĦØ§Ø³ØªØ®Ø¯Ø§Ùħ": 4675,
      "157": 4676,
      "ĠØ§ÙĦØ¥Ø¯Ø§Ø±Ø©": 4677,
      "ast": 4678,
      "Ø¶Ùģ": 4679,
      "124": 4680,
      "nØ§ÙĦÙĨ": 4681,
      "Ġïº": 4682,
      "ĠØ¨ÙĦØº": 4683,
      "ĠØ¹Ø²": 4684,
      "ĠÙĬÙĩ": 4685,
      "Ġab": 4686,
      "ĠØ®ÙĦÙģ": 4687,
      "ĠØ§ÙĦØ®Ø§ÙħØ³": 4688,
      "ĠØ§ÙĦÙħØ±ÙĥØ²ÙĬ": 4689,
      "125": 4690,
      "ÙĬÙĦØ": 4691,
      "ÙĬÙĦØ§": 4692,
      "ĠØªØº": 4693,
      "Ġyour": 4694,
      "ĠØ§ÙĦÙħØ³ÙĬ": 4695,
      "Ø§ÙĨØ³": 4696,
      "news": 4697,
      "nÙĪÙĥ": 4698,
      "ĠØ§ÙĦØ§ÙĨØª": 4699,
      "ĠØ§ÙĦØ«Ø§ÙĨÙĪÙĬØ©": 4700,
      "ĠØ¨ÙĤÙĬ": 4701,
      "ale": 4702,
      "ØªÙĬØ§Ø¬Ø§Øª": 4703,
      "ĠÙģÙĦØ³Ø·ÙĬÙĨ": 4704,
      "Ø®Ø§Ø¨Ø§Øª": 4705,
      "ĠÙħØ´Ø§Ø±ÙĥØ©": 4706,
      "ĠØ§ÙĦØºÙĬØ§Ø±": 4707,
      "nØ§ÙĦØµÙĬÙĨ": 4708,
      "ĠØ§ÙĦØ´Ø¨": 4709,
      "Ø±ÙĬØ": 4710,
      "Ø±ÙĬØ§": 4711,
      "ĠØ§ÙĦØ¯Ø¹": 4712,
      "ÙģØ§Ø²Ø§Øª": 4713,
      "9973": 4714,
      "156": 4715,
      "ark": 4716,
      "Ø§ØŃØ«": 4717,
      "Ø§ÙĦØ¹": 4718,
      "9968": 4719,
      "ØªÙĬØŃ": 4720,
      "ĠØ¬ÙħÙĩÙĪØ±ÙĬØ©": 4721,
      "ĠÙĥÙĦÙħØ§Øª": 4722,
      "Ø·Ø§ÙĤØ©": 4723,
      "ĠØ¨Ø§ÙĦÙĨ": 4724,
      "117": 4725,
      "ĠØ§ÙĦØ´Ø¹Ø¨ÙĬ": 4726,
      "ĠØ«Ø§ÙĨÙĬØ©": 4727,
      "ome": 4728,
      "ĠØ³ÙĬØ¯": 4729,
      "ĠØ§ÙĦØªØ¹Ø§ÙħÙĦ": 4730,
      "Ø´ÙģÙī": 4731,
      "ĠØªØ²": 4732,
      "ĠØ¬Ø²Ø±": 4733,
      "ĠØ§ÙĦÙĦØ¨ÙĨ": 4734,
      "ĠØªÙĪÙĬØªØ±": 4735,
      "99966": 4736,
      "Ø±ÙĥØ©": 4737,
      "ĠØ§ÙĬØ¶Ø§": 4738,
      "Ø§ÙĬÙĪ": 4739,
      "nB": 4740,
      "ĠØ§ÙĦØŃØ§ÙĦÙĬ": 4741,
      "ÙģÙĬÙĩ": 4742,
      "ail": 4743,
      "ĠØ§ÙĦØ·Ø¨ÙĬØ¹ÙĬØ©": 4744,
      "Ġ||": 4745,
      "ÙĥØ±Ø§ÙĨÙĬØ§": 4746,
      "ĠØ§ÙĦÙĥØ§ÙĦØ³ÙĬÙĪÙħ": 4747,
      "ĠØ§ÙĦØ¯ÙĪØ±ÙĬ": 4748,
      "ora": 4749,
      "ĠØ§ÙĦØ±Ø¦ÙĬØ³ÙĬ": 4750,
      "nØ·Ø§ØŃÙĪÙĨØ©": 4751,
      "466": 4752,
      "ĠØ¥Ùģ": 4753,
      "AFD": 4754,
      "057": 4755,
      "ĠÙģØŃØµ": 4756,
      "Ġex": 4757,
      "ĠÙĬØŃØªØ§Ø¬": 4758,
      ",,": 4759,
      "ĠÙĬØ¹Ø±Ùģ": 4760,
      "ĠØ§ÙĦÙģØ±ÙĨ": 4761,
      "Ø±Ø¹": 4762,
      "Ø®Ùħ": 4763,
      "OS": 4764,
      "ĠÙħØ³Ø¤ÙĪÙĦ": 4765,
      "ĠØ¹ÙħÙĪØ¯ÙĬØ©": 4766,
      "ÙħÙĨØªØ¯Ùī": 4767,
      "ĠØŃØ±ÙĥØ©": 4768,
      "575": 4769,
      "Ø£ÙĦØ©": 4770,
      "ĠØ§ÙĦØ¯ÙĪØ±": 4771,
      "ÙĪÙĬØ³": 4772,
      "ĠØ£Ø±Ø¶": 4773,
      "ĠØ£Ø¹Ø±Ùģ": 4774,
      "ÙĪØ§ÙħÙĦ": 4775,
      "nN": 4776,
      "nØ§ÙĦÙĤ": 4777,
      "853": 4778,
      "ĠØ¨ÙĬØ§ÙĨ": 4779,
      "ĠÙĨÙĪØ±": 4780,
      "ĠSh": 4781,
      "ĠØ§ÙĦØ±Ø§Ø¨Ø¹": 4782,
      "ure": 4783,
      "ĠØªØŃÙĪÙĬÙĦ": 4784,
      "257": 4785,
      "ĠØ§ÙĦØ¥ÙħØ§Ùħ": 4786,
      "ĠØ§ÙĦØ£Ùĩ": 4787,
      "ĠØ£ÙĨØŃØ§Ø¡": 4788,
      "ĠÙħÙĦÙĥ": 4789,
      "Ø§ÙħØ±": 4790,
      "ï»Ł": 4791,
      "ĠÙħÙĨØ¬Ùħ": 4792,
      "ick": 4793,
      "ØµØ§Ø±": 4794,
      "ĠØ§ÙĦÙħØ§Ø¯Ø©": 4795,
      "âĢľ": 4796,
      "943": 4797,
      "Ø§ÙĦÙĨ": 4798,
      "ĠØ®Ø·ÙĪØ·": 4799,
      "ĠØ·Ø±": 4800,
      "Ø³Ø§Ø¡": 4801,
      "ĠØ§ÙĦØ³Ùģ": 4802,
      "nØ§ÙĦØ¯Ø±Ø¯Ø´Ø©": 4803,
      "236": 4804,
      "ĠØ¹ÙĦÙĬÙĥÙħ": 4805,
      "ĠÙĪØ§ÙĦØ«": 4806,
      "ĠØ§ÙĦØ¨ÙĬØ¹": 4807,
      "ard": 4808,
      "nØ§ÙĦÙħØ²ÙĬØ¯": 4809,
      "ÙĪØ¶ØŃ": 4810,
      "ER": 4811,
      "ĠØªØ¹ÙĦÙĬÙĤØ§Øª": 4812,
      "Ø³ÙĦØ©": 4813,
      "ĠØ£Ø±Ø¨": 4814,
      "ÙħÙĪØ¯ÙĬ": 4815,
      "ĠØ§ÙĦØ³ÙĬØ§Ø³ÙĬ": 4816,
      "917": 4817,
      "ĠØ§ÙĦØŃØ¨": 4818,
      "ĠØ¨Ø§ÙĦØ¯": 4819,
      "ĠÙĥØªØ§Ø¨Ø©": 4820,
      "ÙĬØ±Ùĩ": 4821,
      "ĠØ§ÙĦØ¬ÙħØ¹": 4822,
      "ĠØ´Ø¨Ùĩ": 4823,
      "ĠØªØ³ØªØ·ÙĬØ¹": 4824,
      "ĠØ§ÙĦØ«ÙĦØ§Ø«Ø§Ø¡": 4825,
      "ĠØ¨Ø±ÙĬ": 4826,
      "Ø¦Ø§Ø³Ø©": 4827,
      "ĠØ§ÙĦÙĤÙĦØ¨": 4828,
      "ĠÙĦÙħØ³": 4829,
      "ĠÙĤØµØ©": 4830,
      "Ø²ÙĬØ§Ø¯Ø©": 4831,
      "ĠÙĬÙĨØª": 4832,
      "ĠØ¯Ø®ÙĪÙĦ": 4833,
      "ĦÙĪ": 4834,
      "ĠÙħØ§ÙĨ": 4835,
      "ÙĦÙĪ": 4836,
      "948": 4837,
      "ĠØ§ÙĦÙĥÙĬÙħÙĬ": 4838,
      "ĠÙħØ§Ø³": 4839,
      "044": 4840,
      "FB": 4841,
      "ĠØºØ³Ø§ÙĦØ©": 4842,
      "ĠØ§ÙĦÙħÙĪØ¬ÙĪØ¯Ø©": 4843,
      "ĠØªØªØŃ": 4844,
      "ÙĬØ±ÙĬØ©": 4845,
      "ĠØµØ§ÙĦØŃ": 4846,
      "ĠØ¨Ø·Ø±ÙĬÙĤØ©": 4847,
      "ress": 4848,
      "ÙĨØ¯ÙĪÙĤ": 4849,
      "900": 4850,
      "ĠØ§ÙĦÙħØ®Ø±ÙĪØ·ÙĬØ©": 4851,
      "ĠØªØ¨ØŃØ«": 4852,
      "ĠØ§ÙĦØ¹ÙĦÙĬØ§": 4853,
      "ÙħÙĬØ§Øª": 4854,
      "046": 4855,
      "ÙħÙĢ": 4856,
      "nD": 4857,
      "ĠØ³ÙĬÙĨ": 4858,
      "Ø§Ø¯Øª": 4859,
      "ĠØ¨ÙĨØ§Øª": 4860,
      "ĠÙĬØ¨": 4861,
      "Ø´Ø§Ø±Ø§Øª": 4862,
      "ØªÙĪÙģØ±": 4863,
      "ĠØ§ÙĦØ¹ÙħØ§ÙĦ": 4864,
      "ĠØ§ÙĦØ¨ÙĬØª": 4865,
      "ĠÙĤØ·Ø¹Ø©": 4866,
      "ĠÙĨØ§Ø¦Ø¨": 4867,
      "ĠØ§ÙĦØ¯ÙĪÙĦÙĪÙħÙĬØª": 4868,
      "164": 4869,
      "ĠØ§ÙĦØªÙħ": 4870,
      "ĠØ³Ø¨ØŃ": 4871,
      "ĠØ§ÙĦÙĦØ§Ø²ÙħØ©": 4872,
      "ĠØ¨Ø´Ø±": 4873,
      "014": 4874,
      "ĠÙĦÙĦØ±": 4875,
      "ĠØ¨Ø°ÙĦÙĥ": 4876,
      "ĠÙĦØªØ±": 4877,
      "99957": 4878,
      "ĠØ§ÙĦÙĩØ¯": 4879,
      "Ø§ÙģØ¹": 4880,
      "ĠØ¥Ø¨Ø±Ø§ÙĩÙĬÙħ": 4881,
      "ĠØªØ±ØªÙĬÙĦ": 4882,
      "ĠØ§ÙĦØ®ÙĦÙĬØ¬": 4883,
      "165": 4884,
      "ÙĦÙĬØ³": 4885,
      "ÙĨØ¯Ø³": 4886,
      "ÙĨØ§Ø¦ÙĬØ©": 4887,
      "ĠØ´Ø¹": 4888,
      "ĠØ§ÙĦØ¬ÙĬØ´": 4889,
      "ĠÐ": 4890,
      "ĠÙģÙĪÙĦ": 4891,
      "2019": 4892,
      "ĠØ§ÙĦØ¯ÙģØ¹": 4893,
      "ĠÙģØ§ÙĨ": 4894,
      "ÙģØ§Ø¯Ø©": 4895,
      "rad": 4896,
      "136": 4897,
      "075": 4898,
      "ll": 4899,
      "958": 4900,
      "ĠØªÙĪØ¬Ø¯": 4901,
      "ĠØ§ÙĥØ«Ø±": 4902,
      "ĠØ§ÙĦØ¥Ø³Øª": 4903,
      "ĠØ§ÙĦØ£ÙĪØ±ÙĪØ¨ÙĬ": 4904,
      "cess": 4905,
      "Ø±ÙĬØ¬": 4906,
      "ĠÙħØ´Ø§ÙĥÙĦ": 4907,
      "ĠØ§ÙĦØ£Ø¬ÙĩØ²Ø©": 4908,
      "ĠØ±Ø¬ÙĦ": 4909,
      "ÙĨØ³Ø§Ø¡": 4910,
      "ĠØ§ÙĦÙģÙĨÙĬØ©": 4911,
      "ĠØ§ÙĦØ¯ÙĪØ±Ø©": 4912,
      "ĠØ¸Ù": 4913,
      "Ø²Ø": 4914,
      "Ø²Ø§": 4915,
      "ĠØ¥ÙĦÙĥØªØ±": 4916,
      "ÙĤÙģ": 4917,
      "ĠØ¥Ø·Ø§Ø±": 4918,
      "ĠØ§ÙĦØ³ÙģØ±": 4919,
      "ĠØ¸ÙĦ": 4920,
      "ĠÙĪØ§ÙĦÙħØ±": 4921,
      "ĠØ§ÙĦØ¹Ø¯Ø¯": 4922,
      "154": 4923,
      "ĠÙĦØ¹": 4924,
      "ĠØ§ÙĦÙħØŃØªÙĪÙī": 4925,
      "ĠØºØ±Ùģ": 4926,
      "ÙĪØ®": 4927,
      "ions": 4928,
      "port": 4929,
      "ĠØ§ÙĦØªØ¨": 4930,
      "ĠÙĪØ¹ÙĨ": 4931,
      "ĠÙħØªÙĪØ³Ø·": 4932,
      "min": 4933,
      "ØŃÙĤÙĤ": 4934,
      "Ø³Ùĥ": 4935,
      "ĠØ´ØŃÙĨ": 4936,
      "ĠÙĪØ³Øª": 4937,
      "Ġ45": 4938,
      "ĠØºØ±ÙģØ©": 4939,
      "ĠØ¨Ø¯Ø¡": 4940,
      "Ø¸Ùģ": 4941,
      "Ø¯Ø±Ø§Øª": 4942,
      "ÙĬØ¶": 4943,
      "ĠØ§ÙĦÙħØ³ÙĦÙħÙĬÙĨ": 4944,
      "ĠØµÙĪØª": 4945,
      "ĠØ¨ÙĪÙĥ": 4946,
      "nØ£ÙĨ": 4947,
      "ĠØ§ÙĦÙħÙĪØ³Ùħ": 4948,
      "Ġad": 4949,
      "ĠØ§ÙĦØ³Ø¨Øª": 4950,
      "Ø¶ÙħØ§ÙĨ": 4951,
      "105": 4952,
      "ĠØ§ÙĨØ¯ÙĪÙĨÙĬØ³ÙĬØ§": 4953,
      "ĠÙħØµÙĨØ¹ÙĬ": 4954,
      "ĠØ§ÙĦØ±ÙĤÙħÙĬØ©": 4955,
      "ĠØŃÙħØ§ÙĬØ©": 4956,
      "load": 4957,
      "ÙĥØªØ¨": 4958,
      "ÙĨÙĬÙĪÙħ": 4959,
      "ĠÙĤØ±Ø§Ø±": 4960,
      "ld": 4961,
      "ÙħÙĪØ²": 4962,
      "99977": 4963,
      "Ø´Ø§Ø·": 4964,
      "Ø¯ÙĬÙĤØ©": 4965,
      "ys": 4966,
      "ĠØµØŃØ©": 4967,
      "ĠÙĪØªØ³": 4968,
      "267": 4969,
      "ĠØ§ÙĦØ£ØµÙĦ": 4970,
      "ĠØ§ÙĦØªÙĨØ¸ÙĬÙģ": 4971,
      "Ø§ÙĪÙĦØ§Øª": 4972,
      "ĠØ§ÙĦØ¨ÙĨÙĥ": 4973,
      "nÙĪØ¨": 4974,
      "ĠØ§ÙĦØ±ÙĬ": 4975,
      "ĠØ¨ÙĨÙĥ": 4976,
      "Ø·ÙĦØ§Ø¨": 4977,
      "Ø¢Øª": 4978,
      "ĠÙħÙħÙĥÙĨ": 4979,
      "ĠÙħÙĩÙħØ©": 4980,
      "ĠÙĬØŃØ¯Ø«": 4981,
      "ÙĬÙħØ§ÙĨ": 4982,
      "nØ´Ø§Ø±Ùĥ": 4983,
      "ÙĪÙĬØ¨": 4984,
      "ĠØ¬Ø§Ùħ": 4985,
      "Ø®Ø§Ø±": 4986,
      "ĠØ³Ø¨Ø¨": 4987,
      "9982": 4988,
      "ĠØ§ÙĦØºØ³ÙĬÙĦ": 4989,
      "ĠØ§ÙĦÙĥØ¨ÙĬØ±Ø©": 4990,
      "ĠØ§ÙĦÙģÙĦØ³Ø·ÙĬÙĨÙĬ": 4991,
      "ÙĦØ§ÙħØ§Øª": 4992,
      "921": 4993,
      "ĠÙħÙĨØ§Ø·ÙĤ": 4994,
      "ĠÙĤÙĦØ¨": 4995,
      "ĠØ¨ÙĩØ°Ø§": 4996,
      "ĠØ§ÙĦØ£Ø±Ø¯ÙĨ": 4997,
      "ĠØªØŃÙħÙĦ": 4998,
      "068": 4999,
      "Ù©": 5000,
      "ĠØ§ÙĦØ°Ùĩ": 5001,
      "ĠØ§ÙĦØ¯Ø±Ø§Ø³Ø§Øª": 5002,
      "103": 5003,
      "ÙĤØ±Ø©": 5004,
      "Ġ144": 5005,
      "ØªÙĤØ¯": 5006,
      "ØºÙĩ": 5007,
      "ĠØ§Ø¹Ù": 5008,
      "ĠØ§Ø¹ÙĦ": 5009,
      "own": 5010,
      "ĠÙħÙĪÙĦ": 5011,
      "9824": 5012,
      "ØªØ§Øª": 5013,
      "nØ®Ø·": 5014,
      "Ġfrom": 5015,
      "ĠØ§ÙĦÙħØ·ØŃÙĨØ©": 5016,
      "ĠØ§ÙĦØ¨ÙĬØ§ÙĨÙĬ": 5017,
      "ĠØ§ÙĦÙĨÙĬ": 5018,
      "ĠÙĬØ±Ø¬": 5019,
      "ĠØ§ÙĦØ®ØµÙĪØµÙĬØ©": 5020,
      "ĠÙħØ¯Ùī": 5021,
      "Ø§ØªÙĥ": 5022,
      "ĠØ§ÙĦØ§ÙĨØªØ§Ø¬": 5023,
      "ical": 5024,
      "ĠØ±ÙĬØ§Ø¶ÙĬØ©": 5025,
      "675": 5026,
      "ÙĪÙĦÙĬØ©": 5027,
      "cted": 5028,
      "ĠÙĨØŃ": 5029,
      "ÙĪÙģÙĬ": 5030,
      "ĠØ®ÙĦÙģÙĬØ§Øª": 5031,
      "ĠÙĬØŃØ¨": 5032,
      "ĠØªØ¬Ø¯": 5033,
      "Ġï": 5034,
      "ĠØªØ¬Ø±Ø¨Ø©": 5035,
      "sa": 5036,
      "ĠØ§ÙĦÙĪØ§ØŃ": 5037,
      "937": 5038,
      "ĠØªÙĪÙĨØ³": 5039,
      "ĠØ§ÙĦØ¥Ø³ÙĦØ§ÙħÙĬ": 5040,
      "ĠÙĦÙĦÙħÙĨ": 5041,
      "146": 5042,
      "Ø±ÙĤÙħ": 5043,
      "ĠØ§Ø²": 5044,
      "9934": 5045,
      "ĠØ®ÙĦÙĬ": 5046,
      "ĠØ§ÙĦØŃÙĥÙħ": 5047,
      "ĠÙħØŃØ§ÙģØ¸Ø©": 5048,
      "ĠØŃØµÙĦ": 5049,
      "ĠØ°ÙĩØ¨": 5050,
      "ØªØ²Ø§Ø²": 5051,
      "ĠÙĪÙĬÙĥÙĬØ¨ÙĬ": 5052,
      "nØ§ÙĦØ¨ØŃØ«": 5053,
      "ĠØ§ÙĦØ²Ø¬Ø§Ø¬": 5054,
      "ĠHD": 5055,
      "Ø§Ø¯Ø«": 5056,
      "nØ³ØŃÙĤ": 5057,
      "nÙĪÙĤØ§ÙĦ": 5058,
      "Ø§Ø³Ù": 5059,
      "nØ®Ø§Ùħ": 5060,
      "9954": 5061,
      "ĠØ§ÙĦØ§ÙĤØªØµØ§Ø¯": 5062,
      "99976": 5063,
      "Ø§Ø³ÙĦ": 5064,
      "Ø¦ÙĬÙĨ": 5065,
      "OR": 5066,
      "ĠÙĪÙħØ¹Ø¯Ø§Øª": 5067,
      "ĠØ§ÙĦØµÙĨØ§Ø¹Ø©": 5068,
      "Ùĭ.": 5069,
      "Ġ;": 5070,
      "TM": 5071,
      "ĠØ¨ÙĨÙģØ³": 5072,
      "144": 5073,
      "me": 5074,
      "Ø°ÙĪØ±": 5075,
      "9925": 5076,
      "ĠØªØ¬Ø§Ø±": 5077,
      "9927": 5078,
      "we": 5079,
      "ÙĨØ§ØµØ±": 5080,
      "ĠØ§ÙĦÙģØ±ÙĨØ³ÙĬØ©": 5081,
      "ĠØ§ÙĦØ¨ÙĬØ¦Ø©": 5082,
      "ĠØ§ÙĦÙħÙĥØ§ÙĨ": 5083,
      "ĠØ§ÙĦØ¨Ø¹Ø¶": 5084,
      "ÙĥØ§ÙĦÙĬÙģ": 5085,
      "ÙĬØµ": 5086,
      "Ù¤": 5087,
      "ĠÙĥØ±ÙĪ": 5088,
      "ĠÙħØ¸": 5089,
      "Ù£": 5090,
      "ÙħØ§Ø±Ø³Ø©": 5091,
      "ĠØ¹Øµ": 5092,
      "836": 5093,
      "ĠØ§ÙĦØµÙĪØª": 5094,
      "ĠÙĪØ§ØªØ³Ø§Ø¨": 5095,
      "ĠØ§ÙĦÙħØ¬ÙħÙĪØ¹Ø©": 5096,
      "ĠØ§ÙĦÙĨØ´Ø±": 5097,
      "ĠØ§ÙĦØ¹Ø§ÙĦÙĬ": 5098,
      "ien": 5099,
      "147": 5100,
      "so": 5101,
      "ĠØ§ÙĦÙħØ´Ø§Ø±ÙĥØ©": 5102,
      "Ġun": 5103,
      "ĠØ¹Ø³": 5104,
      "nØªÙĨ": 5105,
      "ĠÙĨÙĤØ·Ø©": 5106,
      "677": 5107,
      "Ø§Ø·Ø©": 5108,
      "ĠØ§ÙĦØ¯Ø±Ø§Ø³Ø©": 5109,
      "Ø¯Ø§Ø¡": 5110,
      "ĠÙĬØ¤Ø¯ÙĬ": 5111,
      "nØ·ØŃÙĨ": 5112,
      "ĠØ§ÙĦØ¬ÙħÙĬØ¹": 5113,
      "ØªÙĦØ§Ùģ": 5114,
      "ÙĩØ°Ø§": 5115,
      "ĠØ¯Ø§Ø¦Ùħ": 5116,
      "ĠâĢ«": 5117,
      "Ø¶ØºØ·": 5118,
      "ĠØ§ÙĦÙħØ¬Ø§ÙĦ": 5119,
      "ĠÙĪØ±Ø¯": 5120,
      "Ġla": 5121,
      "Ø±ÙĤØ§Ùħ": 5122,
      "ĠÙĬØªØ¹ÙĦÙĤ": 5123,
      "ĠÙħØ¨Ø¯Ø£": 5124,
      "Ø§Ø°Ø¬": 5125,
      "ĠØ§ÙĥØ³Ø³ÙĪØ§Ø±Ø§Øª": 5126,
      "form": 5127,
      "Ø«Ø¨ÙĬØª": 5128,
      "ĠÙħØ·Ø±ÙĤØ©": 5129,
      "ĠÙĦØ¹Ø§Ùħ": 5130,
      "ĠØ§ÙĦØªØ¹Ø§ÙĪÙĨ": 5131,
      "Ġmill": 5132,
      "ĠØ´Ø§ÙĩØ¯": 5133,
      "ĠØ§ÙĦØ£Ø¹ÙĦÙī": 5134,
      "td": 5135,
      "AN": 5136,
      "99935": 5137,
      "ĠÙĦÙĦØªØ¹": 5138,
      "ØµØ¯Ø±": 5139,
      "ĠØªÙĨØ¸ÙĬÙħ": 5140,
      "Ø´ØŃ": 5141,
      "ÙĨØ§Ø·ÙĬ": 5142,
      "Ø¢ÙĦØ§Øª": 5143,
      "ÙĥØªÙĨØ§": 5144,
      "ĠØ§ÙĦØ·Ø±ÙĬÙĤØ©": 5145,
      "Ø®Ø§ÙĦ": 5146,
      "135": 5147,
      "ĠØ§ÙĦØ§Ø¬": 5148,
      "nØ¨ÙĬØ¹": 5149,
      "9917": 5150,
      "ĠÙĦØªÙĪ": 5151,
      "ĠÙĦØ¬ÙĨØ©": 5152,
      "ÙĥÙĨØ¯Ø±": 5153,
      "php": 5154,
      "Ø¬Ø±Ø§Ø¡Ø§Øª": 5155,
      "ĠØ§ÙĦØ³Ø§Ø¨ÙĤØ©": 5156,
      "ĠØªØ¹Ø±Ø¶": 5157,
      "ĠØµÙĬ": 5158,
      "ÙĦØ§ÙĦØ©": 5159,
      "ÙĪÙĦÙĬØ¯": 5160,
      "ĠØªÙĬ": 5161,
      "nØ¢ÙĦØ§Øª": 5162,
      "ĠØŃÙĦÙĪÙĦ": 5163,
      "ĠØ§ÙĦØºØ°Ø§Ø¦ÙĬØ©": 5164,
      "ĠÙĨØµÙģ": 5165,
      "ÙĦÙģØ²ÙĬ": 5166,
      "ĠØªØ·Ø¨ÙĬÙĤØ§Øª": 5167,
      "ĠØ¨Ø±Ø¬": 5168,
      "ĠØ§Ø°Ø§": 5169,
      "832": 5170,
      "Ø²Ùĩ": 5171,
      "ĠØ§ÙĦÙĤØ³Ùħ": 5172,
      "ĠØ§ÙĦØ±Ø§Ø¦Ø¯Ø©": 5173,
      "878": 5174,
      "ĠÙĪØº": 5175,
      "ĠØ¬Ø§Ùĩ": 5176,
      "ĠÙĪØ§ÙĦØªÙĨ": 5177,
      "ĠÙĦÙĦÙħØ±": 5178,
      "679": 5179,
      "ØµÙģØŃØ©": 5180,
      "az": 5181,
      "9888": 5182,
      "ĠÙĪØªØª": 5183,
      "ĠÙĪØ«": 5184,
      "Ø§Ø±ÙĤ": 5185,
      "duct": 5186,
      "Ø¶ÙĬÙģ": 5187,
      "ĠØŃØµØ§ÙĨ": 5188,
      "ĠØ¹ÙĦÙĬÙĩÙħ": 5189,
      "ĠØ§ÙĦÙĪØ³": 5190,
      "Ø³ÙĬÙĤÙī": 5191,
      "ĠâĢİ": 5192,
      "Ø§Ø¹Ùĩ": 5193,
      "ĠÙĦØ°Ø§": 5194,
      "ĠØ§ÙĦØ®ÙĬØ§Ø±Ø§Øª": 5195,
      "ĠØ§ÙĦÙħØ°": 5196,
      "ĠØ¨ØªØŃ": 5197,
      "ĠØ¹Ø§Ø¯Ø©": 5198,
      "Ø¬Ø§Ø¯": 5199,
      "Ø¯Ø§Ø±": 5200,
      "ĠÙĬÙĪØ³Ùģ": 5201,
      "ØºÙĨÙĬØ²": 5202,
      "Ø§ÙĬÙĬØ±": 5203,
      "ÙĨØ§Ùĩ": 5204,
      "ĠÙħØµÙĨ": 5205,
      "ÙģÙĬØ¯": 5206,
      "99996": 5207,
      "nØ·Ø±ÙĬÙĤØ©": 5208,
      "ÙĤÙĬÙĤÙĬ": 5209,
      "pan": 5210,
      "ĠØ§ÙĦÙĤØ¯Ø±Ø©": 5211,
      "ĠØ§ÙĦÙħØ¨ÙĬØ¹Ø§Øª": 5212,
      "ÙĤØ§Ø¦ÙĤ": 5213,
      "ĠØªØ¹Ø¯ÙĬÙĦ": 5214,
      "ass": 5215,
      "ĠØ§ÙĦØ¬ÙĬ": 5216,
      "ÙĪØ±ÙĪ": 5217,
      "ĠØ§ÙĦÙħØ«Ø§ÙĦ": 5218,
      "ĠÙĪØ§ÙĦØªØŃ": 5219,
      "Ø·Ø±Ø©": 5220,
      "nØ§Ø±": 5221,
      "ĠØ§ØªÙģØ§ÙĤ": 5222,
      "ĠÙĥÙĬÙĨÙĬØ§": 5223,
      "ĠØ¬ÙĪØ¬ÙĦ": 5224,
      "ĠØ§ÙĦØ¹ÙħÙĬÙĦ": 5225,
      "ĠØ§ÙĦÙĤØ·Ø§Ø¹": 5226,
      "ĠØ«Ø§ÙĨ": 5227,
      "ĠØ§ÙĦØŃØ±Ø§Ø±Ø©": 5228,
      "ĠØ£ØµØŃØ§Ø¨": 5229,
      "ÙĩÙĦØ§Ùĥ": 5230,
      "ĠØ«Ø§Ø¨Øª": 5231,
      "ĠØ§ÙĦØ¬ÙĪ": 5232,
      "ĠØ§ÙĦØ§Ø¨ØªØ¯Ø§Ø¦ÙĬ": 5233,
      "064": 5234,
      "ĠÙĪÙĬØªÙħ": 5235,
      "ĠÙĪÙģÙĤØ§": 5236,
      "99719": 5237,
      "tag": 5238,
      "ĠØ§ÙĦØ·ÙĦØ§Ø¨": 5239,
      "nÙħØ§Ùĥ": 5240,
      "ĠØ§ÙģÙĦØ§Ùħ": 5241,
      "ĠØ³Ùĥ": 5242,
      "ĠÙħØ¹Ùĩ": 5243,
      "ĠÙĥÙĨ": 5244,
      "Ø²ÙĪ": 5245,
      "ĠØ§ÙĦØ¨Ø±Ø§ÙħØ¬": 5246,
      "Ø§Ùī": 5247,
      "ĠØ§ØŃØª": 5248,
      "99925": 5249,
      "Ø§Ø³ØªÙĬÙĥ": 5250,
      "Ø£Ø«ÙĬØ±": 5251,
      "ĠØ§ÙĦÙĪØ·ÙĨ": 5252,
      "ĠØªØºØ°ÙĬØ©": 5253,
      "Ø¯ÙĬÙħÙĤØ±Ø§Ø·": 5254,
      "ork": 5255,
      "9916": 5256,
      "9904": 5257,
      "239": 5258,
      "Ø´Ø§Øª": 5259,
      "ĠØ§ÙĦØªÙĨÙħÙĬØ©": 5260,
      "ĠÙĦÙĩØ°Ùĩ": 5261,
      "Ø¹Ùĩ": 5262,
      "ong": 5263,
      "ĠÙĬÙĪÙħÙĬØ§": 5264,
      "ĠØ§ÙĦØ¨Ø±ÙĬØ·": 5265,
      "ÙĨØ§Ø·ÙĬØ³ÙĬ": 5266,
      "077": 5267,
      "ĠØ§ÙĦØ±Ø³ÙħÙĬ": 5268,
      "ĠØ§ÙĦÙħØ¨Ø§": 5269,
      "ĠØ¥Ø¹": 5270,
      "ÙĪØ§Ùĥ": 5271,
      "ÙĩÙĢ": 5272,
      "Ø§ÙĦØº": 5273,
      "ãĢ": 5274,
      "576": 5275,
      "2274": 5276,
      "ĠØªØŃØ³ÙĬÙĨ": 5277,
      "ÙĪÙĬØ§": 5278,
      "ĠØ§ÙĦØ£ÙħÙĪØ±": 5279,
      "ĠØ§ÙĦÙħØ³ØªÙĤØ¨ÙĦ": 5280,
      "Ø±ÙĬØ¨ÙĬØ©": 5281,
      "909": 5282,
      "nØ´Ø±": 5283,
      "ĠØ«Ø§ÙĨÙĬ": 5284,
      "ens": 5285,
      "9970": 5286,
      "764": 5287,
      "ĠØ§Ø«Ø§Ø«": 5288,
      "Ø´Ø§Ø¨": 5289,
      "ĠØ§ÙĦØ§Ø³ÙĦØ§Ùħ": 5290,
      "ĠÙĪØ§ÙĦÙ": 5291,
      "nÙħÙĤØ§ÙĦØ§Øª": 5292,
      "ĠÙĨÙĤÙĪÙħ": 5293,
      "9926": 5294,
      "ey": 5295,
      "ĠÙħÙĪØ§ØµÙģØ§Øª": 5296,
      "ĠÙĪØ§ÙĦÙĦ": 5297,
      "Ø°ÙĨ": 5298,
      "ÙĦØ³Ø©": 5299,
      "ower": 5300,
      "ÙĤØ±Ø£": 5301,
      "Ø¨ØªØ¯": 5302,
      "118": 5303,
      "Ġ75": 5304,
      "932": 5305,
      "99964": 5306,
      "ĠØ§ÙĦÙĨÙĪÙħ": 5307,
      "577": 5308,
      "nRe": 5309,
      "ĠØ§ÙĦÙħØµØ±": 5310,
      "ÙĤÙĪÙħ": 5311,
      "Ø§Ø²ÙĬÙĦ": 5312,
      "99988": 5313,
      "ÙĪØµÙĬÙĦ": 5314,
      "Ø¨ÙĪØ±": 5315,
      "ĠÙħØ¯Ø§Ø±": 5316,
      "ĠØ¥Ø³Ø±Ø§Ø¦ÙĬÙĦ": 5317,
      "ĠØ§ÙĦÙħØ±ÙĪØ±": 5318,
      "ĠØ¨Ø³Ø±Ø¹Ø©": 5319,
      "ĠØ¨Ø³Ø¹Ø±": 5320,
      "ÙģÙĬØ¯ÙĬÙĪ": 5321,
      "ĠÙĥÙģØ§Ø¡Ø©": 5322,
      "ĠØ§ÙĦÙĥÙĦÙĬ": 5323,
      "ĠDe": 5324,
      "ĠØ§ÙĦØ¯ÙĪÙĦØ§Ø±": 5325,
      "ĠØ²ÙĬØ§Ø±Ø©": 5326,
      "ĠØ§ÙĦØ": 5327,
      "ĠØ§ÙĦØ§": 5328,
      "ĠØ§ÙĦØ¬ÙĨÙĪØ¨ÙĬØ©": 5329,
      "335": 5330,
      "ĠÙħÙĤØ±": 5331,
      "ĠØ§ÙĦØ§ÙĬ": 5332,
      "Ø§Ø³ÙħÙĨØª": 5333,
      "ĠØªØ³ÙĪÙĤ": 5334,
      "Ġ36": 5335,
      "9924": 5336,
      "Ġ!": 5337,
      "065": 5338,
      "Ø²ÙħØ§Øª": 5339,
      "Ø§ÙĦØµ": 5340,
      "ĠÙĦÙĦÙħØ¹Ø¯Ø§Øª": 5341,
      "126": 5342,
      "ms": 5343,
      "567": 5344,
      "Ø±Ø¬Ø§ÙĦ": 5345,
      "ĠÙħØ±ØŃÙĦØ©": 5346,
      "910": 5347,
      "Ø¦ÙĬØ©": 5348,
      "ina": 5349,
      "Ø§Ø¦Ø²Ø©": 5350,
      "ĠØ¨ÙĥÙħ": 5351,
      "ĠØ¨ØŃÙĬØ«": 5352,
      "ĠØ§ÙĦØ£Ø±Ø¨Ø¹Ø§Ø¡": 5353,
      "Ġare": 5354,
      "ĠÙĦÙĦÙĥ": 5355,
      "ĠØªÙĤÙĬÙĬÙħ": 5356,
      "ĠÙĬÙĪÙģØ±": 5357,
      "Ø§Ø¦ÙĨØ§": 5358,
      "Ø±Øª": 5359,
      "Ø¬ØªÙħ": 5360,
      "Ø§Ø¨ØŃ": 5361,
      "ĠÙģØ±ÙĨØ³Ø§": 5362,
      "ĠØ§ÙĦÙĥÙģØ§Ø¡Ø©": 5363,
      "Ġit": 5364,
      "ĠØ§ÙĦØ£Ø¨ÙĬØ¶": 5365,
      "ĠÙħØŃØ·Ø§Øª": 5366,
      "007": 5367,
      "ÙĩÙĨ": 5368,
      "ĠÙĥÙĬØ±": 5369,
      "ĠØ§ÙĦÙħÙĬÙĥ": 5370,
      "Ø§ÙĪÙĦÙĬÙĨ": 5371,
      "ĠØ³ÙĬØ§Ø³Ø©": 5372,
      "ĠØ¥Ø¹Ø¯Ø§Ø¯": 5373,
      "887": 5374,
      "Ø¹ÙĪÙĨ": 5375,
      "ĠØ¥Ø·ÙĦØ§ÙĤ": 5376,
      "ĠØ§ÙĦØªÙĤÙĨÙĬØ©": 5377,
      "ÙĪÙĤÙĬØª": 5378,
      "achin": 5379,
      "ĠÙĥÙĬÙĦÙĪ": 5380,
      "ĠÙĪØ§Ø®": 5381,
      "Ø±Ø¨Ø§Øª": 5382,
      "ĠÙĪØ¨Ø§ÙĦØªØ§ÙĦÙĬ": 5383,
      "ĠÙħØ²Ø¯": 5384,
      "110": 5385,
      "ĠØ£Ø·": 5386,
      "ÙĪØ§ØŃÙĬÙĨ": 5387,
      "ĠØ§ÙĦØªØ¬Ø§Ø±ÙĬ": 5388,
      "ĠØ§ÙĦØ£Ø¨": 5389,
      "ĠÙĥÙĪØ¯": 5390,
      "ator": 5391,
      "ÙĪÙĥÙĬ": 5392,
      "Ø±ÙĬØ¨Ø§": 5393,
      "ĠØ§ÙĦØ£Ø³ÙĪØ¯": 5394,
      "ĠØ´ÙĩØ§Ø¯Ø©": 5395,
      "Ø§Ø¦ÙĬÙĦÙĬ": 5396,
      "ĠØ¸ÙĩÙĪØ±": 5397,
      "ĠÙĪØ§ÙĦØº": 5398,
      "ĠÙĦØ¯ÙĬÙĩØ§": 5399,
      "938": 5400,
      "nØ§Ùħ": 5401,
      "ĠÙĥØ«ÙĬØ±Ø©": 5402,
      "ai": 5403,
      "ĠÙħØ¨Ø§Ø±ÙĬØ§Øª": 5404,
      "Ø§ÙĬÙĬÙĨ": 5405,
      "9931": 5406,
      "ĠØ³ÙĬÙĥÙĪÙĨ": 5407,
      "Ø±ÙĪØ": 5408,
      "Ø±ÙĪØ§": 5409,
      "nØ§ÙĦØ¹": 5410,
      "ÙĬÙĨÙĪ": 5411,
      "ĠÙĬØ£ØªÙĬ": 5412,
      "ÙĪØ±Ùĥ": 5413,
      "Ø¯Ø±Ø§Ø³Ø§Øª": 5414,
      "ï»¿": 5415,
      "ĠØªØŃÙĦÙĬÙĦ": 5416,
      "lay": 5417,
      "ĠÙħÙĪØ¹Ø¯": 5418,
      "ĠØ§Ø®ØªØ¨Ø§Ø±": 5419,
      "ĠØ§ÙĦØŃØ¬": 5420,
      "ĠÙĪØŃØªÙī": 5421,
      "ere": 5422,
      "ÙĤØ¯ÙĬØ±": 5423,
      "Ġprote": 5424,
      "ĠÙħØ±Ø¶": 5425,
      "ÙĪÙĤØ©": 5426,
      "ØªØ©": 5427,
      "Ø®ÙĬØµØ©": 5428,
      "yr": 5429,
      "ĠÙĦÙĥÙĬ": 5430,
      "ĠØ¹Ø¨Ø¯Ø§ÙĦÙĦÙĩ": 5431,
      "Ġ80": 5432,
      "Ø§Ø¦ÙĤØ©": 5433,
      "ĠÙħÙĬØ§Ùĩ": 5434,
      "ĠØ¹ÙĦÙĪÙħ": 5435,
      "ĠØ§ÙĦØªØ±ÙĥÙĬØ©": 5436,
      "ĠØŁ\\": 5437,
      "99984": 5438,
      "ĠÙĪØ§ÙĦÙĩ": 5439,
      "ĠØ§ÙĦØ¹Ø§ØµÙħØ©": 5440,
      "ĠÙĥÙĪØ±Ø©": 5441,
      "ĠÙħØµØ·ÙģÙī": 5442,
      "ÙĨÙĪÙĨ": 5443,
      "à¸": 5444,
      "ĠÙĨÙĬÙĪØ²": 5445,
      "ØµØ§Øµ": 5446,
      "ĠØ§ÙĦÙħÙĤØ¯": 5447,
      "ÙĪØªÙĬÙĨ": 5448,
      "Ø§ÙĩÙĬ": 5449,
      "ĠØ£Ø³Ø¨Ø§Ø¨": 5450,
      "ĠÙĦÙĦØ£Ø·ÙģØ§ÙĦ": 5451,
      "ÙħÙĨØŃ": 5452,
      "){": 5453,
      "ĠÙħØ³Ø§ØŃØ©": 5454,
      "ĠØ§ÙĦÙħØ§Ø¶ÙĬØ©": 5455,
      "ĠØ§ÙĦØ³Ø§Ø¯Ø³": 5456,
      "nglish": 5457,
      "025": 5458,
      "ĠØ§ÙĦØŃØ§ÙĦØ©": 5459,
      "579": 5460,
      "Ø±ÙĬÙĨ": 5461,
      "Ø§Ø²ÙĦØª": 5462,
      "ĠØ§ÙĦØµØ±": 5463,
      "nMore": 5464,
      "ĠØ³ÙĬØªÙħ": 5465,
      "054": 5466,
      "ĠØ§ÙĦØ§Ø³Ùħ": 5467,
      "ĠØ§ÙĦØªØµÙĨÙĬØ¹": 5468,
      "Ø§Ø¯Ùī": 5469,
      "ĠÙħÙĨØ®ÙģØ¶": 5470,
      "Ð°": 5471,
      "Ø§ÙĥØ©": 5472,
      "ĠØ§ÙĦØ¯Ø¹Ùħ": 5473,
      "ĠØµÙĦØ©": 5474,
      "ĠØ£Ø³Ø¨ÙĪØ¹": 5475,
      "223": 5476,
      "ĠØ§ÙĦØºØ±Ø¨ÙĬØ©": 5477,
      "ĠØ§ÙĦØ£Ø¬ÙĨØ¨ÙĬØ©": 5478,
      "ĠØ§ÙĦØ¨Ø´Ø±ÙĬØ©": 5479,
      "Ġthat": 5480,
      "ime": 5481,
      "130": 5482,
      "ÙĬØ¯Ø±ÙĪ": 5483,
      "ĠÙħØ¹Ø±Ùģ": 5484,
      "ØªØŃØ§ÙĨØ§Øª": 5485,
      "ĠÙĤØ§Ø¹Ø¯Ø©": 5486,
      "ĠÙģÙħÙĨ": 5487,
      "ĠGoogle": 5488,
      "ĠØºØ§ÙĨØ§": 5489,
      "ĠØ§Ø³ØªØ±": 5490,
      "ĠØ¨Ø·Ø§ÙĤØ©": 5491,
      "ĠØŃÙħÙĦ": 5492,
      "ave": 5493,
      "ete": 5494,
      "ous": 5495,
      "ĠØ´Ùĥ": 5496,
      "134": 5497,
      "ĠØªØ¨Ø¯Ø£": 5498,
      "112": 5499,
      "ank": 5500,
      "ĠØ§ÙĦØ¥Ø±": 5501,
      "ÙĤØ¨Ø§ÙĦ": 5502,
      "ĠØ§ÙĦÙģÙĥÙĬØ©": 5503,
      "ĠÙĦØ§ØŃ": 5504,
      "067": 5505,
      "ĠØ§ÙĦÙģØ±ÙĬÙĤ": 5506,
      "ĠØ§ÙĦØ´Ø§Ø±ÙĤØ©": 5507,
      "Ø¯Ø±Ø¬Ø©": 5508,
      "ØªÙħÙĦ": 5509,
      "ÙĬØ¬Ø§Ø±": 5510,
      "Ø¨Ø¯Ø§ÙĦ": 5511,
      "ĠØ£Ø¨Ø±Ø²": 5512,
      "ĠØ§ÙĦØ§Ø±Ø¯": 5513,
      "ØªØ¨Ø§Ø±Ø§Øª": 5514,
      "574": 5515,
      "ĠØ¶Ø±": 5516,
      "ĠÙĦÙĪÙĨ": 5517,
      "ÙĬÙģØ§Øª": 5518,
      "ĠØ§ÙĦÙĩÙĨØ¯Ø³Ø©": 5519,
      "ĠØ§ÙĦØ°Ø§Øª": 5520,
      "2018": 5521,
      "ĠØ£ÙĬØ§Ø±": 5522,
      "ÙĪØ³ÙĪØ¹Ø©": 5523,
      "ĠÙĬØ±ÙĬØ¯": 5524,
      "ĠØ±ÙĪØŃ": 5525,
      "ĠØ¨ÙĨØª": 5526,
      "Ø¯ÙĪØ§Øª": 5527,
      "ĠØ³ÙĩÙĦØ©": 5528,
      "ÙĪØ§Ùħ": 5529,
      "ĠÙĪØ§ÙĦØªØ±": 5530,
      "ĠÙħÙĤØ§Ø±ÙĨØ©": 5531,
      "ĠØ§ÙĦØŃØ±ÙĥØ©": 5532,
      "ĠØªØŃØ¯Ø«": 5533,
      "201": 5534,
      "ÙĥÙĦØ§Øª": 5535,
      "962": 5536,
      "ĠÙĦØ¥ÙĨØªØ§Ø¬": 5537,
      "ÙĬÙĦÙħ": 5538,
      "ĠØŃØ´Ø±Ø§Øª": 5539,
      "ĠØ§ÙĦØ¹Ø²ÙĬØ²": 5540,
      "ĠØ§ÙĦÙħØ¹Ø±ÙĪÙģ": 5541,
      "873": 5542,
      "ĠØ±Ø§Ø¦Ø¹Ø©": 5543,
      "Ø±ÙĥØ§Øª": 5544,
      "ĠÙĪØ¨ÙĬÙĨ": 5545,
      "Ø§Ø¦Ø²": 5546,
      "211": 5547,
      "nÙĤØ§ÙĦ": 5548,
      "99804": 5549,
      "ĠØ§ÙĦØ¥ÙĬØ±": 5550,
      "ĠØ§ÙĦØ§Ø´ØªØ±Ø§Ùĥ": 5551,
      "SS": 5552,
      "ase": 5553,
      "Ø«ÙĦØ©": 5554,
      "ÙĥÙĨØ¯Ø±ÙĬØ©": 5555,
      "177": 5556,
      "Ø¹ÙĨÙĪØ§ÙĨ": 5557,
      "ĠØ§ÙĦÙħØ´Ø±": 5558,
      "ĠÙĪØ§ÙĦÙħØŃ": 5559,
      "ĠØªØ·": 5560,
      "nIn": 5561,
      "Ø¬Ø§Ùħ": 5562,
      "ĠØªØ£Ø¬ÙĬØ±": 5563,
      "ĠØ§ÙĦØªÙĤÙĦÙĬ": 5564,
      "ĠØ§ÙĦØ³ÙĦØ·Ø©": 5565,
      "ĠÙĦÙħØ¹": 5566,
      "Ø§Ø¦Ùĥ": 5567,
      "ĠÙĪØ±ÙĤ": 5568,
      "nØªÙĥÙĦÙģØ©": 5569,
      "Ø°Ø§Ø±": 5570,
      "ĠØ£Ø¯Ø§Ø¡": 5571,
      "ĠÙħØŃØ§ÙģØ¸": 5572,
      "ĠØ§ÙĦÙĦÙĪÙĨ": 5573,
      "mer": 5574,
      "ĠØ§ÙĦÙħØŃÙĦÙĬ": 5575,
      "ĠØ£ØµÙĦ": 5576,
      "ĠÙĦØ®Ø§Ùħ": 5577,
      "ĠØ§ÙĦÙĩÙĬØ¦Ø©": 5578,
      "ĠØ±Ùĥ": 5579,
      "ĠÙħÙĥØªØ¨Ø©": 5580,
      "ĠÙĦÙĦØ¨ÙĨ": 5581,
      "ĠØ§ÙĦÙĥØ±ÙĪÙħ": 5582,
      "ĠÙħÙĨØ§Ø³Ø¨Ø©": 5583,
      "ØªØµØ§Ø¯ÙĬØ©": 5584,
      "ĠØ¹ÙĬÙĨ": 5585,
      "ĠØ·Ø±Ùģ": 5586,
      "ĠØ§ÙĦØ§Ø±ØªØ¨Ø§Ø·": 5587,
      "ĠØ§ÙĦØ®Ø¨Ø«": 5588,
      "ĠØ§ÙĦÙĥØ¨Ø±Ùī": 5589,
      "Ġ2009": 5590,
      "nÙĤØ§Ø¦ÙħØ©": 5591,
      "Ø§ÙģÙĤØ©": 5592,
      "Ġ--": 5593,
      "ĠØ³Ø¹Ø¯": 5594,
      "ĠÙĪÙĦÙĪ": 5595,
      "ĠØ¨Ø§ÙĦÙĥØ§ÙħÙĦ": 5596,
      "113": 5597,
      "ĠØ§ÙĦØ£ØŃÙħØ±": 5598,
      "ĠÙĦØ§Ø¨ÙĨ": 5599,
      "ØºÙĦØ§ÙĤ": 5600,
      "ĠØ´Ø±ÙĤ": 5601,
      "081": 5602,
      "ĠÙħØ±Ùĥ": 5603,
      "ĠÙħØ³Ø¨": 5604,
      "ĠÙĪØ§Ø¹": 5605,
      "Ø§Ø¯ÙħØ©": 5606,
      "ÙĬÙĪÙĨ": 5607,
      "ĠÙģÙĩÙħ": 5608,
      "ĠÙĪÙĥØ§ÙĨØª": 5609,
      "ĠØºÙĦØ§ÙĬØ©": 5610,
      "§Ø´Ø±": 5611,
      "ĠØ§ÙĦØ²ÙĪØ¬": 5612,
      "ĠØ¨ÙĥØ±": 5613,
      "ĠÙĪØ§Ø±": 5614,
      "ÙĩØ¬": 5615,
      "Ø¬ÙĩØ§Ø²": 5616,
      "ĠØªØ¸ÙĩØ±": 5617,
      "Ø§Ø´Ø±": 5618,
      "Ø±Ø²": 5619,
      "ĠØ§ÙĦØ£ÙħÙħ": 5620,
      "ib": 5621,
      "nØªØ±": 5622,
      "ØªÙĪØŃ": 5623,
      "318": 5624,
      "Ø¹ÙĨØ§ÙĬØ©": 5625,
      "Ø§ÙĨÙī": 5626,
      "nÙĦÙ": 5627,
      "ĠÙĪÙĬÙĥÙĬØ¨ÙĬØ¯ÙĬØ§": 5628,
      "nÙĦÙĦ": 5629,
      "Ġwh": 5630,
      "Ø¦ÙĪÙĨ": 5631,
      "ĠØ§ÙĦØ§ÙĦÙĥØªØ±ÙĪÙĨÙĬ": 5632,
      "ĠØ§ÙĦØ³ÙĪØ±ÙĬØ©": 5633,
      "99947": 5634,
      "ĠØ§ÙĦØ¬ÙĬØ±": 5635,
      "ĠÙĦÙĬÙĨ": 5636,
      "99955": 5637,
      "167": 5638,
      "Ġ%": 5639,
      "nØ§ÙĦÙĥ": 5640,
      "ĠÙĪÙħØ³": 5641,
      "ĠÙĦÙĬØ¨ÙĬØ§": 5642,
      "nÙĥÙĦ": 5643,
      "ĠØ§ÙĦÙĦØ¹Ø¨Ø©": 5644,
      "Ġprotected": 5645,
      "ĠØ§ÙĦÙģØ¹": 5646,
      "ST": 5647,
      "ĠØ§ÙĦÙĤØ§Ø¦ÙħØ©": 5648,
      "fo": 5649,
      "ĠØ§ÙĦØ£Ø²": 5650,
      "ĠÙĦÙĦØªØŃ": 5651,
      "ĠØ¹Ø§ÙĦÙĬ": 5652,
      "ĠÙħÙĩÙħ": 5653,
      "ØªØ±Ùģ": 5654,
      "102": 5655,
      "ĠØ§ÙĦØ´Ø®ØµÙĬ": 5656,
      "ĠØ§ÙĦØ¹Ø³ÙĥØ±ÙĬØ©": 5657,
      "ĠÙģØ¥ÙĨÙĩ": 5658,
      "ĠØ§ÙĦØŃØ³": 5659,
      "ĠØ§ÙĦØ£ÙģØ¶ÙĦ": 5660,
      "Ø®Ø§Ø°": 5661,
      "Ø®ØªÙĦÙģ": 5662,
      "ĠØ§ÙĦÙĦØŃ": 5663,
      "ĠØ§ÙĦÙħØªØ¹ÙĦÙĤØ©": 5664,
      "107": 5665,
      "843": 5666,
      "UR": 5667,
      "ĠØ´Ø±ÙĪØ·": 5668,
      "ĠTh": 5669,
      "ĠÙħÙĥØ©": 5670,
      "ĠØ§ÙĦØ¹ÙĨØ§ÙĬØ©": 5671,
      "ĠØ§ÙĦØ´ØŃÙĨ": 5672,
      "ĠÙħÙĨØ²ÙĦÙĬØ©": 5673,
      "Ø§Ø±ÙĬØª": 5674,
      "2015": 5675,
      "ĠÙĤÙĦÙĬ": 5676,
      "ïºİ": 5677,
      "9958": 5678,
      "ĠØ§ÙĦÙģÙĦØ³Ø·ÙĬÙĨÙĬØ©": 5679,
      "ĠØ§ÙĦØ¹Ø§ÙĦÙĬØ©": 5680,
      "Ð¾": 5681,
      "ĠØ¨Ø³ÙĩÙĪÙĦØ©": 5682,
      "Ùĭ.\\": 5683,
      "ĠÙħØŃÙģÙĪ": 5684,
      "ÙĥØªØ§Ø¨": 5685,
      "ĠØ¨Ø¹ÙĬØ¯": 5686,
      "ĠØ§ÙĦÙĤÙĩÙĪØ©": 5687,
      "ĠØ§ÙĦØ³ÙĥØ±": 5688,
      ".âĢı": 5689,
      "ining": 5690,
      "Ø¸Ø§Ø±": 5691,
      "ĠØ§ÙĦØ¹ÙĦØ§ÙħØ©": 5692,
      "ĠØ§ÙĦØ·ÙĪØ¨": 5693,
      "ep": 5694,
      "edia": 5695,
      "243": 5696,
      "ĠØ§ÙĦÙħÙĬÙĦ": 5697,
      "ĠØ³Ø±ÙĬØ¹": 5698,
      "123": 5699,
      "ĠÙ¢Ùł": 5700,
      "ĠØ§Ø®Ø¨Ø§Ø±": 5701,
      "99936": 5702,
      "ĠÙħØ¬ÙĦØ©": 5703,
      "ĠÙĪÙĬØ±": 5704,
      "ĠØ¯Ø§Ø®": 5705,
      "Ø¢Ø®Ø±": 5706,
      "ØºØ§Øª": 5707,
      "site": 5708,
      "ĠÙħØŃÙħÙĪÙĦØ©": 5709,
      "ĠÙħÙħÙĬØ²Ø©": 5710,
      "ĠØ§ÙĦÙħÙĪØ§Ø¶ÙĬØ¹": 5711,
      "lass": 5712,
      "ĠÙħÙĪÙĤØ¹ÙĨØ§": 5713,
      "ĠÙħÙħØªØ§Ø²": 5714,
      "Ġ00": 5715,
      "Ø±ÙĬØ·Ø©": 5716,
      "ĠÙĥÙĪÙħ": 5717,
      "Ù«": 5718,
      "nØ¨Ø¹Ø¯": 5719,
      "ĠÙĪØ§Ø´": 5720,
      "Ġcook": 5721,
      "253": 5722,
      "ÙĪØ§ØªÙģ": 5723,
      "ĠÙģØŃÙħ": 5724,
      "ĠØªÙĤÙĨÙĬØ©": 5725,
      "ĠØ¯ÙħØ´ÙĤ": 5726,
      "ĠØ§Ø®Ø±": 5727,
      "ÙģÙĨ": 5728,
      "ĠØ§ÙĦÙħÙĨØºÙĨÙĬØ²": 5729,
      "ÙĬÙĪÙħ": 5730,
      "ĠØ§ÙĦØªØ¹ÙĦÙĬÙħÙĬØ©": 5731,
      "ĠÙĨØ§Ø¯ÙĬ": 5732,
      "ĠØ§ÙĦÙĨØ¨": 5733,
      "ÙĨØ¯ÙĬØ©": 5734,
      "ĠØªÙĦÙĤ": 5735,
      "nØ§ÙĦÙħÙĪ": 5736,
      "ĠØ§ÙĦØ±Ø§Ø¨Ø¹Ø©": 5737,
      "ĠØ¥ÙĬØ¬": 5738,
      "ĠØ§ÙĦÙħØ³Ø¤ÙĪÙĦ": 5739,
      "ĠÙħØªØ®ØµØµ": 5740,
      "ĠÙħÙĬØ²": 5741,
      "ĠØ§Ø¹Ø±Ø¶": 5742,
      "373": 5743,
      "ĠÙĨÙĪÙħ": 5744,
      "Ġle": 5745,
      "ages": 5746,
      "ĠØªØ´Ø±ÙĬÙĨ": 5747,
      "ĠØ£ÙĪÙĥØ±Ø§ÙĨÙĬØ§": 5748,
      "ĠØ§ÙĦÙħÙĨØ§Ø³Ø¨": 5749,
      "ÙĪØ¹ÙĬØ©": 5750,
      "ĠØ§ÙĦØ±Ø³ÙħÙĬØ©": 5751,
      "ĠØ±ÙĬÙħÙĪÙĨ": 5752,
      "Ø²Ø§Ø¡": 5753,
      "ĠØŃØ³": 5754,
      "ĠØ§ÙĦØµÙĬØ§ÙĨØ©": 5755,
      "ĠØªØªØ±": 5756,
      "ĠÙĦØºØ©": 5757,
      "sc": 5758,
      "833": 5759,
      "ĠØ§ÙĦØ±ÙĬØ§Ø¶Ø©": 5760,
      "Ġcrush": 5761,
      "047": 5762,
      "ĠØ§ÙĦØ¨Ø§Ø¨": 5763,
      "ĠØ±ÙĪØ§ÙĬØ©": 5764,
      "ĠØ£ÙħØ±ÙĬÙĥØ§": 5765,
      "Ġhttps": 5766,
      "961": 5767,
      "ÙĪØ±Ø¬": 5768,
      "ĠØ´ÙĩØ¯": 5769,
      "ĠØ¨ÙĦØ§": 5770,
      "nØ¹ÙħÙĦÙĬØ©": 5771,
      "ĠÙĪÙħÙĦ": 5772,
      "Ø±Ø§ÙĨ": 5773,
      "ĠØµØŃÙĬ": 5774,
      "ĠØ§Ø¬ØªÙħØ§Ø¹": 5775,
      "ĠØ¨ØªØ§Ø±ÙĬØ®": 5776,
      "ĠÙħÙĪØ¨Ø§ÙĬÙĦ": 5777,
      "ĠØ§ÙĦØªØ³ÙĪÙĬÙĤ": 5778,
      "353": 5779,
      "ÙģØ§Ø¡": 5780,
      "Ø§Ø²ÙĨ": 5781,
      "969": 5782,
      "ØªØ±Ø": 5783,
      "ØªØ±Ø§": 5784,
      "ĠÙĪÙĬØª": 5785,
      "Ø·ÙĬÙĦ": 5786,
      "Ġ2008": 5787,
      "Ø§Ø¯Ø¦": 5788,
      "ĠÙĬØ²ÙĬØ¯": 5789,
      "ĠØ¹Ø·ÙĪØ±": 5790,
      "ĠØ´Ø§Ø±Ø¹": 5791,
      "228": 5792,
      "273": 5793,
      "nO": 5794,
      "ĠÙħØŃÙ": 5795,
      "ĠÙħØŃÙĦ": 5796,
      "ÙĪØ²ÙĬØ¹": 5797,
      "ĠØ§ØŃÙħØ¯": 5798,
      "low": 5799,
      "Â»ØĮ": 5800,
      "ĠÙĥØ±Ø§Øª": 5801,
      "ext": 5802,
      "Ġqu": 5803,
      "Ø§Ø±Øª": 5804,
      "ĠØ§ÙĦØ£Ø¹": 5805,
      "ĠÙĪÙħØª": 5806,
      "ĠØ¨ÙĩØ°Ùĩ": 5807,
      "ĠØ§ÙĦØ¥ÙĨØ¬ÙĦÙĬØ²ÙĬØ©": 5808,
      "ĠÙĦØªØ¹": 5809,
      "function": 5810,
      "ĠØ§ÙĪÙĦ": 5811,
      "289": 5812,
      "ĠÙĪØ§ÙĦØ·": 5813,
      "ĠÙħÙĥØª": 5814,
      "ĠØ§ÙĦÙĨÙģØ·ÙĬØ©": 5815,
      "ĠÙħØ§ÙĦ": 5816,
      "Ø¹Ø": 5817,
      "ĠØ§ÙĦÙĨÙĤØ¯": 5818,
      "ĠØ§ÙĦØ§ØŃØªÙĦØ§ÙĦ": 5819,
      "Ø¹Ø§": 5820,
      "Ø²Ø§Ø²": 5821,
      "nÙĤØ¯": 5822,
      "Ø¬ÙĬÙĨ": 5823,
      "ĠÙħØ¹Ø¯Ù": 5824,
      "ĠÙħØ¹Ø¯ÙĦ": 5825,
      "ØªØ¨Ø©": 5826,
      "ĠØ¨Ø£ÙĨÙĩ": 5827,
      "ĠØªØ§ÙĬ": 5828,
      "ÙħØ§Ùħ": 5829,
      "Ø³Ø¬ÙĬÙĦ": 5830,
      "Ø®ØµØ©": 5831,
      "ÙĨÙĥØ±": 5832,
      "unt": 5833,
      "9971925": 5834,
      "ĠÙĬØ¬ÙĪØ²": 5835,
      "ĠÙħØ¤Ø´Ø±": 5836,
      "ĠÙĨØ¨": 5837,
      "ĠÙĥØ±Ø¨ÙĪÙĨØ§Øª": 5838,
      "ĠØ§ÙĦØªÙĥ": 5839,
      "ØªØ¨Ø·": 5840,
      "Ø¬ÙħØ§ÙĦÙĬ": 5841,
      "128": 5842,
      "99926": 5843,
      "233": 5844,
      "ĠÙħØµØºØ±Ø©": 5845,
      "Ø£ÙĥØ¯": 5846,
      "nÙĤØ±Ø§Ø¡Ø©": 5847,
      "ĠØ§ÙĦÙħØ¹Ø±ÙģØ©": 5848,
      "Ø³Ø¨Ø§Ø±": 5849,
      "99985": 5850,
      "Ø¨ØŃØ§Ø«": 5851,
      "939": 5852,
      "ĠØ£ÙĪÙĨ": 5853,
      "ÙĪØ§Ø¨Ø·": 5854,
      "nÙħØ¹ÙĦÙĪÙħØ§Øª": 5855,
      "ÙĤØ·Ø§Ø¹": 5856,
      "\\\"\\": 5857,
      "ĠØ£Ø¹Ø¶Ø§Ø¡": 5858,
      "436": 5859,
      "ĠØŃØ§ÙĦØ§Øª": 5860,
      "Ø§ÙĩÙĬØ±": 5861,
      "ĠØªØµÙĨÙĬÙģ": 5862,
      "ØµØµ": 5863,
      "ĠØ§ÙĦØ´Ø±ÙĤÙĬØ©": 5864,
      "Ø¨ÙĦØ©": 5865,
      "ĠØ¬ÙĬÙĨ": 5866,
      "ĠØ§ÙĦÙħØªÙĨ": 5867,
      "ĠØ±ØºÙħ": 5868,
      "ØªÙĪØŃØ©": 5869,
      "ĠØ¨Ø§ÙĦØ§ÙĨ": 5870,
      "orld": 5871,
      "ĠØ§ÙĦØ¨Ø§Ø±": 5872,
      "ĠØ£ÙħÙĨ": 5873,
      "ØªØ±ÙĪÙĨÙĬØ©": 5874,
      "ĠÙĪØ§ÙĦØ§ÙĨ": 5875,
      "ĠØ³Ø¤Ø§ÙĦ": 5876,
      "nH": 5877,
      "ĠØ¥Ø¶": 5878,
      "Ø²ÙĬØ§Ø±Ø©": 5879,
      "ĠØ³Ø±Ø¹Ø©": 5880,
      "indow": 5881,
      "ĠÙħØŃØªÙĪÙī": 5882,
      "ĠØ±Ø£ÙĬ": 5883,
      "ĠØ§ÙĦÙħÙĨØ²ÙĦÙĬØ©": 5884,
      "âĢĻ": 5885,
      "old": 5886,
      "ĠØ§ÙĦÙĨØ§Ø±": 5887,
      "ĠØ§ÙĦØ§ÙĤØªØµØ§Ø¯ÙĬ": 5888,
      "Ġ]": 5889,
      "Ø¹ÙĪØ¯ÙĬØ©": 5890,
      "email": 5891,
      "ĠØ¨ÙħØŃ": 5892,
      "ĠØ¨ØŃØ³Ø¨": 5893,
      "208": 5894,
      "ĠÙĨØ²": 5895,
      "ĠØ£ÙĨÙĥ": 5896,
      "ÙĩØ±Ø¬Ø§ÙĨ": 5897,
      "ĠØ¢Ø³": 5898,
      "ĠØ±Ø§Ø¨Ø·": 5899,
      "ÙģÙĬÙĤ": 5900,
      "Ø³ÙĬÙĥ": 5901,
      "838": 5902,
      "ĠÙĪØ§Ø³Ø¹Ø©": 5903,
      "ĠØ¨Ø§ÙĦÙħÙĨ": 5904,
      "ĠØ§ÙĦØ·ÙĬÙĨ": 5905,
      "ĠØ§ÙĦØ®Ø²": 5906,
      "AT": 5907,
      "EN": 5908,
      "ĠØªØ±Ùħ": 5909,
      "ĠØ¨Ø£ÙģØ¶ÙĦ": 5910,
      "row": 5911,
      "ĠÙħØ³ØªØ¹ÙħÙĦ": 5912,
      "222": 5913,
      "ĠÙĪÙħØ³Øª": 5914,
      "ĠØ§ÙĦÙĪØ³Ø·": 5915,
      "ĠØ£ÙħØ³": 5916,
      "ĠØ§ÙĨØ": 5917,
      "ĠØ§ÙĨØ§": 5918,
      "564": 5919,
      "ÙĩÙĦÙĥ": 5920,
      "250": 5921,
      "ĠØªÙĤØ¹": 5922,
      "ÙħØ³Ø©": 5923,
      "ĠÙĥØ±ÙĬ": 5924,
      "Ø§ÙĪØ©": 5925,
      "ĠØ§ÙĦÙħÙĨØ§Ø³Ø¨Ø©": 5926,
      "nØ±ÙĪ": 5927,
      "ĠØªÙħØ§Ùħ": 5928,
      "ĠÙģÙĬØ±ÙĪØ³": 5929,
      "Ø®Ø·Ø·": 5930,
      "99372274": 5931,
      "ĠØ¥Ø²Ø§ÙĦØ©": 5932,
      "ØŃÙĬØ©": 5933,
      "Ø§ÙĬÙĥ": 5934,
      "ĠØªØ´ÙĥÙĬÙĦ": 5935,
      "ĠØ§ÙĦØ§Ø¨ØªØ¯Ø§Ø¦ÙĬØ©": 5936,
      "ĠÙħÙĨØ§Ø¬Ùħ": 5937,
      "ĠØ§ÙĦÙħØ·ÙĦÙĪØ¨Ø©": 5938,
      "tem": 5939,
      "Ø±Ø§Ø±": 5940,
      "Ø¯Ø±Ø§ÙĨ": 5941,
      "ÙĥØ±Ø": 5942,
      "ÙĥØ±Ø§": 5943,
      "ĠØ§ÙĦØ£Ø³ÙĨØ§ÙĨ": 5944,
      "ÙĬØ±Ø§Ø¯": 5945,
      "ĠØ§ÙĦØ£ØŃÙĬ": 5946,
      "ĠØ´Ø±ÙĥØªÙĨØ§": 5947,
      "ĠØ§ÙĦÙĦØ¬ÙĨØ©": 5948,
      "Ø±ÙĬØ§Ø¶Ø©": 5949,
      "ÙĨØªÙĬÙĨ": 5950,
      "ÙħÙĪÙĬÙĦ": 5951,
      "Ø¹ÙĨÙī": 5952,
      "ĠØ§ÙĦØ¹ÙĦØ§ÙĤØ§Øª": 5953,
      "ĠØ§ÙĦØ¨Ø´Ø±Ø©": 5954,
      "ĠØ±Ø¤": 5955,
      "nline": 5956,
      "Ø¹Ø±Ø¨ÙĬØ©": 5957,
      "ÙĪÙĥØ³ÙĬØª": 5958,
      "Ø§ÙģØª": 5959,
      "ĠØ§ÙĦØªØ®": 5960,
      "nØªÙĪ": 5961,
      "Ø´ÙĬØ±": 5962,
      "Û©": 5963,
      "ĠÙĤÙĪÙĦ": 5964,
      "ĠØ§ÙĦØªØ¹Ø¨": 5965,
      "ĠØ§ÙĦØ¬ÙĦØ¯": 5966,
      "ĠØ¨Ø§ÙĦØªØ¹": 5967,
      "ĠØ³Ø¬ÙĦ": 5968,
      "ĠðŁ": 5969,
      "Ġ120": 5970,
      "ÙĪØ¬ÙĬÙĩ": 5971,
      "mo": 5972,
      "ĠØ´Ø®ØµÙĬØ©": 5973,
      "99937": 5974,
      "ĠÙĨØ¹": 5975,
      "ĠÙĪØ§ÙĦØªÙĪ": 5976,
      "ĠØ£ÙĦØ¹Ø§Ø¨": 5977,
      "9921": 5978,
      "Ġag": 5979,
      "ĠØŃÙģØ¸": 5980,
      "ET": 5981,
      "9930": 5982,
      "474": 5983,
      "ĠØ§ÙĦØ±ÙĪØ³ÙĬ": 5984,
      "99915": 5985,
      "nØ§ÙĦØªØ¹": 5986,
      "ĠÙĦØ£ÙĬ": 5987,
      "ÙĪÙĬÙĩ": 5988,
      "rind": 5989,
      "ĠØ¨Ø¬Ø¯Ø©": 5990,
      "001": 5991,
      "ĠØ§ÙĦØŃÙĬÙĪØ§ÙĨØ§Øª": 5992,
      "ĠÙĨØ´Ø§Ø·": 5993,
      "230": 5994,
      "ĠÙģØ±ØµØ©": 5995,
      "ĠØ¨Ø§Ø¹": 5996,
      "ÙĪØ§ÙĨÙĬ": 5997,
      "ĠØ§ÙĦØŃÙĪØ§Ø±": 5998,
      "GP": 5999,
      "quire": 6000,
      "ĠØ§ÙĦÙĥØ±Ø¨": 6001,
      "ÙĤØ³": 6002,
      "ĠØªØ·ÙĪØ±": 6003,
      "ĠØ§ÙĦØ£ÙĦÙħØ§ÙĨÙĬØ©": 6004,
      "Ø¬ØªÙħØ¹": 6005,
      "nØµÙĪØ±": 6006,
      "99986": 6007,
      "ÙħØµÙĨØ¹": 6008,
      "ĠÙģØ§ØµÙĦ": 6009,
      "ÙĨØ¯ÙĨ": 6010,
      "ĠÙĬÙĪØªÙĬÙĪØ¨": 6011,
      "ĠØ§ÙĦÙħÙĤØ§ÙĦØ§Øª": 6012,
      "ĠØ§ÙĦØ£Ø«": 6013,
      "ĠØ®ÙĦØ§ÙĦÙĩØ§": 6014,
      "ments": 6015,
      "ĠØ§ÙĦÙħØ³ØŃÙĪÙĤ": 6016,
      "108": 6017,
      "ĠØ§ÙĦØ§ØµØ·ÙĨ": 6018,
      "Ø§Ø¯ÙĪ": 6019,
      "Ġweb": 6020,
      "(\\\"": 6021,
      "ĠÙĪØ¥Ø°Ø§": 6022,
      "ĠØ§ÙĦØªØ³ÙĪÙĤ": 6023,
      "ÙĩØ§Ùħ": 6024,
      "ĠØ§ÙĦØ§ØªÙģØ§ÙĤ": 6025,
      "Ø§ÙĦØ´": 6026,
      "ĠØµÙĦØ§ØŃ": 6027,
      "ĠØ£ÙħÙĬØ±": 6028,
      "Ø±Ø´ÙĬÙģ": 6029,
      "ĠÙĪÙĨØŃÙĨ": 6030,
      "ĠØ²ÙĬÙĨ": 6031,
      "ĠØ§ÙĦÙħÙħ": 6032,
      "anu": 6033,
      "ĠÙĦÙĦØ³ÙĬ": 6034,
      "ĠÙħÙĨØ¸": 6035,
      "ØµØ±ÙĬ": 6036,
      "Ġ03": 6037,
      "ĠÙĦÙĦØªÙĨ": 6038,
      "143": 6039,
      "ĠÙĥØ«ÙĬØ±Ø": 6040,
      "ĠÙĥØ«ÙĬØ±Ø§": 6041,
      "ĠØ¥Ø±Ø³Ø§ÙĦ": 6042,
      "ĠÙĦØ´Ø±ÙĥØ©": 6043,
      "ĠØ·ÙĪÙĬÙĦ": 6044,
      "Ġ2023": 6045,
      "ĠØ§ÙĦØ¹ÙĦÙħØ§Ø¡": 6046,
      "nl": 6047,
      "ĠØ§ÙĦØ¬ÙħÙĩÙĪØ±ÙĬØ©": 6048,
      "Ġen": 6049,
      "ĠÙħÙĨØ¹": 6050,
      "ÙĪÙħÙĨÙĬÙĪÙħ": 6051,
      "445": 6052,
      "ĠØ®ÙĦÙĤ": 6053,
      "ØŃØ±Ùģ": 6054,
      "ĠØ§ÙĦÙģÙĨØ§ÙĨ": 6055,
      "ĠØ§ÙĦØ¯ÙĬÙħÙĤØ±Ø§Ø·": 6056,
      "ĠØ³Ø§ÙĨ": 6057,
      "ĠÙħÙĬÙĥ": 6058,
      "ĠØ§ÙĦÙħÙħÙĥÙĨ": 6059,
      "achine": 6060,
      "231": 6061,
      "ĠÙĪØ³ÙĦ": 6062,
      "99945": 6063,
      "ĠØªØ´ÙħÙĦ": 6064,
      "ĠØ§ÙĦØªÙĥÙĦÙģØ©": 6065,
      "ĠØ§ÙĦÙħØŃØ¯ÙĪØ¯Ø©": 6066,
      "9915": 6067,
      "ĠÙĥØ³Ø§Ø±Ùĩ": 6068,
      "ĠÙĤØªÙĦ": 6069,
      "nØº": 6070,
      "ĠØµÙĨØ¯ÙĪÙĤ": 6071,
      "nÙħÙĨØ°": 6072,
      "ĠÙĩØ¯Ùģ": 6073,
      "ÙĬÙħØ§Øª": 6074,
      "ĠØ§ÙĦÙħØ¯ÙĨÙĬ": 6075,
      "221": 6076,
      "ĠÙħØ§Ø°Ø§": 6077,
      "ĠÙĦØ§ÙĬÙģ": 6078,
      "ack": 6079,
      "ÙģØ±ÙĤ": 6080,
      "168": 6081,
      "ĠÙĪØ§ÙĤ": 6082,
      "Ġch": 6083,
      "ĠÙħÙĨØªØ¬": 6084,
      "ØºØ§ÙĨ": 6085,
      "ĠØ¨Ø§ÙĦØ±": 6086,
      "ĠÙĨØ§ÙĤ": 6087,
      "ØŃÙ": 6088,
      "ØŃÙĦ": 6089,
      "bo": 6090,
      "ĠØ§ÙĦÙģÙĪÙĦ": 6091,
      "99934": 6092,
      "Ø§Ø¯ÙĬÙħÙĬØ©": 6093,
      "achinery": 6094,
      "ĠØ§ÙĦÙħØ¹Ø§Ø±": 6095,
      "ĠØªØ¬Ø¹ÙĦ": 6096,
      "ĠØ§ÙĦØªØ§Ø¨Ø¹Ø©": 6097,
      "ĠÙħÙĨØ¸ÙħØ©": 6098,
      "ĠØ®ÙĬØ±": 6099,
      "land": 6100,
      "Ø´ÙĬØ®": 6101,
      "ĠØ¯ÙĬÙĥÙĪØ±": 6102,
      "Ġnow": 6103,
      "Ø±ÙĬØŃØ©": 6104,
      "ĠØ£ÙĪÙĦØ": 6105,
      "ĠØ£ÙĪÙĦØ§": 6106,
      "ĠÙĪØ´Ø±": 6107,
      "Ġ08": 6108,
      "Ø´Ø¯": 6109,
      "Ġ02": 6110,
      "ĠØ§ÙĦÙĦØ§Ø¹Ø¨": 6111,
      "ÙĥØ°Ø§": 6112,
      "ĠØ¬Ø§ÙĨ": 6113,
      "ĠÙĦØªØ¬ÙĩÙĬØ²": 6114,
      "ØªØ§Ø¨Ø¹Ø©": 6115,
      "ĠÙģÙĥØ±Ø©": 6116,
      "ĠÙĨÙģØ³ÙĩØ§": 6117,
      "951": 6118,
      "ĠØ³Ø¹ÙĪØ¯ÙĬ": 6119,
      "085": 6120,
      "ĠÙĪÙĥØ§ÙĦØ©": 6121,
      "ØºÙĩØ§ÙĬ": 6122,
      "ĠØ·Ùģ": 6123,
      "Ø³Ø±Ø§Ø¦ÙĬÙĦÙĬ": 6124,
      "ĠØ§ÙĦÙĪÙĬØ¨": 6125,
      "ÙĦÙĬÙĤ": 6126,
      "ĠÙħØ§Øª": 6127,
      "ĠØŃØ¯ÙĪØ«": 6128,
      "138": 6129,
      "ĠØªØ±ØºØ¨": 6130,
      "ĠÙĪØµÙĪÙĦ": 6131,
      "Ø¹Ø¯Ù": 6132,
      "Ø¹Ø¯ÙĦ": 6133,
      "Ø§ÙħÙĦÙĬÙĨ": 6134,
      "008": 6135,
      "Ø·ÙĪØ±Ø©": 6136,
      "Ø§Ø¦Ø±ÙĬ": 6137,
      "ĠØ´ÙĬØ¦": 6138,
      "ÙħØ¦": 6139,
      "ĠØ§ÙĦØ±Ø¬": 6140,
      "nØŃØ¬Ø±": 6141,
      "ĠÚ©": 6142,
      "ĠAd": 6143,
      "ĠÙĪÙħÙĪ": 6144,
      "ĠÙħØ¹ÙĬÙĨØ©": 6145,
      "ĠArab": 6146,
      "ĠØ§ØŃØªØ±": 6147,
      "ĠÙħØ±Ø¨Ø¹": 6148,
      "ÙĤØ¯ÙħØ©": 6149,
      "ĠØ§ÙĨØ®ÙģØ§Ø¶": 6150,
      "ĠØ§ÙĦØªÙĨÙģÙĬ": 6151,
      "ĠØ§ÙĦÙĨÙĪ": 6152,
      "959": 6153,
      "Ġac": 6154,
      "ĠØ£Ø«Ø±": 6155,
      "ĠØ¬Ø¯ÙĬØ¯ÙĨØ§": 6156,
      "ĠAnd": 6157,
      "ĠÙĩÙĬÙĦ": 6158,
      "ĠØ¨ØªÙĪ": 6159,
      "ØªØµØ±": 6160,
      "ĠØ·Ø§ÙĦØ¨": 6161,
      "Ø§Ø³Ø¨Ø§Øª": 6162,
      "278": 6163,
      "ise": 6164,
      "ĠØ§ÙĦØ®Ø±": 6165,
      "Ø¨ÙĬØ§ÙĨ": 6166,
      "ĠÙĨØ§ØµØ±": 6167,
      "arch": 6168,
      "nÙħØŃØ·Ùħ": 6169,
      "ge": 6170,
      "ĠÙĪØ·ØŃÙĨ": 6171,
      "ĠØŃØ²Ø¨": 6172,
      "ervice": 6173,
      "238": 6174,
      "ĠØªØ¬Ø§Ø±Ø©": 6175,
      "99975": 6176,
      "ĠÙĦØ¥ÙĨ": 6177,
      "ĠØ§ÙĦØ£Ø³ÙĪØ§ÙĤ": 6178,
      "Ġet": 6179,
      "ĠØŃØ§Ø±": 6180,
      "ĠØ§ÙĦØ¹Ø±ÙĪØ¶": 6181,
      "ĠPE": 6182,
      "ĠØ§ÙĦØªØŃØ±": 6183,
      "ĠØŃØ¯ÙĬØ¯": 6184,
      "Ġ04": 6185,
      "ĠÙĪØ§Ø¬": 6186,
      "ĠØ§ÙĦØ³Ø±ÙĬØ¹": 6187,
      "ĠØ¯Ø®ÙĦ": 6188,
      "Ø¬ÙĦØ§Øª": 6189,
      "ĠØ¹Ø§ÙĦÙħÙĬØ©": 6190,
      "Ø¬ÙĪÙħ": 6191,
      "139": 6192,
      "ĠØ¥ÙĦØºØ§Ø¡": 6193,
      "ĠØ§ÙĦØ¹Ø«ÙĪØ±": 6194,
      "ĠØ§ÙĦÙĬÙĪÙħÙĬØ©": 6195,
      "ĠØ§ÙĦØ´Ø±Ø§Ø¡": 6196,
      "Ø«ÙĤØ§ÙģØ©": 6197,
      "ĠØ§ÙĦØ³Ø¨Ø¨": 6198,
      "99884": 6199,
      "ics": 6200,
      "ĠØ§ÙĦØ£Ø¯Ø§Ø¡": 6201,
      "ĠØ§ÙĦÙĥØ§ÙħÙĦ": 6202,
      "âĢ¦âĢ¦": 6203,
      "ĠØ§ÙĦØ¯ÙĤÙĬÙĤ": 6204,
      "ĠÙħÙĨØ²": 6205,
      "99885": 6206,
      "99997": 6207,
      "ĠØªØµÙĦÙĬØŃ": 6208,
      "ÙĬÙĨØº": 6209,
      "ĠØ§ÙĦÙĬØ§Ø¨Ø§ÙĨ": 6210,
      "ĠÙĬØ¨ØŃØ«": 6211,
      "ĠØ¨Ø·ÙĪÙĦØ©": 6212,
      "ĠØ¨Ø³ÙĬØ·Ø©": 6213,
      "Ġ07": 6214,
      "ĠØ§Ø³ØªØ®Ø¯Ø§ÙħÙĩØ§": 6215,
      "ĠØ§ÙĦÙħÙĥØªØ¨": 6216,
      "ÙģØ¹ÙĬÙĦ": 6217,
      "ÙħÙĨØ¹": 6218,
      "ĠØ§ÙĦØªÙĩ": 6219,
      "Ð¸": 6220,
      "173": 6221,
      "ĠØ®ÙĦØ·": 6222,
      "ÙĬÙħØ¨Ø§Ø¨": 6223,
      "ĠPM": 6224,
      "Ø§ÙĪÙħ": 6225,
      "ĠÙħÙĨØªØ®Ø¨": 6226,
      "ĠØ§ÙĦÙĤÙĬÙħØ©": 6227,
      "nØªØ¹Ø±Ùģ": 6228,
      "ĠØ¬Ø¯ÙĪÙī": 6229,
      "ĠØ§ÙĦØªØ®ÙĦØµ": 6230,
      "ĦØ§ÙĬÙĨ": 6231,
      "ÙĦØ§ÙĬÙĨ": 6232,
      "ĠÙĦØªØŃÙĤÙĬÙĤ": 6233,
      "Ø´Øª": 6234,
      "ÙĨØ§Ø¦ÙĬ": 6235,
      "ĠÙĦØ¹ÙħÙĦ": 6236,
      "ĠÙħØ´Ø§Ø±ÙĬØ¹": 6237,
      "Ø³ÙĦÙĪØ¨": 6238,
      "ĠØ§ÙĦØ®Ø¨Ø±Ø©": 6239,
      "sk": 6240,
      "ĠÙĦÙħÙĪ": 6241,
      "ÙĬÙĪÙĨÙĬÙĪ": 6242,
      "ĠØ¹Ø§ÙĦÙħÙĬ": 6243,
      "ĠØ§ÙĦÙħÙĨØ§Ø²ÙĦ": 6244,
      "ĠØ·ÙĪÙĦ": 6245,
      "ĠØªÙĥÙĨÙĪÙĦÙĪØ¬ÙĬØ§": 6246,
      "ØªÙĥÙĪÙĬÙĨ": 6247,
      "301": 6248,
      "ĠØ®ÙĬØ§Ø±Ø§Øª": 6249,
      "ix": 6250,
      "ĠØŃØ±Ùģ": 6251,
      "ĠØ¨ÙĩØ¯Ùģ": 6252,
      "ĠØ§ÙĦØ±Ø£Ø³": 6253,
      "153": 6254,
      "Ø¨Ø§ÙĨ": 6255,
      "ØªØµÙħÙĬÙħ": 6256,
      "ĠØŃØ§ÙĦÙĬØ§": 6257,
      "ĠÙĦØ¯ÙĬÙĩ": 6258,
      "903": 6259,
      "Ø·Ø¨Ø§Ø¡": 6260,
      "ÙģÙĬØ¯Ø©": 6261,
      "Ø¹Ø§Ø¡": 6262,
      "ĠÙĥÙĦØ§Ùħ": 6263,
      "ĠØ§ÙĦÙħÙĤØ¯ÙħØ©": 6264,
      "Ø£Ùħ": 6265,
      "Ø§Ø¹ÙĬÙĦ": 6266,
      "ĠÙĪØ§ÙĦÙħØ³": 6267,
      "363": 6268,
      "AS": 6269,
      "ÙħØ§Ø´": 6270,
      "ĠØ§ÙĦÙĬÙĩ": 6271,
      "ĠØ§ÙĦÙħÙĨØªØ®Ø¨": 6272,
      "PT": 6273,
      "ĠÙĦÙĥØ±Ø©": 6274,
      "242": 6275,
      "566": 6276,
      "âĢ«": 6277,
      "ĠÙĨØ³Ø®Ø©": 6278,
      "ØªØ§ÙĨ": 6279,
      "ID": 6280,
      "Ù¨": 6281,
      "ĠÙħÙĪØ±Ø¯": 6282,
      "ÙĪØ¹ÙĬ": 6283,
      "99905": 6284,
      "ĠÙĪØ§ÙĬ": 6285,
      "555": 6286,
      "ĠØºØ±Ø§ÙħØ©": 6287,
      "ĠØ§ÙĦØ°Ø±Ø©": 6288,
      "ĠØ¥ÙĦÙĩ": 6289,
      "ĠÙĦÙħØ§Ø°Ø§": 6290,
      "ĠØ§ÙĦÙħØªØ¯": 6291,
      "9907": 6292,
      "ĠÙĪØ°": 6293,
      "ĠØ§ÙĦØ¬ÙĨØ³": 6294,
      "ÙĩØ©": 6295,
      "ĠÙĤØ§ÙħØª": 6296,
      "ÙĬÙħÙĪÙĨ": 6297,
      "eu": 6298,
      "ĠØ§ÙĥØª": 6299,
      "ĠÙĪØ¸ÙĬÙģØ©": 6300,
      "ÙĤØ³Ùħ": 6301,
      "477": 6302,
      "ÙĬØ¯Ø±ÙĪÙĥ": 6303,
      "178": 6304,
      "ĠØ§ÙĦØ£ÙĤÙĦ": 6305,
      "ĠØ¹Ø²ÙĦ": 6306,
      "ĠÙĥÙĪ": 6307,
      "ĦÙĨØ¯Ø§": 6308,
      "ÙĦÙĨØ¯Ø§": 6309,
      "578": 6310,
      "ĠØ¨Ø¯Ø£Øª": 6311,
      "ĠØ§ÙĦÙĤÙĬØ§Ø¯Ø©": 6312,
      "ĠØ§ÙĦØ±Ø¬Ø§ÙĦ": 6313,
      "ÙħØ¹Ø¯Ø§Øª": 6314,
      "nÙĪÙħÙĨ": 6315,
      "500": 6316,
      "444": 6317,
      "ĠØ£ÙĩØ¯Ø§Ùģ": 6318,
      "nØ§ÙĦØµ": 6319,
      "ĠØ§ÙĦØ§Ø«ÙĨÙĬÙĨ": 6320,
      "ĠØ§ÙĦÙħØºØ±Ø¨ÙĬ": 6321,
      "ĠØ§ÙĦØªØ¹ÙĪÙĬÙħ": 6322,
      "ĠØ°ÙĪ": 6323,
      "279": 6324,
      "ĠÙĩØ¤": 6325,
      "ÙĪÙĨÙĬØ§": 6326,
      "Ø§Ø¨Ø®": 6327,
      "ĠÙĪØ§ÙĦØ³ÙĬ": 6328,
      "ĠØ§ÙĦÙĪØ¶Ø¹": 6329,
      "ĠØ£Ø³Ø§Ø³ÙĬ": 6330,
      "565": 6331,
      "ĠØŃØ±Ø¨": 6332,
      "ĠØ§ÙĦØªØ§Ø³": 6333,
      "Ø§ÙħÙĬÙħ": 6334,
      "ĠØ¨Ø§ÙĦÙģØ¹ÙĦ": 6335,
      "bu": 6336,
      "ĠÙĤÙĪÙĬØ©": 6337,
      "ĠØ§Ø³ØªØ®Ø¯Ùħ": 6338,
      "ĠØ¨Ø§ÙĦØ®": 6339,
      "Ø¬ÙħÙĦØ©": 6340,
      "ĠÙħÙĨØ´": 6341,
      "ĠØ´ÙĤÙĤ": 6342,
      "ĠØ£Ùĩ": 6343,
      "Ġ09": 6344,
      "99965": 6345,
      "Ġ06": 6346,
      "nÙħØ³": 6347,
      "atch": 6348,
      "Ø§ØªÙĩÙħ": 6349,
      "ĠÙĪÙĬØŃ": 6350,
      "ĠÙĦØ£ÙĨÙĩØ§": 6351,
      "ÙĥÙĬØ§Ø¬": 6352,
      "ĠÙģØ§Ø±": 6353,
      "Ø«ÙħØ§ÙĨ": 6354,
      "ĠÙĥØ§ÙĨÙĪÙĨ": 6355,
      "ĠTe": 6356,
      "455": 6357,
      "ser": 6358,
      "ĠÙĩØ¤ÙĦØ§Ø¡": 6359,
      "nW": 6360,
      "258": 6361,
      "cl": 6362,
      "268": 6363,
      "ĠØ§ÙĦØ¨Ø§ØŃØ«": 6364,
      "ÙĥÙħØ¨ÙĬÙĪØªØ±": 6365,
      "0936": 6366,
      "ĠØ¥ÙĨØ¯": 6367,
      "ĠÙĪØ¹Ø¯Ùħ": 6368,
      "nØ§Ø´": 6369,
      "ĠØªÙĥÙĨ": 6370,
      "--------": 6371,
      "ĠÙħÙĨØªØ¯ÙĬØ§Øª": 6372,
      "Ġget": 6373,
      "hatsapp": 6374,
      "nØ¯Ø±Ø¯Ø´Ø©": 6375,
      "blog": 6376,
      "ĠØ§ÙĦØ£ÙĦØºØ§Ùħ": 6377,
      "194": 6378,
      "à¤": 6379,
      "ĠØ£Ø¯Ø§Ø©": 6380,
      "ĠØ§ÙĦÙĥØªØ±ÙĪÙĨÙĬ": 6381,
      "ĠØ§ÙĦØ£Ø³Ø§Ø³ÙĬ": 6382,
      "035": 6383,
      "ØºØ·ÙĬØ©": 6384,
      "int": 6385,
      "ĠÙĨØ¬Ø§ØŃ": 6386,
      "nØ¨ØŃØ«": 6387,
      "ĠØ£Ø·ÙĦÙĤ": 6388,
      "ĠCon": 6389,
      "ĠØ¯ÙĤÙĬÙĤ": 6390,
      "465": 6391,
      "ĠØ§ÙĦØ³ÙĨÙĪØ§Øª": 6392,
      "ĠØ±Ø³Ø§Ø¦ÙĦ": 6393,
      "635": 6394,
      "ÙĩÙħÙĬØ©": 6395,
      "99906": 6396,
      "ÙĪÙħØ§ÙĨ": 6397,
      "ĠÙĪÙĩØ°Ùĩ": 6398,
      "nØ§ÙĦØŃØ¬Ø±": 6399,
      "ĠÙħØ¨ÙĬØ¹Ø§Øª": 6400,
      "ĠØ§ÙĦØ¯Ø±Ø§Ø³ÙĬ": 6401,
      "Ġro": 6402,
      "eg": 6403,
      "ĠØ®Ø²Ø§ÙĨØ§Øª": 6404,
      "Ø¯ÙĪØ²": 6405,
      "ĠØ§ÙĦÙħÙĤØ±": 6406,
      "na": 6407,
      "ĠØ§ÙĦØŃÙģØ§Ø¸": 6408,
      "ĠÙĦØ·": 6409,
      "186": 6410,
      "263": 6411,
      "ĠØ£Ø³ÙħØ§Ø¡": 6412,
      "ĠÙħØŃÙģÙĪØ¸Ø©": 6413,
      "ĠÙĤØ¨": 6414,
      "ĠÙĥØ§ÙĨÙĪØ§": 6415,
      "676": 6416,
      "ĠØ³ÙħØ¹": 6417,
      "ition": 6418,
      "553": 6419,
      "ĠÙĤØµÙĬØ±Ø©": 6420,
      "ÙħØ±Ø©": 6421,
      "086": 6422,
      "ÙĨØ¦": 6423,
      "Ø§Ø¯ÙĬØ«": 6424,
      "ÙħØ·ØŃÙĨØ©": 6425,
      "ĠØ§ÙĦØŃØ§ÙĦØ§Øª": 6426,
      "ya": 6427,
      "AM": 6428,
      "Ø§ÙĥØ±Ø©": 6429,
      "ĦØ§Ø¹": 6430,
      "ÙĦØ§Ø¹": 6431,
      "ĠØ§ÙĦØµØ¯": 6432,
      "nØ´Ø±ÙĥØ§Øª": 6433,
      "Ø§Ø·ÙĨ": 6434,
      "ĠØ§ÙĦÙĩÙĬ": 6435,
      "ĠØªÙħØ§ÙħØ§": 6436,
      "Ø£Ø¬ÙĬØ±": 6437,
      "ĠØ¥ÙĨÙĩØ§": 6438,
      "ĠÙģØ±ÙĨ": 6439,
      "ĠØ£Ø®Ø°": 6440,
      "ĠRead": 6441,
      "ĠØ§ÙĦØ®ÙĬÙħØ©": 6442,
      "ĠØ±Ø®ÙĬØµØ©": 6443,
      "Ø¨ÙĬØ¯": 6444,
      "ĠØªØ®Ø·ÙĬØ·": 6445,
      "ĠØ§ÙĦØªÙ": 6446,
      "ĠAM": 6447,
      "ĠØ§ÙĦØªÙĦ": 6448,
      "467": 6449,
      "nÙħÙĪÙĤØ¹": 6450,
      "Ø§Ø¬Ù": 6451,
      "ĠÙĬØªÙĪ": 6452,
      "Ø§Ø¬ÙĦ": 6453,
      "99904": 6454,
      "Ġlo": 6455,
      "ĠØ§ÙĦÙħØ§Ø³": 6456,
      "ÙĬØ·Ø§ÙĦÙĬØ§": 6457,
      "ĠØ§ÙĦØ£Ø´ÙĬØ§Ø¡": 6458,
      "nØ¹ÙĦÙī": 6459,
      "Ø¨ØºÙĬ": 6460,
      "Ø§ÙħÙĦØ§Øª": 6461,
      "ÙĤÙĬÙĤÙĬØ©": 6462,
      "nÙĩØ°Ø§": 6463,
      "ĠØ§ÙĦÙĤÙĪÙĦ": 6464,
      "ĠÙģØ³": 6465,
      "Ø§Ø®Ø±": 6466,
      "ĠÙĪØ§ÙĦÙĦÙĩ": 6467,
      "952": 6468,
      "ĠØ§ÙĦØ£ÙĦØ¹Ø§Ø¨": 6469,
      "Ø§ÙĪØŃ": 6470,
      "ĠÙĦÙĦØµÙģ": 6471,
      "ĠØ§ÙĦÙĤÙĪØ§Øª": 6472,
      "Ù¦": 6473,
      "ĠØµØ®ÙĪØ±": 6474,
      "923": 6475,
      "ĠØ§ÙĦØªØ·Ø¨ÙĬÙĤØ§Øª": 6476,
      "9842": 6477,
      "ble": 6478,
      "ĠÙĤÙĪÙĦÙĩ": 6479,
      "Ø¹ÙĪØ¯": 6480,
      "roid": 6481,
      "ĠØ·Ø¨ÙĬØ¹ÙĬ": 6482,
      "ĠØ§ÙĦØ¹Øµ": 6483,
      "ĠØªØ³Ø¨Ø¨": 6484,
      "ĠØ§ÙĦØ±Ø¨": 6485,
      "ĠØ§ÙĦØ¯ÙĤÙĬÙĤØ©": 6486,
      "ÙıÙĳ": 6487,
      "ĠØ®Ø±": 6488,
      "Ø§ÙĪÙĬÙĨ": 6489,
      "ĠØ§ÙĦÙħØªÙĪØ³Ø·Ø©": 6490,
      "ĠØ§ÙĦØ³Ø±Ø¹Ø©": 6491,
      "ĠØ§ÙĦÙĤØ§ÙĨÙĪÙĨÙĬØ©": 6492,
      "ĠÙĪÙĬØ³": 6493,
      "ĠÙħØ±Ø§Øª": 6494,
      "NC": 6495,
      "912": 6496,
      "2017": 6497,
      "ÙĬØ§Ø¨": 6498,
      "Ġim": 6499,
      "ĠÙģØ±Øµ": 6500,
      "ĠØ¥ØµØ¯Ø§Ø±": 6501,
      "99917": 6502,
      "ĠØ§ÙĦØ¹Ø¸ÙĬÙħ": 6503,
      "Ø§ÙĥÙĬ": 6504,
      "ĠØ§ÙĦÙħØµØ¯Ø±": 6505,
      "9963": 6506,
      "ĠØŃØ¯ÙĪØ¯": 6507,
      "ĠÙĪØ£Ø³": 6508,
      "ĠØªØ¹Ø²ÙĬØ²": 6509,
      "ĠØ§ÙĦØµØºØ±": 6510,
      "Ø®ÙĦØ§Øµ": 6511,
      "ØªÙĤÙī": 6512,
      "ĠØ§ÙĦØ·Ø§ØŃÙĨ": 6513,
      "ĠØ§ÙĦÙĨØ§Øª": 6514,
      "ĠÙĩÙĢ": 6515,
      "ĠÙĪØºØ±Ø¨": 6516,
      "Ġpla": 6517,
      "ĠØ§ÙĦØŃÙĬÙĪÙĬØ©": 6518,
      "563": 6519,
      "ĠØ§ÙĦÙħØ§ÙĦÙĬ": 6520,
      "ĠØ³ÙĪÙī": 6521,
      "ÙĤØ¹": 6522,
      "ĠØ§ÙĦØ£Ø³ØªØ§Ø°": 6523,
      "Ø§ÙĦÙ": 6524,
      "ĠØ´ÙĬØ±": 6525,
      "ĠÙĤØµØµ": 6526,
      "ÙħØªÙĦÙĥ": 6527,
      "ïºĶ": 6528,
      "Ø¯ÙĬÙĩ": 6529,
      "Ġdes": 6530,
      "99907": 6531,
      "ĠØ§Ø¬ÙĩØ²Ø©": 6532,
      "ØŃÙĬÙĨ": 6533,
      "ĠÙĥÙħÙĬØ©": 6534,
      "Ø§ÙĦÙĦ": 6535,
      "ĠØ¯ÙĤØ§Ø¦ÙĤ": 6536,
      "184": 6537,
      "Ø´ÙĥÙĦ": 6538,
      "ĠØ§ÙĦØ¢Ø®Ø±ÙĬÙĨ": 6539,
      "185": 6540,
      "ĠØ§ÙĦÙħÙĤØ¨ÙĦ": 6541,
      "ĠØ§ÙĦÙĩÙĬØ¯Ø±ÙĪÙĦÙĬÙĥÙĬØ©": 6542,
      "ect": 6543,
      "ĠØ§ÙĨÙģ": 6544,
      "ĠØ§ÙĦØ¨ÙĦØ¯": 6545,
      "ĠØ§ØŃØ¯": 6546,
      "ĠØ§ÙĦÙħØªÙĪØ³Ø·": 6547,
      "ĠØ¥ØµÙĦØ§ØŃ": 6548,
      "ĠØµØŃÙĬÙģØ©": 6549,
      "99944": 6550,
      "ĠØ³ÙĦÙĬÙħØ§ÙĨ": 6551,
      "ĠÙħØ²ÙĪØ¯": 6552,
      "ĠØªÙĪÙĥ": 6553,
      "ĠÙħØ±Ø§ÙĥØ²": 6554,
      "ĠØ§ÙĦØ®Ø´Ø¨": 6555,
      "99924": 6556,
      "ÙĬØ¯Ø±ÙĪÙĥØ±Ø¨ÙĪÙĨØ§Øª": 6557,
      "913": 6558,
      "ĠØ®ÙĬØ§Ø±": 6559,
      "ÙĨØªÙĬ": 6560,
      "ĠØ§ÙĦØ¨ÙĪØ±": 6561,
      "ĠÙĬØ³ØªØ·ÙĬØ¹": 6562,
      "ĠØ§ÙĦØ§Ø±Ø¯ÙĨ": 6563,
      "artic": 6564,
      "ĠØ¨ÙĩÙħ": 6565,
      "ĠØ§ÙĦØ²ÙĪØ§Ø¬": 6566,
      "Ġabout": 6567,
      "ĠØ§ÙĦÙĤØ¯Ø³": 6568,
      "Ø§ÙĨÙĪ": 6569,
      "ÙĪØ²Ø§Ø±Ø©": 6570,
      "les": 6571,
      "ĠØ£ØŃÙĥØ§Ùħ": 6572,
      "2016": 6573,
      "ĠØ±Ø¬Ø§ÙĦ": 6574,
      "ĠØ§ÙĦØ´ÙħØ§ÙĦÙĬØ©": 6575,
      "ĠØ§ÙĦÙĤØ¶Ø§Ø¡": 6576,
      "Ø¬ÙħØ§ÙĨ": 6577,
      "ÙħØ²": 6578,
      "ĠØ§ÙĦØ³ÙĬØ±Ø§ÙħÙĬÙĥ": 6579,
      "ÙĦÙĬÙĤØ§Øª": 6580,
      "478": 6581,
      "âĢĿ\\": 6582,
      "ĠØ§ÙĦØºØ±Ø¨": 6583,
      "ĠØ±Ø¨ÙħØ§": 6584,
      "ĠØ§ÙĦØ¨Ø§Ø²ÙĦØª": 6585,
      "ĠÙĪØªØ¯": 6586,
      "Ø¬Ø±Ø¨": 6587,
      "ĠØ§ÙĦØ§Ø±Ø¶": 6588,
      "ĠØ§ÙĦØ®ÙĬØ±": 6589,
      "ĠØ§Ø°": 6590,
      "ĠØ§ÙĦÙħØ¯Ø±": 6591,
      "ĠØ³ÙĪØ±ÙĬØ©": 6592,
      "ÙĬÙħØ¨Ø§Ø¨ÙĪÙĬ": 6593,
      "Ø¬Ø§ÙĪØ²": 6594,
      "Ø£Øª": 6595,
      "ĠÙħØµØ±ÙĬ": 6596,
      "Ø§ÙĦØŃØµÙĪÙĦ": 6597,
      "IM": 6598,
      "ĠÙĨØ³Øª": 6599,
      "TH": 6600,
      "ĠÙĦÙĦØªØ¹Ø¯ÙĬÙĨ": 6601,
      "ade": 6602,
      "nØ¯ÙĬ": 6603,
      "639": 6604,
      "nØªØ§Ø¨Ø¹": 6605,
      "ĠØ¨Ø§ÙĬ": 6606,
      "Ġcookies": 6607,
      "ĠØ§ÙĦÙĨØªØ§Ø¦Ø¬": 6608,
      "roup": 6609,
      "ideo": 6610,
      "Ø®ØµÙĪØµ": 6611,
      "348": 6612,
      "ØªØ±ÙĪÙĦ": 6613,
      "ĠØ§ÙĦØ¬Ø§ÙĨØ¨": 6614,
      "ese": 6615,
      "ĠØ§ÙĦØ±ÙħÙĦÙĬ": 6616,
      "99987": 6617,
      "8565": 6618,
      "ance": 6619,
      "99921": 6620,
      "ĠØ±Ø§Ø³": 6621,
      "99927": 6622,
      "Ġ_": 6623,
      "ĠØ³Ø±ÙĬ": 6624,
      "ÙĥÙĬØª": 6625,
      "99914": 6626,
      "Ø·Ø±Ø§Ùģ": 6627,
      "ĠØ§ÙĦÙħØ¤Ø³Ø³Ø©": 6628,
      "888": 6629,
      "ØªØ´Ø§Ùģ": 6630,
      "ĠØ§ÙĦØ¹ÙĤÙĦ": 6631,
      "ĠØ®Ø·ÙĪØ§Øª": 6632,
      "ĠØ§ÙĦØŃÙĥÙĪÙħÙĬØ©": 6633,
      "ĠØ§ÙĦØŃØ³ÙĨ": 6634,
      "Ø§Ø±Ø¨Ø©": 6635,
      "ĠÙĦÙĦÙħØ³": 6636,
      "ĠØ§ÙĦÙĤÙĪØ©": 6637,
      "ĠØ¥ÙĥØ³": 6638,
      "ĠÙĥÙģ": 6639,
      "ĠÙħØ¯Ø©": 6640,
      "ĠØ£ØµØ¨ØŃØª": 6641,
      "189": 6642,
      "nØ£Ø³Ø¹Ø§Ø±": 6643,
      "ĠØ§ÙĦØ³Ø§Ø®ÙĨ": 6644,
      "top": 6645,
      "ĠØªØ±ØªÙĬØ¨": 6646,
      "ĠØ§ÙģØª": 6647,
      "368": 6648,
      "ĠØ±ÙģØ¶": 6649,
      "ØªØ±ÙĥØ©": 6650,
      "ĠØ¥ÙģØ±ÙĬÙĤÙĬØ§": 6651,
      "ĠChat": 6652,
      "ĠØ®ÙħØ³": 6653,
      "ĠØ§ÙĦØ´Ø±Ø·Ø©": 6654,
      "ØŃÙĩ": 6655,
      "ĠØ§Ø¬ÙħÙĦ": 6656,
      "ĠØ·Ø¨ÙĬ": 6657,
      "ĠØ£ÙĬÙĨ": 6658,
      "ĠØ¨Ø¬Ø§ÙħØ¹Ø©": 6659,
      "ØªØ²Ø§Ùħ": 6660,
      "ĠUn": 6661,
      "ÙĪÙĤØ¹Ø§Øª": 6662,
      "ĠØ¹ÙĦØ§ÙĤØ©": 6663,
      "ĠØ§ÙĦØ³Ø¤Ø§ÙĦ": 6664,
      "ĦÙĬÙĨ": 6665,
      "ÙĦÙĬÙĨ": 6666,
      "ĠØ§ÙĨØªØ´Ø§Ø±": 6667,
      "ĠØ§ÙĦØªØ¬Ø§Ø±": 6668,
      "ĠØ§ÙĦØ³ÙĬÙĨ": 6669,
      "Ñģ": 6670,
      "ĠØ§ÙĦÙħØ·Ø¨Ø®": 6671,
      "ĠØ§ØŃØ¯Ø«": 6672,
      "285": 6673,
      "ĠÙĦÙĦÙħØŃ": 6674,
      "ĠÙĦÙĦØµ": 6675,
      "ĠØ¨Ø§ÙĦØµÙĪØ±": 6676,
      "ĠØ§ÙĦØ±Ø³Ø§Ø¦ÙĦ": 6677,
      "ĠØ§ÙĦØµÙĨØ§Ø¹Ø§Øª": 6678,
      "âĹ": 6679,
      "9911": 6680,
      "ÙħØ¬Ø©": 6681,
      "ĠØ«Ù": 6682,
      "able": 6683,
      "ĠØ«ÙĦ": 6684,
      "§Ø§Ø": 6685,
      "earch": 6686,
      "ĠÙĬÙĦØ§": 6687,
      "ÙĨØ¯Ø§Øª": 6688,
      "ĠØ§ÙĦØ°ÙĥÙĬØ©": 6689,
      "ÙħÙĦÙģ": 6690,
      "ĠØŃÙĬØ¯Ø±": 6691,
      "378": 6692,
      "ĠLtd": 6693,
      "ĠÙĬØ¨ÙĦØº": 6694,
      "Ø³Ø¹Ø±": 6695,
      "9905": 6696,
      "ĠÙĬÙĤØ¹": 6697,
      "950": 6698,
      "ĠØ§ÙĦØªØ¹ÙĦÙĬÙĤØ§Øª": 6699,
      "ĠØ§ÙĦØ£Ø¹Ø¶Ø§Ø¡": 6700,
      "Ø¶Ø¨": 6701,
      "Ø®Ø±ÙĪØ·": 6702,
      "AL": 6703,
      "Ø£ØªÙĬ": 6704,
      "ĠØ§ÙĦØ¥ÙĨØ³Ø§ÙĨÙĬØ©": 6705,
      "IS": 6706,
      "879": 6707,
      "Ø·ÙĬØ¨": 6708,
      "ĠØ¶ÙħØ§ÙĨ": 6709,
      "ĠØ§ÙĦØŃØ¨ÙĪØ¨": 6710,
      "ES": 6711,
      "Ø°Ù": 6712,
      "Ø§Ø¦ÙĬØ§Øª": 6713,
      "Ø°ÙĦ": 6714,
      "ĠÙħÙĬÙĨ": 6715,
      "Ø±ÙĪÙĬØ¬": 6716,
      "9938": 6717,
      "Ø§ÙĦÙĬØ¨": 6718,
      "ØŃÙĥØ§Ùħ": 6719,
      "9943": 6720,
      "960": 6721,
      "ĠÙĦÙĦØ®": 6722,
      "ØµØ¯ÙĤ": 6723,
      "ĠØ£ÙĨØ¯": 6724,
      "ĠÙħØ¯Ø±Ø³Ø©": 6725,
      "ĠØ§ÙĦÙħÙĪØ§Ø·ÙĨÙĬÙĨ": 6726,
      "Ø·Ùĩ": 6727,
      "ĠØ§ÙĦÙĤØ±Ø§Ø±": 6728,
      "ÙģÙģ": 6729,
      "Ø±Ø£Ø©": 6730,
      "ĠØ§ÙĦØ£Ø¬": 6731,
      "Ø³ØªÙĬØ±": 6732,
      "Ø¸Ù": 6733,
      "ĠØ§ÙĦØºØ¨Ø§Ø±": 6734,
      "ĠØ§ÙĦØ¨ÙĪÙĥØ³ÙĬØª": 6735,
      "upp": 6736,
      "ĠÙĪØ®Ø§ØµØ©": 6737,
      "ĠØ§ÙĦÙĤØ¯ÙĬÙħ": 6738,
      "ÙĤÙĬØ§Ùħ": 6739,
      "ÙĢØ©": 6740,
      "163": 6741,
      "nÙĬØ¹": 6742,
      "hai": 6743,
      "ĠØ§ÙĦØµØŃÙĬØŃ": 6744,
      "Ø¬ÙĪÙĨ": 6745,
      "ĠØ³Ùģ": 6746,
      "ÙĤØ±Ø§Ùħ": 6747,
      "ĠØ§ÙĦÙħØ¯ÙĨ": 6748,
      "Ø«Ø±Ø©": 6749,
      "ĠÙĤÙĬÙħ": 6750,
      "arn": 6751,
      "ĠÙĥÙĪØ±ÙĬØ§": 6752,
      "Ø§ÙĪØ¯": 6753,
      "ĠØªØºÙĬØ±": 6754,
      "ÙĬØ¨Ø©": 6755,
      "ĠØ§ÙĦÙĩÙĬØ¯Ø±ÙĪÙĥØ±Ø¨ÙĪÙĨØ§Øª": 6756,
      "ĠØ¬Ø³Ùħ": 6757,
      "342": 6758,
      "ĠØ§ÙĦÙħØ´Ø§ÙĥÙĦ": 6759,
      "Ø§ÙħÙĬÙĦ": 6760,
      "ĠØ§ÙĦÙħØ¨Ø§Ø´Ø±": 6761,
      "ron": 6762,
      "ĠØ¹ÙħØ§ÙĦ": 6763,
      "ĠØ§ÙĦØ£Ø³Ø±Ø©": 6764,
      "ØªØµØ§Øµ": 6765,
      "ĠÙĪØ§ÙĦØ¨Ø±": 6766,
      "Ġ70": 6767,
      "ĠØ·Ø±ØŃ": 6768,
      "Ø§Ø·Ø¦": 6769,
      "ĠÙģØ±ÙĬ": 6770,
      "ÙħØªØ¹": 6771,
      "Ø¬Ø±Ø§ÙĨÙĬØª": 6772,
      "ĠØªØ®ØµØµ": 6773,
      "218": 6774,
      "ĠØ§ÙĦÙħÙĪØ§Ø±Ø¯": 6775,
      "ĠØ§ÙĦÙĥØ§ÙħÙĦØ©": 6776,
      "ĠØ±Ø§Ø¦Ø¹": 6777,
      "ÙĩÙĪÙħ": 6778,
      "ĠÙĦÙĦÙĪ": 6779,
      "ÙĦÙģØ§Øª": 6780,
      "ĠØ§ÙĦØŃØ¶": 6781,
      "ĠØ§ÙĦØ³ÙĬØ§ØŃØ©": 6782,
      "ĠÙħØ±ÙĪØ±": 6783,
      "ĠÙĨÙĪØ¹ÙĬØ©": 6784,
      "ĠÙħÙĬØª": 6785,
      "Ø¥ÙĥØ³": 6786,
      "003": 6787,
      "ownload": 6788,
      "ĠØ§ÙĦØ¥ØµØ§Ø¨Ø©": 6789,
      "ÙĩØ±Ø§Øª": 6790,
      "ĠØ±Ø¶ÙĬ": 6791,
      "ĠØ¹Ø±Ùģ": 6792,
      "ÙĪØ±Ø¯ÙĬ": 6793,
      "ish": 6794,
      "this": 6795,
      "ĠÙĪØ§ÙĦØ¯ÙĥØªÙĪØ±": 6796,
      "ÙĤÙĬØ§Ø³": 6797,
      "Ø¨ÙĨÙī": 6798,
      "ĠÙĤÙĪØ§Ø¹Ø¯": 6799,
      "ĠÙħÙĪÙĤÙģ": 6800,
      "nÙĬØª": 6801,
      "ĠÙħÙĤØ§ÙĦØ§Øª": 6802,
      "âĢĭ": 6803,
      "ĠØ¨ÙħÙĨØ§Ø³Ø¨Ø©": 6804,
      "ĠÙĦÙħØµÙĨØ¹": 6805,
      "nØ§ÙĦÙĥØ±Ø©": 6806,
      "ps": 6807,
      "ĠØŃØ³Ø§Ø¨Ùĥ": 6808,
      "ĠØ¹Ø¯ÙĬØ¯Ø©": 6809,
      "ĠØ§ÙĦØ±Ø§Ø¨Ø·": 6810,
      "ÙĪØ¬Ø¨": 6811,
      "9906": 6812,
      "ĠØªÙĪØ²ÙĬØ¹": 6813,
      "922": 6814,
      "Ø±ÙĬÙĥØ§": 6815,
      "ĠØ§ÙĦØ£ÙħÙĪØ§ÙĦ": 6816,
      "ĠØ´Ø¨Ø§Ø¨": 6817,
      "Ø§ÙħÙĬÙĨ": 6818,
      "00004": 6819,
      "Ø¸ÙĦ": 6820,
      "ĠØ§ÙĦØŃØ§Ø¬Ø©": 6821,
      "TW": 6822,
      "ĠØªØ¬Ø§Ø±ÙĬØ©": 6823,
      "ĠØ¨Ø§ÙĦÙĦØºØ©": 6824,
      "Ø«Ø§ÙĦ": 6825,
      "ĠØ£Ø·ÙģØ§ÙĦ": 6826,
      "ĠØµØ±": 6827,
      "ÙĬÙĨØª": 6828,
      "Ø¨Ø¹Ø§Ø¯": 6829,
      "ĠÙħÙĤØ¯ÙħØ©": 6830,
      "ĠØ¹Ø¶ÙĪ": 6831,
      "ĠØ¹ÙĦØ§ÙħØ©": 6832,
      "ĠØ§ÙĦØ¨Ø±Ø§Ø²ÙĬÙĦ": 6833,
      "ÙĤÙĬØ¨": 6834,
      "120": 6835,
      "ĠØ§ÙĦÙħØ¬Ùħ": 6836,
      "Ø²ÙĪØ¬": 6837,
      "ĠØ§ÙĦØ±Ø³ÙĪÙħ": 6838,
      "ĠÙĬØ¸ÙĩØ±": 6839,
      "ÙĪØ§Ø¦ÙĬØ©": 6840,
      "Ø¨ÙĬÙĦØ©": 6841,
      "133": 6842,
      "Ø¹Ø¬Ø§Ø¨": 6843,
      "GM": 6844,
      "ĠØ§ÙĦØ«ÙĤØ§ÙģØ©": 6845,
      "Ø³ÙĪ": 6846,
      "Ø§ØŃÙĬ": 6847,
      "ĠØ¹ÙĦÙĬÙĨØ§": 6848,
      "248": 6849,
      "ØªÙĬØ©": 6850,
      "ĠØ§ÙĦÙħØºÙĨØ§Ø·ÙĬØ³ÙĬ": 6851,
      "Ùĭ:": 6852,
      "ĠØªÙĥØ±": 6853,
      "nÙħØ·Ø§ØŃÙĨ": 6854,
      "ĠØ§ÙĦØ¬ÙĨØ³ÙĬØ©": 6855,
      "042": 6856,
      "ĠFacebook": 6857,
      "ĠÙĪØ±ÙĤØ©": 6858,
      "nÙħØŃØ·Ø©": 6859,
      "Ø§Ø±Ø¹": 6860,
      "ex": 6861,
      "ĠØ±ÙĪÙĥ": 6862,
      "ĠÙĦÙĥØ³Ø§Ø±Ø©": 6863,
      "ĠØ²Ø¬Ø§Ø¬": 6864,
      "Ø³ÙĪÙĨØ¬": 6865,
      "ĠÙĪØ±Ø§Ø¡": 6866,
      "ĠÙħÙĨØ§Ùģ": 6867,
      "99876": 6868,
      "OM": 6869,
      "PH": 6870,
      "ĠØªÙĨØ³ÙĬÙĤ": 6871,
      "ĠØ¨Ø§ÙĦÙħÙĪØ±Ø¯": 6872,
      "284": 6873,
      "ĠØ§ÙĦÙħØ´Ø§Ø±ÙĬØ¹": 6874,
      "99920": 6875,
      "ĠØ§ÙĦÙħÙĦÙģØ§Øª": 6876,
      "ĠØ§ÙĦØ£ÙħØ±Ø§Ø¶": 6877,
      "ĠÙĪÙĩÙħ": 6878,
      "ĠØ¨ÙħØ±": 6879,
      "ĠØªØ¬Ø§Ùĩ": 6880,
      "asia": 6881,
      "99911": 6882,
      "ĠØ§ÙĦÙĥØ§Ùħ": 6883,
      "ÙĨØ³Ø§ÙĨ": 6884,
      "ØªØµÙģ": 6885,
      "ĠØ³Ø§Ø¨ÙĤ": 6886,
      "ĠÙĨÙĤØ§Ø·": 6887,
      "ĠØ¥Ø±": 6888,
      "ĠÙħÙĪØ§Ø¬ÙĩØ©": 6889,
      "ĠØ´ÙħØ³": 6890,
      "Ø§ÙĥØª": 6891,
      "ĠØ§ÙĦØŃØ±Ø©": 6892,
      "ĠØ¨Ø£ÙĬ": 6893,
      "441": 6894,
      "ĠØ§ÙĦØ¥Ø¹ÙĦØ§ÙĨ": 6895,
      "ĠÙĪØ§ÙĦØ¹ÙħÙĦ": 6896,
      "ĠØ§ÙĦÙħÙħÙĬØ²Ø©": 6897,
      "ĠPDF": 6898,
      "869": 6899,
      "ĠÙĪØ§ÙĦÙħØ³Øª": 6900,
      "ĠÙĪÙħÙĤ": 6901,
      "ĠØ§ÙĦØ¬ÙħØ§ÙĦ": 6902,
      "nØ§ÙģØ¶ÙĦ": 6903,
      "ĠÙĪØ§Ø¨": 6904,
      "ÙħØ¬": 6905,
      "ĠÙĬØ¨Ø¯ÙĪ": 6906,
      "ĠÙĦÙĦØ£Ø³": 6907,
      "Ø¨ÙĦÙĪÙħ": 6908,
      "137": 6909,
      "ĠÙĥØ³Ø±": 6910,
      "ply": 6911,
      "Ø§Ø±ÙĬÙĨ": 6912,
      "ĠÙĪØ¶": 6913,
      "ices": 6914,
      "ÙĪÙĤÙĬØ¹": 6915,
      "ÙĪØ±Ùĩ": 6916,
      "ĠØ±Ø³ÙĪÙħ": 6917,
      "Ø§ÙģÙĬØ§": 6918,
      "ØªÙħØ¯Ø©": 6919,
      "ĠÙĦØ§ÙĬ": 6920,
      "Ø¸ÙħØ§Øª": 6921,
      "ĠÙĪØ¨Ø¯": 6922,
      "ĠØªÙĪØ§ØµÙĦ": 6923,
      "ĠÙħØ¯ÙĬÙĨ": 6924,
      "9933": 6925,
      "037": 6926,
      "ĠØªØ§Ø¨Ø¹": 6927,
      "ØµØ§Ø¨": 6928,
      "ÙħØ§ÙĦÙĥ": 6929,
      "ound": 6930,
      "Ø¸ÙģÙĬÙĨ": 6931,
      "ĠÙħØ¹ÙĩØ§": 6932,
      "99974": 6933,
      "Ø·Ø¨Ø©": 6934,
      "ĠÙĪÙĦØ¯": 6935,
      "ÙĬØ¯Ø": 6936,
      "ÙĬØ¯Ø§": 6937,
      "252": 6938,
      "ĠÙĦØ¹Ø¨": 6939,
      "ÙģØ§ØªÙĬØŃ": 6940,
      "Ø¨Ø±ÙĨØ§ÙħØ¬": 6941,
      "ood": 6942,
      "ĠÙħÙĤØ¯": 6943,
      "ĠØ§ÙĦØµÙĦØ¨Ø©": 6944,
      "Ġ90": 6945,
      "ĠÙĪÙĩÙĨØ§Ùĥ": 6946,
      "454": 6947,
      "ĠÙĪØ§ÙĦØªØ¹ÙĦÙĬÙħ": 6948,
      "464": 6949,
      "ĠØ§Ø³ØªØ±Ø§ØªÙĬØ¬ÙĬØ©": 6950,
      "002": 6951,
      "ĠØ§ÙĦØ£Ø®ÙĬØ±": 6952,
      "ĠØ§ÙĦØ«Ù": 6953,
      "ĠØ§ÙĦØ«ÙĦ": 6954,
      "IT": 6955,
      "ĠÙĬØº": 6956,
      "ĠØ§ÙĦØŃÙħØ§Ùħ": 6957,
      "ĠØ§ÙĦÙħÙĪØ§ÙģÙĤ": 6958,
      "nØ§Ø¶": 6959,
      "ĠØ¨Ø§ÙĦØ¯Ùħ": 6960,
      "150": 6961,
      "Ø¨ÙĬØ§ÙĨØ§Øª": 6962,
      "ĠÙĪØ§ÙĦÙħÙĪ": 6963,
      "ĠÙħÙħÙĬØ²": 6964,
      "ĠØ§ÙĦØ¯ÙĨÙĬØ§": 6965,
      "ĠØ§ÙĦÙĪØ¸Ø§Ø¦Ùģ": 6966,
      "99931": 6967,
      "ĠÙĦØªØ¹Ø¯ÙĬÙĨ": 6968,
      "ĠÙħØ¹ÙĬÙĨ": 6969,
      "ĠÙĬØ±Ø¬Ùī": 6970,
      "Ġ32": 6971,
      "911": 6972,
      "ĠØ§ÙĦØªÙģØ³ÙĬØ±": 6973,
      "ĠØ§ÙĦÙħÙĨØ¸": 6974,
      "ĠÙħØ³ØªÙĪÙĬØ§Øª": 6975,
      "Ø§Ø¬ÙĬ": 6976,
      "ĠØ£Ø¹ÙĦÙĨØª": 6977,
      "ĠØºØ°": 6978,
      "99894": 6979,
      "ĠÙĨØ¯": 6980,
      "ĠØ®Ø¨Ø±Ø©": 6981,
      "lect": 6982,
      "ĠØ§ÙĦØµØ±Ùģ": 6983,
      "ĠØ¨ØµÙĪØ±Ø©": 6984,
      "ĠØ§ÙĦØªØ±Ø¬": 6985,
      "ĠØ±Ø³ÙħÙĬ": 6986,
      "ĠØ§ÙĦÙĥØ§ØªØ¨": 6987,
      "ĠØ§ÙĦØ¨Ø¯Ø§ÙĬØ©": 6988,
      "igh": 6989,
      "Ø±ÙĪØ±ÙĬ": 6990,
      "Ø¯Ø§Ø¨": 6991,
      "ĠØ¥ØŃ": 6992,
      "Ġ2000": 6993,
      "ÙĥÙħØ§ÙĦ": 6994,
      "ĠØ§ÙĨÙĩØ§": 6995,
      "ĠØŃÙĤÙĬÙĤØ©": 6996,
      "Ø§ÙĩÙħØ©": 6997,
      "Ø¨Ø§Ø¹": 6998,
      "9928": 6999,
      "ĠØ§ÙĦØ£ÙĬØ§Ùħ": 7000,
      "ĠÙħØ²ÙĬØ¯": 7001,
      "mm": 7002,
      "ĠÙĩÙī": 7003,
      "ÙĪØ¯Ø": 7004,
      "ÙĪØ¯Ø§": 7005,
      "ÙĪØŃØ©": 7006,
      "ĠØ§ÙĦØªØ¯Ø±ÙĬØ¨": 7007,
      "ĠØ§ÙĦØ¬ÙĪØ§ÙĦ": 7008,
      "ĠØ´Ùģ": 7009,
      "nØªØ³ÙĪÙĤÙĪØ§": 7010,
      "ĠØ²ÙĬÙħØ¨Ø§Ø¨ÙĪÙĬ": 7011,
      "ĠØªØ¹Ø¨": 7012,
      "ĠØ¬ÙħÙĬÙĦ": 7013,
      "ĠØ§ÙĦÙĪÙģ": 7014,
      "ĠØªØ¨Ø¯ÙĬÙĦ": 7015,
      "ĠØ£ØŃÙĬ": 7016,
      "ĠØ¨ÙĦØ¯": 7017,
      "9920": 7018,
      "ĠØ§ÙĦØ©": 7019,
      "ĠØµÙĦØ§Ø©": 7020,
      "ØªØ§ÙĦ": 7021,
      "amp": 7022,
      "ĠØ¥ÙĨØ¯ÙĪÙĨÙĬØ³ÙĬØ§": 7023,
      "nØ´Ø§ÙĩØ¯": 7024,
      "942": 7025,
      "Ø§ÙĨÙĪÙĨÙĬ": 7026,
      "ĠÙħÙĨØŃ": 7027,
      "ØªÙĥØ§Ø±": 7028,
      "uk": 7029,
      "OP": 7030,
      "ĠÙĩØ¯Ø§ÙĬØ§": 7031,
      "ĠØ§ÙĦØ¨Ø§Ø±ÙĬØª": 7032,
      "ÙĬÙĥØ": 7033,
      "ÙĬÙĥØ§": 7034,
      "358": 7035,
      "99995": 7036,
      "Ø§Ø·Ø¹Ø©": 7037,
      "ĠØ·Ø¨ÙĬØ©": 7038,
      "ÙĥØ§ÙģØŃØ©": 7039,
      "ĠØ§ÙĦØ£ÙĪÙĦÙĬØ©": 7040,
      "ĠÙĥÙĩØ±Ø¨Ø§Ø¦ÙĬØ©": 7041,
      "ĠØ§ÙĦØ£ÙĪØ±ÙĪØ¨ÙĬØ©": 7042,
      "ĠØ±ØŃÙħ": 7043,
      "Ø§Ø¬Ø¹Ø©": 7044,
      "ĠØ§ÙĦØ¨ÙĬØ¶Ø§Ø¡": 7045,
      "536": 7046,
      "ĦØ¹": 7047,
      "ĠØ§ÙĦÙģÙĬØ³": 7048,
      "ÙĦØ¹": 7049,
      "ĠØ§ÙĦØ£Ø¯ÙĪØ§Øª": 7050,
      "ater": 7051,
      "Ø¬ÙħÙĩ": 7052,
      "ath": 7053,
      "ĠØ§ÙĦÙħØ´ÙĥÙĦØ©": 7054,
      "UM": 7055,
      "ĠØ§ÙĦØ£Ø®Ø¶Ø±": 7056,
      "ĠØ§ÙĦØ¹Ø±Ø§ÙĤÙĬ": 7057,
      "ĠÙĩÙĨ": 7058,
      "ĠØ§ÙĦÙħØ¤Ø³Ø³Ø§Øª": 7059,
      "ĠØ§ÙĦÙħØªØ±": 7060,
      "439": 7061,
      "ĠØ³Ø¨ÙĪØ±Øª": 7062,
      "ĠØ¥Ø¬Ø±Ø§Ø¡Ø§Øª": 7063,
      "Ø§Ø¨ÙĬØ¨": 7064,
      "etail": 7065,
      "Ø·Ø±ÙĬØ©": 7066,
      "ĠØ§ÙĦØ¬Ø§ÙħØ¹Ø§Øª": 7067,
      "99887": 7068,
      "015": 7069,
      "Ø²ÙĤ": 7070,
      "res": 7071,
      "ĠØ§ÙĦÙĥÙĦÙħØ§Øª": 7072,
      "ĠÙĦÙĦØ¨ÙĨØ§Øª": 7073,
      "ĠØ§ÙĦÙģÙĤÙĩ": 7074,
      "ĠØ¯ÙĥØªÙĪØ±": 7075,
      "ÙħÙĨÙī": 7076,
      "ĠØ§ÙĦØ¹ÙħÙĦÙĬØ§Øª": 7077,
      "nØ³ÙĬØ§Ø³Ø©": 7078,
      "ĠØ³ÙģØ±": 7079,
      "cy": 7080,
      "ĠØ§ÙĦÙħØ¯Ø±Ø³Ø©": 7081,
      "!!": 7082,
      "ĠØ§ÙĦÙħØŃØ±Ùĥ": 7083,
      "ĠØ§ÙĦØ§Ø¹Ø¯": 7084,
      "ĠÙĦØ¨ÙĬØ¹": 7085,
      "99930": 7086,
      "9982772": 7087,
      "98240936": 7088,
      "ĠÙħØ±Ø§Ø¬Ø¹Ø§Øª": 7089,
      "ĠØªÙĪØµÙĬÙĦ": 7090,
      "ĠØªØ¹ØªÙħØ¯": 7091,
      "ĠØ§ÙĩÙħ": 7092,
      "ĠØ¹Ø§ÙħÙĦ": 7093,
      "Ø§ÙĩÙĪ": 7094,
      "ĠØ§ÙĦØ¹ØµØ±": 7095,
      "ĠØ§ÙĦÙĨÙĩØ§Ø¦ÙĬ": 7096,
      "ĠØ§ÙĦÙħØ¯ÙĬØ±": 7097,
      "ÃĹ": 7098,
      "Ä±": 7099,
      "ĠÙģÙĪ": 7100,
      "ĠØ§ÙĦÙĨØ§ÙĤ": 7101,
      "nÙĪÙĤØ¯": 7102,
      "ĠØ§ÙĦØ¨Ø®": 7103,
      "ĠØ¹Ø·": 7104,
      "ĠÙĪÙĥÙĬÙģ": 7105,
      "ĠØ®Ø·Ø±": 7106,
      "ØµØ¯ÙĬØ±": 7107,
      "99886": 7108,
      "ĠØ¬ÙħÙĬÙĦØ©": 7109,
      "ĠØ¢Ø¨": 7110,
      "ĠØªØªÙĪ": 7111,
      "OL": 7112,
      "ÙģØ§Ø±": 7113,
      "ĠØ§ÙĦØ¥Ø¯Ø§Ø±ÙĬØ©": 7114,
      "ĠÙĪØ§ÙĦØ£Ø³": 7115,
      "ĠVSI": 7116,
      "ĠÙħØ³Ø§Ø¹Ø¯": 7117,
      "ĠÙĨØµØ±": 7118,
      "84746": 7119,
      "Ġz": 7120,
      "Ø®ÙĬØ±": 7121,
      "ĠØ§ÙĦØ¯ÙĩÙĪÙĨ": 7122,
      "ĠØ¬ÙĪØ±Ø¬": 7123,
      "Ø§ÙĥØ³": 7124,
      "Ġar": 7125,
      "ĠØ§ÙĦØ¬ÙĪÙĬØ©": 7126,
      "ĠÙĪØŃØ¯Ø§Øª": 7127,
      "nØ£ÙĥÙħÙĦ": 7128,
      "ĠØ«Ø§ÙĦØ«": 7129,
      "ĠØ§ÙĦØ·Ø¨ÙĬØ¨": 7130,
      "ÙĥØ§ÙĨÙĬ": 7131,
      "ĠØ³ÙĥØ§ÙĨ": 7132,
      "ĠÙ£": 7133,
      "ĠØ¨Ø§ÙĦÙĤØ±Ø¨": 7134,
      "ĠØ£ÙĥØ³": 7135,
      "ĠÙħØ§Ø¡": 7136,
      "ÙħØŃÙħØ¯": 7137,
      "Ø§Ø¶Ø§Øª": 7138,
      "ĠÙħØ¬ÙħÙĪØ¹": 7139,
      "ĠØ§ÙĥØ¨Ø±": 7140,
      "Ø¯Ø±Ø³": 7141,
      "ĠØ§ÙĦÙħÙĬØ²": 7142,
      "ĠØ§ÙĦÙģØ±Ø¯": 7143,
      "ĠØ§ÙĦØ£Ø±Ø¨": 7144,
      "nÙĪØ£Ø¶Ø§Ùģ": 7145,
      "127": 7146,
      "9922": 7147,
      "Ġ:::": 7148,
      "033": 7149,
      "9886": 7150,
      "Ø¨ÙĬØ¦Ø©": 7151,
      "082": 7152,
      "ĠÙĦÙĨØ¯ÙĨ": 7153,
      "Ø·Ø¹ÙħØ©": 7154,
      "ĠØ±Øº": 7155,
      "rans": 7156,
      "ÙĬØ±ÙĪØ³": 7157,
      "ĠØºØ±Ø¨Ø§ÙĦ": 7158,
      "ĠØ·ÙĪØ§ÙĦ": 7159,
      "ĠØ§ÙĦÙĨØ¸": 7160,
      "EM": 7161,
      "ÙħÙĪÙĨ": 7162,
      "ĠØ¥Ø¹ÙĦØ§ÙĨ": 7163,
      "ĠØ¨Ø¯ÙĦØ§": 7164,
      "051": 7165,
      "00005": 7166,
      "ĠØ§ÙĦØŃØ§ÙĦ": 7167,
      "ĠØ²ÙħÙĨ": 7168,
      "ØµÙĪØ±Ø©": 7169,
      "ĠØ§ÙĦØ±Ø¨ØŃ": 7170,
      "ĠØ§Ø®Ø±Ùī": 7171,
      "ÙħØ§Ø¹": 7172,
      "quip": 7173,
      "ÙĥÙĦÙģ": 7174,
      "Ø§ØŃØ¸Ø§Øª": 7175,
      "ĠØ¢Ø³ÙĬØ§": 7176,
      "ĠFor": 7177,
      "ĠØ§ÙĦØµØºÙĬØ±": 7178,
      "Ø¹Ø¯Ø§Ø¯Ø§Øª": 7179,
      "nInquire": 7180,
      "ĠØ§ÙĦÙĤÙĨÙĪØ§Øª": 7181,
      "ĠØŃØ¯Ø§Ø¦ÙĤ": 7182,
      "ĠØ§ÙĦØ¬ÙħØ¹ÙĬØ©": 7183,
      "179": 7184,
      "8084746": 7185,
      ":âĢı": 7186,
      "ĠÙĬØŃÙħÙĦ": 7187,
      "ĠØ§ÙĦØ¹ÙĨØ§ØµØ±": 7188,
      "479": 7189,
      "nØ¬ÙħÙĬØ¹": 7190,
      "187": 7191,
      "Ø²ÙĬØª": 7192,
      "ĠØ¥ÙħÙĥØ§ÙĨÙĬØ©": 7193,
      "ĠØ§ÙĦÙħÙĩÙħ": 7194,
      "ns": 7195,
      "ĠØ³ÙĨÚ¯": 7196,
      "ĠØ¢ÙĦØ§Ùģ": 7197,
      "agram": 7198,
      "ØªØ§ÙħÙĬÙĨ": 7199,
      "âĢĮ": 7200,
      "197": 7201,
      "814": 7202,
      "ĠØ§ÙĦØ´ÙĥÙĦ": 7203,
      "lam": 7204,
      "ØĮ\\": 7205,
      "ÙĪØ¯Ø§ÙĨ": 7206,
      "ĠÙĦØ¯ÙĬÙĩÙħ": 7207,
      "ÙĪØ±ÙĬÙĨ": 7208,
      "ĠØ§ÙĦØ±ÙĪØŃ": 7209,
      "ĠÙħØ¬ÙħÙĪØ¹Ø§Øª": 7210,
      "ĠÙĪØ£ÙĬ": 7211,
      "ĠØ±ÙħØ²": 7212,
      "ĠÙĬØªØ±": 7213,
      "ÙģÙĬØ¶": 7214,
      "ĠØ§ÙĦÙĥÙĦÙĬØ©": 7215,
      "ĠÙĦØ¶ÙħØ§ÙĨ": 7216,
      "ĠÙĪØ³ÙĪÙģ": 7217,
      "ĠØ§ÙĦÙģØ¶": 7218,
      "678": 7219,
      "ĠØ§ÙĦØ¥Ø³ÙħÙĨØª": 7220,
      "ĠÙħØ¹Ø±ÙĪÙģ": 7221,
      "ĠØ§ÙĦØŃØ§ÙĦÙĬØ©": 7222,
      "ĠÙĦØ´Ø±Ø§Ø¡": 7223,
      "ĠÙħØ±Ø§ÙĤØ¨Ø©": 7224,
      "PS": 7225,
      "nØ§ÙħØªÙĦÙĥ": 7226,
      "ĠØ´Ø±ÙĬÙĥ": 7227,
      "ĠØ§ÙĦÙħÙĩÙħØ©": 7228,
      "Ġvsi": 7229,
      "Ø§Ø¯Ø": 7230,
      "nØªØµÙħÙĬÙħ": 7231,
      "Ø¬Ø§ØŃ": 7232,
      "Ø§Ø¯Ø§": 7233,
      "ÙģÙĪÙĨ": 7234,
      "ĦØ§Ùģ": 7235,
      "ÙĦØ§Ùģ": 7236,
      "ĠØªØ°": 7237,
      "Ø§Ø¦Ø±Ø§Øª": 7238,
      "ĠØ§ÙĦØ«ÙĨØ§Ø¦ÙĬØ©": 7239,
      "ĠØ§ÙĦØ²ÙħÙĨ": 7240,
      "ĠØ§ÙĦÙħØ³ØªØ®Ø¯ÙħÙĬÙĨ": 7241,
      "ĠØµÙĨØ§Ø¹ÙĬØ©": 7242,
      "99877": 7243,
      ".[": 7244,
      "ĠØ³Ø¹Ø©": 7245,
      "ĠØ´Ø£ÙĨ": 7246,
      "RI": 7247,
      "Ø«ÙĬÙĦ": 7248,
      "ĠØ§ÙĦÙģØ±ÙĨØ³ÙĬ": 7249,
      "ĠØ§ÙĦØ³ÙĪ": 7250,
      "Ø±Ø": 7251,
      "Ø§ÙĨØº": 7252,
      "Ø§Ø¯ÙĦØ©": 7253,
      "ĠÙĤØ§Ø¯Ø±": 7254,
      "ĠØ§ÙĦØ¬Ø§Ùģ": 7255,
      "Ø±Ø§": 7256,
      "ĠØŃÙĥÙĪÙħØ©": 7257,
      "Ø¶Ø±Ø§Ø±": 7258,
      "Ġnot": 7259,
      "ĠØ§ÙĤØªØ±": 7260,
      "Ø§ØµÙĦØ©": 7261,
      "ĠÙģØ¥Ø°Ø§": 7262,
      "ĠÙĥÙĩØ±Ø¨Ø§Ø¦ÙĬ": 7263,
      "ØªØµØ§Ø±": 7264,
      "ĠØ°Ø±ÙĪØ©": 7265,
      "ĠØ¬ÙħØ¹ÙĬØ©": 7266,
      "nØ§Ø³Ùħ": 7267,
      "ĠÙĦØ§Øª": 7268,
      "und": 7269,
      "ĠØ£ÙħØ±ÙĬÙĥÙĬ": 7270,
      "ĠØ±ÙħØŃ": 7271,
      "ĠØ§ÙĦÙĤØ§Ø¯ÙħØ©": 7272,
      "ĠÙĪÙģØ§Ø©": 7273,
      "ĠÙĥØªÙĦØ©": 7274,
      "ĠÙĦØ§Ø¹Ø¨": 7275,
      "132": 7276,
      "ĠÙĪØ§ØªØ³": 7277,
      "ash": 7278,
      "ĠÙĪØ§ÙĦØ°": 7279,
      "ĠØ§ÙĦØ°Ùī": 7280,
      "ĠÙħØ°": 7281,
      "ĠØ§ÙĦØªØ®ØµØµ": 7282,
      "053": 7283,
      "ÙĬØ¤": 7284,
      "Ø§Ø±Ùģ": 7285,
      "ĠÙħØªØ§Ø¨Ø¹Ø©": 7286,
      "99994": 7287,
      "ĠØ§ÙĦØªØºØ°ÙĬØ©": 7288,
      "nÙħØ±": 7289,
      "tech": 7290,
      "ĠâĿĿ": 7291,
      "ĦØ²ÙħØ§Øª": 7292,
      "ÙĦØ²ÙħØ§Øª": 7293,
      "ĠÙĤÙģØ§Ø²Ø§Øª": 7294,
      "ĠØªØ£ØªÙĬ": 7295,
      "ĠÙĪØ§ÙĦØ®Ø¯ÙħØ§Øª": 7296,
      "ĠØ§ÙĦÙħØ¯Ø§Ø±Ø³": 7297,
      "ĠØ¥ÙĬØ·Ø§ÙĦÙĬØ§": 7298,
      "ents": 7299,
      "ĠØ§ÙĦÙĪØŃØ¯Ø©": 7300,
      "ÙĪØ±Ø": 7301,
      "ÙĪØ±Ø§": 7302,
      "ĠÙĪÙĬØ¨": 7303,
      "ĠÂ©": 7304,
      "ÙĪÙĨÙĬØª": 7305,
      "98428565": 7306,
      "ĠÙħØ³ÙĦÙħ": 7307,
      "ĠØ§ÙĦÙħØ¤ÙħÙĨ": 7308,
      "ĠØ´ÙĨØºÙĩØ§ÙĬ": 7309,
      "9953": 7310,
      "ĠØ§ÙĦÙħØ¯ÙĨÙĬØ©": 7311,
      "ĠØ§ÙĦÙħÙĥØ³ÙĬÙĥ": 7312,
      "ĠØµØ±Ùģ": 7313,
      "024": 7314,
      "ĠØŃØ§Ø¬Ø©": 7315,
      "ich": 7316,
      "CM": 7317,
      "ÙĪØªØ": 7318,
      "438": 7319,
      "ÙĪØªØ§": 7320,
      "ĠØ§ÙĦØ·ÙĬØ±Ø§ÙĨ": 7321,
      "ĠÙĨØ¹Ùħ": 7322,
      "Ġ55": 7323,
      "195": 7324,
      "Ø´Ø±ÙĬ": 7325,
      "ÙħØ±Ø§Ø¡": 7326,
      "ĠØ§ÙĦØ¨ÙĦØ§Ø³ØªÙĬÙĥ": 7327,
      "ĠØ§ÙĦØŃØ³ÙĬÙĨ": 7328,
      "Ġres": 7329,
      "Ø§Ø¨ÙĬØ¹": 7330,
      "Ø¯ÙĬÙĦØ§Øª": 7331,
      "arabic": 7332,
      "468": 7333,
      "Ø¬Ø¹ÙĦ": 7334,
      "ĠÙĪØ§ÙĦÙĪ": 7335,
      "ĠInd": 7336,
      "ĠØªØªÙħÙĬØ²": 7337,
      "ÙĩØ§ÙĨ": 7338,
      "ĠÙĬØ¨Ø¯Ø£": 7339,
      "ĠâĿŀ": 7340,
      "99895": 7341,
      "ĠØ§ÙĦØ£ÙĦÙĪÙħÙĨÙĬÙĪÙħ": 7342,
      "ÙģØ¶ÙĦØ©": 7343,
      "nÙĪØ¹": 7344,
      "99866": 7345,
      "nJ": 7346,
      "ĠÙģÙĩØ°Ø§": 7347,
      "ÙĤØ³Ø§Ùħ": 7348,
      "ĠØ³ÙĩÙĦ": 7349,
      "ĠØ¹ÙħØ±ÙĪ": 7350,
      "ham": 7351,
      "ÙģÙĦØª": 7352,
      "aj": 7353,
      "ĠØ§ÙĦØ³ÙĦØ·Ø§Øª": 7354,
      "nØªØ§Ø±ÙĬØ®": 7355,
      "',": 7356,
      "ĠÙĦØ£ÙĪÙĦ": 7357,
      "nc": 7358,
      "ĠØ£ÙĦØ§": 7359,
      "ĠÙĨØ§Ùģ": 7360,
      "count": 7361,
      "ĠØ§Ø¶ØºØ·": 7362,
      "400": 7363,
      "Ø¬ÙħØ§ÙĦ": 7364,
      "ĠØ§ÙĦØªÙĦÙĤ": 7365,
      "ĠÙħØ§ÙĦÙĬØ©": 7366,
      "ÙĪØ¯Ø±": 7367,
      "Ø¬Ø": 7368,
      "ĠØ§ÙĦØ§Ø«Ø§Ø«": 7369,
      "uto": 7370,
      "848": 7371,
      "Ø¬Ø§": 7372,
      "99897": 7373,
      "ÙĬØ³Ùī": 7374,
      "ØªØ¯Ø§ÙĪÙĦ": 7375,
      "ĠØ§ÙĦØŃÙĤÙĬÙĤØ©": 7376,
      "ĠØŃØµØ±ÙĬØ©": 7377,
      "log": 7378,
      "043": 7379,
      "ĠEx": 7380,
      "99847": 7381,
      "ĠÙĬÙĤÙĦ": 7382,
      "ĠÙĬØŃØµÙĦ": 7383,
      "ĠØ£Ø¨Ø¯": 7384,
      "ĠØ¨Ø§ÙĦØ¬ÙħÙĦØ©": 7385,
      "ĠÙĦÙĨÙĤÙĦ": 7386,
      "ĠÙĦÙĪØ§Ø²Ùħ": 7387,
      "ĠØ§ÙĦØ²ÙĬØª": 7388,
      "ĠØ£Ø²": 7389,
      "339": 7390,
      "Ø²ÙĬØ¹": 7391,
      "ĠØ£ÙĨØ¸ÙħØ©": 7392,
      "ĠÙĪÙħÙĨÙĩØ§": 7393,
      "Ø§Ø¹ÙĬØ¯": 7394,
      "ĠØ§ÙĦØµØŃØ§ÙģØ©": 7395,
      "ĠØ´ÙĪØª": 7396,
      "ĠÙħØ¬Ùĩ": 7397,
      "ĠØ§ÙĦÙħÙĪØ§ØµÙģØ§Øª": 7398,
      "ÙĦÙĬÙĪÙĨ": 7399,
      "ÙĪÙĦØ§Ø±": 7400,
      "ØµÙĬØ¯": 7401,
      "ĠÙģØ±Ø¹": 7402,
      "Ġ2007": 7403,
      "ĠÙħÙĬØ¯": 7404,
      "ĠØŃØ±Ø§Ø±Ø©": 7405,
      "ĠÙħÙĥØ¹Ø¨": 7406,
      "EL": 7407,
      "ĠØ§ÙĦÙĪØ§ØŃØ¯": 7408,
      "ÛĮÙĨ": 7409,
      "ĠØ§Ø¹ÙħØ§ÙĦ": 7410,
      "ĠØ´Ø¹Ø¨ÙĬØ©": 7411,
      "ĠØµØ¯ÙĬÙĤ": 7412,
      "ĠØ§ÙĦØŃØ±Ø§Ø±ÙĬØ©": 7413,
      "ĠØ§ÙĦØ¥Ø³Ø±Ø§Ø¦ÙĬÙĦÙĬ": 7414,
      "ĠÙģÙĨØ¯ÙĤ": 7415,
      "ĠÙĪÙģØ±Ø¥ÙĥØ³": 7416,
      "ĠØ¹Ø´Ø±Ø©": 7417,
      "ÙĪØ¨ÙĬØ": 7418,
      "ÙĪØ¨ÙĬØ§": 7419,
      "Ø²ÙĪÙĨ": 7420,
      "ĠØ¹Ø¨Ø§Ø³": 7421,
      "ĠØ§ÙĦÙģØª": 7422,
      "stagram": 7423,
      "219": 7424,
      "Ø¹Ø¯Ø©": 7425,
      "ĠÙĪØ£ÙĥØ«Ø±": 7426,
      "ĠÙĥÙħØ¨ÙĬÙĪØªØ±": 7427,
      "ĠØ§ÙĦÙħÙĨØ§Ø®": 7428,
      "858": 7429,
      "ĠØªØªØ¨Ø¹": 7430,
      "ĠÙĦÙĤØ§Ø¡": 7431,
      "Ø«ÙħØ±ÙĬÙĨ": 7432,
      "ĠØ§ÙĦÙĥÙĦÙĨÙĥØ±": 7433,
      "ĠØ·Ø¨Ø§Ø¹Ø©": 7434,
      "ĠØ§ÙĦØ§ØªØµØ§ÙĦØ§Øª": 7435,
      "Ø±ÙĪØŃ": 7436,
      "ÙģØ³Ø§Ø±": 7437,
      "ĠÙĦÙĦØ§Ø³ÙħÙĨØª": 7438,
      "ĠØ§ÙĦÙħÙĪØª": 7439,
      "ĠØ§ÙĦØ²Ø±Ø§Ø¹Ø©": 7440,
      "ĠÙħØ¬Ø±Ø¯": 7441,
      "ĠØ§ÙĦÙħØ³Ø§Ø¹Ø¯Ø©": 7442,
      "ĠØ§ÙĦØ¨ØŃØ±ÙĬØ©": 7443,
      "nØ¨Ø§ÙĦ": 7444,
      "PK": 7445,
      "ĠØªÙĪØ§Ø¬Ùĩ": 7446,
      "9888096": 7447,
      "ĠÙĥÙĪÙĥ": 7448,
      "ĠÙĨØ¨Ø§Øª": 7449,
      "Ġmp": 7450,
      "âĢı.âĢı": 7451,
      "ĠØ£Øª": 7452,
      "ĠØ®ØµÙĪØµ": 7453,
      "Ø§ÙĬØ¬Ø§Ø±": 7454,
      "ĠÙĪØ¨Ø§ÙĦ": 7455,
      "ĠØ§ÙĦØªØ±ÙĥÙĬ": 7456,
      "Ġ//": 7457,
      "ĠØ§ÙĦØŃØ¯ÙĪØ¯": 7458,
      "ell": 7459,
      "ĠØªØŃØµÙĦ": 7460,
      "Ø±ÙĬÙĤÙĬ": 7461,
      "ÙĥØ³Ø±": 7462,
      "ØµÙĨØ§Ø¹Ø§Øª": 7463,
      "ĠØ¬Ø²ÙĬØ±Ø©": 7464,
      "ĠØµØŃÙĬØ©": 7465,
      "ĠØ§ÙĦÙħØ¯Ùī": 7466,
      "ĠÙģØŃ": 7467,
      "ĠØ§ÙĦØ¯Ø§Ø®ÙĦÙĬ": 7468,
      "ĠØ§ÙĦØ§ØµØ·ÙĨØ§Ø¹ÙĬ": 7469,
      "ĠØ§ÙģØ±ÙĬÙĤÙĬØ§": 7470,
      "ĠÙģØ±ÙĤ": 7471,
      "ĠØ¹ÙĨØ§ØµØ±": 7472,
      "ÙĤÙĪØ·": 7473,
      "Ø®ÙħØ©": 7474,
      "ĠÙħÙĪØ§Ø¶ÙĬØ¹": 7475,
      "ĠÙħØ¤Ø®Ø±": 7476,
      "Ø§Ø³ÙĬØ±": 7477,
      "9960": 7478,
      "ĠØ¯ÙĪØ±ÙĬ": 7479,
      "Ø¯Ø§ÙħØ©": 7480,
      "ÙĦØ§ÙĦØ§Øª": 7481,
      "ĠÙĦÙĦØ±Ø¬Ø§ÙĦ": 7482,
      "568": 7483,
      "9894": 7484,
      "Ø·Ø§Ø¹": 7485,
      "ĠØ§ÙĦØ´Ø±ÙĬÙģ": 7486,
      "ĠØ³Ø¨ØŃØ§ÙĨ": 7487,
      "ĠØµØ¯Ø±": 7488,
      "ÙģØ": 7489,
      "Ø±ÙĬØ¨ÙĬ": 7490,
      "ĠØ¨Ø³ÙĬØ·": 7491,
      "Ġonline": 7492,
      "ÙģØ§": 7493,
      "riv": 7494,
      "ĠØ£ÙĤØ¯Ùħ": 7495,
      "ĠØ³Ø§ÙħØ³ÙĪÙĨØ¬": 7496,
      "ĠÙħÙĨÙĥ": 7497,
      "nFacebook": 7498,
      "ĠÙĨÙħÙĪ": 7499,
      "ĠØ§ÙĦØ¹ÙĦØ§ÙĤØ©": 7500,
      "Ø³Ø¨Ø§ÙĨÙĬØ§": 7501,
      "ret": 7502,
      "ĠÙĩØ§Ùħ": 7503,
      "ĠÙģØ§ÙĬ": 7504,
      "ÑĢ": 7505,
      "ĠØ§ÙĦÙĦÙĬÙĦ": 7506,
      "ĠÙħØ¯Ø±ÙĬØ¯": 7507,
      "ĠÙħØ®ØªØ¨Ø±": 7508,
      "alk": 7509,
      "ĠØ§ÙĦØ³ÙĪÙĬØ¯": 7510,
      "ĠØ³ÙĦÙħØ§ÙĨ": 7511,
      "ÙĬØ¦Ø§Øª": 7512,
      "ĠØ§ÙĦØµÙĬØ¯": 7513,
      "ĠØ¨Ø±ÙĬØ·": 7514,
      "nØ§ÙĦØ¬": 7515,
      "ĠØ§ÙĦØ¬Ø²ÙĬØ±Ø©": 7516,
      "ĠÙģØ±Ø¶": 7517,
      "nØ¹Ø±ÙĪØ¶": 7518,
      "ĠØªØªØ¶ÙħÙĨ": 7519,
      "287": 7520,
      "ĠØ·Ø¨ÙĬØ¹ÙĬØ©": 7521,
      "Ø¹ÙĬÙħ": 7522,
      "ØŃÙħØ©": 7523,
      "ĠØ£Ø³Ø¦ÙĦØ©": 7524,
      "ĠØ§ÙĦÙĩÙĨØ¯ÙĬ": 7525,
      "ĠÙĬØŃÙĬ": 7526,
      "nØ§ÙĦÙģÙĥ": 7527,
      "OT": 7528,
      "ĠØ¹Ø±Ø¨": 7529,
      "ØªÙħÙĥÙĨ": 7530,
      "109": 7531,
      "ÙĬÙģØ±": 7532,
      "ĠÙĦØµÙĨØ§Ø¹Ø©": 7533,
      "Ø¶Ø±Ø§Ø¡": 7534,
      "ĠÙħØŃØ§Ø¬Ø±": 7535,
      "ĠØ¨Ø£Ø³Ø¹Ø§Ø±": 7536,
      "ĠØ¨ÙĬØ±ÙĪØª": 7537,
      "Ġhe": 7538,
      "ÙĦØ³ÙģØ©": 7539,
      "ĠÙĪÙĨÙĤ": 7540,
      "ĠØ§ÙĦÙĤØ§Ø¦Ùħ": 7541,
      "âĢı:âĢı": 7542,
      "ĠØ§ÙĦØ¥Ø®": 7543,
      "ÙĥØªØ§Ø¨Ø©": 7544,
      "ĠÙĬÙĨØ¨ØºÙĬ": 7545,
      "Ġlik": 7546,
      "ĠØ§ÙĦØ¢ÙĦÙĬ": 7547,
      "ĠÙĦÙĦÙĨØ³Ø§Ø¡": 7548,
      "ĠØ§ÙĦÙĨÙģØ§ÙĬØ§Øª": 7549,
      "209": 7550,
      "ĠØ§ÙĦØ§Ø¬ØªÙħØ§Ø¹": 7551,
      "ĠØ£Ø±Ø¯": 7552,
      "ĠØ¹Ø«ÙħØ§ÙĨ": 7553,
      "99867": 7554,
      "ĠÙĦÙħØ±": 7555,
      "nÙħØ³ÙĦØ³ÙĦ": 7556,
      "ĠØ§ÙĦÙħØ¤ØªÙħØ±": 7557,
      "ĠØ¨ØºØ¯Ø§Ø¯": 7558,
      "119": 7559,
      "ĠØ³Ø±ÙĬØ¹Ø©": 7560,
      "ĠØ±ÙĤ": 7561,
      "ÙĪØ±ÙĬØ¯": 7562,
      "ĠØ¹ØµØ±": 7563,
      "Ø³ÙħØ¹": 7564,
      "ĠÙħØ¬ØªÙħØ¹": 7565,
      "ĠÙĤÙĬØ§Ø³": 7566,
      "ĠØ§ÙĦØ£ÙĪØ±Ø§ÙĤ": 7567,
      "ĠÙģÙħØ§": 7568,
      "ĠØ¨Ø§ÙĦØ·": 7569,
      "99896": 7570,
      "111": 7571,
      "ĠØ§ÙĦØ´Ø¹Ø¨ÙĬØ©": 7572,
      "237": 7573,
      "ĠØ§ÙĦÙĤÙħØ±": 7574,
      "ĠÙħÙĪØ«": 7575,
      "Ø·Ø±ØŃ": 7576,
      "ĠØ§ÙĦØ¥Ø¬Ø±Ø§Ø¡Ø§Øª": 7577,
      "ĠÙĪØ§ÙĦØ´Ø±": 7578,
      "ĠØ¯Ø§Ø¦Ø±Ø©": 7579,
      "ĠØ§ÙĦØªÙĤØ±ÙĬØ±": 7580,
      "ĠØ§ÙĦØŃÙħØ¯": 7581,
      "101": 7582,
      "ĠØ§ÙĦÙĥÙĬÙħÙĬØ§Ø¦ÙĬØ©": 7583,
      "ĠØªØŃÙĥÙħ": 7584,
      "ĠØ£Ø±Ø¨Ø¹Ø©": 7585,
      "073": 7586,
      "ĠØ§ÙĦÙħÙĥØ±": 7587,
      "nÙĬÙħÙĥÙĨÙĥ": 7588,
      "Ø±ÙĬØ©": 7589,
      "ÙĬØ§Ø·": 7590,
      "ÙħÙĩÙĪØ±": 7591,
      "ÙħØµØ±": 7592,
      "ĠØ§ØŃØªÙĬØ§Ø¬Ø§Øª": 7593,
      "ĠØ§ÙĦÙģØ¬": 7594,
      "ĠÙĨÙģØ³Ùĥ": 7595,
      "ĠØ§ÙĦÙħØ¬Ø§ÙĦØ§Øª": 7596,
      "Ø¹Ø±Ø¨ÙĬ": 7597,
      "\\\",": 7598,
      "ĠÙħØŃÙĦØ§Øª": 7599,
      "ÙĪØ§Ø¯Ø«": 7600,
      "ĠØ¬Ø¨ÙĦ": 7601,
      "ĠØ§ÙĦØµÙĦØ©": 7602,
      "Ø¹Ø±Ø¨": 7603,
      "ĠØ§ÙĦÙĩØ¯Ùģ": 7604,
      "ĠØ§ÙĦÙĥÙĦØ§Ùħ": 7605,
      "ĠØªÙħØ±": 7606,
      "9895": 7607,
      "Ø§ÙĥØ§Øª": 7608,
      "Ġ..\\": 7609,
      "ĠØ§ÙĦØ£Ø³Ø¦ÙĦØ©": 7610,
      "ĠØ¨Ø¬ÙħÙĬØ¹": 7611,
      "ory": 7612,
      "ĠØ§Ø¹ØªÙħØ§Ø¯": 7613,
      "ĠÃĹ": 7614,
      "ĠØ¨ØŃØ§Ø¬Ø©": 7615,
      "Ø«ÙħØ§Ø±Ø§Øª": 7616,
      "Ø´ÙĬÙģ": 7617,
      "ĠØªØ±Ø¬ÙħØ©": 7618,
      "ĠNo": 7619,
      "ĠÙħØ¤ØªÙħØ±": 7620,
      "ĠÙħØªØ·ÙĦØ¨Ø§Øª": 7621,
      "ÙĬØ§Ø¡": 7622,
      "iki": 7623,
      "ĠØ§ÙĦØ¶ÙĪØ¡": 7624,
      "ĠØªØ§Ø¬Ø±": 7625,
      "Ø§Ø®Ø±Ø©": 7626,
      "Ø´ØºÙĬÙĦ": 7627,
      "308": 7628,
      "Ø«ÙĨÙĬÙĨ": 7629,
      "tel": 7630,
      "ØºØ±Ø§Ø¶": 7631,
      "ĠØ§ÙĦØ®Ø§ÙħØ³Ø©": 7632,
      "ated": 7633,
      "Ø§Ø¬Ø³ØªÙĬØ±": 7634,
      "Ø¨Ø¯Ø¡": 7635,
      "ĠØ§ÙĦÙħØªØ§ØŃØ©": 7636,
      "ĠØ£ÙĨÙĩÙħ": 7637,
      "158": 7638,
      "ĠØ¥Ø³ÙĦØ§Ùħ": 7639,
      "871": 7640,
      "inter": 7641,
      "ĠØ§ÙĦØ¹Ø¶ÙĪ": 7642,
      "ĠØ§ÙĦÙħØŃÙĬØ·": 7643,
      "ĠØªÙĪÙĦÙĬØ¯": 7644,
      "ÙģØ±Ø¯": 7645,
      "ĠØ§ÙĦÙĥØ´Ùģ": 7646,
      "ther": 7647,
      "ØºÙĦØ§ÙĦ": 7648,
      "ĠØªØ®Øµ": 7649,
      "463": 7650,
      "ĠÙħÙĨÙĩØ¬": 7651,
      "su": 7652,
      "ĠØªØŃÙĤÙĤ": 7653,
      "________": 7654,
      "ĠÙĨØ§ØŃÙĬØ©": 7655,
      "Ø·Ø¨ÙĤ": 7656,
      "Ø¹ÙħÙĦÙĬØ§Øª": 7657,
      "ĠÙĪÙĥØ³Ø§Ø±Ø©": 7658,
      "ĠØªØ¨ÙĦØº": 7659,
      "ĠÙĦØªØ³": 7660,
      "Ø§Ø±Ùī": 7661,
      "ĠØ§ÙĦÙħÙĪØ³ÙĪØ¹Ø©": 7662,
      "alla": 7663,
      "ÙĤÙĦØª": 7664,
      "ÙĪÙĦØ§ÙĬØ§Øª": 7665,
      "99922": 7666,
      "ĠØ¯Ø±Ø¬Ø§Øª": 7667,
      "ĠØºØ§ÙĦ": 7668,
      "ÙĦÙģØ²ÙĬÙĪÙĨ": 7669,
      "ĠÙĪØ¬Ø¯": 7670,
      "nØªØ³ÙĪÙĤÙĬ": 7671,
      "Ø§ÙĥÙĬÙĨØ§Øª": 7672,
      "ĠÙĪØ§ÙĦÙħØ¤": 7673,
      "ĠÙħØŃØ§ÙĪÙĦØ©": 7674,
      "nØ¨ÙĪ": 7675,
      "881": 7676,
      "ØºØ§Ø±": 7677,
      "nØ§ÙĦØ®": 7678,
      "Ø²Ø²": 7679,
      "ĠØ§ÙĦÙħØ¨Ø§Ø±Ø§Ø©": 7680,
      "ĠØ£Ø¬ÙħÙĦ": 7681,
      "ica": 7682,
      "99764": 7683,
      "99900": 7684,
      "ĠØ£Ø¨Ø§Ø¯": 7685,
      "Ø³ÙĦØ³ÙĦØ©": 7686,
      "nØªÙģØ³ÙĬØ±": 7687,
      "ĠÙħØ±Ø§ØŃÙĦ": 7688,
      "ĠØ§ÙĦÙĩÙĪØ§ØªÙģ": 7689,
      "ĠØµØ§Ø±": 7690,
      "ĠØ§ÙĦÙģØ±Ø²": 7691,
      "ADE": 7692,
      "ĠØ§ÙĦØŃÙĤÙĬÙĤÙĬ": 7693,
      "ØµÙĦØ©": 7694,
      "ÙĦÙģÙ": 7695,
      "ÙĦÙģÙĦ": 7696,
      "ĠÙħÙĪØ³Ùī": 7697,
      "Ø§Ø¦ÙĬØ§": 7698,
      "ĠØªÙĪØ±": 7699,
      "ADB": 7700,
      "Ø£ÙĥÙĬØ¯": 7701,
      "ĠØ£ÙĨÙĨØ§": 7702,
      "063": 7703,
      "ĠØ§ÙĦÙħÙĤØ§ÙĦØ©": 7704,
      "ĠÙĩÙĪÙĦ": 7705,
      "logy": 7706,
      "ĠØ£ÙĬØ©": 7707,
      "nÙħØµÙĨØ¹ÙĬ": 7708,
      "IC": 7709,
      "ĠÙĪÙĥÙĬÙĦ": 7710,
      "839": 7711,
      "Ø·Ø§ÙĦØ¨": 7712,
      "Ø¨ÙĬØ¯Ø§Øª": 7713,
      "Ø¶Ø§Ø±": 7714,
      "nÙħØ´Ø§ÙĩØ¯Ø©": 7715,
      "ĠØ¬ÙĪØ²": 7716,
      "Ø¬ÙĨØ¨": 7717,
      "ĠØŃÙĦÙĤØ©": 7718,
      "084": 7719,
      "ÙģØ§ØµÙĬÙĦ": 7720,
      "Ø¨Ø±Ø": 7721,
      "Ø¨Ø±Ø§": 7722,
      "ĠØªØŃØ¶ÙĬØ±": 7723,
      "ĠØ§Ø¨Ø±": 7724,
      "ĠØ¨ÙĬÙĨÙĩØ§": 7725,
      "ĠØ§ÙĦØ£ÙĩÙĦÙĬ": 7726,
      "ĠØ§ÙĦØ¹Ø³ÙĥØ±ÙĬ": 7727,
      "ax": 7728,
      "ĠØ¯ÙĬÙĨØ§Ø±": 7729,
      "nØ§ÙĦØ´": 7730,
      "ĠØ³ÙĨØª": 7731,
      "Ø§ÙĦÙĬØ¯": 7732,
      "ĠØ§ÙĦØ¹ÙģØ´": 7733,
      "nØ®Ø¯ÙħØ§Øª": 7734,
      "Ø§Ø¯Ø±Ø§Øª": 7735,
      "ĠØ®Ø·ÙĪØ©": 7736,
      "949": 7737,
      "hare": 7738,
      "ĠØ£Ø¹Ø±Ø§Ø¶": 7739,
      "Ø±Ø³ÙĦ": 7740,
      "anghai": 7741,
      "ĠØ§Ø³ØªØ¹ÙħØ§ÙĦ": 7742,
      "ĠØ§ÙĦÙħÙĤØ¨ÙĦØ©": 7743,
      "ĠØ¥Ø®": 7744,
      "ÙĪÙĩØ§": 7745,
      "ĠÙĦÙĬÙĦØ©": 7746,
      "Ø¨Ø²": 7747,
      "ĠØ¬Ø§Ùĥ": 7748,
      "ĠÙģØ§Øª": 7749,
      "ĠØ§ÙĦÙħØ³ÙĦÙħ": 7750,
      "Ø§ØŃØµÙĦ": 7751,
      "px": 7752,
      "Ø§ÙĩØ¯Ø§Øª": 7753,
      "ĠØ§Ø·ÙģØ§ÙĦ": 7754,
      "ĠØ§ÙĦØ¹ÙĪØ¯Ø©": 7755,
      "99954": 7756,
      "ĠØ´Ø§Ø´Ø§Øª": 7757,
      "ĠØ¶Ø¨Ø·": 7758,
      "ĠÙĬÙĪÙħØ": 7759,
      "ĠÙĬÙĪÙħØ§": 7760,
      "ĠÙĬØ³ÙħØŃ": 7761,
      "'s": 7762,
      "ĠÙĪØ§ÙĦØ§ÙĤ": 7763,
      "nØ§ÙĦÙĩ": 7764,
      "ĠØ´Ø¹Ø§Ø±": 7765,
      "ĠØªØµÙĪÙĬØ±": 7766,
      "Ġwebsite": 7767,
      "99856": 7768,
      "ĠÙħØ·ÙĦÙĪØ¨": 7769,
      "ĠÙħÙĨØ®ÙģØ¶Ø©": 7770,
      "ĠØ¹Ø¬ÙħØ§ÙĨ": 7771,
      "ĠØ§ÙĦØ±Ø£Ø³ÙĬ": 7772,
      "232": 7773,
      "ÙģØ°": 7774,
      "ÙĨØ·ÙĨ": 7775,
      "ĠÙĤØ¶ÙĬØ©": 7776,
      "ÙĩØ±Ø©": 7777,
      "ĠØ§ÙĦØ·Ø±Ùģ": 7778,
      "Ø§ÙĨÙĬÙĬÙĨ": 7779,
      "Ø§Ø±Ø¶": 7780,
      "ĠØ§ÙĦØ£Ø³Ø¨Ø§Ø¨": 7781,
      "Ø§ÙĦØ¯Ø±Ø¯Ø´Ø©": 7782,
      "ĠØ§ÙĦØ¶Ø±": 7783,
      "ØªØ§Ø¡": 7784,
      "ĠÙħØ§ÙĦÙĥ": 7785,
      "outube": 7786,
      "ĠØ¨Ø±ÙĬØ¯Ùĥ": 7787,
      "nÙĥÙħ": 7788,
      "ual": 7789,
      "ĠØ¨ÙħØ³": 7790,
      "ÙĪÙĬÙĪØ±Ùĥ": 7791,
      "ĠØ§ÙĦØ£Ø±Ø¬": 7792,
      "ĠÙħØ´Ø±": 7793,
      "941": 7794,
      "ĠØ¨Ø¹ÙħÙĦ": 7795,
      "Ø®ÙĬÙĦ": 7796,
      "IL": 7797,
      "EDB": 7798,
      "Ø£ÙĬ": 7799,
      "HM": 7800,
      "ĠÙħØ³ØªØ®Ø¯Ùħ": 7801,
      "Ø¹ÙħØ§Ø±": 7802,
      "ĠØªØ®ØªÙĦÙģ": 7803,
      "ĠØ§ÙĦÙħØ®ØªØµ": 7804,
      "249": 7805,
      "Ø§ÙħÙĩ": 7806,
      "ĠØ§Ø¹ØªØ¨Ø§Ø±": 7807,
      "ĠØ§ÙĦØºØ±ÙģØ©": 7808,
      "ÙĪÙĬØ¶": 7809,
      "ØµØ§ÙĨ": 7810,
      "ational": 7811,
      "ĠØ§ÙĦØ´Ø±ÙĪØ·": 7812,
      "272": 7813,
      "Ġoff": 7814,
      "ĠÙĪØ§ÙĤØ¹": 7815,
      "ĠÙģÙĬØ³": 7816,
      "ĠØ§ÙĦÙħÙĬÙĦØ§Ø¯": 7817,
      "ĠÙģØ¶ÙĦØ§": 7818,
      "3164": 7819,
      "ĠØ±ÙĥÙĨ": 7820,
      "ÙĩØ§Ø¯Ø§Øª": 7821,
      "ĠØ§ÙĦØ£Ø«Ø§Ø«": 7822,
      "ĠØºØ§Ø²": 7823,
      "ĠÙĩÙĬÙĥÙĦ": 7824,
      "ĠÙħØ²Ø¯ÙĪØ¬Ø©": 7825,
      "der": 7826,
      "ĠÙĪØ§Ø³ØªØ®Ø¯Ø§Ùħ": 7827,
      "ĠØ§ÙĦØ¹ÙħÙĦØ©": 7828,
      "ÙħÙĥØ§ÙĨ": 7829,
      "ÙģÙĪØ±": 7830,
      "ĠØ§ÙĦØ³Ø§Ø®ÙĨØ©": 7831,
      "hone": 7832,
      "ĠØ¬ÙĬØ¯Ø": 7833,
      "ĠØ¬ÙĬØ¯Ø§": 7834,
      "TK": 7835,
      "ØªØ¨Ø·Ø©": 7836,
      "mber": 7837,
      "indows": 7838,
      "ĠÙĪØ§ÙĦØ³ÙĦ": 7839,
      "349": 7840,
      "Ġse": 7841,
      "ĠÙĦÙĦÙĥÙħØ¨ÙĬÙĪØªØ±": 7842,
      "ĠØ§ÙĦØµØŃØ±": 7843,
      "ÙħØ§ÙĬÙĪ": 7844,
      "ĠØ§ÙĦÙģÙĦØ³Ø¨Ø§Ø±": 7845,
      "ĠØ§ÙĦØ§Ø®Ø¨Ø§Ø±": 7846,
      "****": 7847,
      "Ġ[âĢ¦": 7848,
      "nØ§ÙĦÙ": 7849,
      "ĠØ£Ø±Ø¨Ø¹": 7850,
      "ĠØ§Ø¨ØªØ¯": 7851,
      "872": 7852,
      "ĠØ§ÙĦØªØŃØ±ÙĬØ±": 7853,
      "Ø·ÙĨØ©": 7854,
      "nØªØ³Ø¬ÙĬÙĦ": 7855,
      "nØ§ÙĦÙĦ": 7856,
      "ØµÙĦØŃØ©": 7857,
      "ĠÙĪÙĬÙĦ": 7858,
      "ĠØ§ÙĦØ³ÙĥÙĨ": 7859,
      "ĠÙĦØ³ÙĨØ©": 7860,
      "ĠØ§ÙĦÙģØ¹ÙĦ": 7861,
      "ĠØ§ÙĦÙĨØ¬Ø§ØŃ": 7862,
      "9948": 7863,
      "nØ£ØŃØ¯Ø«": 7864,
      "ĠØ§ÙĦØ£ØŃÙĬØ§ÙĨ": 7865,
      "post": 7866,
      "9896": 7867,
      "Ø¯ÙĬØ¯Ø§Ø³": 7868,
      "ĠØ§ÙĦØ´Ø±Ø¹ÙĬØ©": 7869,
      "ĠØ´Ø§Øª": 7870,
      "ĠPost": 7871,
      "ĠÙħÙħØ§Ø±Ø³Ø©": 7872,
      "ĠÙĬØ¯Ù": 7873,
      "ĠÙĬØ¯ÙĦ": 7874,
      "ØªÙĪÙĬØ§Øª": 7875,
      "ĠÙħØ±Ø§Ø¬Ø¹Ø©": 7876,
      "ĠÙĤØ§ÙĦØª": 7877,
      "ĠÙĬØ¹ÙĬØ´": 7878,
      "ĠØ§ÙĦØ¯ÙĤØ©": 7879,
      "ĠÙģÙħ": 7880,
      "dex": 7881,
      "{\\\"": 7882,
      "nØ§ÙĦØ¨Ø±ÙĬØ¯": 7883,
      "ĠÙħØ¸ÙĦØ§Øª": 7884,
      "ĠØ§ÙĦØ±Ø³ÙĪÙĦ": 7885,
      "Ø®Ø¨Ø§Ø±ÙĬØ©": 7886,
      "press": 7887,
      "ĠØ®ÙħØ³Ø©": 7888,
      "Ø¬Ø²Ø¡": 7889,
      "Ø«Ø¨Øª": 7890,
      "9876": 7891,
      "ĠØ§ÙĦØªÙĤÙĦÙĬØ¯ÙĬØ©": 7892,
      "Ø´Ø±Ø§Ùģ": 7893,
      "ÙĪÙģØ©": 7894,
      "Ġ)\\": 7895,
      "ĠØ§ÙĦØ¢ÙĬØ©": 7896,
      "ĠÙĬØ¹ØªÙħØ¯": 7897,
      "341": 7898,
      "ĠÙĨØ§Ø¬": 7899,
      "ĠØ§ÙĦØ´Ø¨ÙĥØ©": 7900,
      "ĠØ§ÙĦØ¨ÙĦØ¯Ø§ÙĨ": 7901,
      "259": 7902,
      "ĠØ§ÙĦÙħØ§Ø±ÙĥØ§Øª": 7903,
      "182": 7904,
      "quipment": 7905,
      "ĠØ§ÙĦØ±ØµØ§Øµ": 7906,
      "ĠØ¬Ø¯ÙĪÙĦ": 7907,
      "ØŃØ¶Ø±": 7908,
      "079": 7909,
      "Ø³Ø": 7910,
      "ĠØ§ÙĦÙĤÙħØŃ": 7911,
      "dit": 7912,
      "Ø³Ø§": 7913,
      "ÙĩÙĩ": 7914,
      "ĠØ§ÙĦØ£Øº": 7915,
      "ĠØ§ÙĦÙħØºØ±Ø¨ÙĬØ©": 7916,
      "Ø·ÙĨØ¨ÙĪÙĦ": 7917,
      "ĠØ§ÙĦØ¯Ø³Øª": 7918,
      "ĠØ§ÙĦÙĨØ²": 7919,
      "§ï»Ł": 7920,
      "ĠÙģÙĦÙħ": 7921,
      "ĠØ§ÙĦØ«ÙĪØ±Ø©": 7922,
      "nØ¢Ø®Ø±": 7923,
      "Ø±ÙĬØŃØ§Øª": 7924,
      "Ġ65": 7925,
      "ĠØ§ÙĦÙĥÙĪÙĥ": 7926,
      "Ø§ØªÙħ": 7927,
      "PN": 7928,
      "ĠØ§ÙĦØ£Ø±Ø²": 7929,
      "928": 7930,
      "br": 7931,
      "ĠØ¨Ø§ÙĦØº": 7932,
      "Ø§ï»Ł": 7933,
      "ĠØ§ÙĦØ®Ø·ÙĪØ§Øª": 7934,
      "::": 7935,
      "ĠØ¨ÙĪØµØ©": 7936,
      "ĠØ¬ÙĪÙĨ": 7937,
      "ĠØ§Ø¨ÙĪØ¸Ø¨ÙĬ": 7938,
      "ÙĪØ°": 7939,
      "ÙĪÙĬØ³Ø±": 7940,
      "Ø¬Ø±Ø§Ùħ": 7941,
      "ĠÙĬØ²": 7942,
      "Ø·ÙĦØ¹": 7943,
      "262": 7944,
      "9939": 7945,
      "ĠÙģÙĬØ³Ø¨ÙĪÙĥ": 7946,
      "ĠØ¨ÙĪØ§Ø¨Ø©": 7947,
      "Ø«ÙĨØ§Ø¡": 7948,
      "ĠÙĤÙĨ": 7949,
      "TS": 7950,
      "ĠØ¨Ø§ÙĦØ¯ÙħØ§Ùħ": 7951,
      "ĠØ°ÙĪÙĬ": 7952,
      "ĠØ§ÙĦØ¯ÙĬÙĨÙĬØ©": 7953,
      "ĠØ§ÙĦØºÙĬØ±": 7954,
      "GB": 7955,
      "ÙģÙĬÙģØ©": 7956,
      "ÙĲØĮ": 7957,
      "nØ§ÙĦØ°ÙĩØ¨": 7958,
      "ĠØ§ÙĦÙħØ³ÙĦØŃØ©": 7959,
      "Ø¹Ø±Ø§ÙĤ": 7960,
      "ĠØªØ®Ø²ÙĬÙĨ": 7961,
      "ĠØ§ÙĦØ§ØªØ¬Ø§Ùĩ": 7962,
      "ĠØ¨Ø¯Ø±": 7963,
      "ĠÙĬØ¹ÙĪØ¯": 7964,
      "ÙĤÙĪÙĦØ©": 7965,
      "Ø·ÙģÙ": 7966,
      "ĠØ§ÙĦÙħØ³Ø§Ø±": 7967,
      "Ø·ÙģÙĦ": 7968,
      "nØ§Ø®Ø¨Ø§Ø±": 7969,
      "Ø¯ÙĪÙĨ": 7970,
      "ĠØ¨ÙħØ¯ÙĬÙĨØ©": 7971,
      "))": 7972,
      "ĠØªØ²ÙĬØ¯": 7973,
      "ĠØ³ØªÙĥÙĪÙĨ": 7974,
      "Ġcan": 7975,
      "352": 7976,
      "554": 7977,
      "Ø¸ÙĬ": 7978,
      "ĠØ§ÙĦØ±ÙĬØ§Ø¶ÙĬØ§Øª": 7979,
      "PR": 7980,
      "nÙĥØªØ¨": 7981,
      "ÙĪØ§ÙĨÙĬØ©": 7982,
      "ĠØ§ÙĦÙħØ±Ø¶": 7983,
      "ĠØ£Ø´ÙĥØ§ÙĦ": 7984,
      "ĠØ§ÙĦØ§ÙĨØªØ®Ø§Ø¨Ø§Øª": 7985,
      "arket": 7986,
      "ĠÙħÙĪØ¯ÙĬÙĦ": 7987,
      "ĠÙħÙħÙĨ": 7988,
      "653": 7989,
      "ĠØ¨Ø§ÙĦÙĥÙĪÙĬØª": 7990,
      "ÙĬÙĪØ±": 7991,
      "9831": 7992,
      "ĠÙĬØ§Ø³": 7993,
      "ĠØ§ÙĦØµØ¨Ø§ØŃ": 7994,
      "ÙĥÙĪÙħØ©": 7995,
      "ĠØ§ÙĦØ³ÙĪØ¯Ø§Ø¡": 7996,
      "ĠØ§ÙĦØ¥Ø¹": 7997,
      "ĠØ§ÙĦÙħØ³ÙĦØ³ÙĦ": 7998,
      "Ø§Ø·Ùģ": 7999,
      "§ÛĮ": 8000,
      "Ġhas": 8001,
      "Ø§ÛĮ": 8002,
      "ĠÙħØªØŃØ±ÙĥØ©": 8003,
      "Ø£Ø³Ø³Øª": 8004,
      "ĠØªØ¯Ø®ÙĦ": 8005,
      "ØªØ±Ø¶": 8006,
      "9875": 8007,
      "ĠÙħÙĨØ§Ø³Ø¨": 8008,
      "ØµÙĨÙĬÙģØ§Øª": 8009,
      "ĠØ§ØªØ¬Ø§Ùĩ": 8010,
      "ert": 8011,
      "027": 8012,
      "ĠØ§ÙĦØ¥Ùģ": 8013,
      "ĠØ¥ÙĦÙĬÙĥ": 8014,
      "ĠØ§ÙĦÙĪØ²Ø§Ø±Ø©": 8015,
      "ĠØ¨ÙĪØª": 8016,
      "ĠØªÙĤØ±ÙĬØ¨Ø§": 8017,
      "091": 8018,
      "Ø¬Ø§Ø¹": 8019,
      "Ø²Ø§Ø¨": 8020,
      "ÙĬØªÙĩØ§": 8021,
      "ĠÙĦØ§Ø³ØªØ®Ø¯Ø§Ùħ": 8022,
      "ĠÙĩØ§ÙĬ": 8023,
      "ĠØ¨Ø§Ø³": 8024,
      "ĠØ«ÙħÙĨ": 8025,
      "Ø§ØŃÙģ": 8026,
      "148": 8027,
      "ÙĪÙĤØª": 8028,
      "ĠÙħØªÙĪØ³Ø·Ø©": 8029,
      "ĠØ¹ÙħÙĦØ©": 8030,
      "ĠØ§ÙĦØŃÙĦÙħ": 8031,
      "ĠØ§ÙĦØ§Ø³Ø¹Ø§Ø±": 8032,
      "ĠØ§ÙĦØ±Ø¨ÙĬØ¹": 8033,
      "nÙĪØ²": 8034,
      "ĠÙĬÙĪÙħÙĬ": 8035,
      "Ø§ÙĤÙģ": 8036,
      "99745": 8037,
      "ĠÙħØ±Ø³": 8038,
      "ÙĢÙĢÙĢÙĢÙĢÙĢÙĢÙĢÙĢÙĢÙĢÙĢÙĢÙĢÙĢÙĢ": 8039,
      "ĠĠ": 8040,
      "ĠÙĤÙĪÙĬ": 8041,
      "Ø³Ø¹": 8042,
      "Ø¥ÙĨØ¬ÙĦÙĬØ²ÙĬØ©": 8043,
      "Ø°ÙĬØ¨": 8044,
      "ĠØ³ÙĬÙģ": 8045,
      "ÙĪØ§ÙĦØ¨": 8046,
      "ØŃØ¯Ø§Øª": 8047,
      "ĠØ§ÙĦØ«Ø§ÙĨÙĪÙĬ": 8048,
      "Ø±Ø¨ÙħØ§": 8049,
      "ĠÙĦÙĬÙģ": 8050,
      "ĠØ§ÙĦØ®Ø´": 8051,
      "ĠØ§ÙĦØ¨Ø±Øª": 8052,
      "2011": 8053,
      "ĠÙĬØ²Ø§ÙĦ": 8054,
      "ĠØ§ÙĦØ£ÙħØ§ÙĥÙĨ": 8055,
      "ĠØ§ÙĦÙħÙĤØ§ÙĪÙħØ©": 8056,
      "ĠÙħØªØ®ØµØµØ©": 8057,
      "ĠØ³ÙĬØ§Ø³ÙĬØ©": 8058,
      "9971": 8059,
      "¸ı": 8060,
      "ĠØ§ØªØ®Ø§Ø°": 8061,
      "OV": 8062,
      "ĠÙĪØ§ÙĦØ²": 8063,
      "ada": 8064,
      "nØ«": 8065,
      "351": 8066,
      "Ġsc": 8067,
      "ĠÙĪØ§ÙĦØªÙĤ": 8068,
      "Ø§ÙĪØ³": 8069,
      "ĠØ§ÙĦØ¯ÙĬÙħÙĤØ±Ø§Ø·ÙĬØ©": 8070,
      "ĠØ§ÙĦØ¹Ø±Ø§ÙĤÙĬØ©": 8071,
      "Ø·Ø¨Ø¹": 8072,
      "Ø®ÙĬÙĨ": 8073,
      "ĠØ§ÙĦØªØºÙĬÙĬØ±": 8074,
      "ĠØ§ÙĦÙĨØ´Ø§Ø·": 8075,
      "nÙģÙĬØ³Ø¨ÙĪÙĥ": 8076,
      "ĠØ¬ÙĪÙĦ": 8077,
      "ĠØ´ÙĪ": 8078,
      "ĠØ£Ø³Øª": 8079,
      "372": 8080,
      "078": 8081,
      "ÙĥÙĬØ¯": 8082,
      "Ø±Ø§Ø¶": 8083,
      "ĠØ§ÙĦØ³Ø§Ø¨Ø¹": 8084,
      "ĠØ£Ø¨ÙĪØ¸Ø¨ÙĬ": 8085,
      "ĠØ§ÙĦØ±Ø³Ø§ÙĦØ©": 8086,
      "ĠØ§ÙĦØ³ÙĦØ¹": 8087,
      "ĠØ±Ø®Ø§Ùħ": 8088,
      "umb": 8089,
      "Ø¨Ùĥ": 8090,
      "473": 8091,
      "nØ£ÙħØ§": 8092,
      "Ø³Ø§ÙĦØ©": 8093,
      "view": 8094,
      "ĠØ§ÙĦØ®ÙĬØ§Ø±": 8095,
      "ĠÙħØªØ§ØŃØ©": 8096,
      "ĠØ§ÙĦØªØ±Ø¬ÙħØ©": 8097,
      "038": 8098,
      "ÙģØ²": 8099,
      "ĠØ§ÙĦØ¨ÙĪÙĦ": 8100,
      "ĠØ§Ø³ØªØ®Ø¯Ø§ÙħÙĩ": 8101,
      "ØªØµØ§Ø¯ÙĬ": 8102,
      "ĠÙĪØªØ·ÙĪÙĬØ±": 8103,
      "Ø´ÙĬØ¯": 8104,
      "ĠØ§ÙĦÙĤØ¨": 8105,
      "ĠØ§ÙĦØ¹ÙħÙĪØ¯ÙĬ": 8106,
      "ĠØªÙĨÙħÙĬØ©": 8107,
      "181": 8108,
      "Ġgrind": 8109,
      "âĢĶ": 8110,
      "DDB": 8111,
      "ĠØ§ÙĦØªØ·ÙĪØ±": 8112,
      "ĠØ¨ÙĬÙĥ": 8113,
      "Ġ2006": 8114,
      "ĠØŃÙħÙĦØ©": 8115,
      "ÙħØ¤Ø³Ø³Ø©": 8116,
      "ĠØ§ÙĦÙħÙĦÙĥÙĬØ©": 8117,
      "ĠØ§ÙĦØ·Ø§ÙĦØ¨": 8118,
      "ĠÙħÙĤØ§ÙĦ": 8119,
      "ĠØ¹ÙĦØ§ÙħØ§Øª": 8120,
      "ĠØ§ÙĦØ§ÙĤØªØ¨Ø§Ø³": 8121,
      "Ø®ÙĦØ§ÙĤ": 8122,
      "ÙĨØ¯Ø³ÙĬÙĨ": 8123,
      "ĠØ§ÙĦØ¬ÙĪÙĦØ©": 8124,
      "ĠØ¶Ø±ÙĪØ±Ø©": 8125,
      "Ø¶Ø±ÙĪØ±Ø©": 8126,
      "Ø¶Ø§Ø¹": 8127,
      "ĠØ§ÙĦÙĬÙĪÙĨ": 8128,
      "9887": 8129,
      "453": 8130,
      "ĠÙħØ³Ø§Ø¹Ø¯Ø©": 8131,
      "ĠØ§ÙĦÙĥØ±Ø¨ÙĪÙĨ": 8132,
      "nØ§ÙĦØ´Ø±ÙĥØ©": 8133,
      "ĠØ§ÙĦÙħØŃÙĥÙħØ©": 8134,
      "ĠÙĦÙĦÙħØ³Øª": 8135,
      "ĠØºØ²Ø©": 8136,
      "ĠØ§ÙĦØªÙĦÙĤØ§Ø¦ÙĬ": 8137,
      "ĠÙĤÙĬØ§Ø¯Ø©": 8138,
      "ĠÙħÙģÙĩÙĪÙħ": 8139,
      "Ø§ØºØ©": 8140,
      "ĠØ§ÙĦØ±Ø£ÙĬ": 8141,
      "ĠØ¨ÙħÙĪ": 8142,
      "etails": 8143,
      "ĠÙĬÙĪÙĨ": 8144,
      "Ø¹Ø±ÙĥØ©": 8145,
      "ĠØ¥Ø¹ÙĦØ§Ùħ": 8146,
      "ĠØ§ÙĦØ¨ÙĨØª": 8147,
      "ÙĪÙĦØ§Ø¯": 8148,
      "016": 8149,
      "Ø§ÙĤØ´Ø©": 8150,
      "ĠØŃØ¨ÙĪØ¨": 8151,
      "Ø®Ø·Ø§Ø¡": 8152,
      "ĠØ§ÙĦÙĩØ§": 8153,
      "Ø³Ø§ØªÙĬÙĨ": 8154,
      "coin": 8155,
      "§Ø¯ÙĬØ¯Ø§Ø³": 8156,
      "Ø§Ø¯ÙĬØ¯Ø§Ø³": 8157,
      "ĠØ§ÙĦØªØŃÙħÙĬÙĦ": 8158,
      "med": 8159,
      "ĠØ¢Ø«Ø§Ø±": 8160,
      "ĠØ§ÙĦØ£ÙĥØ¨Ø±": 8161,
      "obile": 8162,
      "ĠÙĪØ§Ùĥ": 8163,
      "ĠØ¥ÙĦÙĥØªØ±ÙĪÙĨÙĬ": 8164,
      "229": 8165,
      "nØªÙĤ": 8166,
      "Ø³Ø§ÙĦ": 8167,
      "9866": 8168,
      "ĠÙĬØªÙĨ": 8169,
      "ÙĤÙĦØ©": 8170,
      "ĠØ§ÙĦØ§ÙĦÙĥØªØ±ÙĪÙĨÙĬØ©": 8171,
      "ĠÙĦÙĦØ¥ÙĬØ¬Ø§Ø±": 8172,
      "ĠÙħÙĩÙħØ§": 8173,
      "ØªØ±Ø§ØªÙĬØ¬ÙĬØ§Øª": 8174,
      "ĠØ¹ÙħÙĦØ§Ø¡": 8175,
      "ĠØªØ±ÙĬ": 8176,
      "ĠØ±Ø¨ÙĬØ¹": 8177,
      "Ø±Ø¨ØŃ": 8178,
      "ĠÙĪØ§ÙĦÙħØ¹Ø¯Ø§Øª": 8179,
      "ĠÙģØ§Ø¦ÙĤØ©": 8180,
      "ĠØ¨Ø§ÙĦØ´Ø±ÙĥØ©": 8181,
      "ĠØ±ØŃÙĦØ©": 8182,
      "ĠØ§ÙĦØ¥Ø³Ø¨": 8183,
      "ĠØ²Ø±Ø§Ø¹Ø©": 8184,
      "ĠØ´ÙĬØ®": 8185,
      "99857": 8186,
      "8302": 8187,
      "ĠØŃÙħØ¯": 8188,
      "Ø´Ùĥ": 8189,
      "Ø±ÙĪØ§Øª": 8190,
      "ĠÙħØ¬Ø§ÙĦØ§Øª": 8191,
      "yright": 8192,
      "||": 8193,
      "tr": 8194,
      "ĠØ§ÙĦØªÙĤØ¯Ùħ": 8195,
      "ĠÙĪØ§ÙĦØ¢": 8196,
      "920": 8197,
      "Ø£ÙħÙĬÙĨ": 8198,
      "Ø¹ÙĪØ¨Ø©": 8199,
      "ĠØ§ÙĦØªÙģÙĥÙĬØ±": 8200,
      "ĠØ§ÙĦØ¬ÙĬÙĦ": 8201,
      "ĠØ§ÙĦÙģÙĪØ±": 8202,
      "ĠAndroid": 8203,
      "ĠØªÙĪÙĤÙģ": 8204,
      "Ø´Ø·": 8205,
      "nØ§ÙĦØµÙģØŃØ©": 8206,
      "Ø±Ø³Ø§ÙĦØ©": 8207,
      "ĠØ§ÙĦÙĨØ§Ø´": 8208,
      "Ø§ØµÙĦØ§ØŃ": 8209,
      "ĠØ§ÙĦØ²Ø±Ø§Ø¹ÙĬØ©": 8210,
      "ĠØªÙĤÙĪÙĦ": 8211,
      "ĠØ£ÙģØ±Ø§Ø¯": 8212,
      "ĠÙĦÙħØ¹Ø±ÙģØ©": 8213,
      "ĠÙĦÙĦØ§ÙĬØ¬Ø§Ø±": 8214,
      "99797": 8215,
      "udi": 8216,
      "ØµØ§ÙĨØ¹": 8217,
      "292": 8218,
      "ĠØ«Ø§Ø¨ØªØ©": 8219,
      "ĠØ§ÙĦØªØ¹Ø±Ùģ": 8220,
      "ĠØ§ÙĦÙħÙĬÙĥØ§ÙĨÙĬ": 8221,
      "ĠÙĪØ§Ø¶ØŃ": 8222,
      "ĠØŃÙĬØ§ØªÙĩ": 8223,
      "ĠØ³Ø¨ÙĤ": 8224,
      "ÙĥÙĪØ±Ø©": 8225,
      "ĠØ¨ØªÙĤØ¯ÙĬÙħ": 8226,
      "ØµØ¯ÙĤØ§Ø¡": 8227,
      "ĠØ§ØªØµØ§ÙĦ": 8228,
      "ĠÙĪØ±Ø´Ø©": 8229,
      "ĠØ¨Ø£ÙĨÙĩØ§": 8230,
      "432": 8231,
      "ÙĬØ¯Ø©": 8232,
      "nØ§ÙĦÙħØŃ": 8233,
      "ĠØ§ÙĦÙĪØŃÙĬØ¯": 8234,
      "ĠÙĪÙĦØ°ÙĦÙĥ": 8235,
      "ĠÙĦØŃÙħ": 8236,
      "IV": 8237,
      "ĠØ¨Ø¹ÙĨÙĪØ§ÙĨ": 8238,
      "ĠÙĪØ¹ÙĦ": 8239,
      "nÙħØ±ÙĥØ²": 8240,
      "nØ´Ø±Ø§Ø¡": 8241,
      "ĠØ¹ÙĨØ": 8242,
      "ĠØ¹ÙĨØ§": 8243,
      "UN": 8244,
      ".,": 8245,
      "ĠØ§ÙĨØ´Ø§Ø¡": 8246,
      "ĠÙĩÙĬØ¯Ø±ÙĪÙĦÙĬÙĥÙĬØ©": 8247,
      "nØ§Ø¹": 8248,
      "ĠÙĨØ¬Ø¯": 8249,
      "ÙĪÙħÙĬÙĨ": 8250,
      "Ø±Ùĩ": 8251,
      "ØªØ²Ùħ": 8252,
      "ĠØ¹ÙĤÙĪØ¯": 8253,
      "ĠÙĨÙĩØ§Ø¦ÙĬ": 8254,
      "ĠØ§ÙĦØ£Ø¯Ø¨": 8255,
      "ĠØ®ØµØ§Ø¦Øµ": 8256,
      "ÙĬÙģØ": 8257,
      "ÙĬÙģØ§": 8258,
      "nÙħØ³Øª": 8259,
      "ĠØ§ÙĨØ³Øª": 8260,
      "Ø´ÙĩØ¯": 8261,
      "Ø¬ØŃ": 8262,
      "Ø§Ø¦ÙĩÙħ": 8263,
      "Ø§ÙģØ¸Ø§Øª": 8264,
      "ĠØ§ÙĦÙĨØ³Ø®Ø©": 8265,
      "ĠÙĨÙĪ": 8266,
      "251": 8267,
      "ĠØªØ¤Ø«Ø±": 8268,
      "ĠØ§ÙĦØ¥Ø±ÙĩØ§Ø¨": 8269,
      "ĠØ¨ÙĪØ±Ø¯": 8270,
      "ÙĪØ£": 8271,
      "ĠØ§ÙĦØ¥Ø¹ÙĦØ§ÙĨØ§Øª": 8272,
      "ĠØ§ÙĦØ¬Ø§Ø±ÙĬ": 8273,
      "ĠØ§ÙĦØªØ®Ø·ÙĬØ·": 8274,
      "ĠApp": 8275,
      "ĠØ§ÙĦÙħØ®Ø§Ø·Ø±": 8276,
      "ĠØ«Ø§ÙĨÙĪÙĬ": 8277,
      "Ġnew": 8278,
      "9950": 8279,
      "99865": 8280,
      "ĠØ§ÙĦØ¹ÙĤØ¯": 8281,
      "ĠØ§ÙĦØªØ±ÙĥÙĬØ²": 8282,
      "ĠØ§ÙĦØ«ÙĤØ§ÙģÙĬ": 8283,
      "ĠÙħØ´Ø§Ø±ÙĥØ§Øª": 8284,
      "Ø§Ø±Ùĥ": 8285,
      "ĠØŃÙģÙĦ": 8286,
      "ĠØ¨ÙĦØ§Ø¯": 8287,
      "ĠØ§ÙĦØ±Ùĥ": 8288,
      "ĠØ§ÙĦØ³ÙĬØ§Ø³Ø©": 8289,
      "ØŃØ¯Ø¯": 8290,
      "ĠØ¨Ø§Ø±ÙĬØ³": 8291,
      "ĠÙħØªÙĥ": 8292,
      "862": 8293,
      "ĠØ§ÙĦÙĬÙħ": 8294,
      "334": 8295,
      "lop": 8296,
      "ĠØªØ±ÙĥÙĬØ²": 8297,
      "ĠØªØªÙĨ": 8298,
      "192": 8299,
      "Ġ48": 8300,
      "Ø¨ØŃÙĪØ«": 8301,
      "841": 8302,
      "ĠØ§ÙĦØ¬ÙħÙĦØ©": 8303,
      "ĠØ¨ÙĤÙĬÙħØ©": 8304,
      "ØªÙĩØ§Ø¡": 8305,
      "ĠØ§ÙĦØ¨ÙĬØªÙĥÙĪÙĬÙĨ": 8306,
      "ĠØ§ÙĦØ«ÙĤØ§ÙģÙĬØ©": 8307,
      "name": 8308,
      "Ø¨Ø±ÙĬÙĦ": 8309,
      "ĠØŃØ¯ÙĬØ«Ø©": 8310,
      "ÙĪØ³ÙģØ§Øª": 8311,
      "ĠØ§Ø³ØªØ«ÙħØ§Ø±": 8312,
      "eed": 8313,
      "ĠØ§ÙĦÙħØ´ØªØ±Ùĥ": 8314,
      "ĠØ§ÙĦØªÙĨÙģÙĬØ°ÙĬ": 8315,
      "ĠÙĨÙĩØ±": 8316,
      "Ø´Ø¹": 8317,
      "ĠØ§ÙĦØ³ÙĬØ§ØŃÙĬØ©": 8318,
      "ĠØ§Ø³ØªÙĩÙĦØ§Ùĥ": 8319,
      "Ġ<": 8320,
      "ĠØ¥Ø³Ùħ": 8321,
      "ĠØ³ÙĬØ±Ø§ÙħÙĬÙĥ": 8322,
      "ÙĤØ¯Ø±Ø©": 8323,
      "nin": 8324,
      "ĠØ§ÙĩØªÙħØ§Ùħ": 8325,
      "ĠØ¯Ø±ÙĪØ³": 8326,
      "ĠØ·Ø¨ÙĬØ¨": 8327,
      "ĠÙĪØ§ÙĦÙħÙĤ": 8328,
      "ĠØ§Ø³ÙħØ§Ø¡": 8329,
      "ĠØ¥ÙħØ§": 8330,
      "ĠØ§ÙĦØ§ØŃØªØ±": 8331,
      "Ø¹Ø²ÙĬØ²": 8332,
      "ĠØ·Ø§ÙĤØ©": 8333,
      "ĠØ§ÙĦØ±ÙĥØ§Ùħ": 8334,
      "Ġour": 8335,
      "ĠØªÙħØª": 8336,
      "Ø·Ø§ØŃÙĪÙĨØ©": 8337,
      "ĠØ§ÙĦØ£ÙħØ©": 8338,
      "ÙĬØ³Ø§ÙĨ": 8339,
      "ĠØ§Ø³Ø·ÙĨØ¨ÙĪÙĦ": 8340,
      "ĠØ¬Ø±Ø§Ùħ": 8341,
      "ĠØ§ÙĦØ¬Ø§ÙģØ©": 8342,
      "99846": 8343,
      "ĠØ§ÙĦØ«ÙĤÙĬÙĦÙĩ": 8344,
      "ĠØ§ÙĦØ°Ø§ØªÙĬØ©": 8345,
      "ĠÙĨÙħØ§Ø°Ø¬": 8346,
      "ĠÙħÙĤØ§ÙĪÙħØ©": 8347,
      "ĠØ¹ÙĩØ¯": 8348,
      "ØºÙĪÙĦØ§": 8349,
      "ĠÙħÙĪÙĨØ¯ÙĬØ§ÙĦ": 8350,
      "ĠÙĪÙĬØ³Øª": 8351,
      "ĠÙĥÙĦÙĩØ§": 8352,
      "ÙĪØ³ÙĬ": 8353,
      "Ø´Ø§Ùģ": 8354,
      "ĠØ§ÙĦØ«Ø§Ø¨Øª": 8355,
      "ĠØ§ÙĦØ¬Ø¯ÙĪÙĦ": 8356,
      "ĠÙĪØ²ÙĨ": 8357,
      "§ï»": 8358,
      "ĠÙģÙĦÙ": 8359,
      "ĠØ±ÙĪØ¨": 8360,
      "ĠÙģÙĦÙĦ": 8361,
      "ĠØ§ÙĦØ±ÙĤÙħÙĬ": 8362,
      "mall": 8363,
      "Ø§ÙĤØ¨": 8364,
      "ĠÙĥØ§Ø¨": 8365,
      "ĠØ§ÙĦÙĨÙħÙĪØ°Ø¬": 8366,
      "ĠØªØ£Ø³ÙĬØ³": 8367,
      "ĠØ¨Ø£Ø³": 8368,
      "par": 8369,
      "ĠØ§ÙĦØ¨ÙĨÙĪÙĥ": 8370,
      "nÙĬØªÙħ": 8371,
      "ĠÙĦÙĪØŃØ§Øª": 8372,
      "ĠØ§ÙĦØªØ±Ø¨": 8373,
      "ĠØ³ÙĦØ§ÙħØ©": 8374,
      "ĠØ¯Ø¨": 8375,
      "ĠSc": 8376,
      "ĠØ§ÙĦØ¥Ø¬ØªÙħ": 8377,
      "ĠØ³Ø§ÙĦÙħ": 8378,
      "ĠÙħÙĥÙĪÙĨ": 8379,
      "ÙĦÙĬÙħÙĬ": 8380,
      "ĠØ¹Ø§Ø¦": 8381,
      "ren": 8382,
      "Ø§Ø±ÙĥØ§Øª": 8383,
      "ĠØ¶ÙĪØ¡": 8384,
      "ĠÙĬÙħÙĥÙĨÙĨØ§": 8385,
      "ĠØ§ÙĦØŃØ¨ÙĬØ¨": 8386,
      "ĠÙĪØ£Ùħ": 8387,
      "iew": 8388,
      "9877": 8389,
      "Ø§ÙĩØ¨": 8390,
      "ĠÙħÙģØ±": 8391,
      "Ø±ÙĬØº": 8392,
      "ØŃØ¯Ø§Ø«": 8393,
      "882": 8394,
      "TC": 8395,
      "842": 8396,
      "nØ±Ø¦ÙĬØ³": 8397,
      "Ø§ÙħØ¨": 8398,
      "PM": 8399,
      "ĠÙħÙĥÙĪÙĨØ§Øª": 8400,
      "ĠÙĥØ¬Ùħ": 8401,
      "ĠØ¨Ø¬ÙĪØ¯Ø©": 8402,
      "210": 8403,
      "nÙĨÙĤ": 8404,
      "ĠØ§ÙĦØ¨Ø±ÙĬØ·Ø§ÙĨÙĬØ©": 8405,
      "ĠÙģØ¦Ø©": 8406,
      "ÙĥÙħÙĦ": 8407,
      "ĠÙĬÙħØ«ÙĦ": 8408,
      "ĠÙĨØ³Ø®": 8409,
      "ÙĤÙĬØ¨Ø©": 8410,
      "Â».\\": 8411,
      "261": 8412,
      "300": 8413,
      "Ġ-\\": 8414,
      "ĠÙĦÙħØ·ØŃÙĨØ©": 8415,
      "ØªÙĬØ§Øª": 8416,
      "ĠÙħØªÙĨÙĤÙĦ": 8417,
      "ĠØªØŃØ±ÙĬØ±": 8418,
      "ures": 8419,
      "ating": 8420,
      "nV": 8421,
      "169": 8422,
      "Ġcrushing": 8423,
      "ĠÙĦØ´Ø¦ÙĪÙĨ": 8424,
      "ĠØ§ÙĦØ§Ø³ØªÙģØ§Ø¯Ø©": 8425,
      "ĠØ§ÙĦØ§ÙĨØ³Ø§ÙĨ": 8426,
      "ĠÙħØ·Ø¹Ùħ": 8427,
      "ĠØ§Ø³Ø¨": 8428,
      "ĠÙħØªØ±Ø¬ÙħØ©": 8429,
      "ØºØ§Ùģ": 8430,
      "Ø§Ø¬ÙĩØ§Øª": 8431,
      "99785": 8432,
      "ĠØ§ÙħØ±Ø£Ø©": 8433,
      "pg": 8434,
      "nØ±ÙĤÙħ": 8435,
      "ĠØ§ÙĦØªØ§Ø±ÙĬØ®ÙĬØ©": 8436,
      "ĠØ¯Ø±Ø§Ø³Ø§Øª": 8437,
      "ĠØ¯Ø±ÙĩÙħ": 8438,
      "ĠØªØ¯Ø±ÙĬØ¨": 8439,
      "ĠÙĦØ®": 8440,
      "ĠIm": 8441,
      "nÙĩÙĨØ§Ùĥ": 8442,
      "ÙĨÙĬØ³Ø©": 8443,
      "ĠØ¨ÙĬÙĨÙĩÙħ": 8444,
      "ĠØ§ÙĦØ²ÙĬØªÙĪÙĨ": 8445,
      "ĠÙĪØ§ÙĦÙħÙĦ": 8446,
      "ĠÙĦÙĦØ·Ø§ÙĤØ©": 8447,
      "ĠÙħØŃÙĦÙĬØ©": 8448,
      "ĠØ§ÙĦØ¬ÙĩØ§Øª": 8449,
      "131": 8450,
      "ĠØ§ÙĦØ°ÙĥØ±": 8451,
      "ĠÙĪØ§ÙĦØŃØµÙī": 8452,
      "ĠÙĨÙĤØµ": 8453,
      "052": 8454,
      "ĠÙģÙĤ": 8455,
      "ĠÙĨÙĨ": 8456,
      "HD": 8457,
      "ĠØªÙħØ«ÙĦ": 8458,
      "ĠÙħØ·Ø§Ø±": 8459,
      "ĠØªÙħØªÙĦÙĥ": 8460,
      "ĠØ§ÙĦØ§Ø¹ÙĦØ§Ùħ": 8461,
      "fact": 8462,
      "ÙĤÙĦØ§ÙĦ": 8463,
      "ĠØªØ¬ÙħØ¹": 8464,
      "ĠØ§ÙĦØ¨ÙĪ": 8465,
      "ØºÙĦÙĬÙģ": 8466,
      "ĠØ¨Ø§Ø®": 8467,
      "ĠØ§ÙĦÙħÙĪØ¬ÙĪØ¯": 8468,
      "8306": 8469,
      "ĠØªØ«Ø¨ÙĬØª": 8470,
      "ĠÙĪØºØ±Ø¨ÙĦØ©": 8471,
      "Ġam": 8472,
      "ĠØŃÙģØ±": 8473,
      "ĠTwitter": 8474,
      "ÙĪÙĪ": 8475,
      "ĠØºØ³Ø§ÙĦØ§Øª": 8476,
      "ÙĪÙĨØ¯ÙĬØ§ÙĦ": 8477,
      "nÙĪÙĨ": 8478,
      "443": 8479,
      "ĠÙĪÙĦÙĩ": 8480,
      "ĠØ§ÙĦÙĨÙĪØ§Ø¨": 8481,
      "Ø®ÙĦÙĤ": 8482,
      "ÙģÙī": 8483,
      "IR": 8484,
      "ĠØ§ÙĦØ£ÙĪÙĥØ±": 8485,
      "ĠØ§ÙĦÙħØ¤ÙĦÙģ": 8486,
      "ĠØ§ÙĦÙĤÙĪÙī": 8487,
      "ĠØ¨Ø¹Ø¶ÙĩØ§": 8488,
      "ĠØ§ÙĦØŃÙħØ§ÙĬØ©": 8489,
      "ĠØ²ÙĪØ§Ø¬": 8490,
      "Ø¨Ø¹Ø¯": 8491,
      "ĠØ£Ø¹ÙĦÙĨ": 8492,
      "ool": 8493,
      "XX": 8494,
      "ĠØ§ÙĦØªØ¬ÙħÙĬÙĦ": 8495,
      "ĠÙĥØ§Ø±ÙĬ": 8496,
      "ĠØºÙĬØ±ÙĩØ§": 8497,
      "Ø£ÙĪ": 8498,
      "ĠØ§ÙĦÙħÙĥÙĪÙĨØ§Øª": 8499,
      "ĠÙħÙĪØ¬ÙĪØ¯": 8500,
      "ĠØ§ÙĦØ¬ÙħÙĬÙĦØ©": 8501,
      "ĠØ§ÙĦØªØ£ÙħÙĬÙĨ": 8502,
      "ÙģØ§Ø±Ø©": 8503,
      "032": 8504,
      "ĠÙħØ«ÙĦØ§": 8505,
      "569": 8506,
      "ĠØ§ÙģØªØªØ§ØŃ": 8507,
      "Ú©ÙĨ": 8508,
      "PC": 8509,
      "IG": 8510,
      "Ðº": 8511,
      "ĠØ§ÙĦÙĪÙĦØ§Ø¯Ø©": 8512,
      "ĠÙĨØµØ§Ø¦ØŃ": 8513,
      "SD": 8514,
      "ĠÙħØ¯Ø§Ø±Ø³": 8515,
      "ÙĬØ¬Ø": 8516,
      "ÙĬØ¬Ø§": 8517,
      "ÙĩÙĪ": 8518,
      "ĠØ·ÙģÙĦ": 8519,
      "ĠÙĪØ¨Ø¹Ø¶": 8520,
      "ĠÙĥØ¨Ø§Ø±": 8521,
      "Ð»": 8522,
      "ĠØ§ÙĦØ£ØŃØ¯Ø§Ø«": 8523,
      "Ø´Ø¹Ø±": 8524,
      "xy": 8525,
      "ĠÙĪØ§ÙĦÙħØª": 8526,
      "ĠÙĬØ³ÙħÙī": 8527,
      "nØ§Ø³Ø¹Ø§Ø±": 8528,
      "ĠØ§ÙĦØ¹Ø§ÙħÙĦØ©": 8529,
      "nØ¹Ø¯Ø¯": 8530,
      "VK": 8531,
      "ĠØªØ§ÙĬÙĦ": 8532,
      "ĠÙĦØ¹ÙĦØ§Ø¬": 8533,
      "nØ§ÙĨÙĤØ±": 8534,
      "ĠØ·Ø§ÙĦ": 8535,
      "Ġ900": 8536,
      "ĠÙģØ¹Ø§ÙĦÙĬØ§Øª": 8537,
      "ĠØ§ÙĦØ·Ø¨ÙĬØ¹Ø©": 8538,
      "opyright": 8539,
      "LL": 8540,
      "Ø§ÙĬÙģÙĪÙĨ": 8541,
      "set": 8542,
      "ĠMar": 8543,
      "Ø¬ÙħØ§Øª": 8544,
      "formation": 8545,
      "').": 8546,
      "ĠØªÙħÙĥÙĨ": 8547,
      "ĠÙħØ¬Ø§ÙĦØ³": 8548,
      "ĠØ£ÙħØ§ÙĥÙĨ": 8549,
      "ĠØ§ÙĦØ£Ø±Ø§Ø¶ÙĬ": 8550,
      "ĠÙĨØ³Ø¨": 8551,
      "Ø§ØŃØ¸Ø©": 8552,
      "BM": 8553,
      "ĠØ§ÙĦÙĥØ§ÙĪÙĦÙĬÙĨ": 8554,
      "ĠÙĦÙĥÙĨÙĩ": 8555,
      "ĠØ·ÙĦØ¨Ø§Øª": 8556,
      "ĠÙĦØªÙĤØ¯ÙĬÙħ": 8557,
      "ĠØ§ÙĦÙģÙĬÙĦÙħ": 8558,
      "191": 8559,
      "Ø±ÙĬÙĤÙĬØ©": 8560,
      "ĠØ£Ø³ÙĩÙħ": 8561,
      "99874": 8562,
      "Ġall": 8563,
      "ts": 8564,
      "ĠÙħØ³ØªØ´ÙģÙī": 8565,
      "ĠØªØ¬Ø§Ø±ÙĬ": 8566,
      "ĠÙħØªØ§Ø¨Ø¹": 8567,
      "Ġcont": 8568,
      "ĠØ§ÙĦÙħØ³ØªÙħØ±": 8569,
      "851": 8570,
      "au": 8571,
      "nÙĪØ³": 8572,
      "ĠØ§ÙĦÙħØ±ÙĥØ²ÙĬØ©": 8573,
      "ĠØªÙĥØ§ÙĦÙĬÙģ": 8574,
      "nÙĨØŃÙĨ": 8575,
      "/\"},\"": 8576,
      "ĠØ§ÙĦÙĨÙħÙĪ": 8577,
      "nÙħØµØ§ÙĨØ¹": 8578,
      "ij": 8579,
      "ĠØ§ÙĦØ£Ø¯ÙĨÙī": 8580,
      "ĠØ£Ø²ÙħØ©": 8581,
      "Ø§ØŃÙĨØ§Øª": 8582,
      "ĠÙĤØ§Ø¨ÙĦØ©": 8583,
      "nÙĬÙĤÙĪÙĦ": 8584,
      "ĠØ§ÙĦÙĨÙĩØ±": 8585,
      "Ø´ÙģØ±Ø©": 8586,
      "nÙħØ´Ø±ÙĪØ¹": 8587,
      "ĠÙĪØ¬ÙĦ": 8588,
      "99898": 8589,
      "ĠÙĤØ§Ø¨ÙĦ": 8590,
      "ĠAn": 8591,
      "ĠØ§Ø´ØªØ±": 8592,
      "Ã§": 8593,
      "ĠØ§ÙĦØ§Ø³Ø¨": 8594,
      "ÙħØ«ÙĦ": 8595,
      "ĠÙĬØ¯Ø®ÙĦ": 8596,
      "ĠØ§ÙĦØ§Ø·ÙģØ§ÙĦ": 8597,
      "ĠØªØ¹ÙĦÙĨ": 8598,
      "309": 8599,
      "ĠÙĪØ¥ÙĨÙħØ§": 8600,
      "ĠÙħÙĦØ§ÙĬÙĬÙĨ": 8601,
      "ĠØ§ÙĦÙħØªØŃØ±ÙĥØ©": 8602,
      "ÙĪÙħØ§ØªÙĬÙĥ": 8603,
      "ĠØ£ÙħØ¨ÙĬØ±": 8604,
      "ĠÙĤÙĨÙĪØ§Øª": 8605,
      "nU": 8606,
      "141": 8607,
      "ĠÙĪØ§ÙĦØªØ·ÙĪÙĬØ±": 8608,
      "ĠÙĪÙĦÙ": 8609,
      "ĠØ§ÙĦØ¬Ø§Ùĩ": 8610,
      "ĠÙĪÙĦÙĦ": 8611,
      "ĠÙĨÙĬÙĪÙĬÙĪØ±Ùĥ": 8612,
      "ØºØ·ÙĬ": 8613,
      "Ø§Ø¶Ø±": 8614,
      "ĠØ¥Ø¶Ø§ÙģÙĬØ©": 8615,
      "ĠØ£Ø³ÙĪØ§ÙĤ": 8616,
      "ĠÙĦÙĦØªØ±": 8617,
      "291": 8618,
      "pec": 8619,
      "3124": 8620,
      "Ø³Ø¨ÙĤ": 8621,
      "2603": 8622,
      "ÙģÙĬØ¶Ø§Øª": 8623,
      "ĠØ¯Ùģ": 8624,
      "ÙĤÙĬØ¯Ø©": 8625,
      "ĠØ´Ø§Ø±Ùĥ": 8626,
      "ĠØ§ÙĦØ¹ÙĤÙĪØ¯": 8627,
      "ĠØ§ï»Ł": 8628,
      "FW": 8629,
      "ĠÙħÙĪØ³ÙĪØ¹Ø©": 8630,
      "152": 8631,
      "ĠÙħØ²Ø§ÙĬØ§": 8632,
      "ĠØ¹ÙĨØµØ±": 8633,
      "ÙĪÙģÙĬØ¯": 8634,
      "ĠØ§ÙĦÙħØ·ÙĦÙĪØ¨": 8635,
      "Ø§ÙĥØ": 8636,
      "Ø§ÙĥØ§": 8637,
      "rit": 8638,
      "ĠØ§ÙĦØ³ÙĪØ¯Ø§ÙĨÙĬ": 8639,
      "852": 8640,
      "nÙĥÙĪØ¯": 8641,
      "129": 8642,
      "ÙĢÙĢÙĢÙĢØ©": 8643,
      "ÙĪØ§ÙĨØ¨": 8644,
      "9908": 8645,
      "ĠÙĪÙĦÙĥÙĨÙĩ": 8646,
      "ĠØ§ÙĦØ§ØŃØªÙģ": 8647,
      "ĠØ§ÙĦÙĤØ·Ø¹": 8648,
      "ĠØ¬Ø¨Ø³": 8649,
      "ĠØ§ÙĦØ¯ÙħØ§Ùħ": 8650,
      "ĠØ§ÙĦØ§ÙĪÙĦÙī": 8651,
      "ĠØªØµØ¨ØŃ": 8652,
      "ÙĪÙĨÙĩØ§": 8653,
      "ĠØ§ÙĦØ¥ÙĬØ·": 8654,
      "ĠØ§ÙĦØ£ØŃØ¬Ø§Ø±": 8655,
      "article": 8656,
      "ĠØ´ÙĬØ¦Ø": 8657,
      "ĠØ´ÙĬØ¦Ø§": 8658,
      "Ġ800": 8659,
      "ĠØ£ÙħÙĬÙĨ": 8660,
      "ØŃØ±ÙĥØ©": 8661,
      "ĠÙħÙĬØ¯ÙĬØ§": 8662,
      "ĠØ§ÙĦØ£ÙħÙĨÙĬØ©": 8663,
[...]
