{"<|endoftext|>":0,"!":1,"\"":2,"#":3,"$":4,"%":5,"&":6,"'":7,"(":8,")":9,"*":10,"+":11,",":12,"-":13,".":14,"/":15,"0":16,"1":17,"2":18,"3":19,"4":20,"5":21,"6":22,"7":23,"8":24,"9":25,":":26,";":27,"<":28,"=":29,">":30,"?":31,"@":32,"A":33,"B":34,"C":35,"D":36,"E":37,"F":38,"G":39,"H":40,"I":41,"J":42,"K":43,"L":44,"M":45,"N":46,"O":47,"P":48,"Q":49,"R":50,"S":51,"T":52,"U":53,"V":54,"W":55,"X":56,"Y":57,"Z":58,"[":59,"\\":60,"]":61,"^":62,"_":63,"`":64,"a":65,"b":66,"c":67,"d":68,"e":69,"f":70,"g":71,"h":72,"i":73,"j":74,"k":75,"l":76,"m":77,"n":78,"o":79,"p":80,"q":81,"r":82,"s":83,"t":84,"u":85,"v":86,"w":87,"x":88,"y":89,"z":90,"{":91,"|":92,"}":93,"~":94,"¡":95,"¢":96,"£":97,"¤":98,"¥":99,"¦":100,"§":101,"¨":102,"©":103,"ª":104,"«":105,"¬":106,"®":107,"¯":108,"°":109,"±":110,"²":111,"³":112,"´":113,"µ":114,"¶":115,"·":116,"¸":117,"¹":118,"º":119,"»":120,"¼":121,"½":122,"¾":123,"¿":124,"À":125,"Á":126,"Â":127,"Ã":128,"Ä":129,"Å":130,"Æ":131,"Ç":132,"È":133,"É":134,"Ê":135,"Ë":136,"Ì":137,"Í":138,"Î":139,"Ï":140,"Ð":141,"Ñ":142,"Ò":143,"Ó":144,"Ô":145,"Õ":146,"Ö":147,"×":148,"Ø":149,"Ù":150,"Ú":151,"Û":152,"Ü":153,"Ý":154,"Þ":155,"ß":156,"à":157,"á":158,"â":159,"ã":160,"ä":161,"å":162,"æ":163,"ç":164,"è":165,"é":166,"ê":167,"ë":168,"ì":169,"í":170,"î":171,"ï":172,"ð":173,"ñ":174,"ò":175,"ó":176,"ô":177,"õ":178,"ö":179,"÷":180,"ø":181,"ù":182,"ú":183,"û":184,"ü":185,"ý":186,"þ":187,"ÿ":188,"Ā":189,"ā":190,"Ă":191,"ă":192,"Ą":193,"ą":194,"Ć":195,"ć":196,"Ĉ":197,"ĉ":198,"Ċ":199,"ċ":200,"Č":201,"č":202,"Ď":203,"ď":204,"Đ":205,"đ":206,"Ē":207,"ē":208,"Ĕ":209,"ĕ":210,"Ė":211,"ė":212,"Ę":213,"ę":214,"Ě":215,"ě":216,"Ĝ":217,"ĝ":218,"Ğ":219,"ğ":220,"Ġ":221,"ġ":222,"Ģ":223,"ģ":224,"Ĥ":225,"ĥ":226,"Ħ":227,"ħ":228,"Ĩ":229,"ĩ":230,"Ī":231,"ī":232,"Ĭ":233,"ĭ":234,"Į":235,"į":236,"İ":237,"ı":238,"Ĳ":239,"ĳ":240,"Ĵ":241,"ĵ":242,"Ķ":243,"ķ":244,"ĸ":245,"Ĺ":246,"ĺ":247,"Ļ":248,"ļ":249,"Ľ":250,"ľ":251,"Ŀ":252,"ŀ":253,"Ł":254,"ł":255,"Ń":256,"ĦÙ":257,"ÙĦÙ":258,"Ø©":259,"Ø¹":260,"Ø¨":261,"Ø¯":262,"Ø³":263,"§ÙĦÙ":264,"Ø§ÙĦÙ":265,"ÙĦ":266,"§ÙĦ":267,"Ø§ÙĦ":268,"ĠØ§ÙĦ":269,"ĠØ§ÙĦØ":270,"Ùģ":271,"ħØ":272,"Ùĥ":273,"ĠØ§ÙĦÙ":274,"ħÙ":275,"ĬØ":276,"ĪØ":277,"Ùĩ":278,"ÙĤ":279,"ÙĬØ":280,"ÙħØ":281,"ØŃ":282,"ÙħÙ":283,"ÙĪØ":284,"ªØ":285,"ĨØ":286,"±Ø":287,"Ø£":288,"Ø³Ø":289,"ĬÙ":290,"ĠØ¨":291,"ĠÙģ":292,"ĠØ":293,"ĬØ©":294,"ĠØ¹":295,"ĠØ£":296,"ĠÙħØ":297,"ÙĬÙ":298,"ÙĦØ":299,"ÙĨØ":300,"ĠÙħÙ":301,"ÙĬØ©":302,"ĠÙģÙ":303,"Ø±Ø":304,"ĠÙģÙĬ":305,"ĪÙ":306,"Ø¹Ø":307,"±Ù":308,"Ø¨Ø":309,"Ø¯Ø":310,"ÙĩØ":311,"ĠØª":312,"Ø¯Ù":313,"ĠÙĦÙ":314,"ÙĦØ§":315,"ĠÙĥ":316,"±Ø©":317,"Ø¬":318,"ØĮ":319,"Ø³Ø§":320,"ĠÙħÙĨ":321,"ĠØ§":322,"ÙĬØ§":323,"®Ø":324,"´Ø":325,"ĠÙĪØ":326,"ÙĬÙĨ":327,"Ø±Ø§":328,"ÙĦÙī":329,"ĠØ§ÙĦÙħØ":330,"ªÙ":331,"ÙħØ§":332,"Ø·":333,"Øµ":334,"ÙĨØ§":335,"ÙĪÙ":336,"ÙĥØ":337,"Ø¯Ø§":338,"ĠØ¥":339,"Ø±Ø©":340,"ĠØŃ":341,"Ø³Ù":342,"ÙĩØ§":343,"Ø¨Ù":344,"ĠØ§ÙĦØ£":345,"ÙģØ":346,"ĠØªØ":347,"Ø¡":348,"Ø§ÙĦØ":349,"ĨÙ":350,"ÙĪØ§":351,"±ÙĬ":352,"ÙĬØ±":353,"Ø¨Ø§":354,"ħØ¹":355,"ĠØ£Ù":356,"ĠØ§ÙĦØŃ":357,"ĠØ¹ÙĦÙī":358,"ÙĦØ©":359,"ØŃÙ":360,"Ø¹Ù":361,"ÙĩÙ":362,"Ø¦":363,"ĠØ¬":364,"ĠÙĤ":365,"Ø¹Ø§":366,"ÙĥÙ":367,"ĠØ§ÙĦÙħÙ":368,"ĠØ³":369,"Ġ2":370,"ĬØ¯":371,"ĠÙĦÙĦ":372,"Ø¨ÙĬ":373,"ĠØ§ÙĦØ§":374,"ÙħØ¹":375,"ØŃØ":376,"ÙĦÙĬ":377,"Ùİ":378,"µØ":379,"Ø¬Ø":380,"ĠØ§ÙĦÙħ":381,"¬Ø":382,"±Ø§":383,"ÙĤØ":384,"ĪÙĦ":385,"ÙĨÙ":386,"..":387,"ĨØ©":388,"ĠØ¹Ù":389,"ĠØ¨Ø":390,"ĠØ§ÙĦØª":391,"ÙĪØ±":392,"ħØ©":393,"ĠØ§ÙĦÙĥ":394,"Ø¯Ø©":395,"ĠØ§ÙĦÙģ":396,"ªØ§":397,"Ø³Ø§Ø±Ø©":398,"ĠØ·":399,"Ø¹Ø±":400,"´Ø±":401,"Ùĭ":402,"âĢ":403,"Ø±Ø§Ø":404,"ĠÙĬØ":405,"Ġ1":406,"Ġ(":407,"ĠØ§ÙĦØ³":408,"ÙĤÙ":409,"ĠÙħØ¹":410,"Ø³ØªØ":411,"´Ø§":412,"Ø²":413,"ÙĥØ§":414,"Ġ20":415,"ÙĪÙĨ":416,"Ø¹Ø©":417,"ĠÙħØŃ":418,"°Ø":419,"ĠØ£ÙĨ":420,"ĠØ§ÙĦØ¹":421,"ĬÙĦ":422,"ÙĦÙĥ":423,"ĠØĮ":424,"ĪÙĤ":425,"Ø¶":426,"®Ø§":427,"Ùĳ":428,"°Ø§":429,"ĠØ§ÙĦÙĤ":430,"¬Ø§":431,"ªÙĬ":432,"ĠØ¹ÙĨ":433,"ĠÙĥØ":434,"ĨØ§":435,"ĠØ§ÙĦØ¥":436,"Ø¯Ø§Ø":437,"Ø¹Ø¯":438,"ħÙĦ":439,"Ø³Øª":440,"µÙ":441,"ĠØ§ÙĦØ¬":442,"ĪØ§ÙĦ":443,"ĠÙĥØ³Ø§Ø±Ø©":444,"ĠÙĦØ":445,"ÙģØ§":446,"Ø¯ÙĬ":447,"Ø±Ø§Øª":448,"Ø¬Ø±":449,"Ø¨Ø±":450,"ÙĪØ§ÙĦ":451,"ĠÙĦ":452,"±ÙĪ":453,"ĪØ§ÙĦØ":454,"ÙĪØ§ÙĦØ":455,"ĪÙĨ":456,"·Ø":457,"ĠÙħØ§":458,"ĠÙĪØ§ÙĦØ":459,"«Ø":460,"ĠØ´":461,"Ø¨Ø§Ø":462,"Ø¨Ø©":463,"ĠÙĪØ§ÙĦ":464,"ÙĨÙĬ":465,"ĪØ§ÙĦÙ":466,"ÙĤØ§":467,"ÙģÙ":468,"ØªØ":469,"ÙĤØ©":470,"ĠØ§ÙĦØµ":471,"ĠØµ":472,"ÙĪÙĦ":473,"ÙĬØ§Ø":474,"ÙĪØ§ÙĦÙ":475,"ºØ":476,"ĠØ¨Ù":477,"ÙĦØ§Ø":478,"ÙĬÙħ":479,"ĠØ¢":480,"ĠØ®":481,"ĠÙĪØ§ÙĦÙ":482,"in":483,"Ùı":484,"ĠØ¥ÙĦÙī":485,"Ġ.":486,"ĪØ¯":487,"Ġ-":488,"Ø®Ø":489,"ĬÙģ":490,"ÙħÙĬ":491,"ĠØ¯":492,"ÙħØ§Ø":493,"°Ùĩ":494,"ÙĥØ©":495,"²Ø":496,"ĠÙĩØ":497,"ĠÙĩÙ":498,"ĠØ§ÙĦØ¨":499,"ĨØ¹":500,"ĠØ±":501,"ĪØ§":502,"ĠØ§ÙĦØªØ":503,"Ø³ÙĬ":504,"ØŃÙĨ":505,"er":506,"Ø·Ù":507,"00":508,"ÙĨØª":509,"ÙĲ":510,"ĠØ£ÙĪ":511,"ĪØ¨":512,"Ø¯ÙĬØ¯":513,"ĠÙĦØ§":514,"Ø´":515,"µØ§":516,"ÙħØ©":517,"ÙĩÙħ":518,"¶Ø":519,"ÙĬØª":520,"Ø¯Ø§Øª":521,"ĪÙĦÙ":522,"²Ø§":523,"ĠÙĪØ§":524,"ØŃÙĨØ©":525,"ÙĢ":526,"Ø¹Ø§Ø":527,"Ø¹Ùħ":528,"ĨÙĬØ©":529,"ÙĬØ§Øª":530,"Ø³ØªØ®":531,"·Ø§":532,"·ØŃÙĨØ©":533,"ĠÙĥØ§":534,"ÙĦÙģ":535,"ĠØ§ÙĦÙĨ":536,"ĠØ¹Ø":537,"±Ø¨":538,"Ø¯Ùħ":539,"¬Ù":540,"ĩØ":541,"²Ù":542,"ĠØ§Ù":543,"ÙħÙĨ":544,"ĠÙĦÙĦÙ":545,"ħØ¯":546,"Ø±ÙĬ":547,"Ø¨ÙĬØ¹":548,"an":549,"on":550,"ĠØ§ÙĦØ´":551,"ĠâĢ":552,"ĠØ§ÙĦØ¯":553,"ĠØ§ÙĦØªÙĬ":554,"Ø¯Ø±":555,"...":556,"ĬØ³":557,"ÙĦØ§Øª":558,"ĠÙĨØ":559,"Ø®":560,"Ø³Ùħ":561,"ÙĥÙĨ":562,"ÙģØ©":563,"µÙĨØ¹":564,"ĪÙħ":565,"ĬÙĨ":566,"or":567,"ØŃØ§":568,"ĠØ§ÙĦØŃØ¬Ø±":569,"ÙĪÙĬ":570,"ªØ±":571,"ĠØ§ÙĦØ±":572,"ÙħØ§Øª":573,"Ø«":574,"Ø·Ùħ":575,"ÙĤÙĬ":576,"ĠÙħØ·ØŃÙĨØ©":577,"ĩÙ":578,"ĬØ§":579,"ĠÙģØ":580,"ĩØ§":581,"ĠØº":582,"Ġ202":583,"ĪØ¹":584,"ĠØ§ÙĦÙħØŃ":585,"ÙĦÙĬØ©":586,"ĠÙħÙĨØ":587,"ÙĬÙĪ":588,"ĠÙħØŃØ·Ùħ":589,"at":590,"Ø·Ø":591,"ªØŃ":592,"ĠØ§ÙĦÙĦÙ":593,"Ø¯ÙĪ":594,"ĠØªÙ":595,"ÙĴ":596,"ĠØ´Ø±":597,"¸Ø":598,"«Ø§":599,"ÙĬØ±Ø©":600,"ØµÙĦ":601,"ĨØ¯":602,"ÙģÙĬ":603,"ÙĦÙĤ":604,"ĠØ¨Ø§ÙĦÙ":605,"ªÙħ":606,"ÙĪÙħ":607,"Ġ201":608,"ØŃØ©":609,"ÙĬÙģ":610,"®Ø§Ù":611,"ĠØ§ÙĦØ·":612,"ÙħØ§Ù":613,"µØ±":614,"es":615,"ÙĪØ§Ø":616,"°ÙĦÙĥ":617,"Ġ...":618,"Ø³Ø·":619,"ĨÙĬ":620,"ĠØ¨Ø§":621,"ĠØ±Ø":622,"ÙħØ±":623,"ĠØ¢ÙĦØ©":624,"°Ù":625,"®Ø§Ùħ":626,"Ø¨ÙĬØ©":627,"ar":628,"ĠØ¹ÙĦÙĬ":629,"§Ø¦":630,"ÙĥØ³":631,"ÙĥØ§Ø":632,"ĠÙĦÙĦØ¨ÙĬØ¹":633,"ĠÙĦÙĦØ":634,"Ø±Ø§Ø¡":635,"ħØ§":636,"ÙĩØ±":637,"ĠÙĩ":638,"ÙĨØ§Ø":639,"Ġt":640,"en":641,"ÙģØ¶":642,"ÙħÙĪ":643,"ĨÙĤ":644,"Ø³Ø©":645,"Ø¬Ù":646,"ÙĦØ§Ù":647,"Ġ3":648,"ªÙĪ":649,"ÙĬØ«":650,"Ø§ÙĦØ§":651,"«Ø±":652,"ĠØŃØ":653,"Ġ|":654,"Ø±Ø¶":655,"ÙħÙĬØ©":656,"¶Ø§":657,"ÙĦÙħ":658,"±ÙĪØ":659,"al":660,"ÙĨÙĬØ©":661,"ĠØ§ÙĦØ®":662,"ĠÙĪØ£":663,"ÙĢÙĢ":664,"ic":665,"ĠØ®Ø":666,"ÙĨØ§Øª":667,"Ø¨ÙĦ":668,"ĠØ¨Ø§ÙĦ":669,"ÙĬØ³":670,"Ø£Ù":671,"ÙĥÙĦ":672,"ħØ³":673,"ĠØ§ÙĦÙħÙĨØ":674,"´Ø§Ø":675,"Ø¬Ø§":676,"ÙĦÙĪ":677,"ĠÙĩØ°Ø§":678,"ĠØ§ÙĦØ±Ø":679,"Ø¹Ø¯ÙĬÙĨ":680,"ĠØ·ØŃÙĨ":681,"ĪÙĦØ§":682,"ÙĥØ§Øª":683,"Ø¨Ø§Ø±":684,"Ø¯Ø§Ù":685,"ÙĦØ³":686,"ÙħØ¯":687,"ĤØ":688,"20":689,"Ø¨Ø§Øª":690,"ØŃÙĤ":691,"ĠÙĩÙĪ":692,"ĠØ³Ù":693,"Ġ:":694,"ĠØ¨ÙĨ":695,"°ÙĬ":696,"ĠP":697,"ĠÙĦÙĥ":698,"ÙħÙĦ":699,"±Ø¯":700,"ÙĪØ±Ø©":701,"Ġp":702,"ĠØ§ÙĦÙĪØ":703,"Ø§ÙĦÙĬØ©":704,"ĠØªØŃ":705,"Ø¨Ø¯":706,"ĠØ¹Ø§":707,"°ÙĩØ¨":708,"et":709,"±ÙĬØ©":710,"ºØ§":711,"®Øµ":712,"Ø¶Ø":713,"¬Ø§Ø":714,"ĬØ¹":715,"ĠØ§ÙĦÙĦÙĩ":716,"ÙĥÙĬ":717,"ÙĦØ§ÙĦ":718,"ĠÙĬÙ":719,"§ØŃ":720,"ĠØ¨Ø§ÙĦØ":721,"ĠM":722,"ĠÙĤØ":723,"Ø³Ø¨":724,"ÙĥÙĪÙĨ":725,"ØµØ":726,"ĪÙģ":727,"·Ù":728,"ÙĬÙħÙĥÙĨ":729,"ÙĥØª":730,"Ø¹Ø§Øª":731,"Ø±Øª":732,"Ø¹Øª":733,"ÙĪØ§Øª":734,"±Ùĥ":735,"Ø¹ÙĬ":736,"ĠÙħØ¬":737,"ÙĬØ§Ù":738,"ĠØ«":739,"ÙĥØ«Ø±":740,"ÙģØ±":741,"Ø¨ÙĪ":742,"ÙģØ¶ÙĦ":743,"ÙĤØ¯":744,"ĠS":745,"ÙħØ³":746,"ĠA":747,"ĠÙĪØª":748,"Ø¹ÙħÙĦ":749,"±Ùī":750,"ĠØ§ÙĨ":751,"ĠØ²":752,"ĪÙĤØ¹":753,"ĠÙħØ®Ø":754,"ÙĤØ§Ø":755,"ĬÙħ":756,"Ø§ÙĦØ©":757,"ĠØ§ÙĦÙģÙĥ":758,"ĠØ¬Ø":759,"Ġ\"":760,"ĠÙĩØ°Ùĩ":761,"®Ø§Øµ":762,"ĠØ§ÙĦØ¹Ø§":763,"ÙĬÙĦ":764,"ĠØ§ÙĦÙħØ¹":765,"Ø±Ø¬":766,"it":767,"ÙĥÙħ":768,"ÙħØª":769,"ĠC":770,"ĠÙĩÙĬ":771,"Ø§ÙĦÙħ":772,"ĠÙĥÙ":773,"ĠÙħØµÙĨØ¹":774,"ÙĥØ±":775,"ÙĦØ¨":776,"ĠØ¨ÙĬÙĨ":777,"ĠØ§ÙĦÙĥØ":778,"±ÙĬØ":779,"Ø¨Øª":780,"ĠØ§ÙĦØ³Ø¹Ø±":781,"ou":782,"Øº":783,"Ø§ØŃ":784,"ĠÙĥØ§Ù":785,"Ġc":786,"ĠØ§ÙĦÙĤØ":787,"ĠØ³Ø§":788,"ĨÙģ":789,"ĠØ§ÙĦØ¹Ø±":790,"is":791,"Ġs":792,"Ø¯Ø¯":793,"Ø°Ø§":794,"ÙħÙĬØ":795,"ĠØªØµ":796,"ĠØ§ÙĦØ°ÙĩØ¨":797,"ªØ§Ø¬":798,"ĠØ§ÙĦÙĩÙ":799,"Ø¹Ø§Ø±":800,"ÙĥØ§Ù":801,"ĠØ§ÙĦÙĦ":802,"Ø·Ø§":803,"Ø³Ø§Ø±Ø§Øª":804,"ÙħÙĨØ":805,"ĠØ¥Ù":806,"Ġ5":807,"¸Ø§":808,"ŃØ":809,"ÙĪÙĦÙ":810,"ÙĬÙĨØ©":811,"ĪØ³":812,"Ġ4":813,"ĠØ§ÙĦØ´Ø±":814,"Ø¯Ùī":815,"ĠØ§ÙĦØ«":816,"Ùī":817,"ĤØ§":818,"ÙĪØª":819,"ÙĬØ±Ø§":820,"ĠØ§ÙĦÙĥØ±Ø©":821,"ÙħØ¬":822,"ÙĬØ¯":823,"ed":824,"Ø§ÙĦÙĬ":825,"ĠØ§ÙĦÙĨØ":826,"ĠØªØ¹":827,"Ø£ÙĨ":828,"ÙĪØ¨":829,"ĠÙĥÙĦ":830,"ĠØ®Ø§Ùħ":831,"ÙĦØ§Ùħ":832,"ÙĤØª":833,"Ø¶Ø§":834,"Ø¯ÙħØ©":835,"ĠÙĬÙħÙĥÙĨ":836,"Ø¦Ù":837,"ĠÂ":838,"ĠØ§ÙĦØ£Ø³":839,"ÙĬØ²":840,"ĠØ§ÙĦØ¢":841,"ĠØ§ÙĦØ°ÙĬ":842,"¦ÙĬØ³":843,"ÙģØ§Ø":844,"ÙħÙĬØ¹":845,"ĠÙħØ¹Ø¯Ø§Øª":846,"ĠØ¨Ø¹Ø¯":847,"ÙĪÙĤ":848,"¥Ù":849,"ĠØ¹Ùħ":850,"Ġm":851,"ØŃØª":852,"ÙĪØ¬":853,"Ø³ÙĬØ©":854,"ØŃØ¯":855,"ÙĦØª":856,"±Ø³":857,"ÙĪØ§Ù":858,"Ø±Ø§Ù":859,"ØŃÙħ":860,"ÙĩÙĪ":861,"ĠØ°ÙĦÙĥ":862,"ĠØ§ÙĦØ³Ù":863,"ac":864,"ÙĥØ³Ø§Ø±Ø©":865,"ØŁ":866,"Ø³Ø§Ø":867,"ØŃØ«":868,"ĠØ´Ø±ÙĥØ©":869,"ªØ§Ø":870,"ÙĤØ§Øª":871,"µØº":872,"ªÙī":873,"¶Ù":874,"Ø§ÙĦÙħÙ":875,"ĠØ®ÙĦØ§ÙĦ":876,"ÙħÙĬÙĦ":877,"Ø³Ø±":878,"ĠÙĦÙħ":879,"Ġ2022":880,"Ø³Ø§Ù":881,"ing":882,"ĠØ¬Ø§":883,"ĠØ§ÙĦØ¹Ø":884,"ÙħØ§ÙĨ":885,"om":886,"Ø¯ÙĨ":887,"±ÙĤ":888,"ĠØ³ØŃÙĤ":889,"Ø³Ø§Ø¨":890,"Ø³ØªØ®Ø¯Ùħ":891,"ĠÙĥØ§ÙĨ":892,"ÙĬÙĨØ§":893,"ĠØ§ÙĦØ®Ø":894,"ÙĨØ§Ø¡":895,"ªØ§Ø¨":896,"ĠÙħØµØ±":897,"ÙĥÙĬØ©":898,"as":899,"ĬØ¨":900,"ÙĪÙĦØ§":901,"re":902,"ÙĦÙħØ§":903,"ĪØ¯ÙĬØ©":904,"±Ø§Ø":905,"le":906,"ÙĨØ¸":907,"ĠØ§ÙĦÙĬÙ":908,"ÙĩØ¯":909,"ĠØ³Ø¹Ø±":910,"´Ø§Ø±":911,"ÙĬØŃ":912,"Ø®Ø±":913,"Ġ0":914,"ĠØ§ÙĦØµÙĬÙĨ":915,"he":916,"ÙĤÙĦ":917,"ÙĥÙĪ":918,"ĠØ£ÙĥØ«Ø±":919,"ĠØ§ÙĦÙħÙĪØ":920,"ĠØ£Ø³":921,"ÙħÙĩ":922,"ĠÙĪØªØ":923,"Ø¯Ø«":924,"ĠT":925,"ĠØ§ÙĦÙĨØ§":926,"Ø¯Ø§Ùħ":927,"ØªØµ":928,"ÙĬØ¬":929,"ĠØ§ÙĦÙģØ":930,"ĠØ§ÙĦØ²":931,"ĠØ¬Ù":932,"ĠØ¥ÙĨ":933,"ĠÙģÙī":934,"Ġ/":935,"ÙĨØªØ§Ø¬":936,"ĠØ§ÙĦØ¨Ø":937,"ĠØ§ÙĦÙĩÙĨØ¯":938,"ad":939,"ĠÙĨØ§":940,"ĠÙħØ³":941,"ĠØ§ÙĦØŃØ":942,"Ø§ÙĦØ§Ø":943,"ÙĳÙİ":944,"âĢĿ":945,"±ÙĪØ·":946,"ÙĦÙħÙ":947,"ÙĬØ§Ø¶":948,"ĠØ§ÙĦØªØ¹Ø¯ÙĬÙĨ":949,"ion":950,"ĠÙĨÙ":951,"Ø¥":952,"ÙĨÙĤ":953,"ÙĦÙĬØ":954,"ÙĦÙĩ":955,"¥ÙĨ":956,"·Ø©":957,"±Ùħ":958,"ÙĥØ§ÙĨ":959,"ºÙ":960,"ĠØ¨Ø´":961,"us":962,"Ø§ÙĦØ§Øª":963,"ĠØŃÙĬØ«":964,"ĠÙĤØ¯":965,"ÙħÙĪØ":966,"ĠÙĪØ¨":967,"ĠØ£ÙĬ":968,"ĪÙĥ":969,"ĠØ§Ø":970,"Ġ6":971,"ĠØ§ÙĦÙĤØ§":972,"ªØ¹":973,"ØµÙĪÙĦ":974,"ĠØ§ÙĦÙħÙĪØ§":975,"ĠØ§ÙĦØ£Ù":976,"ĠÙĪÙĦØ§":977,"ÙģØ§Øª":978,"ÙĬØ§Ø±":979,"ĠØ¶":980,"Ø²Ø":981,"ĠØ¹ÙĨØ¯":982,"Ø¹Ø¶":983,"ÙĦÙģØ©":984,"²ÙĬØ¯":985,"Ø¯ÙĪÙĨ":986,"ĠØ§ÙĦÙħØ§":987,"ĠØ£Ø":988,"Ø¦ÙĬ":989,"ĠØ§ÙĦØ³Ø¹Ù":990,"ªÙĪÙ":991,"ÙħÙĨØª":992,"ĠØªÙĤ":993,"ĠØŃØ¬Ø±":994,"Ø·Ø©":995,"ÙĪÙĨØ©":996,"Ø¦ÙĬØ©":997,"Ø¬Ùħ":998,"ÙĩÙĬ":999,"ro":1000,"ĠÙĪÙĤ":1001,"±ÙĪÙ":1002,"Ø³ØªØ®Ø¯Ø§Ùħ":1003,"ĠØ¹Ø¯Ø¯":1004,"ĠÙĤØ§":1005,"ÙĪØ³":1006,"--":1007,"Ø§ÙĦÙĥ":1008,"²Ø©":1009,"ĠÙħØ«":1010,"ĪÙħØ":1011,"ĠØªØ£":1012,"ÙħØ§Ùħ":1013,"ĠÙĪØŃ":1014,"ÙģØ¹":1015,"il":1016,"ĠØ§ÙĦÙĬÙĪÙħ":1017,"ĨØ³":1018,"Ø¹Ø¨":1019,"ÙĪÙħØ":1020,"Ø§ÙĦØŃ":1021,"ªØ±Ø§":1022,"±Ø§Øª":1023,"ĪØ¯Ø©":1024,"¬Ø§Øª":1025,"ÙĦÙĤØ©":1026,"ØŃØ±":1027,"Ø¹ÙĬØ©":1028,"ĠØ§ÙĦØ«Ø§":1029,"ĠÙĪÙħØ":1030,"ÙħØ¹Ø©":1031,"Ġf":1032,"Ø¯ÙĬØ¯Ø©":1033,"Ø¯Ø®":1034,"Ø¬Ø©":1035,"am":1036,"Ø«ÙĬØ±":1037,"ĠÙĨÙĤ":1038,"ĠÙĪÙĬ":1039,"Ġb":1040,"·Ø±":1041,"ĠÙħÙĪØ":1042,"ĠÙħØ®Ø±ÙĪØ·":1043,"¦Ø©":1044,"Ġ,":1045,"ÙħÙĬÙĨ":1046,"ĠØ¹Ø¨Ø¯":1047,"ĠØ±Ø§":1048,"Ø¨ÙĨ":1049,"ĪÙĬØ©":1050,"ÙĬØ·":1051,"ĠÙĥÙħØ§":1052,"ÙĦÙĬØ§":1053,"ĠÙħÙĪØ§":1054,"ÙĩØ§Ø":1055,"ĠØºÙĬØ±":1056,"±Øª":1057,"Ø§ÙĦØª":1058,"ĠØ§ÙĦØ³Ø§":1059,"ĠØ³Ø":1060,"ĠØªØ§":1061,"ªÙĨ":1062,"·Ø¨ÙĬ":1063,"ĠØ·Ù":1064,"Ø§ÙĦÙħØ":1065,"ĠØ§ÙĦØŃØ¯ÙĬØ¯":1066,"ĠØ¹Ø§Ù":1067,"Ġd":1068,"el":1069,"ÙĪØ§ÙĨ":1070,"±ÙĬÙĤ":1071,"ĠØ¹Ø§Ùħ":1072,"ĠÙħØŃØ":1073,"ÙĬÙĬÙĨ":1074,"ĠØ§Ø³Øª":1075,"ĠâĢľ":1076,"±ÙĬØ¯":1077,"ĠØ§ÙĦØ¹Ùħ":1078,"±ÙĨ":1079,"ÙĨØ§Ù":1080,"Ġ19":1081,"ĠØ§ÙĦØ¹Ø±Ø¨ÙĬØ©":1082,"ĠØ§ÙĦØº":1083,"ĠØ§ÙĦÙĪ":1084,"ice":1085,"ĠØ§ÙĦØ¬Ù":1086,"ï»":1087,"ĠÙĪØ§ÙĦÙħØ":1088,"ĠØ§ÙĦØ³ÙĬØ§":1089,"ĬÙĤ":1090,"ĠØ§ÙĦÙĥÙ":1091,"´Ù":1092,"ÙħØŃ":1093,"ĠØ§ÙĦÙģØŃÙħ":1094,"ĠâĢĵ":1095,"ĠB":1096,"ÙĬØ¶":1097,"®Ø§ØµØ©":1098,"´Ø©":1099,"Ø¯Øª":1100,"ent":1101,"Ø¨Ø·":1102,"ĠÙĪØ§ÙĦØ£":1103,"ĠÙģØ§":1104,"ªØ¨":1105,"ÙĪØ¶":1106,"Ø³Ø§Øª":1107,"ĠØ¬ÙħÙĬØ¹":1108,"ĠØ§ÙĦÙĩ":1109,"ĠØ§ÙĦØ¹Ø§ÙĦÙħ":1110,"ªØ¬":1111,"ĠÙĤØ¨ÙĦ":1112,"ĠG":1113,"µØºÙĬØ±Ø©":1114,"ÙĨØ¬":1115,"¸Ø§Ù":1116,"µÙĨ":1117,"±ÙĪÙĨ":1118,"¸Ø§Ùħ":1119,"ÙĥØ²":1120,"ĠÙħØª":1121,"Ø®Ø¨Ø§Ø±":1122,"ÙĨØªØ±":1123,"ï¿":1124,"ÙĨÙĪØ¨":1125,"´Ø±ÙĪ":1126,"ªÙĨÙĤ":1127,"ÙĪØ²":1128,"ï¿½":1129,"ĠÙĥØ¨":1130,"ØµØ§":1131,"Ø¦Ø":1132,"ĠØ§ÙĦØ¬Ø":1133,"ĠØ§ÙĦØµØ":1134,"ħØ³Øª":1135,"ĠÙħØ±":1136,"Ø¹Ø±Ùģ":1137,"±ÙĬØ®":1138,"ÙħÙĬÙħ":1139,"Ø¯ÙħØ§Øª":1140,"ºØ±":1141,"ĠÙħÙĪÙĤØ¹":1142,"ĠØ§ÙĦÙħÙĨØ§":1143,"and":1144,"Ġ2021":1145,"ĠØ§ÙĦÙħÙĤ":1146,"Ø±Ø§ÙĨ":1147,"ÙĥØ³ÙĬØ±":1148,"ÙĨØ¹":1149,"Ø±ÙĬÙĤ":1150,"Ġw":1151,"ĠÙĥØ³Ø§Ø±Ø§Øª":1152,"Ø¹Ø§Ù":1153,"Ø®Ø±Ùī":1154,"ÙĬØ¶Ø§":1155,"ĠØ§ÙĦÙħØŃØ":1156,"Ø¨Ø³":1157,"ab":1158,"50":1159,"Ø®Øª":1160,"ĠØ¹ÙĦÙĬÙĩ":1161,"ĠØ§ÙĦÙħØªØŃ":1162,"ĪØ©":1163,"ĠØ´Ø§":1164,"ĠØªÙħ":1165,"ĠÙĦØª":1166,"ĠÙħØ¯":1167,"Ġ7":1168,"ow":1169,"ĠØ¯ÙĬ":1170,"ĠÙĬØ¬":1171,"ĠØ®Ø·":1172,"ĠÙħØŃÙħØ¯":1173,"Ġ10":1174,"ĠØ¨Ø±":1175,"ĠØ·ÙĨ":1176,"ĠÙĬØªÙħ":1177,"Ø§ØŃØµÙĦ":1178,"ÙģØª":1179,"ÙĦØ§Ø¡":1180,"ĠÙĪØ§ÙĦØ§":1181,"ĠÙĩÙĨØ§":1182,"ĠÙĪØ³":1183,"ÙĦÙĬÙĦ":1184,"ĠÙĦÙĥÙ":1185,"ÙħØ±ÙĬ":1186,"ĠH":1187,"ÙĤÙħ":1188,"ĠØ§ÙĦØ±Ø§":1189,"ÙĩÙĦ":1190,"ĠØ§ÙĦØ³Ø¹ÙĪØ¯ÙĬØ©":1191,"ĠD":1192,"ĠF":1193,"ŃØ§":1194,"°Ø§Ø":1195,"ÙĬØ±ÙĬ":1196,"ÙĬÙħØ©":1197,"ĠL":1198,"oo":1199,"Ġ8":1200,"ĠØ§ÙĦØ£Ø":1201,"ĠÙħØªØ":1202,"ÙĨÙģ":1203,"ºØ±Ø¨":1204,"ĠØ¨Ø£":1205,"ore":1206,"ħØ³Ø§":1207,"ĠØ§ÙĦØ§Ø":1208,"Ø²Ø§":1209,"Ø¯Ø§Ø®":1210,"ĠØ§ÙĦØ°":1211,"ĠØ·Ø":1212,"Ø¯ÙĬØ«":1213,"10":1214,"ªØ¬Ø§Øª":1215,"ÙħØ³Øª":1216,"®ÙĪØ±":1217,"Ø¹ÙĦ":1218,"ªØµØ§":1219,"ĠØŃØªÙī":1220,"ÙĪØ¹":1221,"Ø¬Øª":1222,"ĪÙĬØ":1223,"ĠÙħÙĨØ§":1224,"rice":1225,"Ġo":1226,"ĠØ§ÙĦØ¬Ø§":1227,"±ÙħÙĦ":1228,"ĠØ¨Ø¹Ø¶":1229,"ĠØ£ÙģØ¶ÙĦ":1230,"ÙĪÙģ":1231,"ªØ§Ù":1232,"ħÙĦÙĥ":1233,"ĠØ§ÙĦÙī":1234,"ÙĦÙĪÙħØ§Øª":1235,"22":1236,"Ø§ÙĦÙģ":1237,"ag":1238,"ĠØ§ÙĦÙħØªØŃØ¯Ø©":1239,"Ø¢":1240,"ĠI":1241,"Ø·Ø¹":1242,"ĠØ¨Ø´ÙĥÙĦ":1243,"ħÙĦØ©":1244,"ĨÙĪÙĨ":1245,"ÙĬÙĤ":1246,"ĠØ´Ø":1247,"ÙħÙĪØ¹Ø©":1248,"ÙģØ±ÙĬÙĤ":1249,"ĠÙĪØ¬":1250,"ĠÙĦÙħØ":1251,"Ø¹ÙĦØ§":1252,"ĠÙĪÙ":1253,"ĠØ§ÙĦØ§Ø³":1254,"Ø´Ø±":1255,"ĠØ¹ÙħÙĦÙĬØ©":1256,"ÙĪØ§Ø¹":1257,"Ø¦ÙĦ":1258,"ÙĦÙĥÙ":1259,"ĠØ§Ø³":1260,"Ø¹ÙĦÙ":1261,"ĠÙħØ³Øª":1262,"ĨØ¨":1263,"ÙĨØªØ±ÙĨØª":1264,"ĠØŃØ§":1265,"ĠÙģÙĤ":1266,"ĠØ¹Ø¨Ø±":1267,"ĠÙĥÙĬÙģ":1268,"ĠØ¥Ø°Ø§":1269,"Ø¶Ù":1270,"ĠØ§ÙĦÙħØª":1271,"ec":1272,"²ÙĬ":1273,"ĠE":1274,"ÙģØ³":1275,"ĠÙĦÙĦØ§":1276,"Ø¹ÙħØ§ÙĦ":1277,"Ġ200":1278,"ĠØ³ÙĬØ§":1279,"Ġh":1280,"ÙħÙĩØ§":1281,"ĠØªØ¬":1282,"ÙĪØŃ":1283,"ĠR":1284,"ÛĮ":1285,"ÙģÙĤ":1286,"ħØ³Ø":1287,"ÙĪØ±ÙĪ":1288,"Ø³ÙĪ":1289,"ÙĨØ¸ÙĬÙģ":1290,"ĠÙĦÙĩ":1291,"ªÙĨÙĤÙĦØ©":1292,"ĠØ¨ÙĬØ¹":1293,"¬ÙĬ":1294,"ĠØ·Ø§ØŃ":1295,"ĠÙĪØ¥":1296,"Ø¯ÙĬØ©":1297,"ĠØ§ÙĦÙĬ":1298,"ĠØªÙĥ":1299,"Ø¨Ø§Ø¨":1300,"ĠW":1301,"ÙĪØ·":1302,"ĠØ§ÙĦØ·Ø§":1303,"pp":1304,"ĠÙĪØ¹":1305,"Ġin":1306,"ÙĢÙĢÙĢÙĢ":1307,"Ġ9":1308,"Ø³ÙĬØ§":1309,"ÙĨÙĬØ¹":1310,"Ø·Ùģ":1311,"ĬÙĥÙĪÙĨ":1312,"ÙĤØ¹":1313,"Ø¨Ø±Ø§":1314,"°Ø§Øª":1315,"ĠØ§ÙĦØ¹ÙħÙĦ":1316,"ĠÙħÙĤ":1317,"Ø·Ø±":1318,"11":1319,"ĠØ§ÙĦØµØ®ÙĪØ±":1320,"ÙĩØ©":1321,"ÙģØŃØ©":1322,"ĠØŃÙĪÙĦ":1323,"ĠØ¯ÙĪ":1324,"ĩÙħ":1325,"ÙĬØ´":1326,"Ġthe":1327,"Ø§ÙĦØ£":1328,"id":1329,"ĠÙĦØ£":1330,"ĠÙĪØ§ÙĦØª":1331,"ĪÙħÙĨ":1332,"Ø§ÙĦØ¨":1333,"Ø¯Ø§Ø±":1334,"ĠÙĬØŃ":1335,"Â»":1336,"±Ø¬":1337,"ÙĪØµ":1338,"´Ø±ÙĪØ¹":1339,"ĠÙħØ«ÙĦ":1340,"ĠØ§ÙĦØ´Ø":1341,"ÙĬØ§ÙĨ":1342,"ol":1343,"ĪÙģÙĬ":1344,"ĠÙħØ¤":1345,"ÙĦÙĬÙ":1346,"Ø¬ØªÙħØ§":1347,"ĠØ§ÙĦØ´Ø§":1348,"ÙĪÙħÙĨ":1349,"ĠØ§ÙĦÙħØ³":1350,"ÙĤÙĬÙĤ":1351,"ÙĪØ±ÙĬØ©":1352,"ĠØ·Ø§ØŃÙĪÙĨØ©":1353,"ĠÙĪÙĦÙ":1354,"ÙĨØ§ÙħØ¬":1355,"ÙģØ¸":1356,"Ø±Ø³":1357,"Ø¯Ø±Ø©":1358,"ĠØ¹Ø§ÙĦÙĬØ©":1359,"Ø¯Ø§Ø¯":1360,"ĠÙĬØª":1361,"ÙĨØ§ÙĨ":1362,"ĠØ³ÙĬ":1363,"ur":1364,"·Ø¨ÙĬÙĤ":1365,"Ø°":1366,"ĠØ§ÙĦÙħØ±":1367,"ÙĬÙĥÙĪÙĨ":1368,"Ġl":1369,"ÙĨØ§Ø¹Ø©":1370,"ªÙĪÙī":1371,"ÙĤØ±":1372,"ĠÙĨÙģ":1373,"ÙĦØ³ÙĦØ©":1374,"ÙģØ±ÙĬÙĤÙĬØ§":1375,"hat":1376,"Ùį":1377,"ĪÙĩÙĪ":1378,"´Ø±Ø©":1379,"ĠÙĬÙĥÙĪÙĨ":1380,"ÙĬÙĪÙĨ":1381,"st":1382,"Ø¯Ø§Ø¡":1383,"ÙħÙĪÙĨ":1384,"ÙĦÙĥØªØ":1385,"ĠÙĦÙĦÙħØ":1386,"¬Ø±":1387,"ÙĪÙĩÙĪ":1388,"ĠÙĪÙħ":1389,"ÙħØ³Ø":1390,"ĠÙĪØ§ÙĦÙħÙ":1391,"ĠÙħÙĪ":1392,"ÙĩØ§Øª":1393,"Ø³Ø§ÙĨ":1394,"ÙģÙĬØ©":1395,"ĠÙĦÙĬ":1396,"ØŃÙĬØ©":1397,"ïº":1398,"ĠØ§ÙĦØ¹Ø§Ù":1399,"ĠØªØ±":1400,"ĠØ§ÙĨØ":1401,"ĠØ§ÙĦØ¯ÙĪ":1402,"ĠØ¬ÙĨÙĪØ¨":1403,"Ø±Ø£":1404,"ĠØ§ÙĦØ¥Ø³":1405,"ªØµ":1406,"ÙĪØ±ÙĬ":1407,"ÙħØ§Ø±":1408,"ĠØ§Ø³ØªØ":1409,"âĢı":1410,"ĠÙħÙĤØ§":1411,"ħÙĦØ§":1412,"ÙĨÙĪÙĨ":1413,"ªØ²":1414,"Ø¦Ø±":1415,"ĠÙĪÙĩÙĪ":1416,"ĠØªØª":1417,"ĠÙħØ³Ø":1418,"12":1419,"ĠØ¨ÙĩØ§":1420,"ÙĦÙĥÙĨ":1421,"ħÙĦÙĥØ©":1422,"¶Ø¹":1423,"ĨÙĬØ§":1424,"ĠÙĪÙģ":1425,"ĠÙħØµ":1426,"em":1427,"ĠØ£ÙĨÙĩ":1428,"ĠØ§ÙĦÙħØ³Øª":1429,"ĠÂ«":1430,"ĠØ±Ø¦ÙĬØ³":1431,"µØ§ÙĨØ¹":1432,"ÙħØ³Ø§":1433,"Ø¯Ø§Ø±Ø©":1434,"ĠÙĬÙĤ":1435,"Ø±Ø²":1436,"ÙĬÙĨØ":1437,").":1438,"Ġ2020":1439,"±ÙĪÙĨÙĬ":1440,"ØŃÙĪÙĤ":1441,"ÙĪÙī":1442,"ĠØ§ÙĦÙħØ¬":1443,"Ġa":1444,"Ø¯Ø±Ø¯Ø":1445,"ĪÙĬØ±":1446,"ĪØ¬":1447,"ØĽ":1448,"ĠØ¨Ø¯":1449,"Ø¬Ø§Ø":1450,"ĠØ£ØŃ":1451,"ÙĦÙĬØ§Ø":1452,"ĠÙĪÙħÙĨ":1453,"ĠÙĬÙĪ":1454,"ig":1455,"ÙĥÙĬÙģ":1456,"ĪÙĦØ©":1457,"Ø¶Ø§ÙģØ©":1458,"Ø±ÙĬÙĤØ©":1459,"ÙĬØ§Ùħ":1460,"ĠØ§ÙĦØ¹Ø§Ùħ":1461,"ĠØ¨Ùĩ":1462,"·Ø§ØŃÙĨ":1463,"Ġ100":1464,"ĠØ´Ø±ÙĥØ§Øª":1465,"ĠÙħØŃØ§":1466,"¸Ø±":1467,"un":1468,"ØµØ±":1469,"ĠØªØ´":1470,"Ø¯Ø±Ø¯Ø´Ø©":1471,"ĠØ§ÙĦÙĥØ§":1472,"ÙĪÙĬØ":1473,"ĠØªØ¹Ø¯ÙĬÙĨ":1474,"Ùł":1475,"ĠÙģØ¥ÙĨ":1476,"ĠØ£Ø¬":1477,"Ø²Ù":1478,"ÙĥØ¨Ø±":1479,"ĠØ§ÙĪ":1480,"Ø¨Ø§Ù":1481,"ĠØ§ÙĦÙĪØ§":1482,"ÙĪÙģÙĬ":1483,"ĠØ§ÙĦÙħØ²ÙĬØ¯":1484,"ĠØ¹ÙħÙĦ":1485,"·ÙĤØ©":1486,"ÙĪØ§Ø¡":1487,"ĠØ±ÙĬ":1488,"ĪÙĦÙĥÙĨ":1489,"ÙĤØªØµØ§":1490,"ĪÙģÙ":1491,"Ø¨Ø¹":1492,"ÙĪÙĦÙĥÙĨ":1493,"ĠØ§ÙĦØ±ÙĬØ§Ø¶":1494,"ĠÙĪØµ":1495,"ĠÙĦÙĦØ£":1496,"ĠØ¨ÙĬ":1497,"Ġ[":1498,"ĠÙĤÙ":1499,"Ø¨Ùĩ":1500,"ÙĬØ¦Ø©":1501,"Ø³ÙĨ":1502,"ĠÙħØ¬Ø§":1503,"Ø§ÙĦØ³":1504,"ĪÙĬØª":1505,"ÙĪØ±Ø§":1506,"Ġ12":1507,"ÙĬÙĨØ§Ø":1508,"Ø¯ÙĪÙĦ":1509,"ÙĤÙĬØ©":1510,"ÙĬØ§Ø¯Ø©":1511,"ĠÙħØ§Ùĥ":1512,"ĠØªØ³":1513,"Ø¯Ø§ÙĨ":1514,"ĠØ³ÙĦØ³ÙĦØ©":1515,"ØŃÙħØ¯":1516,"ÙĩØ²Ø©":1517,"Ġg":1518,"Ø·Ø§Ø":1519,"ĠØ§ÙĦØ¢Ù":1520,"ÙĪÙħØ©":1521,"ĠØ§ÙĦØ£ÙĪ":1522,"Ġof":1523,"ÙĬÙĨÙ":1524,"ÙĩØ§Ø²":1525,"ĠØ«Ù":1526,"ĠØªØ³ØªØ®Ø¯Ùħ":1527,"ĠÙħØ³Ø§":1528,"Ø¯Ø§ÙĪÙĦ":1529,"ÙĦÙĩØ§":1530,"ĠÙĬÙĪÙħ":1531,"ªØ§ÙĨ":1532,"ĠØ§ÙĦØ¬ÙĬØ±ÙĬ":1533,"ÙħÙĪÙĦ":1534,"ĠØ§ÙĦÙħØ®Ø":1535,"ĠØ§ÙĦØ¥Ù":1536,"Ø¯ÙĪÙ":1537,"ĠÙĥØ§ÙĨØª":1538,"ĠØ°":1539,"ĠØ§ÙĦÙħØ¤":1540,"Ø±Ø§Ø±":1541,"ĠØªÙĥØ³ÙĬØ±":1542,"°ÙĬØ©":1543,"im":1544,"ĠØ§ÙĦØ±Ùħ":1545,"ĠØ§ÙĦØ¢ÙĨ":1546,"ĠØ«Ùħ":1547,"ĠØ°Ø§Øª":1548,"ĠÙĦØ¥":1549,"Ġ..":1550,"âĢĤ":1551,"21":1552,"ÙħØ§Ø±Ø§Øª":1553,"ĠØ¯Ø§":1554,"ĠÙĪÙĦÙĥÙĨ":1555,"ħØ§ÙĦ":1556,"ĠØ§ØŃ":1557,"ĠÙĨÙĪØ¹":1558,"ÙħÙĬØ§":1559,"µØ©":1560,"ºÙĬØ±":1561,"ĠÙħØ¬ÙħÙĪØ¹Ø©":1562,"ĠØ±ÙĪ":1563,"ĠØ§ÙĦØ§Ù":1564,"ÙĩØ°Ø§":1565,"Ø§ÙĦØ¬Ø©":1566,"ot":1567,"ĠØ¢ÙĦØ§Øª":1568,"ÙĩØ±Ø¨Ø§":1569,"Ġand":1570,"ĠØ§ÙĦØŃØ§":1571,"ĠØ§ÙĦØ´Ø±ÙĥØ©":1572,"ÙĪØ§Ø±":1573,"Ø§ÙĦÙĬØ§":1574,"ĠØ§ÙĦØ±Ø¦ÙĬØ³":1575,"ay":1576,"Ø¯ÙĦ":1577,"Ø¹ÙĪ":1578,"´Øº":1579,"Ġn":1580,"iv":1581,"Ø¹ÙĦÙī":1582,"Ø¹Ø§Ø¯Ø©":1583,"ĠØ³ÙĨ":1584,"ĠÙħØŃØ·Ø©":1585,"ªØ¯Ùī":1586,"ĠØ§ÙĦÙħØ¹Ø¯Ø§Øª":1587,"ÙĦÙģØ":1588,"ĠØ§ÙĦØ±ÙħÙĦ":1589,"Ø¹ÙĬØ¯":1590,"Ø·ÙģØ§ÙĦ":1591,"ĠØ§ÙĦØ¥ÙĦÙĥØªØ":1592,"´Ùģ":1593,"ĠØªØŃÙħÙĬÙĦ":1594,"ºØ·":1595,"Ø³ÙĬÙĨ":1596,"ÙħÙĪÙĦØ©":1597,"Ġ)":1598,"ÙĬØ®":1599,"ĠN":1600,"ÙĥØªÙĪØ±":1601,"ch":1602,"ĠØ§ÙĦØ¨Ø±":1603,"ĠØ¨ÙĦ":1604,"ter":1605,"·Ø±ÙĤØ©":1606,"ÙħÙĦØ§":1607,"ĠØ§ÙĦØ³Ø":1608,"Ø¹Ø¨Ø©":1609,"ÙĬØ§ÙĨØ©":1610,"ĠÙĦØ£ÙĨ":1611,"ĠØ£ÙģØ±ÙĬÙĤÙĬØ§":1612,"ĠØ¨ØŃ":1613,"ĠÙħØ´Ø§":1614,"ÙĬÙĪÙħ":1615,"ÙģØ§Ø¹":1616,"ÙĤÙĪÙĦ":1617,"ÙĦØ§Ø«":1618,"ĠÙĪÙĬØ":1619,"ħÙĥØ§":1620,"ĠØ§ÙĦÙħÙħÙĦÙĥØ©":1621,"ĠÙĩØ§":1622,"ĠØ§Ø³ØªØ®Ø¯Ø§Ùħ":1623,"ĠØ§ÙĦÙħØ¹Ø§":1624,"ĠØ¥ÙĦØ§":1625,"ĠØµÙĨØ¹":1626,"ĠÙħØ±Ø§":1627,"ĠÙģÙĬÙĩØ§":1628,"ØµØ©":1629,"ÙĪØ§Ø¬":1630,"ĠØªÙĨØ¸ÙĬÙģ":1631,"ĠØ¨Ø³":1632,"19":1633,"²Ø§Ù":1634,"ĠØ§ÙĦØ®Ø§ØµØ©":1635,"Ġto":1636,"ÙģØ§Ø¡":1637,"Ø¯Ùĩ":1638,"ĠØ§ÙĦØ§Ø³Øª":1639,"ĠØ¨Ùĥ":1640,"Ø³ÙĦ":1641,"Ø¹Ø§Ùħ":1642,"ĠØµØºÙĬØ±Ø©":1643,"ĠØ¨Øª":1644,"ĠØªØµÙĨÙĬØ¹":1645,"ªÙĪÙĨ":1646,"ÙĦØ§ÙĤ":1647,"ÙģÙĦ":1648,"Ø³Ø¨Ø©":1649,"²ÙĦ":1650,"Ø´Ø©":1651,"ĠØ§ÙĦØªØŃ":1652,"ÙħØ±Ø§":1653,"ĠØ£Øµ":1654,"ĠÙĦÙĩØ§":1655,"ĠÙĦÙģ":1656,"ÙĨÙī":1657,"ĠÙĦÙħÙ":1658,"ĠÙĪÙĨ":1659,"ĠO":1660,"ĪÙĩÙĬ":1661,"ĠÙĦÙĦØª":1662,"Ø¨ØŃ":1663,"ÙĪÙĩÙĬ":1664,"ØŃÙĬ":1665,"ĠÙħØ®Øª":1666,"ĠØ¥ÙĨØªØ§Ø¬":1667,"ØµÙĬÙĦ":1668,"ia":1669,"ĠÙĤØ§ÙĦ":1670,"ÙĬØ§Ø©":1671,"ÙĪØ§ØµÙĦ":1672,"²Ø§Ø":1673,"ĠØ¬Ø¯ÙĬØ¯":1674,"Ø§ÙĦØ«":1675,"ĠÙĨÙģØ³":1676,"ħØ¹Ø§":1677,"ĠØ£Ø¨":1678,"Ø³Ø¨Ø¨":1679,"ĠÙģÙĤØ·":1680,"ĠØ§ÙĦÙħØ±Ø":1681,"ĪÙħÙ":1682,"Ġ14":1683,"ĠØªØ¹Ø":1684,"ÙĨØº":1685,"ĨÙĩØ§":1686,"ºÙĬ":1687,"ĪÙĩ":1688,"ÙħØ«":1689,"ĠØ§ÙĦØ£ÙĪÙĦ":1690,"ĠØªØŃØ":1691,"ct":1692,"ĠØ§ÙĦÙĦØ":1693,"ĠØ¥ÙĦÙĬ":1694,"ub":1695,"¬Ùħ":1696,"ħØ¨Ø§Ø":1697,"ÙĬØ§Ø¡":1698,"ħØ¨ÙĬ":1699,"ĠØ§ÙĦÙħØŃØ§":1700,"ÙħØ¨Ø§Ø":1701,"âĢ¦":1702,"ĠØ¹ÙĦØ§":1703,"ĠØ§ÙĦØ¹Ø§ÙĦÙħÙ":1704,"Ø§ÙĦØµ":1705,"ĠØŃÙ":1706,"ul":1707,"ħØ¨Ø±":1708,"ÙĪÙĥ":1709,"ÙĬØ¨":1710,"ĠÙĪÙĩÙĬ":1711,"®Ø§Ø±Ø¬":1712,"ĠØªÙĥÙĪÙĨ":1713,"ÙĦÙĬØ§Øª":1714,"µÙĨØ¹Ø©":1715,"Ø¨Ø±ÙĬ":1716,"Ø³ØªØ«":1717,"ÙĥÙĬØ¨":1718,"ĠPrice":1719,"Ġ#":1720,"ÙĬØ±Ø§Ù":1721,"ħØ¹Ø":1722,"Ø¹ØªØ¨Ø±":1723,"ĠØ¬Ø¯ÙĬØ¯Ø©":1724,"Ø¯Ø±ÙĬ":1725,"ĠÙĬØ¬Ø¨":1726,"ĠÙħØ¨Ø§Ø":1727,"ĠÙħØ³ØŃÙĪÙĤ":1728,"ÙĦØ§Ø±":1729,"ĠÙĩÙĨØ§Ùĥ":1730,"ĠØ§ÙĦØŃÙĦÙĤØ©":1731,"ation":1732,"Ġ|--":1733,"ĠØ¨ÙĨØ§":1734,"ÙĦØ§ÙĨ":1735,"ªØ§Ø±ÙĬØ®":1736,"ĠØ¸":1737,"ØŃØ§Ø":1738,"ÙĬØ±Ø§ÙĨ":1739,"ĠØ¢Ø®Ø±":1740,"Ø¯ÙĪÙĦÙ":1741,"ÙĦÙĦ":1742,"ÙĦÙģØ§":1743,"ĠØ§ÙĦØ±ÙħØ§ÙĦ":1744,"¦Ø":1745,"ĨÙĬÙĨ":1746,"ĠÙĦÙĦØŃ":1747,"ĠØ§ÙĦØ®Ø§Ùħ":1748,"ĠØ§ÙĦÙħÙĨ":1749,"ĪÙĦÙĬ":1750,"ut":1751,"ÙĥØªÙĪ":1752,"ĠØ§ÙĦÙħØµÙĨØ¹Ø©":1753,"ĠÙĪÙģÙĬ":1754,"ĠØµÙĪØ±":1755,"ĠÙģÙĬÙĩ":1756,"ĠØ§ÙĦÙĪÙĦØ§":1757,"¬ÙĪØ¯":1758,"ĠÙĪØ§ÙĦØªÙĬ":1759,"ÙĥÙĨÙ":1760,"ĠØ§ÙĦØ¹Ø¯ÙĬØ¯":1761,"30":1762,"Ø¨ÙĬØ±":1763,"¸Ù":1764,"¬ÙĬÙĦ":1765,"ÙĬÙĨÙĬ":1766,"ers":1767,"ÙĬÙĨØ§Øª":1768,"±ÙĬÙģ":1769,"ĠÙĦÙĦÙħÙ":1770,"ĠØ·Ø±ÙĬÙĤ":1771,"ĠÙħØ´":1772,"ĠØ§ÙĦÙħØ¯":1773,"§Ø¦ÙħØ©":1774,"ÙĩØ±Ø©":1775,"ĠØ§ÙĦÙħØ³ØªØ®":1776,"ĠÙħØªÙĨÙĤÙĦØ©":1777,"ĠØ£Ø®Ø±Ùī":1778,"ĠØ¨Ø¥":1779,"ĠÙħÙħØ§":1780,"ÙĦÙĨ":1781,"ĠØ§ÙĦØªØ¹":1782,"ĠØ£ÙĬØ¶Ø§":1783,"Ø£Ø³":1784,"ĠØ´Ù":1785,"Ø¯ÙĬÙĦ":1786,"Ø±Ø§Ø¡Ø©":1787,"ĠØ§ÙĦÙħÙĪÙĤØ¹":1788,"ĠØ³Ø¨":1789,"ĠÙĪÙĤØ¯":1790,"ĠØ¨Ø£ÙĨ":1791,"ĠÙĪØ§ØŃ":1792,"ĪÙģÙħØ¨Ø±":1793,"Ø±Ø§Ø¬":1794,"ĠÙĬÙħÙĥÙĨÙĥ":1795,"ÙĪÙħÙ":1796,"Ø³Ø§Ø¡":1797,"ĠÙĦØªØ":1798,"ĠØªÙĨØ":1799,"ÙĦÙĬÙħ":1800,"ĪÙĨØ":1801,"2022":1802,"Ø¹Ø¯Ø©":1803,"ĠØ§ÙĦØµÙĨØ§":1804,"ĠØµØ§":1805,"ÙĤÙĪÙĤ":1806,"Ø³Ø§Ø¦ÙĦ":1807,"ĪÙĦÙĪØ¬":1808,"ÙĦÙĬÙĨ":1809,"ir":1810,"Ø¯Ø±ÙĪ":1811,"eb":1812,"ĪÙĤØª":1813,"ÙĦØº":1814,"ØªØµÙĦ":1815,"ÙĨØ³":1816,"ĠÙĪØ§ÙĦØŃ":1817,"ÙħÙĤ":1818,"ĠØ«Ø§":1819,"ĠØ§ÙĦØ£ÙħØ±ÙĬ":1820,"ÙħØ·ØŃÙĨØ©":1821,"ĠØ¨Ø±ÙĨØ§ÙħØ¬":1822,"ĠÙĪØ§ÙĦÙģ":1823,"ĠØ§ÙĦÙħØŃÙħÙĪÙĦ":1824,"Ø¯Ø§Ø®ÙĦ":1825,"´ÙĬ":1826,"ĠØ§Ø®Øª":1827,"Ġ18":1828,"ĠØªØµÙħÙĬÙħ":1829,"ÙĦÙĪØ":1830,"¢Ù":1831,"ĠØ§ÙĦØ¨Ø§":1832,"¶ÙĪØ¹":1833,"Ġv":1834,"ĠØªØ¨":1835,"Ø¨Ø¯Ø£":1836,"ĠØ¨ÙħØ":1837,"ĠØ¹ÙĦÙĬÙĩØ§":1838,"ph":1839,"ÙħØ§Ø¡":1840,"Ø¦ÙĤ":1841,"ĠÙĦØ¯ÙĬ":1842,"ĠØ§ÙĦØ¨ØŃØ«":1843,"ĠØ§ÙĦØ£ØŃ":1844,"qu":1845,"ÙĤØ±Ø£":1846,"²Ø±":1847,"Ø±Ø§Ùħ":1848,"Ġâ":1849,"¬Ø§Ø±":1850,"ĠÙĪØ°ÙĦÙĥ":1851,"ĠØ§ÙĦØ¹ÙĦØ§":1852,"ÙĦÙĤØ":1853,"ØµÙī":1854,"ĠØ£Ø³Ø¹Ø§Ø±":1855,"ht":1856,"ĠÂ»":1857,"ĠØ³Ø§Ø¹Ø©":1858,"ÙħÙĬØ±":1859,"Ġ30":1860,"ĠÙħÙĬ":1861,"ĠØŃØ³Ø§Ø¨":1862,"ÙħØ¹Ø":1863,"ÙĥØªØ¨":1864,"ªÙħØ¹":1865,"ĠØ§ÙĦÙħØªØ":1866,"ĠÙħÙĨÙĩØ§":1867,"Ø¹ÙĨ":1868,"ĠÙħÙĦØ§":1869,"ĠØ§ÙĦØ«Ø§ÙĨÙĬ":1870,"¬ÙĦ":1871,"ĠØ£ØŃØ¯":1872,"·Ø§Ø":1873,"ĠØ§ÙĦØ´Ø±ÙĥØ§Øª":1874,"14":1875,"ĠØ§ÙĦÙħØ·":1876,"ine":1877,"ĠÙĪÙħÙ":1878,"®Ø·":1879,"ħÙĬØ":1880,"Ġ15":1881,"ĠÙĪØ§ÙĦØ¥":1882,"ĠÙĦÙĤ":1883,"ªÙĩ":1884,"Ø³ÙĪÙĤ":1885,"ÙĦÙħØ©":1886,"ĠØ§ÙĦÙħØ³Ø":1887,"hats":1888,"Ġ2019":1889,"±Ø¨ÙĬØ©":1890,"ÙĤÙĬÙĤØ©":1891,"Ø³Ø·Ø©":1892,"Ġ2016":1893,"ĨÙī":1894,"ĠÙĥØ¨ÙĬØ±Ø©":1895,"ÙĨØ¨":1896,"ĠMore":1897,"Ø³Ø¬ÙĬÙĦ":1898,"16":1899,"ÙĦØ§ØŃ":1900,"±Ùģ":1901,"15":1902,"th":1903,"ĠØ§ÙĦØ¹Ø§ÙħØ©":1904,"ÙĤØ¯ÙĬÙħ":1905,"ess":1906,"Ø³ØªØ±":1907,"ªØ§Øª":1908,"Ġy":1909,"ÙĬØ§ÙĨØ§Øª":1910,"ĠØ§ÙĦÙĪØ·":1911,"ÙĥØ±Ø©":1912,"ĠØ£Ø´":1913,"ĠØ¶Ø":1914,"ĠÙĪØ§ÙĦØªØ":1915,"000":1916,"Ø±Ø§Ø³Ø©":1917,"um":1918,"ĪÙħØ§":1919,"´Ø§Ø¡":1920,"Ø±Ø¯":1921,"ĠØ®Ø¯ÙħØ©":1922,"ĠØ§ÙĦØ¥ÙĨØªØ±ÙĨØª":1923,"ĠØ§ÙĦØ¥ÙĨ":1924,"ĠØªØ¯":1925,"ĠØ±ÙĤÙħ":1926,"ÙĬØ¡":1927,"ĠØªØ±Ùĥ":1928,"ĠØ¯ÙĪÙĨ":1929,"ÙĪØ§Ø¦":1930,"ĠØ§ÙĦØ¹Ø±Ø§":1931,"ØŃØ§Ø³":1932,"ĠÙĦÙĥÙĨ":1933,"ĠØ§ÙĦÙĦØ§":1934,"ĠØªØ·Ø¨ÙĬÙĤ":1935,"ĠØ±Ø£":1936,"ĠØ§ÙĦØ·Ø":1937,"ĠØ§ÙĦØŃØµÙĪÙĦ":1938,"Ø³ÙħØ¨Ø±":1939,"ĠÙĦÙĪØ":1940,"ĠÙħØ·":1941,"ØºØ©":1942,"Ø³Ø§Ø±":1943,"ÙĥØªÙĪØ¨Ø±":1944,"ĠÙĤØ³Ùħ":1945,"ĠÙĨØ¸Ø§Ùħ":1946,"Ø¬Ø±Ø§Ø¡":1947,"ĠØªØ¹ÙĦÙĬ":1948,"ĠÙĪÙĥ":1949,"ĠØµÙĨØ§Ø¹Ø©":1950,"¦Ø§":1951,"ĠØ§Ø¨ÙĨ":1952,"18":1953,"ÙĪØ¬Ø¯":1954,"²Ø§Ø±Ø©":1955,"ĠØ³Øª":1956,"ew":1957,"·ÙĪÙĬØ±":1958,"ĠÙĨÙĤÙĦ":1959,"ĠØ§Ø³ØªØ®":1960,"ĠÙĬØ§":1961,"ØŃØ¨":1962,"ĠØªØ£Ø«ÙĬØ±":1963,"ħØ¨Ø§":1964,"ĠØ§ÙĦØ§Øª":1965,"ĠÙĬØ³":1966,"ÙĨÙĬØ§":1967,"ĠØ£ÙĨÙĪØ§Ø¹":1968,"ont":1969,"ĠÙħØ¹Ø":1970,"ħÙĥØ§ÙĨ":1971,"ÙİÙĳ":1972,"ÙĥØ¯":1973,"ĠØ§ÙĦÙĥØ«ÙĬØ±":1974,"Ø¹Ø±Ø¶":1975,"ĠU":1976,"ĬØ§Ùĩ":1977,"ĠØ§ÙĦÙħÙĪØ§Ø¯":1978,"Ø³Ø±Ø§":1979,"Ø¹ÙħÙĦØ©":1980,"com":1981,"ÙĪØ«":1982,"ĠØŃØ³Ø¨":1983,"13":1984,"ÙĪØªØ±":1985,"ĠØ§ÙĦÙħÙĪØ±Ø¯":1986,"all":1987,"Ø²ÙĦ":1988,"ĠÙħÙĨØ°":1989,"ĠÙħØ¹Ø§ÙĦØ¬Ø©":1990,"ĠÙĤØ·Ø¹":1991,"ĠÙĥÙĬÙģÙĬØ©":1992,"ĠØ§ÙĦØ§Ø¬ØªÙħØ§":1993,"ØŃÙĦØ©":1994,"__":1995,"ĠØ§ÙĦÙĥØ³Ø§Ø±Ø©":1996,"Ġe":1997,"Â·":1998,"ÙĪÙĤØª":1999,"ÙĤØ¨":2000,"ĠØ£Øº":2001,"Ø´Ø±ÙĥØ©":2002,"ĠØ§ÙĦÙħØŃÙħÙĪÙĦØ©":2003,"Ø³ÙĬÙĦ":2004,"¦Ù":2005,"ĨÙĪ":2006,"ĠV":2007,"ĠÙħØ´Ø±ÙĪØ¹":2008,"ĠÙĥØ«":2009,"Ġ>":2010,"ĠÙħØ¬ÙĦØ³":2011,"ÙħÙĥØ§":2012,"ĠØ§ÙĦØµØºÙĬØ±Ø©":2013,"ÙĤÙĬÙĦØ©":2014,"ĠØ¬Ø§ÙħØ¹Ø©":2015,"ĠÙĨÙĪÙģÙħØ¨Ø±":2016,"ħØ¨":2017,"ØŃÙĪ":2018,"¬Ø§Ø±ÙĬØ©":2019,"ĠØ§ÙĦØ¥ÙĦÙĥØªØ±ÙĪÙĨÙĬ":2020,"ĠÙĥÙĨØª":2021,"ĠØ´Ø®Øµ":2022,"ÙĪØ¸":2023,"ÙģØ§ØµÙĬÙĦ":2024,"Ø¢ÙĦØ©":2025,"ÙĦØ§Ø¯":2026,"ØŃØ§Øª":2027,"ĠÙĪÙĤØª":2028,"ĠØ§ÙĦÙħØ·Ø±ÙĤØ©":2029,"ĠØªÙĪ":2030,"ĠØ§ÙĦØ¶":2031,"ĠØ§ÙĦÙĨÙģ":2032,"ĠÙĪØ§ØŃØ¯":2033,"ĦÙĩ":2034,"ĠØ§ÙĦÙĪÙĦØ§ÙĬØ§Øª":2035,"ØªØŃ":2036,"²ÙĨ":2037,"ook":2038,"ÙĪØ±Ø":2039,"ÙĮ":2040,"¬ØªÙħØ¹":2041,"ĠØ§ÙĦÙĪÙĤØª":2042,"os":2043,"´Ø§Ø±ÙĥØ©":2044,"ÙħÙĬØ²":2045,"ÙĤÙī":2046,"ĠÙĦØ¨":2047,"ÙĪØ¯":2048,"ØªØµØ§ÙĦ":2049,"£Ø©":2050,"ĠÙĪØ§ØŃØ¯Ø©":2051,"ĠØ¨Ø§ÙĦØ§":2052,"¸ÙĩØ±":2053,"´ØºÙĬÙĦ":2054,"ĨØŃÙĨ":2055,"ÙĦÙĪØ§":2056,"Ġ2018":2057,"Ø¹Ø±ÙģØ©":2058,"Get":2059,"ÙĨØ¬ÙĦÙĬØ":2060,"ĠØ§ÙĦØªØµ":2061,"ĠØ§Ø¨":2062,"ĠÙĦÙĦØªØ":2063,"ĠØ§ÙĦØ§Ø³ÙħÙĨØª":2064,"Ø³ØªØ§ÙĨ":2065,"ĬÙĥ":2066,"²Ø§Øª":2067,"ÙĬØ¹":2068,"ØªÙĬ":2069,"Ġ24":2070,"ÙĬÙĨÙĬØ©":2071,"ĠØ¨ÙĤ":2072,"Ø¬Ø§Ø±Ø©":2073,"ĠØ§ÙĦØ°ÙĬÙĨ":2074,"ĠÙĥØªØ§Ø¨":2075,"ĠØªØŃØª":2076,"ĠØºØ§":2077,"ĠØ§ÙĦØ£Ø³Ø¹Ø§Ø±":2078,"ªÙĪÙĬ":2079,"ĠØ¨Ø§ÙĦØ¥":2080,"ĠØ§ÙĦØ¬Ø²Ø§":2081,"ÙĥÙĨÙĪÙĦÙĪØ¬":2082,"ħÙĥ":2083,"ÙĨÙĩØ§":2084,"ĠØ§ÙĦØ¬Ø¯ÙĬØ¯Ø©":2085,"ÙģØ³ÙĬØ±":2086,"ĠÙĪØ²":2087,"ĠJ":2088,"ÙĬØµ":2089,"Ø¯ÙĨÙĬØ©":2090,"ĠØ£ÙĥØ¨Ø±":2091,"Ø±Ø¬Ø©":2092,"ĠØ§ÙĦÙĥØ³Ø§Ø±Ø§Øª":2093,"ĠØ§ÙĦÙħØ³ØªØ®Ø¯ÙħØ©":2094,"ĠØ§ÙĦØ®Ø§Øµ":2095,"ĠÙħÙĩ":2096,"ĠÙĬØŃØ":2097,"op":2098,"ĠÙĪØ±":2099,"ĠÙĥØ¨ÙĬØ±":2100,"ÙĦØ§Ø¨":2101,"ĠÙħØ®Ø±ÙĪØ·ÙĬØ©":2102,"Ø±Ø´":2103,"ÙĦØ³Ø·":2104,"ÙģÙī":2105,"rus":2106,"ĠÙĨØª":2107,"ĠØªØ±Ø":2108,"ÙħÙĨØ§":2109,"ĠÙĬÙĨØ":2110,"ÙħØ¹Ø¯Ø§Øª":2111,"our":2112,"ÙģÙĬØ¯":2113,"Ø¨Ø§ÙĨ":2114,"est":2115,"ĠÙĬÙĨØ§":2116,"17":2117,"ĠØ§ÙĦÙĩØ§":2118,"Ø¯ÙĪØ§Øª":2119,"ĠØªØ§Ø":2120,"Ø³Ø§Ø¹Ø¯":2121,"ĬÙĩ":2122,"act":2123,"App":2124,"±ÙĪÙģ":2125,"ĠØ§ÙĦØ³Ø§Ø¹Ø©":2126,"ÙĦÙģØ§Ø":2127,"ĠØªÙĦÙĥ":2128,"oc":2129,"Ø³Ø§ÙĦØ©":2130,"ÙĤØ§Ù":2131,"Ù¡":2132,"ĠÙĥØ±":2133,"ĠØ¨Ø±Ø§":2134,"ÙĪØ£":2135,"ĠÙħØ¯ÙĬÙĨØ©":2136,"´ØªØ±":2137,"Ø¯Ø®ÙĪÙĦ":2138,"ĠØ§Ø±Øª":2139,"ĠØ£Ø³Ø§":2140,"ĠØ§ÙĦÙĨØŃØ§Ø³":2141,"µØºÙĬØ±":2142,"ØªØ±Ø©":2143,"\":":2144,"ĠÙĦØ¯":2145,"ĠØ·Ø±ÙĬÙĤØ©":2146,"ĠØ´Ø±Ø§Ø¡":2147,"ĠØ¨ÙħØ§":2148,"ĠÙĬØ¯":2149,"ĠØ§ÙĦÙħØ¹ÙĦÙĪÙħØ§Øª":2150,"ĠØ§ÙĦØ¹Ø±Ø¨ÙĬ":2151,"ĠØ§ÙĦÙħØµ":2152,"Ø´Ø§":2153,"ÙĪÙħØ§":2154,"ÙĤØ¯Ùħ":2155,"ÙĩØ¯Ø©":2156,"ra":2157,"Ø±Ø§ÙĨÙĬØª":2158,"ĠÙħÙĥØ§":2159,"ĠØ¯ÙĬØ³ÙħØ¨Ø±":2160,"Ġ16":2161,"Ø¶ÙĬ":2162,"ĠØ§ÙĦÙħÙĪ":2163,"Ø¨Ø§Ø¡":2164,"¶ÙĬ":2165,"ĠØ§ÙĦØ³Ø§Ø¨":2166,"Ġon":2167,"ÙħÙĪØ§":2168,"Ø¯Ø®ÙĦ":2169,"±ÙĪØ¶":2170,"ħØ¹Ø¯Ø§Øª":2171,"ÙħÙĬÙ":2172,"Ø§ÙĦØ¥":2173,"°Ø¬":2174,"ĠÙģÙĥÙĬØ©":2175,"Ø¹Ø§Ø¡":2176,"Ø³Ø®":2177,"Ø²Ø§Ù":2178,"ip":2179,"ÙĩØ§Ù":2180,"ĠÙħÙĬØ":2181,"Ø±Øµ":2182,"hatsApp":2183,"Ø¬Ø²Ø§":2184,"ÙħØ¹Ø§":2185,"rush":2186,"Ø§ÙĦØ¯":2187,"ĠÙĪØ§ÙĦÙĥ":2188,"ĠØªÙĥÙĦÙģØ©":2189,"ĠÙĤØµ":2190,"ĠØ®Ø¯ÙħØ§Øª":2191,"Ġ+":2192,"ÙĪÙĬÙĦ":2193,"ĠØ¬Ø¯Ø§":2194,"ĠØ§ÙĦØ£ÙĪÙĦÙī":2195,"ÙĨØªØ":2196,"ÙħØ¨Ø§":2197,"ØŃÙĬØŃ":2198,"Ø¬ÙĩØ²Ø©":2199,"ÙĪØ§Ø¨":2200,"Ø±Ø±":2201,"25":2202,"ĠØ§ÙģØ¶ÙĦ":2203,"§Ø¦Ùģ":2204,"ĠÙĥÙĬ":2205,"ÙĬÙĪØ¨":2206,"ĠØ¯Ø§Ø®ÙĦ":2207,"Ø¬ÙĨ":2208,"24":2209,"ÙħÙī":2210,"ĠÙĦÙĦÙĥ":2211,"ĠØ·Ø§":2212,"Ø®Ù":2213,"²ÙĬÙĦ":2214,"ĠØ§ÙĦØ¯ÙĪÙĦÙ":2215,"ÙĦÙģØ§Øª":2216,"ÙĨØŃÙĨ":2217,"Ø§ÙĦØ¬":2218,"ĨÙģÙĬØ":2219,"ĠØ§ÙĦÙĤØ¯":2220,"Ø§ÙĦÙī":2221,"ĠY":2222,"Ø§ÙĦØŃØµÙĪÙĦ":2223,"ĪÙĦÙĬÙ":2224,"ĠÙĪÙħØ§":2225,"¸Ùħ":2226,"ĠÙĦØ¬":2227,"ÙĥÙĨÙĪÙĦÙĪØ¬ÙĬØ§":2228,"ind":2229,"Ø¯ÙĪØ¯":2230,"ØŃÙĦ":2231,"ĠØ§ÙĦØ«Ø§ÙĦØ«":2232,"Ø¨ÙĥØ©":2233,"ĠØªØ§Ø±ÙĬØ®":2234,"Ġ2017":2235,"ĠÙĬØµ":2236,"ĠØ§ÙĦØŃØ¯ÙĬØ«":2237,"ÙĦÙĪØ¨":2238,"ĠØ³ÙĨØ©":2239,"Ø¹ÙĬÙĨ":2240,"ĠØ§ÙĦÙħØ³Ø§":2241,"ĠÙĩÙĦ":2242,"ĠØ§ÙĦØ³ÙĬ":2243,"ÙĨØ²":2244,"ÙĦÙĪÙħ":2245,"ĠØ§ÙĬ":2246,"ĠÙĬÙĪÙĨ":2247,"ĠÙĬØ¨":2248,"Ø¨ØªÙħ":2249,"ÙĦØ§Ùģ":2250,"Ġ*":2251,"ĠÙĪØ£Ù":2252,"ĠØ§ÙĦØ§ÙĨ":2253,"ĠÙĤØ§Ø¦ÙħØ©":2254,"ÙĪÙĨØ":2255,"Ġ13":2256,"ĠØªÙĨ":2257,"Ø¨ÙĬØ¨":2258,"ĠÙĨØ³":2259,"±ÙĬØ§Ø¶":2260,"ib":2261,"Ø³Ø§ÙĨØ©":2262,"Ġ11":2263,"Ø§ÙĦÙĩ":2264,"ĠØ¨Øµ":2265,"ĠØ§ÙĦØ±ÙĪ":2266,"Ø¨ØªÙħØ¨Ø±":2267,"´Ø§Ø±Ùĥ":2268,"Ø¬Ø§Øª":2269,"ÙĩÙĬØ²":2270,"ÙĦÙĪÙĦ":2271,"ĠØ§ÙĨØª":2272,"ĠØ¨Ø§ÙĦÙħÙ":2273,"«Ø§Ø":2274,"ÙĦØ¹":2275,"ĠØ¬Ø²":2276,"ÙĬØ±ÙĪ":2277,"ĠÙĪØ§ÙĦØµ":2278,"·Ø§ÙĤ":2279,"ĠÙħÙĨØªØ¬Ø§Øª":2280,")ØĮ":2281,"ĠÙĦÙĨ":2282,"ĠK":2283,"ÙĩÙħØ§":2284,"ĠØ£ÙĬØ¶":2285,"ĠÙĦÙĬØ³":2286,"Ø·Ø§Ø¹":2287,"ĠØ¹Ø¨Ø§":2288,"ĠØ£ÙĥØªÙĪØ¨Ø±":2289,"ĠAl":2290,"ĠÙĬØ¹":2291,"µØ±ÙĬ":2292,"ĠØ§ÙĦØ£Ø±Ø¶":2293,"ĠÙħÙĨØªØ¯Ùī":2294,"ĠÙĦÙĥÙĦ":2295,"ÙħØµÙĨØ¹":2296,"ĠØ¹ÙĨØ¯ÙħØ§":2297,"Ø³Ø¹":2298,"ĠØ§ÙĦÙĨØ§Ø³":2299,"Ø¹Ø§Ø¨":2300,"ĠØ§Øª":2301,"ĠØ§ÙĦØ¯ÙĥØªÙĪØ±":2302,"ÙĦØ³ÙĦ":2303,"ÙĨØ·":2304,"ÙĪØ±Ø§Øª":2305,"Ġfor":2306,"ĠØ«ÙĦØ§Ø«":2307,"ĠØ§ÙĦÙħÙĤØ§":2308,"ºØ©":2309,"ĠØ§ÙĦØ¨ÙĨØ§Ø¡":2310,"¶Ø§Ø¡":2311,"ÙĨÙĪ":2312,"Ø¨ÙĬÙĦ":2313,"¬Ø§Ø±Ø©":2314,"Ø´Ø±Ø§Øª":2315,"ĠÙĬØªØ":2316,"ÙĥØ§Ùħ":2317,"ĠÙħØ±ÙĥØ²":2318,"®Ø§Ø":2319,"Ø·ÙĬ":2320,"Ø·ÙĤ":2321,"ĠØ£Ùĩ":2322,"Ø¦Ø¨":2323,"ĠÙĪØ§ÙĦØ³":2324,"´Ø±ÙĥØ©":2325,"ĪÙĥØ":2326,"Ġis":2327,"ĠÙĪØ§Ø":2328,"ĠØ§ÙĦÙħØ±Ø§":2329,"ĠØ£Ø¨ÙĪ":2330,"ĠØ¨Ø§ÙĦØª":2331,"ĠØ§ÙĦØ¶Ø":2332,"ĠØ§ÙĦØŃØ¬Ø§Ø±Ø©":2333,"ĠØ£ØŃÙħØ¯":2334,"ov":2335,"ĠÙħØ¹Ø§":2336,"ĠØ§ÙĦÙĥÙĩØ±Ø¨Ø§":2337,"ĠØ¨Ø¯ÙĪÙĨ":2338,"ĠØ¹Ø±Ø¶":2339,"ĠÙĦÙĬØ":2340,"ail":2341,"ĠØ§ÙĦÙģÙ":2342,"ĠØ§ÙĦØ¬Ø¯ÙĬØ¯":2343,"ĠØ®Ø§ØµØ©":2344,"ĠIn":2345,"®Øª":2346,"\".":2347,"Ġ25":2348,"ÙĦØ¯":2349,"ĠØ§ÙĦØ±Ø¦ÙĬØ³ÙĬØ©":2350,"Ġr":2351,"ĠØ§ÙĦØ§ÙĤØªØµØ§":2352,"ÙĤØ±ÙĬØ±":2353,"if":2354,"ÙĤØ§ÙĦ":2355,"ºÙħ":2356,"ÙĭØĮ":2357,"ĠØªÙĪØ":2358,"ĠÙĪØºÙĬØ±":2359,"ĠØ§ÙĦØ´Ø®Øµ":2360,"ĠØ¨Ø¬":2361,"ĠØ¯ÙĪÙĦØ§Ø±":2362,"ce":2363,"ØµÙ":2364,"ĠØ§ÙĦÙħØµØ±":2365,"¢ÙĨ":2366,"ĢÙĢ":2367,"ÙħÙĥ":2368,"Ø¨ØªØ¯Ø§":2369,"ĠÙħØ¨Ø§":2370,"ĠÙĪØ§ÙĦØ¹":2371,"Ø§ÙĦÙĤ":2372,"ĠØŃØ§ÙĦØ©":2373,"ik":2374,"ÙĪÙĩ":2375,"Ø²Ø©":2376,"ĠØ§ÙĦØ´ÙĬØ®":2377,"²ÙĬØ§":2378,"ĠØ§ÙĦØ£ÙħØ±ÙĬÙĥÙĬØ©":2379,"±ÙĥØ©":2380,"ĠÙĪØ§ÙĦÙĤ":2381,"Ø±Ø§Ùģ":2382,"ĠØ§ÙĦØ³ÙĪ":2383,"ĠØ§ÙĦÙĥÙĪÙĬØª":2384,"Ø³Ø±Ø¹Ø©":2385,"ÙĦÙĬÙĪÙĨ":2386,"ĠØ§ÙĦØ¯Ø±Ø§":2387,"Ø®Ø°":2388,"ĠÙĦØŃ":2389,"ĠØ¨Ø³Ø¨Ø¨":2390,"Ġ50":2391,"¸Ø§Ø¦Ùģ":2392,"´Ø§Øª":2393,"ĠÂ·":2394,"ÙĪÙĥØ":2395,"Ø¨ÙĪÙĦ":2396,"ĠÙĪØ§ÙĦØ¯":2397,"ĠØ¨ÙĨØ§Ø¡":2398,"ĠØªØ±ÙĥÙĬØ¨":2399,"ÙĪØ±ÙĬØ§":2400,"ÙĳÙĲ":2401,"Ø¨Ø±ÙĬÙĦ":2402,"Ø¯ÙĤ":2403,"ĠØ§ÙĦØ®Ø±":2404,"ĠØ¨Ø§ÙĦÙħØ":2405,"Ø¨Ø®":2406,"og":2407,"ĪÙĬ":2408,"Ø¨Ø§ØŃ":2409,"ØªØ±":2410,"ÙĩØ§Ø¨":2411,"2021":2412,"ªØ§ØŃ":2413,"ĠØ¨ÙĪØ§":2414,"ĠØ³ÙĬØ":2415,"Ø²Ø§Ùħ":2416,"ĠÙħØ±Ø":2417,"ºØ°ÙĬØ©":2418,"ĪÙĦÙĬÙĪ":2419,"ĠÙĬÙĨ":2420,"Ø¨ÙĪØ¹":2421,"ĠØªØªØ":2422,"ill":2423,"ÙĪØ§ÙĨØ©":2424,"ĠØ£ÙĪÙĦ":2425,"ĠØŁ":2426,"ĠØ´ÙĩØ±":2427,"µÙģ":2428,"ÙĦÙħØ§Ø":2429,"ÙĥÙĪÙħØ©":2430,"ĠØ£Ùħ":2431,"ĠØ§ÙĦÙħÙĨØªØ¬":2432,"ÙĥØ§Ø±":2433,"ĠØ¯Ø¨ÙĬ":2434,"·Ø¨":2435,"ĠØ£Ø¬ÙĦ":2436,"ÙĩØª":2437,"ĠØ§ÙĦØªÙ":2438,"µØ§Ø":2439,"Ġpro":2440,"ĠØ§ÙĦØ£Ø³Ø§":2441,"ĠØ§ÙĦØ´Ù":2442,"ĠØ§ÙĦØ£Ø³ÙħÙĨØª":2443,"Ø²ÙħØ©":2444,"ĠÙĪÙĨØ":2445,"ĠØ§ÙĦÙħØµÙĨØ¹":2446,"ĨÙĩ":2447,"Ġk":2448,"ĠØ¨Ø§ÙĦÙĥ":2449,"ĠØ§ÙĦÙħÙĨØªØ¬Ø§Øª":2450,"Ø³Ø·ÙĪØ§ÙĨØ©":2451,"ĠØ¨Ø·":2452,"ĠÙħØ§Ø±Ø³":2453,"ÙĨÙĬÙĩ":2454,"ĠØ§ÙĦÙĥØ±":2455,"§ØªØµÙĦ":2456,"ĠØ§ÙĦØ·Ø§ÙĤØ©":2457,"Ø§ØªØµÙĦ":2458,"ĠÙĥØ§ÙħÙĦØ©":2459,"Ø«Ù":2460,"ÙģÙĩ":2461,"²ÙĬØ©":2462,"ak":2463,"ĠÙĪØ®":2464,"Ø£Ø":2465,"ØŃØ§Ø¯":2466,"ÙĦÙħØ§Øª":2467,"ÙĤÙĪØ¯":2468,"ies":2469,"Ø§ÙĦÙĬØ":2470,"Ġ17":2471,"ÙĬØ¬Ø§":2472,"ŃØ©":2473,"Ø¹ÙĪØ¯":2474,"ĠØ§ÙĦÙģØ§":2475,"ÙĨØ´Ø§Ø¡":2476,"ĠØªØ¹ÙħÙĦ":2477,"ÙĪØ¡":2478,"Ø¦Ùħ":2479,"ĠÙĨÙĩØ§":2480,"av":2481,"²ÙĬØ²":2482,"ead":2483,"Ø³ÙĬÙĤ":2484,"ĠØ§ÙĦØ¹ÙħÙĦØ§Ø¡":2485,"Ø³Ø·Ø³":2486,",\"":2487,"Ø¹Ø¯Ø§Ø¯":2488,"ĠØ§ÙĦØ®Ø·":2489,"ĠÙĦÙĦØ¥":2490,"ĠØ§ÙĦØ¨ØŃØ±":2491,"ĠØ§ÙĦØªØ¹Ø§":2492,"ĠØ§ÙĦØ£Ø®":2493,"ĠØ§ÙĦÙħØ¹Ø§Ø¯ÙĨ":2494,"ĠÙĥÙĪ":2495,"pl":2496,"ĠØ¨Ø§Ø":2497,"ĠØ§ÙĦØªØ¬Ø§Ø±ÙĬØ©":2498,"ĠÙĦÙĥÙħ":2499,"¦ÙĬ":2500,"ØŃØ§Ù":2501,"ĠÙĪØ¯":2502,"Ġprice":2503,"Ø·Ø§Øª":2504,"ĠØ§ÙĦÙĤÙ":2505,"ĪÙĤÙģ":2506,"ĠØ±ÙħØ":2507,"ĠØ§ÙĦØ¥Ø³ÙĦØ§":2508,"ĠÙħØ¬Ø§ÙĦ":2509,"out":2510,"ĠØ§ÙĦÙħØªÙĨÙĤÙĦØ©":2511,"Ø³Ø¹Ø±":2512,"ĠÙħØ·Ø§ØŃÙĨ":2513,"ĠØ§ÙĦÙĦØºØ©":2514,"ĨØ¯Ø§":2515,"ĠØ³ÙĨÙĪØ§Øª":2516,"ĠØ§ÙĦØªØ±":2517,"ÙĤÙĤ":2518,"Ø¬Ø§Ø±":2519,"·ÙĨ":2520,"ĠØ³Ø¨ØªÙħØ¨Ø±":2521,"ÙģØ§ÙĤ":2522,"ĠØ§ÙĦÙħØ¹Ø":2523,"ĠØ£ÙĨÙĩØ§":2524,"¸Ø§Ø":2525,"Ø±Ø§Ø¶":2526,"ÙĬØ§Ø±Ø§Øª":2527,"ÙĥØªØ":2528,"ĠØµØºÙĬØ±":2529,"ĠÙĨÙĬ":2530,"ÙĪØ±ÙĥØ³":2531,"ĠÙĪÙĥØ":2532,"ÙĬØ±Ø§Ø":2533,"Ø³Ø§Ùħ":2534,"tr":2535,"ĠØ§ÙĦØªØ£":2536,"®ØµØµ":2537,"ĠØ§ÙĦØ³ÙĬØ§Ø±Ø§Øª":2538,"ĠØ¹Ø±ÙĪØ¶":2539,"ĠÙĬÙĨØ§ÙĬØ±":2540,"ĠÙĬÙĪÙĨÙĬÙĪ":2541,"ment":2542,"ÙħØ§ÙĬØ©":2543,"ĠÙĦÙĪ":2544,"ĠØµØ":2545,"Ø¹ÙĦØ§Ùħ":2546,"ÙĦØºØ§":2547,"ĠØºØ±":2548,"ĠÙĦÙħØ§":2549,"99":2550,"Ø³ØªÙĬ":2551,"Ø²Ø§Ø":2552,"ĠÙĪØ´":2553,"ĠØ§ÙĦØ´Ø¹Ø±":2554,"ĠØ¹Ø±":2555,"ĠØ§ÙĦØ¹Ø§ÙĦÙħÙĬØ©":2556,"Ø¶Ø§Ø¡":2557,"Ø¬Ø²Ø§Ø¡":2558,"ĠÙĪØ§ÙĦØ¨":2559,"get":2560,"ĠØ§ÙĦØ¹Ø±Ø§ÙĤ":2561,"ĠØ§ÙĦØ§ÙĨØªØ±ÙĨØª":2562,"ĠØ§ÙĦØ¬Ø²Ø§Ø¦Ø±":2563,"«Ø§Ø«":2564,"ĠØ§ÙĦÙħØ´Ø§":2565,"ÙĤÙĪ":2566,"ĠØ§ÙĦØ¥ÙħØ§Ø±Ø§Øª":2567,"ĠØµÙĬØ§ÙĨØ©":2568,"ÙħØ§Ø¯":2569,"ĠÙģØ¹":2570,"ĠØ£ÙĤ":2571,"ÙĪØ§Ø±Ø":2572,"23":2573,"ĠØ§ÙĦØ£Ø±":2574,"±ÙĪÙĨÙĬØ©":2575,"ĠÙĨØ·Ø§ÙĤ":2576,"ĠØŃØ¬Ùħ":2577,"ww":2578,"ĠÙĪØ·":2579,"Ø¨Ø±Ø§ÙĬØ±":2580,"ÙĩØ¬":2581,"ĠØ§ÙĦÙĤØ±Ø":2582,"ĠÙħÙĨØ·ÙĤØ©":2583,"·ÙĬ":2584,"ĠØ§ÙĦØ¹ÙĦÙħÙ":2585,"Ø±Ø§Ø©":2586,"ĠØ§ÙĦØ³ÙĪÙĤ":2587,"Ø¨Ø§Ø·":2588,"Ø³Ùī":2589,"ĨÙĪØ¹":2590,"µÙĪÙĦ":2591,"ĠÙĥÙħ":2592,"tp":2593,"ĠÙĦØ·":2594,"ĠÙħÙĥ":2595,"ate":2596,"ĠÙĦØ¹Ø¨Ø©":2597,"ĠØ¥Ø³":2598,"ĠØ§ÙĦØŃÙĬØ§Ø©":2599,"ħØ¨ÙĬÙĪØªØ±":2600,"ÙĬØ¯Ø©":2601,"ĠÙĪØªØŃ":2602,"ÙĪÙĦÙĬ":2603,"ºØ°Ø§":2604,"are":2605,"ĠÙĦÙĦØµ":2606,"ªØ®":2607,"ĠÙħØ§Ø":2608,"ĠØŃØ¯":2609,"ĠØŃÙĬ":2610,"60":2611,"ĠÙĤØ·Ø±":2612,"ĪÙĩØ°Ø§":2613,"ĠØ£ÙħØ§":2614,"ÙĪÙĩØ°Ø§":2615,"ĠØªØ®":2616,"ĠÙĬØ´":2617,"ĠØ´ÙĬØ¡":2618,"ĠØ§Ø³Ùħ":2619,"ĠØªÙĩØ":2620,"ĠÙħØ§ÙĬÙĪ":2621,"ÙħÙĥØ§ÙĨ":2622,"ĠØªÙģ":2623,"ŃØ§Ø":2624,"ĠØ§ÙĦØ£Ø®Ø±Ùī":2625,"ÙĦÙĪÙĨ":2626,"ĠØ¨ÙĦØ§":2627,"ÙĩØ°Ùĩ":2628,"ħØ¯ÙĬÙĨØ©":2629,"ÙħÙħ":2630,"ĠÙĪØ¬ÙĪØ¯":2631,"Ø¹Ùī":2632,"ĠØ§ÙĦØ´Ø¹":2633,"Ø³ÙĪÙĦ":2634,"ĠØ§ÙĦØ±Ø³":2635,"ÙĬØ±Ø§Øª":2636,"ĠØ³ÙĪÙģ":2637,"ĠâĢ¦":2638,"ĠØ§ÙĦØ¯ÙĬÙĨ":2639,"ÙħÙĪØ¯":2640,"ĠØ¬ÙĩØ§Ø²":2641,"ĠÙĨØŃÙĨ":2642,"ÙħØ¨":2643,"µØ§Ø¯Ø±":2644,"Ø¨Ø±Ø©":2645,"ÙĨØ§Ø©":2646,"ÙĥÙĬÙĦ":2647,"ÙħÙĪØ¯ÙĬØ©":2648,"ĠØ§ÙĦÙĩÙĬ":2649,"ĠØ±Ø§Ø¦":2650,"ÙģØ¸Ø©":2651,"ang":2652,"ĠØ§ÙĦØ¥ÙĨØ³Ø§ÙĨ":2653,"·Ø§Ù":2654,"ĠØ£Ø«":2655,"ĠØ§ÙĦÙħØ§ÙĦÙĬØ©":2656,"ĠØ§ÙĦÙħÙĬØ§Ùĩ":2657,"ive":2658,"ĠØ¹Ø¯Ùħ":2659,"ĠØ§Ø®Ø":2660,"Ø¹ÙĨÙĬ":2661,"ĠØ§ÙĦØºØ§":2662,"ĠØ§ØŃØµÙĦ":2663,"ĠÙħØ§ÙĥÙĬÙĨØ©":2664,"Ø¶ÙĬØ©":2665,"od":2666,"ÙĩÙĪØ±":2667,"ĪØ¯ÙĬ":2668,"·ÙĬØ¹":2669,"ÙĤØ§Ùħ":2670,"Ø±Ø¦ÙĬØ³":2671,"ĠØ§ÙĦÙħÙĦÙĥ":2672,"ÙĦØ§Ø©":2673,"ĠÙħØ®":2674,"ĠÙĪÙĦØ§ÙĬØ©":2675,"¤Ø":2676,"ĠÙĪØ¶Ø¹":2677,"ĠØ§ÙĦØ·Ø¨ÙĬ":2678,"ÙģØ´":2679,"Ø³ÙĪØ§":2680,"ÙħÙĪØ±":2681,"Ú©":2682,"Ġus":2683,"ÙĥÙĬÙģÙĬØ©":2684,"Ø¬Ø²":2685,"ĠÙħØµØ§ÙĨØ¹":2686,"ÙģÙĬØ±":2687,"ĠØ§ÙĦØªØ¹ÙĦÙĬ":2688,"ĠØ§ÙĦÙħÙĦØ§":2689,"µÙĬ":2690,"ĠÙĥØªØ¨":2691,"µÙħ":2692,"ĠØ¥Ø¯Ø§Ø±Ø©":2693,"ĠÙħØ¹ÙĦÙĪÙħØ§Øª":2694,"ĠØ³ÙĪÙĤ":2695,"ĠÙĪØ§ÙĦØ¬":2696,"ach":2697,"ĠÙĪÙĦ":2698,"ĠØ§ÙĦÙĨÙģØ·":2699,"Ġth":2700,"ÙĦØµ":2701,"Ø¹ÙĦØ§ÙĨ":2702,"ĩÙĨØ¯":2703,"ap":2704,"Ø¹ÙĦÙĬÙħ":2705,"Ø³ØŃÙĤ":2706,"ĠØ§ÙĦÙħØ´":2707,"ØµÙģØ§Øª":2708,"ĠØªØ±Ø§":2709,"//":2710,"ĠØ±ÙĪØ§":2711,"ĠØªØ·":2712,"ĠØªÙĨØ§":2713,"Ġ$":2714,"ĠÙĬÙĪÙĦÙĬÙĪ":2715,"ĠØ§ÙĦÙħØ®Øª":2716,"µØ§Ø¦":2717,"ĠÙħÙĨÙĩ":2718,"ĠÙĪØ²Ø§Ø±Ø©":2719,"ort":2720,"27":2721,"ÙĬØ¯ÙĬÙĪ":2722,"ĠØ§ÙĦÙħØ«":2723,"ĠØ§ÙĦØ£ÙħØ±":2724,"ĠÙģÙĤØ¯":2725,"ĠâĢı":2726,"ĠØ§ÙĦØ·ØŃÙĨ":2727,"ĠÙĥØ§ÙģØ©":2728,"ĠØ§ÙĦØ£Ø¹ÙħØ§ÙĦ":2729,"ĠØ§ÙĦÙħØŃØ¬Ø±":2730,"Ø³Ø³Ø©":2731,"Ø²Ø§Øª":2732,"ÙģØ§Ø¡Ø©":2733,"Ø´Ø":2734,"±Ø¨Ø¹":2735,"ĠÙĪÙĩ":2736,"ĠÙĪØ§ÙĦÙħ":2737,"Ø³ØªØ·ÙĬØ¹":2738,"ĠÙħØ±Ø©":2739,"ĠØ§ÙĦØ¬ÙĪØ¯Ø©":2740,"ªØ§Ø¦":2741,"ÙĤØ§Ø¡":2742,"ªÙģ":2743,"ĠØŃØ¯ÙĬØ«":2744,"Ù¢":2745,"ÙĥØ³Ø§Ø±Ø§Øª":2746,"ªØ§Ø±":2747,"Ø¨ÙĪÙĥ":2748,"ÙĤØ¨ÙĦ":2749,"¤ÙĬØ©":2750,"ĠØ¶Ø¯":2751,"ÙĬØ¬Ø©":2752,"Ø·Ø§Ø±":2753,"ĠÙĦÙĦÙģ":2754,"¶Ø±":2755,"Ø¯ÙĬÙĪ":2756,"ĠÙħÙĥØ§ÙĨ":2757,"ªÙħØ¯":2758,"ÙģÙĦØ§Ùħ":2759,"28":2760,"ÙħÙĩÙĪØ±ÙĬØ©":2761,"Ø§ÙĦÙĩØ§":2762,"ÙĩØ¯Ùģ":2763,"ĠØ§ÙĦØ£Ø¨":2764,"ĠØ¹ÙĦÙĬÙĥ":2765,"ĠØ¥ØŃ":2766,"ªØ§Ø¦Ø¬":2767,"ĠØ¨ÙĪ":2768,"²Ùħ":2769,"ĠÙĪØ±Ø":2770,"ÙĪØ´":2771,"ÙħÙĪØ°Ø¬":2772,"§ÙĤØ±Ø£":2773,"ĠØ§ÙĦØ¬Ø²":2774,"Ø§ÙĤØ±Ø£":2775,"ĠÙĦØ°ÙĦÙĥ":2776,"°ÙĥØ±":2777,"ĠÙĦÙĩØ":2778,"Ø¹Ø¶Ø§Ø¡":2779,"Ø¨ÙĤ":2780,"ĠØ§ÙĦØªØ¹ÙĦÙĬÙħ":2781,"ĠØ§ÙĦØ£Ø³Ø":2782,"ĠØ¬ÙĪØ¯Ø©":2783,"ħÙĦÙĬÙĪÙĨ":2784,"ĠØ¨ÙĢ":2785,"ĠØ§ÙĦØŃÙ":2786,"Ø¦Ø©":2787,"ĠÙĪÙĩØ°Ø§":2788,"ÙħØ«ÙĦ":2789,"age":2790,"ĠÙģØ¨Ø±Ø§ÙĬØ±":2791,"ĠÙĪÙħØ¹":2792,"ªØ´":2793,"ĠÙĪØ£ÙĨ":2794,"ĠØ¹ÙħØ±":2795,"ĠØ¹ÙĨÙĩ":2796,"ĠØ§ÙĦØªÙĪØ§ØµÙĦ":2797,"ex":2798,"ĠØ¨Ø§ÙĦÙģ":2799,"ªØ§Ø¨Ø¹Ø©":2800,"Ø¨ÙĪØ¨":2801,"ĠØ§ÙĦØ¯ÙĪÙĦØ©":2802,"ÙħÙĦÙĬÙĪÙĨ":2803,"ÙĥÙħØ©":2804,"ĠØ³ÙĬØ§Ø±Ø§Øª":2805,"ĠØ£ÙĩÙħ":2806,"ĠØ§ÙĦØ®Ø±Ø³Ø§ÙĨØ©":2807,"ĬØ³Øª":2808,"ĠÙħØªÙĪ":2809,"26":2810,"ĠØ¨Ø§Ø³ØªØ®Ø¯Ø§Ùħ":2811,"ĠÙĦÙĦØ¨":2812,"ĠØ¨ÙĨÙĩØ§":2813,"ĠÙħÙħØ":2814,"ªÙĦ":2815,"§Ø¦Ù":2816,"ĠÙħØ®ØªÙĦÙģØ©":2817,"¬Ø¯":2818,"Ø³Ø¹Ø§Ø±":2819,"ĠØ£ØºØ³Ø·Ø³":2820,"ĬÙģØ©":2821,"ĠØ§ÙĦØ®Ø§Ø±Ø¬":2822,"ĠØ§ÙĦÙħØºØ±Ø¨":2823,"ĠØ§ÙĦØ®Ø¯ÙħØ§Øª":2824,"ĠÙħØ¨Ø§Ø´Ø±":2825,"ĠØ§ÙĦØ³ÙĨØ©":2826,"ĠÙħÙĦ":2827,"ĠØ¥Ø":2828,"ÙĤÙĨÙĬØ©":2829,"ÙĤÙĨ":2830,"ĠØ§ÙĦÙĤØ§ÙĨÙĪÙĨ":2831,"ĠÙĦÙĦÙĤ":2832,"ħÙĥÙĨ":2833,"Ø¯ÙĬØ±":2834,"ĠÙħØ³ØªÙĪÙī":2835,"ĠØ§ÙĦØ«Ø§ÙĨÙĬØ©":2836,"ĠÙĦØªØŃ":2837,"ªÙĥ":2838,"Ø¯Ø§ÙĬØ©":2839,"Ø¬ÙĬØ±":2840,"ĠÙħÙĦÙĬÙĪÙĨ":2841,"ÙĪØ§Ø¦Ø¯":2842,"ĠØ§ÙĦØ¯ÙĪÙĦÙĬ":2843,"ĠØ£Ø±":2844,"ĠÙĦÙĢ":2845,"ĠØ§ÙĦÙģØµÙĦ":2846,"ĠØ§ÙĦØªÙĥØ³ÙĬØ±":2847,"ĠØ®Ø§":2848,"Ø±Ø§Ø¯":2849,"ĠØ§ÙĦØªÙĨ":2850,"ĠØ§ÙĦØ§Ø³ØªØ":2851,"ĠØ¶ÙħÙĨ":2852,"Ġ2015":2853,"ĨÙĬØ³":2854,"ĠØ£Ø·":2855,"âĢİ":2856,"ĠØ§ÙĦÙħÙĬ":2857,"ØŃØµ":2858,"·Ø¨ÙĬÙĤØ§Øª":2859,"·Ø§ÙĨ":2860,"ĠÙħØ¨Ø§Ø´Ø±Ø©":2861,"ºÙĬÙĬØ±":2862,"ĠØ§ÙĦÙħÙĩ":2863,"ĠØ§ÙĦØ´Ø§Ø´Ø©":2864,"ĠØ§ÙĦØ«ÙĤÙĬÙĦØ©":2865,"ĠØ§ÙĦØ§ØªØµØ§ÙĦ":2866,"ect":2867,"ĠØ§ÙĦØªØ§Ø±ÙĬØ®":2868,"ĠØŃØ²":2869,"ĠØ±ÙĬØ§Ø¶":2870,"ĠØ§ÙĦØµÙģ":2871,"Ø§ÙĦØªØ":2872,"ĠØµÙĨØ§":2873,"ÙħØ´":2874,"ĠÙħÙĪØ§ÙĤØ¹":2875,"ĬÙĪØ¬Ø¯":2876,"ĠØ±Ø¬":2877,"ost":2878,"ÙĦØ²":2879,"ÙħÙĬØª":2880,"Ġ23":2881,"¶ÙħÙĨ":2882,"°Ø©":2883,"ĠØªØ±ÙĥÙĬØ§":2884,"ish":2885,"ŃØ§Øª":2886,"ĠØ§ÙĦØµÙ":2887,"ÙĥÙĦØ©":2888,"ĠØªÙĤÙĪÙħ":2889,"ĪÙĥØ§ÙĨ":2890,"Ø§ÙĦØ¹":2891,"ĬØ¹Ø":2892,"ØµÙĪØ±":2893,"ĠÙģÙĬÙħØ§":2894,"ĠØ§ÙĦØªÙĤ":2895,"ĠØ§ÙĦÙħØ®":2896,"one":2897,"ºØ§Ø":2898,"ÙĪÙĥØ§ÙĨ":2899,"ÙĬÙĪØ¬Ø¯":2900,"ÙĬØ¹Ø":2901,"ĠØ£Ø¹":2902,"ÙĨØ¬ÙĦÙĬØ²ÙĬØ©":2903,"ÙĥØ±ÙĬ":2904,"ĨÙģÙĬØ°":2905,"µØ§Ø¯":2906,"ĠØ§ÙĦØµÙĨØ§Ø¹ÙĬØ©":2907,"ªØ§Ø¨Ø©":2908,"ĠÙĪÙĦÙĬ":2909,"ĠØ£Ø¨ÙĬ":2910,"ĠÙģØªØŃ":2911,"ÙĦØ·":2912,"ÙģØªØ":2913,"ĠØ§ÙĦÙħØ±Ø£Ø©":2914,"ĠØ£Ø¨Ø±ÙĬÙĦ":2915,"ĠØ§ÙĦØ£Ø³Ø·ÙĪØ§ÙĨØ©":2916,"ÙĪØ±Øª":2917,"ĠØªÙĤØ¯ÙĬÙħ":2918,"Ø¹ÙĦØ§ÙĨØ§Øª":2919,"ÙĪØ±Ø¯":2920,"ĠØ§ÙĦØµÙĪØ±":2921,"Ġst":2922,"Ġ2013":2923,"Ġ26":2924,"ĠØ¨ØªØ":2925,"ÙĬØ±ÙĬØ§":2926,"ÙģÙĪ":2927,"ĠÙģØ±":2928,"Ġ2014":2929,"Ø¨Ø«":2930,"ant":2931,"ĠØ§ÙĦØªØ¯Ø§ÙĪÙĦ":2932,"ÙĦØ¨Ø§Øª":2933,"Ġre":2934,"ĠØ§Øµ":2935,"ÙĬØ³Øª":2936,"ĠØ¯ÙĪØ±":2937,"Ø£ÙĬ":2938,"ĠÙħØ³ØªØ¹ÙħÙĦØ©":2939,"ĠÙĪØ³ÙĦÙħ":2940,"ĠØ³Ø±ÙĬ":2941,"ĠÙħØ§ÙĥÙĬÙĨØ§Øª":2942,"art":2943,"ĠÙĦÙĦØ¬":2944,"ite":2945,"ĠØ¹Ø´Ø±":2946,"Ø³ØªØ«ÙħØ§Ø±":2947,"ÙĥÙĪÙĬÙĨ":2948,"ĠØµÙĦÙī":2949,"://":2950,"Ø³Ø·ØŃ":2951,"ĠØ§ÙĦÙĢ":2952,"Ø¯Ø§Ùģ":2953,"ĨØŃÙĪ":2954,"ØŃØ°ÙĬØ©":2955,"¶Ø©":2956,"ĠØ§ÙĦØ¹ÙħÙĦØ§Øª":2957,"ĠØ§ÙĦØ§ØŃØª":2958,"ĠØ®ÙĦÙģ":2959,"µØ§Ø¨":2960,"Ø¹Ø¯Ø¯":2961,"ĠØ§ÙĦØ£ÙĨ":2962,"ÙĩØ§Ø±":2963,"ction":2964,"ĠÙĪØŃØ¯Ø©":2965,"ĠÙħÙĥØ§ÙģØŃØ©":2966,"ØŃÙĦÙĤØ©":2967,"ĬØ¹ÙħÙĦ":2968,"ÙĬØ¹ÙħÙĦ":2969,"Ø¨Ø¹Ø©":2970,"Ø¨ÙĦØ©":2971,"ĠÙĪØ§ÙĦØ®":2972,"ØªØ¨":2973,"ÙħØ¹ÙĬØ©":2974,"ĠØ§ÙĦÙĤØ±Ø¢ÙĨ":2975,"Ø¯ÙĨÙĬ":2976,"nd":2977,"ĠØªÙĤØ¯Ùħ":2978,"ĠØ§Ø³Ø¹Ø§Ø±":2979,"ÙĨØŃÙĪ":2980,"ĬÙĦÙĬ":2981,"ĠØ¯Ø§Ø¦":2982,"ÙĬÙģØ©":2983,"ĠØ§ÙĦÙħÙĨØ²ÙĦ":2984,"ĠÙĦØ¯Ùī":2985,"¬Ø§Ù":2986,"ĠØ²Ø§":2987,"Ø¯Ø¡":2988,"ĠØ§ÙĦØ¬Ø±Ø§ÙĨÙĬØª":2989,"ÙĤÙģ":2990,"ĠÙħØŃØ¬Ø±":2991,"Ġ&":2992,"Ġ{":2993,"ĠØ§ÙĦØ³ÙĦØ§Ùħ":2994,"ĠØ±ÙĬÙħÙĪÙĨ":2995,"Ġ27":2996,"Ø¨Ø§Ø³":2997,"¬ÙĪ":2998,"Ø¶ÙĬØ¹":2999,"ÙĦÙħØ§ÙĨÙĬØ§":3000,"Ġ22":3001,"ĠÙĬØ¹Ø":3002,"ĠØ§ÙĦØ¬Ø§ÙħØ¹Ø©":3003,"ĠØ§Ø¹Øª":3004,"ĠÙĦÙĦÙħ":3005,"ĠâĢ¬":3006,"ĠØ®Ø§Øµ":3007,"±Ø§ØªÙĬØ¬":3008,"ĠØ§ÙĦÙĪØ·ÙĨÙĬ":3009,"ĠÙħÙĦØ§Ø¨Ø³":3010,"ħØ§ÙĦÙĬØ":3011,"ĠØ§ÙĦÙħØº":3012,"ØŃØ¸":3013,"ĠÙĨØ¸":3014,"ÙĬØ§Ø³":3015,"ØŃÙħÙĦ":3016,"ØŃØ§Ø¨":3017,"ĠØ¯ÙĦÙĬÙĦ":3018,"ĠØ§ÙĦØ¯ÙĪÙĦ":3019,"ĠØ§ÙĦÙģØ±ÙĨ":3020,"ĠØ§ÙĦÙħØ¬ØªÙħØ¹":3021,"ĠÙĪØ§ÙĦØ·":3022,"ĠØ§ÙĦØ¯Ø§Ø®":3023,"±Ø¬ÙħØ©":3024,"40":3025,"ĠØ¯ÙĪÙĦØ©":3026,"ÙĪÙĨÙĬ":3027,"ĠØ¨Ø§ÙĦØ£":3028,"âĢĿ.":3029,"ÙħØ§ÙĦÙĬØ":3030,"ah":3031,"ube":3032,"ĠØ¨Ø§ÙĦØ¥Ø¶Ø§ÙģØ©":3033,"ĠÙĨØŃÙĪ":3034,"ĠÙĦÙĦØ´":3035,"Ø¯Ø±Ø³Ø©":3036,"ÙĦØ¨Ø©":3037,"Ø²Ùħ":3038,"ĠÙĪØ§Øª":3039,"ĠØ§ÙĦØ±ØŃ":3040,"ÙĤØ§Ø¦":3041,"ÙĩÙĬÙħ":3042,"ĠØ§ÙĦÙħØ§ÙĦ":3043,"ĠÙħØ²":3044,"ÙĪÙĬØª":3045,"ÙĬØ±Ø":3046,"Ø³ÙĪØ¯":3047,"ĠÙĬØ³Øª":3048,"Ø¥ÙĨ":3049,"ĠÙĥÙĦÙħØ©":3050,"Ø¹Ùĩ":3051,"Ø±Ø¦":3052,"ĠØ§ÙĦØ³ÙĬØ¯":3053,"ÙĤØ§Ø±":3054,"ÙĦÙĬÙģ":3055,"100":3056,"ĠØ§ÙĦÙģÙĪØ±ÙĥØ³":3057,"ĠØ¨Ø·Ø§":3058,"ĨÙĪØ§Øª":3059,"ĠÙģØ±ÙĬÙĤ":3060,"ÙĪØ§Ø±ØªØ²":3061,"ĬÙĤÙĪÙĦ":3062,"ĠØ§ÙĦØªØ³":3063,"¶ÙĪ":3064,"ÙĬÙĤÙĪÙĦ":3065,"Ø¨ÙĪÙĨØ§Øª":3066,"±Ø§Ø±":3067,"ÙĥÙħØ§":3068,"ĨØ³Ø¨Ø©":3069,"¶Ø§Ù":3070,"ĠØ¥Ø¹Ø§Ø¯Ø©":3071,"Ø¯ÙĪÙĨÙĬØ³":3072,"ĠØ´Ø¨ÙĥØ©":3073,"ÙĪÙĬÙĤ":3074,"ĠÙĪØ¢":3075,"Ø¨ÙĬØ¯":3076,"se":3077,"ĠÙĤØ¯Ø±Ø©":3078,"ĠØ§ÙĦØ¯ÙĪÙĦÙĬØ©":3079,"ĠØ¯ÙĪØ±Ø©":3080,"ĠÙĪØ§ÙĦØ´":3081,"ĠØ§ÙĦØ¬ÙĩØ§Ø²":3082,"ĠØ¹ÙĦÙħ":3083,"µØ±Ùģ":3084,"rusher":3085,"ĠØ§ÙĦÙħØ®ØªÙĦÙģØ©":3086,"ÙĨØ§ÙĬØ©":3087,"ob":3088,"Ø·Ø¹Ø©":3089,"ĠØ§ÙĦØ£Ø·ÙģØ§ÙĦ":3090,"ÙħØ±Ø©":3091,"==":3092,"ÙĤÙĩ":3093,"ÙħÙĨØ©":3094,"Ø¯ÙĬØ§Øª":3095,"Ø¨Ùī":3096,"ØŃØ¶":3097,"ĠØ§ÙĦÙĬØ§":3098,"ĠØ³ØªØ":3099,"ÙħØ§ÙĦÙĬØ²ÙĬØ§":3100,"ĠØ§ÙĦÙĨØ¸Ø§Ùħ":3101,"ĠÙĬØ¤":3102,"ĠÙĦØµ":3103,"ĠØ¨ÙĬØª":3104,"ØŃÙĬÙĨ":3105,"ĠØ§ÙĦØ¹Ø±Ø¨":3106,"ĠØ§ÙĦØŃØµÙī":3107,"Ø±Ù":3108,"ĠØ±Ø³":3109,"Ø¹Ø¯Ø§":3110,"Ø¯Ø³":3111,"ĠØ§ÙĦØ¥ÙĨØªØ§Ø¬":3112,"Ø¯Ø§Ø«":3113,"ĠØ¨Ø§Ùĥ":3114,"Ø·ÙĦØ§ÙĤ":3115,"ĠÙĤÙĪØ©":3116,"ĠØ§ÙĦÙħØªÙĪ":3117,"Ø§ÙĦÙĪØ":3118,"Ø³ØªØ§":3119,"´Ø®Ø§Øµ":3120,"ĠØŃÙĬÙĨ":3121,"ØªÙģ":3122,"ÙĢÙĢÙĢÙĢÙĢÙĢÙĢÙĢ":3123,"df":3124,"ÙħØªØ¹":3125,"ĠØ£ÙħØ§Ùħ":3126,"ÙĬÙĬÙģ":3127,"ĠØ§ÙĦØ±Ø£":3128,"ĪØ³Ø§Ø¦ÙĦ":3129,"ĠØªØ¯Ø§ÙĪÙĦ":3130,"ĠØ§ÙĦÙĤØ§ÙĩØ±Ø©":3131,"ĠÙĬÙĪØ¬Ø¯":3132,"¶Ùħ":3133,"ĠØ§ÙĦÙħØ§Ø¡":3134,"ªØ±ÙĬ":3135,"ÙĪÙĦÙĬØ©":3136,"ĠØ§ÙĦØ±Ø§Ø¦":3137,"ĠØ§ÙĦÙħÙĪØ¶ÙĪØ¹":3138,"ĠØªØ¹Ø§ÙĦÙī":3139,"ĠØ§ØŃØª":3140,"ĠØºØ³ÙĦ":3141,"ÙĤØ§ÙģØ©":3142,"ĠØ£ÙĨØ":3143,"ĠÙĬØ¹ÙħÙĦ":3144,"ĠØ§ÙĦÙħÙĥ":3145,"ĠÙĥØ§ÙħÙĦ":3146,"29":3147,"ĠØ¥ÙĬ":3148,"Ø·ÙĨ":3149,"ĠÙħÙħÙĬØ":3150,"ĪÙĬÙĨ":3151,"Ø±Ø§Ø±Ø©":3152,"ÙĪØ±ÙĪØ¨Ø§":3153,"ÙĩÙĬØ±":3154,"ĠØ§ÙĦØ³ÙĦØ":3155,"ĠØªÙĩØªØ²":3156,"ĠØ§ÙĦÙħÙĨØ·ÙĤØ©":3157,"ĠØªÙģØ³ÙĬØ±":3158,"Ø±Ø§Ø¦":3159,"ĠØ§ÙĦØ£Øµ":3160,"ĠØ§ÙĦÙħØµØ±ÙĬ":3161,"âĢ¬":3162,"Ø¹ÙħÙĦÙĬØ©":3163,"ĠØ§ÙĦØ¬Ø³Ùħ":3164,"¦ÙĦØ©":3165,"ĠØ¯Ø±":3166,"âĢŃ":3167,"ÙĦØ¹Ø§Ø¨":3168,"ĠØ§ÙĦØ¯Ø§":3169,"ħØ³ØªØ":3170,"ĠØ£Ø«ÙĨØ§Ø¡":3171,"Ø«ÙĨÙĬÙĨ":3172,"ĠÙģÙĬØ¯ÙĬÙĪ":3173,"Ø³Ùĥ":3174,"ĠØªÙĪÙģ":3175,"«Ø§Ø±":3176,"ØŃØªØ±Ø§":3177,"ĠÙĦØ§Ù":3178,"ªÙĩØ§":3179,"ÙĳÙı":3180,"ĠÙĪØ¥ÙĨ":3181,"ªØ³ØªØ®Ø¯Ùħ":3182,"ĠÙħØ§ÙĦÙĬØ²ÙĬØ§":3183,"ĠØ§ÙĦÙĪØŃ":3184,"Ġde":3185,"ħÙĦÙģ":3186,"ud":3187,"ĠØ³ÙĪ":3188,"ÙħØ§Ùĥ":3189,"80":3190,"ĠØ§ÙĦÙĨØ¨Ø§Øª":3191,"ĠØ·ÙĦØ¨":3192,"Ø¬ÙĬ":3193,"ight":3194,"ÙĦÙĬÙĩ":3195,"Ø¬ÙĦ":3196,"¶Ø§ÙĨ":3197,"ĠØªØ®Ø":3198,"ÙħØ±Ø§Ø¶":3199,"ÙħÙĬØ³":3200,"ØªØ³ØªØ®Ø¯Ùħ":3201,"ÙĪØ§ÙĤ":3202,"±ØŃ":3203,"ĠØ¨ÙĪØ§Ø³Ø·Ø©":3204,"ĠØ§ÙĦØµÙģØŃØ©":3205,"\"ØĮ":3206,"ÙĪÙĦØ©":3207,"ver":3208,"ÙĬØ¬Ø§Ø±":3209,"ĠÙħÙĪØ§Ø¯":3210,"§Ø¨":3211,"ĠØ§ÙĦÙģÙĦØ³Ø·":3212,"----":3213,"ĠØ§ÙĦØªØ¬":3214,"Ø¬Ø±Ø§Ø¡Ø":3215,"Ø¬Ø¹":3216,"Ġ21":3217,"ĠØ§ÙĦÙĥØªØ§Ø¨":3218,"ĠØ§ÙĦØ±ÙĤ":3219,"....":3220,"ontact":3221,"ĠØ§ÙĦØ£Ø´":3222,"Ø¬Ø±Ø§Ø¡Ø§":3223,"¬Ø§ÙĨ":3224,"ĠØ¹ÙĦØ§Ø¬":3225,"Ø±ÙĬØ¹":3226,"ĠØ§ÙĦÙĤØµ":3227,"Ø¬Ø±Ø§Ø¡Ø§Ø":3228,"ÙĩÙĪØ¯":3229,"¸ÙħØ©":3230,"ĠØ²ÙĬØ§Ø¯Ø©":3231,"ĪØ¨Ø":3232,"ĠØ§ÙĦÙģÙĬØ¯ÙĬÙĪ":3233,"·Ø§Ø±":3234,"Read":3235,"ĠØ¬ÙĬ":3236,"Ùĭ.":3237,"ĠØºØ³ÙĬÙĦ":3238,"ÙħØªÙĦÙĥ":3239,"ĠØ²ÙĬØª":3240,"ĠÙĬÙĤÙĪÙħ":3241,"ÙĩÙĨ":3242,"ĠØ§ÙĦØ¬Ø¨Ø³":3243,"Ġ40":3244,"Ø¯Ùģ":3245,"ĠÙĪØ§ÙĦØ°ÙĬ":3246,"ĠØ§ÙĦØ£Ø·":3247,"iz":3248,"ØŃÙĪÙĦ":3249,"ĠÙħØ´Ø§ÙĩØ¯Ø©":3250,"ĠÙĬØªØ¹":3251,"Ø¯ÙĪÙĨÙĬØ³ÙĬØ§":3252,"ªØ®Ø¨":3253,"ĠÙģØ±ÙĨ":3254,"ÙłÙł":3255,"ĠØ§ÙĦØ£ÙĥØ«Ø±":3256,"ith":3257,"ĠØ§ÙĦÙĪØ·ÙĨÙĬØ©":3258,"ĠØ§ØªØ":3259,"ĠØ±ÙĬØ§ÙĦ":3260,"ĠØ§ÙĦØ¯Ø®ÙĪÙĦ":3261,"ÙħÙĬØ¯":3262,"ÙĥØ±ÙĬØ©":3263,"Ġ500":3264,"ÙĦÙħÙĬÙĨ":3265,"ĠØ§ÙĦØµØ§ÙĨØ¹":3266,"ĠØ§ÙĦÙĨØ§ÙĤÙĦ":3267,"Ø¹Ø§ÙĬØ©":3268,"ĠÙģÙĦØ§":3269,"ĠØ£ÙĦÙģ":3270,"ĠØ¯Ø±Ø¬Ø©":3271,"ass":3272,"ĠØ§ÙĦØ¯ÙĬ":3273,"ÙĨÙĬÙģ":3274,"ÙĨØ§Ùĥ":3275,"ĠØ§ÙĦØ§Ø¨ØªØ¯Ø§":3276,"ĠØ§Ø®ØªÙĬØ§Ø±":3277,"Ø¬Ø±Ø§Ø¡Ø§Øª":3278,"ĠØ¹Ø¯Ø©":3279,"¬Ø§ØŃ":3280,"ĠØ¹Ø§ÙĦÙħ":3281,"ĠØ§ÙĦÙħÙĨÙĪØ±Ø©":3282,"ĠØ¨Ø¹":3283,"ĠÙĨØ´Ø±":3284,"ĠÙĪÙĥØ§ÙĨ":3285,"ÙĥÙĩ":3286,"¬Ø§Ùĩ":3287,"Ø¸":3288,"ĠØ§ÙĦØ¨Ù":3289,"±ÙĪÙĬØ¯":3290,"ĠØ§ÙĦØ£Ø³ÙĩÙħ":3291,"ĠØ³ÙĪØ§Ø¡":3292,"ĠÙħÙĤØ§Ø¨ÙĦ":3293,"tps":3294,"ĠØ¥Ø«":3295,"ĠÙħÙĨØ²":3296,"ĠØ§ÙĦÙħØµØ±ÙĬØ©":3297,"·Ø§Ø¡":3298,"ĠÙħØ®ØªÙĦÙģ":3299,"ÙĩØ§Ø¡":3300,"®ØµÙĪØµ":3301,"ĠÙĤØ§ÙĨÙĪÙĨ":3302,"Ø¯Ø±ÙĪÙĦÙĬ":3303,"ĠØ§ÙĦÙħØ¯ÙĬÙĨØ©":3304,"Ø¹Ø§Ø¯":3305,"ĠØ§ÙĦØ§Ø¬ØªÙħØ§Ø¹ÙĬ":3306,"Ġ250":3307,"ÙĬÙĨÙĬØ§":3308,"ĠÙĦÙĨØ§":3309,"ÙĩÙĪÙĦØ©":3310,"ĠØªØ·ÙĪÙĬØ±":3311,"ÙĦØŃ":3312,"ÙĩÙĬØ©":3313,"°Ø±":3314,"Ġ28":3315,"55":3316,"Ø¬ÙĩØ©":3317,"ĠØ§ÙĦØ¨ÙĬØ§ÙĨØ§Øª":3318,"ĠØ³Ø§Ù":3319,"ĠØ£ÙĦÙħØ§ÙĨÙĬØ§":3320,"ÙĪØ¨Ø":3321,"ĠÙĦØ¯ÙĬÙĨØ§":3322,"Ø³ÙĨØ©":3323,"ĠØ£Ø¹ÙĦÙī":3324,"ªØ²Ø§":3325,"ĠØ§ÙĦØ³ÙĬÙĦÙĬ":3326,"pt":3327,"ĠØ§ÙĦØ¨Ø±ÙĬØ¯":3328,"ie":3329,"ªØ§Ø¨Ø¹":3330,"ĨØª":3331,"ĠÙĬØ±":3332,"ĠÙĬØ£":3333,"´Ø¨":3334,"Ø¯Ø§Ø¹":3335,"ĠØªØ¬ÙĩÙĬØ²":3336,"Ġby":3337,"ĠØ§ÙĦÙĬÙĪ":3338,"ide":3339,"ĠØ£Ùģ":3340,"ĠØ¯Ø±Ø§":3341,"ist":3342,"ĨÙħÙĪØ°Ø¬":3343,"®ÙģØ¶":3344,"WhatsApp":3345,"ĠØ£Ø®Ø¨Ø§Ø±":3346,"ÙģØªØŃ":3347,"ĠØ§ÙĦØºØ°Ø§":3348,"ĠØ§ÙĦØ§ÙĨØª":3349,"ÙĪØ³Ø§Ø¦ÙĦ":3350,"ĠØ¨Ø§Ù":3351,"¤Ø§ÙĦ":3352,"Ø¹ÙĨØ¯":3353,"Ø¨ÙĬØ¹ÙĬØ©":3354,"ÙħÙĦÙģ":3355,"ĠØ£ÙħØ±ÙĬ":3356,"´ØªØ±Ø§":3357,"ĠÙĥÙĩØ±Ø¨Ø§":3358,"ĠÙĪØ¹ÙĦÙī":3359,"ÙĪØ±ÙĪÙĨØ§":3360,"ÙħØ³ØªØ":3361,"¸Ø§Øª":3362,"ÙħÙĪÙ":3363,"µÙĨØ¹ÙĬ":3364,"Ø³Ùģ":3365,"ÙĥÙĪØ±":3366,"ĠÙĪØ²ÙĬØ±":3367,"ĠØ£Ø¯":3368,"ĠÙħØ¨":3369,"ĠÙħØªØ±":3370,"ªÙĨÙĪ":3371,"®ØµØµØ©":3372,"ear":3373,"ĠØªØ³Øª":3374,"Ġ2012":3375,"**":3376,"ÙĦÙĨØ§":3377,"ĠØ§ÙĦÙĦÙĬ":3378,"ÙĪØ¬Ø©":3379,"ÙĤØ¨Ø©":3380,"ĠØ§ÙĦÙĥØ±ÙĬÙħ":3381,"ĠØªØ¹Ø±Ùģ":3382,"ĠÙĢ":3383,"ĠØ¨Ø§ÙĦØ±ÙĬØ§Ø¶":3384,"¬Ø±Ø¨Ø©":3385,"Ġj":3386,"ÙģØŃ":3387,"44":3388,"ĠØ£ØŃØ¯Ø«":3389,"now":3390,"ĠØŃÙĤÙĪÙĤ":3391,"ªÙĨØ³ÙĬÙĤ":3392,"ĠØ§ÙĦØ³Ø¹ÙĪØ¯ÙĬ":3393,"ĠØ¥Øµ":3394,"Ø£Ø®Ø¨Ø§Ø±":3395,"ĪØ±Ø¯":3396,"Ø£ÙģØ¶ÙĦ":3397,"ÙĦÙĬØ¬":3398,"ĠÙħØ³ÙĦØ³ÙĦ":3399,"ĠÙħØ¬Ø§ÙĨÙĬØ©":3400,"ĠØ¨Ø±Ø§ÙħØ¬":3401,"ĠØªÙĪÙģÙĬØ±":3402,"ÙĦØ§Ùĥ":3403,"Ø¯Ø¦":3404,"ĠØ³ÙĬØ±":3405,"®ØªÙĦÙģ":3406,"Ġ}":3407,"ÙĥØ³Ø³ÙĪØ§":3408,"ĠØ§ÙĦØŃÙĥÙĪÙħØ©":3409,"Ø³ÙĬØ¯":3410,"ĠÙģØ£":3411,"ÙĬÙĥ":3412,"ĠØºØ±Ø¨":3413,"ĠØ¨Ø§ÙĦÙĤ":3414,"ÙħØ²":3415,"ÙĦÙĪÙĥ":3416,"ĠØ§ÙĦÙħØ·Ø§ØŃÙĨ":3417,"ÙĦØŃØ©":3418,"ĨÙĤØ§":3419,"ÙĥØªØ¨Ø©":3420,"ĪÙĬÙħÙĥÙĨ":3421,"ÙĨÙħÙĪØ°Ø¬":3422,"ÙĪÙĬÙħÙĥÙĨ":3423,"ĠØ§ÙĪÙĨ":3424,"ĠÙĪÙĦÙħ":3425,"ĠØ§ÙĦØ£ÙĪØ±ÙĪ":3426,"Ø§Ø¨":3427,"ĨØ¯ÙĬ":3428,"ĬØ¹ÙĨÙĬ":3429,");":3430,"ity":3431,"Ø§ÙĦØ®":3432,"Ø²Ø§ÙĦØ©":3433,"ĠØ®ØµÙħ":3434,"Ø¯Ø±ÙĬØ¨":3435,"ĠYou":3436,"ÙĬØ¹ÙĨÙĬ":3437,"ĠØ¯Ø±Ø§Ø³Ø©":3438,"ÙĥØ³Ø³ÙĪØ§Ø±Ø§Øª":3439,"Ø±Ø·Ø©":3440,"ĠØ§ÙĦØªÙĥ":3441,"ĠØªÙĤØ±ÙĬØ±":3442,"±ÙĥØ§Øª":3443,"ĢÙĢÙĢ":3444,"ĠSt":3445,"¬ÙĪØ¯Ø©":3446,"ªÙĬÙĦ":3447,"ÙĦÙĬØ¨":3448,"ĠØ§ÙĦÙħØ´Ø±ÙĪØ¹":3449,"200":3450,"ÙģØ±Ø©":3451,"ĠÙĦÙĩÙħ":3452,"ÙģØ§Ø¸":3453,"ial":3454,"ĠÙĨØµ":3455,"ÙĦÙĤØ§":3456,"ĠÙģÙĪÙĤ":3457,"ÙĬØªØ§":3458,"ĪÙĦØ§Øª":3459,"Ġ300":3460,"ĠÙ¡":3461,"ĠØ§ÙĦØªÙī":3462,"ĠØ§ÙĦØ£Ùĩ":3463,"ĠâĿ":3464,"ĠØ£ÙĬØ§Ùħ":3465,"±ÙĬØ¨":3466,"ĠØ§ÙĦØºØ±":3467,"ĠØ§ÙĦÙĤØ¯Ùħ":3468,"ĠØ¨Ø«":3469,"ĠÙĨÙģØ³Ùĩ":3470,"Ø³ØªØ®Ø¯":3471,"Ø¯Ø±ÙĪÙĬØ¯":3472,"ĠØ¬ÙĨÙĬÙĩ":3473,"Ø¹ÙĨÙĪØ§ÙĨ":3474,"ĠØ§ÙĦÙħØ±ÙĥØ²":3475,"Ø¨ÙĬØª":3476,"ĠØ§ÙĦØ¹Ù":3477,"Ø¨Ø§ØªØ§Øª":3478,"´Ø±ÙĬÙĨ":3479,"ºØ¨":3480,"ĠØ³ÙĪØ±Ø©":3481,"ĠØ§ÙĨØªØ":3482,"ĠØ£Ø®":3483,"´ÙĨ":3484,"ĠØ£Ø´ÙĩØ±":3485,"ĠØ·Ø±ÙĤ":3486,"ÙĨØ¸ÙĬÙħ":3487,"ĠØ§ÙĦØŃÙĬ":3488,"ÙħÙĦØ©":3489,"ĨÙĬØ¬":3490,"ĠØ§ÙĦÙĥÙĪØ§Ø±ØªØ²":3491,"ĠØ±ÙħØ¶Ø§ÙĨ":3492,"ĠÙħØ¬Ø§ÙĨØ§":3493,"ĠØªØ´ØºÙĬÙĦ":3494,"ĠØªØŃÙĤÙĬÙĤ":3495,"ĠØ£Ø¬Ø²Ø§Ø¡":3496,"ØŃØ¯Ø«":3497,"ĠØ£Ø³Ø":3498,"Ø¬ÙħÙĦ":3499,"Ø§ÙĦÙħØ§":3500,"ĠØ§ÙĦÙħØ¨Ø§":3501,"nl":3502,"ðŁ":3503,"ĠØ§ÙĦØ¢Ø®Ø±":3504,"ĠØ§ÙĦÙħÙĪØ±Ø¯ÙĬÙĨ":3505,"ĠÙĪØ¨Ø":3506,"ÙģØ§Ø¶":3507,"ĠÙħØ¹ÙĨØ§":3508,"ĠØ¥Ø¶Ø§ÙģØ©":3509,"Ġ400":3510,"ĠÙĪÙĥØ°ÙĦÙĥ":3511,"ĠØ§ÙĦÙħÙĨØªØ¯Ùī":3512,"ĠØ§ÙĦØ¨ÙĪ":3513,"±ÙĪÙħ":3514,"ĠØºÙĬØ§Ø±":3515,"Ø¨Ø±Ø§ÙĩÙĬÙħ":3516,"ĨÙĪÙĬ":3517,"ĠØ¨ÙĨØ":3518,"ĠØ¬Ø¯":3519,"ħÙĦÙģØ§Øª":3520,"ĠØ§ÙĦØ¹Ø§ÙĦÙħÙĬ":3521,"ħØ¹Ø±ÙģØ©":3522,"ĠØ§Ø³ØªØ®Ø¯Ø§":3523,"ĠØ¹Ø¬":3524,"ÙĨÙĬØ¬":3525,"ĠØ§ÙĦØ±Ø®Ø§Ùħ":3526,"ĠÙħØ¨Ø§Ø±Ø§Ø©":3527,"ĠØ´Ø¹":3528,"ÙģÙĬÙĨ":3529,"ĠØ°ÙĥØ±":3530,"ĠÙĨØ³Ø¨Ø©":3531,"ĠØ§ÙĦØ§Øµ":3532,"ĠÙĦÙĦØ³":3533,"Ø¬Ø§ÙħØ¹Ø©":3534,"ĠØ§ÙĦØ±Ø·Ø¨":3535,"ÙħÙĨÙĬØ©":3536,"ĠÙĥÙĦÙĬØ©":3537,"ØµØ§Ø¨Ø©":3538,"86":3539,"Ø±Ø·":3540,"Ø¨ÙĨÙĥ":3541,"Ø·Ø§ØŃ":3542,"ĠØ¥Ø°":3543,"ĠØµÙĪØ±Ø©":3544,"Ġcom":3545,"ĠØ´ÙĥÙĦ":3546,"Ġtph":3547,"ng":3548,"ĠØ¬Ø¯Ø©":3549,"ack":3550,"ĠØ·Ø¨":3551,"Ġ29":3552,"±ÙĪØ©":3553,"ĠÙħØ¯ÙĬØ±":3554,"ÙĨÙĪÙĬØ©":3555,"ĠØ¨ÙĥÙĦ":3556,"ÙĥØ«":3557,"ªÙĨÙĪØ¹Ø©":3558,"ue":3559,"33":3560,"ĠØ¨Ø§ÙĦÙĨØ³Ø¨Ø©":3561,"ebook":3562,"ĠØ§ÙĦÙħØ§Ø¶ÙĬ":3563,"ĠÙĬØ¹ÙĨÙĬ":3564,"ĠØ§ÙĦØµØŃ":3565,"Ø²ÙĬ":3566,"____":3567,"ÙħÙĦÙģØ§Øª":3568,"ĠØ¬Ø²Ø¡":3569,"ĠÙĦÙĦØŃØµÙĪÙĦ":3570,"ĠØ§ÙĦØ£Ø¯":3571,"ÙĪØ§ÙĨØ§Øª":3572,"®Ù":3573,"·Ø§Øª":3574,"²ÙĬÙĨ":3575,"ĠÙĨÙĩØ§ÙĬØ©":3576,"Ø¨Ùĥ":3577,"ĠÙĥØ£Ø³":3578,"ĠÙĥØ§Ø":3579,"ĠØ§ÙĦÙħØ¹Ø¯ÙĨÙĬØ©":3580,"ĬØ¹ØªØ¨Ø±":3581,"Ø¯ÙĪÙĬØ©":3582,"ĠØ¹Ø§ÙĦÙħÙ":3583,"Ø³ÙĬØ³":3584,"ĠØ§ÙĦØ£ÙĤ":3585,"ÙĦÙħÙĪ":3586,"ÙĬØ¹ØªØ¨Ø±":3587,"Ø§ÙĦØ¯Ø±Ø¯Ø´Ø©":3588,"ĠÙĪØ³Ø§Ø¦ÙĦ":3589,"¬Ø§Ø±ÙĬ":3590,"ĠThe":3591,"ff":3592,"ĪÙĦØ":3593,"ly":3594,"ĠØ§ÙĦÙĤØ§Ø±Ø¦":3595,"ĠØ®Ø§Ø±Ø¬":3596,"ĠØªØŃØªØ§Ø¬":3597,"ĠØ¹ÙĨÙĩØ§":3598,"Ø¬Ø§Ø¬":3599,"ĠØµÙģ":3600,"ĠØ¹ÙħÙĦÙĬØ§Øª":3601,"ĠØ£ÙĨØ§":3602,"ÙĬØ·Ø©":3603,"ai":3604,"±ÙĥÙĬØ©":3605,"ĠØ§ÙĦØ´Ø®ØµÙĬØ©":3606,"ÙħÙĬÙĥ":3607,"Ø±Ø§Ø¹Ø©":3608,"ĬØ¹Ø¯":3609,"ĠØ§ÙĦÙħØ³ØªØ":3610,"ĠØ§ÙĦØ¥Ø³ÙĦØ§ÙħÙĬØ©":3611,"ĪÙĥØ§":3612,"ªÙĪÙĬØ§Øª":3613,"ĠØ§ÙĨØªØ§Ø¬":3614,"ĠØ§ÙĦØ¹ÙĦÙĪÙħ":3615,"ÙĬØ¹Ø¯":3616,"ĠØ£ÙĤÙĦ":3617,"ĠÙĨÙĬØ¬":3618,"ĠØ´Ø±ØŃ":3619,"¶Ø§Ø":3620,"ĠØ§Ùħ":3621,"end":3622,"ĠX":3623,"ĠØ¹Ø±Ø¨ÙĬ":3624,"ĠØ§ÙĦØªØ·Ø¨ÙĬÙĤ":3625,"ĠØ³Ùħ":3626,"rom":3627,"ĠØ¨Ø§ÙĦÙħØ¯ÙĬÙĨØ©":3628,"acebook":3629,"ĠØŃÙĬØ§Øª":3630,"¬Ø±ÙĬ":3631,"ĠÙĬØ±Ø":3632,"Ø¯ÙĬÙĨ":3633,"ĠÙĪÙģÙĤ":3634,"05":3635,"ĠØ£ÙħØ±":3636,"ĠØ§ÙĦØ±Ø³Ùħ":3637,"ĠÙĥØª":3638,"ĠAr":3639,"ĠØ·Ø¨ÙĬ":3640,"ØµØ§Ø":3641,"ĠØ§Ø±ØªÙģØ§Ø¹":3642,"ĠÙĪÙĬÙħÙĥÙĨ":3643,"Ø±Ø³Ø§ÙĦ":3644,"Ø¹Ø¬":3645,"ĠØ§ÙĦØ®Ø¯ÙħØ©":3646,"ĠÙĪØºÙĬØ±ÙĩØ§":3647,"ÙģÙĬÙģ":3648,"ĠØ§ÙĦØ¢ÙĦØ§Øª":3649,"´Øª":3650,"ĠØ´Ø¹Ø±":3651,"ĠØŃÙĦ":3652,"ĠÙĦØ¨ÙĨØ§ÙĨ":3653,"ĠØ§ÙĦØ¹Ø³":3654,"ĠÙĬÙģ":3655,"ĠØ¬Ø§ÙĨØ¨":3656,"ÙĪÙĬÙĦØ©":3657,"Ã©":3658,"Ø³Ø®Ø©":3659,"ĠÙĪØ§Ù":3660,"ĠØªØ¹Ø±ÙĬÙģ":3661,"Ø¨ÙĬÙĨ":3662,"ĠØ¥ÙĦÙĬÙĩ":3663,"Ø¯Ø§Ø±Ø³":3664,"Ø·Ø§ØŃÙĪÙĨØ©":3665,"ĠÙħØ³ØªØ":3666,"ĠÙĦÙĦØ¹":3667,"ªÙĬØ¨":3668,"ĠØªÙĤØ":3669,"ĠØ§ÙĦØºØ±Ø¨":3670,"Ø¬Ø±Ø©":3671,"ĠØ¹Ø²":3672,"45":3673,"ĠØªØŃØ¯ÙĬØ¯":3674,"ĠÙģÙĩÙĪ":3675,"Ġï»":3676,"ĠØ±Ø£Ø³":3677,"ØªØ¹":3678,"ord":3679,"ian":3680,"Ø¯ÙĪÙĬØ±":3681,"ħØ¨Ø§Ø±":3682,"ĠÙĦÙħØ¯Ø©":3683,"ĠØ§ÙĦÙĨÙĩØ§":3684,"ĠØŃÙĤ":3685,"ĠØ§ÙĦÙħÙĩÙ":3686,"ĠØ£Ø¹ÙħØ§ÙĦ":3687,"ĠØ±ÙħÙĦ":3688,"ĠØ§ÙĦÙĪØ²":3689,"âĢ¢":3690,"ĠØ§ÙĦØ®Ø§Ø±Ø¬ÙĬØ©":3691,"ÙħØ¹Ø±ÙģØ©":3692,"±ÙĪØ§":3693,"per":3694,"ĠÙħØ±Øª":3695,"ĠØ±ÙĪØ³ÙĬØ§":3696,"²Ø§ÙĨ":3697,"ĠØ¹ÙħØ§ÙĨ":3698,"ĠÙĦÙģØ©":3699,"ÙĦÙĬÙĥ":3700,"ĠØ±Ø¨":3701,"§Ø³":3702,"ĠØ§ÙĦØ¨ÙĬØª":3703,"ĬØ³ØªØ®Ø¯Ùħ":3704,"Ø§ÙĦÙĥØªØ":3705,"ĠØ£ÙĪØ±ÙĪØ¨Ø§":3706,"ĠÙĪØŃØ":3707,"ĠÙĬÙĤÙĪÙĦ":3708,"ÙĦÙħÙĪØ³Ø©":3709,"ĠØµØ®Ø":3710,"ÙĤØ§Ø¦ÙĤ":3711,"ĠÙģØ¶":3712,"ĠÙĨÙĬØ¬ÙĬØ±ÙĬØ§":3713,"ÙĬØ³ØªØ®Ø¯Ùħ":3714,"ĠØ¹ÙģØ´":3715,"ĠWhatsApp":3716,"ØµÙĬ":3717,"Ø¹Ø§ÙĪÙĨ":3718,"Ø¨Ø§Ø¯":3719,"ÙĨØ§ØµØ±":3720,"Ø³Ø±Ø§Ø¦ÙĬ":3721,"ĠØ§ÙĦØªØ®":3722,"ï¿½ï¿½":3723,"µØ§Ø¯ÙħÙĬØ©":3724,"Ø§ÙĦÙĦÙĩ":3725,"Ø¨Ø±ÙĬØ¯":3726,"ĠØ¨ØŃØ«":3727,"ÙĩØ§Ø¯Ø©":3728,"ĠØ§ÙĦÙĪØ¬":3729,"ÙħØ¨Ø§Ø±":3730,"ĠÙħÙĤØ":3731,"¶Ùī":3732,"¬Ø²":3733,"ÙĬÙĬÙħ":3734,"Ø¹Ø¯Ø¯Ø©":3735,"ÙĬÙĩ":3736,"ĠÙģØªØ±Ø©":3737,"Ø§Ø³":3738,"ÙĪÙĦÙĩ":3739,"´Ø±ÙĥØ§Øª":3740,"ĪØ³Ø·":3741,"Ġpdf":3742,"35":3743,"ĠØ§ÙĦÙĥØ§ÙĦØ³":3744,"ĠGet":3745,"ain":3746,"sp":3747,"ÙĪØ±Ø§ÙĤ":3748,"ĠÙĨØ¬":3749,"aw":3750,"ĠÙĬØ®":3751,"Ġbe":3752,"ĠØ§ÙĦÙħØŃØ§Ø¬Ø±":3753,"ØªÙĥ":3754,"ĠSh":3755,"´Ø±ÙĬ":3756,"ĠØ§ÙĦØ§ØªØŃØ§Ø¯":3757,"ÙģØªÙĪØŃ":3758,"ÙĨØ¸ÙħØ©":3759,"ĠÙĦØ´":3760,"ĠØ§ÙĦØ®Ø§":3761,"ØªØŃÙħÙĬÙĦ":3762,"ØŃØ±ÙĥØ©":3763,"ªØ§Ø°":3764,"ħÙĦÙħÙĪØ³Ø©":3765,"ĠØ§ÙĦØµØŃØ©":3766,"ÙħÙĦÙħÙĪØ³Ø©":3767,"ĠØ§ÙĦØ³ÙĬÙĦÙĬÙĥØ§":3768,"ÙģÙĥ":3769,"Ø³Ø§ÙĨÙĬØ©":3770,"ĠÙĥØ«ÙĬØ±":3771,"ØªÙħ":3772,"06":3773,"ran":3774,"Ø¹ÙħØ©":3775,"ÙĪÙĥØ§":3776,"36":3777,"ĠÙĥÙĦØ§":3778,"ĠÙħØ®Ø·":3779,"37":3780,"ÙĦØ§ÙħØ©":3781,"ªÙħØ±":3782,"ÙĦØ¬":3783,"ast":3784,"ÙĩÙī":3785,"Ø¯Ø±Ø§":3786,"ĠØ§Ø¬ØªÙħØ§":3787,"Ø§ÙĦØ´":3788,"ĠâĢĿ":3789,"ĠØ£Ùĥ":3790,"ĠØ§ÙĦØŃØ²Ø§Ùħ":3791,"Ø¹Ø±ÙĪØ¶":3792,"ĠØ³ÙĪØ±ÙĬØ§":3793,"Ú¯":3794,"ĠØ§ÙĦØ´ÙħØ³":3795,"Ġ::":3796,"ÙĦÙħØ§Ø¡":3797,"gle":3798,"ĠØ§ÙĦØ·Ø¨":3799,"ÙĥØ´Ùģ":3800,"ĠØ§ÙĨÙĪØ§Ø¹":3801,"01":3802,"ĠØ§ÙĦØ¹ÙħÙĦÙĬØ©":3803,"ÙĦÙħØ§Ù":3804,"´Ø·Ø©":3805,"Ø¨Ø¨":3806,"ĠØªØ¯ÙģÙĤ":3807,"ĠØªØ³Ø¬ÙĬÙĦ":3808,"§Ø¦ÙĬØ©":3809,"ĠØªØ±ÙĬØ¯":3810,"lish":3811,"ĠØ§Ø±":3812,"du":3813,"ĠØ²ÙĬØ§":3814,"ĠØ§ÙĦØ§ÙĦÙĥØªØ":3815,"ĠÙĨØªÙĬØ¬Ø©":3816,"Ø³Ø¹Ø©":3817,"ĠØ¥ÙĨØ´Ø§Ø¡":3818,"ep":3819,"ĠØ¨Ø§Ø³Ùħ":3820,"ĠØ§ÙĦØ¬Ø²Ø¡":3821,"ĠØ§ÙĦØªØ±Ø¨ÙĬØ©":3822,"ÙĥØ²ÙĬ":3823,"ÙĦÙĪÙ":3824,"ĠØ§ÙĦÙĥÙĬ":3825,"ĠÙĬØ·":3826,"±ÙĪØ¬":3827,"ĠØ´ÙĬ":3828,"Ø³ØªØ±Ø§ÙĦÙĬØ§":3829,"In":3830,"ĠÙĪØ§Ø³Øª":3831,"²Ø§Ùħ":3832,"ĠØ¬Ø§Ø¡":3833,"ĠØ¹Ø§Ø¦":3834,"ØªØ¬":3835,"ĠØ³Ø±":3836,"´ØªØ±Ùĥ":3837,"Ø¦ÙĬÙĦ":3838,"Ø§ÙĦÙģØ":3839,"Ù£":3840,"ĠÙħØ¹Ø±ÙģØ©":3841,"39":3842,"ĠØ§ÙĦÙĪØµÙĪÙĦ":3843,"ĠØ¬Ø±Ø§":3844,"ĠØ§ÙĦØªÙģØ§ØµÙĬÙĦ":3845,"ØªØ£":3846,"ĠØ¬ÙĦ":3847,"Ø§ÙĦØµÙĬÙĨ":3848,"ĠÙĪØ§ÙĦÙĨ":3849,"ĠØ§ÙĦØµØŃÙĬØ©":3850,"ĠØ§Ø³ØªØ®Ø±Ø§Ø¬":3851,"ÙĬØ±ÙĪØ³":3852,"):":3853,"ĠØ§ÙĦØ³Ø§Ø¨ÙĤ":3854,"Ø±ÙĨØ©":3855,"Ø³Ø³Ø§Øª":3856,"ħØ§ÙĦÙĬØ©":3857,"erv":3858,"ĠÙĩØ§Øª":3859,"®ÙĬØµ":3860,"Ø¥Ø°Ø§":3861,"ĠØ§ÙĦØ£Ø®Ø¨Ø§Ø±":3862,"ÙĬØªÙĩ":3863,"ĠÙħÙĦÙģ":3864,"ĠØ§ÙĦÙħÙĬØ":3865,"ÙĩÙĪØ©":3866,"Ø§ÙĦØ±Ø¦ÙĬØ³":3867,"±ÙĬÙĤØ©":3868,"ÙĪØ¬Ùĩ":3869,"Ġi":3870,"ÙĪØ§ÙĦÙĬ":3871,"ĠØ±Ø³ÙĪÙĦ":3872,"ĠÙħÙĦÙģØ§Øª":3873,"ĠØ¨Ø®":3874,"Ø¯ÙĪÙĤ":3875,"ĠÙħÙĪØ¶ÙĪØ¹":3876,"wit":3877,"Ø·ÙĬØ©":3878,"ĠØ¹Ø§ÙħØ©":3879,"ĠÙĦØ¯ÙĬÙĥ":3880,"ĠØ§ÙĦØµÙĦØ¨":3881,"Ġ2011":3882,"ĢØ":3883,"Ġ199":3884,"ĠØ§ÙĦÙĩØ§ØªÙģ":3885,"ÙħØ±Ø§Ø±":3886,"ØµØ§Ù":3887,"ÙĥÙĪÙĨØ§Øª":3888,"ĠØ¨Ø§Ø¨":3889,"ĠØ§Ø¹Ø":3890,"ĠÙĥÙĪØ±ÙĪÙĨØ§":3891,"Ġ60":3892,"ÙĥØ§ÙĦ":3893,"ĠØ§ÙĦØ¥Ø³ÙĦØ§Ùħ":3894,"ĠØ§ÙĦØ§Ø®Øª":3895,"ĠÙħÙĦÙħÙĪØ³Ø©":3896,"ĠØ®ÙĦ":3897,"Ġal":3898,"ĠØŃØ§ÙĦ":3899,"ĠØ§ÙĦÙĨÙĪØ¹":3900,"ĠÙĦØ§ÙĬÙĨ":3901,"ĠØªÙĤØ¯":3902,"ĠÙĤØ±Ø§Ø¡Ø©":3903,"¦ÙĬØ³ÙĬ":3904,"ĪÙģØ§":3905,"Ø¯ÙĬÙĤ":3906,"ĠØ§ÙĦÙĥÙĩØ±Ø¨Ø§Ø¦ÙĬØ©":3907,"ram":3908,"´Ø§Ø·":3909,"ĠÙĪØ§Ø³Ø¹":3910,"ĠØ¨ÙĪØ":3911,"ĠÙĨÙħÙĪØ°Ø¬":3912,"ĠØ§ÙĦØ¯Ùħ":3913,"ĠØ¹Ø¨Ø§Ø±Ø©":3914,"ÙĤØªØµØ§Ø¯":3915,"ĠÙģÙĦØ³Ø·":3916,"ĠâĢ¢":3917,"ĠÙĦÙĦØ·":3918,"ĠØµØŃÙĬØŃ":3919,"Ø²Ø±":3920,"ĠØ§ÙĦØ¹ÙĬÙĨ":3921,"±Ø§ØªÙĬØ¬ÙĬØ©":3922,"ÙĩØ§ÙĨ":3923,"ÙħØ¨ÙĬ":3924,"ĠØ§ÙĦØ¯ÙģØ§Ø¹":3925,"ĠÙħØ³Ø§Ø¡":3926,"ÙĦÙħØ§ÙĨÙĬØ©":3927,"ĠØ¬ÙĩØ©":3928,"ĠØ§ÙĦØ£Ø®ÙĬØ±Ø©":3929,"ĠØ±Ø¤ÙĬØ©":3930,"ĠÙĦÙĦÙĩ":3931,"ÙĨØ¬Ø§":3932,"Ø§ÙĦÙĬÙģ":3933,"ire":3934,"ØŃØ±ÙĬØ±":3935,"ĠØ§ÙĦØ¨Ø´Ø±":3936,"ÙĬØªÙĬ":3937,"ĠØ«ÙĦØ§Ø«Ø©":3938,"ĠØªÙĬ":3939,"ĠØ§ÙĦØ·Ø±ÙĤ":3940,"Ø£Øª":3941,"ĠØŃØ³ÙĨ":3942,"ĠØ§ÙĦØ§ÙħØ§Ø±Ø§Øª":3943,"ØŃØ§ÙĨ":3944,"Ø¨Ø§Ø¹":3945,"ªØ³ÙĪÙĤ":3946,"Ġ=":3947,"ØµÙħØ©":3948,"ĠYouT":3949,"Ø´Ù":3950,"ÙĦÙħØ§ÙĨ":3951,"Ùª":3952,"aba":3953,"·ÙĪØ±":3954,"ÙĪØ§Ø¹Ø¯":3955,"ĠØ³Ø§Ø¹Ø§Øª":3956,"ĠØ£ØŃØ°ÙĬØ©":3957,"ĠÙħÙħ":3958,"ØªÙĪ":3959,"ĠØ¬ÙĪ":3960,"ĠÙħØ¨Ø§Ø±":3961,"ĠØ£Ø¬ÙĩØ²Ø©":3962,"ĠØ§ÙĦØ¯Ø±Ø¯Ø´Ø©":3963,"ĠØ§ÙĦØªØ§":3964,"ĠØ§ÙĦÙħÙħÙĬØ":3965,"Ø·Ø±ÙĬÙĤØ©":3966,"ĠØ§ÙĦØ¬ÙĨÙĪØ¨":3967,"ĠØ§ÙĦØ¨Ø§Ø±":3968,"ĠØ´Ø§Ø´Ø©":3969,"«Ø§Ø¡":3970,"ÙĦÙĬØŃ":3971,"Ø¨Ø§Ø±Ø§Øª":3972,"ĠØ¥ÙĦÙĬÙĩØ§":3973,"ary":3974,"ĠØ§ÙĦØ¹ÙĦÙħ":3975,"ĠØ§ÙĦØ¹ÙħÙĪØ¯ÙĬØ©":3976,"ĠØ§ÙĦÙĨØ¨ÙĬ":3977,"Ġsh":3978,"ØªØ³ÙĪÙĤ":3979,"ĠØ´Ùĥ":3980,"ĠØ§ÙĨÙĩ":3981,"ĠØ§ÙĦØŃØ¬Ùħ":3982,"ĠØªÙĨØ²ÙĬÙĦ":3983,"Ø®Ø·":3984,"ery":3985,"ĠÙħØ§Ø¯Ø©":3986,"ĠÙħØ³Ø¤":3987,"ĠØ¨Ø¨":3988,"ĠÙĥÙĨØ¯Ø§":3989,"ĠÙĤÙĬÙħØ©":3990,"ĠØ§ÙĦØ¯Ø§Ø®ÙĦÙĬØ©":3991,"ĠØ§ÙĦØ¥ÙĦÙĥØªØ±ÙĪÙĨÙĬØ©":3992,"ĠØ¨Ø´Ø£ÙĨ":3993,"ĠÙħØµØ·":3994,"ĠØ³ÙĥØ³":3995,"ÙħØ§ÙĥÙĨ":3996,"ÙĤØ·":3997,"ĠØªØµØ§Ø¯ÙħÙĬØ©":3998,"ÙħÙĬØ§Ø":3999,"ĠØ§ÙĦØ£Ø³Ø§Ø³ÙĬØ©":4000,"ĠÙħØº":4001,"09":4002,"ĠØ§ÙĦØ¬ÙĨ":4003,"ĠØªØ¹ÙĦÙĬÙĤ":4004,"Ø¨Ø¹Ø¯":4005,"ĪÙħÙĨØ":4006,"Contact":4007,"88":4008,"ĠØ§ÙĦØ§Ø±Øª":4009,"ÙĪØªÙĬÙĪØ¨":4010,"for":4011,"§Ø¦ÙĬ":4012,"Ġ'":4013,"ĠØ¨Øº":4014,"ĠØ¨ÙĬØ§ÙĨØ§Øª":4015,"ĠØ±Ø³Ø§ÙĦØ©":4016,"ĠÙĤÙĨØ§Ø©":4017,"ÙĪÙħÙĨØ":4018,"ĠØºØ":4019,"ĠÙĪØ¸Ø§Ø¦Ùģ":4020,"ĠÙģÙĨÙĬ":4021,"ĠØªØ§Ù":4022,"ĠØªØ²":4023,"±Ø¬Ùħ":4024,"Ø«Ø§Ø±":4025,"ĠØ¨Ø±Ø":4026,"ĠØ´ÙĨØ·":4027,"ÙĬÙĬ":4028,"´Ø§Ø±Ø¹":4029,"Ø³ÙĪØ¹Ø©":4030,"ĠØªØ¹ØªØ¨Ø±":4031,"ĠØ§ÙĦÙħØ¬Ø§":4032,"Ø¯ÙĪÙī":4033,"±ÙĬÙĥ":4034,"ĠØ¯Ø±Ø¯Ø´Ø©":4035,"ħÙĥØªØ¨":4036,"pr":4037,"ÙĲÙĳ":4038,"ĠØ§ÙĦÙĨØ³Ø§Ø¡":4039,"ºØ§ÙĬØ©":4040,"ĠØªÙĪÙģØ±":4041,"\":\"":4042,"ĠÙĪØ±Ø§":4043,"\\/":4044,"Ø±Ø§Ø¨":4045,"),":4046,"Ø¨ØŃØ«":4047,"ĠØ¹Ø±Ø¨ÙĬØ©":4048,"Ø¨Ø§Ø¹Ø©":4049,"ĠÙģØµÙĦ":4050,"ĠØ§ÙĦØ¨ÙĦØ§":4051,"ÙĪÙĬØ¯":4052,"ĠØ§Ø·":4053,"sh":4054,"ĪÙħÙĬØª":4055,"ÙĩÙĦØ©":4056,"ĠÙĨÙĤØ¯Ùħ":4057,"ÙĬØ§ÙĨÙĬ":4058,"ĠØ¬ÙħØ§ÙĦ":4059,"¬ÙĨ":4060,"ÙĥØ¨":4061,"ØŃØ§Ø¡":4062,"ÙħÙĬØ§Øª":4063,"ĠØ«ÙĤÙĬÙĦØ©":4064,"ÙĤØªØ¨Ø§Ø³":4065,"ĠØ§ÙĦÙħØ±ØŃÙĦØ©":4066,"ĠÙ¢":4067,"03":4068,"ĠØ§ÙĦØ¹ÙĦÙħÙĬ":4069,"ĠØ³ÙĬØ§Ø±Ø©":4070,"ÙĪØ¶ØŃ":4071,"ĠÙħØ§Ù":4072,"Ø¬ÙĨØ¨ÙĬØ©":4073,"ĠØ§ÙĦØ¬ÙħØ¹Ø©":4074,"ĠÙĪØ¬Ùĩ":4075,"°ÙĨ":4076,"ĠØµÙĨ":4077,"ĠØ§ÙĦÙħØ·Ø§":4078,"ĠCh":4079,"ÙĦØ§Ø¹":4080,"ĠØ§ÙĦØªÙĥÙĨÙĪÙĦÙĪØ¬ÙĬØ§":4081,"ĠØ§ÙĦØ·ÙģÙĦ":4082,"08":4083,"ĠÙĤÙĪØ§Øª":4084,"ĠØ§ÙĦÙĨØµ":4085,"ibaba":4086,"Ø§ÙĦØªØ§ÙĦÙĬ":4087,"ĪØ§Ø¯":4088,"ĠØ§ÙĦÙĥÙħØ¨ÙĬÙĪØªØ±":4089,"Ø¨Ø§ÙĬÙĦ":4090,"ĠØ®Ø·Ø©":4091,"ÙħÙĨÙĬ":4092,"ÙĪÙĦØ":4093,"ÙĤØ§ÙħØ©":4094,"07":4095,"ĠØ§ÙĦØ¹Ø§Ø¨":4096,"ĠÙĪØªØ±":4097,"ÙĦØ¨ÙĬØ©":4098,"ĠØ¨Ø§ÙĦØŃ":4099,"ug":4100,"±Ø¨Ø¹Ø§Ø¡":4101,"ĠÙĦØ¬ÙħÙĬØ¹":4102,"ĠØŃÙĪØ§ÙĦÙĬ":4103,"ÙĬØ±Ø§ÙħÙĬÙĥ":4104,"ĠMP":4105,"ĠØ´Ø§Ø":4106,"²ÙĬØ¹":4107,"ĠØ£Ø¯ÙĪØ§Øª":4108,"ĠÙĪÙħÙĨØ":4109,"ÙĪØªÙĪ":4110,"ÙĦØ§Ø«Ø§Ø¡":4111,"Ø¯Ø§Ø±ÙĬØ©":4112,"ĠÙĦÙĩØ°Ø§":4113,"ÙĦÙĬØ¯":4114,"ĠØ¹ÙĨÙĪØ§ÙĨ":4115,"ĠØ§ÙĦØ´Ø±ÙĤ":4116,"Ġ150":4117,"±ÙĪØ¨":4118,"ĠÙĪØ§ÙĦÙĨØ":4119,"ĠØ§ÙĦÙĬÙħÙĨ":4120,"ÙĨÙĤØ§":4121,"ÙĤÙĦØ©":4122,"ÙģÙĨ":4123,"oogle":4124,"ĠØªØ³Ø":4125,"±Ø£Ø©":4126,"Ø±ØªÙĩ":4127,"ard":4128,"ĠØ¯Ø§Ø±":4129,"ĠÙĦÙĤØ¯":4130,"Ø§ÙĦÙĬØ§Ø":4131,"®Ø§Ø±":4132,"Ġyou":4133,"ĠUS":4134,"ÙĦÙĪØ§Ù":4135,"ĠÙĬØŃØªÙĪÙĬ":4136,"ĠØ§ÙĦØ§ÙĪÙĦ":4137,"ĠÙĬØ¹ØªØ¨Ø±":4138,"Ø±Ø´ÙĬÙģ":4139,"ĠØ§ÙĦØµÙĬÙĨÙĬØ©":4140,"Ø¹Ø¬Ø§":4141,"ĠÙĬØ¹Ø¯":4142,"ĠÙģØª":4143,"ĠØ§ÙĦØ¨ÙĦØ§Ø¯":4144,"ĠÙĤØ·Ø§Ø¹":4145,"ĠØ§ÙĦÙħÙĨØ§Ù":4146,"ĠØ§ÙĦÙĤÙĬØ§Ùħ":4147,"ĠÙĦØ·ØŃÙĨ":4148,"witter":4149,"Ø§ÙĦØº":4150,"ĠØ³Ø¹ÙĬØ¯":4151,"ĠØ³ÙĦØ":4152,"ĠØ¬ÙĬØ¯":4153,"Ġpl":4154,"ĠÙĥØ°ÙĦÙĥ":4155,"iew":4156,"Ø¯ÙĪØ±":4157,"ĠØ§ÙĦØ³ÙĪØ¯Ø§ÙĨ":4158,"ĠØ§ÙĦØ£Ø´Ø®Ø§Øµ":4159,"ĠØ§ÙĦÙħØ¬ÙĦØ³":4160,"ber":4161,"ĠØ§ÙĦØŃÙħÙĦ":4162,"ĠØ±ØŃ":4163,"ªØ§ØŃØ©":4164,"Ø¯Ø±Ø¨":4165,"Ø¹ÙĬÙĦ":4166,"ĠØ¹Ø·":4167,"ÙħÙĥØªØ¨":4168,"ĠØ§ÙĦÙħØ®Ø±ÙĪØ·":4169,"ĠPro":4170,"ĠØ§ÙĦØ¨Ø±ÙĨØ§ÙħØ¬":4171,"ĠØ¨ØªÙĨØ³ÙĬÙĤ":4172,"ÙĬÙĦÙĬ":4173,"ĠÙĥØ±Ø©":4174,"ĠØ³Ø¨ÙĬÙĦ":4175,"Ø³Ø¯":4176,"ªØ¨Ø¹":4177,"Ø¯Ø±ÙĪÙĦÙĬÙĥÙĬØ©":4178,"Ø³Ø§Ø³":4179,"ĠÙħÙĩØ§":4180,"ĠØ®ÙĦØ§":4181,"ÙģÙĬØ³":4182,"ĠØµÙ":4183,"ĠÙħØ·Ø§":4184,"ÙħØ§Ø¹":4185,"Ġht":4186,"ech":4187,"ĠØ§ÙĦØ³Ø±ÙĬ":4188,"ĠØ§ÙĦØµÙĦØ§Ø©":4189,"ĠÙĩÙĬØ¦Ø©":4190,"ĨÙĤÙĦ":4191,"ĠØ¨Ø¯Ø§ÙĬØ©":4192,"·ÙĪØ©":4193,"ĠØ§ÙĦÙħÙĨØ§Ùħ":4194,"ĠÙĦØ¹":4195,"ĠØŃÙĬØ§Ø©":4196,"Ø³Ø±Ø§Ø¦ÙĬÙĦ":4197,"Ġwith":4198,"ĠØ§ÙĦØ£Ùģ":4199,"ÙĨÙĪÙĬ":4200,"®Ø·ÙĬØ·":4201,"ĠØ§ÙĦØªØ§ÙĦÙĬØ©":4202,"ÙħÙĬÙĦØ©":4203,"¬Ùī":4204,"ĠØ¬Ø±":4205,"¬Ø±Ø¯":4206,"ĠØ£Ø³ØªØ±Ø§ÙĦÙĬØ§":4207,"ÙħØ±ÙĥØ²":4208,"ĠØ§ÙĦÙħÙĪØ§ÙĤØ¹":4209,"µØ§Øª":4210,"ĠØ§ÙĦØ«Ø§ÙĦØ«Ø©":4211,"ĠØ£Ø¶":4212,"ĠØ±ÙĬÙħÙĪÙĨØ¯":4213,"ĠØ§ÙĦØ·Ø¨ÙĬØ©":4214,"38":4215,"co":4216,"ħØ¨Ø¯Ø£":4217,"ÙĦÙĪØ§ÙĨ":4218,"ĠØ¨Ø±ÙĬØ¯":4219,"´Ø§Ø±ÙĥØ§Øª":4220,"ĠÙħØµÙĨØ¹ÙĬÙĨ":4221,"ĠØ§ÙĦØ´ÙĩØ±":4222,"´Ø§Ù":4223,"ªÙĪÙĤ":4224,"ĠØ¹Ø¯":4225,"Ø¨ÙĬØ±Ø©":4226,"Ø¹ÙĦØ§Ø¬":4227,"ĠØªÙģØ§ØµÙĬÙĦ":4228,"ĠØ§ÙĦØ§Ø³ØªØ«ÙħØ§Ø±":4229,"ink":4230,"âĢĿØĮ":4231,"ÙĪØªØ§":4232,"ĠØ§ÙĦÙĩÙĪØ§Ø¡":4233,"ĠØ§ÙĦØ§Ø¬ØªÙħØ§Ø¹ÙĬØ©":4234,"ĠØ¹ÙĤØ¯":4235,"ÙħØŃÙħØ¯":4236,"ĠØ§ÙĦÙĥÙĦ":4237,"ĠØ§ÙĦÙħÙĤØ§ÙĦ":4238,"Ġmore":4239,"66":4240,"ÙħÙĪØ¹":4241,"ĠØ¯ÙĪÙĦ":4242,"ĠØ·ÙĪÙĬÙĦØ©":4243,"Ġat":4244,"ĠÙĪØ¶":4245,"Ø¹Ø«":4246,"ĠÙģØ±Ø":4247,"ĠØ§ÙĦØ¥Ø":4248,"ĪÙĦÙĩ":4249,"ĠØ®Øµ":4250,"ĬÙĦØ§":4251,"Ø¹ÙĪÙĬÙħ":4252,"ĠØ§ÙĦÙĥØ¨ÙĬØ±":4253,"ÙĨØ§Ø¦ÙĬØ©":4254,"Ø³ÙħÙĨØª":4255,"ÙĪØ§ØªÙģ":4256,"ĠÙĬØ³ØªØ®Ø¯Ùħ":4257,"ĠØ§ÙĦØ¶ØºØ·":4258,"Ø®Ø±Ø©":4259,"ĠØ§ÙĦÙĤØ±Ø§Ø¡Ø©":4260,"Ġthis":4261,"ĠQ":4262,"ÙĬØ¬Ø¨":4263,"Ø¨ÙĨÙĬ":4264,"ĠÙĪØ«":4265,"ĠÙħØ¬Ø§ÙĨÙĬ":4266,"ÙħÙĪØ¯ÙĬ":4267,"!!":4268,"ÙĪØ§ÙģÙĤ":4269,"ØªØµØ§ÙĦØ§Øª":4270,"ÙĪØ³Ø·":4271,"¦Ø§Ø":4272,"°Ø¨":4273,"ĠØ§ÙĦØ§ØŃ":4274,"ĠØ§ÙĦØŃØ±":4275,"²ÙĪ":4276,"ÙĨØ¬ÙĦÙĬØ²ÙĬ":4277,"ÙģÙĤØ©":4278,"ÙĥÙĬÙĨ":4279,"ĠÙģÙĩÙĬ":4280,"ĠÙĤØ§Ù":4281,"ĠØ¥ÙĨÙĩ":4282,"ĠØ§ÙĦØ§Ø¹Øª":4283,"Ø´Ùģ":4284,"Ø¨ÙĬÙĩ":4285,"ĠÙħØ±Ø§Ø¬":4286,"ĠØ§ÙĦÙħÙĨØ²":4287,"Ø¯ÙĪØ¯Ø©":4288,"Ġ>>":4289,"Know":4290,"µÙĪÙĬØ±":4291,"ĠÙĪÙĤØ§ÙĦ":4292,"Ø¨Ø±Ùī":4293,"Ø·ØŃÙĨ":4294,"ĠÙĥÙĪÙĨ":4295,"ÙĥÙħÙĦ":4296,"ĠØ§ÙĦØ³Ø§Ø®Ù":4297,"Ø¯Ø¯Ø©":4298,"ĠØªØ³Ø§Ø¹Ø¯":4299,"ĠØ§ÙĦÙħØµÙĨØ¹ÙĬÙĨ":4300,"ÙĪÙĦÙĬÙĨ":4301,"unction":4302,"ĠØ¨ÙĬØ":4303,"ĠØ§ÙĦØ¯ÙĪØ§":4304,"ĠØ§ÙĦØªØ±Ø§":4305,"ĠØ§ÙĦØ³ÙĬØ§Ø³ÙĬØ©":4306,"ĠØ§ÙĦØ´Ø¨Ø§Ø¨":4307,"ĠÙĪÙĥØ§":4308,"Ø§ÙĦÙĬØ§Øª":4309,"§Ø³Øª":4310,"ĠØ¹ÙĬØ¯":4311,"ĠØ§ÙĦÙĥØªØ¨":4312,"ĠØ§ÙĦØ·Ø¨ÙĬØ¹ÙĬ":4313,"Ġx":4314,"ĠØ§ÙĦÙħØªØ¹":4315,"ĠØµØ®Ø±Ø©":4316,"ĠØªØºÙĬÙĬØ±":4317,"ÙĥÙĬØ¯":4318,"ħÙĦØ":4319,"Ġ1000":4320,"ĠØ§ÙĦÙģØ±":4321,"ĠÙĪØ§ÙĦØ«":4322,"Ù¤":4323,"oad":4324,"Ø§ÙĦØ±":4325,"Ø§ÙĦÙħÙĨØ":4326,"ÙĩØªÙħØ§Ùħ":4327,"ĠØ®Ù":4328,"ĠÙĦÙĪØŃØ©":4329,"ĠØµÙģØŃØ©":4330,"ĠØ£Ø®Ø":4331,"ÙħØ¨Ø¯Ø£":4332,"ĠØ¬Ø¹ÙĦ":4333,"ĠØ§ÙĦØ³ÙĬØ§Ø±Ø©":4334,"ĠØ§ÙĦÙħØ§Ø":4335,"ÙĨØªØ®Ø§":4336,"ĠØ£ÙĩÙĦ":4337,"Ø£Ø©":4338,"ÙĦØ¨ÙĬÙĨ":4339,"¦Ø§Øª":4340,"49":4341,"ĠØ§ÙĦÙħÙħØ":4342,"Ø±Ø§ÙħØ©":4343,"ħÙģ":4344,"ºØ§Ù":4345,"Ù¬":4346,"ile":4347,"ÙĨØ´":4348,"pe":4349,"Ø§ÙĦØ±Ø¦ÙĬØ³ÙĬØ©":4350,"Ø§Ø³Øª":4351,"ĠØ§ÙĦÙħÙĨØ§Ø·ÙĤ":4352,"ØµØ¯":4353,"Ø¹Ø±Ø§Ø¶":4354,"ĠØªØ¹Ø¯":4355,"ĠÙĦÙĦØºØ§ÙĬØ©":4356,"ÙĬØ·Ø§":4357,"ĠØ§ÙĦØºØ§Ø²":4358,"ĠÙĪÙĦÙĬØ³":4359,"ĠØ§ÙĦÙħØŃÙĦÙĬØ©":4360,"Ø®Ø§Ùħ":4361,"ĠÙĦÙĬØ³Øª":4362,"Ġor":4363,"ĠØ§ÙĦØŃØ¯ÙĬØ«Ø©":4364,"ħÙĥØ©":4365,"2020":4366,"Ø¨ÙĨØ§":4367,"ĠØ§ÙĦÙĨØ¨Ø§ØªØ§Øª":4368,"ĠØ¯ÙĤÙĬÙĤØ©":4369,"ĠÙħØµØ¯Ø±":4370,"ĠØ§ÙĦÙģØªØ±Ø©":4371,"ĠØ§ÙĦØ£Ø³Ø¨ÙĪØ¹":4372,"ĠÙħØ¨ÙĬ":4373,"µÙĬÙĦ":4374,"ĠØ§ÙĦØªØ¬Ø§Ø±Ø©":4375,"eng":4376,"ĠÙĪØªØµ":4377,"ĤØ§Ø¡":4378,"Ġ600":4379,"ÙģØ§Ùģ":4380,"ØŃØ±ÙĬØ©":4381,"ĠÃ":4382,"ĠØ¨Ø±ÙĪ":4383,"Ø¹ÙĦÙĨ":4384,"ºØ§Øª":4385,"ĠØŃØ²Ø§Ùħ":4386,"ÙħÙĪÙĤØ¹":4387,"Ø¬ÙĪØ¯Ø©":4388,"ĠØ§ÙĦØ±ØŃÙħÙĨ":4389,"cr":4390,"ĬÙĥÙĨ":4391,"ĠÙģÙĬÙĦÙħ":4392,"Ġex":4393,"ĠZ":4394,"ÙĥØ§Ø¡":4395,"ĠØ§ÙĦØµÙĪØ±Ø©":4396,"Ø¶Ø±":4397,"Â«":4398,"ĠØ¥Ø«Ø±Ø§Ø¡":4399,"ĠØ¨ÙĬÙĨÙħØ§":4400,"Ø¨Ø·Ø©":4401,"ĠÙĪØ³Ø·":4402,"Ø§ÙĦÙħØ²ÙĬØ¯":4403,"ÙĢØ":4404,"ºÙĨ":4405,"ĠØ¯Ø§Ø¦ÙħØ§":4406,"ĠØ§ÙĦØªØ´ØºÙĬÙĦ":4407,"ft":4408,"ĠÙĬÙĦÙĬ":4409,"ĠÙħÙĨØª":4410,"ÙĬÙĥÙĨ":4411,"ĠÙĦØªØµ":4412,"ĠÙĤØ¯Ùħ":4413,"Ø¢ÙĦØ§Øª":4414,"ĠÙĦÙĦÙĨ":4415,"04":4416,"ªØ¹ÙĦÙĬÙħ":4417,"Ø±ÙĬØ¯":4418,"°ÙĪ":4419,"ØŃØ¸Ø©":4420,"\",\"":4421,"Ø¬Ø§Ù":4422,"ÙĦÙĬØ§Ø±":4423,"ĠÙħØ®Ø·Ø·":4424,"Ġcon":4425,"02":4426,"¸ÙĬÙģØ©":4427,"ĪØ³ÙĬ":4428,"Ø¬ÙĨØ©":4429,"Ø³ÙĪÙģ":4430,"ĠCom":4431,"ÙĬØº":4432,"87":4433,"Ø¹Ø²ÙĬØ²":4434,"ĠØ§ÙĦØ¹Ø«":4435,"ĨØ¯ÙĤ":4436,"ĠÙħÙĨØµØ©":4437,"ĠÙĪÙĦØ":4438,"ĠÙĨØ´":4439,"ĠØ§ÙĦÙħØ³ØªÙĪÙī":4440,"ĠØ§ÙĦØªØ§ÙĦÙĬ":4441,"ĠØ¨Ø§ÙĥØ³ØªØ§ÙĨ":4442,"ĠØ§ÙĦØ¨ØŃØ±ÙĬÙĨ":4443,"ĠÙĬÙĥÙĨ":4444,"ĠÙħØªØ¬Ø±":4445,"ÙĪØ§ÙħÙĦ":4446,"31":4447,"ĠØ§ÙĦÙħØ¨":4448,"ĠYouTube":4449,"ĠØ§ÙĦØªØŃÙĥÙħ":4450,"ØŃÙĬÙģØ©":4451,"ĠØ±ÙģØ¹":4452,"ĠØµØŃ":4453,"±ÙĪÙĦ":4454,"app":4455,"ĠØ§ÙĦØŃØ±Ø¨":4456,"ÙĤØ§Ø±ÙĬØ±":4457,"®Ø§Ø·Ø±":4458,"Ø¶ØºØ·":4459,"ÙħØ·":4460,"ĠØ§ÙĦØ£ÙħÙĨ":4461,"ĠØ§ÙĦÙĨÙĤÙĦ":4462,"ĠØ¯Ø¹Ùħ":4463,"47":4464,"¬ÙĨØ©":4465,"Ø¯Ø§Ø©":4466,"ĠÙĦØ£ÙĨÙĩ":4467,"¤ÙĪÙĨ":4468,"ÙħØµ":4469,"ÙħØªÙĩ":4470,"Ġ2010":4471,"ĠØĽ":4472,"ĠØ§ÙĦØ²Ø§":4473,"Ġas":4474,"ÙħØ´Ø§":4475,"ªÙĨÙħÙĬØ©":4476,"ÙĦØ¨ÙĬ":4477,"±ÙĪØ¹":4478,"Ø¹Ø§ÙħÙĦ":4479,"ĠÙĨØªØ§Ø¦Ø¬":4480,"ÙħØ§ÙĨÙĬ":4481,"ĠÙĥØ´Ùģ":4482,"ĠØ§ØªØµÙĦ":4483,"±ÙĪØ±Ø©":4484,"ÙĦÙħØ":4485,"Ġan":4486,"ĠÙĩÙħ":4487,"°Ùĥ":4488,"Ø§ÙĦÙĥØ":4489,"ĠØ¨Ø§ÙĦØ¯":4490,"ĠØ¥ÙĬØ±Ø§ÙĨ":4491,"ÙĪØ§Ø¬Ùĩ":4492,"ĠØ¬ÙĬØ¯Ø©":4493,"ĠØ§ÙħØª":4494,"ĠÙĪØªØ¹":4495,"ĠØ§ÙĦÙħØ¨ÙĬ":4496,"ÙĬÙĨØª":4497,"ĠØªÙĨÙģÙĬØ°":4498,"ĠØ§ÙĦØŃØ´Ø±Ø§Øª":4499,"ØªÙħØ±":4500,"ĠØŃØ¯Ø«":4501,"85":4502,"ĠÙħØ´ÙĥÙĦØ©":4503,"az":4504,"ÙĥØ§Ø¯ÙĬ":4505,"ĠÙħØŃÙħÙĪØ¯":4506,"Ø¹ÙĦÙĨØª":4507,"ĬØ³Ø§Ø¹Ø¯":4508,"Ø¯ØªÙĩ":4509,"ÙĦÙĩÙħ":4510,"ĠØ§ÙĦØ§Ø±":4511,"ĠØ¨Ø±ÙĬ":4512,"ÙĨØ§Ø¯ÙĤ":4513,"ÙĬØ³Ø§Ø¹Ø¯":4514,"ÙħÙĦØ":4515,"ĠØ§ÙĦØ®ØµÙĪØµ":4516,"ÙĬØªÙĩØ§":4517,"ĠÙĪØ¨Ø¹Ø¯":4518,"Ø§ÙĦÙĦ":4519,"ĠØ§ÙĦÙĤØ¯ÙĬÙħØ©":4520,"('":4521,"ÙĥØ§ÙĨÙĬ":4522,"ĠØªØŃØªÙĪÙĬ":4523,"ÙĪØ¸Ø¨ÙĬ":4524,"ĠØ§ÙĦÙħÙĦØ§Ø¨Ø³":4525,"ĠØ¥ØŃØ¯Ùī":4526,"ĠØ§ÙĦØ¹Ø±Ø¶":4527,"ÙĩØªØ²Ø§":4528,"ÙĬÙĪÙĬØ©":4529,"ĠÙĨØ§ÙĤÙĦ":4530,"ĠØ§ÙĦØµÙĨØ§Ø¹ÙĬ":4531,"Ø¨Ø±ÙĨØ§ÙħØ¬":4532,"ĠØ§ÙĦØ±ÙĬØ§Ø¶ÙĬØ©":4533,"ĠØ§ÙĦØ®ÙħÙĬØ³":4534,"ĠØªÙĥÙĬÙĬÙģ":4535,"ĠØ§ÙĦØ£Ø®Ø":4536,"Ø±Ø§ÙħØ¬":4537,"ĠÙħÙĨÙĩÙħ":4538,"ØµØ§ÙĨ":4539,"ÙħÙĪØ§ÙĦ":4540,"ĠÙĬÙĤØ¯Ùħ":4541,"ÙĪØ§ÙĨÙĬÙĨ":4542,"ĠÙĪÙĬÙĥÙĬ":4543,"ĠÙĪØ§ÙĦØ¹Ø":4544,"Ø¦ÙĨ":4545,"ĠØ§Ø°Ø§":4546,"ÙĦØ§ÙĨØ¯":4547,"ħØ¹Ø§Øª":4548,"oun":4549,"ĠAlibaba":4550,"ext":4551,"ÙħÙģ":4552,"ĠØµØ§ØŃØ¨":4553,"ĪØ¹Ø":4554,"Ø³Ø§Ø¨Ø§Øª":4555,"ĠÙħØ¤Ø³Ø³Ø©":4556,"ĠØ§ÙĦÙĪØ²ÙĨ":4557,"ĠØªØ¹ÙĦÙħ":4558,"ÙħÙĪØ¹Ø§Øª":4559,"ÙħÙĪØ²":4560,"ÙĬÙĨØ§Ø±":4561,"ÙĨØµ":4562,"ĠÙħØ¹ÙĨÙī":4563,"°Ùģ":4564,"ĠØ¶ØºØ·":4565,"ÙĤØ±Ø¨":4566,"ĠØ¨Ø§ÙĦÙĥØ":4567,"ĠØªØ¤":4568,"ĠØ®Ø§ÙĦØ¯":4569,"ĠØ§ÙĦØ£ÙħØ±ÙĬÙĥÙĬ":4570,"ĠØ§ÙĦØµÙĪØª":4571,"ĠØŃØµ":4572,"tph":4573,"ªÙħÙĥÙĨ":4574,"¶Øª":4575,"ĠØ§ÙĦÙħØ±Øª":4576,"Ġcrusher":4577,"Ø¨ØªØ©":4578,"ĠØ§ÙĦØ£ÙĨØ":4579,"ĠØ§ÙĦØ£ÙĪØ³Ø·":4580,"ĠÙħØªØ¹Ø¯Ø¯Ø©":4581,"ĠØ§ÙĦØ«ÙĤØ§":4582,"ĠØ§ÙĦØ§ÙĤØªØµØ§Ø¯ÙĬØ©":4583,"ĠØ¹Ø§ÙħØ§":4584,"ĠØŃØ³ÙĬÙĨ":4585,"ĠÙĪØ§Ø¶":4586,"ĠØ¨Ø§ÙĦØ´":4587,"ĠØ§ÙĦÙħØ³ØªØ¹ÙħÙĦØ©":4588,"ħÙĥØªØ¨Ø©":4589,"ÙĦÙĬÙĨØ§":4590,"ĠØ³Ø¨Ø§":4591,"ign":4592,"US":4593,"ÙħØŃØ·Ùħ":4594,"´Ø§Ùģ":4595,"Ø§ÙĦÙĨ":4596,"ĠØ¨Ø§ÙĦØ¹":4597,"ĠØ£ÙĨØª":4598,"ĠØ£Ø³Ø§Ø³":4599,"ĠØ§ÙĦÙħÙĩÙĨÙĬØ©":4600,"ĠÙĥÙĬÙĦÙĪ":4601,"ÙĬØ±ÙĬØ©":4602,"ĠØ¨Ø§ÙĦÙĦÙĩ":4603,"ĠØ§ÙĤØ±Ø£":4604,"Ø£ÙĦ":4605,"ĠØ¨ÙĨØ³Ø¨Ø©":4606,"ĠÙĦÙĬØ¨":4607,"¬Ø§Ø¡":4608,"´Ø±Ùģ":4609,"ÙĨØ©":4610,"ĠØ§ÙĦØ´Ø¹Ø¨":4611,"ĠÙģÙĦØ³Ø·ÙĬÙĨ":4612,"Ġar":4613,"ĠØªØº":4614,"ĠâĢĶ":4615,"ĠÙħÙĥØªØ¨":4616,"ĠØ§ÙĦØ±ÙĪØ§":4617,"ĠÙħØ¹Ø¸Ùħ":4618,"µØ§Ø¦ØŃ":4619,"ĠØ¬ÙħØ§":4620,"ÙĦÙĬØ³":4621,"ĠØ±Ø¯":4622,"ĠØ§ÙĦØµØ§":4623,"ÙĬØ§ÙĨØ§":4624,"ĪØ¨Ø©":4625,"ĠØ§ÙĦØ·Ø±ÙĬÙĤ":4626,"®ÙģØ§Ø¶":4627,"ÙĬØªÙħ":4628,"ĠØ§Ø´":4629,"ħÙģØ":4630,"Ø³Ø§Ø±Ùĩ":4631,"Ø¯ÙĬØ¯Ø§":4632,"ÙĦØºØ§Ø¡":4633,"ĠÙħØªØ±Ø¬Ùħ":4634,"Ø£ÙĦØ©":4635,"ĠØ§ÙĦØªØ³Ø¬ÙĬÙĦ":4636,"ħÙĦÙĬØ§Ø±":4637,"ĠÙģØ§Ù":4638,"®ØµÙĬ":4639,"ÙĦØ§Ø¦":4640,"ĠØ§ÙĦØŃÙĤÙĪÙĤ":4641,"43":4642,"ĠÙħØµØ§Ø¯Ø±":4643,"46":4644,"µØ§Ø¦Øµ":4645,"ĠÙĪÙħØŃ":4646,"ĠØ§ÙĦÙĤØ±ÙĨ":4647,"ĠØ§ÙĦØ¹ÙĦØ§Ø¬":4648,"ĠÙĦÙĨØ":4649,"ÙĦØ§ÙĬØ©":4650,"ħØ¯Ùī":4651,"ĠØŃØ²ÙĬØ±Ø§ÙĨ":4652,"ĬØ¹Ø±Ùģ":4653,"ĠØ§ÙĦÙģØ±ÙĤ":4654,"ÙħÙĦÙĬØ§Ø±":4655,"ÙĪØ¹Ø":4656,"ĠØ£ÙĩÙħÙĬØ©":4657,"Ø§ÙĦØ¨ØŃØ«":4658,"ĠØ§ÙĦØ·ÙĦØ¨":4659,"Ø¬Ø±ÙĬ":4660,"ĠÙĬÙħ":4661,"ĠØ§ÙĦØµØŃÙĬØŃ":4662,"www":4663,"¶Ø§Ø¹":4664,"ĠØ§ÙĦØ·Ø§Ø¦":4665,"Ø±Ø¬Ø§Øª":4666,"ld":4667,"Ø¹Ø§ÙĨÙĬ":4668,"ÙĪØ±Ø¬":4669,"ĠØ§ÙĦØªÙĪ":4670,"ØŃØ¬Ø±":4671,"âĢĵ":4672,"ĠØ§ÙĦØ±ÙĪØ³ÙĬØ©":4673,"lic":4674,"ĠØ§ÙĦØ±ØºÙħ":4675,"«Ø¨ÙĬØª":4676,"ĠØªØµÙĦ":4677,"ĪÙĤÙ":4678,"ÙĦÙĤØª":4679,"ĠÙĪÙĬØª":4680,"ĠØ§ÙĦØ¹ÙĦÙħÙĬØ©":4681,"ĠØ´ÙħØ§ÙĦ":4682,"ĠØ§ÙĦØ·Ø¹Ø§Ùħ":4683,"ĠØ§ÙĦØŃÙĥÙĪ":4684,"ĠØ§Ø³ØªØ«":4685,"ÙĪØ®":4686,"ell":4687,"ĠÙħØªÙĨÙĪØ¹Ø©":4688,"Ø±Ø§ÙĨÙĬØ§":4689,"ÙĦÙĦÙ":4690,"ĠÙĩÙĪØ§":4691,"ame":4692,"ÙĤÙĨÙĬØ§Øª":4693,"ĠØªÙĪÙĬØ":4694,"ÙĤØ§Ø¦ÙħØ©":4695,"ÙĬÙĨÙħØ§":4696,"ÙĩØ±ÙĬ":4697,"ĠÙħÙĦÙĬØ§Ø±":4698,"ÙĪØ±Ø§Ù":4699,"Ø²ÙĨ":4700,"ÙĬÙĢ":4701,"Ġïº":4702,"ÙħÙĥØªØ¨Ø©":4703,"ĠØªØ¯ÙĪÙĬØ±":4704,"ĠØ§ÙĦÙħØ³ØªØ®Ø¯Ùħ":4705,"ĠØ§ÙĦÙĪØ²Ø±Ø§Ø¡":4706,"Ø¦ÙĦØ©":4707,"ÙĪÙĨØ³":4708,"§Ø¯":4709,"ĠÙĦØ§ÙĨ":4710,"«Ø§Øª":4711,"ĠØ«Ø§ÙĨÙĬØ©":4712,"ĠØ¬ÙħÙĩÙĪØ±ÙĬØ©":4713,"ÙĬÙĦØ§":4714,"Ġ||":4715,"ĠØ§ÙĦØ®Ø§ÙħØ³":4716,"Ø¹ÙĪØ¯ÙĬØ©":4717,"ĠØ§ØŃØ":4718,"ĠØªÙĩ":4719,"ÙĤØ³":4720,"ĠÙĦØ³ØŃÙĤ":4721,"ĠØ§ÙĦØ«Ø§ÙĨÙĪÙĬØ©":4722,"Ø¯ÙĬØ§ÙĦ":4723,"ĠØ§ÙĦÙģÙĦØ¨ÙĬÙĨ":4724,"ĠÙĪØ¹Ø":4725,"Ø¨ÙĪÙĨ":4726,"ĠÙħØ´Ø§Ø±ÙĥØ©":4727,"ĠØ§ÙĦØ¥Ø¯Ø§Ø±Ø©":4728,"ĠØ§ÙĦÙħØ±ÙĥØ²ÙĬ":4729,"ÙĬØ¹Ø±Ùģ":4730,"Ġab":4731,"ĠØ§ÙĦØ¹Ø¸":4732,"ÙĬÙĪÙĬ":4733,"ĠØ§ÙĦÙĥÙĩØ±Ø¨Ø§Ø¡":4734,"ÙģÙĬÙĩ":4735,"ĠØ§ÙĦÙĥØªØ":4736,"±Ø¨ØŃ":4737,"ĠØ¹ÙĦÙħÙ":4738,"Ġyour":4739,"ÙħÙĪÙĬÙĦ":4740,"Ù¢Ù":4741,"ĠØ¥Ø¬Ø±Ø§Ø¡":4742,"ÙģØ§Ø²Ø§Øª":4743,"ÙĬØ§Ø¬Ø§Øª":4744,"ĠØ§ÙĦØºÙĬØ§Ø±":4745,"ÙĪØ¶Ø¹":4746,"Ġ@":4747,"ĠÙĨÙĤØ§":4748,"°Ùī":4749,"·ÙĦØ¨Ø§Øª":4750,"ĠÙħØ¹Ø±Ø¶":4751,"ĠØ£Ø¹Ø":4752,"¢Ø":4753,"ØŃÙħØ©":4754,"ĠØ§ÙĦØ¨ÙĬØ":4755,"ĠÙĤØ§Ø¦":4756,"ĠÙĤÙħ":4757,"ĠÙģÙĪØ§Ø¦Ø¯":4758,"ÙĪØ¬ÙĦ":4759,"ĠÙħÙģ":4760,"ĠØªÙĪÙĬØªØ±":4761,"ĠØ§ÙĦØªØ¹Ø§ÙħÙĦ":4762,",,":4763,"ªÙĪÙĤØ¹":4764,"ĠØ§ÙĬØ¶Ø§":4765,"ĠØ§ÙĦÙĪØ§ÙĤØ¹":4766,"ĠØªØ§ÙĬ":4767,"ĠØ§ÙĦØ·Ø¨ÙĬØ¹ÙĬØ©":4768,"Ø¨ØªÙĩ":4769,"±Ø¨Ø¹Ø©":4770,"ĠØ§ÙĦØ«ÙĦØ§Ø«":4771,"ĠØ§ÙĦØ±Ø¬ÙĦ":4772,"Ø¯ÙĨÙī":4773,"ĠØ¬Ø²Ø±":4774,"ĠÙĬØ³Ø§Ø¹Ø¯":4775,"ĠÙħØ§Ø±":4776,"Ø¯Ø§ÙĬØ§":4777,"Ø³ØªÙĤ":4778,"ĠØ¨ÙĪÙĥ":4779,"ÙĬØŃØ©":4780,"ey":4781,"ĠØ§ÙĦØ´Ø¹Ø¨ÙĬ":4782,"ÙģØ§Ø¯Ø©":4783,"ÙĦÙĨØ¯Ø§":4784,"ĠØ¨ÙĬØ§ÙĨ":4785,"ĠÙĬØ²":4786,"ĠÙĬØŃØªØ§Ø¬":4787,"ĠØ¹ÙħÙĪØ¯ÙĬØ©":4788,"ĠØ§ÙĦØ£Ø²":4789,"ĠØ§ÙĦØ¹ÙĦÙĬØ§":4790,"²Ø§ÙĬØ§":4791,"ĪÙģØ±":4792,"Ø¯Ø§Ø¦ÙĤ":4793,"ĠØ¨ÙĬØ±":4794,"ark":4795,"ÙĩØ²":4796,"¤Ø«Ø±":4797,"ħØ¯Ø±Ø³Ø©":4798,"²ÙĪØ¯":4799,"Ø±Ø®Øµ":4800,"ĠØ§ÙĦØ§ÙĨØ":4801,"ØµØ§Øª":4802,"ªÙĪÙģØ±":4803,"ĠØ§ÙĦÙħØ§Ø¯Ø©":4804,"ÙħØ±ÙĬÙĨ":4805,"Ø¬Ø§Ø¨Ø©":4806,"500":4807,"ÙģØ§Ø±Ø©":4808,"´Ø§Ø±ÙĤØ©":4809,"ĠØ£Ø¹Ø±Ùģ":4810,"ĠØ³Ø·ØŃ":4811,"ong":4812,"ĠØ¨ÙĨØ§Øª":4813,"²Ø§ÙĨØ§Øª":4814,"56":4815,"ĠØ§Ø³Ø":4816,"ĠÙĦØ®":4817,"ï»Ł":4818,"Ù©":4819,"±Ø¶":4820,"ĠØ¬ÙħØ¹":4821,"ĠØ§ÙĦÙĨÙ":4822,"form":4823,"Ø´Ø§Ø±Ùĥ":4824,"ĠØ§ÙĦÙĨØ§Ø":4825,"ÙħÙĤØ±Ø§":4826,"ĠÙģØŃØµ":4827,"ĠØ¨Ø§ÙĦÙĦ":4828,"ĪÙĤØ§":4829,"ħØ§ÙĦÙĬ":4830,"ÙĪØº":4831,"Ø³Ø¬":4832,"±Ø¨Ø©":4833,"ĠØ§ÙĦØ¸":4834,"ĠØªØ¹ÙĦÙĬÙĤØ§Øª":4835,"ĠØªØŃØ¯ÙĬØ«":4836,"·ÙĦØ¨":4837,"ĠØµÙĪØª":4838,"ĠØ£ÙĨØŃØ§Ø¡":4839,"ĠÙĬØ¹Ø±Ùģ":4840,"ĠØŃØ±ÙĥØ©":4841,"ĪÙĦØª":4842,"ĠÙħÙĨØ¸":4843,"ee":4844,"ÙĪØ¬ÙĬ":4845,"ĠØ¨Ø§Ø±":4846,"µØºØ±Ø©":4847,"ØŃÙĤÙĤ":4848,"ĠØ¹ÙĦÙĬÙĥÙħ":4849,"ÙħØ¯Ùī":4850,"ĠØ§ÙĦÙĤÙĦØ¨":4851,"Ø±Ø§Ø²":4852,"ÙħØ§ÙĨÙĬØ©":4853,"ĠÙħÙĨØ¬Ùħ":4854,"Ø¨Ø§ÙĨÙĬ":4855,"ÙĬØ±Ùĩ":4856,"ĠØ£ÙĪÙĥ":4857,"ÙĬØ¬ÙĬ":4858,"ĠØ§ÙĦØ±Ø§Ø¨Ø¹":4859,"ĠÙĩÙĨØ¯":4860,"ĠØ¨ÙĨÙĥ":4861,"ĠØ§ÙĦØ«ÙĦØ§Ø«Ø§Ø¡":4862,"ĠØ§ÙĦØ¥ÙħØ§Ùħ":4863,"ĠÙĨØ§Ø¦Ø¨":4864,"ĠÙĤØµØ©":4865,"ĠÙĥØªØ§Ø¨Ø©":4866,"ÙĪÙĤØ§ÙĦ":4867,"ÙĤÙĪÙħ":4868,"ĠØºØ³Ø§ÙĦØ©":4869,"rou":4870,"ĠØ§ÙĦÙĥØ§ÙĦØ³ÙĬÙĪÙħ":4871,"ĠÙĦÙĦÙħÙĨØ":4872,"ĠØ§ÙĦØ¨ÙĬØ¹":4873,"ĠØ¥ÙĦÙĥØªØ":4874,"ĠØ§ÙĦÙĥÙĬÙħÙĬØ§":4875,"Ø±Ø§Ø¶ÙĬ":4876,"ĠØ®Ø·ÙĪØ·":4877,"ĠØ¹Ø´":4878,"ĠØ§ÙĦÙħÙĪØ¬ÙĪØ¯Ø©":4879,"ĠØ§ÙĦØµØŃØ§":4880,"ĠØ§ÙĦØ®ÙĦÙĬØ¬":4881,"ĠØ§ÙĦÙĦØ§Ø²ÙħØ©":4882,"ÙĩÙĢ":4883,"ĠØ¨Ø·Ø±ÙĬÙĤØ©":4884,"Ø³Ø·Ù":4885,"ĠØªØ³ØªØ·ÙĬØ¹":4886,"ora":4887,"eg":4888,"ÙħØ§ØªÙĬ":4889,"´ÙģÙī":4890,"Ø¯Ø±Ø³":4891,"ĠÙĨØ¹":4892,"ĠÙĦØªØ¬":4893,"ÙģÙĦØ©":4894,"ss":4895,"ĠÐ":4896,"ĠÙĤØ·Ø¹Ø©":4897,"ĠØ§ÙĦØ¯ÙĪÙĦÙĪÙħÙĬØª":4898,"ĠØ§ÙĦÙĤÙĬØ§":4899,"ÙĪÙĬÙĨ":4900,"ĠØ§ÙĦØ£Ø±Ø¯ÙĨ":4901,"ĠÙģØ§Ø¦":4902,"ĪØ³Ø§":4903,"ºØ§ÙĨ":4904,"ĠØ§ÙĦØ¬ÙħØ§":4905,"ult":4906,"¦Ø§Ø³Ø©":4907,"ĠÙĪØ£Ø":4908,"48":4909,"ĠØ§ÙĦÙħØ®Ø±ÙĪØ·ÙĬØ©":4910,"ĠØ§ÙĦØ¨ÙĦ":4911,"ĠØ§ÙĦØ±Ø¯":4912,"ÙĤÙĬÙħ":4913,"ĠØ¨Ø°ÙĦÙĥ":4914,"ĠØ§ÙĦÙħÙĩØ§":4915,"ÙģØ¹Ø©":4916,"ÙĪØ±Ùĥ":4917,"ĠØªØ¨ØŃØ«":4918,"Ø¯ÙĪÙĦØ©":4919,"ĠØ§ÙĦÙħØ²":4920,"Ø¨Ø¦Ø©":4921,"ÙĦØ§ÙħÙĬØ©":4922,"Ø§ÙĦÙħØŃ":4923,"ªØ§Ø²":4924,"ĠØ¬Ø§Ù":4925,"âĢľ":4926,"ĩÙĨØ¯Ø³":4927,"ØŃØ±Ùģ":4928,"¬Ø§ÙĪØ²":4929,"ĠÙĤØ±Ø§Ø±":4930,"Ø¨ØŃØª":4931,"email":4932,"Ø³ØªØ®Ø¯Ø§":4933,"ĠÙĪØªØª":4934,"57":4935,"Ø¨Ø§ÙĦ":4936,"ÙĨÙĪØ¹":4937,"ator":4938,"ĠØ§ÙĦØŃØ§ÙĦÙĬ":4939,"ĠÙĦÙĦØ¯":4940,"ØŃÙĥ":4941,"ØŃØ§Ø«":4942,"Ø§ÙĦØŃØ¬Ø±":4943,"ĠØ£Ø±Ø¶":4944,"ĠØ§ÙĦØªØ¹Ø§ÙĪÙĨ":4945,"ĠÙĥÙĦÙħØ§Øª":4946,"Ġwh":4947,"ĠØªÙĪØ¬Ø¯":4948,"Ġit":4949,"af":4950,"ªØŃØ¯Ø«":4951,"ĠØ§ÙĨØ¯ÙĪÙĨÙĬØ³ÙĬØ§":4952,"ªØº":4953,"ÙĦØ±":4954,"ĠØ§ÙĦØ±ÙĤÙħÙĬØ©":4955,"ĠØ§ÙĥØ«Ø±":4956,"ĠØ§ÙĦØ£Ø¬ÙĩØ²Ø©":4957,"ĠÙģÙĤØ§ÙĦ":4958,"ure":4959,"Ø³ÙĬØ±":4960,"ĠÙĨØ¸Ø±":4961,"ĠØ§ÙĦÙģÙĨÙĬØ©":4962,"Ø¯Ø±ÙĪØ³":4963,"ØŃØ±Ùĥ":4964,"sl":4965,"ome":4966,"ĠÙĪØº":4967,"ĠØ§ÙĦÙħØŃØªÙĪÙī":4968,"ĠØµØŃØ©":4969,"Ġad":4970,"ØªØ´":4971,"ĠØ§ÙĦØ³Ø¨Øª":4972,"ĠØ§ÙĦÙħÙģ":4973,"Ø³ÙĬÙĥ":4974,"ĠØ§ÙĦØ±Ø¦ÙĬØ³ÙĬ":4975,"ĠØ§ÙĦØ³Ø±":4976,"ĠÙĪØ§ÙĦØ±":4977,"ĠØªØ±ØªÙĬÙĦ":4978,"ÙĤÙĦÙĬ":4979,"ĠØ§ÙĦØ¬ÙĬØ´":4980,"Ø§ÙĦÙĬÙ":4981,"ĠÙĦØ¢":4982,"ĠØ§ÙĦØ¯ÙĪØ±Ø©":4983,"ĠØŃÙħØ§ÙĬØ©":4984,"ry":4985,"ĠØ¥Ø·Ø§Ø±":4986,"ok":4987,"ĠØ°Ø§":4988,"ĠØ¥Ø¨Ø±Ø§ÙĩÙĬÙħ":4989,"ÙĥÙĨØ©":4990,"ĬÙĪØªÙĬÙĪØ¨":4991,"ĪÙĦÙĬØ¯":4992,"Ġï":4993,"ĠØ§ÙĦØ±Ø¬":4994,"ĠØ§ÙĦØŃØ¬":4995,"ĠØ§ÙĦØ¹Ø¯Ø¯":4996,"±ÙĪØ³":4997,"ĠØ®ÙĦÙģÙĬØ§Øª":4998,"ÙĤØªØ±Ø§":4999,"ĠØ¨Ø¯Ø¡":5000,"ĠÙħØµÙĨØ¹ÙĬ":5001,"More":5002,"ĠØ§ÙĦÙĨØ¸Ø±":5003,"Ø¯Ø±ÙĬØ©":5004,"Ø¯ÙĨÙĬØ§":5005,"Ø¯ÙĬÙĤØ©":5006,"Ø·ÙĨÙĬÙĨ":5007,"ress":5008,"ĠØ§ÙĦØ¯ÙģØ¹":5009,"Ø±Ø§ÙĤ":5010,"ĠØ£Ø²":5011,"ØªÙĥÙĦÙģØ©":5012,"ĠØ§ÙĦØ¨ÙĦØ¯":5013,"ĠØºØ±ÙģØ©":5014,"ĠØŃÙĥÙħ":5015,"Ø¨Ø±Ø§Ø¡":5016,"ĠÙħÙĨØ§Ø²ÙĦ":5017,"Ø·Ø§ÙĤØ©":5018,"ħØ¹Ø§Ù":5019,"ĠØ§ÙĦÙĪØ¬Ùĩ":5020,"ÙĩØ§Ø¯":5021,"ĠØ§ÙĦÙħØ³Ø¤":5022,"ave":5023,"ĠØ±ÙĬØ§Ø¶ÙĬØ©":5024,"ĠØ§ÙĦØºØ³ÙĬÙĦ":5025,"¸Ø±ÙĪÙģ":5026,"ĠØ§ÙĦÙħØ³ÙĦÙħÙĬÙĨ":5027,"ªÙĪÙģÙĬØ±":5028,"ĠÙħÙĨØ§Ø·ÙĤ":5029,"ĠÙħÙĩÙħØ©":5030,"ĪÙĥÙĦ":5031,"Ø³Ø±ÙĬ":5032,"ĠHD":5033,"ĠØŃØ¨":5034,"ÙĦÙģØ²":5035,"ĠÙĬØŃØ¯Ø«":5036,"ÙĪÙģØ§":5037,"ĠØ§ÙĦØ¯Ø±Ø§Ø³Ø§Øª":5038,"ÙħÙĤØ§ÙĦØ§Øª":5039,"Ø£Ø³Ø¹Ø§Ø±":5040,"ĠØ¨ÙĩØ°Ø§":5041,"ÙħØªÙĩØ§":5042,"ØµØ±ÙĬØ©":5043,"ØµÙĦØ§ØŃ":5044,"ĠØ§ÙĦÙĥØ¨ÙĬØ±Ø©":5045,"Ø³ØªÙĬÙĥ":5046,"´ØªØ±ÙĬ":5047,"ÙģØ°":5048,"Ø·ÙĨØ§":5049,"Ġfrom":5050,"ÙĪÙĦØ§Øª":5051,"ÙħÙĦÙĥ":5052,"ĠØ§ÙĦØ¨ÙĨÙĥ":5053,"ÙħÙģØ":5054,"ĠØ§ÙĦØ¥Ø³ÙĦØ§ÙħÙĬ":5055,"ĠØµØ§ÙĦØŃ":5056,"ÙĬØ²Ø§":5057,"ĠØ§ÙĦÙģØ§Ø¦":5058,"ĠØ§ÙĦØ¬Ø§Ù":5059,"ØŃÙģ":5060,"ĠØ§ÙĦØ³ÙģØ±":5061,"ĠâĢ«":5062,"ĪÙħÙĬ":5063,"ÙĪÙĥÙĦ":5064,"ĠØ³Ø¨Ø¨":5065,"ĠØ¨Ø§ÙĦØ¬":5066,"ĠØ§ÙĦØ®ØµÙĪØµÙĬØ©":5067,"ÙĨØ¯":5068,"Ø¹ØªÙĤØ¯":5069,"ÙĪØªØ":5070,"ĠØ§ÙĦØ¨ÙĬØ§ÙĨÙĬ":5071,"ĠÙĪØ§Ø¬":5072,"ĠØ§ÙĦØªÙĨØ¸ÙĬÙģ":5073,"ĠÙħØ¯Ùī":5074,"ĠØ§ÙĦØªØµÙħÙĬÙħ":5075,"ĠØ§ÙĦÙħØ·ØŃÙĨØ©":5076,"§Ø¡":5077,"ĠØ§ÙĦØ¯ÙĪØ±ÙĬ":5078,"ÙĬÙĪØªÙĬÙĪØ¨":5079,"±Ø³Ø©":5080,"ĠÙħØ´Ø§ÙĥÙĦ":5081,"ÙħØ¹ÙĦÙĪÙħØ§Øª":5082,"ÙĪØªÙĬ":5083,"Ġ;":5084,"ĠØªØ¬Ø±Ø¨Ø©":5085,"´Ø§Ø¨":5086,"42":5087,"ĬÙĬØ±":5088,"ĠØŃÙĦÙħ":5089,"ĠÙħØŃØ§ÙģØ¸Ø©":5090,"Ø±Ø³Ø©":5091,"ĠÙĪÙħØ¹Ø¯Ø§Øª":5092,"ĠØ±Ø´":5093,"ĠØ§Øº":5094,"ĠØ§ÙĦØ¨ÙĬØ¦Ø©":5095,"ÙĬØ§Ø¬":5096,"ĨÙģØ³":5097,"ĠÙĪØ§ØªØ³Ø§Ø¨":5098,"ower":5099,"ÙħØ¯Ø±Ø³Ø©":5100,"ĠØ§ÙĦØ§ÙĤØªØµØ§Ø¯":5101,"ĠØ§ÙĦØµÙĨØ§Ø¹Ø©":5102,"ĠØ§ÙĦØªØ´":5103,"ÙĪØ±ØµØ©":5104,"SI":5105,"ĠØ¨Ø§ÙĦØ³":5106,"ÙĦØ§ÙĦØ©":5107,"ĠØ¸ÙĦ":5108,"Ø¨Ø²":5109,"ĠØ§ÙĦØ£ØŃØ¯":5110,"ĠÙħØªÙĪØ³Ø·":5111,"ĠØ§ÙĦÙħØ¬ÙħÙĪØ¹Ø©":5112,"ĠØ§ÙĦØ¨Ø¹Ø¶":5113,"ĠÙĬØµÙĦ":5114,"ÙģØ§Ù":5115,"ĠØ§ÙĦØŃØ¨":5116,"ĠØ§ÙĦØ¹ÙħØ±":5117,"ĠØ§ÙĥØ³Ø³ÙĪØ§Ø±Ø§Øª":5118,"td":5119,"ÙĨØ¸Ù":5120,"ĠØ§ÙĦÙĨØ´Ø±":5121,"Ø¨Ø§ÙĨÙĬØ©":5122,"ĠØ§ÙĦÙħÙĥØ§ÙĨ":5123,"ĠØ§ÙĦÙģØ±ÙĨØ³ÙĬØ©":5124,"ĠÙģÙĥ":5125,"ĠØ§ÙĦØ°Ùĩ":5126,"AR":5127,"ĠØ§ÙĨØ¯":5128,"ĠØ§ÙĦÙħØ´Ø§Ø±ÙĥØ©":5129,"¢Øª":5130,"ÙĬØ·Ø§ÙĦÙĬØ§":5131,"ĠÙĤØ§Ùħ":5132,"ÙĨØ§Ø·ÙĬ":5133,"ĠÙĦØº":5134,"ĠØ§ÙĦÙĬØ¯":5135,"up":5136,"ĠØ§ÙĦØ¹Ø§ÙĦÙĬ":5137,"ÙĥØªÙĨØ§":5138,"Ø¶Ø§Ùģ":5139,"ĠØµØ¨Ø§ØŃ":5140,"ĨÙĪØ±":5141,"ĠØ§ÙĦØ¥Ø¹ÙĦØ§Ùħ":5142,"ĠÙĦØ³":5143,"±Ø¬Ø¹":5144,"ĠØ±Ø¬ÙĦ":5145,"ĠÙħØ·Ø±ÙĤØ©":5146,"ĠØ§ÙĦØ¬ÙħÙĬØ¹":5147,"ĠÙħØ¶":5148,"ĠØ§ÙĦÙģØ¹":5149,"ÙħØ´ÙĤ":5150,"Ġmill":5151,"ØµÙĦØ©":5152,"ĠØ§ÙĨØ§":5153,"ree":5154,"ºØ±Ø¨ÙĬ":5155,"ĠØ¸ÙĩØ±":5156,"Ġun":5157,"Ø¶Ø§Ø":5158,"Ø±Ø«":5159,"ax":5160,"ÙĩÙĬÙĦ":5161,"ĠÙĦØ°Ø§":5162,"ĠØ§ÙĦØ£Ø¹ÙĦÙī":5163,"ĠÙĨÙĤØ·Ø©":5164,"ĠCo":5165,"ĠÙĥÙĪØ¨":5166,"ÙħÙĩÙħ":5167,"ĠÙĬØªØ¹ÙĦÙĤ":5168,"Ø±ØªÙĩØ§":5169,"ĠÙħØ¨Ø¯Ø£":5170,"ĠØ§ÙĦØŃÙĤ":5171,"ØŃÙī":5172,"Ø¨Ø§ÙĨÙĬØ§":5173,"°ÙĪØ±":5174,"ĠØ§ÙĦØ³Ø§Ø¨ÙĤØ©":5175,"ĠÙĦØ¬ÙĨØ©":5176,"ĠØ§ÙĦÙħØ³ÙĬØŃ":5177,"Ø¹ÙĪØ©":5178,"ĠÙĬØ¤Ø¯ÙĬ":5179,"Ġch":5180,"ĠØ§ÙĦØ·Ø±ÙĬÙĤØ©":5181,"ÙĪØ§ÙĨÙĬ":5182,"ĠØ§ÙĦØ±Ø§Ø¦Ø¯Ø©":5183,"ĠØ§ÙĦØ¯Ø±Ø§Ø³Ø©":5184,"ks":5185,"ĠØ§ÙĦØ§Ø³ØªØ®Ø¯Ø§Ùħ":5186,"ale":5187,"ĠØ§ÙĦÙĤØ³Ùħ":5188,"ĠÙĬÙĪÙħÙĬØ§":5189,"Ø±Ø¬ÙĬ":5190,"ĠØ§ÙĦÙħØ¬Ø§ÙĦ":5191,"ĠØ§ÙĦØºØ°Ø§Ø¦ÙĬØ©":5192,"ĠØ¨Ø§ÙĦÙĥØ§":5193,"ĠØ¨Ø§ÙĦØªØ":5194,"Ġ31":5195,"enc":5196,"ÙĬÙĪÙĨÙĬÙĪ":5197,"ĠÙĨØµÙģ":5198,"ÙħØ§Ø°Ø¬":5199,"®ÙĬØ":5200,"ĠØ§ÙĦØ£ÙĪØ±ÙĪØ¨ÙĬ":5201,"Ø³ÙĬØ§Ø³Ø©":5202,"ĠØ§ÙĥØªØ":5203,"ĠAd":5204,"Ġare":5205,"ĠÙĤÙĦØ¨":5206,"´ÙĪ":5207,"ĠÙĪÙĥÙĦ":5208,"ĠØ¹Ø¶Ù":5209,"https":5210,"77":5211,"ĠØ¹ÙĦÙĬÙĩÙħ":5212,"ĠÙĦÙĪÙĨ":5213,"ÙģØ§Ø±":5214,"ĠÙĦØªØ±":5215,"²Ø§Ø±":5216,"ĠØªØ·Ø¨ÙĬÙĤØ§Øª":5217,"ĠØ¹Ø§Ø¯Ø©":5218,"ÙĦÙĪØ¨Ø©":5219,"ĠÙĦØ¹Ø§Ùħ":5220,"ĠÙĥØ±ÙĬÙħ":5221,"Ø±Ø§Ø¹":5222,"ĠØ§ÙĦØŃÙĥÙħ":5223,"ĠÙĦÙĪØ§":5224,"ĠØ´ÙĬØ":5225,"ĠØ¯Ø§Ø¦Ùħ":5226,"ĠÙħÙĪØ±Ø¯":5227,"ÙĬÙĨÙĪ":5228,"32":5229,"ªÙĦØ©":5230,"ÙħØµØ±":5231,"84":5232,"ĠÙģÙĪØ±":5233,"Ø³Ø±Ø¹":5234,"Ġ05":5235,"ĠÙĪÙģÙĤØ§":5236,"ĠâĢİ":5237,"ĠØªÙĪÙĨØ³":5238,"ÛĮØ":5239,"ÙĥØ±Ùī":5240,"ĠØ´Ø¨Ùĩ":5241,"ĠÙĥÙĬÙĨÙĬØ§":5242,"ÙĬÙĨÙĩ":5243,"Ø¨Ø¶":5244,"ĠØ§ÙĦÙĪØ·ÙĨ":5245,"ĠØ§ÙĦÙħØ¨ÙĬØ¹Ø§Øª":5246,"ĠØ§ÙĦÙĤØ¯Ø±Ø©":5247,"ĬØ¯Ø©":5248,"ical":5249,"ĠØ§ÙĦØ¥Ø³Ø±Ø§Ø¦ÙĬ":5250,"ĠÙĤØ¯Ø±":5251,"ÙĨÙĪØ±":5252,"ªÙħÙĦ":5253,"ĠØ¢ÙĦ":5254,"ĠØ§ÙĦØ®ÙĬØ§Ø±Ø§Øª":5255,"ħÙĥØ§ÙĨÙĬØ©":5256,"ÙĨØ§Ø·ÙĬØ³ÙĬ":5257,"ĪÙĨÙĬ":5258,"ÙĦØªÙĩ":5259,"ÙĩÙħØ©":5260,"ºÙĨÙĬØ²":5261,"ĠØ§ÙĦÙħØ«Ø§ÙĦ":5262,"ĠÙĦÙĬÙ":5263,"ĠØ§ÙĦØ·ÙĦØ§Ø¨":5264,"ªØ¹ÙĦÙĬ":5265,"ĠÙħÙĦØ":5266,"´ØªØ±Ø§Ùĥ":5267,"ĠØ§ÙĦØŃØ±Ø§Ø±Ø©":5268,"ĠØ¨ÙĨÙģØ³":5269,"ÙĬØ§Ø¯":5270,"µÙĪ":5271,"ºØ§ÙĨÙĬ":5272,"ĠØ§ÙĦÙħØ¨Ø§Ø":5273,"ĠÙĪÙĬÙĨ":5274,"ĠØ§ÙĦØ³ÙĬØ§Ø³ÙĬ":5275,"ĠÙħÙĦÙĥ":5276,"Ġ01":5277,"cl":5278,"ĠØ§ÙĦØ¹ÙħÙĬÙĦ":5279,"ĠØ§ÙĦØ¨Ø±Ø§ÙħØ¬":5280,"pan":5281,"ĠØ§ÙĦØªÙĨÙħÙĬØ©":5282,"ĠØªÙĨØ§ÙĪÙĦ":5283,"ĠØ³Ùĥ":5284,"ĠØ¨Ø·Ù":5285,"Ø§ÙĦÙĨØ":5286,"ĠØ§ÙĦÙħÙĨØ¸":5287,"ĠØŃÙĦÙĪÙĦ":5288,"ĠÙĦÙĩØ°Ùĩ":5289,"ĠØ§ÙĦØ§Ø¨ØªØ¯Ø§Ø¦ÙĬ":5290,"tect":5291,"ãĢ":5292,"ÙĨØµØ±":5293,"ĠÙĬÙĪØ³Ùģ":5294,"Ø§ÙĦØ·":5295,"ĠÙħÙĪØ§ØµÙģØ§Øª":5296,"Ø±Ø§Ø±Ø§Øª":5297,"Ø¨ÙĪØ±":5298,"ĠÙĪØ§ÙĦÙħÙĨØ":5299,"ĠØ§ÙĦØ£ÙħÙĪØ±":5300,"ĠØ¬ÙĪØ¬ÙĦ":5301,"Ø¦Ø¹":5302,"si":5303,"ÙĪÙĤÙ":5304,"Ø¨ÙĬØ¯ÙĬØ§":5305,"able":5306,"ĠØªØºØ°ÙĬØ©":5307,"¬Ø§Ø¬":5308,"ħØ¯Ø§Ø±":5309,"ĠÙĦÙĦÙĨØ":5310,"Ø¯ØªÙĩØ§":5311,"min":5312,"±ÙĩØ§":5313,"ĠÙħÙģØ":5314,"ĠÙħØ¹Ùĩ":5315,"Ø¹ÙĦÙĪÙħ":5316,"ĠÙģÙĬØ³":5317,"Ø¯ÙĩØ§":5318,"Ø¹ÙĨØ¯ÙħØ§":5319,"ĠØ§ÙģÙĦØ§Ùħ":5320,"ĠØ¨Ø³Ø±Ø¹Ø©":5321,"ĠØ§ÙĦÙħÙĪØ³Ùħ":5322,"Ø¯Ø§ÙĨÙĬ":5323,"ÙĩØ§ÙĬ":5324,"yr":5325,"ĠØ¯ÙģØ¹":5326,"ħÙģØ§":5327,"ĠÙĦÙĦÙħØ¹Ø¯Ø§Øª":5328,"ĠØ¨Ø³Ø¹Ø±":5329,"ÙħØ¯Ø§Ø±":5330,"ĠØ§ÙĦÙģÙĨÙĬ":5331,"ĠØ¨ÙĪÙĦÙ":5332,"ÙĤØ§Ø·":5333,"ÙĤØ±Ø©":5334,"ÙĦÙĤÙ":5335,"ÙĨØ§Ùĩ":5336,"Ġpe":5337,"ĠØ²ÙĬØ§Ø±Ø©":5338,"ĠÙĥÙģØ§Ø¡Ø©":5339,"ĠØ§ÙĦÙħØ±ÙĪØ±":5340,"ØŃØ²":5341,"ĠØ§ÙĦØ¬ÙĨÙĪØ¨ÙĬØ©":5342,"ÙħØ¬Ø©":5343,"ĠÙģØ±ÙĨØ³Ø§":5344,"Ġ80":5345,"Ø³Ø³":5346,"ĠÙħÙĨØªØ¬":5347,"ªØ§Ø¬Ø±":5348,"µØ§Ø±":5349,"ĠØ¯Ø§Ø®":5350,"ĠØ§ÙħØ":5351,"ÙĤÙĬÙĦÙĩ":5352,"ĠØ§ÙĦØ¯ÙĪÙĦØ§Ø±":5353,"ĠØ§ÙĦØ±Ø³ÙħÙĬ":5354,"ev":5355,"Ġ]":5356,"±ÙĬØ¶":5357,"ÙĬØ·Ø±Ø©":5358,"ĠÙĨÙĤÙĪÙħ":5359,"ĠÙĪØ§ÙĨ":5360,"ĠÙħØ±ØŃÙĦØ©":5361,"ĠÙĤØ±ÙĬ":5362,"ĠØ§ÙĦÙĨÙĪÙħ":5363,"ĠÙħØ¯Ø§Ø±":5364,"ĠÙĪØ§ÙĦÙĪØ":5365,"ĠØ¨Ø§ÙĦØ¨Ø":5366,"ĠØ¨Ø±Ø¬":5367,"ĠÙħØŃØ·Ø§Øª":5368,"ĠÙĨØ§Ø":5369,"ĠØ§ÙĦØªÙĤÙĨÙĬØ©":5370,"µÙĦ":5371,"ÙĬØ¶Ø§Ø¡":5372,"ĠÙħØ¨Ø§Ø±ÙĬØ§Øª":5373,"ªÙĨÙĤÙĦ":5374,"±ÙħØ©":5375,"Ø®Ø¯ÙħØ§Øª":5376,"ĠØ¨ØŃÙĬØ«":5377,"ust":5378,"ĠØ§Ø«Ø§Ø«":5379,"65":5380,"ÙħÙĨØ°":5381,"ĠØ§ÙĦØ£Ø±Ø¨Ø¹Ø§Ø¡":5382,"ĩÙĬ":5383,"ĠPl":5384,"ĠØ§ÙĦØŃØ¯":5385,"ÙħÙĥØ©":5386,"Ø¶Ø§ÙĬØ§":5387,"ÙĪØ§Ø¯":5388,"ÙĤØµ":5389,"ÙĪØ¸ÙĬÙģ":5390,"Ø§ÙĦÙĥØ±Ø©":5391,"ĠØ§ÙĦÙĥÙģØ§Ø¡Ø©":5392,"ĠØ³ÙĬØ§Ø³Ø©":5393,"ØŃØ§ÙĨØ§Øª":5394,"Ġqu":5395,"ĠØ§ÙĦØ£Ø¨ÙĬØ¶":5396,"achin":5397,"ÙģØ§ÙĬØ§Øª":5398,"«ÙĪÙĤ":5399,"ØªØª":5400,"ï»¿":5401,"Ø¹ÙĦÙħ":5402,"ĠØ¨Ùģ":5403,"ÙģØ±ÙĬ":5404,"ĠÙĦÙħØŃ":5405,"¥ÙĬ":5406,"ĠÙĥØ«ÙĬØ±Ø©":5407,"ĠØ§ÙĦØŃØ±Ø§Ø":5408,"ĠÙĦØ¯ÙĬÙĩØ§":5409,"ĠÙĪØ¨Ø§ÙĦØªØ§ÙĦÙĬ":5410,"ous":5411,"ĠØ´ÙĩØ§Ø¯Ø©":5412,"ªØ§Ø¡":5413,"ĠØ£ØµØ¨ØŃ":5414,"ÙĥÙĦØ§Øª":5415,"ĠÙħØ²Ø¯":5416,"ĠØ¹Ø¨Ø¯Ø§ÙĦÙĦÙĩ":5417,"·Ø§Ø¨":5418,"ĠØ§ÙĦØ®ÙĦØ§":5419,"ĠØ®Ø±":5420,"ĠØ¸ÙĩÙĪØ±":5421,"ĠÙĬÙĪÙģØ±":5422,"ĠØ¥Ø¹Ø¯Ø§Ø¯":5423,"±Ø´":5424,"ĠÙĬØ£ØªÙĬ":5425,"ĠØªØŃØ³ÙĬÙĨ":5426,"ĠØ§ÙĦÙģÙĦØ³":5427,"ĠØ§ÙĦÙģÙĬ":5428,"ĠÙĦØ´Ø":5429,"Sh":5430,"ĠØ§ÙĦØ£Ø³ÙĪØ¯":5431,"Ø²ÙĦØª":5432,"ĠÙģÙĨ":5433,"ĠØŃÙħ":5434,"ĠØªØ¹Ø¯ÙĬÙĦ":5435,"ØµØ§Ø¦":5436,"ĠÙħØŃØ±Ùĥ":5437,"ªÙĬÙĨ":5438,"ĠÙħÙĬÙ":5439,"®ÙĬØµØ©":5440,"41":5441,"ÙĪØ§ØŃÙĬÙĨ":5442,"ĠØ§Ø®ØªØ¨Ø§Ø±":5443,"¤ÙĦØ§Ø¡":5444,"ated":5445,"ÙĥØ§ØªØ¨":5446,"ĠØ´ØŃÙĨ":5447,"ele":5448,"ĠØ³ÙĬÙĥÙĪÙĨ":5449,"Ġ00":5450,"ĠØ§ÙĦØªØ±ÙĥÙĬØ©":5451,"ÙħØ¹Ø§Ù":5452,"ÙĩÙĪÙĨ":5453,"ĠØ§ÙĦØ¨Ø±Ø§Ø":5454,"Ð°":5455,"ĠØ§ÙĦØŃØ§ÙĦØ©":5456,"ĠÙĪØŃØªÙī":5457,"ĠØ«Ø§ÙĨÙĬ":5458,"ÙĩÙĨØ§Ùĥ":5459,"ĠÙĪØªØ£":5460,"ĠØ¨Ø·Ø§ÙĤØ©":5461,"ªØ¹Ø±Ùģ":5462,"io":5463,"ĠØ§ÙĦØ¹ÙĤØ§":5464,"ĠØ§ÙĦÙĥÙĦÙĬ":5465,"ĠØ§ÙĦØ¹Ø§ØµÙħØ©":5466,"ĠÙħÙĬØ§Ùĩ":5467,"ĠØ§ÙĦÙħØ§Ø¶ÙĬØ©":5468,"®Ø±":5469,"ĠØºØ§ÙĨØ§":5470,"ØºÙĦØ§ÙĤ":5471,"ĠØ§ÙĦØ¹Ø²ÙĬØ²":5472,"ĠÙĦÙĦØ£Ø·ÙģØ§ÙĦ":5473,"ĠÙħÙĨØ²ÙĦ":5474,"org":5475,"ĠØ§ÙĦØºØ±Ø¨ÙĬØ©":5476,"ÙģÙĪØ¸":5477,"ĠØ¯ÙĪØ§":5478,"nglish":5479,"ĠØµÙĦØ©":5480,"ĠÙĦÙĥÙĬ":5481,"Ø§ÙĦÙĪØ±":5482,"Ø¯ÙĪÙĨØ©":5483,"ĠØªØªØ¹":5484,"ĠÙħØµØ·ÙģÙī":5485,"ĠØ§ÙĦØ¯Ø¹Ùħ":5486,"ĠØ£Ø³Ø¨Ø§Ø¨":5487,"){":5488,"bl":5489,"ĠØ§ÙĦØªØµÙĨÙĬØ¹":5490,"ĠÙħØ³Ø§ØŃØ©":5491,"Ø¯Ø±Ø§Øª":5492,"Ġprotect":5493,"ĠØ§ÙĦØ¨Ø´Ø±ÙĬØ©":5494,"ĠØ¨ÙĦØ":5495,"ÙĨØªÙĬÙĨ":5496,"ĠØ´Ùĩ":5497,"Ø¬ÙħØ§ÙĦÙĬ":5498,"¬ÙĨØ¨":5499,"ĠØ§ÙĦØ³Ø§Ø¯Ø³":5500,"ĠÙĦØ²":5501,"Ø¹ÙĪØ¯ÙĬ":5502,"ĠÙĤØ§Ø¹Ø¯Ø©":5503,"´Ø§Ø±Ø©":5504,"ºÙĪ":5505,"ÙĤØ±Ø§Ø±":5506,"Ġthat":5507,"ĠØ§ÙĦØ´Ø§Ø±ÙĤØ©":5508,"ĠØªØŃÙħÙĦ":5509,"ĠØ§ÙĦÙĤØ·Ø§Ø¹":5510,"ÙĤÙĬÙĤÙĬ":5511,"ĠØºØ±Ùģ":5512,"ĠTh":5513,"ĠÙħÙĨØµ":5514,"ens":5515,"Ø´Ø±ÙĥØ§Øª":5516,"ĠØªØ¨Ø¯Ø£":5517,"90":5518,"ull":5519,"µÙĬØ¨":5520,"ĠØªØ£Ø¬ÙĬØ±":5521,"ĠØ°Ø":5522,"ĠØ±Ø³Ùħ":5523,"ĠÙĥÙĪØ¯":5524,"ĠØ§ÙĦÙģÙĥÙĬØ©":5525,"ÙħÙģØ§":5526,"Ø§ÙĦÙĪØ§":5527,"ÙĥÙĨØ¯Ø±ÙĬØ©":5528,"ÙħØŃØ·Ø©":5529,"ĠØªØŃÙĪÙĬÙĦ":5530,"ina":5531,"ĠØ£ÙĬØ§Ø±":5532,"ĠÙĩØ§Ù":5533,"ĠØŃØµØ§ÙĨ":5534,"ĠØ³ÙĩÙĦØ©":5535,"Ø£ÙĪ":5536,"ÙĬÙĪØ³":5537,"ĠØ§ÙĦÙģØ¶":5538,"ħØ¹Ø±":5539,"ªØ³":5540,"Ø§ÙĦÙĨØ§":5541,"ĠÙĤÙĬØ§":5542,"li":5543,"ade":5544,"Ø¬Ø§ÙĨØ¨":5545,"ĠGoogle":5546,"ĠØ§ÙĦØªØ¬Ø§Ø±ÙĬ":5547,"Â».":5548,"ĠØ¥Ø·ÙĦØ§ÙĤ":5549,"ÙĪØ§Ùħ":5550,"ĠÙĥÙĪØ±Ø©":5551,"ĠØ§ÙĦØ£Ø¬ÙĨØ¨ÙĬØ©":5552,"ĠÙĦØ§Ø¨ÙĨ":5553,"ĠÙĦÙĦÙĪØ":5554,"abic":5555,"Ø¹Ø²":5556,"Ø¨ÙĨÙī":5557,"ĠØ£Ø¨Ø±Ø²":5558,"ĠØ¨ÙĥÙħ":5559,"ĠØ§ÙĦØ³ÙĦØ·Ø©":5560,"Ø¶Ø·":5561,"ĠØ¨ÙĨÙĬ":5562,"ĠØ§ÙĦØªØ¯Ø±ÙĬ":5563,"ĠØ§ÙĦØ¨Ø±ÙĬØ·Ø§":5564,"ĠØ§ÙĦÙĦÙĪÙĨ":5565,"75":5566,"IN":5567,"ĠÙħÙĨØ®ÙģØ¶":5568,"ĠØ§ÙĦØŃØ±ÙĥØ©":5569,"ÙħØ§ÙħØ§":5570,"ĠØ±Ø§Ø¦Ø¹Ø©":5571,"ĠØ§ÙĦÙĤØ·":5572,"ĠØ£ÙħØ³":5573,"ØŃØ¸Ø§Øª":5574,"ÙĨØ§ÙĪÙĦ":5575,"Ø³ÙĬØ§Ø±Ø§Øª":5576,"¸ÙĦØ§Øª":5577,"ĠÙħÙĤØ§Ø±ÙĨØ©":5578,"ĠØ§ÙĦÙĨÙģØ³":5579,"à¸":5580,"ÙĪØ³ÙĬ":5581,"Ø§Ø¡":5582,"ĠØ£Ø¯Ø§Ø¡":5583,"ĠÙĦØ¥ÙĨØªØ§Ø¬":5584,"DF":5585,"ÙħØ§Ø±Ø©":5586,"Ø§ÙĦØ¨Ø§":5587,"ÙĦÙĬÙģØ©":5588,"ĠØ¨Ø§ÙĦÙĥØ§ÙħÙĦ":5589,"ĠØ§ÙĦÙĩÙĬØ¦Ø©":5590,"Ġ2009":5591,"ÙħØ¶":5592,"ÙħÙĨØ¹":5593,"ĠÙĪØ§ÙĦÙĦ":5594,"ere":5595,"Ø´Ø§Ø±Ø©":5596,"ĠÙĪÙĬÙĥÙĬØ¨ÙĬØ¯ÙĬØ§":5597,"ĠØºÙĦØ§ÙĬØ©":5598,"ÙĬÙħÙĥÙĨÙĥ":5599,"ÙĤØ¨Ø§ÙĦ":5600,"ĠÙĦØ§Ø":5601,"ĪÙĨØ¯ÙĬØ§ÙĦ":5602,"ĠÙħÙĪØ¹Ø¯":5603,"St":5604,"ĠØªØ¸ÙĩØ±":5605,"ĠÙħÙĨØ§Ø³Ø¨Ø©":5606,"Ø±Ø´Ø§":5607,"ĠØªØŃÙĦÙĬÙĦ":5608,"ħØ¯Ø©":5609,"ĠÙĨÙĪØ±":5610,"ĠÙħØ§ÙĬ":5611,"ĠØ§ÙĦØ¹Ø³ÙĥØ±ÙĬØ©":5612,"ĠØ§ÙĦÙĩÙĨØ¯Ø³Ø©":5613,"ĠØ³ÙĨØ":5614,"ĠÙĬØŃØ¨":5615,"ĠØ§ÙĦÙĥØ¨Ø±Ùī":5616,"ĠÙħØ±Ø¶":5617,"ĠØªØµØ±":5618,"ĠØ§ÙĦÙģØ±ÙĬÙĤ":5619,"ÙĦØ³ÙĦØ§Øª":5620,"ĠØ§ÙĦØ°Ø§Øª":5621,"ĠÙĪÙģØ§":5622,"ĠÙĦÙĬØ¨ÙĬØ§":5623,"ĠØ´Ø§ÙĩØ¯":5624,"ĠØ¹ÙĦÙĪÙħ":5625,"ĠØ§ÙĦØ£ØŃÙħØ±":5626,"ÙĤØ±Ø§Ø¡Ø©":5627,"Ġ--":5628,"ĠÙĪÙĥØ§ÙĨØª":5629,"ĠØªÙĨØ¸ÙĬÙħ":5630,"¬Ø§Ø¯":5631,"ĠÙħÙĥØªØ¨Ø©":5632,"Ø¨Ø§ÙĤ":5633,"ĠÙĤÙĦÙĬ":5634,"ĠØ´Ø±ÙĤ":5635,"ĠØ§ÙĦØ£ÙħÙħ":5636,"ĠØ§ÙĦØ³ÙĪØ±ÙĬØ©":5637,"line":5638,"ïºİ":5639,"ĠØªÙģØ§":5640,"port":5641,"ØŃÙĪÙĨØ©":5642,"Ø³ÙĪÙĤÙĬ":5643,"ĠØ³ÙĬØªÙħ":5644,"ĠØ§ÙĦØ®Ø¨Ø«":5645,"ĠØ§ÙĦÙĤØ§Ø¦ÙħØ©":5646,"ĠØŃØ´Ø±Ø§Øª":5647,"ĠØ§ÙĦØ§Ø±ØªØ¨Ø§Ø·":5648,"ĠØ¥Ø®":5649,"¬ÙĪÙĩ":5650,"ÙĪÙģÙ":5651,"Ġ%":5652,"ĠØ§ÙĦØ´Ø®ØµÙĬ":5653,"ĠÙĪÙĬØªÙħ":5654,"ÙĬØ§Ø¨":5655,"ÙĥÙĪØ¨":5656,"ĠØ§ÙĦÙħÙĦÙģ":5657,"ĠØ§ÙĦØ£ÙħÙĬØ±":5658,"ÙħÙĬÙĨØ§":5659,"Ġhttps":5660,"Ġprotected":5661,"ĠÙħÙĨÙ":5662,"ÙĤØ³Ùħ":5663,"ĠØ§ÙĦØµØŃÙĬ":5664,"ĠØ§ÙĦÙĦØ¹Ø¨Ø©":5665,"Ù«":5666,"ĠÙħÙĥØ©":5667,"ÙģÙĩÙĪÙħ":5668,"ĠØ¨Ø³ÙĩÙĪÙĦØ©":5669,"ĠØ·Ø§Ø¦":5670,"ĠØ§ÙĦØ¹ÙĨØ§ÙĬØ©":5671,"ĠØ§ÙĦÙħÙĨØ§Ø³Ø¨":5672,"ÙĨØªØ®Ø§Ø¨Ø§Øª":5673,"ĠØ£ØµØŃØ§Ø¨":5674,"¦ÙĪÙĨ":5675,"¥Ø°Ø§":5676,"Ø·Ø±ÙĤ":5677,"70":5678,"Ð¾":5679,"Ġ!":5680,"ÙħØ¹Ø±":5681,"ĠØ¹Ø§ÙĦÙĬ":5682,"®Ø§Ø°":5683,"34":5684,"Ø³Ø§Ø¯":5685,"ru":5686,"ĠØ§Ø¹Ø±Ø¶":5687,"ÙĦÙĤÙĬ":5688,"ĠÙħÙĨØ²ÙĦÙĬØ©":5689,"ĠØ§ÙĦÙħØªØ¹ÙĦÙĤØ©":5690,"ħØ³Ø©":5691,"ĠÙģØ¥ÙĨÙĩ":5692,"ĠØ§ÙĦÙģÙĦØ³Ø·ÙĬÙĨÙĬØ©":5693,"ime":5694,"ĠØ§ÙĦÙĤÙĩÙĪØ©":5695,"ĠØ§ÙĦØ¹Ø§ÙĦÙĬØ©":5696,"Ġ35":5697,"ĠØ§ÙĦØ¥ÙĬ":5698,"ĠØ±ÙĪØ§ÙĬØ©":5699,"ĠØ£ÙħØ±ÙĬÙĥØ§":5700,"ĠØ§ÙĦØ²Ø¬Ø§Ø¬":5701,"ĠØ£ÙĪÙĦØ§":5702,"ĠØ§ÙĦØ¹ÙĦØ§ÙħØ©":5703,"µØ§Øµ":5704,"Ø±ÙĤ":5705,"ÙĤØªØµØ§Ø¯ÙĬØ©":5706,"ĠÙħØ¬ÙĦØ©":5707,"ĠØ§Ùģ":5708,"ĠÙħÙĪÙĤØ¹ÙĨØ§":5709,"ĠÙħÙħÙĬØ²Ø©":5710,"±ÙĬØ¨Ø©":5711,"ÙģÙĬØ¯ÙĬÙĪ":5712,"ÙĩØªØ²Ø§Ø²":5713,"ĠÙĦÙħÙĨØ":5714,"ĠØ§ÙĦØ³ÙĪØ±ÙĬ":5715,"ĠØ§ÙĦÙħÙĪØ§Ø¶ÙĬØ¹":5716,"Ø±ÙĪØ§":5717,"ĠÙĦØ®Ø§Ùħ":5718,"ase":5719,"ĪÙĦÙĥ":5720,"ĠØ§ÙĦØ·ÙĪØ¨":5721,"ĪØ¨Ø±":5722,"Ø±Ø¬Ø§ÙĨ":5723,"Ø¨ÙĪØ§":5724,"ĠØ£ÙĪÙĥØ±Ø§ÙĨÙĬØ§":5725,"ĠØ§Ø®Ø¨Ø§Ø±":5726,"¦ÙĬØ©":5727,"ĨØ¯ÙĬØ©":5728,"ĠØªÙĤÙĨÙĬØ©":5729,"ĠÙĪÙĤÙ":5730,"ĠØŃØ±":5731,"ĠØ¨ØªØ§Ø±ÙĬØ®":5732,"ÙģØªØªØ§ØŃ":5733,"ER":5734,"Ø®ØªÙĬØ§Ø±":5735,"Ø¶Ø§Øª":5736,"ĠØ´Ø±ÙĪØ·":5737,"ĠØ§ÙĦØ£ÙģØ¶ÙĦ":5738,"Ø³ÙĪØ¨":5739,"ions":5740,"ĠØªØ´Ø±ÙĬÙĨ":5741,"89":5742,"ÙĦØºØ§Ù":5743,"man":5744,"ĠØ§ÙĦÙħØ¯ÙĨ":5745,"ÙĥØ±Ø¨ÙĪÙĨØ§Øª":5746,"ĠÙģÙħÙĨ":5747,"ĠØ§Ø¨ÙĪ":5748,"ĠÙ¢Ùł":5749,"ĠÙĬØ¬ÙĪØ²":5750,"Ø¹Ø´":5751,"ĠÙĬÙĥ":5752,"ĠØ§ÙĦØ±Ø³ÙħÙĬØ©":5753,"ĠØ§ÙĦØªØ¹ÙĦÙĬÙħÙĬØ©":5754,"ĠØ§ÙĦÙĦØ¨ÙĨØ§":5755,"ĠØ§ÙĦØ±ÙĬØ§Ø¶Ø©":5756,"¬Øª":5757,"ĠÙħØŃÙħÙĪÙĦØ©":5758,"Ø¯Ø§Ø¨":5759,"ĠÙģØŃÙħ":5760,"we":5761,"ĠØ§ÙĦØ²Ø±Ø§":5762,"ĨÙĪÙħ":5763,"ĠÙĦØºØ©":5764,"ĠØ§ÙĦÙĥØ±ÙĪÙħ":5765,"ĠØ§ÙĦØµÙĬØ§ÙĨØ©":5766,"Ø¨Øº":5767,"§ÙģØ¶ÙĦ":5768,"ĠØ·Ø±Ùģ":5769,"Ø±ÙĬØ¯Ø©":5770,"ining":5771,"ĠÙħØŃÙģÙĪØ¸":5772,"ews":5773,"ri":5774,"ĠÙĦÙĦØªØ£":5775,"Ġle":5776,"ÙĦØºØ§Ùħ":5777,"ĨØ³Ø®Ø©":5778,"ĠØ´Ø§Ø±Ø¹":5779,"ÙģØ§ÙĤÙĬØ©":5780,"ĠØŃÙħØ§":5781,"ĠØ¶Ø¹":5782,"Ø§ÙģØ¶ÙĦ":5783,"ĠØ§ÙĦÙħÙĨØºÙĨÙĬØ²":5784,"ĠØ¯ÙħØ´ÙĤ":5785,"ÙĨØ§Ø¦ÙĬ":5786,"ĠØ¥Ø¶Ø§":5787,"ĠØ§ÙĦØªØ³ÙĪÙĬÙĤ":5788,"ĠÙħÙĪØ¨Ø§ÙĬÙĦ":5789,"Û©":5790,"Ø³Ø§ÙĦØ§Øª":5791,"ÙĪØ²ÙĬ":5792,"ĠØ§ÙĦÙħÙģØ":5793,"ÙħÙĬØ±Ø§":5794,"Ø¨Ø§ÙĬ":5795,"ĠÙħØ¹Ø§Ù":5796,"ĠØ¨ÙĩØ°Ùĩ":5797,"ĠØ§ÙĦØ¥ÙĨØ¬ÙĦÙĬØ²ÙĬØ©":5798,"Ġcook":5799,"ĠØ¨Ø£ÙĨÙĩ":5800,"ĠØªÙĪØ§":5801,"ĠØªØ´Ø":5802,"ÙħÙĩÙĪØ±":5803,"ÙĪØ¨Ø±":5804,"ĬÙħÙĨ":5805,"ĠØ¯Ø®ÙĪÙĦ":5806,"ĠÙĬÙĦØ§":5807,"ĠØ§ÙĦØ¹Ø¯":5808,".âĢı":5809,"ĠØ¨Ø§ÙĦØµ":5810,"ĠÙħÙĪÙĦ":5811,"±ÙĪØŃ":5812,"¸Ø§ÙĩØ±":5813,"ØªØ¹Ø±Ùģ":5814,"ÙĪØªÙĬÙĨ":5815,"Ġcrush":5816,"ªØ±Ùĥ":5817,"ĠÙħÙģØ§":5818,"ĠØ¨Ø§ÙĬ":5819,"±Ø·Ø§ÙĨ":5820,"ĨØ¹Ùħ":5821,"ªØµØ±":5822,"Â»ØĮ":5823,"Ù¨":5824,"ĠÙĨØ²":5825,"±ÙĪÙĤ":5826,"«ÙĦ":5827,"ĠØ§ÙĦØ±Ø§Ø¨Ø¹Ø©":5828,"so":5829,"ĠØ§ÙĦÙĪÙ":5830,"ØŃØ¶ÙĪØ±":5831,"ØªØµÙħÙĬÙħ":5832,"ĠØ§ÙĦÙĨÙĤØ¯":5833,"function":5834,"Ġ2008":5835,"ĠØ³Ø±Ø¹Ø©":5836,"ĠÙĪØ±ÙĤ":5837,"ĠØ§ÙĦÙħØ¹Ø±ÙģØ©":5838,"ĠÙĤØ·":5839,"ÙģØªÙĪØŃØ©":5840,"Ġwor":5841,"Ø¨Ø§Ø±Ùĥ":5842,"ĠØ¨Ø§ÙĦØ®":5843,"ĠÙħØµØºØ±Ø©":5844,"ĠÙĨØ§Ø¯ÙĬ":5845,"ash":5846,"ĪÙĩØ°Ùĩ":5847,"ÙĪÙĩØ°Ùĩ":5848,"Ø¨ÙĩØ©":5849,"ĠØ³ÙħØ§":5850,"ĠÙĬØ²ÙĬØ¯":5851,"ĠØ§ÙĦØ´Ø±ÙĤÙĬØ©":5852,"Ø¯Ø§Ø±Ø§Øª":5853,"ĠÙħØ¹Ø¯ÙĦ":5854,"ÙĬÙģÙĪÙĨ":5855,"ÙĤØ´":5856,"Ø¹Ø·":5857,"ĠPE":5858,"ÙħÙĤØ§":5859,"ĠØ§ÙĦÙĨÙģØ·ÙĬØ©":5860,"ĠØ£Ø¹Ø¶Ø§Ø¡":5861,"ĠØ³ÙĦÙĬ":5862,"ÙĦÙĤØ§Ø¦ÙĬ":5863,"ĠÙħØªØ®ØµØµ":5864,"¸Ø§Ø±":5865,"ĠØŃØ§ÙĦØ§Øª":5866,"ĢØ§":5867,"ÙĨØ³Ø®Ø©":5868,"ĠÙħØŃØªÙĪÙī":5869,"Ø³ÙħØ¹":5870,"ĠÙĪØ§ÙĦØ²":5871,"ĠØ§ÙĦÙģÙĨ":5872,"ĠØ§ÙĦØ§ÙĦÙĥØªØ±ÙĪÙĨÙĬ":5873,"ĠØ§ÙĦØ·ÙĬÙĨ":5874,"ĠØ§ÙĦÙħØ±Ø¬":5875,"ĠØ§ÙĦÙħÙĨØ²ÙĦÙĬØ©":5876,"ĠØ§ÙĦØ¥ÙĬØ±Ø§":5877,"ÙĬØ²ÙĦ":5878,"Ø³ØªØº":5879,"ĠØ§ÙĦØ¬ÙĨØ³":5880,"ĠØ¥Ø³Ø±Ø§Ø¦ÙĬÙĦ":5881,"ØŃØ¯ÙĬØ«":5882,"ÙĪØ±Ø§ÙĨ":5883,"Ø¬Ø¦":5884,"ĠØ±ØºÙħ":5885,"ĠØ§ÙĦØ§ØŃØªÙĦØ§ÙĦ":5886,"âĢĻ":5887,"ĠÙĪØ¨Ø±":5888,"ĠØ¨ØªØŃ":5889,"ĠØ§Ø²":5890,"ÙĩØ§Ùħ":5891,"ĠØ¥Ø²Ø§ÙĦØ©":5892,"ÙģØ²":5893,"ĠØ§ÙĦÙħÙĨØ§Ø³Ø¨Ø©":5894,"ĠÙĪØ§Ø³Ø¹Ø©":5895,"ĠØ§ÙĦØ§ÙĨØªØ§Ø¬":5896,"ĠØ§ÙĦØ¹Øµ":5897,"ĠØ§ÙĦÙĦØ¬ÙĨØ©":5898,"·ÙĬØ¨":5899,"Ø§ÙĦØ°ÙĩØ¨":5900,"ĠÙĪØ§ÙĦØ¢":5901,"ÙħØ·Ø§ØŃÙĨ":5902,"ĠØ¨ØŃØ³Ø¨":5903,"ĠÙħØ¹Ø±":5904,"ĠØ¨Ø£ÙģØ¶ÙĦ":5905,"ml":5906,"ĠØ§ØŃÙħØ¯":5907,"ĠØ£ÙĨÙĥ":5908,"ĠØ§Ø¯":5909,"ĠØ§ÙĦØ§Ø¨ØªØ¯Ø§Ø¦ÙĬØ©":5910,"Ġag":5911,"Ø¬ÙħÙĬØ¹":5912,"Ø¹ÙĪÙĨ":5913,"ĠØ§ÙĦØ¹ÙĦØ§ÙĤØ§Øª":5914,"ĠØ§ÙĦØ¬Ø±Ø§":5915,"ÙĪØ§Ø¬Ø¯":5916,"ÙħÙĨÙī":5917,"ÙĨØ§Ùģ":5918,"ÙħØ§Ø±Ø³":5919,"ĠÙħÙħÙĥÙĨ":5920,"ĠØ§ÙĦÙħØ·ÙĦÙĪØ¨Ø©":5921,"Ø±Ø¬Ø§ÙĦ":5922,"ĠØ§ÙĦÙĨØ§Ø±":5923,"ank":5924,"ĠØ£Ø³Ø¨ÙĪØ¹":5925,"Ø³Ø·ÙĨ":5926,"ĠØ¹Ø·ÙĪØ±":5927,"ĠÙĪØªØ´":5928,"ĠØªÙĤØ¹":5929,"ĠÙĪØ±Ø¯":5930,"old":5931,"ĠØ¨ÙħÙĨØ§":5932,"ÙĩÙĦØ§Ùĥ":5933,"ĠØ§ÙĤ":5934,"ON":5935,"ĠÙĬØ¬Ø¹ÙĦ":5936,"ĠÙĩØ§ØªÙģ":5937,"ĠÙĪØ¥Ø°Ø§":5938,"indow":5939,"ĠØ´Ø±ÙĥØªÙĨØ§":5940,"ĠØ§ÙĦØ¬ÙĦØ¯":5941,"ĠØ¯Ø¹":5942,"ĠÙħÙĨØ§Ø¬Ùħ":5943,"ÙģØªØ±Ø§":5944,"Ø§ÙĦÙģÙĥ":5945,"ªØ§Ø©":5946,"ÙĩØ¨":5947,"Ġweb":5948,"Ø¹Ø±Ø¨ÙĬØ©":5949,"ĠØ§Ø®Ø±":5950,"ÙħØ§ÙĦ":5951,"ember":5952,"ĠØ§ÙĦØŃÙĬÙĪØ§ÙĨØ§Øª":5953,"Ø¨ØªØ¯Ø§Ø¦ÙĬ":5954,"ĠØ±Ø§Ø¨Ø·":5955,"ĠÙģØ±ØµØ©":5956,"67":5957,"ÙħØ±ÙĪ":5958,"ĪÙĨØ§":5959,"ÙĬØªØ±":5960,"ĠÙĪØ§ÙĦÙħØ¹Ø§":5961,"ĠØ¨Ø¬Ø¯Ø©":5962,"ĠØ§ÙĦØ³ÙĥØ±":5963,"ØŃÙĩ":5964,"ĠØªØŃØ¯Ø«":5965,"ĠØ§ÙĦØ¨Ø´Ø±Ø©":5966,"ĠÙĦØ£ÙĬ":5967,"ĠØªÙħØ§Ùħ":5968,"§Ø¦Ùħ":5969,"ĠØ´Ø®ØµÙĬØ©":5970,"ØªØ±Ùĥ":5971,"ĠÙĥØ±Ø¨ÙĪÙĨØ§Øª":5972,"ĠØ§ÙĦØ§ØµØ·ÙĨØ§":5973,"ĠØ§ÙĦØ±ÙĪØ³ÙĬ":5974,"ÙĨÙĪØ¹Ø©":5975,"59":5976,"±ÙĬØ·Ø©":5977,"Ø¹Ø§ÙħÙĦØ§Øª":5978,"¬Ø¨":5979,"¶ÙħØ§ÙĨ":5980,"rind":5981,"ĠØ¥ÙĬØ¬Ø§":5982,"ÙĤØ§ÙĨ":5983,"ĠÙģØ§ØµÙĦ":5984,"ĠØ£ÙĦØ¹Ø§Ø¨":5985,"Ġ120":5986,"(\"":5987,"69":5988,"ĠÙĪØµÙģ":5989,"ĠØªØ¬Ø¯":5990,"ete":5991,"ĠØ§ÙĦØ¬ÙħÙĩÙĪØ±ÙĬØ©":5992,"Ø³ÙĬÙĤÙī":5993,"ĠØ±Ø¤":5994,"ĠØ§ÙĦØ£ÙĦÙħØ§ÙĨÙĬØ©":5995,"ĠÙħØ¤Ø´Ø±":5996,"ĠÙĪØ§ÙĦØ§Ø³Øª":5997,"ĠÙħØ±Ø§Øª":5998,"Ø±Ø§Øº":5999,"ĠØ®ÙĦØ§ÙĦÙĩØ§":6000,"Ø¦Ø§":6001,"ÙĩÙĦÙĥ":6002,"ÙĨÙĪÙħ":6003,"ĠÙĪØ³ÙĬ":6004,"ĠØ£ÙĪØ":6005,"ĠÙĤØ¨":6006,"ĠÙĪØªÙħ":6007,"ĠÙĦØ´Ø±ÙĥØ©":6008,"ÙĨØ¹Ùħ":6009,"ÙħØ¯Ø©":6010,"Ø³ÙħØ©":6011,"ĠØ¨Ø§ÙĦÙĦÙ":6012,"ÙĥØ°Ø§":6013,"ĠØ§ÙĦÙĪÙĬØ¨":6014,"ĠÙĥØ«ÙĬØ±Ø§":6015,"ĠÙħØ§Ø°Ø§":6016,"ace":6017,"ĠØ¨ÙħØ¹":6018,"Ø¦Ø¯":6019,"±Ø¨ÙĪÙĨ":6020,"ÙĦÙģØ²ÙĬÙĪÙĨ":6021,"Ġ2023":6022,"ĠÙĪÙĨØŃÙĨ":6023,"ĠØ§ÙĦØ£Ø³ÙĨØ§ÙĨ":6024,"ĠØ§ÙĦÙħØ³ØŃÙĪÙĤ":6025,"ĠØ§ÙĦÙħØŃØ¯ÙĪØ¯Ø©":6026,"Ø¹Ø§ÙĨ":6027,"ºØª":6028,"ÙĥØ§Ø¯ÙĬÙħÙĬØ©":6029,"ĠØ§ÙĦØªØ³ÙĪÙĤ":6030,"ĠÙĪØ¨ÙĬÙĨ":6031,"ĠÙĪÙģÙ":6032,"ĠØ§ÙĦØ¹ÙĦÙħØ§Ø¡":6033,"Ø¯ÙĦØ©":6034,"ĠÙĬÙĪØªÙĬÙĪØ¨":6035,"nline":6036,"ÙĩØ±Øª":6037,"Ø¨ØºÙĬ":6038,"ĠØ¬Ø§Ø¦":6039,"ĠØ§ÙĦØ£ÙĦÙĪ":6040,"ĠØ§ÙĦØªÙĥÙĦÙģØ©":6041,"ĠØ§ÙĦØ§Ø¨":6042,"ĠØ§ÙĦÙĬØ§Ø¨Ø§ÙĨ":6043,"ĠØ±ÙħØ²":6044,"ĠØ§ÙĨØ·":6045,"ond":6046,"ĠØ¨Ø§Ø³Øª":6047,"ĠÙĥØ³Ø§Ø±Ùĩ":6048,"anu":6049,"Ø±ÙĪ":6050,"ĠØ§ÙĦØ¯ÙĬÙħÙĤØ±Ø§":6051,"ÙĬØ±Ø§Ø¯":6052,"ÙģØ¸Ø§Øª":6053,"´ØºÙĦ":6054,"ÙĦØ§ÙĬÙĨ":6055,"ħÙģÙĬØ¯":6056,"ÙĪØ§Ø©":6057,"ĠØ¬Ø¯ÙĬØ¯ÙĨØ§":6058,"ÙģØ§ÙĨ":6059,"ĠÙĥÙĬØ±":6060,"ĠØªØ¶":6061,"±ÙĬØ§Ø¶Ø©":6062,"®Ø©":6063,"ÙħÙģÙĬØ¯":6064,"ĠØ§ÙĦÙħØ³ØªØ®Ø¯":6065,"Ġnow":6066,"ÙĪØ§Ø²":6067,"ÛĮÙ":6068,"ĠØ¹Ø«":6069,"ĠØªØ¹Ø±Ø¶":6070,"ĠØ§ÙĦÙħÙĤØ§ÙĦØ§Øª":6071,"Ø¹Ø¨Ø¯":6072,"ĠØ§ÙĦØ²ÙĪØ¬":6073,"ÙħØ§ÙĬÙĪ":6074,"®Ø·Ø·":6075,"ĠØ§ÙĦØªØ§Ø¨Ø¹Ø©":6076,"ÙĦÙĥÙĬ":6077,"ĠÙĦÙħÙĨ":6078,"ÙĪØ³Ø§":6079,"ĠØŃÙģØ¸":6080,"ĠØ²ÙĪØ¬":6081,"ĠØ§ÙĦØŃÙĪØ§Ø±":6082,"ĠÚ©":6083,"ĠÙĪÙĥØ§ÙĦØ©":6084,"ĠÙģÙĥØ±Ø©":6085,"ĠðŁ":6086,"achinery":6087,"Ø¨Ø§Ø¯ÙĦ":6088,"ĠØªØ±Ùħ":6089,"ÙĬØªÙĪÙĨ":6090,"achine":6091,"2019":6092,"ĠÙĦÙĥØ":6093,"ĠØŃØ¯ÙĬØ¯":6094,"ĠØµÙĦØ§ØŃ":6095,"row":6096,"Ø¶Ø§Ø¦ÙĬØ©":6097,"ĠÙĦØªØ¬ÙĩÙĬØ²":6098,"ĠØ§ÙĦÙģÙĨØ§ÙĨ":6099,"ĠÙĪØ§ÙĦÙħØ¹":6100,"ĠÙĨØ§ØµØ±":6101,"ĠÙĨÙĪÙħ":6102,"ĠØŃØ¯ÙĪØ«":6103,"ÙħÙĬØ±Ø§Øª":6104,"ĠÙĪÙĬØ¨":6105,"ĠØµÙĨØ¯ÙĪÙĤ":6106,"ĠÙħÙĨØ¸ÙħØ©":6107,"Ø³Ø¨Ø§Øª":6108,"ÙħÙĪØ³":6109,"ĠØªØ±ØºØ¨":6110,"ĠÙĦÙħØ¹":6111,"®Ùħ":6112,"ĠÙĨÙģØ³ÙĩØ§":6113,"ĠÙĪÙħÙĪØ§":6114,"¸Ø§ÙģØ©":6115,"ħØ¯Ø":6116,"ĠØ§ÙĦÙĦØ§Ø¹Ø¨":6117,"ĬÙĤØ":6118,"ĠÙħØ¹ÙĬÙĨØ©":6119,"ĠØ¯ÙĪÙĦÙ":6120,"Re":6121,"ĠØŃØ§Ø":6122,"ĠØ§ÙĦÙĦÙĪØ":6123,"ĠØ²ÙĬÙĨ":6124,"ÙĥØ³ÙĬØª":6125,"ÙĬØºØ©":6126,"Ġ08":6127,"ĠØ§ÙĦØ´ÙĬ":6128,"ħÙĥÙĪÙĨØ§Øª":6129,"ĠØ§ÙĦØ£Ø¯Ø§Ø¡":6130,"Ø¦Ø¹Ø©":6131,"ĠØ¨ØŃØ§":6132,"Ø¯ÙĬÙĩ":6133,"ÙĥÙĬÙģØ§Øª":6134,"Ø¦Ùĩ":6135,"¬Ø§Ø¹":6136,"Ø¨ÙĬØ§":6137,"ĠØ§ÙĦØ·Ø±":6138,"ĠAnd":6139,"ĠØ¨Ø§ÙĦÙĤØ":6140,"Ġ03":6141,"Ġtr":6142,"Ø¨Ø±Ø§Øª":6143,"ock":6144,"ØµÙĬØ±":6145,"ÙĩÙĦØ§":6146,"ĠØ¨ÙĪØµ":6147,"âĢ«":6148,"Ġ07":6149,"ÙĪØ±ÙĨ":6150,"®ØµØ©":6151,"Ø¢Ø®Ø±":6152,"ĠØ§ÙĦÙĨÙĤ":6153,"Ġet":6154,"ĠÙĪØ·ØŃÙĨ":6155,"ÙģØªÙĩ":6156,"ĠØ§ÙĦØ´Ø±Ø§Ø¡":6157,"ĠØ³Ø¹Ø¯":6158,"ĠØ¥ÙĦØºØ§Ø¡":6159,"ĠØ§ÙĦØ¨Ø§ØŃØ«":6160,"ĠØ§ÙĦØ¹Ø«ÙĪØ±":6161,"ÙĨØºÙĩØ§ÙĬ":6162,"ĠÙĦØ§ÙĬÙģ":6163,"ĠØ¨Ø±ÙĬØ":6164,"ĠØ§ÙĦÙħÙĨØª":6165,"ages":6166,"ĠØ§ÙĦØ£Ø³ÙĪØ§ÙĤ":6167,"ĠÙħØ¶Ø":6168,"Ġac":6169,"ĠØªØ´ÙħÙĦ":6170,"ÙĪØ±Ùĩ":6171,"ĠØ§ÙĦÙĤÙĬØ§Ø¯Ø©":6172,"Ġ09":6173,"±ÙĤÙħ":6174,"ĠØ°ÙĪ":6175,"ÙħØ§Ø´":6176,"ĠÙĦÙĦØ¨Ø":6177,"ÙģÙģ":6178,"ĠØ§ÙĦØ¹Ø±ÙĪØ¶":6179,"ĠØ¨Ø³ÙĬØ·Ø©":6180,"ĠØªØµÙĦÙĬØŃ":6181,"ĠØ§ÙĦØ¹ØµØ±":6182,"ĠØ¨Ø·ÙĪÙĦØ©":6183,"ĠØ´ÙĤÙĤ":6184,"ĠØ¹Ø§ÙĦÙħÙĬØ©":6185,"ĠØ§ÙĦØ³Ø¨Ø¨":6186,"ÙĪÙĤØ¯":6187,"ĠØ§ÙĦØºØ":6188,"âĢ¦âĢ¦":6189,"ĠØ®ÙĬØ§Ø±Ø§Øª":6190,"Ð¸":6191,"Ø§ÙĦØ²":6192,"ĠØ£ÙĦØ§":6193,"ll":6194,"ĠØ§Ø³ØªØ®Ø¯Ø§ÙħÙĩØ§":6195,"AN":6196,"ĠØ§ÙĦØ¯ÙĤÙĬÙĤ":6197,"ĠØ§ÙĦØªØ®ÙĦØµ":6198,"Ġ02":6199,"ĠØ§ÙĦÙĬÙĪÙħÙĬØ©":6200,"ĠÙĬØ®Ø":6201,"ĠØ²ÙĬ":6202,"ĠÙĦØªØŃÙĤÙĬÙĤ":6203,"ĠØ§ÙĦØ³Ø±ÙĬØ¹":6204,"ĠØ§ÙĦØªÙĨÙģÙĬØ":6205,"ĠÙĦÙģØ":6206,"ĠØ²Ø±":6207,"ĠÙĨØ³Ø®Ø©":6208,"ĠØªØ¬Ø§Ø±Ø©":6209,"ĠØ§ÙĦÙħÙĤØ¯ÙħØ©":6210,"ÙģÙĪÙĤ":6211,"´Ø·":6212,"ĪÙĬØŃ":6213,"--------":6214,"ĠÙĥØ±ÙĬ":6215,"ĠØŃØ§ÙĦÙĬØ§":6216,"ĠBl":6217,"´Ø§Ø±Ø§Øª":6218,"¶Ø§ÙģØ©":6219,"ĠØ§ÙĦØ®Ø¨Ø±Ø©":6220,"ÙĪØŃØ§":6221,"ĠØ¯Ø§Ù":6222,"ĠÙħÙĨØªØ®Ø¨":6223,"ĠØ¬Ø¯ÙĪÙī":6224,"ÙĨØ±":6225,"ĠØ¨ÙĨØª":6226,"ox":6227,"ĠØ§ÙĦÙĥØ§ÙħÙĦ":6228,"ĠØ§ÙĦÙħÙģØ§":6229,"ĠØ§ÙĦÙĤÙĬÙħØ©":6230,"ÙĦØ§Øµ":6231,"ĠÙĦØ¯ÙĬÙĩ":6232,"ĠØªÙĥÙĨÙĪÙĦÙĪØ¬ÙĬØ§":6233,"ÙħÙĥÙĨ":6234,"ĠÙĥØ§Ø±":6235,"ĠÙĦÙĥØ±Ø©":6236,"ĠØ¨ÙĩØ¯Ùģ":6237,"ÙĬÙĤØ":6238,"ĠØ§ÙĦÙħÙĨØ§Ø²ÙĦ":6239,"ÙħØŃØ§":6240,"ÙħØ¯Ø":6241,"ence":6242,"ĠÙĤØ§ÙħØª":6243,"¸ÙĬ":6244,"ĠØ§ÙĦØ°Ø±Ø©":6245,"Ġ45":6246,"Ø´Ø§ÙĩØ¯":6247,"ĠÙħÙģÙĬØ¯":6248,"Ø±ØªÙĥ":6249,"ĠÙĦÙħØ§Ø°Ø§":6250,"ĠÙħØŃÙĦ":6251,"Ù¥":6252,"ĠØ®ÙĦØ·":6253,"Ø±Øº":6254,"Ø¯Ø®Ø§ÙĦ":6255,"ric":6256,"ÙĥØ±ÙĪÙĨ":6257,"ĠØ§ÙĦØ§Ø±Ø¶":6258,"ÙĤØ§Ùģ":6259,"ÙĥØ±Ø§":6260,"ÙĥÙĪØ¯":6261,"ĠØ§ÙĦÙħØºØ±Ø¨ÙĬ":6262,"ĠØ§ÙĦÙħÙĨØªØ®Ø¨":6263,"ÙĦØ§ÙĬ":6264,"·Ø±ÙĤ":6265,"ÙħØ±Ø§Øª":6266,"ØªØ§Ø±ÙĬØ®":6267,"ÙħØ±Ø§Ø¡":6268,"oll":6269,"ĠØ¨Ø§ÙĦÙģØ¹ÙĦ":6270,"ĠÙĪØ¸ÙĬÙģØ©":6271,"®Ø§Øª":6272,"ĠØ¨Ø¯Ø£":6273,"Ø¨Ø§Ø¨ÙĪÙĬ":6274,"ĠØ§ÙĦØ±Ø¬Ø§ÙĦ":6275,"ĨÙĪÙĥ":6276,"ĠÙĤÙĪÙĬØ©":6277,"ħØ³Ø§Ø¨":6278,"±ÙĪÙĬØ¬":6279,"ĠØ§ÙĦÙĩÙĬØ¯Ø±ÙĪ":6280,"ÙħÙĪÙħ":6281,"ÙĬÙĨØº":6282,"ĠØ§ÙĦÙħØŃÙĦÙĬ":6283,"ĠØ¨Ø¯Ø£Øª":6284,"ĠÙħØ´Ø§Ø±ÙĬØ¹":6285,"cess":6286,"ĠÙħÙĨØªØ¯ÙĬØ§Øª":6287,"ĠØ§ÙĦØ§Ø«ÙĨÙĬÙĨ":6288,"ĠÙħÙħÙ":6289,"ĠØ§ÙĦØ´ØŃÙĨ":6290,"Ø¹Ø¯Øª":6291,"ED":6292,"ĠØ§ÙĦØ§ÙĤØªØµØ§Ø¯ÙĬ":6293,"ÙĥØ±ÙĪ":6294,"ĠÙĥØ§ÙĨÙĪÙĨ":6295,"ĠØ¥ØµØ¯Ø§Ø±":6296,"Ø¶Ùģ":6297,"Ġget":6298,"ĠØ§ÙĦØ¥ØŃ":6299,"ĠØªØ¹ÙĦÙĬÙħ":6300,"eu":6301,"ĠØ®ÙĬØ±":6302,"ĠØ·Ø¨ÙĬØ¹ÙĬ":6303,"ĠØ¬Ø¹":6304,"ĠØºØ±Ø§ÙħØ©":6305,"ĠÙĩØ¤ÙĦØ§Ø¡":6306,"lass":6307,"ÙĨØ§Ø¹":6308,"ĠØ¹Ø³":6309,"ĠÙĦØ£ÙĨÙĩØ§":6310,"ĬØ³ØªØ·ÙĬØ¹":6311,"ĠØ§ÙĨÙģ":6312,"ĠÙħØ±Ø¨Ø¹":6313,"Ø³Ø·ÙĨØ¨ÙĪÙĦ":6314,"ĠØ§ÙĦØ¯Ø":6315,"ĠØ£Ø¯Ø§Ø©":6316,"ervice":6317,"¬Ø§Ø±Ø¨":6318,"ĠÙĬØ¨ØŃØ«":6319,"ÙĤØ¯ÙħØ©":6320,"ØªØ±Ùģ":6321,"ĠØ¥ÙĨÙĩØ§":6322,"ĠPM":6323,"ÙĪÙĬØŃ":6324,"ØªØ¬Ø§Ùĩ":6325,"ĠØ§Ø¨Øª":6326,"¶ØºØ·":6327,"ĠØ§ÙĦØªØ¹ÙĪÙĬÙħ":6328,"Ø¯ÙĪÙĬ":6329,"Ø¨ÙĥØ§Øª":6330,"ĠØ§ÙĦØªÙģØ§":6331,"ĠØ²Ø§Ù":6332,"Ø±ÙĬØ³":6333,"ĠØ§ÙĦØ³ÙĨÙĪØ§Øª":6334,"ÙħÙĪØª":6335,"Ġ06":6336,"ĠØ§ÙĦØ¥Ø¹ÙĦØ§":6337,"ĠÙĥØ±Ø§Øª":6338,"ĠØ§ÙĦØ¯Ø±Ø§Ø³ÙĬ":6339,"µÙĨÙģ":6340,"±ÙĬØ¬":6341,"Ø±ØªÙĪÙĨ":6342,"Ø¹Ø±ÙĬÙģ":6343,"ĠÙħØŃÙģÙĪØ¸Ø©":6344,"ĠØŃØ²Ø¨":6345,"ĠÙĪØ¹Ø¯Ùħ":6346,"Ġ04":6347,"ĠØ°ÙĩØ¨":6348,"±ÙĪÙĬ":6349,"ÙģÙĦØ§Øª":6350,"ĠØ¯Ø":6351,"ªÙĪØ¨":6352,"ªÙĨÙģÙĬØ°":6353,"ĠÙĪØ§ÙĦÙħÙĨØ§":6354,"ĠØ§ØŃØªØ±Ø§":6355,"ĠÙĪÙĩØ°Ùĩ":6356,"ÙĬØ³ØªØ·ÙĬØ¹":6357,"hatsapp":6358,"´Ø±ÙĪØ¹Ø§Øª":6359,"Ø·Ø§Ø±Ø§Øª":6360,"OS":6361,"ĠÙĥØ§ÙĨÙĪØ§":6362,"83":6363,"ĠØ§ÙĦØŃØ§ÙĦØ§Øª":6364,"ĠØ£Ø³ÙħØ§Ø¡":6365,"ĠÙħØ¨ÙĬØ¹Ø§Øª":6366,"ĠØ¢Ù":6367,"ĠØ§ÙĦØ£ÙĦØºØ§Ùħ":6368,"ĠØªÙħØ§ÙħØ§":6369,"ĠØ§ÙĦØ®ÙĬÙħØ©":6370,"ĠRead":6371,"ÙĦÙĪØ³":6372,"ĠÙĤØµÙĬØ±Ø©":6373,"Ø³Ø±Ø©":6374,"Ø¨ÙĪÙĬØ©":6375,"Ø§ÙĦØ´Ø±ÙĥØ©":6376,"ĠØ®Ø²Ø§ÙĨØ§Øª":6377,"ĠÙĪØ§ÙĦØªØŃ":6378,"ĠÙĬÙĤØ":6379,"Ø´ÙĬ":6380,"ĠØ±Ø£Ù":6381,"ĠÙģÙĬØ±ÙĪØ³":6382,"Ø¨Ø§Øº":6383,"ĠØ§ÙĦØ£Ø³Ø§Ø³ÙĬ":6384,"ement":6385,"Ùĭ:":6386,"ĨÙĬÙĥ":6387,"ĠØªÙĪÙĤ":6388,"ĠØ§ÙĦÙĪØ§Ø":6389,"à¤":6390,"ĠØªÙĨØª":6391,"ĠÙĪØ£Øµ":6392,"ĠØ§ÙĦØŃÙģØ§Ø¸":6393,"ĠØªØ®Øµ":6394,"ÙħØ®Ø":6395,"ĠØ§ÙĨØ®ÙģØ§Ø¶":6396,"ĠØ§ÙĦØ¯ÙĤÙĬÙĤØ©":6397,"ĠØ§ÙĦØ£ÙĦØ¹Ø§Ø¨":6398,"Ġim":6399,"ĠÙħÙĬØ¯":6400,"olog":6401,"ĠØ±Ø£ÙĬ":6402,"ÙĩØ¯Ø§Ùģ":6403,"ĠØªØµÙĨÙĬÙģ":6404,"ĠØµØ®ÙĪØ±":6405,"ĠØ§ÙĦØ£Ø´ÙĬØ§Ø¡":6406,"ÙħÙĨÙĬÙĪÙħ":6407,"ĠØ§Ø¬ØªÙħØ§Ø¹":6408,"ÙĤÙĬÙĤÙĬØ©":6409,"ÙĬØ²Ø©":6410,"ĠØ±Ø®ÙĬØµØ©":6411,"ÙĪØ§Ø¦ÙĦ":6412,"ØŃØ§Ø¯ÙĬØ«":6413,"ĠØ¬Ø§Ùĥ":6414,"ĠØ¬ÙĨ":6415,"ĠÙĩÙĢ":6416,"ĠØ§ÙĦÙĤÙĪØ§Øª":6417,"ĠØ¨Ø¹ÙĬØ¯":6418,"ĠØ§ÙĦØ³Ø±Ø¹Ø©":6419,"ĠØ§ÙĦØ¬ÙĬØ±":6420,"ĠÙĪØªØ¬":6421,"ĠØ§ÙĦÙĤØ§ÙĨÙĪÙĨÙĬØ©":6422,"Ø¨Ø§Ùĥ":6423,"ĠÙĤÙĪÙĦÙĩ":6424,"ĠØŃØ§Ø±":6425,"mer":6426,"ĠØ§ÙĦÙħØ³ØªÙĤØ¨ÙĦ":6427,"ÙĩÙĩ":6428,"ĠØ§ÙĦÙħÙĨØ´":6429,"Ù§":6430,"ÙĬØ±Øª":6431,"ĠØ§ÙĦÙħØªÙĪØ³Ø·Ø©":6432,"ĠÙĩØ¯Ùģ":6433,"ÙıÙĳ":6434,"ĠØ£Øª":6435,"ÙĤÙĬØ¹":6436,"ĠÙĪØ§ÙĦÙĦÙĩ":6437,"ĠØ§ÙĦÙħØµØ¯Ø±":6438,"ĠØ³Ø§Ùħ":6439,"Ø¬Ø¯":6440,"ªÙģØ³ÙĬØ±":6441,"ĠÙħØ¯Ø":6442,"ĠÙĪØºØ±Ø¨":6443,"ĠØ§ÙĦØŃÙĬÙĪÙĬØ©":6444,"ĠÙģØ¹ÙĦ":6445,"Ø¬ÙħÙĦØ©":6446,"ĠØ§ÙĦØªØ·Ø¨ÙĬÙĤØ§Øª":6447,"ĠØ¯ÙĤØ§Ø¦ÙĤ":6448,"97":6449,"ĠØ§ÙĦØ§Ø±Ø¯ÙĨ":6450,"ĠAM":6451,"ata":6452,"ĠÙĥÙħÙĬØ©":6453,"mail":6454,"ÙĪØ²ÙĬØ¹":6455,"site":6456,"ïºĶ":6457,"ĠØ¨ÙĪØ±":6458,"Ø¨Ø±Ø§ÙħØ¬":6459,"ĠØªÙĤÙĬÙĬÙħ":6460,"ÙĦÙĨÙĥØ±":6461,"ĠØ§ÙĦØ¹Ø¸ÙĬÙħ":6462,"ĠØ®ÙĦÙĤ":6463,"Ø±Ø³ÙĦ":6464,"ĠØ£Ø³Ø§Ø³ÙĬ":6465,"ĠØ³Ø¤Ø§ÙĦ":6466,"ĠØ³Ø§ÙĨ":6467,"ĠØ§Ø¬ÙĩØ²Ø©":6468,"ħØ§ÙĦÙĥ":6469,"ĠØ³ÙĪÙī":6470,"ĠØ³Ø±ÙĬØ¹":6471,"ÙĦØ§ÙĤØ©":6472,"ĠØ§ÙĦÙĤØ¶Ø§Ø¡":6473,"ĠØ±Ø¶ÙĬ":6474,"ĪØ§ÙĦÙĬ":6475,"ĨØ³Ø§":6476,"ÙħÙħÙ":6477,"ĠØ§ÙĦØ±ÙĤÙħ":6478,"Ø¨Ø·Ø§ÙĦ":6479,"ĠØ±Ø¨ÙħØ§":6480,"Ø¯ÙĪØ²":6481,"ØªÙģØ³ÙĬØ±":6482,"ØŃØ§Ùħ":6483,"ĠÙħØ±Ø§ÙĥØ²":6484,"ĠØ±Ø³Ø§Ø¦ÙĦ":6485,"ĠØ§ÙĦØ®Ø´Ø¨":6486,"arn":6487,"Ø£ÙĪÙĦØ§":6488,"ĠØ§ÙĦØ¨Ø§Ø²ÙĦØª":6489,"ĠØŃØ¯ÙĪØ¯":6490,"ĠØµØŃÙĬÙģØ©":6491,"ĠØ§Ø®":6492,"ÙĤØ·Ø¹":6493,"Ø§ÙĦØ±Ø":6494,"ĠØªØ³ÙĪÙĤ":6495,"ĠÙģÙĩÙħ":6496,"ĠØ§ÙĦØŃØ³Ø§Ø¨":6497,"ĠØ§ÙĦØ´Ø§Ù":6498,"ef":6499,"ĠØ³ØªØ§":6500,"Ġabout":6501,"ĠØ§Ø«":6502,"ĠØ§ÙĦØ²ÙĪØ§Ø¬":6503,"ĠÙĬØ³ØªØ·ÙĬØ¹":6504,"ĠØ§ÙĦØ¢Ø®Ø±ÙĬÙĨ":6505,"ĠÙĦÙĦØªØŃ":6506,"ĠØ³Ø¹ÙĪØ¯ÙĬ":6507,"ĠÙĪØ§ÙĦÙĩ":6508,"ition":6509,"ĠÙĦÙĦØ¹ÙħÙĦ":6510,"ĠØ§ÙĦØ´ÙħØ§ÙĦÙĬØ©":6511,"ĠØ§ÙĦÙĩÙĬØ¯Ø±ÙĪÙĦÙĬÙĥÙĬØ©":6512,"ÙĦÙĬØ¯ÙĬØ©":6513,"Ġdes":6514,"ĠØ¨Ø¬Ø§ÙħØ¹Ø©":6515,"Ø¦Ø§Ø":6516,"ĠØ§ÙĦØ³ÙĬØ±Ø§ÙħÙĬÙĥ":6517,"ÙĬÙħØ¨Ø§Ø¨ÙĪÙĬ":6518,"ĠØŃØ±Ùģ":6519,"ĠØ¨ÙĥØ±":6520,"ĠØ§ÙĦÙĦÙĬØ":6521,"ĠØ§ÙĦÙħØ¤Ø³Ø³Ø©":6522,"Ø±Ø¶Ø©":6523,"ĠØ§ÙĦÙħØªØµ":6524,"ÙĬØªØ´":6525,"ĠØ§ÙĦØ¯Ø§Ø¦":6526,"Ø¦ÙĩØ§":6527,"ĠØ§ÙĦØ³Ø§Ø®ÙĨ":6528,"ĠØ§ÙĦØ¥Øµ":6529,"ĠØ§ÙĦÙħØ´ØªØ±":6530,"ÙħØ³Ø§Ø¨":6531,"ĠØ§Ø®ØªØ±":6532,"ĠØŃØ±Ø¨":6533,"ĠØ³ÙĪØ±ÙĬØ©":6534,"ÙħØ¨ÙĬÙĪØªØ±":6535,"ĠÙģØ§ÙĨ":6536,"ÙģØ§ÙĦ":6537,"ÙģÙĬØ³Ø¨ÙĪÙĥ":6538,"ĠÙĪÙĦØ¯":6539,"ĠØ§ÙĦØ·Ø§ØŃÙĨ":6540,"ĠØ¹Ø²ÙĦ":6541,"ĠÙĤØµØµ":6542,"¸Ø±ÙĬØ©":6543,"ĠØ§ÙĦÙĤØ¯Ø³":6544,"Ø±ØªÙģØ§Ø¹":6545,"ĠØ£ÙħÙĬØ±":6546,"ĠØ§ÙĦØ£ÙĤÙĦ":6547,"ÙĬØªØ":6548,"ĠØ¨ÙĩÙħ":6549,"arg":6550,"ĠØ¥ÙģØ±ÙĬÙĤÙĬØ§":6551,"ĠÙĦØ±Ø":6552,"ĠØ³Ø§Ø¨":6553,"ÙĥÙĪÙĦØ§Øª":6554,"Ø§ÙĦÙĦÙ":6555,"duct":6556,"ĠØ§ÙĦØµØ§Ø¨":6557,"Ġsu":6558,"ÙĪÙĤØ§":6559,"ĠØ§ÙĦÙĨØªØ§Ø¦Ø¬":6560,"Ø¹ØªÙĩ":6561,"ĠØ¹ÙĦØ§ÙĤØ©":6562,"ĠÙħØ¯Ø©":6563,"ħÙĦØª":6564,"ĠØ§ÙĦØ±ÙħÙĦÙĬ":6565,"ĠØ£ØµØ¨ØŃØª":6566,"£Ø":6567,"Ġ_":6568,"ÙĨØ³Ø§":6569,"ĠØ§ÙĦØŃÙĥÙĪÙħÙĬØ©":6570,"me":6571,"ÙĪØµØ§":6572,"ĠÙĪØ³Ø§":6573,"ĠÙĦÙĦØªØ¹Ø¯ÙĬÙĨ":6574,"ĠØ£Ø«Ø±":6575,"ĠØ¨ÙĦØº":6576,"ĠØ§ÙĦÙĤÙĪØ©":6577,"ĪÙĩÙħ":6578,"ĠØ§ÙĦÙģÙĦØ³Ø·ÙĬÙĨÙĬ":6579,"Ñģ":6580,"ÙĪØ°":6581,"ĪØ±Ø¯ÙĬÙĨ":6582,"ĠØ§Ø¬ÙħÙĦ":6583,"ĠChat":6584,"ĠEx":6585,"ĠØ®Ø·ÙĪØ§Øª":6586,"ĠÙħØ²ÙĪØ¯":6587,"Ø¨ÙĬÙĦØ©":6588,"ĠØ¨ØŃØ":6589,"ĠØ§ÙĦØªØ±ÙĥÙĬ":6590,"´Ø±ÙĤ":6591,"ĠÙĪØªØ³":6592,"quire":6593,"ÙĨØ²ÙĬÙĦ":6594,"ĠØ§ÙĦØ®ÙĬØ±":6595,"ĠÙĦÙħÙĪØ§":6596,"ĠÙĦÙĦØµÙģ":6597,"Ø³Ø§Ø³ÙĬØ©":6598,"ĠØ§ÙĦØªØ¹ÙĦÙĬÙĤØ§Øª":6599,"ĠÙĦÙĦÙĥØ":6600,"Ġcookies":6601,"ĠUn":6602,"ese":6603,"ĠØŃØ¬":6604,"ÙģÙĥÙĬØ±":6605,"ĠØ§ØŃØ¯Ø«":6606,"ĠØ§ÙĦØ¯ÙĪØ±":6607,"ood":6608,"ØŃØ§Ø±":6609,"ĠØ¥Ø´":6610,"²ÙĨÙĥ":6611,"ĠØªØ¹Ø²ÙĬØ²":6612,"ÙħÙĥÙĪÙĨØ§Øª":6613,"ĠØ§ÙĦØ±Ø³Ø§Ø¦ÙĦ":6614,"ĠØ¨Ø§ÙĦØµÙĪØ±":6615,"ĠØ§ÙĦØºØ¨Ø§Ø±":6616,"Ġro":6617,"ĠØ§ÙĦØµÙĨØ§Ø¹Ø§Øª":6618,"ĠØ§ÙĦØŃØ¨ÙĪØ¨":6619,"ĠØ¥Ø¨":6620,"ĠLtd":6621,"}}":6622,"ĠØªØ±ØªÙĬØ¨":6623,"ĠÙĥÙĪØ±ÙĬØ§":6624,"ĠØ§ÙĦØ°ÙĥÙĬØ©":6625,"ĠØ§ÙĦÙħØ·Ø¨Ø®":6626,"¬ÙĬØ¨":6627,"ĠØ§ÙĦØ³Ø¤Ø§ÙĦ":6628,"âĹ":6629,"ĠØ§ÙĦÙĥØªØ±ÙĪÙĨÙĬ":6630,"ĠÙħØ³ØªÙĪÙĬØ§Øª":6631,"ĠØ§ÙĦØ£Ø¹Ø¶Ø§Ø¡":6632,"Ø¦Ø§Øª":6633,"ĠØ§ÙĦÙĪØ³Ø·":6634,"ĠØ§ÙĦØ§Ø³ØªØ«":6635,"ÙĪÙĬØ³":6636,"Ø¬Ø¹Ø©":6637,"±Ø¯Ø¯":6638,"ĠØ§ÙĦØ§Ø®Ø":6639,"ĠÙĪÙħÙĨØ§":6640,"ĠØ§ÙĦØ±Ø£Ø³":6641,"ĠØ§ÙĦØªØ±Ùĥ":6642,"Ø³Ø§ØªÙĬÙĨ":6643,"ªØ§Ùħ":6644,"Ø¹ÙĦÙĩØ§":6645,"ĠØ³Ø§Ø":6646,"Ø¹Ø§Ø±Ùģ":6647,"Ø±ÙĤÙħ":6648,"ĠØ§ÙĦÙĤØ±Ø§Ø±":6649,"Ø¯Ø£":6650,"ĠØ¥Ø±Ø³Ø§ÙĦ":6651,"ĠØ§ÙĦØ´Ùĩ":6652,"Ġ70":6653,"ÙĦÙĤØ¯":6654,"2018":6655,"ĠØ§ÙĦØ£Ø³Ø±Ø©":6656,"ĠÙĤÙĪØ§Ø¹Ø¯":6657,"ÙħØ§Ø±ÙĬÙĨ":6658,"ount":6659,"ĠØ§ÙĦØ³ÙĨ":6660,"ĠØ³ÙĬØ¯":6661,"ĠØ§ÙĦÙħÙĪØ§Ø·ÙĨÙĬÙĨ":6662,"ĠÙħÙĨØ¹":6663,"ĠØ§ÙĦØ§Ø³Ùħ":6664,"ĪÙĥÙĬÙĦ":6665,"ĠÙĬÙĤØ¹":6666,"edia":6667,"ĠØ§ÙĦØ¬ÙĦ":6668,"ĠØ§ÙĦÙħØ´Ø§ÙĥÙĦ":6669,"Ø¹Ø±ÙĬ":6670,"ĠÙħØ¯Ø±Ø³Ø©":6671,"ÙĬÙĨØ²":6672,"ĠØ¥ÙĨØ":6673,"ĠØ§ÙĦÙĥØ§ÙħÙĦØ©":6674,"Ġen":6675,"ħÙĥØ":6676,"ĠÙĬØ¨ÙĦØº":6677,"ÙĨØ§Ùħ":6678,"Ø·ÙĬØ¹":6679,"ØŃØ§ÙĪÙĦ":6680,"ĠÙĪØ®Ø§ØµØ©":6681,"ÙĦÙĤØ§Ø":6682,"ĠØ§ÙĦØ£Ø¹":6683,"ĠØ§ÙĦØ³ÙĬØ§ØŃØ©":6684,"ÙģØ°Ø©":6685,"Ġ36":6686,"ĠØŃÙĬØ¯Ø±":6687,"¸Ùģ":6688,"Ø´Ø¯":6689,"ĠØ¯Ø®":6690,"81":6691,"ĠØ§ÙĦÙħØ§Ø¦":6692,"âĢĭ":6693,"ªÙħØ¯Ø©":6694,"Ø³ÙĪÙĨØ¬":6695,"ĠÙĪØ±ÙĤØ©":6696,"ĠØ§ÙĦØ¯Ø±":6697,"ĠØ¹Ø¶ÙĪ":6698,"ĠØ®ÙħØ³":6699,"ÙĬØ¶Ø§Ø":6700,"ĠØ§ÙĦÙħØ¨Ø§Ø´Ø±":6701,"ĠÙĦØ±":6702,"§Ùĩ":6703,"ert":6704,"ĠØ§ÙĦØ¬Ø§ÙĨØ¨":6705,"ÙħØµÙĨØ¹ÙĬ":6706,"ĠÙĦÙĦØ²":6707,"ĪØ¹Ø§":6708,"ĠØ§ÙĦØ¥ØµØ§Ø¨Ø©":6709,"Ø¹Ø¯Ø§Ø¯Ø§Øª":6710,"int":6711,"ĠØ£ÙĩØ¯Ø§Ùģ":6712,"ÙħØ¬ÙħÙĪØ¹Ø©":6713,"ĠØ¹ÙĦØ§ÙħØ©":6714,"ĠØ³ÙĦÙĬÙħØ§ÙĨ":6715,"ĠÙħÙĤØ¯ÙħØ©":6716,"anc":6717,"ÙģØ¹ÙĦ":6718,"ĠØ§ÙĦÙħØºÙĨØ§Ø·ÙĬØ³ÙĬ":6719,"ĠØ§Ùĥ":6720,"96":6721,"ÙħØªØ":6722,"ool":6723,"ĠØ§ÙĦÙħØªÙĪØ³Ø·":6724,"ĠØªØ¬Ø§Ø±ÙĬØ©":6725,"ĠØ§ÙĦÙħÙĪØ§Ø±Ø¯":6726,"ÙħÙĥØ":6727,"ĠØ§ÙĦØ¥ÙĨØ³Ø§ÙĨÙĬØ©":6728,"Ġ2000":6729,"ÙĬØ¶Ø§Øª":6730,"ĠÙĦÙĥØ³Ø§Ø±Ø©":6731,"ĠØªØ¯Ø±ÙĬ":6732,"±ÙĬØ´":6733,"ĠØ§ÙĦØ£ÙħÙĪØ§ÙĦ":6734,"ĠØ§ÙĦÙħÙħÙĥÙĨ":6735,"²Ø§Ø¨":6736,"ĠØ§ÙĨÙĩØ§":6737,"roid":6738,"ĠØ§ÙĦØ¨ÙĪÙĥØ³ÙĬØª":6739,"ĠØ§ÙĦØŃØ§Ø¬Ø©":6740,"ĠØ¹Ø¯ÙĬØ¯Ø©":6741,"ÙĥÙĪØ±Ø§Øª":6742,"ĠÙĨÙĪØ¹ÙĬØ©":6743,"ĠÙĥÙĪÙĦÙ":6744,"ĠØ§ÙĦÙĩÙĬØ¯Ø±ÙĪÙĥØ±Ø¨ÙĪÙĨØ§Øª":6745,"ĠØ§ÙĦØ±Ø§Ø¨Ø·":6746,"ĠAn":6747,"ĠÙĦÙĬÙĨ":6748,"Ø³ØªÙĨ":6749,"ĠÙĦÙħØ³Ø§":6750,"Ø±Ø¥":6751,"ĠØªØªÙħ":6752,"Ø·ÙĦØ¨":6753,"Ø¹Ø¬Ø§Ø¨":6754,"ĠØ§ÙĦØ¬ÙĨØ³ÙĬØ©":6755,"§Ùģ":6756,"ĠØŃØ³Ø§Ø¨Ùĥ":6757,"ĠØ§ÙĦÙĪØ¶Ø¹":6758,"ÙħØ§Ø±ÙĬØ©":6759,"ÙĦØ«":6760,"ĠØ¨ÙĤÙ":6761,"ĠØ¨ÙħÙĨØ§Ø³Ø¨Ø©":6762,"ĠÙĪØ§ÙĦØ®Ø":6763,"ĠÙĤØ±Ø":6764,"§Ø®Ø¨Ø§Ø±":6765,"ÙħØ´Ø§ÙĩØ¯Ø©":6766,"ater":6767,"ĠÙĨØ³Ø§":6768,"ØŃÙĬÙĦ":6769,"ĠØ¹ÙĦÙĬÙĨØ§":6770,"ĠØ§ÙĦØ·Ù":6771,"ĠØ¨Ø§ÙĦÙĦØºØ©":6772,"Ø§Ø®Ø¨Ø§Ø±":6773,"ÙĦØ§Øº":6774,"Ġ197":6775,"Ø¯Ø§ÙħØ©":6776,"ĠØ§ÙĦØ«ÙĤØ§ÙģØ©":6777,"ØŃØ³Ø¨":6778,"ĠØ±Øº":6779,"ustr":6780,"ĬØ¨Ø¯Ø£":6781,"ÙĬØ¨Ø¯Ø£":6782,"ÙĪØ§Ø¦ÙĬØ©":6783,"ĠØ¶ÙħØ§ÙĨ":6784,"ĠØ¹ÙĬÙĨ":6785,"ĠÙħÙĤØ§ÙĦØ§Øª":6786,"ĠÙħØµØ±ÙĬ":6787,"ĠØ§ÙĦÙĨØ¬":6788,"ĠØ§ÙĦÙħØ´Ø§Ø±ÙĬØ¹":6789,"earch":6790,"ĠØ£ØŃÙĥØ§Ùħ":6791,"ĠFacebook":6792,"§Ø³Ø¹Ø§Ø±":6793,"ÙĬØªØ§ÙħÙĬÙĨ":6794,"¸Ø§ÙĩØ±Ø©":6795,"ÙħØ³ÙĦØ³ÙĦ":6796,"ĠÙĦÙħØ¬":6797,"ĠØ¨Ø§ÙĦÙħÙĪØ±Ø¯":6798,"ance":6799,"ĠÙĬØ¨Ø¯ÙĪ":6800,"ªØµØ§Ø":6801,"ĠØ´ÙħØ³":6802,"ĠØ§ÙĦØ£ÙħØ±Ø§Ø¶":6803,"ĨØ¨Ø":6804,"ĠÙĥÙĪÙħ":6805,"Ġ90":6806,"ÙĥÙħØ§ÙĦ":6807,"ÙĦØ²ÙħØ§Øª":6808,"ĠÙĪØ±Ø§Ø¡":6809,"Ø¨ØªÙĬ":6810,"ĠØ§ÙĦØ±Ø³ÙĪÙħ":6811,"Ø³Ø±ØŃ":6812,"ĢÙĢØ":6813,"ĠØ¨Ø£ÙĬ":6814,"ĠØ§ÙĦØ¨Ø·Ø§":6815,"ÙĦÙĪÙĬ":6816,"ĠØ´ÙĪ":6817,"ÙħÙĬØ²Ø©":6818,"ĠØ§ÙĦØ¨Ø±Ø":6819,"ĠØ§ÙĦÙħÙĦÙģØ§Øª":6820,"ÙĦØ·Ø©":6821,"±ØªÙĬØ¨":6822,"ĠÙħÙĪØ§Ø¬ÙĩØ©":6823,"ÙĪÙĩÙħ":6824,"ĠÙĪØ§ÙĦÙħÙĪØ§":6825,"ĠØ§ÙĦØ¥Ø¹ÙĦØ§ÙĨ":6826,"atch":6827,"Ø§Ø³Ø¹Ø§Ø±":6828,"Ø²Ø±ÙĤ":6829,"ĠØ¯ÙĤÙĬÙĤ":6830,"ĠÙģØ§Ø":6831,"ype":6832,"ÙĨØªÙĬ":6833,"ĠØ§ÙĦÙħÙĪØ§ÙģÙĤ":6834,"ĠÙĪÙĬØŃ":6835,"ĠØ§ÙĦØ¥Ø¨":6836,"asia":6837,"Ø°Ø§Ø":6838,"ĪØ³Ø":6839,"roup":6840,"ĠPDF":6841,"ĠØ§ÙĦÙħÙħÙĬØ²Ø©":6842,"ĠØ§ÙĦÙĨÙĪÙ":6843,"ĠØ§ÙĦØ³Ùģ":6844,"ĠÙģØ±Øµ":6845,"Ø£ÙħØ§":6846,"ĠØ§ÙĦØ¬ÙĪØ§ÙĦ":6847,"ĠÙĬØ±ÙĬØ¯":6848,"ĠØ§ÙĦØ´Ø±Ø·Ø©":6849,"ĠØ§ÙĦØŃØ±Ø©":6850,"ÙĦÙĤÙī":6851,"echn":6852,"ĠÙĪØ®Ø":6853,"ĠØ§ÙĦØ®Ø¨Ø±":6854,"Ġ32":6855,"ĠØ¨ÙħÙĨØ":6856,"ĠØ³Ø¨ÙĪØ±Øª":6857,"ÙĨØ¨Ø":6858,"ĠØ§ÙħØ§":6859,"µØ¯":6860,"ĠØ§ÙĦØ£Ø³ØªØ§Ø°":6861,"Ø¦Øª":6862,"ĠØªØ±ÙĥÙĬ":6863,"ØªØ³ÙĪÙĤÙĪØ§":6864,"ĠØ¥ÙħØ§":6865,"¶ÙĪØ¹Ø§Øª":6866,"±ÙĩØ§Ø¨":6867,"ÙĪÙĦÙĬØ§":6868,"Ø¨ØªÙĩØ§":6869,"ĠÙĪÙĦÙĪ":6870,"Ø¯Ø¨":6871,"ĠÙħÙĦØŃ":6872,"ĠØ§ÙĦØ¯ÙĨÙĬØ§":6873,"ory":6874,"ĠØªØ´ÙĥÙĬÙĦ":6875,"ĨÙħÙĪ":6876,"ĪØ³ÙĪÙģ":6877,"ĠÙĪÙĤØ§":6878,"urn":6879,"ĠØ§ÙĦØ¹Ø±Ø§ÙĤÙĬ":6880,"ØŃØ¨Ø§":6881,"ĠÙħØªÙĨØ§":6882,"ĠÙĬØ¸ÙĩØ±":6883,"ĠÙĬÙĨØª":6884,"aj":6885,"ĠÙĦØ§Ø³Øª":6886,"ÙĪØ³ÙĪÙģ":6887,"ĠÙħØ¹ÙĩØ§":6888,"ÙħØµØ§ÙĨØ¹":6889,"ĠÙĩØ¯Ø§ÙĬØ§":6890,"ĠÙģÙĬØ":6891,"ĠØ®Ø¨Ø±Ø©":6892,"ÙħØ§ÙĦÙĥ":6893,"Ø¬ØªÙħØ§Ø¹ÙĬØ©":6894,"Ø¯ÙĦÙĬÙĦ":6895,"this":6896,"Ø·ÙĦ":6897,"ĨÙĬÙĪ":6898,"ĠÙĪØ§ÙĦÙĥØ":6899,"ĠÙĪÙĩÙĨØ§Ùĥ":6900,"ound":6901,"ÙĪÙĦÙĩØ§":6902,"ĠÙĬØ±Ø¬Ùī":6903,"ĠØªØµÙħÙĬ":6904,"ÙĬØŃØ§Øª":6905,"ÙĪØ¬Ø":6906,"ĠInd":6907,"tern":6908,"·ÙĤ":6909,"ĠÙĨØ¬Ø§ØŃ":6910,"ĠØŃÙĤÙĬÙĤØ©":6911,"´Ø§Ø´Ø©":6912,"ĠØ§ÙĦØ¨ÙĨ":6913,"ĠØ¥ÙĨØ¯ÙĪÙĨÙĬØ³ÙĬØ§":6914,"95":6915,"Ġnot":6916,"Ø§ÙĦÙĬØ¨":6917,"ĠÙĨÙĤØ§Ø·":6918,"ĠÙĦØªØ¹Ø¯ÙĬÙĨ":6919,"ÙģÙĦØª":6920,"ĠØ§ÙĦØµÙĦØ¨Ø©":6921,"ĠØ§ÙĦÙĪØ¸Ø§Ø¦Ùģ":6922,"ĠØªÙĥÙĨ":6923,"ÙĨÙĪÙģÙħØ¨Ø±":6924,"ĠØªØ±Øª":6925,"ÙĦÙħÙĬØ¹":6926,"ĠØ§ÙĦØ£ÙĬØ§Ùħ":6927,"ĠØ§Ø³ØªØ±Ø§ØªÙĬØ¬ÙĬØ©":6928,"ÙĤÙĬØ¨":6929,"ĠØºØ°Ø§":6930,"ĠØµÙĦØ§Ø©":6931,"ĠØ§ÙĦØ¨Ø¯Ø§ÙĬØ©":6932,"¸ÙģÙĬÙĨ":6933,"ÙĥÙī":6934,"Ø·ÙĦØ§Ø¹":6935,"¶Ø§Øª":6936,"ĠØ§ÙĦØªÙĪØ§":6937,"ĠØ§ÙĦØ£ÙĪÙĦÙĬØ©":6938,"ĠÙĪØ§ÙĦÙģØ":6939,"ÙĥØ§ÙħÙĦ":6940,"ĠØ§ÙĦØ§ÙħØª":6941,"ĠØ¨ØµÙĪØ±Ø©":6942,"ĠÙĤÙĪÙĦ":6943,"ĠÙħØ¬ØªÙħØ¹":6944,"ÙĦÙĤØ§Øª":6945,"ĠÙĦÙĦØ¨ÙĨØ§Øª":6946,"ĠÙĩÙī":6947,"ĠØ§ÙĦØªØ¯Ø±ÙĬØ¨":6948,"ĠØ¥Øª":6949,"ĠØ§ÙĦØ£Ø®ÙĬØ±":6950,"mm":6951,"°ÙĥØ±Ø©":6952,"rev":6953,"ĪØ³Øª":6954,"Ø¯Ø§Ø±ÙĬ":6955,"ĠØ§ÙĦØŃÙħØ§Ùħ":6956,"ºØ·ÙĬØ©":6957,"ÙĢØ§":6958,"ĠØ§ÙĦØ¨ÙĬØ¶Ø§Ø¡":6959,"ĠØ§ÙĦØ©":6960,"Ø´Ø±Ø§Ø¡":6961,"ÙħØ§Ø³":6962,"ĠØ±Ø§Ø³":6963,"ĨÙĪØ§":6964,"ĠØ§ÙĦÙħØ§Ø³":6965,"±ÙĪØ±ÙĬ":6966,"ĠÙĪØŃØ¯Ø§Øª":6967,"ĠØªØ³Ø¨Ø¨":6968,"amp":6969,"::":6970,"§Ø³ØªØ":6971,"ĠØ¥ØµÙĦØ§ØŃ":6972,"ĠØ§ÙĦÙĤØ¯ÙĬÙħ":6973,"ĠØ¥Ø¬Ø±Ø§Ø¡Ø§Øª":6974,"ÙĦÙĪÙĬØ§Øª":6975,"Ø³Ø³Øª":6976,"Ø£ÙĥÙħÙĦ":6977,"ĠØ·Ø¨ÙĬØ©":6978,"ĠØ³Ø§Ø¨ÙĤ":6979,"Ø§ÙĦØµÙģØŃØ©":6980,"ĠØ§ÙĦØµØ±Ùģ":6981,"±ÙĬØ¨Ø§":6982,"ĠØ§ÙĦØ£ÙĪØ±ÙĪØ¨ÙĬØ©":6983,"ħØ¯Ø§":6984,"ªØµØ§Ø±":6985,"ÙģØ§ØªÙĬØŃ":6986,"ĠÙĦÙĦØ§Ø³Øª":6987,"ĠØ§ÙĦØ£Ùħ":6988,"ĠØ³Ø¬":6989,"ĠØ§ÙĦÙħØ´ÙĥÙĦØ©":6990,"ck":6991,"ĠØ§ÙĦØ¨ØŃ":6992,"ĠØ¨Ø§ÙĦÙħÙĨØ":6993,"ĠØªØ¹Ø§":6994,"Ø§ÙĦÙĥØ§":6995,"ĪØ¹ÙĨ":6996,"ĠÙĥÙĩØ±Ø¨Ø§Ø¦ÙĬØ©":6997,"ĪÙĥÙĬÙģ":6998,"ĠØ´Ø§Ù":6999,"ÙĪÙĥÙĬÙģ":7000,"ÙĪØ¹ÙĨ":7001,"Ø³Ø§Ø·Ø©":7002,"ĠØ²ÙĬÙħØ¨Ø§Ø¨ÙĪÙĬ":7003,"Facebook":7004,"ĠØ±ÙĤ":7005,"ĠØ§ÙĦÙĥÙĦÙħØ§Øª":7006,"ĠFor":7007,"Ø¯Ø«Ø©":7008,"ĠÙĪØ§ÙĦØ¯ÙĥØªÙĪØ±":7009,"§Ø®Ø":7010,"ĠØ§ÙĦØ£Ø®Ø¶Ø±":7011,"ĠØ·Ø§ÙĦØ¨":7012,"ĠØ§ÙĦØ£Ø¯ÙĪØ§Øª":7013,"ÙĬØ±ØªØ§Øª":7014,"¶Ø§Ø±":7015,"ics":7016,"ĠÙĦØ¨ÙĬØ¹":7017,"TM":7018,"ÙĩÙĬØ¯":7019,"ĠØ§ÙĦØ¯ÙĩÙĪÙĨ":7020,"ĠÙĪØ´Ø±":7021,"Ø§Ùĩ":7022,"ĠØ§ÙĦÙĨØ³":7023,"ments":7024,"Ø§Ø³ØªØ":7025,"ÃĹ":7026,"Ø¨Ø§ÙĦØ¥":7027,"ĠØ§ÙĦÙĥØ§ØªØ¨":7028,"²Øª":7029,"hai":7030,"ĠÙĦÙħØµÙĨØ¹":7031,"ĠÙħÙĥØ":7032,"ĠØ§ÙĦÙħØ¯Ø±Ø³Ø©":7033,"ĠØ±Ø³ÙĪÙħ":7034,"ĠØ§ÙĦÙĥÙĪÙĥ":7035,"ĠØ§ÙĦÙģÙĬØ³":7036,"Ø£ÙĥØ«Ø±":7037,"ĠØ§ÙĦØ¬Ø§ÙħØ¹Ø§Øª":7038,"ĠØ§ÙĦØ¨Ø§Ø±ÙĬØª":7039,"ĠØ§ÙĦÙħØ¤Ø³Ø³Ø§Øª":7040,"Ø¹ØªÙĩØ§":7041,"ĠØ§ÙĦÙħÙĤØ¨ÙĦ":7042,"ĠÙħØ±Ø§Ø¬Ø¹Ø§Øª":7043,"].":7044,"ÙĪÙĦÙĪÙĨ":7045,"ĠØªÙĨØ³ÙĬÙĤ":7046,"ĠØ¢Ø³ÙĬØ§":7047,"ĠØ§ÙĦÙħØŃØ±Ùĥ":7048,"ÙħÙĢ":7049,"Ø®Ø¨Ø§Ø±ÙĬØ©":7050,"ĠØ§ÙĦØ¹ÙħÙĦÙĬØ§Øª":7051,"ĠØ¥ÙĦÙĩ":7052,"ĠØ§ÙĦØ¬ÙĪÙĬØ©":7053,"Ø¯Ø³Ø©":7054,"riv":7055,"Ø§ÙĦØ¨Ø±ÙĬØ¯":7056,"Ø¯Ø±Ùĥ":7057,"ĠØ±Ø¬Ø§ÙĦ":7058,"Ø§Ø®Ø":7059,"ĠØ¨Ø¯ÙĦØ§":7060,"ĠØ§ÙĦØ¥Ø¯Ø§Ø±ÙĬØ©":7061,"ÙĥØ§Ø©":7062,"ĠÙ£":7063,"51":7064,"ix":7065,"ĠÙĥÙĪØ±":7066,"ĠØ±Ø§Ù":7067,"ŃØ§ÙģØ¸Ø©":7068,"ºØ§Ø±":7069,"ĠÙħØ§Ø¡":7070,"Ø³ØªÙĬØ±":7071,"ÙĪØµÙĬÙĦ":7072,"ĠØ§ÙĦØ·Ø¨ÙĬØ¨":7073,"Inquire":7074,"ĠÙħØ³Ø§Ø¨":7075,"ÙĤØ³Ø§Ùħ":7076,"Ġz":7077,"ÙĨÙħÙĪ":7078,"ĠØªÙħØª":7079,"ĠØ§ÙĥØ¨Ø±":7080,"ĠØ¹ÙĬ":7081,"ĨÙħØ§Ø°Ø¬":7082,"ĪÙĦÙĬÙĨ":7083,"ÙĪÙĥÙĬÙĦ":7084,"Ù¦":7085,"ĠØ§ÙĦØ¬ÙħØ¹ÙĬØ©":7086,"ĠØªØ¹ØªÙħØ¯":7087,"ĠØ§Ø®Ø±Ùī":7088,"ÙĪÙģØ±":7089,"ĠØ¬ÙħÙĬÙĦØ©":7090,"Ø¹ØªØ¨Ø§Ø±":7091,"ÙĨØ§Ø¹Ø§Øª":7092,"ĠVSI":7093,"ĠÙĪÙĩÙħ":7094,"ĠØ§ÙĦØ¨Ø±Ø§Ø²ÙĬÙĦ":7095,"igh":7096,"ĠÙĦÙĨØ¯ÙĨ":7097,"ĠØ®ÙĬØ§Ø±":7098,"±ÙĪÙģØ©":7099,"®Ø§ÙĨ":7100,"ĠØ§ÙĦÙĨÙĩØ§Ø¦ÙĬ":7101,"gy":7102,"ĠØºØ±Ø¨Ø§ÙĦ":7103,"Ä±":7104,"ÙĥØ´":7105,"quip":7106,"ĠØ·ÙĪØ§ÙĦ":7107,"oh":7108,"ĠØ·ÙĪÙĦ":7109,"ĠØ§ÙĦÙĤÙĨÙĪØ§Øª":7110,"ĠØ§ÙĦØ³Ùħ":7111,"ĠØ·ÙĬ":7112,"ĠØ¬ÙĪØ±Ø¬":7113,"Ġhe":7114,"ĠØ±ÙĪÙĥ":7115,"ĠØ§ÙĦÙħØ¯ÙĨÙĬ":7116,"ĠØªØµØ§":7117,"ĠØ³ÙĥØ§ÙĨ":7118,"Ø¬ÙĦØ©":7119,"ĠØªØ³Ø§":7120,"ĠØ¨Ø§ÙĨ":7121,"ÙĨÙĬÙĪ":7122,"ÙĨÙħØ§Ø°Ø¬":7123,"ĠØ³Ùģ":7124,"Ø§ÙĦÙģÙ":7125,"ÙĤØ¶":7126,"ĠØ§ÙĦÙħØ±Ùĥ":7127,"ĠØ³ÙĨÚ¯":7128,"·ÙĨØ©":7129,"ÙĥØªØ§Ø¨":7130,"ĠØ¨Ø§ÙĦÙĤØ±Ø¨":7131,"agram":7132,"ĠÙħØ¬ÙħÙĪØ¹Ø§Øª":7133,"ĠØ§ÙĦØ¥Ø®":7134,"ĠÙĦØ¯ÙĬÙĩÙħ":7135,"ÙĪØ§ÙĨÙĬØ©":7136,"ĠØ§ÙĦØ¹ÙĨØ§ØµØ±":7137,"Ø¯Ø²":7138,"´ØªØ":7139,"ĠØ£Ø¹ÙĦÙĨØª":7140,"ĠÙħØ§ÙĦÙĥ":7141,"·ÙĦ":7142,"ĠØ§Ø¬":7143,"ĠÙĦØ´Ø±Ø§Ø¡":7144,"ĠØ¥ÙħÙĥØ§ÙĨÙĬØ©":7145,"ĠØ³Ø¹Ø©":7146,"Ø³ØªØ®Ø±Ø§Ø¬":7147,"ĠØ¹ÙĨØ§":7148,"ÙĦØªØ":7149,"ÙħÙĪÙĬØ©":7150,"ĪÙĦØ§Ø":7151,"Ø¨Ø±ÙĪ":7152,"ĠØ§ÙĦØ±ÙĬ":7153,"ĬØ³ØªØ":7154,"ĠØªØŃØ¶":7155,"ĠØªÙĪØ²ÙĬØ¹":7156,"ĠÙĪØ§ÙĦÙĦÙ":7157,"ÙħØ´Ø±ÙĪØ¹":7158,"Ø±Ø¥ÙĥØ³":7159,"ĠØ´Ø£ÙĨ":7160,"¶ÙĬÙģ":7161,"ĠØ¬ÙħØ¹ÙĬØ©":7162,"ĠØ¨ÙĦØ¯":7163,"ĠØ¢ÙĦØ§Ùģ":7164,"ĠØ§ÙĦÙħØ³ØªØ«":7165,"ªØ±Ø§ÙĪØŃ":7166,"ĠÙģØ¥Ø°Ø§":7167,"ĠØ§ÙĪÙĦ":7168,"ĠÙĥØ±Ø§":7169,"Repl":7170,"ĠÙĦØ¶ÙħØ§ÙĨ":7171,"ownl":7172,"ĠØ§ÙĦØŃØ§ÙĦÙĬØ©":7173,"ĠØµÙĨØ§Ø¹ÙĬØ©":7174,"ĠÙħØ±Ø§ÙĤØ¨Ø©":7175,"Ø±Ø§Ø¡Ø":7176,"ĠØŃÙĥÙĪÙħØ©":7177,"ĠØ§ÙĦÙĥÙĦÙĬØ©":7178,"ÙģÙĬÙģØ©":7179,"ĠØ§ÙĦÙħÙĩÙħØ©":7180,"ons":7181,"ĠÙĬØº":7182,"ÙĦÙĪØ±":7183,"Ø£ÙĨÙĪØ§Ø¹":7184,"ĠØ¥ÙĬØ·Ø§ÙĦÙĬØ§":7185,"§ÙħØªÙĦÙĥ":7186,"ØŃØªØ§Ø¬":7187,"Ø§ÙħØªÙĦÙĥ":7188,"AC":7189,"ĠÙĥØ³Ø±":7190,"OR":7191,"ĠÙħÙĩÙħ":7192,"ĠÙħØ¹ÙĬÙĨ":7193,"ĠØªØ¨Ø¯ÙĬÙĦ":7194,"ĠØ§ÙĦÙħØ³ØªØ®Ø¯ÙħÙĬÙĨ":7195,"ĠØ§ÙĦØªØºØ°ÙĬØ©":7196,"ÙħÙĨØªØ¯Ùī":7197,"ĠÙĪÙĥÙĬÙģ":7198,"ĠØ§ÙĦÙĤØ§Ø¯ÙħØ©":7199,"ĠØ§ÙĦØ¨ÙĦØ§Ø³ØªÙĬÙĥ":7200,"ĨÙĤØ±":7201,"ĠÙĪØ³ÙĪÙģ":7202,"ĠØ±ÙħØŃ":7203,"ĠØ§ÙĩÙħ":7204,"ĠØ§ÙĦØ¹Ø§Ø":7205,"Ø·Ø¦":7206,"ÙĬØ³ØªØ":7207,"ĠØµØ¨":7208,"ĠÙĦØ§Ø¹Ø¨":7209,"Ø¶ÙĪØ±":7210,"ĪÙĪØ":7211,"ĠÙħØªØ§Ø¨Ø¹Ø©":7212,"ĠØ§ÙĦØ¥Ø³ÙħÙĨØª":7213,"Ø®ÙĬØ±":7214,"))":7215,"ĠØ¥Ø¹ÙĦØ§ÙĨ":7216,"ÙĪØ³Ø":7217,"®Ø²ÙĬÙĨ":7218,"Ġvsi":7219,"ĠØ§ÙĦÙħØ¯Ø§Ø±Ø³":7220,"ÙĪØ³Øª":7221,"ÙĦÙħØ§Ø°Ø§":7222,"ÙħØ§ÙĦÙĬØ©":7223,"ĠØ£ÙĪÙĨ":7224,"ĠØ°Ø±ÙĪØ©":7225,"ĠÙĥØªÙĦØ©":7226,"ĠØŃØµØ±ÙĬØ©":7227,"ĠØ§ÙĦÙħÙĥØ³ÙĬÙĥ":7228,"ĠÙĤÙĬ":7229,"ĠÙĪÙģØ§Ø©":7230,"58":7231,"ĠÂ©":7232,"ĠØ·Ø±ØŃ":7233,"ªÙĪÙĤÙĬØª":7234,"ÙĩØ¯Ø§Øª":7235,"ĠÙĬØ¨Ø¯Ø£":7236,"ĠØ§ÙĦÙħØ¯ÙĬØ±":7237,"ĠÙĤÙģØ§Ø²Ø§Øª":7238,"ħÙģÙĩÙĪÙħ":7239,"ĠÙĥÙĦØ§Ùħ":7240,"ĠØŃØ§Ø¬Ø©":7241,"ĠØªØ£ØªÙĬ":7242,"ĪÙĦÙī":7243,"ÙĦØ§ÙĪØ©":7244,"ĠØ§ÙĦØ²Ø±":7245,"¶Ø§Ø¦":7246,"Ø¹ÙĬÙħ":7247,"ownload":7248,"ĠØ§ÙĦÙĨØ®":7249,"ĠØ§ÙĦØ³ÙĦØ·Ø§Øª":7250,"Ġres":7251,"ĠØ§ÙĦØ«ÙĨØ§Ø¦ÙĬØ©":7252,"ĠÙĥÙĩØ±Ø¨Ø§Ø¦ÙĬ":7253,"ÙĦÙħÙĪÙĨ":7254,"ĠØ§ÙĦÙħØ¤ÙħÙĨ":7255,"ØŃÙĥØ§Ùħ":7256,"54":7257,"ĠØ§ÙĦØ°Ùī":7258,"Ø¯ÙĬÙĦØ§Øª":7259,"·ÙĪÙĦØ©":7260,"ĠØ§ÙĦØ¨Ø³":7261,"ĠÙħØ±ÙĪØ±":7262,"±ÙħØ§ÙĦ":7263,"oy":7264,"ents":7265,"ĠÙģÙĩØ°Ø§":7266,"ĠØ§ÙĦØŃÙĦ":7267,"Ø§ÙĦÙĪ":7268,"',":7269,"ĠÙģÙĨØ¯ÙĤ":7270,"ĠØ§ÙĦØŃØ±Ø§Ø±ÙĬØ©":7271,"ªØ¹Ø¯ÙĬÙĨ":7272,"ÙĪØ§Ø¯Ø«":7273,"sk":7274,"ĠØ§ÙĦÙĪØŃØ¯Ø©":7275,"ĠØºØ¶":7276,"ĠÙĦÙĪØ§Ø²Ùħ":7277,"ĠØ§ÙĦØŃØ³ÙĨ":7278,"ÙĦØ§ÙħÙĬ":7279,"ÙĪÙĪØ":7280,"ÙĦÙħØ§ÙĨÙĬ":7281,"ĠMar":7282,"µÙĬØ¯":7283,"ªÙĪØ¯":7284,"ĠÙĪØ§ÙĦØ®Ø¯ÙħØ§Øª":7285,"ÙĨØªÙĩØ§":7286,"ÙħØ±ÙĬÙĥØ§":7287,"ÙĨØ§ÙĨØ©":7288,"ĠØ§ÙĨØªØ´Ø§Ø±":7289,"ĠÙĨØ´Ø§Ø·":7290,"ªØ§Ø²Ø©":7291,"ĪØ¹ÙĬØ©":7292,"ĠØ£ÙĨØ¸ÙħØ©":7293,"°ÙĬØ¨":7294,"ÙĬÙĨØ¬":7295,"ĠÙĪÙħÙĨÙĩØ§":7296,"Ø³Ùĩ":7297,"ĠØªØªÙħÙĬØ²":7298,"ode":7299,"ĠÙģÙħØ§":7300,"ĠØ§ÙĦÙĪØ§ØŃØ¯":7301,"ÙĨØ§ÙĪÙĬÙĨ":7302,"Ø¨Ø§Ø±ÙĬ":7303,"ĠÙħØ¶Ø§":7304,"ĠØ¹ÙħØ±ÙĪ":7305,"ĠÙħØ§ÙĦÙĬØ©":7306,"ħØ§Ø¡":7307,"Ø£ØŃØ¯Ø«":7308,"ĠØ§ÙĦÙħØ¯ÙĨÙĬØ©":7309,"ħØ¯Ø§Ø±Ø³":7310,"ĠØ§ÙĦØµØŃØ§ÙģØ©":7311,"ĠÙħÙĪØ³":7312,"ĠØ§ÙĦØŃÙĤÙĬÙĤØ©":7313,"ÙħØ§Ø°Ø§":7314,"ĠØ´Ø±ÙĬÙĥ":7315,"ØµØºØ±":7316,"ĠÙĪØ£ÙĥØ«Ø±":7317,"ĠØ¨Ø§ÙĦØ¬ÙħÙĦØ©":7318,"Ġ2007":7319,"ĠØ§ÙĦÙĩØ":7320,"ÙģØ¶ÙĦØ©":7321,"ĠØ´ÙĨØºÙĩØ§ÙĬ":7322,"ÙĩÙħÙĬØ©":7323,"ĠÙĨÙħÙĪ":7324,"ĠØ§ÙĦÙĥÙĦÙĨÙĥØ±":7325,"ĠÙĦÙĤØ§Ø¡":7326,"52":7327,"Ġall":7328,"ĠØ¹Ø´Ø±Ø©":7329,"Ø³ØªØ§Ø°":7330,"ĠØ§ÙĦØ¨ÙĬ":7331,"ĠØ§ÙĦØŃØ²":7332,"ĠØ§ÙĦØ¬Ø§ÙħØ¹":7333,"ĠØŃØ¯Ø§Ø¦ÙĤ":7334,"ÙĢÙĢÙĢ":7335,"ĤØ§ÙĨÙĪÙĨ":7336,"ĠØ§ÙĦØµØºÙĬØ±":7337,"ĠØ³Ø§ÙħØ³ÙĪÙĨØ¬":7338,"ĠØ§ÙĦÙħÙĪØ§ØµÙģØ§Øª":7339,"ĠØ§ÙĦÙħØ§ÙĦÙĬ":7340,"ĠØµØ¨Ø§":7341,"ĠØ¬ÙħÙĬ":7342,"ĠØ¹Ø±Ø¨":7343,"±ÙĪÙĨØ©":7344,"ĠØ¬Ùħ":7345,"400":7346,"ĠÙĦØ§Øª":7347,"ĠØ§ÙĦØ²ÙĬØª":7348,"ĠÙĪØªÙĤ":7349,"ĠÙĪÙĪØ":7350,"stagram":7351,"ĠØŃØ±Ø§Ø±Ø©":7352,"ĠØ·Ø¨Ø§Ø¹Ø©":7353,":âĢı":7354,"ĠØ´Ø¹Ø¨ÙĬØ©":7355,"ºØ§Ø²":7356,"ĠØ§ÙĦØ§ØªØµØ§ÙĦØ§Øª":7357,"ĠÙħØ¯Ø±ÙĬØ¯":7358,"ĠØ³Ø¨ØŃØ§ÙĨ":7359,"ÙĩØ§ÙĨØ§Øª":7360,"ÙĪØ²ÙĬØ±":7361,"ĠØ§ÙĦÙħØ¯Ùī":7362,"ØªØ¹Ø¯ÙĬÙĨ":7363,"ÙĦØ®":7364,"ĠØ¬Ø§ÙĨ":7365,"âĢĮ":7366,"ĠÙħØ¬Ø±Ø¯":7367,"ĠØµØŃÙĬØ©":7368,"®Ø°":7369,"ĠÙĦÙĦØ§Ø³ÙħÙĨØª":7370,"ĠØ§ÙĦØ·ÙĬØ±Ø§ÙĨ":7371,"AS":7372,"ĠØ§ÙģØ±ÙĬÙĤÙĬØ§":7373,"±ÙĬØŃ":7374,"ĠØ§ÙĦÙħÙĪØª":7375,"ĠØ§ÙĦÙħØ³Ø§Ø¹Ø¯Ø©":7376,"ich":7377,"ĠØ¬Ø²ÙĬØ±Ø©":7378,"ĠØ§ÙĦØŃØ¯ÙĪØ¯":7379,"ÙĨÙĬÙģØ§Øª":7380,"Ġnew":7381,"²Ø§Ø²":7382,"ĠØªØ¬Ø§Ø±":7383,"ªØ³Ø¬ÙĬÙĦ":7384,"ĠØ§ÙĦÙħÙĨØ§Ø®":7385,"Ġmp":7386,"ĠÙĦÙĦØ±Ø¬Ø§ÙĦ":7387,"ĠØ§ÙĦØ§ØªÙģØ§ÙĤ":7388,"ØªØ³Ø¬ÙĬÙĦ":7389,"ĠØ§ÙĦØ§ØµØ·ÙĨØ§Ø¹ÙĬ":7390,"ĠØ¨Ø§ÙĦØ¨":7391,"ĠØ§ÙĦØªÙģØ³ÙĬØ±":7392,"ĠâĿĿ":7393,"ĠØ£Ø®Ø°":7394,"ĠØ§ÙĦØŃØ³ÙĬÙĨ":7395,"ĠØ§ÙĦØ¬ÙĪ":7396,"ħØ¯ÙĨ":7397,"ual":7398,"ĠÙħØªØ·ÙĦØ¨Ø§Øª":7399,"ĬÙħØ§Øª":7400,"ĠØ§ÙĦØ£ÙĦÙĪÙħÙĨÙĬÙĪÙħ":7401,".[":7402,"ĠØ´ÙĪØª":7403,"ÙħØ§ÙĥÙĬÙĨØ©":7404,"ĠØ¹ÙĨØ§ØµØ±":7405,"ĠØ§ÙĦØªØ·":7406,"ĠØ§ÙĦØ§Ø«Ø§Ø«":7407,"ĠØ§ÙĦØ¹ÙĦØ§ÙĤØ©":7408,"¥ÙħÙĥØ§ÙĨ":7409,"ĨØŃ":7410,"-%":7411,"ĠØ¹Ø¨Ø§Ø³":7412,"Ø´ÙĨØ":7413,"ĪÙħØª":7414,"ÑĢ":7415,"ĠØ¥ÙĥØ³":7416,"AT":7417,"ĠØ§ÙĦØ¹Ø¶ÙĪ":7418,"ĠÙħØŃÙĦØ§Øª":7419,"ĠÙħØ²ÙĬØ¯":7420,"ĠÙĪØ§ØªØ³":7421,"ĠÙģØ±Ø¹":7422,"ĠØ¹Ø§ÙħÙĦ":7423,"ĠØ§ÙĦØ¥Ø¬Ø±Ø§Ø¡Ø§Øª":7424,"ĠØ·Ø¨ÙĬØ¹ÙĬØ©":7425,"ĠØµØŃÙĬ":7426,"ĠâĿŀ":7427,"ªØ³ÙĪÙĤÙĬ":7428,"±Ø³ÙĦ":7429,"________":7430,"ØŃÙĨØ§Øª":7431,"ĠÙħÙĨÙĩØ¬":7432,"ØªØ³ÙĪÙĤÙĬ":7433,"ĠØ§ÙĦØ´Ø±ÙĬÙģ":7434,"ĠØªÙĪØµÙĬÙĦ":7435,"ĪÙĦÙĨØ¯Ø§":7436,"ĠØ§ÙĦØªØ¯":7437,"ĠØ£Ø¹Ùħ":7438,"´Ø®Øµ":7439,"Ø±Ø§ØŃØ©":7440,"ĠØ¨Ø£Ø³Ø¹Ø§Ø±":7441,"ĠÙĪØ§ÙĦØªØ¹ÙĦÙĬÙħ":7442,"ĠØ¨Ø£Ø³":7443,"ĠØ§ÙĦØ¬Ø²ÙĬØ±Ø©":7444,"ĠØ§ÙĦØ¨Ø§Ø¨":7445,"ĠØªØªØ¶ÙħÙĨ":7446,"ĠØªÙĪØ§ØµÙĦ":7447,"53":7448,"ĠØªØ«Ø¨ÙĬØª":7449,"Ġsp":7450,"ĠØ§ÙĦØ¨ØŃØ±ÙĬØ©":7451,"ĠÙĬÙĨØ¨ØºÙĬ":7452,"ÙĤÙĪÙĬÙħ":7453,"Ġ900":7454,"ĠØ¨ÙĥØ«":7455,"ĠÙĦÙĦÙĨØ³Ø§Ø¡":7456,"ÛĮÙĨ":7457,"ĠØ§ÙĦÙĩØ¯Ùģ":7458,"ĬÙħÙĬÙĨ":7459,"ĠØ§ÙĦÙĨÙĤØ§":7460,"ÙĩØ¶Ø©":7461,"ĠØ§ÙĦØ´ÙĥÙĦ":7462,"Ø¨Ø¯Ø§ÙĦ":7463,"ĠÙĪÙģØ±Ø¥ÙĥØ³":7464,"ÙħØ¤":7465,"ÙĨØ§Ø³":7466,"ĠØ§ÙĦØ²Ø±Ø§Ø¹Ø©":7467,"ĠØ§ÙĦÙĨØ§ØªØ¬":7468,"ÙĤÙĪØ·":7469,"ĠØ¬Ø³Ùħ":7470,"ĠÙĦØµÙĨØ§Ø¹Ø©":7471,"ĠØ£Ø³Ø¦ÙĦØ©":7472,"ÙģÙĬØ¶":7473,"ĠØ³ÙģØ±":7474,"«Ø§Ø¦ÙĤ":7475,"Ġ:::":7476,"Ø¬ÙĨØ¨ÙĬ":7477,"ĠØ§ÙĦÙĪØ±ÙĤ":7478,"ĠØ§ÙĦÙĥÙĬÙħÙĬØ§Ø¦ÙĬØ©":7479,"ØªØ§Ø¨Ø¹":7480,"ĠØ¯Ø§Ø¦Ø±Ø©":7481,"\",":7482,"ĠÙħÙĨÙĥ":7483,"Ø¹ÙħÙĦØ§Ø¡":7484,"ĠØµØ±Ùģ":7485,"ĠØ§ÙĦØ¢ÙĦÙĬ":7486,"ĠØ§ÙĦØªÙĤØ±ÙĬØ±":7487,"ĠÙħÙĥÙĪÙĨØ§Øª":7488,"ĠØªÙĪØ§Ø¬Ùĩ":7489,"ĠØ§ÙĦØµÙĬØ¯":7490,"ÙĨØ¬Ø§Ø²":7491,"ĠØ§ÙĦØ£ØµÙĦ":7492,"Ġlik":7493,"ĠÙħØŃØ§Ø¬Ø±":7494,"ĠØ§Ø¶ØºØ·":7495,"ĠØ§ÙĦØ´Ø¹Ø¨ÙĬØ©":7496,"âĢ¦]":7497,"eed":7498,"ĠØ§ÙĦÙĩÙĨØ¯ÙĬ":7499,"ĠÙĥÙħØ¨ÙĬÙĪØªØ±":7500,"ĠPh":7501,"ĠØ§ÙĦÙħÙĥØªØ¨":7502,"µÙĪÙħØ§Øª":7503,"Ġonline":7504,"ĠØ³Ø±ÙĬØ¹Ø©":7505,"ĠØ£ÙħØ±ÙĬÙĥÙĬ":7506,"ĠØ§ÙĦÙħØ¯Ø±":7507,"ĠÙħÙĪÙĤÙģ":7508,"Ø±Ø±Ø©":7509,"Ġ//":7510,"¶Ø±Ø§Ø¡":7511,"ĠÙĪÙħØ±Ø§":7512,"Ġcont":7513,"ĠØ§ÙĦØ£ÙħÙĬØ":7514,"Ø¨ÙĩØ§":7515,"ÙĪÙĬÙĩ":7516,"Ø³ØªÙĪÙĨ":7517,"ĠØ§ÙĦØ£ÙĪØ±Ø§ÙĤ":7518,"ÙħØ§ÙĨØ©":7519,"ĠØªØ¬Ø§Ùĩ":7520,"ĠÙħØŃØ§ÙģØ¸":7521,"ĠØ§ÙĦØ£Ø³Ø¦ÙĦØ©":7522,"ĠØ¨Ø´Ø±":7523,"ĠØ§ÙĦÙħØ¤ØªÙħØ±":7524,"ĨÙĪÙĨÙĬ":7525,"ĠØ£Ø±Ø¨Ø¹Ø©":7526,"ĠÙĦÙĨÙĤÙĦ":7527,"ĠØ¨ØŃØ§Ø¬Ø©":7528,"ÙģØ§Ø¶Ø§Øª":7529,"ÙĤØ¯ÙĬØ±":7530,"ĠØ§ÙĦØŃØ§ÙĦ":7531,"ĠØ·Ùģ":7532,"ÙĪØ¶ÙĬØŃ":7533,"ĠØ§ÙĦÙĦÙĬÙĦ":7534,"ĠØ§ØŃØªÙĬØ§Ø¬Ø§Øª":7535,"ĠÃĹ":7536,"ĠØ§ÙĦØµÙĦØ©":7537,"ĠØ§ÙĦØ¹ÙħØ§ÙĦ":7538,"ath":7539,"ÙĬØ«Ø§":7540,"ĠØ¶Ø§":7541,"ĠØ§ÙĦØ¬Ø±":7542,"ĠØ§ÙĦØ£Øº":7543,"ĠÙħØ³ØªØ¹ÙħÙĦ":7544,"ÙħØ§ÙħØ§Øª":7545,"Ø¹ÙĦÙĬ":7546,"ªÙĪÙĤÙģ":7547,"ĠÙĨØ§ØŃÙĬØ©":7548,"ĠØ§ÙĦØ¶ÙĪØ¡":7549,"ªØ¬Ø§":7550,"®ÙĦØµ":7551,"ĠØ§ÙĦØ¯Ø§Ø®ÙĦÙĬ":7552,"ĠØ£ÙĨÙĩÙħ":7553,"ms":7554,"ÙħØ±Øª":7555,"ĪÙĥØ³Ø§Ø±Ø©":7556,"ĠØ¨Ø¬ÙħÙĬØ¹":7557,"ĠØªØªØ¨Ø¹":7558,"ĠØ§ÙĦÙħØªØ§ØŃØ©":7559,"Ø§ÙĦØªØ¹Ø¯ÙĬÙĨ":7560,"ÙĪÙĥØ³Ø§Ø±Ø©":7561,"ĠØ§ÙĦÙħÙĪØ³ÙĪØ¹Ø©":7562,"Ø¹ÙħÙĦÙĬØ§Øª":7563,"ĠØ§ÙĦÙĨÙģØ§ÙĬØ§Øª":7564,"ĠÙĨÙģØ³Ùĥ":7565,"âĢı.âĢı":7566,"82":7567,"ĠØªÙĦ":7568,"ĠØ§ÙĦÙħØ¨Ø§Ø±Ø§Ø©":7569,"ĠØ§ØŃØ¯":7570,"ĠØ¨ØªØµ":7571,"ÙĩØ§Ø¯Ø§Øª":7572,"Ø¦ØŃ":7573,"ĠØªÙĪÙĦÙĬØ¯":7574,"¶ÙĪÙĬØ©":7575,"ĠØ¹Ø«ÙħØ§ÙĨ":7576,"±ÙĥØ²":7577,"Ø§Ø¯":7578,"ĠØ¨ÙĬØ±ÙĪØª":7579,"ĨÙĬÙĪÙĬ":7580,"ĠÙĩØ±":7581,"Ø³Ø¦ÙĦØ©":7582,"ÙĤØ§Ø±Ø¨":7583,"ÙĪÙħØª":7584,"ĠÙĨÙĬÙĪØ²":7585,"ÙĨÙĬÙĪÙĬ":7586,"«Ø§ÙģØ©":7587,"ĠØ´Ø§Ø´Ø§Øª":7588,"ser":7589,"Ø¨Ø§ØªÙĬ":7590,"ĠØ§ÙĦÙģØ±Ø²":7591,"ĠÙħØŃØ§ÙĪÙĦØ©":7592,"Ø³ÙĪÙĨ":7593,"ĠØ«Ø§ÙĦØ«":7594,"ÙĨÙĪØ§":7595,"ÙĦÙģÙĦ":7596,"ĠØ±ÙĪØŃ":7597,"ĠØ§ÙĦÙħØ¬Ø§ÙĦØ§Øª":7598,"ĠÙĪÙĥØ³Ø§Ø±Ø©":7599,"ĠØ¯Ø±Ø¬Ø§Øª":7600,"ĠAb":7601,"ĠØ§ÙĦØ£Ø±Ø¬":7602,"ÙģÙĪÙģ":7603,"ĠÙħÙĪØ³Ùī":7604,"ØŃØ²Ø§Ùħ":7605,"fo":7606,"ĠØ£ÙĨÙĨØ§":7607,"ÙĦÙĪÙĨØ©":7608,"ĠØ§ÙĦÙĩÙĪØ§ØªÙģ":7609,"ªÙĢ":7610,"ĪÙĬØ§Øª":7611,"ĠØ·ÙĪÙĬÙĦ":7612,"ideo":7613,"ĠØ¨ØºØ¯Ø§Ø¯":7614,"ÙħÙģÙĩÙĪÙħ":7615,"Ø§ÙĦØ¹Ø§Ø¨":7616,"ÙģÙĬÙĤ":7617,"ĠØªØ¨ÙĦØº":7618,"ĠØ§ÙĦÙħÙĤØ§ÙĦØ©":7619,"ĠØ±Ø§Ø¦Ø¹":7620,"ĠØ§ÙĦØ®Ø§ÙħØ³Ø©":7621,"ÙģÙĬØ§":7622,"ÙĨÙĬØ³Ø©":7623,"ĠÙĦÙĬÙĦØ©":7624,"ÙĤØªÙĩ":7625,"der":7626,"ĠØ§ÙĦØªÙĪÙĨ":7627,"ĠÙħØ³ÙĦÙħ":7628,"ĪÙĬØ§":7629,"Ø¯ÙĬØ³ÙħØ¨Ø±":7630,"ĠÙĪÙģØ±":7631,"ĪÙĦØ§ÙĬØ§Øª":7632,"ĠÙĪØ§ÙĦØ£Ø":7633,"ĠØ¹ÙĤ":7634,"ÙħØ«ÙĦØ©":7635,"ĠÙĬÙĪÙħØ§":7636,"ĠÙĬØ³ØªØ":7637,"ĠØ¨Ø±ÙĬØ·Ø§":7638,"ĠØ¹Ø¬ÙħØ§ÙĨ":7639,"ĠØ±ÙģØ¶":7640,"Ø³Ø§ÙĨÙĬ":7641,"ĨØ³Ø¨":7642,"ations":7643,"ĠØ§ÙĦØ®ÙĦÙģ":7644,"ĠØ§ÙĦÙħØ¹Ø±ÙĪÙģ":7645,"ĠÙĪØ§ÙĦÙħØŃ":7646,"ĠØ´ÙĬØ®":7647,"ĠØ£ÙħÙĨ":7648,"±Ø§ØªÙĬØ¬ÙĬØ§Øª":7649,"ĠÙħÙĪØ§Ø¶ÙĬØ¹":7650,"ĠSu":7651,"ĠØ¨ÙĬÙĨÙĩØ§":7652,"ett":7653,"ĠØ®Ø·ÙĪØ©":7654,"ĠØŃÙĦÙĤØ©":7655,"Ø§ÙĦØªØ¹ÙĦÙĬ":7656,"ĠØ§ÙĦÙħÙĨØµ":7657,"ĠØ£Ø¹Ø±Ø§Ø¶":7658,"ĠÙħÙĨØ§Ø³Ø¨":7659,"The":7660,"ĠÙĬØ±Øª":7661,"ĠØ§ÙĦÙħÙĤØ¨ÙĦØ©":7662,"Ø¬Ø³ØªÙĬØ±":7663,"ĨÙĩØ±":7664,"ĠØ¯ÙĬÙĨØ§Ø±":7665,"ES":7666,"Ù¥Ù":7667,"ĠØªØ±Ø¬ÙħØ©":7668,"ĠÙĤØ§ÙĦØª":7669,"ĠØ§ÙĦØ¹ÙĪØ¯Ø©":7670,"EN":7671,"ĠØ£Ø¬ÙħÙĦ":7672,"ĠØ¨ÙħÙĪØ":7673,"ĠÙĤØ¶ÙĬØ©":7674,"ĠØ§ÙĦØ£ÙĩÙĦÙĬ":7675,"IC":7676,"ise":7677,"anghai":7678,"ĠØ£ÙĬØ©":7679,"ĠØ§ÙĦÙħØ®ØªØµ":7680,"ĠØ£Ø¨Ø§Ø¯":7681,"ĠØ§ÙĦØªØŃØ±ÙĬØ±":7682,"ĠØªØµÙĪÙĬØ±":7683,"ÙĥÙĬÙħ":7684,"ĠØŃØ³Ø§Ø¨Ø§Øª":7685,"'s":7686,"html":7687,"Ø¯ÙĬØ¯Ø§Ø³":7688,"Ø¯ÙĪØ¨":7689,"ĠØ§ÙĦÙĤÙħØ±":7690,"ĠÙĨØµØ±":7691,"ocal":7692,"Ø®ÙĬ":7693,"ÙĪØ±Ùī":7694,"ĠPost":7695,"ĠÙħÙĨØ®ÙģØ¶Ø©":7696,"ĠØªØ§Ø¬Ø±":7697,"Ġ[âĢ¦]":7698,"ĠØ¨Ø³ÙĬØ·":7699,"ÙĨÙĩØ±":7700,"ªØµÙģ":7701,"ĠØ§ÙĦØ£Ø³Ø¨Ø§Ø¨":7702,"ĠØ³Ø¬ÙĦ":7703,"Ø®Ø±Ø§":7704,"ÙĬÙī":7705,"{\"":7706,"ĠØ§ÙĦØ´Ø±Ø¹ÙĬØ©":7707,"ÙĨÙĩ":7708,"ĠØ¨ÙĨØº":7709,"âĢı:âĢı":7710,"ĠØ§ÙĦØ±Ø£Ø³ÙĬ":7711,"ipt":7712,"Ø¯ÙĪÙĦØ§Ø±":7713,"Ø¯ÙĦØ§Øª":7714,"ÙĥØªØ´Ùģ":7715,"ØªØ¹ÙĦÙĬ":7716,"ÙħØ§Ø±Ùĥ":7717,"ÙĦÙĬØª":7718,"ĨØ³Ø®":7719,"ÙģÙĬÙĦ":7720,"ÙĦÙħÙĬ":7721,"ĠØ¨Ø±ÙĬØ¯Ùĥ":7722,"ĠÙĬØ³ÙħØŃ":7723,"ĠØ¯ÙĪØ±ÙĬ":7724,"ĠØ§ÙĦÙĥÙĦØ§Ùħ":7725,"ĠÙĨÙĬÙĪ":7726,"Ø³ÙĪÙħØ§Øª":7727,"ĠØªØ®ØªÙĦÙģ":7728,"ĠØ§ÙĦØ¨ÙĦØ¯Ø§ÙĨ":7729,"ĠÙĩØ¬":7730,"Ø´ÙĨØ·ÙĨ":7731,"ĠØ§ÙĦØ«Ø§ÙĨÙĪÙĬ":7732,"ÙĦØªÙĩØ§":7733,"ħØ¹Ø±Ùģ":7734,"ĠÙħÙĨØ´":7735,"ĠØ§ÙĦÙĥØ´Ùģ":7736,"ĠØ§ÙĦØ³Ø§Ø®ÙĨØ©":7737,"´Ø§ÙĨ":7738,"ĠÙĦÙĦØ±":7739,"ĠØ§ÙĦØ¹ÙħÙĦØ©":7740,"ÙĨØ´Ø±":7741,"Ġwebsite":7742,"ĠÙĪÙħØª":7743,"Ø¨Ø§Ùĩ":7744,"ĠÙħÙħØ§Ø±Ø³Ø©":7745,"ĬØ¯ÙĬ":7746,"ĠØ®Ø·Ø±":7747,"ĠØ¨Ø²":7748,"ÙĬØ¦Ø§Øª":7749,"ĠØ£ÙĤØ¯Ùħ":7750,"ÙĪØµÙĦ":7751,"ĠØ§ÙĦÙħØ§Ø±ÙĥØ§Øª":7752,"ĠØ§ÙĦØ¯Ø³Øª":7753,"·Ø¨Ø©":7754,"ĠÙĪØ³Ø":7755,"Ø¯ÙĪØ©":7756,"ĠØ§ÙĦØ¹ÙģØ´":7757,"ØŃÙĪØ§ÙĦ":7758,"Ø§ÙĦÙĪÙĨ":7759,"ĠÙħØ¤ØªÙħØ±":7760,"ĠTr":7761,"¬ØªÙħ":7762,"ĠØ§ÙĦÙħÙĥØ":7763,"ĠØ§ÙĦÙħÙĬÙĦØ§Ø¯":7764,"ĠÙħØ´Ø§Ø±":7765,"ĠØ§ÙĦØ´Ø±ÙĪØ·":7766,"Ø¹ÙĦÙĩ":7767,"outube":7768,"ĬØ¹ÙĪØ¯":7769,"ĠØ¬ÙħÙĬÙĦ":7770,"ĠØ§ÙĦÙģØ±ÙĨØ³ÙĬ":7771,"ĠÙĤØ§Ø":7772,"ĠØªØŃÙĥÙħ":7773,"ĠØ§ÙĦÙģÙĦØ³Ø¨Ø§Ø±":7774,"Ø®Ø¯ÙħØ©":7775,"ªÙĨÙĬ":7776,"ĠØªÙĨÙħÙĬØ©":7777,"ĠØ§ÙĦØ£ØŃÙĬØ§ÙĨ":7778,"ating":7779,"Ø³Ø±Ø¨Ø§Øª":7780,"Ġhas":7781,"ÙĬØ¹ÙĪØ¯":7782,"ĠØ§ÙĦÙħÙĦØŃ":7783,"ĠÙħØ·ÙĦÙĪØ¨":7784,"Ø¹Ø±Ø¨ÙĬ":7785,"ÙħØ¹Ø±Ùģ":7786,"ÙĪÙĨÙĩ":7787,"ĪØ¨Ø§":7788,"ĠØ¬ÙĬØ¯Ø§":7789,"ĠØ§ÙĦÙħØ±Ø¶":7790,"ĠØ§ÙĦÙĥØ±Ø¨ÙĪÙĨ":7791,"ĠØªØŃØµÙĦ":7792,"ÙħØ§Ø¹ÙĬÙĦ":7793,"ĠÙģØ¶ÙĦØ§":7794,"ci":7795,"ĠÙħØ±Ø§Ø¬Ø¹Ø©":7796,"ÙĲØĮ":7797,"ĠØ§ÙĦØ±Ø¨ØŃ":7798,"ĠØ¹Ø¶":7799,"ÙĬØ§ØŃ":7800,"ĠÙĦØ³ÙĨØ©":7801,"ÙĪØªÙĪÙħØ§ØªÙĬ":7802,"ĠÙĪØ³Øª":7803,"Ġoff":7804,"ĠØ§ÙĦØ«ÙĪØ±Ø©":7805,"ĠØ¨ÙĪØµØ©":7806,"ĠØ®ÙħØ³Ø©":7807,"AD":7808,"Ø·Ø§Ø¹Ø§Øª":7809,"ĠØ§ÙĦÙģØ±Ø¯":7810,"ĠØ§ÙĦØºØ±ÙģØ©":7811,"ĠØ§ÙĦØ¢ÙĬØ©":7812,"ĠÙĬÙĦ":7813,"ĠØ§ÙĦÙħØ³Ø§Ø±":7814,"ĠØ§ÙĦØ´Ø¨ÙĥØ©":7815,"ĠØ§ÙĦØ¯ÙĬÙĨÙĬØ©":7816,"ÙĬØ§Ø±Ø©":7817,"ĠØ£ÙĬÙĨ":7818,"ØµØ§Ø¡":7819,"ĠØ§ÙĦØ®Ø·ÙĪØ§Øª":7820,"ÙĨØ³Ø®":7821,"ÙħØ¯Ø§Ø±Ø³":7822,"ĠØ¨Ø¨Ø":7823,"ateg":7824,"ĠØ³ÙĦÙħØ§ÙĨ":7825,"ĠØ¹ÙħÙĦØ©":7826,"ÙĬÙĪÙĦÙĪØ¬":7827,"ĠØ§ÙĦØ¬ÙħØ§ÙĦ":7828,"2017":7829,"ĠØ§ÙĦÙĨØ¬Ø§ØŃ":7830,"ĠØ¹ØµØ±":7831,"ĠØ§ÙĦØ¯ÙĤØ©":7832,"Ġ75":7833,"ĠØ§ÙĦØºÙĬØ±":7834,"ĠÙĪØ§ÙĦØº":7835,"indows":7836,"ĠÙħØ²Ø¯ÙĪØ¬Ø©":7837,"ĠØ±ÙĥÙĨ":7838,"ĠØ¨ÙĪØ§Ø¨Ø©":7839,"ĠØ§ÙĦØ³ÙĪØ¯Ø§Ø¡":7840,"ĠÙĬÙĪÙħÙĬ":7841,"ĠÙĦÙĦÙĥÙħØ¨ÙĬÙĪØªØ±":7842,"ÙĤØ´Ø©":7843,"ĠØºØ§Ø²":7844,"ĠØ§ÙĦØ±Ø³ÙĪÙĦ":7845,"Ġph":7846,"ÙĪÙĨØ§":7847,"ÙĨØ¸Ø±":7848,"ĬÙĤØ¯":7849,"ĠÙĬØ±Ø§":7850,"«Øª":7851,"ĠÙĤØªÙĦ":7852,"ØŃØ§ÙĤ":7853,"ÙĬÙĤØ¯":7854,"Ø¹Ø±Ø¨":7855,"ĠØ§ÙĦÙħØºØ±Ø¨ÙĬØ©":7856,"ĠØ§ÙĦÙħØŃÙĥÙħØ©":7857,"ung":7858,"ĠØ§ÙĦØŃÙĤÙĬÙĤÙĬ":7859,"ĠØ§ÙĦØªÙĤÙĦÙĬØ¯ÙĬØ©":7860,"ĠØ§Ø·ÙģØ§ÙĦ":7861,"ĠØ°ÙĪÙĬ":7862,"ĠØ®Ø¯":7863,"ĠÙĪØ§ÙĦØªØ±":7864,"ĠÙħÙĪØ¯ÙĬÙĦ":7865,"´ÙģØ±Ø©":7866,"ĠØªØ²ÙĬØ¯":7867,"quipment":7868,"ĠØ´Ø¹Ø§Ø±":7869,"Ø·Ø§Ø¡":7870,"ĠØ¬Ø¯ÙĪÙĦ":7871,"ĠØ¨Ø§ÙĦØ·":7872,"ØŃÙĬØ«":7873,"ĠØ§ÙĦØ§ÙĨØªØ®Ø§Ø¨Ø§Øª":7874,"ĠØ¶Ø¨Ø·":7875,"ĠØ§ÙĦØ³Ø¹":7876,"Ø£Øº":7877,"ĠØªØ®Ø²ÙĬÙĨ":7878,"ĠØ§ÙĦØ¹Ø¬":7879,"ĠÙģØ±ÙĤ":7880,"ĠØ§ÙĦØ£Ø±Ø²":7881,"ĠÙħØ§ÙĦ":7882,"§Ø³Ùħ":7883,"ħÙĦÙħ":7884,"ĠØ¯Ø¨":7885,"ĠÙĦÙĦØ¹Ø§Ùħ":7886,"Ú©Ù":7887,"±Ø¨ÙħØ§":7888,"ĠØ³ØªÙĥÙĪÙĨ":7889,"ĠØ¥Ø¯":7890,"¸ÙĦ":7891,"ĠØ§ÙĦØ±ØµØ§Øµ":7892,"ĠÙĬØ¹ÙĬØ´":7893,"ĠØ§ÙĦÙĪØ²Ø§Ø±Ø©":7894,"ĠØ§Ø¹ÙħØ§ÙĦ":7895,"ÙĬØµÙĦ":7896,"ĠØªÙĤØ±ÙĬØ¨Ø§":7897,"ĠØ§ÙĦØ¹Ø¶":7898,"ĠØ§ÙĦÙħÙĩÙħ":7899,"ĠÙħØ¸ÙĦØ§Øª":7900,"ĠØ§Ø¨ÙĪØ¸Ø¨ÙĬ":7901,"ĠÙģØªØ":7902,"Ø±Ø§Ø³":7903,"ĠØ§ÙĦØ·ÙĬ":7904,"ØŁØŁ":7905,"ĠØ§ÙĦØ±ÙĬØ§Ø¶ÙĬØ§Øª":7906,"ĠØµØ¯":7907,"68":7908,"ĠØ§ÙĦÙĤÙħØŃ":7909,"ÙĦÙĥØ":7910,"ĠØ§ÙĦØ£Ø¹Ø":7911,"Ø§Ø³Ùħ":7912,"ªÙħØ¯ÙĨ":7913,"ĠÙħØ±Ø§ØŃÙĦ":7914,"ĠÙģÙĬØ³Ø¨ÙĪÙĥ":7915,"²ÙĬØ§Ø±Ø©":7916,"°ÙĦ":7917,"ĠApp":7918,"ĠØ§ÙĦÙħØ³ÙĦØŃØ©":7919,"ĠØ§ÙĦØµØºØ±":7920,"±ÙĨÙĬ":7921,"ĠÙħØªØŃØ±ÙĥØ©":7922,"ÙģØ¹Øª":7923,"ÙĬÙħÙĬÙĨ":7924,"ÙĬÙĨØ§Ù":7925,"ÙĤÙĪÙĦØ©":7926,"ĠØ§ÙĦØ£Ø«Ø§Ø«":7927,"ĠØ§ÙĦØªÙĦÙĤØ§Ø¦ÙĬ":7928,"Ø±Ø§Ø¦Ø¨":7929,"ĠØ³ÙĪÙĬ":7930,"ĠÙħØªØ®ØµØµØ©":7931,"Ø³Ø§Ø¹Ø©":7932,"±ÙĬÙĨ":7933,"ĠØ§ÙĦØ£ÙĪÙĥ":7934,"Ø±Ø§ÙģÙĬ":7935,"ĠÙħØ£":7936,"ĠÙħØªÙĪØ³Ø·Ø©":7937,"ĠØ¹ÙĦØ§ÙħØ§Øª":7938,"Ø³Ø¬ÙĦ":7939,"ĠØªØ¬Ø¹ÙĦ":7940,"Ø¨Ø±Øª":7941,"ĠØ§Ø³ØªØ®Ø¯Ø§ÙħÙĩ":7942,"ĠØŃØ¨ÙĪØ¨":7943,"ÙĦØ§Ø´":7944,"Ø¹ÙĪØ¯Ø©":7945,"ĠØ«ÙħÙĨ":7946,"ĠØ§Ø³Ø·ÙĨØ¨ÙĪÙĦ":7947,"ĠØ§ÙĦØ£ÙħØ§ÙĥÙĨ":7948,"ĠØ¹Ø¨Ø¯Ø§ÙĦ":7949,"ĠØ³ÙĬØ§Ø³ÙĬØ©":7950,"Ø«Ùħ":7951,"ĠØ§ÙĦÙĦÙĪØ§":7952,"ĠØªØ®Ø·ÙĬØ·":7953,"ĠÙħØ±Ùĥ":7954,"ĠÙĤÙĪÙĬ":7955,"´Ø§Ùħ":7956,"ÙħØªØ±":7957,"ĠØ·ÙĦØ¨Ø§Øª":7958,"ĠÙĬØ¯ÙĦ":7959,"ĠØ¯ÙĬÙĨ":7960,"Ġcan":7961,"ĠØ§ÙĦÙħÙĦÙĥÙĬØ©":7962,"ĠØ§ÙĦØ¹Ø±Ø§ÙĤÙĬØ©":7963,"ĠØ§ÙĦØ§Ø³Ø¹Ø§Ø±":7964,"ĠØ¨ÙħØ¯ÙĬÙĨØ©":7965,"ĠØ§ÙĦÙĤÙĪÙĦ":7966,"ĠØ¬Ø¨ÙĦ":7967,"ĠØ¨Ø¯Ø§":7968,"ĠÙĪØ¹ÙĦØ§":7969,"ĨÙĥ":7970,"ĠØ§ÙĦØŃÙħØ¯":7971,"Ø³ÙĬÙħ":7972,"ĠÙĬÙĩ":7973,"ĠÙħØªØ¹":7974,"âĢĶ":7975,"Ø§ÙĦÙħØ¹":7976,"ÙĨØªØ§":7977,"Ø¹ÙĪØ¨Ø©":7978,"ĠØ§ÙĦØ¯ÙĬÙħÙĤØ±Ø§Ø·ÙĬØ©":7979,"ĠØ¥ÙĦ":7980,"ÙĥØ§ÙĨÙĬÙĥÙĬØ©":7981,"ĠØ§ÙĦØ³ÙĦØ¹":7982,"Ġgrind":7983,"ªØ±ÙĪÙĦ":7984,"Ø§ÙĦØ¨Ø©":7985,"ĠÙĬÙĤØ¯":7986,"ÙĬØ²ÙĬ":7987,"ÙĬÙĬØ¯":7988,"ĠØ§ÙĦØ±Ø³Ø§ÙĦØ©":7989,"Ø§ÙĦÙģØ§":7990,"Ø¬Ø§Ùħ":7991,"ĠÙĬØŃØµÙĦ":7992,"ĠÙĦÙĦÙħÙĪØ§":7993,"ĠØ§ÙĦØ±ÙĪØŃ":7994,"ĠØ§ÙĦØ¹ÙħÙĪØ¯ÙĬ":7995,"ne":7996,"ĠØ¹ÙħØ§":7997,"ĠÙħØ³Ø§Ø¹Ø¯Ø©":7998,"ĠÙħØªØ§ØŃØ©":7999,"ÙĬÙĪØ¨ÙĬØ§":8000,"ĠØ§ÙĦØ²Ùħ":8001,"ĠØ§ÙĦØ§ÙĦÙĥØªØ±ÙĪÙĨÙĬØ©":8002,"ÙħØ®Ø±ÙĪØ·":8003,"Ø±Ø®":8004,"ĠØ§ÙĦØ¬ÙĪÙĦØ©":8005,"ĠØªØ§Ø¨Ø¹":8006,"****":8007,"ÙĪØ§Ùģ":8008,"ĨÙĨ":8009,"ĠØ§ÙĦØ·Ø§ÙĦØ¨":8010,"ÙĨÙĬÙĪÙĬÙĪØ±Ùĥ":8011,"ĠØ§ÙĦØ±Ø£Ù":8012,"ĠØ§ÙĦØ±Ø£ÙĬ":8013,"ÙĪØŃÙĬØ¯":8014,"ĠØ¨Ø§ÙĦØ´Ø±ÙĥØ©":8015,"ĠØ§ÙĦØ¨ÙĬØªÙĥÙĪÙĬÙĨ":8016,"ĠØ§ÙĦØ³Ø§Ø¨Ø¹":8017,"ĠÙħÙĪØ«ÙĪÙĤ":8018,"ªØ§Ø¹":8019,"ĠØ§ÙĦØ£ÙĥØ¨Ø±":8020,"ĠØ§ÙĦØ§Ø¬ØªÙħØ§Ø¹":8021,"ĠÙĪØªØ·ÙĪÙĬØ±":8022,"ĠØ§ÙĦØ§ÙĤØªØ¨Ø§Ø³":8023,"ÙħØ¯ÙĨ":8024,"ĠØ³ÙĩÙĦ":8025,"ĠØ§ÙĦØ®Ù":8026,"Ø§ÙĦÙħÙĪØ§":8027,"ĠØ¶Ø±ÙĪØ±Ø©":8028,"ĠØ§ÙĦÙħÙĤØ§ÙĪÙħØ©":8029,"Ø¨ØªØ¯Ø¦":8030,"ÙĤÙĪØ¨Ø§Øª":8031,"¸ı":8032,"ĠÙĨØ§Ø¬":8033,"Ø¬ÙĬØ±Ø©":8034,"ĠÙĨØ¹Ùħ":8035,"les":8036,"ĠÙĦØªØ£":8037,"ĠÙĪØµÙĦ":8038,"ĠØ¥ÙĦÙĬÙĥ":8039,"ÙĩØªÙħ":8040,"opyr":8041,"Ġ2006":8042,"ĠØŃÙħÙĦØ©":8043,"ĠØ´Ø¨Ø§Ø¨":8044,"Ø¹ØªÙĤ":8045,"ĠØºØ²Ø©":8046,"Twitter":8047,"ħØ¯ÙĪÙĨØ©":8048,"ya":8049,"eal":8050,"ĠÙĦØ´Ø¦ÙĪÙĨ":8051,"ÙħÙĦÙħ":8052,"||":8053,"ĠÙħÙħÙĬØ²":8054,"Ġ37":8055,"ÙĤØªÙĩØ§":8056,"Ø±Ø§Ø·":8057,"ØŃØ¯Ø©":8058,"ÙĨÙĤØ±":8059,"ĠØ§ÙĦØ¨Ø±ØªØº":8060,"opyright":8061,"ĠÙħØ¬Ø§ÙĦØ§Øª":8062,"res":8063,"ÙģØ³Ø§Ø±":8064,"Ø§ÙĦÙģØ©":8065,"ĠØªØŃØ¶ÙĬØ±":8066,"ÙĨÙĪØ¯":8067,"ĠØ¨ÙĦÙĪØ":8068,"Ø«Ø§":8069,"ºØ±ÙĤ":8070,"ÙĦÙĬØ·":8071,"ĠØ«Ø§Ø¨ØªØ©":8072,"ĠÙĤÙĬØ§Ø¯Ø©":8073,"ÙħÙĪÙĨØ¯":8074,"Ġam":8075,"ÙĦÙĬÙĬÙĨ":8076,"ĠÙĪØ§ÙĦÙħØ¹Ø¯Ø§Øª":8077,"ĠÙĨÙĩØ§Ø¦ÙĬ":8078,"ĠØ§ÙĦØªØŃÙħÙĬÙĦ":8079,"Ġ800":8080,"ĠØ¨Ø§ÙĦØ¯ÙħØ§Ùħ":8081,"ĠÙĪÙĥÙĬÙĦ":8082,"ĠÙĪØ±Ø´Ø©":8083,"ĠØ±ØŃÙĦØ©":8084,"ĠØ§ÙĦØµÙĬÙģ":8085,"ĠØ§ØªØ®Ø§Ø°":8086,"ĠÙĬØ¹ÙĪØ¯":8087,"ĠÙĪÙĦØ°ÙĦÙĥ":8088,"ÙĨØŃ":8089,"ÙĢÙĢÙĢÙĢÙĢÙĢÙĢÙĢÙĢÙĢÙĢÙĢÙĢÙĢÙĢÙĢ":8090,"ĠÙĦÙħØ¹Ø±ÙģØ©":8091,"ĠØ§ÙĦØ¥Ø³Ø±Ø§Ø¦ÙĬÙĦÙĬ":8092,"ĪØ¯Ø§":8093,"ÙĨØªÙĪÙĨ":8094,"¬ØªÙħØ¹Ø§Øª":8095,"ªØ§ÙĬ":8096,"ĠÙħÙĩÙħØ§":8097,"Ġ48":8098,"ĠAndroid":8099,"Ø´ÙĦ":8100,"ĠØ¨Ø¹ÙĨÙĪØ§ÙĨ":8101,"ĠÙħØ®ØªØ¨Ø±":8102,"ĠØªØŃÙĤÙĤ":8103,"ÙĬØ§Ø²":8104,"ĠÙĦÙĦØ§ÙĬØ¬Ø§Ø±":8105,"ĠØ²Ø±Ø§Ø¹Ø©":8106,"ĠÙĪÙĦÙĦ":8107,"ĠØ¹ÙĤÙĪØ¯":8108,"ĠØ¨Ø§ÙĦÙĥÙĪÙĬØª":8109,"ĠÙģØ§Ø¦ÙĤØ©":8110,"ĠØ§ÙĦØ²Ø±Ø§Ø¹ÙĬØ©":8111,"ĪÙĦÙĪØ":8112,"ĠØ¨Ø£ÙĨÙĩØ§":8113,"ĠØ§ÙĨÙĤ":8114,"ÙħØŃØ":8115,"ĠØ§ÙĦØ£Ø¯Ø¨":8116,".,":8117,"ĠØ§ÙĦØªØ±Ø¬ÙħØ©":8118,"ĠÙĤÙĬØ§Ø³":8119,"ĠØ£ØµÙĦ":8120,"ĠØ®ØµØ§Ø¦Øµ":8121,"ĠØ§ÙĦØ®ÙĬØ§Ø±":8122,"ÙĤÙĪÙĦÙ":8123,"ĠØ§ÙĦØ¹Ø¨Ø§":8124,"Ø¯Ø±Ø§Ø³Ø©":8125,"ĠÙħÙĨØŃ":8126,"ĠÙĬØŃØ§":8127,"2016":8128,"ĠØ§ÙĦØ¬Ø§Ø±ÙĬ":8129,"ĠÙĦÙĦØ¥ÙĬØ¬Ø§Ø±":8130,"Ø³ØªÙĤØ±Ø§Ùħ":8131,"´Ø±ÙĪØ¨Ø§Øª":8132,"Ø²ÙĪÙĨ":8133,"ĠØ§ÙĦÙĨØ³Ø®Ø©":8134,"ĠÙĩÙĬØ¯Ø±ÙĪÙĦÙĬÙĥÙĬØ©":8135,"ÙĥÙĬÙĩ":8136,"ĠØ§ÙĦØ¥Ø¹ÙĦØ§ÙĨØ§Øª":8137,"ĠØ£Ø¨ÙĪØ¸Ø¨ÙĬ":8138,"ĠÙĪÙĬØ³":8139,"ĠØ´Ø§Øª":8140,"ĠØªØ¤Ø«Ø±":8141,"ĠØ¹ÙħÙĦØ§Ø¡":8142,"ĠØ§ÙĦÙħØ§Ùĥ":8143,"ĠÙĥØªØ§":8144,"Ø¶Ø±Ø§Ø±":8145,"ÙħÙĬÙĨØ§Ø":8146,"ĠØ£Ø·ÙģØ§ÙĦ":8147,"ĠØ§ÙĦØªÙģÙĥÙĬØ±":8148,"ĠØ§Ø³ÙħØ§Ø¡":8149,"pro":8150,"ĠØªØºÙĬØ±":8151,"ĠØ£ØµØ¯":8152,"ĠØ§ÙĦØªØ¹Ø±Ùģ":8153,"±Ø³ÙĪÙħ":8154,"ĠØ§ÙĦØ«ÙĤØ§ÙģÙĬØ©":8155,"ĠØªØ±ÙĬ":8156,"ĠØ§ÙĦØ«ÙĤÙĬÙĦÙĩ":8157,"ĠØ£ÙĦ":8158,"ĠØ§ÙĦØŃÙĦÙħ":8159,"ĠØ§ÙĦØ³ÙĬØ§ØŃÙĬØ©":8160,"ĠØ¨ÙĦØ§Ø¯":8161,"ĠÙĬØ¹ØªÙħØ¯":8162,"ĠØ§ÙĦØ¬ÙħÙĦØ©":8163,"ational":8164,"ÙħØ¯ÙĪÙĨØ©":8165,"ĠØ§ÙĦØ³ÙĬØ§Ø³Ø©":8166,"ĠÙħÙĩÙ":8167,"ĠØ§ÙĦØ«ÙĤØ§ÙģÙĬ":8168,"ÙħØ§Øº":8169,"Ø¦Ø±ÙĬØ©":8170,"ĠØ·Ø§ÙĤØ©":8171,"64":8172,"ology":8173,"ÙĪØŃØ§Øª":8174,"ĠØ¹Ø¸":8175,"ĠØ¬Ø±Ø§Ùħ":8176,"Ø¬Ø²Ø¡":8177,"ĠÙĨÙħØ§Ø°Ø¬":8178,"ĠIm":8179,"ĠØ§ÙĦÙħØ®Ø§Ø·Ø±":8180,"ĠØ§ÙĥØ³":8181,"ÙĬÙĪØ¯":8182,"ÙģØ³Ø©":8183,"ĠÙĥÙĦÙĩØ§":8184,"ĠØ§ÙĦØ¹ÙĤØ¯":8185,"ĠØ·Ø¨ÙĬØ¨":8186,"ĠØ¨ÙĤÙĬÙħØ©":8187,"Ġ<":8188,"ĠÙħÙĤØ§ÙĪÙħØ©":8189,"ĠÙħÙĪÙĨØ¯ÙĬØ§ÙĦ":8190,"ªÙĤ":8191,"ĠÙħØ²Ø§ÙĬØ§":8192,"ĠØ§ÙĨØ´Ø§Ø¡":8193,"ĠĠ":8194,"ÙĨØ³Ø¨":8195,"ÙħØ¬ÙĦØ³":8196,"´Ø±ÙĪÙĨ":8197,"ĢÙ":8198,"¬ÙĪÙĩØ±Ø§Øª":8199,"ĠØ¯ÙĥØªÙĪØ±":8200,"ret":8201,"ĠÙģÙĦÙĦ":8202,"ĠÙħØ´Ø§Ø±ÙĥØ§Øª":8203,"ĠÙĪØ²ÙĨ":8204,"ÙĬÙĪÙĨÙĬ":8205,"Ġour":8206,"ØŃØ¶ÙĬØ±":8207,"Ø¨ÙĦØ§Øª":8208,"ÙĬØªÙĥ":8209,"Ø£ÙĥØ¨Ø±":8210,"arket":8211,"ÙħÙĬÙĨØ§Øª":8212,"ĠØ§ÙĦØªØ±ÙĥÙĬØ²":8213,"·Ùī":8214,"ĠØªØ¯Ø±ÙĬØ¨":8215,"ĠØ§ÙĦØ°Ø§ØªÙĬØ©":8216,"ĠÙħØ¬ÙħÙĪØ¹":8217,"ĠØ§ÙĦØ¬Ø§Ùģ":8218,"ĠØ§ÙĦØ§ØŃØ":8219,"udi":8220,"Ø£ÙĥØªÙĪØ¨Ø±":8221,"ĠÙħØ·Ø§Ø±":8222,"ĠØ§ÙĦØŃØ¶Ø§":8223,"ĠÙĦÙĪØŃØ§Øª":8224,"ĠØ§ÙĦØªÙģ":8225,"Ø±Ø§ÙĥØ©":8226,"Ø¯Ø±Ø§Ø³Ø§Øª":8227,"ØµÙģ":8228,"Ø§ÙĦØ£Ø":8229,"ªØµØ§Øµ":8230,"ĠØ§ÙĦÙħØ®Ø§":8231,"ĠÙħÙĦÙħ":8232,"ĠØŃØ¯ÙĬØ«Ø©":8233,"ĠØ£Ø³Ø·":8234,"ĠØ§ÙĦØ³ÙĬÙĨÙħØ§":8235,"ĠÙĬÙħÙĥÙĨÙĨØ§":8236,"ÙĬØ·Ø§ÙĦÙĬØ©":8237,"ĠØ§ÙĦØªÙĤØ¯Ùħ":8238,"ices":8239,"ĠØªÙħØ±":8240,"Ø§ÙĦØ§Ø³Ùħ":8241,"ĠØ§ÙĦØ¬Ø§ÙģØ©":8242,"ĠØ§ÙĦÙĪÙĦØ§Ø¯Ø©":8243,"ĠØ§ÙĦØ£ÙħØ©":8244,"ÙĬØ·Ø§ÙĨ":8245,"´Ø§ÙĩØ¯Ø©":8246,"ĠØ§ÙĦÙģÙĤ":8247,"ĠØ§ÙĦØ§Ø¹Ø":8248,"Ø¥Ø±Ø³Ø§ÙĦ":8249,"ĠÙĪØ§ÙĦØ¹ÙħÙĦ":8250,"ĠÙħØºØ":8251,"ĠØ§ÙĦØ¨ÙĨÙĪÙĥ":8252,"ĠØ£ÙĪØ±":8253,"Ø·ÙĬÙģ":8254,"ĠØ¨ØŃØ±":8255,"ÙĪÙĦÙĥ":8256,"ĠØ³Ø¹ÙĪØ¯":8257,"ET":8258,"®Ø§Ø±ÙĬ":8259,"ĠØ§ÙĦØ±ÙĤÙħÙĬ":8260,"ĠØ±Ø®Ø§Ùħ":8261,"ÙĪØ£Ø¶Ø§Ùģ":8262,"ĠCN":8263,"ĠØ«Ø§ÙĨÙĪÙĬ":8264,"ĠØ³ÙĦØ§ÙħØ©":8265,"ÙĤØ¹Ø©":8266,"ĠÙģØ¦Ø©":8267,"ÙĤÙĬØ¨Ø©":8268,"ĠØ§Ø¹":8269,"ĪÙĥØ§ÙĦØ©":8270,"ĠØ§ÙĦØ±ÙĥØ§Ùħ":8271,"Ġind":8272,"ĠØ£ÙģØ±Ø§Ø¯":8273,"ĠÙĪÙħØ³Øª":8274,"Ø¶Ø±Ø§Øª":8275,"Ġco":8276,"ĩÙĨØ¯Ø³ÙĬÙĨ":8277,"ĠÙħÙĥØ¹Ø¨":8278,"ĠØ§ÙĦØ§Ø³ØªÙģØ§Ø¯Ø©":8279,"ĠØªÙĥØ±":8280,"ĠØ§ÙĦØŃØ¨ÙĬØ¨":8281,"oot":8282,"ĠØºØ³Ø§ÙĦØ§Øª":8283,"ĠØ¶ÙĪØ¡":8284,"ĠØ§ÙĦÙħØ´ØªØ±Ùĥ":8285,"Ø£Ø¶Ùģ":8286,"ĠØ¶Ø±":8287,"ĠØ§ÙĦØ³Ø¨Ø§":8288,"ĠØ§ÙħØ±Ø£Ø©":8289,"ĠØ§ÙĦØ§ØŃØªØ±Ø§":8290,"ĠØŃÙĥÙĪ":8291,"ĠÙĪØºØ±Ø¨ÙĦØ©":8292,"ĠØ§ÙĦÙĪØŃÙĬØ¯":8293,"ÙĦØ§Ø¦ÙĨØ§":8294,"ĬØ³Ø§":8295,"ÙĥÙĨÙĨÙĬ":8296,"ĠÙĨØµØ§Ø¦ØŃ":8297,"ĠØ§ÙĦØ¬Ø¯ÙĪÙĦ":8298,"Ġcrushing":8299,"ĠØ§ÙĦØ³ÙħØ§":8300,"ĠØ§ÙĦØ¬ÙĩØ§Øª":8301,"Ø¶ÙĬØ¨":8302,"ĠØ§ÙĦØ²ÙĬØªÙĪÙĨ":8303,"ĠÙĪØ£Ø³":8304,"ĠØ¨Ø¬ÙĪØ¯Ø©":8305,"ĠTwitter":8306,"ĠØŃØ¨ÙĬ":8307,"ĠÙĦÙĦØ·Ø§ÙĤØ©":8308,"ÙħØ§ÙĥÙĬÙĨØ§Øª":8309,"Ðº":8310,"ĠØ³ÙĪØ§":8311,"Ø¦ÙħØ©":8312,"Ø§ÙĦØªØ²Ø§Ùħ":8313,"ĠÙħØ·Ø¹Ùħ":8314,"ÙĦÙĪØ«":8315,"ĠØ¨Ø§Ø±ÙĬØ³":8316,"£ØªÙĬ":8317,"Ø¤":8318,"ĠØ¨Ø®Ø":8319,"inter":8320,"ĠØªØŃØ±ÙĬØ±":8321,"ĠÙĦÙħØ·ØŃÙĨØ©":8322,"ĠØ¨Ø§ÙĦÙĨØ":8323,"====":8324,"ĠØŃÙĬØ§ØªÙĩ":8325,"ĠØªØ£Ø³ÙĬØ³":8326,"ªØŃØ§Ø¯":8327,"Ø¹ÙĪØ¨":8328,"ĠÙĦØ¹ÙĦØ§Ø¬":8329,"ĠØ§ÙĦØ§ÙĨØ³Ø§ÙĨ":8330,"ÙħÙĦØª":8331,"ĠØ§ÙĦØ´Ø±ÙĬ":8332,"ĠØ§ÙĦØ³ÙĬØ±":8333,"ÙĥÙĨÙĬØ©":8334,"ĠØ§ÙĦØ¨Ø±ÙĬØ·Ø§ÙĨÙĬØ©":8335,"ØµÙĨ":8336,"ªÙĤØ±ÙĬØ±":8337,"ĠØ§ÙĦÙĨÙħÙĪØ°Ø¬":8338,"ĠØ¨ÙĬÙĨÙĩÙħ":8339,"ĠØ§Ø³ØªØ±":8340,"¬ÙĬØ¯":8341,"sm":8342,"´ÙĥÙĦ":8343,"ĠØ§ÙĦÙĨØª":8344,"±ÙĪÙĬØ©":8345,"ĠÙħØ«ÙĦØ§":8346,"ÙĨØºÙĪÙĦØ§":8347,"ĠØŃØ§Ù":8348,"Ø§ÙĦÙħÙĤ":8349,"§ÙĨÙĤØ±":8350,"ĠÙħØ¯Ø§Ø±Ø³":8351,"Ø§ÙĨÙĤØ±":8352,"ĠÙĥØ¬Ùħ":8353,"ĠØ§ÙĦÙħØ¤ÙĦÙģ":8354,"ĠÙĨØ¨":8355,"ĠØ§ÙĦØªØ§Ø±ÙĬØ®ÙĬØ©":8356,"ĠÙħØŃÙĦÙĬØ©":8357,"ØŃÙĤØ§":8358,"ĠØ§ÙĦÙĤÙĪÙī":8359,"ĠØ¯Ø±ÙĩÙħ":8360,"ÙĪØ¹Ø§":8361,"ĠÙĨÙĩØ±":8362,"ÙħØ§Ø±ÙĥØ§Øª":8363,"ĠØŃØµÙĦ":8364,"ĠÙĨÙĪ":8365,"ĠÙĦØ¹Ø¨":8366,"ĠØ§ÙĦØ§Ø¹Ø¯Ø§":8367,"ĠØ§ÙĦÙĨØ³Ø§":8368,"ĠÙĪØ§ÙĦØŃØµÙī":8369,"ĠÙĪØªÙĪ":8370,"........":8371,"ĠØºÙĬØ±ÙĩØ§":8372,"ĠÙĥÙĨ":8373,"ØªÙĤØ±ÙĬØ±":8374,"Ø§Ùģ":8375,"Ø£ÙĪÙĦØ§Ø¯":8376,"ove":8377,"ĠÙħØ¬Ø§ÙĦØ³":8378,"king":8379,"ªÙĨÙĪØ¹":8380,"ĠØ§ÙĦÙĤØ§Ø¦Ùħ":8381,"ĬØ¨Ø±":8382,"ĠÙħØ¯ÙĨ":8383,"ĠØ§ÙĦØ£ØŃØ¯Ø§Ø«":8384,"ĠØªØ±ÙĥÙĬØ²":8385,"ĠØŃÙģÙĦ":8386,"ØŃØ²Ø¨":8387,"ĠÙĪØ§ÙĦÙħØ¤":8388,"ĠØ¨Ø¹Ø¶ÙĩØ§":8389,"ĠØªØ·ÙĪØ±":8390,"ÙģÙĪØ±Ø©":8391,"ĠCS":8392,"ĠØ¯Ø±Ø§Ø³Ø§Øª":8393,"ĠØ§ÙĦØ¹ÙĤÙĪØ¯":8394,"ĠØ§ÙĦÙģÙĤÙĩ":8395,"ÙĬØ³Ø§":8396,"ĠØªÙħØªÙĦÙĥ":8397,"ĠÙħØºØ§":8398,"ĠØ§ÙĦÙĨÙĬ":8399,"ĠØ§ÙĦÙģÙĪØ±":8400,"ĠÙĤØª":8401,"ĠØ¢Ø«Ø§Ø±":8402,"ĠÙĪØ¹ÙĨ":8403,"ĠÙĬØ²Ø§ÙĦ":8404,"Ø§ÙĦÙħØ¬":8405,"ÙĤÙĬÙĨ":8406,"ÙĨØ¸Ø§Ùħ":8407,"Ø§ÙĦÙĤØ":8408,"ĠØ§ÙĦØ¥Ùģ":8409,"ĠÙģØ¹Ø§ÙĦÙĬØ§Øª":8410,"ĠÙĬØ³ÙħÙī":8411,"ĠØ§ÙĦÙħÙĩÙĨØ¯Ø³":8412,"ĠØ§ÙĦØŃÙħØ§ÙĬØ©":8413,"ĠØ¬ÙĪÙĦ":8414,"ĠÙħÙĬØ¯ÙĬØ§":8415,"ĠÙħØªØ±Ø¬ÙħØ©":8416,"ĠØ¬ÙĪØ²":8417,"ĠÙħÙĤØ±":8418,"Ø·ÙĬÙĦ":8419,"ÙģØªÙĩØ§":8420,"²Ø§Ø¡":8421,"ĠØ§ÙĦØ¬ÙħÙĬÙĦØ©":8422,"Ð»":8423,"ĠÙĩÙĬÙĥÙĦ":8424,"ĬÙĤØ©":8425,"ĠØ´Ø¹Ø¨":8426,"ĠØ§ÙĦÙħÙĥÙĪÙĨØ§Øª":8427,"ºÙĦ":8428,"ĠØ§ÙĦÙħØŃÙĬØ·":8429,"ĠÙħØ¹Ø±Ùģ":8430,"±Ø¯ÙĬ":8431,"obile":8432,"ÙĤÙĦÙĬÙħ":8433,"ÙĨØªÙĤØ§ÙĦ":8434,"ÙĨØ§Ø³Ø¨":8435,"ĠØ¥ÙĦÙĥØªØ±ÙĪÙĨÙĬ":8436,"ĠØ§ÙĦØ¹Ø§ÙħÙĦØ©":8437,"ĠØ§ÙĦØ¹Ø³ÙĥØ±ÙĬ":8438,"ĠÙħÙģÙĩÙĪÙħ":8439,"ĠØ§ÙĦÙĨÙĪØ§Ø¨":8440,"').":8441,"ĠÙĪØ¬ÙĦ":8442,"ĠØ¹ÙĩØ¯":8443,"ÙĤØ§Ø°":8444,"ĠÙĪØ§ÙĦØ±Ø":8445,"ĠØŃÙģØ±":8446,"ĠÙĦÙĥÙĨÙĩ":8447,"ĠÙĦÙĦØ§Ù":8448,"ĠÙĤØ§Ø¨ÙĦØ©":8449,"ĠØªÙħÙĥÙĨ":8450,"ĠØ³ÙĬØ±Ø§ÙħÙĬÙĥ":8451,"ĠØ±Ø¨ÙĬØ¹":8452,"ĤØ§ÙĩØ±Ø©":8453,"Ø¬Ø²Ø§Ø¦Ø±":8454,"ĠØ§ÙĦØ£ØŃØ¬Ø§Ø±":8455,"ĠØ§ÙĦØ³ÙĪÙĬØ¯":8456,"300":8457,"ĨØ¹ÙħÙĦ":8458,"ĠØ§ÙĦÙħØ±ÙĥØ²ÙĬØ©":8459,"ĠØ§ÙĦÙĥØ§ÙĪÙĦÙĬÙĨ":8460,"ĠÙĪØ¥ÙĨÙħØ§":8461,"ĠÙĪØ§ÙĦØªØ·ÙĪÙĬØ±":8462,"ĠØ´ÙĬØ¦Ø§":8463,"ĠØ§ÙĦØ£Ø±Ø§Ø¶ÙĬ":8464,"ĠØ§ÙģØªØªØ§ØŃ":8465,"ĠØ£Ø²ÙħØ©":8466,"ĠÙĪØ¨Ø¹Ø¶":8467,"Ø£ÙĨØ§":8468,"ĠÙĥØ¨Ø§Ø±":8469,"ĠØ¯Ø±ÙĪØ³":8470,"ĠÙĦÙĤØ":8471,"ĠØ§ÙĦÙĨÙħÙĪ":8472,"ĠØ§ÙĦÙħØ³ØªÙħØ±":8473,"ÙĥØ§ÙħÙĦØ©":8474,"ĪÙĦØ¯":8475,"250":8476,"ĠØµØ¯ÙĬÙĤ":8477,"ĠÙħØ³ØªØ´ÙģÙī":8478,"ĠØ´Ø§Ø±Ùĥ":8479,"ĠØ§Ø¯ÙĬØ¯Ø§Ø³":8480,"ĠØ³ÙĦØ§":8481,"ĠÙĬØ«":8482,"ĠØ£ÙĨÙĬ":8483,"ĠÙĨÙĤØµ":8484,"ĠØªØ¬ÙħØ¹":8485,"Ġ1200":8486,"ĢÙĢÙĢÙĢÙĢ":8487,"Ø³Ø§Ø¦Ø±":8488,"ÙħØ§ÙĦÙĬ":8489,"ĠÙħÙĦØ§ÙĬÙĬÙĨ":8490,"ÙĤÙĬÙĩ":8491,"ĠØ£ÙħØ§ÙĥÙĨ":8492,"ĠØ§ÙĦÙģÙĬÙĦÙħ":8493,"±Ø¯Ø©":8494,"ĠÙħÙĪØ³ÙĪØ¹Ø©":8495,"ĠØ¨ÙĪØ±Ø¯":8496,"ĠØ³Ø¨ÙĤ":8497,"ĠØªÙĥØ§ÙĦÙĬÙģ":8498,"ĠØ§ÙĦØ·Ø¨ÙĬØ¹Ø©":8499,"¶Ø±ÙĪØ±Ø©":8500,"ÙĪØ¨Ø§":8501,"ĠØ§ï»Ł":8502,"fact":8503,"ĠØªØ«":8504,"ĠÙĨÙĬÙĪÙĬÙĪØ±Ùĥ":8505,"ĠØªØ¹ÙĦÙĨ":8506,"AM":8507,"ĠØ§ÙĦØ¹ÙĩØ¯":8508,"ĠØ£ÙħØ¨ÙĬØ±":8509,"var":8510,"ĠØ²ÙĪØ§Ø¬":8511,"ĠÙĪÙĦÙĥÙĨÙĩ":8512,"ØºÙĬØ±":8513,"ĠØªØ¬Ø±":8514,"uk":8515,"ÙĨØ¹ÙħÙĦ":8516,"ĠÙĤÙĨÙĪØ§Øª":8517,"ĠÙĦÙĥØ§":8518,"ÙĤØ§Ø¯":8519,"ĠØ§ÙĦØ£Ø¯ÙĨÙī":8520,"ings":8521,"ĠØ§ÙĦÙģØ¦Ø©":8522,"ĠØ§ÙĦÙħØªØŃØ±ÙĥØ©":8523,"ºÙĦÙĬÙģ":8524,"ures":8525,"ĠØ§ÙĦØ§Ø·ÙģØ§ÙĦ":8526,"ĠØ§ÙĦÙĤØ·Ø¹":8527,"ØŃØ§ÙĨÙĩ":8528,"ÙĪØŃØ©":8529,"ĠØ£Ø³ÙĪØ§ÙĤ":8530,"63":8531,"·ÙĪØ¨Ø©":8532,"°Øª":8533,"ĠÙĦØ£ÙĪÙĦ":8534,"own":8535,"ĠØªØ¹ÙĬÙĬÙĨ":8536,"Ã§":8537,"ħØ¨ÙĪ":8538,"ĠØ¥Ø¶Ø§ÙģÙĬØ©":8539,"pg":8540,"ĠØ§ÙĦØ·ÙĤØ³":8541,"ĠØ³Ø£":8542,"ÙĤÙĬÙĦ":8543,"ÙħØ´ÙĬ":8544,"ĠÙĪÙĨØ§":8545,"ĠØ§ÙĦÙĨÙģØ³ÙĬØ©":8546,"ĠØ§ÙĦÙħØ·ÙĦÙĪØ¨":8547,"ÙħÙħØ":8548,"ÙģÙĬØ¶Ø§Øª":8549,"iss":8550,"ays":8551,"ans":8552,"ÙħÙĬÙĪÙħ":8553,"ĠØ§Ø¯Ø§Ø±Ø©":8554,"ĠØ±Ø¹Ø§ÙĬØ©":8555,"ÙĬØ§Ø·":8556,"ĠÙĪÙĦÙĩ":8557,"ĠØ§ÙĦØ§Ø´ØªØ±Ø§Ùĥ":8558,"Ø§ÙĦØ³ÙĦØ§Ùħ":8559,"Ú©ÙĨ":8560,"ĠØ§ÙĦØªØ®Øµ":8561,"ĠØ§ÙĦÙħØ§ÙĦÙĥ":8562,"¸Ø§ÙģØ±":8563,"ĠØ§ÙĦØ£ÙħÙĨÙĬØ©":8564,"ĠØªØ¬Ø§Ø±ÙĬ":8565,"ĠØ§ÙĦØªØ¹Ø¨":8566,"ĠØ§ØªÙģØ§ÙĤ":8567,"ĬÙĪØ±ÙĪ":8568,"Ø§ÙĦÙĥØ³Ø§Ø±Ø§Øª":8569,"ĠÙĪØŃØ¯Ùĩ":8570,"ĠØ§Ø¹ØªÙħØ§Ø¯":8571,"Ø¹ÙĤØ©":8572,"ĠØµØ¯Ø±":8573,"Ø±Ø§ØªÙĬ":8574,"Ø°Ø§Ø±":8575,"Ø¶Ø¹":8576,"ĠØªØµØ¨ØŃ":8577,"ĠÙĨØ¬Ø¯":8578,"ÛĮØ§":8579,"ÙĬØ´Ø©":8580,"ĠØ£ÙĤØµÙī":8581,"ĠÙĦÙĦÙĥØ³Ø§Ø±Ø©":8582,"Ø³ÙĬØ§ØŃØ©":8583,"ĪÙĥÙĬÙģÙĬØ©":8584,"ĠØ§Ø³ØªÙĩÙĦØ§Ùĥ":8585,"Ø¯Ø§ÙĬ":8586,"ĠØ¹Ø¬ÙĦØ©":8587,"ÙĪÙĥÙĬÙģÙĬØ©":8588,"ĠØ§ÙĦÙĨÙĩØ±":8589,"±Ø³Ø§ÙĦ":8590,"UR":8591,"ĠÙħÙħÙĬØ²Ø§Øª":8592,"ick":8593,"ÙĬÙħÙĨ":8594,"ĠCrusher":8595,"ĠØ§ÙĦØªÙĨÙģÙĬØ°ÙĬ":8596,"ÙĦÙĬØ´":8597,"ĠÙĤØ§ÙĨÙĪÙĨÙĬØ©":8598,"ØŃØ¯Ø§Ø«":8599,"ĠÙħØ´ØªØ±":8600,"ĠØ§ÙĦØ§ÙĨØ¬ÙĦÙĬØ²ÙĬØ©":8601,"ĠÙĤØ¨ÙĬÙĦØ©":8602,"130":8603,"ĠÙģÙĨØ§Ø¯ÙĤ":8604,"ĠÙħØªÙĨØ§ÙĩÙĬØ©":8605,"ĠCon":8606,"ĠÙģØ±Ø¶":8607,"ĠØªØ³Ø¹":8608,"ĠÙĪØ¹Ø§":8609,"Ø±Ø§Ùĥ":8610,"ĪÙħÙĪØ":8611,"ĠEn":8612,"ĠØ¥Ø¹ÙĦØ§ÙĨØ§Øª":8613,"ĠØ£ÙħÙĬÙĨ":8614,"Ø·Ø¨":8615,"ĠØ§ÙĦØ±Ø¨ÙĬØ¹":8616,"ÙģÙĨÙĬ":8617,"Ø§ÙĦÙĪØ¬":8618,"¶Ø±Ø¨":8619,"quir":8620,"ĠØ¨ØªÙĤØ¯ÙĬÙħ":8621,"ĠØ§ÙĦØ¹ÙĦØ§ÙħØ§Øª":8622,"ÙĪÙħÙĪØ":8623,"ĠØ§ÙĦØ³ÙĪØ¯Ø§ÙĨÙĬ":8624,"ĠDec":8625,"ĠØ£ÙģØ":8626,"ĠÙĩØ§Ø":8627,"ĠÙħÙħØ«":8628,"Ø³ÙĦØ§Ùħ":8629,"ĠØ¯Ø§ÙĪØ¯":8630,"ÑĤ":8631,"ĠØ§ÙĦÙħØªØ®ØµØµØ©":8632,"ĠØ£Ø¯ÙĨØ§Ùĩ":8633,"Ø£Ø¨":8634,"ĠÙĬÙħÙĥÙĨÙĨÙĬ":8635,"ĠØ§ÙĦØ¯ÙħØ§Ùħ":8636,"ĠØ§ØªØµØ§ÙĦ":8637,"Ġla":8638,"ĠSp":8639,"ĠØ³ÙĩÙĪÙĦØ©":8640,"ÙħÙĬÙĩ":8641,"2011":8642,"ĠØ§ÙĦØ¹ÙĨÙģ":8643,"ĠØ§ÙĦÙħØ§Ø¦Ø©":8644,"ï¿½ï¿½ï¿½ï¿½":8645,"ĠØ¨Ø§Øª":8646,"ĠØªØ³ÙĪÙĬÙĤ":8647,"ĠØªØ¤Ø¯ÙĬ":8648,"ĠÙĪÙĥÙĬÙģÙĬØ©":8649,"ose":8650,"ÙħØ³Ø£ÙĦØ©":8651,"ĠPol":8652,"Ø¬Ø¨":8653,"ĠØ¬ÙĩÙĪØ¯":8654,"ÙĤØ§Ø±Ø§Øª":8655,"ĠÙĪØ¬ÙħÙĬØ¹":8656,"Ø«Ø©":8657,"ĠØµØ±":8658,"Ø¯Ø¹":8659,"USD":8660,"ÙĦØ§ØŃÙĬØ©":8661,"ĠØªÙĤÙĪÙĦ":8662,"´ÙģÙĬØ§Øª":8663,"ÙĦØ§Ø¬Ø§Øª":8664,"ĠØªØ´Ø§":8665,"ĠÙĥØ§ÙħÙĬØ±Ø§Øª":8666,"ÙģØ±ÙĨ":8667,"Ø¨ØªÙĥØ§Ø±":8668,"ĠÙĬØµØ¨ØŃ":8669,"ĠØ¬Ø±Ø§ØŃØ©":8670,"ĠÙĦÙħØ¹Ø§ÙĦØ¬Ø©":8671,"ĠÙĬØ³Ø§":8672,"ĠØªÙĪÙħÙĬ":8673,"ÙĬØ²ÙĬØ§Ø¡":8674,"name":8675,"ĠØ§ÙĦØ·Ø§ØŃÙĪÙĨØ©":8676,"ĠÙĥÙĩØ±Ø¨Ø§Ø¡":8677,"ÙĦØ§ÙĦØ§Øª":8678,"ĠØªØ³Ø±Ø¨Ø§Øª":8679,"´Ø¢Øª":8680,"ann":8681,"ĠÙĨØ³Ø¨":8682,"ĠÙĪÙħÙĪØ":8683,"ĠØ§ÙĦÙĦÙĤØ§Ø¡":8684,"ĠØ§ÙĦØ¬ÙħØ¹":8685,"Ø§ÙĦÙģÙĨ":8686,"ĠØ¨ÙĥØ§":8687,"Ø¨ØªÙĥ":8688,"Ø§ÙĦØªÙĩØ§":8689,"ĠØ§ÙĦÙĨØ¨":8690,"ĠØ§ÙĦÙĥØªØ§Ø¨Ø©":8691,"Ø¹Ø§ÙĬÙĬØ±":8692,"ĠØ§ÙĦÙħØ£":8693,"ĠØ§ÙĦØ´Ø§Ø¹Ø±":8694,"ĠØªØ¬Ø±ÙĬ":8695,"ÙĪÙĬÙģ":8696,"ĠÙħÙĩØ±Ø¬Ø§ÙĨ":8697,"ØªØ±Ø§":8698,"ĠØ§ÙĦÙħÙĪØ¬ÙĪØ¯":8699,"ĠØ§ÙĦÙĪÙĤÙĪØ¯":8700,"ĠÙĦÙĦØ´Ø¹Ø±":8701,"ĠØ§ÙĦØ¬ÙĬÙĦ":8702,"ĠÙĦØªÙĤØ¯ÙĬÙħ":8703,"ĠØ§ÙĦÙĨÙĩØ§ÙĬØ©":8704,"ĠØ¨ÙĤØ§":8705,"ĠØ°ÙĬ":8706,"AL":8707,"to":8708,"ĠÙĤØ§Ø¯Ø±":8709,"ĠØ¶Ø¹Ùģ":8710,"Ø¨ÙĬÙĥ":8711,"ÙĪØ¬ØªÙĩ":8712,"ĠØªØ³ÙħØŃ":8713,"ÙĪØ¬ÙĬÙĩ":8714,"sc":8715,"ħØ³ØªØ®Ø¯":8716,"ØªØ£Ø«ÙĬØ±":8717,"ious":8718,"ĠØ¹ÙĨØµØ±":8719,"Ø¯Ø§ÙĨÙĬØ©":8720,"ØŃÙĪÙħ":8721,"ĠØªØ¯Ø®ÙĦ":8722,"formation":8723,"ĠØ§ÙĦÙģØ¶Ø©":8724,"ĠØªÙĥÙĪÙĬÙĨ":8725,"ĠØ§ÙĦØ²ÙĨÙĥ":8726,"ĠØ¥Ø¬ÙħØ§ÙĦÙĬ":8727,"ĠÙħÙĩØ§Ø±Ø§Øª":8728,"ĠÙħÙĪØ¬":8729,"ĠØ¹ÙĦÙħØ§Ø¡":8730,"ĠÙĦØ§ÙĨÙĥØ§":8731,"ĠØ§ÙĦØ¯Ø±Ø§Ø³ÙĬØ©":8732,"´Ø§Ø´Ø§Øª":8733,"ĠâĨ":8734,"ĠØ§ÙĦÙħØ¹Ø§ÙĦØ¬Ø©":8735,"ĠØ§ÙĦØ§ÙĩØªØ²Ø§Ø²":8736,"ĠÙĪØ§Ø³ØªØ":8737,"ĠØ§ÙĦÙħØ³Ø¬Ø¯":8738,"ĠÙħØªÙī":8739,"ĠØªØ®ØµØµ":8740,"ĠØ§ÙĦØ¹ÙĪØ§ÙħÙĦ":8741,"ĠØ£Ø¹ÙĦÙĨ":8742,"Ġmachine":8743,"ĠØ¹ÙħÙĪØ¯ÙĬ":8744,"ĠØ§ÙĦÙħÙĨØªØ":8745,"ÙĪØ§ÙĬ":8746,"ĪØ§ÙĦÙĬØ¯":8747,"ĠØ§ÙĦØ§ÙĪÙĦÙī":8748,"ħØ¯Ø±":8749,"ĠØ§ÙĦØ¬Ø¯":8750,"ĠØ§ÙĦØ¢Ø«Ø§Ø±":8751,"ĠØ§ÙĦØ£Ø³Ø§Ø³":8752,"ĠÙģÙĦÙħ":8753,"ĠØ§ÙĦÙĨØ§Ø¬":8754,"ĠØªÙĪØ¬ÙĬ":8755,"ĠØ§ÙĦÙĦØ¨ÙĨØ§ÙĨÙĬØ©":8756,"ĠØ§ÙĦØ§Ø´":8757,"ÙĪÙĤØ¹":8758,"ĠØ§ÙĦØªØ£ÙħÙĬÙĨ":8759,"ĠÙĪØ§ÙĦØ¨Ø":8760,"ÙĨØ§Ø¯":8761,"ĠØ¬Ø¨Ø³":8762,"ĠÙħØ§ÙĦÙĬ":8763,"ĠÙĪØ§ÙĦØªØ¹":8764,"ÙĨØ¸ÙĬ":8765,"Ðµ":8766,"ĠÙĪØªØ±ÙĥÙĬØ¨":8767,"ĠØ§Ø³ØªÙħØ±Ø§Ø±":8768,"Ġused":8769,"ĠØ£ÙĥØ¯":8770,"ĠØªØªÙħÙĥÙĨ":8771,"Ø§ÙĦØ¢":8772,"Ø¨ÙĪØ§Ø³Ø·Ø©":8773,"ÙĥØ§ÙģØŃØ©":8774,"},":8775,"ĠÙĥØ¨ÙĬØ±Ø§":8776,"ÙĬØ§ØªÙĬ":8777,"net":8778,"ĠØ§ÙĦØ´Ø§Ø¦Ø¹Ø©":8779,"ĠØ¨Ø±Ø¦Ø§Ø³Ø©":8780,"®ÙħØ©":8781,"ĠØ±Ø¶Ø§":8782,"ÙĬÙĤØ©":8783,"ØµÙĬØ§ÙĨØ©":8784,"ĠØ§ÙĦØ³ÙħØ§Ø¡":8785,"Ar":8786,"ĠÙĪÙħØ¤":8787,"ĠØ§ÙĦØ£ÙģØ±Ø§Ø¯":8788,"ublish":8789,"ĠØ§ÙĦØŃÙģØ±":8790,"ĠÙĪÙħÙĤ":8791,"ĠØ£ÙĨØºÙĪÙĦØ§":8792,"ĠÙħÙĤØ§Ø·Ø¹":8793,"ÙĳÙĭ":8794,"Ð½":8795,"ĠØ£ÙĥØ³ÙĬØ¯":8796,"ÙĦØ²Ùħ":8797,"ĠØ§ÙĦØ£Ø¯ÙĪÙĬØ©":8798,"ĠÙĤØ±":8799,"ĠØŃØªÙĬ":8800,"ĩØ°Ø§":8801,"ĠØ§ÙĦÙħØ´ÙģØ±Ø©":8802,"ĠÙħØ¯ÙĬÙĨ":8803,"ÙĪØ§ÙĦØ¨":8804,"Ø¦ÙĬØ§":8805,"Ø¹Ø§Ø©":8806,"ħØ³Ø§Ø¹Ø¯Ø©":8807,"ĠØ§ÙĦØ¹ÙĨÙĪØ§ÙĨ":8808,"ĠØ±ÙĬØ§Ø¶Ø©":8809,"ĠÙĨØ¸Ø§":8810,"ĠÙĪÙĬÙĨØ¯ÙĪØ²":8811,"Ø³ÙĪÙĬÙĤ":8812,"ÙħÙĨØŃ":8813,"ÙĨØ¬Ø±":8814,"ÙĥÙĬÙĦØ©":8815,"ĠNov":8816,"ĠÙĬØŃÙħÙĦ":8817,"ĠØ§ÙĦØ£Ø³Ø¯":8818,"ĠØ§ÙĦÙħØªÙĤØ¯ÙħØ©":8819,"ĠOnline":8820,"ÙĤØµØ©":8821,"ĠØ§ÙĦØ±Ø¹Ø§ÙĬØ©":8822,"ĠØ¹ÙĦÙħÙĬØ©":8823,"ÙĪØ§ÙĨØ¨":8824,"ĠØµØ¨Ø§ØŃØ§":8825,"ÙĪØ¸Ø§Ø¦Ùģ":8826,"ï»´":8827,"ĠØ§Ø±Ø":8828,"ĠØ§ÙĦØ£ÙĨÙģ":8829,"ĠØ§ÙĦØªÙĩØ§Ø¨":8830,"ĪÙĤØ":8831,"ĠØ¨ØŃØ¶ÙĪØ±":8832,"ĠiP":8833,"ĠØ§ÙĦØ¯Ø§Ø®ÙĦ":8834,"ĠØ§ÙĦØ§ÙĨÙģ":8835,"ĠØ§ÙĦÙħØŃØ§ÙģØ¸Ø©":8836,"ÙĥØ§Ø¨":8837,"=\"":8838,"Ġapp":8839,"±Ø¯ÙĨ":8840,"ÙĩÙĦÙĬ":8841,"ØµØ§Ø¨Ø§Øª":8842,"ĠØªÙĨØªØ¬":8843,"ÙĥØ§ÙĨØª":8844,"Ø³ÙĪÙĬØ©":8845,"ĠÙĦØŃÙĤÙĪÙĤ":8846,"ĠØ§ÙĨØªÙĩØ§Ø¡":8847,"ÙĨØªÙĪÙĨÙĬØª":8848,"Ġ39":8849,"ĠØ£Ø³Ø±Ø¹":8850,"ĬØª":8851,"ªØ§Ø¯":8852,"ĠØ±ÙĪÙħØ§ÙĨ":8853,"ĠØ£ÙĨÙģØ³":8854,"Ø¨ÙĨØ©":8855,"Ø§ÙĦÙĩÙħ":8856,"ĠØ£ÙħØ±Ø§Ø¶":8857,"uy":8858,"ĠØ¬ÙĦØ³Ø©":8859,"ĠÙģÙĪØ±ÙĥØ³":8860,"ĠØ§ÙĦØ³ÙĥØ§ÙĨ":8861,"ĠØ§ÙĦØ³Ø¹Ø±WhatsApp":8862,"ħÙĥÙĬÙģØ§Øª":8863,"ĠØ§ÙĦØ£ÙĨØ´Ø·Ø©":8864,"English":8865,"ĠØ¥Ùģ":8866,"umb":8867,"Ø¨Ø±Ø§Ø¬":8868,"ĠØ§ÙĦØ°ÙĩØ¨ÙĬØ©":8869,"ĠØ§ÙĦØ±Ø§Ø¦Ø¹Ø©":8870,"ĨÙĬÙĪÙħ":8871,"«Ø±ÙĪØ©":8872,"ÙħØ¯Ø±":8873,"ÙĨØ¨Ø°Ø©":8874,"ĠÙĪÙĦÙĨ":8875,"ĠØ§ÙĦÙĦÙĩÙħ":8876,"ĠØ®Ø°":8877,"¤ÙĩØ§":8878,"ĠÙĪØ§ÙĦØ«Ø§":8879,"ĠØ§ÙĦØ¹ÙĤÙĦ":8880,"¶ÙĬÙĤ":8881,"ÙĦØ¹Ø©":8882,"ĠØ§ÙĦÙĥØ§ÙĦØ³ÙĬØª":8883,"Ø¦Ø¯Ø©":8884,"Ø§ÙĦÙħÙĪØ":8885,"Ø±Ø§ÙĨÙĬØ©":8886,"ÙĥØ±Øª":8887,"ħØ³Ø§Ø±":8888,"²Ø¹":8889,"ĠØ§ÙĦØªØ¬Ø§Ø±":8890,"ĤØ±":8891,"Ġman":8892,"ĠØ§Ø®ØªØ±Ø§":8893,"ØªÙĪÙĬØªØ±":8894,"ĠØ§ÙĦØ§Ø®Ø¨Ø§Ø±":8895,"ĪÙĬØ¬Ø¨":8896,"ÙĪØ§Ø¦Ø²":8897,"µØ¯Ø±":8898,"ÙĪÙĬØ¬Ø¨":8899,"ĠÙħØ¬ÙħØ¹":8900,"ĠØ³Ø§ÙĦÙħ":8901,"ĠÙĬØªÙħÙĬØ²":8902,"ĠÙ¢Ù":8903,"ĠÙĨÙĪØ§":8904,"ĠØ§ÙĦÙĥÙĦÙħØ©":8905,"ÙĪÙĤØ":8906,"ĠØ´Ø§ÙħÙĦ":8907,"ÙĨÙĨÙĬ":8908,"Ø¨Ø§Ø¦ÙĦ":8909,"ĠCl":8910,"Ø§ÙĦÙħÙĪÙĤØ¹":8911,"und":8912,"ĠØ§ÙĦØªØ§Ø³Ø¹":8913,"ĠÙĬØ±ØºØ¨":8914,"ĠØ§ÙĦØ³ÙĦØ§ÙħØ©":8915,"ĠØ§ÙĦØ¹Ø´":8916,"ĠØ¨Ø§ÙĦØªØ¹Ø§ÙĪÙĨ":8917,"ĠØ§ÙĨØªØ®Ø§":8918,"ÙħÙĬÙĬØ²":8919,"ĠÙģØ³":8920,"ĠÙħÙĪØª":8921,"ĠØªØ³ØªØ":8922,"ÙĤØ§Ø¨Ø©":8923,"air":8924,"ĠØ§ÙĦÙĩØ¬":8925,"ÙĦØªÙĬ":8926,"ĠØ£ÙĤÙĪÙī":8927,"ĠØ±ØŃÙħÙĩ":8928,"ĠÙĬØ±Ùī":8929,"ĠØµØ§Ø":8930,"ĠØ§ÙĦØµØŃÙĬØŃØ©":8931,"ĠÙĨÙģØ³ÙĬ":8932,"ĠØ§ÙĦÙĪØ³":8933,"±ÙĪØ¯":8934,"ÙħÙĬØ±Ø©":8935,"Ø§ÙĦÙħÙĨØªØ¬Ø§Øª":8936,"vel":8937,"ĠÙĤÙħØª":8938,"ĠÙĨÙĬØ³Ø§ÙĨ":8939,"600":8940,"ÙħÙĥÙĬÙģØ§Øª":8941,"ĠØ¹Ø¨Ø¯Ø§ÙĦØ¹Ø²ÙĬØ²":8942,"ĠÙĪØ¨Ø§":8943,"ocum":8944,"ĠÙĩÙĨØ¯Ø³Ø©":8945,"ÙĦØ§ÙĬØª":8946,"Ġ$)":8947,"ĠÙĦÙģØªØ±Ø©":8948,"ĠØ´Ø§Ø¡":8949,"ĠÙĪØªØªÙħÙĬØ²":8950,"Ġsc":8951,"Ø±Ø§Ø¡Ø§":8952,"Ø¨ØŃÙĪØ«":8953,"ĠØ¹Ø±Ø§":8954,"ĠØ§ÙĦØ¥Ø·ÙĦØ§ÙĤ":8955,"ĠØ¨Ø§ÙĦØ§ÙĨØ¬ÙĦÙĬØ²ÙĬ":8956,"Ġago":8957,"ĠØ§ÙĦÙħØ¬Ø§ÙĨÙĬØ©":8958,"ĠØªÙĤØ§Ø±ÙĬØ±":8959,"ĠÙĪØ¬Ø¯":8960,"ĠØ§ÙĦÙĥÙĩØ±Ø¨Ø§Ø¦ÙĬ":8961,"ĠØ§ÙĦØ§Ø³ÙĦØ§ÙħÙĬØ©":8962,"ĠØ§ÙĦÙĤØ¶ÙĬØ©":8963,"ÙģÙĪØ±":8964,"ana":8965,"ĠÙĦÙĦØ§ÙĨ":8966,"dit":8967,"ÙģØ§Ø©":8968,"Ġyear":8969,"Ø¯Ø¬":8970,"ĪÙĩÙĦ":8971,"ĠØªØ¶Ùħ":8972,"ĠØ§ÙĦÙħØºØ°ÙĬØ©":8973,"ĠØ£Ø±Ø¨Ø¹":8974,"ĨÙĪÙĬØ©":8975,"ĠWindows":8976,"ÙĪÙĩÙĦ":8977,"ÙħØªØ§Ø¹":8978,"cript":8979,"coin":8980,"Ġbl":8981,"ØªØ§":8982,"ÙĪÙĬØ±":8983,"ĠØ£Ø´ÙĥØ§ÙĦ":8984,"ĠØ¥Ùħ":8985,"âĢı/":8986,"ÙĤØ§ÙģÙĬØ©":8987,"Ø¥Ø¶Ø§ÙģØ©":8988,"ĠÙĪØ§ÙĦØªØ¹Ø¯ÙĬÙĨ":8989,"bm":8990,"ĠØ®Ø±ÙĪØ¬":8991,"ĠØ³ØŃØ¨":8992,"Ø¨ÙĦØ¬":8993,"ĠØ§ÙĦØ£ÙħØ§":8994,"ĠÙĬØ³Ø¨Ø¨":8995,"ĠØ§ÙĦØªØŃÙĦÙĬÙĦ":8996,"ĠÙĨØ¬ÙĪÙħ":8997,"Ġ((":8998,"pany":8999,"ÙĥØªÙĪØ±Ø©":9000,"ĠÙĤÙĦÙĬÙĦ":9001,"°Ø§ÙĥØ±Ø©":9002,"ĠØ§ÙĦÙħØ§Ø±ÙĥØ©":9003,"ØŃØ±ÙĬ":9004,"ĠØ·ÙĦØ§Ø¨":9005,"Ø§ÙĦØ®Ø":9006,"ĠØ¨Ø±ÙĪØ":9007,"ĠØ§ÙĦØµØŃÙģ":9008,"ĠÙĪØ¬ÙĩØ©":9009,"ĠÙĬØ´ÙĬØ±":9010,"ĠØªØ¹ÙĪÙĬÙħ":9011,"ĠØ£Ø¨ÙĨØ§Ø¡":9012,"ØµÙĪØ±Ø©":9013,"ĠØ§ÙĦØŃØ²Ø¨":9014,"lect":9015,"ĠØ³Ø¨ØŃØ§ÙĨÙĩ":9016,"ĠØ¨Ø¹ÙħÙĦ":9017,"ĠØ§ÙĦØ°ÙĩØ¨ÙĬ":9018,"ĠÙĩØ²Ø§Ø²":9019,"ĠÙĦØ¥Ø¹Ø§Ø¯Ø©":9020,"ÙĦØªØ±Ø§":9021,"ĠØ§ÙĦØºØ°Ø§Ø¦ÙĬ":9022,"ĠØ§ÙĦÙħÙĨØ¸ÙħØ©":9023,"ĠÙĥÙĦÙĩ":9024,"Ø§ÙĦØªØµ":9025,"ÙģØ±ÙĬÙĤÙĬØ©":9026,"ther":9027,"·Ø±ØŃ":9028,"ĠØ§ÙĦÙĨØ§Ø´Ø":9029,"ĠØ§ÙĦØ£Ø¬":9030,"ÙĢÙĢÙĢÙĢØ©":9031,"ize":9032,"Ġel":9033,"ĠØ³Ø¹":9034,"ÙħØ§ÙħØ©":9035,"¶ØŃ":9036,"ĠØ§ÙĦØ±ÙĬØ§Ø¶Ù":9037,"ĠÙħØµØ§":9038,"ĠØŃÙĤØ§":9039,"ÙĬÙĪØ±ÙĪ":9040,"ĠØ§ÙĦØ£Ø²ÙħØ©":9041,"ĠÙĪØ¬Ø":9042,"ĠØ§Ø¹ÙĦØ§ÙĨØ§Øª":9043,"ĠÙĤØ§Ø¨ÙĦ":9044,"ĠØ§ÙĦØ±ÙĬØ§Ø¶ÙĬ":9045,"ĠØ¨ØŃÙĤ":9046,"gram":9047,"ĠØ§ÙĦØµÙĬÙĨÙ":9048,"ĠØ§ÙĦÙĨØ´Ø§Ø·":9049,"ĠEnglish":9050,"ÙħØ«Ø§ÙĦ":9051,"ÙĬÙĪÙĦ":9052,"ÙĬØªØ§Øª":9053,"ĠØ§ÙĦØ§Ø®":9054,"ĠÙħÙģÙĬØ¯Ø©":9055,"ĠØ§ÙĦØŃÙĦÙĪÙĦ":9056,"ĠØ¨Ø¯ÙĤØ©":9057,"Ad":9058,"ĠØ§ÙĦØµÙĬÙĨÙĬ":9059,"ĠÙħÙĥÙĬÙģØ§Øª":9060,"ĠÙĪØ§ÙĦØ°":9061,"ĠÙĪØŃØ§":9062,"ħÙĥØ§ØªØ¨":9063,"etail":9064,"ĠØ§ÙĦØ²ÙħØ§ÙĦÙĥ":9065,"Ø±Ø§Ø¡Ø§Ø":9066,"Ø·ÙģÙĦ":9067,"ĠØ§ÙĦÙģÙĪØ³":9068,"ÙĤÙĦØ§Øª":9069,"ĠØªØ´ÙĬØ±":9070,"ĠØ§ÙĦÙĦØ¹Ø¨":9071,"900":9072,"Ø¨ÙĪØ©":9073,"Ø§ÙĦØªØŃ":9074,"ĠØ§ÙĦØ§ÙĩØªÙħØ§Ùħ":9075,"ÙĪØ¬Ø§":9076,"ĠØ§ØªÙģØ§ÙĤÙĬØ©":9077,"ĠÙģÙĬØªØ§ÙħÙĬÙĨ":9078,"olut":9079,"ĠØ¹Ø§Ø¯ÙĦ":9080,"ĠØªÙĪÙĤÙģ":9081,"·Ø¨ÙĤ":9082,"ÙĥÙĬØ§":9083,"ĠØ¨Ø§Ø¹ØªØ¨Ø§Ø±":9084,"??":9085,"anufact":9086,"\").":9087,"ĠØ§ÙĦÙģØ¶Ø§Ø¡":9088,"ĠÙħØŃÙĥÙħØ©":9089,"ĠÙĪÙĤØ":9090,"Ø¨ØªØ¯Ø¦ÙĬÙĨ":9091,"ĠÙģØ±ÙĬ":9092,"ĠØ§ÙĦØ£ØµÙĦÙĬØ©":9093,"ĠØ§ÙĦØ¬Ø¯Ø¯":9094,"ĠØ¢Ø¨":9095,"ÙĨØªÙĩ":9096,"ħÙģØªÙĪØŃØ©":9097,"Ø§Ø³Ø£ÙĦ":9098,"¬Ø§Ø¨Ø©":9099,"ĠØ¨ÙħÙĤ":9100,"ÙħÙģØªÙĪØŃØ©":9101,"ĠØ®Ø§Ø±Ø¬ÙĬØ©":9102,"ĠØŃØ§Ø¯Ø«":9103,"ĠØºÙĬØ±Ùĩ":9104,"ild":9105,"Ø¶Ø±Ø©":9106,"ĠÙħØ¹ÙĩØ¯":9107,"ĠØ§ÙĦØªØ±Ø¨Ø©":9108,"ĠØ¹Ø§Ø":9109,"acy":9110,"Ø¬Ø§Ø¨":9111,"ĠØ§ÙĦØŃØ§Ø³Ø¨":9112,"Ġ2005":9113,"ates":9114,"iki":9115,"ĠØ§ÙĦØ¥ÙĤÙĦÙĬ":9116,"ĠØ§ÙĦØ£ÙĨØ§":9117,"ge":9118,"ĠØ§ÙĦÙħØ±Ø©":9119,"Ø¹Ø·Ø§Ø¡":9120,"ĠØªÙĤØ·ÙĬØ¹":9121,"ĠÙħØ§Øª":9122,"ĠØ§ÙĦÙħØ¹Ø¯Ø©":9123,"ĠØ§ÙĦÙĥØªÙĦØ©":9124,"ĠØªÙĪÙģÙĬ":9125,"ÙģØ¦Ø©":9126,"eat":9127,"ĠØ§ÙĦÙħØ¶Ø§":9128,"ĠST":9129,"ĠØ£ØŃØ¯Ø§Ø«":9130,"ĠØ§ÙĦÙģØ¬ÙĬØ±Ø©":9131,"ÙĦÙĤØ§Ø¡":9132,"ake":9133,"ĠØ±Ø¦ÙĬØ³ÙĬØ©":9134,"Ø§ÙĦØ´Ø±ÙĥØ§Øª":9135,"rand":9136,"ĠØªØ¬ÙħÙĬÙĦ":9137,"ĠÙĪÙĤÙģ":9138,"Ø§ÙĦØ£Ø®Ø¨Ø§Ø±":9139,"ĠØªØ¬Ø¯ÙĬØ¯":9140,"ĠÙĨØ¸Ø±Ø§":9141,"ĠÙģÙģÙĬ":9142,"ĠØ¨ÙģØ¶ÙĦ":9143,"ĠÙĪØ§ÙĦØªØ£":9144,"ħØ§Ø±Ø³Ø©":9145,"ĠÙģØ³Ø§ØªÙĬÙĨ":9146,"ĠCre":9147,"ĠØ§ÙĦØ¯Ø±Ø¬Ø©":9148,"Reply":9149,"ĠÙĪØ§ÙĦÙħØ±Ø§":9150,"ĠØ¨Ø±ÙĬØ·Ø§ÙĨÙĬØ§":9151,"ĠØ¬Ø³":9152,"ĠØ§ÙĦØ¸Ø±ÙĪÙģ":9153,"£Ø³":9154,"ĠØ§ÙĦØ¥Ø³Øª":9155,"ÙĪÙĬÙĦØ§":9156,"ĠÙħØŃØ¯Ø¯Ø©":9157,"By":9158,"ĠØ§ÙĦÙħØ±Ø´":9159,"ĠØ§ÙĦÙħÙħÙĬØ²Ø§Øª":9160,"Ø±Ø§Ø¡Ø§Øª":9161,"ºÙĬØ±Ø©":9162,"ĠØ£Ø´Ø®Ø§Øµ":9163,"ÙģÙĩÙħ":9164,"°Ø§ØªÙĬ":9165,"ªØ§Ø¨Ø¹ÙĬÙĨ":9166,"ĠØ¯Ø®ÙĦ":9167,"ÙħØ³Ø§Ø±":9168,"ĠØ§ÙĦØ²ÙħÙĨ":9169,"Ø¹ØªÙħØ§Ø¯":9170,"vert":9171,"ħÙĬØ²Ø§Øª":9172,"ĠØªØ²Ø§ÙĦ":9173,"ÙģØ±ÙĬÙĤÙĬ":9174,"ĠØ§ÙĦØ®Ø§Ø±Ø¬ÙĬ":9175,"ĠØ§ÙĦØ¨Ø¯Ø¡":9176,"Ø¹Ø§Ø¯ÙĦ":9177,"ĠØ§ÙĦÙĤÙĨØ§Ø©":9178,"ĠÙħÙħÙĨ":9179,"ĠØ©":9180,"ĠØŃÙħÙĦ":9181,"Ġï»¿":9182,"ĠØ§ÙĦÙĤØ§Ø¦":9183,"Ø³ØªÙĪ":9184,"ĠÙĪÙĬÙĥÙĪÙĨ":9185,"ĠÙĪÙħÙĤØ§":9186,"ºØ§ÙģÙĪØ±Ø©":9187,"au":9188,"ĠØ§ÙĦØ¨Ø·":9189,"ĠØªÙħØ«ÙĦ":9190,"ĠÙĪØ¬Ø§":9191,"ØªÙĩ":9192,"ĠØ¨ÙĬØ¦Ø©":9193,"ĠÙĪØµÙĪÙĦ":9194,"ĠØ²Ø§ÙĬØ¯":9195,"Ø±ÙĬØ§Ø¶Ø©":9196,"¤Ø§Ø¯":9197,"ĠØ§ÙĦØ£ÙĦÙĪØ§ÙĨ":9198,"Ø¨ÙĨØ§Ø¡":9199,"ĠØªØ±Ùī":9200,"µÙī":9201,"ĠÙĦÙĦØ®":9202,"·ÙĪØ±Ø©":9203,"ĠÙĦØ¯Ø¹Ùħ":9204,"ĠÙħÙģØªÙĪØŃØ©":9205,"Ch":9206,"GP":9207,"ĠÙħØ¹Ù":9208,"ĠØ¹ÙĬØ³Ùī":9209,"ĠÙĬØ®Øµ":9210,"ÙĦÙĥÙħ":9211,"ĠÙĦÙĦÙħØ¹":9212,"ĠØªØ¹Ø¨Ø¦Ø©":9213,"ĠØ§ÙĦØµØ¨Ø§ØŃ":9214,"ĠØ´Ú©ÙĨ":9215,"ĬÙĪÙħ":9216,"ĠØ§ÙĦØ³ÙĬØ·Ø±Ø©":9217,"ĠÙĤØ±ÙĬØ©":9218,"ÙĦØ§ÙĨÙĬØ©":9219,"ĠÙĦÙĦØ´Ø±ÙĥØ§Øª":9220,"ħØ¯Ø±Ø¨":9221,"Ø¦Ùĥ":9222,"ĪØ³ØªØ":9223,"Ø¹Ø§Ùģ":9224,"ĠÙħÙĨÙĪ":9225,"ÙĪØ§Ø±Ø§Øª":9226,"ĠØ¨ÙĨØ§Ø·ÙĬÙĦ":9227,"Ø´Ø§Ø±":9228,"ĠØ§ÙĦØ§ÙģØªØ±Ø§":9229,"ĠÙĦØªØ¹":9230,"ÙĬØ·ÙĬ":9231,"ĠØ§ÙĦØ¥Ø´":9232,"ĠØ®Ø¨Ø±Ø§Ø¡":9233,"ÙħÙĥØ§ØªØ¨":9234,"ĠØ§ÙĦØªÙħØ±":9235,"ĠØ§ÙĦØ¥ÙĬÙħØ§ÙĨ":9236,"ĠÙĪØ£ÙĨØ§":9237,"ĠÙĩÙĪØ§ØªÙģ":9238,"ĠØ¹ÙħÙĬ":9239,"Ø±ØµØ©":9240,"ŃØ¯Ø©":9241,"§ØªØ±Ùĥ":9242,"ĠØ§ÙĦØªØ´Ø±ÙĬ":9243,"Ø±ØªØ§":9244,"98":9245,"ĠØ§ÙĦØªØ¬ÙħÙĬÙĦ":9246,"ĠØ§ÙĦØ¨Ø±ÙĦÙħØ§ÙĨ":9247,"ĠÙĦØ¨Ø¹Ø¶":9248,"Ø´ÙĩØ±":9249,"ĠØ§ÙĦÙħØ´ØªØ±ÙĥØ©":9250,"Ø§ØªØ±Ùĥ":9251,"Ø³ØªØ®Ø¯Ø§ÙħØ§Øª":9252,"ĠØ£ÙĪØ§":9253,"76":9254,"ĠØ³ÙĬØªÙĬ":9255,"ÙĪØ³ØªØ":9256,"ĠØŃØµÙĦØª":9257,"ÙĬØ±ÙĪÙĨ":9258,"med":9259,"ÙĬØŃØ":9260,"ĠØ§ÙĦØ³ÙĬØ¯Ø©":9261,"Ø³ÙĪØ¯Ø§ÙĨ":9262,"ĠØŃØ±ÙĪÙģ":9263,"ĠØ§ÙĦØ¹Ø§ÙħÙĦÙĬÙĨ":9264,"ĠØ³ÙĨØªØ±":9265,"ĠØ§ÙĦÙĪØ³Ø·Ùī":9266,"weet":9267,"ØŃØ§ÙģØ©":9268,"ØŃØ²Ø§Ø¨":9269,"ĠØ§ÙĤØªØ±Ø§":9270,"Ø£Ùħ":9271,"ĬÙħØ«ÙĦ":9272,"ÙħØ«ÙĬÙĦ":9273,"ÙĤÙĬØ¯Ø©":9274,"ĠÙħØ§Ø³":9275,"ĠÙĨØ§ÙģØ°Ø©":9276,"ĠØ´Ø§Ùĩ":9277,"ÙĦÙĩÙĬ":9278,"ĠØ¥ÙĤØ§ÙħØ©":9279,"ĠÙħØªÙĨÙĤÙĦ":9280,"Ġ350":9281,"ĠÙĪØ®Ø¯ÙħØ§Øª":9282,"Ø¨Ø§Ø±ÙĬØ§Øª":9283,"ï¸ı":9284,"ĠØ¨ÙĥØ«ÙĬØ±":9285,"ST":9286,"ĠØ£Ø³ÙĪØ¯":9287,"ĠØªÙħÙĪØ²":9288,"ĠMachinery":9289,"78":9290,"µØ§Ù":9291,"ĠÙ¤":9292,"ĠÙĨØ¸Ø±Ø©":9293,"ĠÙĪÙħÙĨØªØ¬Ø§Øª":9294,"ÙĬÙħØ«ÙĦ":9295,"over":9296,"Ġâľ":9297,"ÙĨØ¦Ø©":9298,"ĠÙĦÙĦØªØ¹":9299,"ÙģÙĪØ§Ø¦Ø¯":9300,"ĠÙģÙĪ":9301,"ØªØ³":9302,"±Ø²":9303,"ĠÙħØ¯Ø±":9304,"ĠÙĪØ§ÙĦØ·ÙĦØ§Ø¨":9305,"ĠØ¨ÙĬØ¯":9306,"ĠÙĦÙĥÙĨÙĩØ§":9307,"¬ÙĬÙĥØ§":9308,"ĠØªÙĤØ¯ÙħÙĩØ§":9309,"ĠØ§ÙĦØŃØ¯ÙĬØ¯ÙĬØ©":9310,"¬ÙĪØ¹":9311,"ĬÙħØªÙĦÙĥ":9312,"ĠØ§ÙĦØ¨Ø®Ø§Ø±ÙĬ":9313,"ĠØ¹ÙĦØ§ÙĤØ§Øª":9314,"ĠØ§ÙĦØ®Ø·ÙĪØ·":9315,"ĠØ¹ÙĤØ¨":9316,"ÙĥÙĪÙĥ":9317,"ĠØºÙ":9318,"ĨØ³Ø§Ø¡":9319,"Ø¬ØªÙħØ§Ø¹ÙĬ":9320,"ĠØ§ÙĦØ±ÙħØ§Ø¯":9321,"ĠÙĤØ±Ø¨":9322,"ĠØ³ÙħØ¹":9323,"ĪÙĦØ§Ø°":9324,"ÙħØ¯Ø±Ø¨":9325,"ĠØ§ÙĦØ±ØŃÙĬÙħ":9326,"Ø±ÙĪØ§Ø¨Ø·":9327,"ĠØ§ÙĦØ³ÙĬØ³ÙĬ":9328,"ÙĬØªÙĬÙĨ":9329,"Ø§ÙĦÙĥØ³Ø§Ø±Ø©":9330,"ĠØ§ÙĤØªØµØ§Ø¯":9331,"ĠØ§ÙĦÙĪÙĤØ§":9332,"ĠØ¬ÙĨØ³":9333,"ÙĦÙĬÙĪ":9334,"ĠØŃØ¯ÙĬØ«Ø§":9335,"ĬØ¯Ø®ÙĦ":9336,"ĠØ²ÙħÙĨ":9337,"ĠÙĤØ¶Ø§ÙĬØ§":9338,"ĠÙĪØ§ÙĦÙħØ¹Ø§Ø¯ÙĨ":9339,"ÙĬÙħØªÙĦÙĥ":9340,"ĠØ¥Ø¬Ø§":9341,"te":9342,"ØµØ±Ø©":9343,"ĠØ§ÙĦÙħØªØ¬Ø±":9344,"Ø¯Ø±ÙĪÙĦÙĬÙĥÙĬ":9345,"Ġwill":9346,"ĨØº":9347,"±ÙĤØ§Ùħ":9348,"ÙĬØ¯Ø®ÙĦ":9349,"ªØª":9350,"ĠÙĪØ§ÙĦØªØµ":9351,"Ġ55":9352,"ÙĬØ§Ø·Ø©":9353,"ªØ±Ùģ":9354,"AA":9355,"Ø±Ø§Ø³Ø§Øª":9356,"Ø§ÙĦØªÙĩ":9357,"ĠIt":9358,"ĠØ§ÙĦØ³Øª":9359,"ĠØ§ÙĦØ§Ø´ØªØ±Ø§":9360,"ĠØ§ÙĦØ®Ø±ÙĪØ¬":9361,"ĠØ§ÙĦØ¨ÙĪØ±ØµØ©":9362,"ĨØ¨Ø§Øª":9363,"ĠØ§ÙĦÙģÙĥØ±":9364,"ĠØ·ÙĦ":9365,"ors":9366,"®ÙĬ":9367,"ĠØ§ÙĦØ«Ø¯ÙĬ":9368,"ĠØ§ÙĦØ¨Ø·ÙĨ":9369,"ĠØ®Ø·Ø£":9370,"Ø¦ØŃØ©":9371,"ĠØ£ÙģÙĥØ§Ø±":9372,"ĠØ¬ÙħÙĬØ¹Ø§":9373,"ĠØ§ÙĦÙħØ±ÙĬØ¶":9374,"ĠØ§ÙĦÙĤÙĪÙħÙĬ":9375,"ĠØ¨ØªÙĪÙĤÙĬØª":9376,"ĠÙĪÙĬØ¬Ø¨":9377,"ĠÙĬÙħÙĨ":9378,"ĠØ§ÙĦØ£ØŃÙĥØ§Ùħ":9379,"ÙĦÙĪÙħØ§":9380,"ÙĦÙĥØ§":9381,"Ab":9382,"ĠØ£Ø±ÙĤØ§Ùħ":9383,"ĠØ¨Ø¯Ø±":9384,"ĠØªÙĤÙĦ":9385,"ĠÙĦÙĦØ¬ÙħÙĬØ¹":9386,"ĠØ§ÙĦÙĩØ¬Ø±Ø©":9387,"ĠÙĬØªØ·ÙĦØ¨":9388,"ĠØ§ØªØ¬Ø§Ùĩ":9389,"Ø¯ÙĪÙħ":9390,"ĠØ§ÙĦØ³ÙĪÙĬ":9391,"ĠØ§ÙĦØ£ØµÙĪÙĦ":9392,"Ø¬Ø¦ÙĬÙĨ":9393,"ĠØªÙĤÙĦÙĬÙĦ":9394,"ĠØ§ÙĦØ®Ø¶Ø±Ø§Ø¡":9395,"ĠØ£ÙģÙĦØ§Ùħ":9396,"ĠØ³ÙĩÙħ":9397,"ĠØ§ÙĦØ¹ÙĬØ¯":9398,"Ø±Ø§ØŃ":9399,"ÙĨÙĥ":9400,"ĠÙħØ³Ø¤ÙĪÙĦÙĬØ©":9401,"ĠÙħØ¹ÙĦÙħ":9402,"ÙĬÙĪÙĦÙĬÙĪ":9403,"Ġwe":9404,"ĠÙħØ·Ø§Ø¹Ùħ":9405,"ªØ±ÙĬÙĦ":9406,"ĠÙĪØ§ÙĦØ¨ØŃØ«":9407,"ĠØ§Ø¯ÙĪØ§Øª":9408,"ÙĦÙħØª":9409,"ĪÙĦÙĪØ¬ÙĬ":9410,"Ø¬ÙħØ§ÙĦ":9411,"ĠØ§ÙĦØ±Ø´":9412,"ĠÙĦÙĦÙĨØ§":9413,"ĠÙĦÙĦØ¹ÙħÙĦØ§Ø¡":9414,"ĠØªØªØ±":9415,"ĠÙģÙĬØª":9416,"ĠØªØªÙħØªØ¹":9417,"inked":9418,"Â©":9419,"ÙĤØ§Ø¨":9420,"ij":9421,"ĠÙĪØ£ØŃ":9422,"ĠØ®ÙĬ":9423,"ĠØ§ÙĦØ§Ø®ØªÙĬØ§Ø±":9424,"ĠØ³Ø§ÙĨØª":9425,"150":9426,"ĠØµÙģØŃØ§Øª":9427,"Ø³ÙĬØ§Ø±Ø©":9428,"ĠÙĪØ§ÙĨØª":9429,"ĠØªÙĦÙģ":9430,"ÙĥÙĥ":9431,"ÙĨØ¸Ùħ":9432,"ĠÙĪØ§Ø¶ØŃ":9433,"ĠØ§ÙĦØ´ÙĬØ¡":9434,"Ø£Ø¹ÙĦÙĨ":9435,"ĠÙħÙħØªØ§Ø²":9436,"Ø¨ÙĪØª":9437,"ĠØ§ÙĦØµØ§Ø¨ÙĪÙĨ":9438,"ĠØ§ÙĦØ³Ø¹ÙĬØ¯":9439,"ĠØ§ÙĦÙĤØ±ÙĬ":9440,"ÙĦÙħÙĩ":9441,"ĠØ§ÙĦØ«ÙĦØ§Ø«Ø©":9442,"ĠØ³Ø§Ø®Ù":9443,"ĠÙħÙħØªØ§Ø²Ø©":9444,"´ÙĬØ±":9445,"ĠØ£ÙĪØ±Ø§ÙĤ":9446,"ĠØ§ÙĦÙħØµÙĨÙĪØ¹Ø©":9447,"ĠØ§ÙĦØ£ÙĨÙĪØ§Ø¹":9448,"Ġprodu":9449,"ÙĥØ³ÙĬ":9450,"ĠÙĦØŃÙħØ§ÙĬØ©":9451,"Ø£ØŃÙħØ¯":9452,"ĠØ§ÙĦØªØŃØ¯":9453,"iews":9454,"ĠØ§ÙĦØ¬ÙħÙĩÙĪØ±":9455,"ĠØ¬Ø§ÙĩØ²Ø©":9456,"ĠÙĥØ´":9457,"ĠÙħØ¤Ø®Ø±Ø§":9458,"ĠÙĪØ§Ø¶ØŃØ©":9459,"ĠÙĪÙĤØ¹":9460,"Ø´ØªØ±Ø§":9461,"ĠÙĨØ³Ø§Ø¦ÙĬØ©":9462,"ĠØ§ÙĥØªØ´Ø§Ùģ":9463,"ĠØ¨ÙĤÙĪØ©":9464,"Ø³ÙĨØ¯":9465,"MT":9466,"ĠÙĥÙĦØ§ÙĬÙĨ":9467,"±ÙĪÙī":9468,"ĠÙħÙĪØ¬ÙĪØ¯":9469,"ØŃØ°Ùģ":9470,"°Ø§Ø±":9471,"Ġexper":9472,"ĠØ¥Ø³Ø¨Ø§ÙĨÙĬØ§":9473,"ĠØ´Ø§ÙħÙĦØ©":9474,"Ñĥ":9475,"ĠØ¹Ø§Ø´":9476,"Tag":9477,"ÙħØµØ§Ø¯Ø±":9478,"ID":9479,"ĠNew":9480,"ĠØ§ÙĦØ£ÙģÙĦØ§Ùħ":9481,"ØŃØ¶Ø±Ø§Øª":9482,"ĠØªÙĨÙĤ":9483,"ÙĬÙħØ§Øª":9484,"âĤ":9485,"§Ø¦Ø":9486,"ĠÙĥÙĪÙĥ":9487,"ĠØ§ÙĪÙĨÙĦØ§ÙĬÙĨ":9488,"ĠHP":9489,"ĠØ§ÙĦÙħÙģØ¶ÙĦØ©":9490,"ĠØ¬ÙĨØ¨":9491,"ĠØªØ£ÙħÙĬÙĨ":9492,"ĠØ§ÙĦØ´ÙħØ³ÙĬØ©":9493,"Ø±Ø¬ÙĦ":9494,"ys":9495,"ĠÙĪØ³ÙĬÙĦØ©":9496,"Ġlive":9497,"ĠÙĨÙĤØ¯":9498,"ĠØ§ÙĦÙģØ¹ÙĦ":9499,"ĠØ®ØªÙħ":9500,"ĠÙĪØ¢ÙĦØ§Øª":9501,"Ø§ÙĦØ¨Ø§Øª":9502,"Ġ2004":9503,"ĬÙģÙĪÙĨ":9504,"ĠÙĬØªÙĥÙĪÙĨ":9505,"ÙĨØ¨Ø§Øª":9506,"ÙħØ§ÙĬ":9507,"ĠØ´Ø±ÙĥÙĩ":9508,"Ûŀ":9509,"ĠØ§ÙĦØ¯ÙĪØ§Ø±":9510,"yst":9511,"ÙĪØ§Ø±Ø¹":9512,"ÙĤØ¯Ø©":9513,"ĠØ§ÙĦÙĥØ±Ø§Ùħ":9514,"ÙĥØªÙĪØ±Ø§":9515,"ĠØ¯ÙĪÙĦÙĬØ©":9516,"ĠØ§ÙĦØ§Ø¹ØªÙħØ§Ø¯":9517,"ĠØ§ÙĦÙĥÙĪÙĨ":9518,"ĠØ¨ÙĬÙĦÙĬÙĩ":9519,"ÙħØ³ØªØ®Ø¯":9520,"ĠØ£Ø³ÙĩÙħ":9521,"ĠØ¹Ø·Ø±":9522,"Ø¶Ø§Ø¡Ø©":9523,"ara":9524,"ÙĪØ§Ø±ÙĬØ®":9525,"ĠØ¯Ø¹Ø§Ø¡":9526,"ĠÙĦØ¹Ùħ":9527,"ĠÙħØ¯Ø¨ÙĦØ¬":9528,"ÙģØ§Ø¯":9529,"ĠØ¬Ø§ÙħØ¹":9530,"ĠØ§ÙĦØµØ®Ø":9531,"Ġpost":9532,"Ø±Ø§ÙĨÙĬ":9533,"ÙĬØ´ÙĨ":9534,"ĠØ§ÙĦÙħÙĨØ¸ÙģØ§Øª":9535,"ĠÙĪØ§ÙĦØ§Ø":9536,"ĠÙĤÙĪØ§":9537,"ØºÙ":9538,"ªØ§ÙĪÙī":9539,"ĠØ£Ø¹ÙĦØ§":9540,"ºÙĬÙĬØ±Ø§Øª":9541,"ĠØ£Ø¯Ùī":9542,"ÙĦÙĦØ":9543,"ĠØ®ØµÙĪØµØ§":9544,"ĠØ¬Ø§Ø¦Ø²Ø©":9545,"ĠØ§Ø³ØªØ¹ÙħØ§ÙĦ":9546,"ĠØ§Ø¨Ø±Ø§ÙĩÙĬÙħ":9547,"ĠØ§ÙĦØ±Ø¤ÙĬØ©":9548,"ĠÙħÙĨØªØ":9549,"ĠØ§ÙĦØªØµÙĪÙĬØ±":9550,"ĠÙħØ¹ÙĩÙħ":9551,"ĠÙĬØ·ÙĦÙĤ":9552,"ĢÙĢØ§":9553,"ĠØ³ÙħÙĬØ±":9554,"ĠØ§ÙĦØ§ÙħØ±ÙĬ":9555,"ĠâĿĢ":9556,"ĠØ¨Ø¹Ø¯ÙĩØ§":9557,"ĠÙĪÙĩÙĦ":9558,"ĠÙĦØŃÙħ":9559,"ÙĩØªØ²":9560,"°Ø§Ø¨":9561,"ØŃØªÙĩ":9562,"ĠØ§ÙĦÙħØ³ØªÙĩÙĦÙĥ":9563,"ĠØªØ¹ÙĨÙĬ":9564,"ÙĦØ¦":9565,"ĠØ®ÙĦÙģÙĬØ©":9566,"ÙĩØ±Ø§Ø¡":9567,"ĠØ§ÙĦÙħØªØ¬":9568,"ĠØ§ÙĦÙħÙĦ":9569,"ĠÙĪØ§ÙĦØ³ÙĦØ§Ùħ":9570,"ĠØªØ¹Ø±":9571,"ÙħØ·Ø§Ø±":9572,"ØŁ.":9573,"Ø³ÙĬØ¹":9574,"ĠØ¹ÙĥØ³":9575,"·ÙĦÙĤ":9576,"ĠØ·Ùĩ":9577,"Ø¢Ù":9578,"ØªØ±ÙĥÙĬØ¨":9579,"²Ø§ÙĨÙĬØ§":9580,"ĠØ§ÙĦØ¬Øº":9581,"ÙĨÙĤÙĦ":9582,"ĠØ§ÙĦØ¨Ø±ÙĪ":9583,"ÙħØ§Ø±ÙĬ":9584,"Ġmin":9585,"ĠÙĤÙĦÙĬÙĦØ©":9586,"ĠÙģÙĤØ¯Ø§ÙĨ":9587,"ĠØ¹Ø§Ø¦ÙĦØ©":9588,"ĠØ¯Ø§Ø®ÙĦÙĬØ©":9589,"ĠÙĪØ³ÙĬØ·":9590,"ĠØ§Ø¨ØªØ¯Ø§Ø¦ÙĬ":9591,"ĠAll":9592,"ĠÙĦØ§Ø¨Ø¯":9593,"Ġplant":9594,"ĠØ§ÙĦÙħØµØ§Ø¨":9595,"ĠÙĥØ§Ø±ÙĬ":9596,"ĠØªØµÙĨØ¹":9597,"ĠØ§ÙĦØ¹Ø§Ø¦ÙĦØ©":9598,"ĠØ³ÙĪØ¨Ø±":9599,"ĠØ§ÙĦØªÙĤÙĨÙĬØ§Øª":9600,"lick":9601,"ÙĪØµÙģ":9602,"ÙħØ±Ø§Ù":9603,"ĠØ§ÙĦØŃÙĪØ«":9604,"ĠØ§ÙĦØ¹Ø¶ÙĪÙĬØ©":9605,"ĠØ§ÙĦØ³Ø·":9606,"que":9607,"ĠØªÙģØ¹ÙĬÙĦ":9608,"ĠØ±Ø£Ùī":9609,"ocument":9610,"ĠØ¹ÙħØ§ÙĦ":9611,"Ġif":9612,"ĠØªÙĬØ´":9613,"ÙĦÙĦØ¨ÙĬØ¹":9614,"ĠØ¨ÙħÙĪØ¬Ø¨":9615,"''":9616,"ĠØ®Ø·Ø·":9617,"ĪÙħÙĬØ©":9618,"ªÙĪØ§ØµÙĦ":9619,"ĠÙĤØ±ÙĬØ¨":9620,"ĠØ§ÙĦÙħÙĪØ¸ÙģÙĬÙĨ":9621,"Ø§ÙĦØŃØ©":9622,"ĬØ¹Ø§ÙĨÙĬ":9623,"][":9624,"ĠØ¥ØµØ§Ø¨Ø©":9625,"¶ÙħØ§Ùħ":9626,"ĠØ§ÙĦÙħØªÙĪÙĤØ¹":9627,"ĠÙĥØ£":9628,"ĠØªØªÙĥÙĪÙĨ":9629,"ĠØ¢ÙĦÙĬØ©":9630,"ĠØ¯Ø¹Ø§":9631,"ĠØ³Ø±Ø§":9632,"ma":9633,"ÙĬØ¹Ø§ÙĨÙĬ":9634,"Ø±Ø§ÙģÙĬØ©":9635,"ĠÙĬÙĪØ±ÙĪ":9636,"ĠØªØªØ¹ÙĦÙĤ":9637,"px":9638,"ĠØ§ÙĦØ¸ÙĩØ±":9639,"ital":9640,"Ø³Ø¨ØªÙħØ¨Ø±":9641,"ĠÙĪØ³ØªØ":9642,"ĠØ¥ÙĨÙħØ§":9643,"ĠÙĤÙĬØ§Ùħ":9644,"ĠØ¨Ø¬Ø§ÙĨØ¨":9645,"ĠØ¨Ø§ÙĦØ±":9646,"²Ø§Ø¯":9647,"ĠØ§ÙĦØ³ÙĩÙħ":9648,"ĠØ§ÙĦØ£Ø·Ø¹ÙħØ©":9649,"ĠQu":9650,"&&":9651,"ĠÙĬØŃÙĬÙī":9652,"ÙħØªÙĨØ§":9653,"ĠØ§ÙĤØªØ¨Ø§Ø³":9654,"ĠÙĪØ§ÙĦÙħØ³":9655,"ĠÙĪØ§ÙĦØŃØ":9656,"ĠØ§ÙĦØ¨ÙĬØ¶":9657,"ĠØ³ÙĬÙĨØ§":9658,"ÙħÙĬÙĨÙĬ":9659,"ºÙĪØ·":9660,"Ø¹ÙĪÙĨØ§":9661,"ĠÙħÙĬÙĦØ§Ø¯":9662,"ºÙĬØ±Ø§Øª":9663,"ĠÙħÙĩØ":9664,"79":9665,"ĠÙĪØ§ÙĦØªÙĨÙħÙĬØ©":9666,"Ġpr":9667,"ĠØ®Ø¨Ø±":9668,"ĠØŃØ°Ùģ":9669,"interest":9670,"Ġwas":9671,"ĠÙĦØ¢ÙĦØ©":9672,"ĠÙĦÙĦØ®Ø":9673,"ĠØ§ÙĦÙĪØµ":9674,"enter":9675,"ĠØ§Ø³ØªØ®Ø¯Ùħ":9676,"ĠØ§ÙĦÙħØ±Ø¬ÙĦ":9677,"ĠÙħÙĬØ²Ø©":9678,"ĠÙĪØ§Ø´ÙĨØ·ÙĨ":9679,"ĪÙĬØ¬":9680,"ĠÙħØ³Ø§Ø±":9681,"ĠØ§ÙĦØ´Ø¹ÙĪØ±":9682,"ĠÙħÙĦØª":9683,"ĠØ¥Ø¯Ø®Ø§ÙĦ":9684,"ĠÙħØŃÙħÙĪÙĦ":9685,"ÙĦØªÙĥ":9686,"·ÙĪ":9687,"ĠØªØ¹ÙĦÙĬÙĤØ§":9688,"ÙĬØ±ÙĦÙĨØ¯Ø§":9689,"ĠØ´ÙĤØ©":9690,"ĠØ§ÙĦØ§Ùģ":9691,"ĠØªÙĤÙĨÙĬØ§Øª":9692,"ĠØ§ÙĦØªØŃÙĤÙĤ":9693,"ĠØ®Ø´Ø¨":9694,"ĠÙĪØ£ÙĬØ¶Ø§":9695,"Ø¨ÙĬØ§ÙĨ":9696,"ÙĬØŃØ§":9697,"ĠØ§ÙĦØ´ØªØ§Ø¡":9698,"ĠØ±Ø®ØµØ©":9699,"61":9700,"ĨÙĪØ¹Ø§Øª":9701,"ĬÙĥØ´Ùģ":9702,"ĠÙħÙĬØ§":9703,"ÛĮØ©":9704,"âĢ¬âĢİ":9705,"ĠÙħÙĨØµØ§Øª":9706,"ÙĬÙĥØ´Ùģ":9707,"ĠØ§ÙĦÙħØªØµÙģØŃ":9708,"ĠÙħÙĨØªØµÙģ":9709,"ÙħÙĪØ§ØµÙģØ§Øª":9710,"ĢÙĢÙĢÙĢ":9711,"ĠØ§ÙĦÙĨÙĩØ§Ø¦ÙĬØ©":9712,"ÙĦÙĬØ§Ùģ":9713,"jpg":9714,"set":9715,"ĠØ§Ø³ØªØ¦":9716,"ĠÙĬØ¯Ø®ÙĦ":9717,"ĠØ§Ùī":9718,"ªØ§ÙĨØ©":9719,"ĠÙĥÙĬÙħÙĬØ§":9720,"ĠØ«Ø§Ø¨Øª":9721,"ĠÙĤÙĦÙĬÙĦØ§":9722,"ĠØ´Ø¯ÙĬØ¯":9723,"ħÙģØ§ØªÙĬØŃ":9724,"²Ø²":9725,"Ø±Ø§Ø¨Ø§Øª":9726,"ĠØ§ÙĦØŃØ³Ø§Ø¨Ø§Øª":9727,"ÙĪØ±ÙĩØ§":9728,"ĠØ¯ÙĬÙĥÙĪØ±":9729,"ÙĥØ§ØªÙĩ":9730,"ÙĬÙĪÙĬÙĨ":9731,"ĠØ¨Ø§ÙĤÙĬ":9732,"ĠØ§ÙĦØ¹Ø§Ø¯ÙĬØ©":9733,"ĠØ§ÙĦÙħØ´Ø±":9734,"ais":9735,"ĠØ§ÙĦØ³ÙĪØ±":9736,"ĠØ§Ø¶Ø·":9737,"ĠØ¢Ø°Ø§Ø±":9738,"Ø¦Ø·":9739,"ĠÙĥØ§ØªØ¨":9740,"62":9741,"ĠØªÙĪØ¨":9742,"ĠØ§ÙĦØ¯Ø§Ø¦Ø±Ø©":9743,"ĠØ§ÙĦÙĦØºØ§Øª":9744,"ĠØ«ÙĤØ§ÙģØ©":9745,"ÙĨØ§Ø¨":9746,"ĠÙĦØµÙĨØ¹":9747,"ĪØ¬Ùĩ":9748,"ĠØ§ÙĦØ£ØµÙĦÙĬ":9749,"ĠØ·Ø§Ø±ÙĤ":9750,"ton":9751,"Ġdis":9752,"ÙĪÙĬØ¬":9753,"Ø¦Ø±ÙĬ":9754,"ĠÙĨØŃ":9755,"ĠÙħØ³ØªØ®Ø¯":9756,"ĠØ§ÙĦØ¶Ø§":9757,"ĠØ§ÙĦÙĬÙĪÙħÙĬ":9758,"ĠÙĬÙħØ«ÙĦ":9759,"ÙħØ±Ø§ÙĨ":9760,"ĠØ®Ø´":9761,"ĠÙħØ¶Ø®Ø©":9762,"Ø±Ø§Ø´":9763,"ĠØ§ÙĦØŃÙħØ±Ø§Ø¡":9764,"ĪÙģÙĬØ©":9765,"Ø¨ÙĦØ³":9766,"Ø£Ø¹ÙĦÙĨØª":9767,"Ġ33":9768,"ĠØ±ÙĪØŃØ§":9769,"ĠØ¬ÙħØ§Ø¹Ø©":9770,"ĠÙĪØ§ÙĦÙħÙĪØ±Ø¯ÙĬÙĨ":9771,"ĠØ°Ùĩ":9772,"ĠÙģØ±Ø¯":9773,"ĠØ§ÙĦØºØ±Ø§ÙĨÙĬØª":9774,"ĠØ£Ø³ÙģÙĦ":9775,"ĠØ§Ø«ÙĨÙĬÙĨ":9776,"ÙĦØ§Ø³":9777,"ĠÂŃ":9778,"ĠØ§ÙĦØªØ®Ø·ÙĬØ·":9779,"ĠØ§ÙħØªØŃØ§ÙĨØ§Øª":9780,"ĠÙĨØ®":9781,"Ø³ÙĦØ³ÙĦØ©":9782,"ĠØ±Ø³ÙħÙĬ":9783,"Ġ38":9784,"ĠÙħØ¨ÙĦØº":9785,"ÙĬØªÙĪ":9786,"ĠÙħÙĨÙĬ":9787,"Ø§ÙĦÙħØ¹Ø¯Ø§Øª":9788,"ÙĦØªØ±":9789,"ĠÙĦÙĦØŃØ¬Ø±":9790,"ØŃØ°":9791,"ĠÙĨØ³Ø®":9792,"ħÙĥØª":9793,"ĠØ§Ø±Ø¶":9794,"ĠÙħØ·Ø¨Ø®":9795,"ĠÙĤØµÙĬØ±":9796,"ĠÙĬÙĨØ§Ø³Ø¨":9797,"ĠØºÙĬÙĨÙĬØ§":9798,"Un":9799,"ĠÙĦÙĦØ¢":9800,"ĠÙĦÙĦÙħÙĨØ§":9801,"ħØ¯ÙĬØ±":9802,"ĠÙħØ¨Ø§Ø±Ùĥ":9803,"Ø¹ØªÙħØ¯":9804,"ĠØªØµÙħÙĬÙħÙĩØ§":9805,"ÙħÙģØ§ØªÙĬØŃ":9806,"ħØ¨ÙĬØ§":9807,"ĠAm":9808,"ĠÙĪØ§Ø¯ÙĬ":9809,"Ġuse":9810,"Ø¹Ø¯Ø§Øª":9811,"ĠØªØ±Ø¨ÙĬØ©":9812,"ĠØ§ÙĦÙĥØ«":9813,"§Ø³ØªØ®Ø¯Ø§Ùħ":9814,"ĠArab":9815,"ĠÙĬÙĥØ´Ùģ":9816,"ªÙħØ§ÙĦ":9817,"ØŃØªÙĩØ§":9818,"ĠØ§ÙĦØ¬ÙĨØ©":9819,"ĠØ§ÙĦÙĤÙĬÙĪÙĬÙĨ":9820,"ĠÙĦØ¨ÙĨØ§Ø¡":9821,"Ø¹Ø§ÙĦÙĬØ©":9822,"ĠØ§ÙĦÙħØ¨Ø§Ø±Ùĥ":9823,"ĠÙĥØ§ÙĦÙģÙĨ":9824,"ĠØ§ÙĦØ¹ÙħÙĪ":9825,"ĠØ§ÙĦØªØ¹ÙĦÙħ":9826,"ÙĬØªØ§ÙĨ":9827,"ĠØµØ§ÙĨØ¹":9828,"ĠØªÙĦØ§":9829,"ĠØªÙĨØ§Ø³Ø¨":9830,"anufactur":9831,"ĠØ§ÙĦØ£Ø«Ø±":9832,"ĠØ¹ÙĪØ¯Ø©":9833,"Ġïºį":9834,"ource":9835,"reen":9836,"count":9837,"ĠØ®Ø§ÙħØ§Øª":9838,"ĠOct":9839,"ĠØµÙĬØ¯":9840,"ÙĩÙĪÙĦ":9841,"ĠØªÙĪÙĤØ¹Ø§Øª":9842,"ĠØ§ÙĦØªØ¯Ø±ÙĬØ³":9843,"ĠØ§ØºÙĨÙĬØ©":9844,"ĠØ¨Ø·Ø§ÙĨØ©":9845,"ĠØ§ÙĦÙħÙĬÙĥØ§ÙĨÙĬÙĥÙĬØ©":9846,"ĠØ§ÙĦÙģØŃØµ":9847,"ĠØ§ØªØ¨Ø§Ø¹":9848,"ĠØ§ÙĦØ£ÙħÙĬÙĨ":9849,"top":9850,"ĠØ¨Ø¹Ø¯ÙħØ§":9851,"ÙħÙĪÙĬ":9852,"ĠÙĪÙĦÙĥÙĨÙĩØ§":9853,"ĠØ§ÙĦÙģÙĪØ§Ø¦Ø¯":9854,"Ġ1500":9855,"url":9856,"ĠÙĪØ§ÙĦÙħÙĪØ":9857,"ĠØ§ÙĦØ¯Ø¬Ø§Ø¬":9858,"ĠØªØ£Ø³Ø³Øª":9859,"Ø±ØªÙĬ":9860,"ÙĤÙĪØ§ÙĦ":9861,"ĠØ§ÙĦÙħØªØ§Ø¬Ø±":9862,"ĨØ³Øª":9863,"ĠØ§ÙĦØ¹ÙĤØ§Ø±ÙĬ":9864,"ĬÙĨØ§":9865,"ĠØŃØ¬Ø²":9866,"ĠØ§ÙĦÙħØ³Ø§Ø¨":9867,"ĠØ§ÙĦÙģØª":9868,"ĠÙĥÙĨØ§":9869,"ĠØ§ÙĦØ«Ø§ÙħÙĨ":9870,"´Ø§Ø±ÙĬ":9871,"ĠMay":9872,"ØŃØ§ÙĬØ§":9873,"ÙĥÙĪÙĦ":9874,"ĠØ³ÙĬÙģ":9875,"ĠÙĨØ¹ÙħÙĦ":9876,"ĠÙĥÙĨØ¨":9877,"ari":9878,"Ø³ØªØ®Ø¯Ø§ÙħÙĩØ§":9879,"ject":9880,"ĠØ§ÙĦØ¨Ø±ÙĬ":9881,"Ġ99":9882,"Ø§Ø¦":9883,"ĠØ¨Ø¥ÙħÙĥØ§ÙĨ":9884,"ĠØŃØ±Ø§Ø":9885,"ĪØ¹Ø¯Ø¯":9886,"ÙĪØ¹Ø¯Ø¯":9887,"Ø£ØºØ³Ø·Ø³":9888,"ØµØ¨":9889,"ÙĥØ±Ùĩ":9890,"ĠØ§ÙĦØµÙĨØ¹":9891,"ĠÙĪÙħØŃØ§":9892,"ÙĩØ±Ø§Øª":9893,"ĠÙĬØªÙħÙĥÙĨ":9894,"Ø§ÙĦØ£ÙĥØ«Ø±":9895,"Ø´Ø±ØŃ":9896,"ĠØ¬ÙĬØ¬Ø§":9897,"Ġworld":9898,"ÙĥØ¨Ø©":9899,"Ø³Ø¨ÙĤ":9900,"ĠØ¨ÙĬÙĨÙĩÙħØ§":9901,"rem":9902,"ĠØ§Ø³ØªÙĤ":9903,"ÙĨÙĬØ¯":9904,"ĠØ§ÙĦØ³Ø§Ø¯Ø³Ø©":9905,"Ø§Ø¨ØŃØ«":9906,"ĠØ§ÙĦØ³Ø¹Ø±Ø§ÙĦØŃØµÙĪÙĦ":9907,"ÙĪØ§Ø±Ø¨":9908,"ange":9909,"ºØ±ÙĬ":9910,"Ø§ÙĦØ³Ø¹ÙĪØ¯ÙĬØ©":9911,"ĠÙĪØ§ÙĦØ·ØŃÙĨ":9912,"ĠØ§Ø±ØªØ¯Ø§Ø¡":9913,"ĠØ§ÙĦÙħØ³ØªØ«ÙħØ±ÙĬÙĨ":9914,"ĠÙĪØ§Ø³":9915,"ĠØºØ§ÙĦØ¨":9916,"icy":9917,"ÙĦØ§Ø·":9918,"ĠÙħØ®Ø§Ø·Ø±":9919,"ĠØ§ÙĦØ£Ùĥ":9920,"ĠØ¨Ø·Ø§ÙĤØ§Øª":9921,"ĠÙħØ³ÙĦØ³ÙĦØ§Øª":9922,"ĠØ§ÙĦÙģÙĨØ§ÙĨØ©":9923,"ĠØ²Ø§Ø¯":9924,"ĠØ§ÙĦÙħØµØ§":9925,"Ø§Ø³ØªØ®Ø¯Ø§Ùħ":9926,"ĠÙĥÙħØ§ÙĦ":9927,"ĠØ¯ÙĤØ©":9928,"ĠØ³ØªØ©":9929,"ĠØ§ÙĦØµØ¹Ø¨":9930,"Ø¨Ø§ØŃÙĬØ©":9931,"Ø¬ÙħØ§ÙĦÙĬØ©":9932,"ĠØ§ÙĦØ£ÙħÙĬØ±ÙĥÙĬØ©":9933,"ĠÙĬØªØŃØ¯Ø«":9934,"ĠÙĬØªØ¶ÙħÙĨ":9935,"ĠÙħÙĥÙĬØ§Ø¬":9936,"Ø®ÙĪØ±":9937,"Ø¹ÙĬØ¯Ø§":9938,"ÙħØªÙĥ":9939,"ÙĨØ³Øª":9940,"ĠØªÙĥØ´Ùģ":9941,"²Ø§ÙĬØ¯":9942,"ĠØ¥Ø³Øª":9943,"da":9944,"ÙĨØ¦":9945,"ĠØµÙĨØ§Ø¹ÙĬ":9946,"ÙĪØ±ÙĨÙĬØ§":9947,"ÙħÙĨØªØ¬Ø§Øª":9948,"ĠØ§ÙĦÙĨØŃÙĪ":9949,"fer":9950,"ĠØ«ÙĤÙĬÙĦÙĩ":9951,"§ÙĨØª":9952,"Ø¯ØªÙĬ":9953,"ĠØ§ÙĦØªØ±Ø§Ø«":9954,"ĠØ§ÙĦØ§ØªØ¬Ø§Ùĩ":9955,"ĠØ§ÙĦØªØŃÙĤÙĬÙĤ":9956,"els":9957,"ger":9958,"ĠØ§ÙĦØ®Ø¨Ø±Ø§Ø¡":9959,"ĠÙģØ¶ÙĦ":9960,"Ø±Ø§Ø¦Ø·":9961,"Ġï´":9962,"ĠØ§ÙĦØ¥Ø±ÙĩØ§Ø¨":9963,"Ø±Ø¶Øª":9964,"ĠØ¨Ø§ÙĦØ±Ø":9965,"2015":9966,"ĪÙħØ±":9967,"ĠØ§ÙĦØ¯Ø¨":9968,"ĠØ³ÙĥØ±":9969,"rit":9970,"ÙĤØªÙĥ":9971,"ĠÙħØ¹Ø¯ÙĨ":9972,"ĠÙĬÙħØªÙĦÙĥ":9973,"ĠÙĦÙĦÙħØ´Ø§Ø±ÙĥØ©":9974,"ĠÙĪØ¹Ø¯Ø¯":9975,"ency":9976,"ÙĪØ§Øµ":9977,"Ø«Ø±":9978,"Ø¨Ø¯Ø©":9979,"±Ø³Ø§Øª":9980,"ĠØ´Ø§Ø±":9981,"ict":9982,"Ø¯ÙĬØ³":9983,"ÙħØ´Ø§Ø±ÙĥØ©":9984,"ÙģØ±Ø§Øª":9985,"ÙģØ³Ø§Ø±Ø§Øª":9986,"Ø§ÙĦÙģØŃÙħ":9987,"ĠØ¨ÙĬØªÙĥÙĪÙĬÙĨ":9988,"74":9989,"ĠÙĩØ¯":9990,"«Ø§Ø¨Ø©":9991,"ĠÙĪØ£Ø®":9992,"ĠØ¨Ø¹Ø":9993,"ĠÙģÙĬØ±":9994,"ĠØ§ÙĦØ®ÙĦØ§ÙĬØ§":9995,"áĥ":9996,"ĠØ§ÙĦØ¥ÙĬØ±Ø§ÙĨÙĬ":9997,"ĠØ§ÙĦÙħØ¶":9998,"Ġstone":9999,"ĠØ§ÙĤØ":10000,"Ø¯Ø¹Ø§Ø¡":10001,"ĠÚ":10002,"ĠØ§ÙĦØ£ÙģÙĥØ§Ø±":10003,"ĠØ¯Ø±Ø³":10004,"ÙĬØ²Ø§Øª":10005,"ÙĤÙĬØ¯":10006,"ÙĬØ·Ø§ÙĦÙĬ":10007,"ĠØ§ÙĨÙĤØ±":10008,"Ø³ØªØ§ÙĨÙĬ":10009,"Ġhave":10010,"²ÙĬÙĪØª":10011,"ĠØ±Ø¨Ø¹":10012,"ĠØ§ÙĦØ£Ø·Ø¨Ø§Ø¡":10013,"ĠÙĪØ§ÙĦÙħØª":10014,"Ø§Ø®ØªØ±":10015,"()":10016,"ĪÙĨØª":10017,"ĠÙĪØ·Ø":10018,"ĠÙĪØ§ÙĦÙĨØ§":10019,"ĠØ¨ÙħØ¬Ø±Ø¯":10020,"´Ø±ØŃ":10021,"ĠÙħØŃØ±ÙĥØ§Øª":10022,"ÙħØ®Ø·Ø·":10023,"Ø¹Ø¯ØªÙĥ":10024,"ĠØ®ÙĦØ¹":10025,"ĠØ§ÙĦÙħØ®Ø·":10026,"ĠØ¨Ø§ÙĦÙħÙĪØ±Ø¯WhatsApp":10027,"ĠØ§ÙĦØ´Ø§ÙħÙĦ":10028,"ĠÙģØµ":10029,"ĠØ¯ÙĬØ±":10030,"ĠÙħØ±Ø´":10031,"Ø¯Ø´":10032,"Ø±Ø·ÙĪÙħ":10033,"ĠØ§ÙĦÙĤØ¨ÙĪÙĦ":10034,"ÙĥÙĪÙħ":10035,"ĠÙĨÙĪÙģØ±":10036,"ĠØ§ÙĦÙĤÙĪÙĬØ©":10037,"ĠØ§ÙĦØ¬ÙĪÙĬ":10038,"ĠÙħÙĬÙĦØ§":10039,"TH":10040,"ĠÙĬØ¤Ø«Ø±":10041,"ĠØ§ÙĦØ¨ÙĬØ§ÙĨ":10042,"Ġ42":10043,"ĠØ§ÙĦØ¹Ø§Ø¦":10044,"ĠØ¨ÙĦØºØª":10045,"ĠØ§ÙĦÙĦØ§Ø¹Ø¨ÙĬÙĨ":10046,"ĠØ§ÙĦÙĤØ¶Ø§ÙĬØ§":10047,"ÙĦÙĪÙħØ©":10048,"ĠØ§ÙĦØªØ´Ø":10049,"Ø§ÙĨØª":10050,"ĠÙħØªØŃ":10051,"ĠÙĪØ±ØŃÙħØ©":10052,"Ġkora":10053,"ĠÙĦÙħÙĨØ§":10054,"ÙĪÙħØ±":10055,"ĠØ®ÙĦØ§ÙĦÙĩ":10056,"ĠØºØ±ÙĬØ¨":10057,"ĠHome":10058,"ĠØ§ÙĦÙħÙĤØ¯Ø³":10059,"ĠØªØ´ÙĥÙĦ":10060,"ĠÙĨØ¨Ø§Øª":10061,"ĠÙħØ¯ÙĪÙĨØ©":10062,"µÙĨØ¯ÙĪÙĤ":10063,"ĠØ§ÙĦØ¨ÙĨØªÙĪÙĨÙĬØª":10064,"Ø´ÙĬØ©":10065,"ĠArabic":10066,"ĠØŃÙģØ§Ø¶Ø§Øª":10067,"ĠØŃÙĦÙĪ":10068,"ĠØªÙĩØ¯Ùģ":10069,"icro":10070,"ĠØ§ÙĦØ§ÙĨØªÙĩØ§Ø¡":10071,"ĠÙħØ¹Ùĥ":10072,"ĠØ£ÙĪÙĦÙī":10073,"ĠØ§ÙĦÙĤØ±":10074,"ĠØ¨ÙĨØ¸Ø§Ùħ":10075,"Ø§ÙĦÙĬÙģÙĪØ±ÙĨÙĬØ§":10076,"ĠØ§ÙĦØ³Ø¬":10077,"ĠÙģÙĪØ²":10078,"ĠÙģÙĩ":10079,"ºØ±ÙģØ©":10080,"ĠÙħØ¯Ø±Ø¨":10081,"ĠØ§ÙĦØ¥ÙĨØ":10082,"ĠÙħÙĬÙĦ":10083,"ĪÙĬÙĨØ":10084,"ĠØ§ÙĦÙħØ¬ÙħÙĪØ¹Ø§Øª":10085,"ĠÙħÙĨØ²ÙĦÙĥ":10086,"ĠØ¹Ø§ÙĦÙħÙĬ":10087,"ĠÙĦÙĦØ§ÙĨØ¯Ø±ÙĪÙĬØ¯":10088,"Ø±Ø³Ø§Øª":10089,"ĠÙĬØ¹Ø§ÙĨÙĬ":10090,"Ø§ÙĦØ¹ÙĦØ§":10091,"ïºĺ":10092,"ĠØ§ÙĦØ¥Ø´Ø§Ø±Ø©":10093,"ªØ¨Ø©":10094,"ĠØ¨Ø±Ø´":10095,"ĠØ§ÙĦÙĨÙĬØ§":10096,"±ØŃÙĦØ©":10097,"ĠØªØ¹ÙĪØ¯":10098,"Ø¨ÙĤØ©":10099,"ĠØ·Ø¹Ø§Ùħ":10100,"ĠØ§ÙĦØ¬Ø§ÙħØ¹ÙĬØ©":10101,"ĠÙĪÙĬØ±":10102,"ĠÙĪØ¬Ù":10103,"ĠØ§ÙĦØ±Ø·Ø¨Ø©":10104,"ÙĥÙĩØ©":10105,"ĠØ®Ø±Ø³Ø§ÙĨØ©":10106,"ĠÙħÙĪØ¬ÙĪØ¯Ø©":10107,"ĠÙĪØ´Ù":10108,"ĠØ¨Ø§ÙĦØ¨Ø®Ø§Ø±":10109,"ĠØ·ÙģÙĦ":10110,"ÙĪÙĬÙĨØ":10111,"par":10112,"ĠØ§ÙĦÙħØµØ§ÙĨØ¹":10113,"ĠØ§ÙĦØ¥Ø®Ø¨Ø§Ø±ÙĬØ©":10114,"ÙĨØ¬ÙĪ":10115,"Ø´ÙĬØ±Ø©":10116,"Ø§ÙĦØ¹Ø":10117,"ĠÙĪØ§ÙĤØ¹":10118,"ĠJun":10119,"ĠØ¬ÙĬÙĨØ²":10120,"Ġexperi":10121,"ĠÙħÙĤØªÙĦ":10122,"94":10123,"ĠØ³Ø·":10124,"ĠØ§ÙĦØ´ÙĩÙĬØ±Ø©":10125,"ĠÙĩÙĪÙĦÙĨØ¯Ø§":10126,"Ø¨ØŃØ§Ø«":10127,"ĠØªØ§ÙĬÙĦØ§ÙĨØ¯":10128,"ĠØ´Ø¨ÙĥØ§Øª":10129,"ĠØ§ÙĦÙģØ§Ø¦Ø¯Ø©":10130,"ÙħØ³ØŃÙĪÙĤ":10131,"ÙĥØªÙĬ":10132,"Ø³Ø§ÙħØ©":10133,"Ø°ÙĨ":10134,"ÙĥØ«Ùģ":10135,"ĠÙĨØ§Ø¯ÙĪ":10136,"ĠØ§ÙĦÙĤØ§Ø¯Ùħ":10137,"ĠØ§ØªØŃØ§Ø¯":10138,"ĠÙĪØµÙģØ§Øª":10139,"ĠÙĪØªØ®":10140,"ĠØ¯ÙĪØ±Ø§Øª":10141,"ĠÙĦÙĦÙħØŃ":10142,"ĠØ§ÙĦÙħÙĨØªØ¯ÙĬØ§Øª":10143,"Ø³ÙĪØ§ÙĤ":10144,"ÙĪØ¬Ø¨":10145,"ĠØ§ÙĦØ¥Ø«ÙĨÙĬÙĨ":10146,"ÙĥÙĦÙģØ©":10147,"ĠÙĤÙĦØª":10148,"ĠØ¬ÙĨÙĬ":10149,"ĠØ§ÙĦØªØ¨":10150,"ĠÙħÙĥØ§ØªØ¨":10151,"ĠØ§ÙĦÙĪÙģ":10152,"ĠØ¨Ø§ÙĦÙĪØ":10153,"ĠØ¨ÙħØ«Ø§Ø¨Ø©":10154,"µØ±Ùī":10155,"Ø§ÙĦÙģØ±ÙĤ":10156,"ĠÙĪÙħØ±":10157,"ÙĥØ±Ùħ":10158,"ĠØ§ÙĦØµÙĪØªÙĬØ©":10159,"§ÙĤØªØ¨Ø§Ø³":10160,"¬Ø§ÙĩØ§Øª":10161,"ĠØ§ÙĦØ§Ø³ØªØ±Ø§ØªÙĬØ¬ÙĬØ©":10162,"ducts":10163,"ÙĪØªÙĩ":10164,"ĠØ§ÙĦØ¯ÙĪØ§Ø¦Ø±":10165,"ĠØ§ÙĦØŃÙĦÙĬØ¨":10166,"ĠØ³ÙĬÙħØ§":10167,"ĠÙĪØµÙ":10168,"ĠØ¬ÙĬØ¨":10169,"ĠÙĬØ¶Ùħ":10170,"be":10171,"ĪØ¹ÙĨØ¯ÙħØ§":10172,"ĠØ¬Ø±ÙĬØ¯Ø©":10173,"Ø¬ÙĬØ¹":10174,"ÙĪØ¹ÙĨØ¯ÙħØ§":10175,"âĸ":10176,"ĠØ§Ø¨ÙĪØ§Ø¨":10177,"ĠØ§ÙĦØ¬Ø±ÙĬ":10178,"ĠØ§ÙĦØ§Ø¦Øª":10179,"ĠÙħØ¹ÙħÙĦ":10180,"ĠØ·Ø±Ø§Ø²":10181,"Ø§ÙĦØ±ØŃ":10182,"ÙĨØ´Ø·Ø©":10183,"ÙħÙĥØª":10184,"Ø¬Ùĩ":10185,"ĠØ¨Ø®ØµÙĪØµ":10186,"£ÙĥÙĬØ¯":10187,"ĠØ§ÙĦÙĨÙģØ³ÙĬ":10188,"ĠØ§ÙĦØ¹Ø¯ÙĦ":10189,"ĠØ§ÙĦØ¹ÙĬÙĪÙĨ":10190,"Ø³ÙĬÙģ":10191,"ĠØ¨Ø¨Ø¹Ø¶":10192,"ĠÙħØ§Ø±ÙĥØ©":10193,"ollow":10194,"Ø·Ø±ÙĬØ©":10195,"Ø®ØªØ¨Ø§Ø±":10196,"Ø«Ø±Ø©":10197,"Ø¯ÙĪØ³":10198,"ĠØ§ÙĦØ£Ø¹Ø±Ø§Ø¶":10199,"¤Ùĩ":10200,"ĠÙĪØ±Ø¦ÙĬØ³":10201,"ĠØªÙĪØ§ÙģÙĤ":10202,"ĠLive":10203,"ĠØ§ÙĦÙħØªÙĪØ§Ø¬":10204,"ĠØªØ³ÙĦÙĬÙĥ":10205,"ĠÙĬÙħÙĥÙĨÙĥÙħ":10206,"Ø³ØªÙĬÙĥÙĬØ©":10207,"alla":10208,"ÙĪØ´ÙĬ":10209,"·ÙĬÙĦ":10210,"ÙĬÙĨØ§ÙĬ":10211,"´Ø±ÙĪØ·":10212,"ĠØ§ÙĦÙĤØµØ©":10213,"±ÙĤØ©":10214,"ĠØ§ÙĦØ£Ø·Ø±Ø§Ùģ":10215,"ĬÙħÙĨØ¹":10216,"ÙĨÙħ":10217,"ĠÙĥÙĦÙħØ§":10218,"Ø¹ÙħÙĦÙĩ":10219,"ÙĤÙĪØ¨":10220,"Ø§ÙĤØªØ¨Ø§Ø³":10221,"ĠMining":10222,"ĠØŃØµØ§":10223,"ĠØ®Ø±ÙĬØ·Ø©":10224,"ĠAc":10225,"ĠØ§ÙĦØ¯ÙĬØ²ÙĦ":10226,"Ø§ÙĦØŃØ¯ÙĬØ¯":10227,"ĠØ¬Ø§Ø¡Ø":10228,"ific":10229,"etails":10230,"ĠØªÙĨØ²Ø§ÙĨÙĬØ§":10231,"ÙĦÙĪØ§ØŃ":10232,"ĠØ§ÙĦÙĪØ²ÙĬØ±":10233,"ĠÙĥØ±ØªÙĪÙĨ":10234,"ĠØ¨ÙħÙ":10235,"ĠØªØ´Ø¹Ø±":10236,"ĠØªØ§ÙħÙĬÙĦ":10237,"ªÙĨØ¯":10238,"ĠØ§ÙĦÙħØ¤ÙħÙĨÙĬÙĨ":10239,"ÙĥØ§Ø¯":10240,"ĠÙĦÙħØ³":10241,"ĠØ§ÙĦÙģÙĪØ²":10242,"ork":10243,"2013":10244,"ĠØ£ÙĨØ¨ÙĪØ¨":10245,"ĠØ¸Ø±ÙĪÙģ":10246,"ĠÙħØ±ØŃØ¨Ø§":10247,"ĠÙģØ±ÙĬØ¯":10248,"Ø§ÙĦØ«Ø§":10249,"ĠÙģÙĪÙĦØª":10250,"ØªØ·Ø¨ÙĬÙĤ":10251,"ÙĬÙħÙĨØ¹":10252,"ĠØ¯ÙĬÙĥÙĪØ±Ø§Øª":10253,"ĠÙħØ¹Ø±ÙĪÙģ":10254,"ĠØ¶Ø¹Ù":10255,"Ø´Ø®Ø§Øµ":10256,"Ø¹ÙĪÙĬØ¶":10257,"ĠÙĬØªØŃ":10258,"ÙĥÙĦÙħØ©":10259,"ĠØ¹ÙħÙĦÙĩ":10260,"ĠÙĦØªØµÙĨÙĬØ¹":10261,"ĠØ§Ø±ÙĤØ§Ùħ":10262,"Ġlikes":10263,"ĠÙĨØ¯":10264,"ĠPress":10265,"ĠØªØ±Ø§Ø¬Ø¹":10266,"ĠØªÙĪØ±ÙĬØ¯":10267,"ÙĪØªØ´":10268,"ÙģÙĤØ¯":10269,"ĠØ§ÙĦØ³Ø±ÙĬØ¹Ø©":10270,"ĠÙģØ±ÙĪØ¹":10271,"ĠÙĬÙĨØªØ¬":10272,"ĠØ§ÙĦÙĥØ±ÙĬ":10273,"ĠÙħÙĦØ¹ÙĤØ©":10274,"Ø§ÙĦØ³Ø¹Ø±":10275,"ĠØ§ÙĦØ¹Ø¸Ø§Ùħ":10276,"ĠØ§Ø³ØªØ«ÙħØ§Ø±":10277,"ĠØ§ÙĦØ£ÙĤØµÙī":10278,"ĠÙĪØ¬Ø¯Øª":10279,"ĠØ§ÙĦØ¥ØµØ¯Ø§Ø±":10280,"Ø´Ø§Ø±Ø§Øª":10281,"ÙĦØ²Ø§":10282,"orld":10283,"Ø³ØªÙħØ±":10284,"ĠØ§Ø¹ØªØ¨Ø§Ø±":10285,"ĠØ§ÙĦØ¹ÙĤ":10286,"ĠØŃÙĤÙĬÙĤÙĬØ©":10287,"ĠØŃØ³":10288,"ae":10289,"aut":10290,"ĠØ¨ÙĪÙĦÙĪ":10291,"ĠÙĬØªÙĬØŃ":10292,"hone":10293,"ĠØ§ÙĦÙĨØ§Ø¯ÙĬ":10294,"ÙħÙĩØ§Ø":10295,"ĨÙħØ·":10296,"ĠØ§ÙĦØ°ÙĩØ§Ø¨":10297,"Ø±Ø¬Ø§":10298,"ĠÙĥÙĪÙĦÙĪÙħ":10299,"ĠØ³Ø§Øª":10300,"ĠØ§ÙĦÙģÙĪØ³ÙģØ§Øª":10301,"ĠÙħØªØ£":10302,"ĠØ±Ø¦ÙĬØ³ÙĬ":10303,"ĠØ·Ø¨ÙĬØ¹Ø©":10304,"Ġ!!":10305,"ve":10306,"Ø±Ø§Øµ":10307,"ĬÙĤÙĦ":10308,"ÙĪØŃØ¯Ø©":10309,"ÙģÙĪØ¹Ø©":10310,"ĠÙħÙĪØ³Ùħ":10311,"ĠÙħÙĬØ³":10312,"ÙħÙħØ©":10313,"ÙĥÙĬØ±":10314,"ĠØ¨Ø°ÙĪØ±":10315,"ÙħÙĪØ§ÙĤØ¹":10316,"ĪØ¨ÙĬØ¹":10317,"ÙĪØ§ÙĥÙĩ":10318,"ĠØ§ÙĦÙĩØ§ÙħØ©":10319,"ĠØªØµØ¯Ø±":10320,"·Øª":10321,"ĠØ´Ø§Ø±Ø¨":10322,"Ø·ÙĬØ³":10323,"ĠØ¨Ø§Ø³ØªÙħØ±Ø§Ø±":10324,"ÙħÙĪØŃ":10325,"ĠØ°ÙĥØ±Ùī":10326,"ĠÙĦØªØŃØ³ÙĬÙĨ":10327,"ÙĤØªØµØ§Ø¯ÙĬ":10328,"ĠÙĪØ§ÙĦÙħÙĤ":10329,"ĠØ§ÙĦÙĥØ±ÙĬÙħØ©":10330,"ĪØ¹ÙĨØ¯":10331,"ÙĪØ¹ÙĨØ¯":10332,"ÙģØªØªØŃ":10333,"²Ùī":10334,"ÙĪØ¨ÙĬØ¹":10335,"Ø³Ø§Ø¨ÙĤ":10336,"ĠØ³ÙĪØ±":10337,"ited":10338,"ps":10339,"ĠØ§ÙĦØ¹Ø³ÙĦ":10340,"ĠØ¨ØªØ¹":10341,"ĠØªØµØ±ÙĬØŃ":10342,"ĠÙĪØ§ÙĦÙħÙĤØ§":10343,"Ø±Ø¢ÙĨ":10344,"ØŃØ¨Ø©":10345,"ÙĤÙĦØª":10346,"orn":10347,"ºØªÙĬ":10348,"ublic":10349,"ĠÙĦØµØ§ÙĦØŃ":10350,"Ù¾":10351,"ĠÙĬØ´ÙħÙĦ":10352,"ĠØ§ÙĦØªÙĩ":10353,"ĠØ§ÙĦØ®Ø·ÙĪØ©":10354,"ĠØ§ÙĦØ¨ÙĪØ§":10355,"Ø¶Ø§Ø¦":10356,"ĠØ§ÙĦÙħÙĦÙĥÙĬ":10357,"ĠØ¨ÙĬØ±ÙĪ":10358,"´Ø§ÙĤ":10359,"ersion":10360,"ĠÙħØ³ØªÙħØ±":10361,"ĠÙĪØ¨ÙĬØ¹":10362,"ĠØ§ÙĦØ¨Ø±ÙĬØ·Ø§ÙĨÙĬ":10363,"ĠØ³ÙĨÙĪ":10364,"ĠØ¨ÙĪÙĦÙĬ":10365,"ĠØªØ¹Ø¨Ø±":10366,"ĠØ§Ø³ØªØ®Ø¯":10367,"ĠÙĬØ®ØªÙĦÙģ":10368,"ĠØ§ÙĦÙħØµØ±ÙģÙĬØ©":10369,"ĠØ£ØºÙĦØ¨":10370,"ĠØ§ÙĦÙĤÙĪØ§ÙĨÙĬÙĨ":10371,"ĠPF":10372,"ĠÙħÙĤØ§ÙĦ":10373,"ÙĨÙħØ·":10374,"ĠØ§ÙĤØªØµØ§Ø¯ÙĬØ©":10375,"ĠØ§ÙĦÙĨØªØ±ÙĬÙĦ":10376,"ĠÙħØµØ±ÙĬØ©":10377,"ĠØ£Ø·ÙĦÙĤØª":10378,"ĠØ§ÙĦØ³ÙĦØ©":10379,"ĠÙĦØ²ÙĬØ§Ø¯Ø©":10380,"ÙģØªØ±Ø¶":10381,"ÙĨØ³Ø§Ø¡":10382,"ĠØ§ÙĦØ¯ÙĪØ§Ø±Ø©":10383,"ĠØ§ÙĦØªÙħÙĪÙĬÙĦ":10384,"Ø¹Ø¯ÙĦ":10385,"Ã¼":10386,"ĠØ§ÙĦÙħØ°Ùĥ":10387,"ĠØ³ÙĨØºØ§ÙģÙĪØ±Ø©":10388,"ĠØ§ÙĦØ£ÙĪØ":10389,"ĠÙĦØŃØ¸Ø©":10390,"ĠØ§ÙĦØ±Ø¨":10391,"Ø§ÙĦÙħÙĬØ©":10392,"ĠØ§ÙĦÙĦØ¨ÙĨØ§ÙĨÙĬ":10393,"ĠÙħØ¤Ùĥ":10394,"Ø¬Ø§Ø¦":10395,"ivers":10396,"ĠØªÙĦÙħÙĬØ¹":10397,"ÙħÙĪØ§Ø¶ÙĬØ¹":10398,"ØŃÙĤÙĪÙĤ":10399,"Ø¬Ø£Ø©":10400,"Al":10401,"µØŃ":10402,"ĠØ¬Ø§Ø¡Øª":10403,"¥ÙĨØ³Ø§ÙĨ":10404,"92":10405,"ÙĤÙĬÙĤØ§Øª":10406,"ĠÙĥØ§ÙģÙĬØ©":10407,"Ġfunction":10408,"ĠØ£Ø¶Ùģ":10409,"Ø²ÙĪ":10410,"ĠÙĪØ§Ø·":10411,"Ġ110":10412,"ĠÙĤØ±Ø§":10413,"ĠØ§ÙĦÙħØªÙĨÙĪØ¹Ø©":10414,"ĠÙģÙĬØµÙĦ":10415,"ÙģØµÙĬÙĦ":10416,"±Ø§ØªØ¨":10417,"ĠÙħÙĪØ³ÙĬÙĤÙī":10418,"Ø¨Ø´":10419,"ĠØ§ÙĦØ´ÙĩÙĬØ±":10420,"ĠØ¯Ø¹ÙĪØ©":10421,"ĠÙĦÙĦÙĪØµÙĪÙĦ":10422,"ĠØ§Ø³ØªÙĬØ±Ø§Ø¯":10423,"Ø¹ÙħØ§Ø±":10424,"ĠØ§Ø¬ÙĦ":10425,"ĠØŃØ¯Ø«ÙĨØ§":10426,"¸Ø©":10427,"Ġ1987":10428,"Ġwww":10429,"ĠÙĨÙĪÙĨ":10430,"Ø±Ø§ÙģÙĬØ§":10431,"ÙĥØ´Ø§Ùģ":10432,"ĠØ£ÙĤØ±Ø¨":10433,"ĠÙĤÙĪØ§ÙĨÙĬÙĨ":10434,"ĠØ§ÙĦÙħØ´Ø§Ø±ÙĥØ§Øª":10435,"ĠÙĪØ´Ø±Ø§Ø¡":10436,"ĠØ²Ø§ÙħØ¨ÙĬØ§":10437,"ĠØ§ÙĦÙħÙģØªÙĪØŃØ©":10438,"ĠLocal":10439,"ĠÙħØ¹Ø§ÙĬÙĬØ±":10440,"Ø§ÙĦØ§Ø³Øª":10441,"ĠØ³ÙĪØ³":10442,"ĠÙĦÙĦØ°ÙĩØ¨":10443,"ĠØ§ÙĦÙħØ§Ø¦ÙĬØ©":10444,"ĠÙĦØªÙĪÙģÙĬØ±":10445,"Ù±":10446,"ĠØ³ØªØ§Ø±":10447,"¶Ø§Ø¦Ø¹":10448,"ĠØ¨Ø£Ø¹ÙħØ§ÙĦ":10449,"ĠØ¸ÙĩØ±Øª":10450,"Ø§ÙĦØ®Ø¯ÙħØ©":10451,"±ÙĪØŃØ©":10452,"Ø¯ÙĤØ§Ø¡":10453,"ĠÙĪØ§ÙĦØ¯ÙĬ":10454,"ÙĬØªÙĨØ§":10455,"IS":10456,"ÙĥØªÙĪØ¨Ø©":10457,"ĨÙĬÙĥØ±Ø²":10458,"ĠÙħØµØ±ÙģÙĬ":10459,"Ġservice":10460,"ĠØªØ¹Ø§ÙĪÙĨ":10461,"ĠØ¬ÙĪØ±Ø¬ÙĬØ§":10462,"ÙĬÙĤÙĦ":10463,"ÙłÙłÙł":10464,"ĠÙĦÙĦÙħØ±Ø£Ø©":10465,"ħÙĦØŃ":10466,"ĠÙĪØµÙĬØ§ÙĨØ©":10467,"ĠÙĪØµÙĦØª":10468,"ĠÙħÙĤØ§Ø":10469,"echnology":10470,"ĠØ¨ÙĥØ§ÙģØ©":10471,"ĠØ§ÙĦÙĬØ":10472,"ĠØ§ÙĦØ£Ø±Ø¨Ø§ØŃ":10473,"ĠÙĪØ§ÙĬ":10474,"ĠÙħØ³Ø£ÙĦØ©":10475,"ĠÙĤØ¯Ø±Ø§Øª":10476,"ĠØ§ÙĦØ±Ø¤":10477,"ĠÙģØ¤Ø§Ø¯":10478,"ĠØ¨ÙĦØ¬ÙĬÙĥØ§":10479,"ĠØ§ÙĦØªØµÙĨÙĬÙģ":10480,"atal":10481,"Share":10482,"ĠØ§ØµØ¯Ø§Ø±":10483,"ĠØ³ÙĬØ±ÙĬÙĨ":10484,"ĠØ®ÙĦÙĬÙģØ©":10485,"ÙĨØ§Ø·ÙĬØ³":10486,"ĠÙĪÙĬØ³ØªØ®Ø¯Ùħ":10487,"edu":10488,"ÙħÙĩØ§Øª":10489,"ĠØªÙĬØ´ÙĬØ±ØªØ§Øª":10490,"ĠØ§ÙĦØ§Ø¬ÙĩØ²Ø©":10491,"ĠÙħÙĥØª":10492,"ĠØªØ³ÙħÙī":10493,"ĠØ§ÙĦÙħÙĥØ§":10494,"ĠØºØ¶ÙĪÙĨ":10495,"§ÙĤ":10496,"ĠØ§ÙĦÙĬØ§Ø¨Ø§ÙĨÙĬØ©":10497,"Ġline":10498,"cs":10499,"ÙĦÙĬÙĦØ©":10500,"ĠØ¨Ø§ÙĦØº":10501,"±ÙĬØŃØ©":10502,"ĠØ§ÙĦÙħÙĨØµØ©":10503,"ĠÙĪØ§ÙĦÙħØ³Ø§":10504,"Ø¹ØªÙĬÙĨ":10505,"Ø£Øµ":10506,"ÙĬÙĪÙģ":10507,"ĠØ§ÙĦÙĨÙĪÙĪÙĬ":10508,"£ï»":10509,"ĠØªØ¹ÙĦÙĬÙħÙĬØ©":10510,"ÙĤØªÙĦ":10511,"ĠØ§ÙĦÙģÙĨÙĪÙĨ":10512,"ªØ§Ø±Ø©":10513,"ĠÙħÙħØª":10514,"Ø¹Ø§Ø´":10515,"sa":10516,"ĠØ¥Ø«ÙĬÙĪØ¨ÙĬØ§":10517,"ĠÙħØ·Ø§Ø¨Ø®":10518,"Ġper":10519,"ĠÙħØ¬Ø§Ù":10520,"ĠÙħØ³Ø§Ø¨ÙĤØ©":10521,"ĠØ§ÙĦÙĤØ§Ø¶ÙĬ":10522,"ĠÙĪØ§ÙĦØ¹ÙĦÙĪÙħ":10523,"ier":10524,"ÙĬØ¯ÙĬ":10525,"ÙģØ£Ø©":10526,"®Ø§Ø¡":10527,"ĠØªØ¹Ø§ÙĨÙĬ":10528,"ÙħÙĪÙĨØ²":10529,"Ġ65":10530,"ĠØ§ÙĬÙģÙĪÙĨ":10531,"ĠØ¬ÙĩØ¯":10532,"Ġinformation":10533,"ĠÙĬÙĤÙĦ":10534,"ĠÙĥÙĪØ¨ÙĪÙĨ":10535,"ĠØ§ÙĦØ¨Ø«":10536,"ĠØ§ÙĦØ³Ø§Ø¨Ø¹Ø©":10537,"gh":10538,"iel":10539,"ĠØ¨ÙĪÙĦ":10540,"ĠÙĦÙĦÙħÙĪØ§Ø¯":10541,"ÙħØ²Ø©":10542,")âĢı":10543,"Ø³Ø¤Ø§ÙĦ":10544,"ĠØ§ÙĦØªÙĦÙģØ²ÙĬÙĪÙĨ":10545,"ĠÙħØªØ§ØŃ":10546,"ĠØ§Ø³ÙħÙĨØª":10547,"ĠÙĥØ§ÙĦÙĬÙģÙĪØ±ÙĨÙĬØ§":10548,"ÙĬØ²ÙĬØ§":10549,"TML":10550,"ĠØ³ÙĦÙĬÙħ":10551,"ĠÙĪÙĦÙĩØ°Ø§":10552,"ĠÙĦÙĦØ³ÙĬØ§Ø±Ø§Øª":10553,"ĠÙĤØ¶ÙĬØ¨":10554,"ĠØªØŃØ§ÙĪÙĦ":10555,"âĢª":10556,"ĠÙģÙĩÙĦ":10557,"ãĢĳ":10558,"ĠØ§ÙĦØ¥ÙĬØ¬Ø§":10559,"ĠØ§ÙĦØªØºÙĬÙĬØ±":10560,"ĠÙģÙĪØ±ÙĬ":10561,"ĠØ£Ø¨ÙĪØ§Ø¨":10562,"ĠØ§ÙĦØ¥Ø¬":10563,"ĠØ¨ÙĥØ±Ø©":10564,"ĠØ¹Ø¨":10565,"ÙĬØ§ÙĨÙĬØ©":10566,"ĠÙĦÙħÙĪÙĤØ¹":10567,"ĠÙĨØ±":10568,"ÙĪØ¬Ø§Øª":10569,"Ø²ÙĬÙĨ":10570,"ĠØ§ÙĦØ¬Ø²Ø§Ø¦Ø±ÙĬ":10571,"ĠØªØ¹ÙĬØ´":10572,"ÙĬÙĨÙĬÙĬÙĨ":10573,"ħØ³ØªØ®Ø¯Ùħ":10574,"ĠØªØµØ¯ÙĬØ±":10575,"ĠØ§ÙĦØ±Ø§ØŃØ©":10576,"ams":10577,"ĠØ§ÙĦÙģÙĥØ±ÙĬØ©":10578,"ĠØªØ±ÙĥÙĬØ©":10579,"ĠÙĦÙĦØº":10580,"ĠÙģØªØ§Ø©":10581,"ĪØ¹Ø§Ø¡":10582,"ĠØ§ÙĦØ³ÙĪÙĬØ³":10583,"ÙĬØ§Ø¯Ø§Øª":10584,"ĠÙħÙĨØ§Ùģ":10585,"Ø³ØªÙĩ":10586,"ĠÙĥÙģØ±":10587,"µØ§ÙĨ":10588,"ĠÙĤÙĬØ¯":10589,"ĠØ§ÙĦÙħÙĤØ§ÙĪÙħ":10590,"ĠÙĤØ±Ø£":10591,"ĠØ§ÙĦØ¨ØŃÙĪØ«":10592,"Ġ....":10593,"ĠØ§ÙĦØ«Ø§ÙħÙĨØ©":10594,"Ġ~":10595,"ÙĦÙĥÙĬØ©":10596,"ĠØ¹ÙĪØ§ÙħÙĦ":10597,"ĠØ§ÙĦÙĩÙĨØ¯ÙĬØ©":10598,"ĠÙĦØ¬Ø§ÙĨ":10599,"Ø«ÙĦØ©":10600,"ªÙģØ§ØµÙĬÙĦ":10601,"Ø¯Ø¯Ø§":10602,"ĠÙĪØ§ÙĦÙħØŃØ§":10603,"ÙĬØ±ÙĪØ³Ø§Øª":10604,"Ø§ÙĤ":10605,"ĠÙĨØ³Øª":10606,"Ġsa":10607,"ĠÙħØµÙĨÙĪØ¹Ø©":10608,"ÙĳØĮ":10609,"ÙĥØªÙĬØ±ÙĬØ§":10610,"ĠØ§ÙĦØºØ°Ø§Ø¡":10611,"ada":10612,"ĠCO":10613,"ĠØ§ÙĦØ£ÙĦÙħØ§ÙĨÙĬ":10614,"ĠØªÙħÙĪÙĬÙĦ":10615,"ĠØªØ¬Ø§":10616,"ħØ¨ÙĬØ¹Ø§Øª":10617,"ĪØ¹Ø¯":10618,"ĠÙħÙĬÙĨØ§":10619,"ĠÙħÙĨØµÙĪØ±":10620,"Ø³ÙĬÙĩ":10621,"ĠØªØ±Ø§ÙħØ¨":10622,"´Ø§ÙĩØ¯":10623,"ĠÙĪØ§ÙĦØ¥ÙĨØªØ§Ø¬":10624,"ĠÙĤÙħØ©":10625,"ĠØ§ÙĦØ³ÙĨÙĪÙĬ":10626,"ĠÙĪÙĬØ¬":10627,"ĠØªØ¬Ø§ÙĪØ²":10628,"ÙĪØ§Ø±Ø¦":10629,"ĠÙģØ¹Ø§ÙĦØ©":10630,"str":10631,"²ÙĬÙģ":10632,"ĠØ³ÙĨØª":10633,"ĠMill":10634,"ĠØ£Ø³ÙħÙĨØª":10635,"ĠÙħØ³ØªÙĦØ²ÙħØ§Øª":10636,"ĠØŃÙĬØ§ØªÙĥ":10637,"ĠØ£ØµÙĪÙĦ":10638,"ĠØ¢ÙħÙĨ":10639,"ºØ±Ø©":10640,"ium":10641,"ØªÙģØ§ØµÙĬÙĦ":10642,"ĠØ£ÙĦÙħ":10643,"ĠØ§ÙĦÙĥÙĪÙĨØ":10644,"ĠØ·ÙĪØ§ØŃÙĬÙĨ":10645,"ĠØ°Ø§ØªÙĩ":10646,"ĠÙħÙģØªØ§ØŃ":10647,"Ġdo":10648,"ÙĥÙĦÙħØ§Øª":10649,"ĠØ¥Ø´Ø§Ø±Ø©":10650,"ĠÙĦÙħØŃØ·Ø©":10651,"ĠØ§ÙĦÙħÙĪØ§Ø·ÙĨ":10652,"ĠÙħÙĤØ¯":10653,"ĠØ§ÙĦÙĨÙħÙĦ":10654,"ĠØ¨Ø²ÙĬØ§Ø±Ø©":10655,"ĠÙĨØ§ÙĬÙĥ":10656,"ĠÙĦØºØ±Ø¶":10657,"ĠØªØ±Ø¯":10658,"pos":10659,"¶Ø®Ùħ":10660,"73":10661,"ØŁ!":10662,"ĠÙĦÙĦØ§Ø·ÙģØ§ÙĦ":10663,"ĠØ§ÙĦØ³Ø§Ø¦ÙĦ":10664,"±ÙĬØ²":10665,"Ø§ÙĦÙĬÙĪÙħ":10666,"ĠØ§ÙĦØ´Ø§Ø±Ø¹":10667,"ĠÙĤØµØ±":10668,"Ø³ÙĦØ©":10669,"ĠØ§ÙĦØºØ±Ø¨ÙĬ":10670,"ĠÙĪØ·Ø±ÙĤ":10671,"ĠÙĪØ§ÙĦØ³ÙĬØ§":10672,"ĠØ§ÙĦÙĨØµØ±":10673,"Ø§ÙĦÙĩÙĨØ¯":10674,"ÙģØ§Ùĩ":10675,"ĠÙĪØªÙĤØ¯ÙĬÙħ":10676,"ĠØ³Ø§Ø¨ÙĤØ§":10677,"Ø³ÙĬÙħØ§Øª":10678,"ĠÛ":10679,"ĠÙħÙĦØ¹Ø¨":10680,"Ġtime":10681,"ĠAf":10682,"ĠØªÙĪØ¸ÙĬÙģ":10683,"ĠÙĤØ¯ÙĬÙħØ©":10684,"ĠÙĪÙħØ³":10685,"ĠØ§ÙĦØ¹ÙħÙĪØ¯":10686,"ĠØ¨ØªØ±":10687,"ĠØ¥Ø¬":10688,"Ø¦ÙĩÙħ":10689,"ĠØ£Ø®Ø±":10690,"ĠÙħÙĩÙĨØ¯Ø³":10691,"ÙĥØ³ÙĦ":10692,"ŃØ¯":10693,"ĠÙħØ¨Ø§Ø¯Ø±Ø©":10694,"0000":10695,"ĠÙħÙĬØ²Ø§Øª":10696,"ĠØ§ÙĦØ£Ø³ÙħØ§Ø¡":10697,"ĠØ§ÙĦÙħÙĪØ³ÙĬÙĤÙī":10698,"Ø¶Ø¨":10699,"Ø¨Ø±ÙĬØª":10700,"Ø£ÙĨÙĩ":10701,"93":10702,"con":10703,"Ø¨ÙĦØ¯":10704,"ĠØ±ÙĪØ§ÙĬØ§Øª":10705,"EL":10706,"·Ø§Ø±ÙĬØ©":10707,"emb":10708,"ĠØ¬Ø§ÙĩØ²":10709,"ĠRes":10710,"ĠØ³ÙĤÙĪØ·":10711,"Ø²ÙĨØ©":10712,"ĠØ£ÙĨØ¯Ø±ÙĪÙĬØ¯":10713,"ĠÙĪØ§ÙĦÙħÙĪØ§Ø¯":10714,"ĠØ§ÙĦØªØ¹ÙĦÙĬÙĤ":10715,"ĠØªØ®Ø±Ø¬":10716,"ĠØ§ÙĦØŃØ¬Ø±ÙĬØ©":10717,"ĠØ¥ØºÙĦØ§ÙĤ":10718,"ĠØ²ÙĪØ¬ÙĩØ§":10719,"ĠØ§ÙĦØ®ÙħØ³":10720,"ĠØ¹ÙĦ":10721,"ĠØ¨Ø¯ÙĦ":10722,"Ù°":10723,"ĠÙĦØªÙĥÙĪÙĨ":10724,"°ÙĩÙĦØ©":10725,"ĠØ§ÙĦØ´ÙħØ§ÙĦ":10726,"ĪÙĦÙĩØ§":10727,"ĠÙĤÙħÙĨØ§":10728,"ĠØ§ÙĦÙħÙĨØ§Ø¬Ùħ":10729,"ĠØ§ÙĦØ¯ÙħØ§Øº":10730,"Ø¨ÙĨÙĬØ©":10731,"ĠØ¨Ø§ØªÙĪ":10732,"Ġhigh":10733,"ĠØ§ÙĦØ¥Ø³Ø±Ø§Ø¦ÙĬÙĦÙĬØ©":10734,"ĠØ²Ø¬Ø§Ø¬":10735,"land":10736,"ØµÙĨØ§Ø¹Ø©":10737,"Ø³Ø§Ø·":10738,"ĠØ§ÙĦÙĤÙĬØ§Ø³ÙĬØ©":10739,"ĠØ§ÙĦÙħØ³Ø¤ÙĪÙĦÙĬØ©":10740,"ĠØ§ÙĦØµØŃØ±Ø§Ø¡":10741,"Ø³ØªØ±Ø§":10742,"Ø³ØªØ±Ø§ØªÙĬØ¬ÙĬØ©":10743,"ĠÙĦØ¥ÙĨØ´Ø§Ø¡":10744,"ĠÙĬØ¶ÙħÙĨ":10745,"ading":10746,"ĠØªØ³Ø¹Ùī":10747,"ÙĦØªØ²Ùħ":10748,"EC":10749,"ÙĥÙĨÙĬ":10750,"ĠÙĬÙħÙĨØ¹":10751,"Ø¯Ø«Øª":10752,"Ġgt":10753,"ÙĦØ§Ø¨Ø©":10754,"ĠØ§ÙĦÙħØ³ÙĦØ³ÙĦ":10755,"ĠØ´Ø±ÙĬØ·":10756,"ĠÙĪØ§ÙĤ":10757,"ĠÙĦÙĦØ§Ø³ØªØ®Ø¯Ø§Ùħ":10758,"ĠFl":10759,"ĠØ®Ø§ÙĦÙĬØ©":10760,"ĠØ§ÙĦØ«ÙĤØ©":10761,"ÙĪØ²Ø§Ø±Ø©":10762,"ĠØ§ÙĦÙģØ¬Ø±":10763,"ï¼":10764,"Ø¨ÙĪØ¯":10765,"ªØ±Ø¨":10766,"ĬÙĦØª":10767,"ÙĥØ´ÙĨ":10768,"ĠÙħØ³Ø¤ÙĪÙĦ":10769,"ØºØ±Ø§Ø¶":10770,"ĠØ§ÙĦØ¨Ø´Ø±ÙĬ":10771,"ĠÙģÙĨÙĬØ©":10772,"ĠÙĪØªØ¯":10773,"ĠÙħØªØµÙģ":10774,"Ø³ØªØ«ÙħØ±":10775,"ÙįØĮ":10776,"ÙĪØ¹Ø§Ø¡":10777,"Ġ×":10778,"ĠØ§ÙĦØªØ¹Ø¨ÙĬØ±":10779,"Ø·ÙħØ©":10780,"ĠØ§ÙĦØŃØ±ÙĬØ©":10781,"ĠØ§ÙĦÙģÙĪÙĦØ§Ø°":10782,"ĠØ¥ÙĦÙĥØªØ±ÙĪÙĨÙĬØ©":10783,"ĠØ§ÙĦØ³ÙĥØ±ÙĬ":10784,"esign":10785,"²Ø§ÙĨÙĬØ©":10786,"ï»¤":10787,"ategor":10788,"ĠØªØªÙĬØŃ":10789,"ĠØ§ÙĦÙħØ³ØªØ´Ø§Ø±":10790,"´ØºØ§ÙĦ":10791,"ĠÙħØ¬Ø§ÙĨ":10792,"ÙĦØ§Ø¬Ø©":10793,"Ø²Ø§Ø®":10794,"ÙģÙĥØ§Ø±":10795,"ÙĪØ§ØªØ¨":10796,"ĠØ§ÙĦÙħØ·Ø§Ø·":10797,"ÙģØ¦":10798,"ØµÙħ":10799,"ĠØ³ÙĦØ·ÙĨØ©":10800,"ĠÙĨØ§ÙĤÙĦØ©":10801,"ĠØ¨ÙĦØ³":10802,"ĠÙĩØ§ØªÙģÙĥ":10803,"Ø¬Ø¨Ø§Øª":10804,"ĠÙĦÙĦØ¯Ø±Ø¯Ø´Ø©":10805,"ĠØ§ÙĦÙħÙģØªÙĪØŃ":10806,"ÙĦÙĪÙĬØ©":10807,"ĠØ¨Ø§ÙĦØ¬Ø§ÙħØ¹Ø©":10808,"ÙĪØ¬ÙĬÙĨ":10809,"ÙĩÙĨÙĬØ©":10810,"ĠØ«ÙĤØ©":10811,"Ø¬ÙĪØ¯":10812,"ĠÙĥØ³":10813,"BC":10814,"ĠØ¨ÙħØµØ±":10815,"ħÙģØªÙĪØŃ":10816,"ators":10817,"ÙģÙĪÙĨ":10818,"ĠÙħØ«ÙĬØ±":10819,"ÙħÙģØªÙĪØŃ":10820,"Ø¦Ùī":10821,"ĠØ§ÙĦØ³ØŃØ±":10822,"²ÙĪÙĨ":10823,"ĠØ§ÙĦØ³ÙĬØ±Ø©":10824,"ĠØ§ÙĦØµØ¯Ø±":10825,"ÙĤÙĪØ¨Ø©":10826,"ĠØºØ§ÙĬØ©":10827,"ĬØ¹Ø§Ù":10828,"ÙħØŃØ¬Ø±":10829,"²ÙĤ":10830,"ĠØ§ÙĦØ´ÙħØ§ÙĦÙĬ":10831,"Ø¦ÙĨØ§":10832,"ĠØ´Ø±Ø§Ø¦":10833,"ĠØ§ÙĦÙħÙĬØª":10834,"ĠÙĦÙĦØŃÙģØ§Ø¸":10835,"Ġ`":10836,"ÙĬØ¹Ø§Ù":10837,"revious":10838,"learn":10839,"ĠØ±Ø¨Ø·":10840,"ĠØ£Ø¨Ø§":10841,"ĠØ§ÙĦØ³ÙĩÙĦ":10842,"¬Ø²Ø¦Ø©":10843,"ĠÙħÙĬØª":10844,"¦ÙĪÙĬØ©":10845,"ĠØ§ÙĦØ¥Ø¬Ø§Ø¨Ø©":10846,"ales":10847,"Ġ\\":10848,"ĠØ¨ÙĦØ¯Ø§ÙĨ":10849,"ĠØ£Ø¨ÙĬØ¶":10850,"ĠØ§ÙĤØª":10851,"ÙĦÙĦÙĬ":10852,"ĠÙĪÙĬÙĨØ":10853,"ÙĬØ£":10854,"ĠÙĨÙħØ·":10855,"ĠØªÙĤÙ":10856,"ĠØ§ÙĦØ³Ø¬Ø§Ø¯":10857,"ĠØªÙĪØµ":10858,"ØªØ®":10859,"ĠØ§ÙĦØ¹Ø§Ø¯ÙĬ":10860,"ÙħÙĬÙĬÙĨ":10861,"ħØ¹Øª":10862,"http":10863,"ĠØªØ¶ÙħÙĨ":10864,"ĠØ§ÙĦØ±Øº":10865,"¶Ø§ÙħÙĨ":10866,"ĠØ§ÙĦÙģØ³Ø§Ø¯":10867,"ØµØºÙĬØ±Ø©":10868,"ĠÙĦØªÙĤ":10869,"ĠÙĪØ§ÙĨØ":10870,"ÙħØ§Ø·":10871,"ĠÙħØŃÙ":10872,"ĠÙĨÙĬÙĪØ²ÙĬ":10873,"ĠÙĩØ§ÙħØ©":10874,"ĠØ¨Ø¹Ø¶ÙĩÙħ":10875,"ħÙģØ±":10876,"ĠÙĤÙĩÙĪØ©":10877,"ĠÙħØ®ØµØµØ©":10878,"ouse":10879,"ĠÙĪÙħØ³Ø§":10880,"ĠÙĬØ¬Ø±ÙĬ":10881,"ÙĪØ¶Ø©":10882,"%ØĮ":10883,"ĠØ¢ÙħÙĨØ©":10884,"ĠØ§ÙĦØ´Ø§Ùħ":10885,"ĠÙĬØ¹Ø§Ù":10886,"ĠØ§ÙĦÙħØµØ§Ø¯Ø±":10887,"ĠØ§ÙĦØ±Ø¦Ø§":10888,"ĠØ§ÙĦÙĨÙĪØ±":10889,"ĠÙĪÙĬÙħÙĥÙĨÙĥ":10890,"ĠØŃØª":10891,"ÙĥØªÙĪØ±Ø§Ùĩ":10892,"ĠÙĨØ¬Ø§Ø±":10893,"ĠØ§ÙĦÙĨØ§ÙĤÙĦØ©":10894,"ĪÙĪØ¶Ø¹":10895,"Ġyears":10896,"ÙĬØªØ§ÙħÙĬÙĨØ§Øª":10897,"ĠÙħÙģØ§ØªÙĬØŃ":10898,"ĠØªØ¬Ø":10899,"ĠØ±ØŃÙĦØ§Øª":10900,"ĠØ§Ø³ÙħÙĩ":10901,"ªØ¹ØªØ¨Ø±":10902,"ĠØªØ¹ÙĤÙĬÙħ":10903,"ĠØ§ÙĦØ£Ø³ÙģÙĦØª":10904,"ÙĪÙĪØ¶Ø¹":10905,"ĠØ¹Ø¨ÙĬØ¯":10906,"ĠØ§ÙĦØ¨Ø³ÙĬØ·Ø©":10907,"ĠØ§ÙĦØ¬Ø§ÙĨ":10908,"âĨ":10909,"ĠÙħÙĦØªÙĤÙī":10910,"ÙģØ¹ÙĬ":10911,"ĠØ¥Ø³ÙħØ§Ø¹ÙĬÙĦ":10912,"Ø¨Ø§Ø¯Ø©":10913,"Ø§ÙĦØ±Ø¯ÙĪØ¯":10914,"ÙĨØªØ¸Ø§Ø±":10915,"ĠØ§ÙĦØ§Ø¹ÙħØ§ÙĦ":10916,"ĠØ¹Ø³ÙĥØ±ÙĬØ©":10917,"Ġball":10918,"Ø¹ÙħÙĦØ§Øª":10919,"ØªØ¹ØªØ¨Ø±":10920,"Ø§ÙĦÙĦØºØ©":10921,"ĠØ§ÙĦØ§Ø¹ÙĦØ§Ùħ":10922,"ĠÙħØªØ¹Ø¯Ø¯":10923,"ĠØ§ÙĦØµØ±Ø§Ø¹":10924,"Ġout":10925,"ĠÙĪØ£ÙĨÙĪØ§Ø¹":10926,"ĠØ¨ÙĨØºØ§ÙĦÙĪØ±":10927,"ĠØªØªØ·ÙĦØ¨":10928,"¶Ø¹Ùģ":10929,"ħØ¨Øª":10930,"ĠØ¨Ø±Ø§Ø¯":10931,"ÙģØ±ÙĬØº":10932,"rivacy":10933,"ĠContact":10934,"ĠØ£Ø³ÙĦÙĪØ¨":10935,"Ġ34":10936,"¤ÙħÙĨ":10937,"Ġpart":10938,"ĠØªØ³ÙĦÙĬÙħ":10939,"ĠØ§ÙĦÙģØ·Ø±":10940,"âĹĦ":10941,"ĠØ§ÙĦÙĩÙĦØ§ÙĦ":10942,"ĠØ£Ø¯ÙĨÙī":10943,"ÙĦÙĪÙī":10944,"ĠØ§ÙĦÙĤØª":10945,"ĠÙĦØ¬Ø¹ÙĦ":10946,"ĠØ®ÙĦØ§Ø·":10947,"ĠÙĦÙħÙĪØ§Ø¬ÙĩØ©":10948,"ĠAug":10949,"ĠÙĤØ±Ø§Ø±Ø§Øª":10950,"ĠÙĦØªØ·ÙĪÙĬØ±":10951,"ĠØ§ÙĦÙĤØ§Ù":10952,"ÙħØ¹ÙĩØ¯":10953,"ĠØ§ÙĦÙħÙĤØ±Ø±":10954,"ĠØŃØ§Ø¦":10955,"---":10956,"ĠØ£Ø³Ø§Ø¨ÙĬØ¹":10957,"ĠÙĬØ®Ø±Ø¬":10958,"Ġover":10959,"ĠØ§ÙĦÙĨÙĪØ§":10960,"Ø§ÙĦØ£Ø±Ø´ÙĬÙģ":10961,"ĠØ§ÙĦØ¯Ø§Ø±":10962,"Ù¢Ùł":10963,"ĠØ§ÙĦÙħØ³ÙĦÙħ":10964,"ĠØ¯ÙĪØ±Ø§":10965,"ĠØ¨Ø¯ÙĬ":10966,"ªØ±Ø§Ùģ":10967,"ÙģØµ":10968,"ÙĪØ´ÙĪØ¨":10969,"ĠØ§ÙĦØ®Ø·Ø§Ø¨":10970,"ĬÙĤÙĪ":10971,"ĠÙĦÙĦØµØ¯Ø£":10972,"ĠØ§ÙĦÙħÙħÙ":10973,"ĠØ§ÙĦØ³ÙĦÙĪÙĥ":10974,"EM":10975,"ĠÙĪØ§ÙĦÙħØ³Øª":10976,"ĠØ¬ÙħÙĦØ©":10977,"ĠØ¹ÙħÙĪ":10978,"ĠCopyright":10979,"ĠØµØ¹ÙĪØ¨Ø©":10980,"ĠØŃØ±Ø§Ø¬":10981,"ĠØ§ÙĦÙħÙĥØªØ¨Ø©":10982,"ÙĪØ¯Ø§":10983,"ars":10984,"Ø§ÙĦÙĪØ³":10985,"ĠØ§ÙĦØ±ÙĪØ§ÙĬØ©":10986,"ÙģØ§Ø³":10987,"ÙĪØ¶Ø§Øª":10988,"ĠØ§ÙĦØŃØ³":10989,"ĠØ§ÙĦØªØ±Ø":10990,"ĠÙĪØ§ÙĦÙħØ§":10991,"ÙħØ¨Øª":10992,"ĠÙĦÙĦÙĥØ§":10993,"ÙĨØ²Ø§":10994,"ĠÙĪØ¨ÙĨØ§Ø¡":10995,"Ġ180":10996,"ĠÙĩÙĥØ°Ø§":10997,"ĠØªØ®ÙģÙĬØ¶":10998,"°Ø§ÙĥØ±":10999,"±Ø¬Ø§Ø¹":11000,"ĠØ§ÙħØ§Ùħ":11001,"ÙģÙĬØ²":11002,"ĠÙĪØ³ØŃÙĤ":11003,"ĪÙĦÙĬØ©":11004,"ĠØ§ÙĦØ§Ø³ÙĩÙħ":11005,"ĠÙħØ§ÙĨ":11006,"ĠØªØ¯ÙĦ":11007,"ÙģØ±ÙĬÙĨ":11008,"ĬØ³Ø±":11009,"ªØ¸Ø±":11010,"ĠSa":11011,"ÙĪØ§Ø¨Ø·":11012,"ystem":11013,"ĨØ³ØªØ®Ø¯Ùħ":11014,"ĠÙĪØ§ÙĦØ¶":11015,"ĠØ§ÙĦÙħØªØ®ØµØµ":11016,"Ø¨Ø·Ø§":11017,"2012":11018,"ÙĨØ³ØªØ®Ø¯Ùħ":11019,"ĠØ£ÙĬÙĦÙĪÙĦ":11020,"ØªÙĪØ§ØµÙĦ":11021,"ĠØ¹Ø§ÙĦÙħÙĬØ§":11022,"IM":11023,"ĠÙħØŃØ§Ø":11024,"±ÙĪØ¨Ø§Øª":11025,"Ø¬ØªÙħØ§Ø¹":11026,"ĠØ£Ø³Ø§Ø³Ø§":11027,"Ø§ÙĦØŃÙĦÙĤØ©":11028,"ĠØ³ØªÙĬ":11029,"ĠØ´Ø¬Ø±Ø©":11030,"ĠØªÙĤØ¯ÙĬØ±":11031,"ĠØ§ÙĦØ®ØµÙħ":11032,"ĠÙĦÙĦØ¨ØŃØ«":11033,"±ÙĪÙĤØ§Øª":11034,"ĠÙĤØ¶":11035,"ences":11036,"quiry":11037,"ĠÙĬØªÙħØªØ¹":11038,"Ø¨ÙĪØ":11039,"ĠØ§ÙĦÙĤØµØµ":11040,"ĠØºØ±Ø¨ÙĦØ©":11041,"ĠÙħØ¬ÙģÙģ":11042,"ĠØ§ÙĦÙĦØ§Ø":11043,"ĠÙħÙĤØ§Ø³":11044,"ĢÙĢÙĢØ":11045,"ĨÙģØ":11046,"ĠØ§ÙĦØ¹Ø¨Ø¯":11047,"ÙĪØªÙĪØ´ÙĪØ¨":11048,"ĠÙĪØ§ÙĦØ¬Ø±Ø§ÙĨÙĬØª":11049,"ĠØ£Ø±Ø¨Ø§ØŃ":11050,"ĠØªØµÙģØŃ":11051,"ĠØªØ´ÙĬÙĨØ§ÙĬ":11052,"ĠÙĪØ§ÙĦØ¹Ø§":11053,"ĠØ§ÙĦÙģÙħ":11054,"ÙĪØµÙĬ":11055,"ÙĩØ±Ø¨Ø§Ø¡":11056,"ĠØ§ÙĦÙħØ¹ØªÙħØ¯Ø©":11057,"ĠÙħÙģØªÙĪØŃ":11058,"ÙĦÙĬØ¯ÙĬ":11059,"ĠØ§ÙĦØ¯ÙħÙĪÙĬØ©":11060,"ĠÙĩØ´Ø§Ùħ":11061,"ĠÙĬÙĥÙģÙĬ":11062,"arm":11063,"ĠØ¹Ø¨Ø§Ø±Ø§Øª":11064,"ĠÙĪØ£ÙģØ¶ÙĦ":11065,"ĠØªØ¬ÙĨØ¨":11066,"ĠØ§ÙĦØ£Ø±Ø¶ÙĬØ©":11067,"ĠÙĪØ¨Ø±ÙĥØ§ØªÙĩ":11068,"ĠØ§ÙĦØµØ§ÙĦØŃ":11069,"ĠÙĨØ¸Ø±ÙĬØ©":11070,"ĠØ§ÙĦØ¥Ø¹ÙĦØ§ÙħÙĬ":11071,"ĠØ§ÙĥØª":11072,"ĠØ§ÙĦØ·ÙĪÙĬÙĦ":11073,"ĠÙĪÙĬØŃØ":11074,"Ø«ÙĤØ§ÙģØ©":11075,"ĠÙģÙĨØŃÙĨ":11076,"ÙĬØ¬Ø§Ù":11077,"of":11078,"ĠØ§ÙĦØ¬ÙĨÙĬÙĨ":11079,"ĠÙĦØªØ³":11080,"ĠØ§ÙĦÙĨÙĬÙĦ":11081,"ÙĬØ¶Ø©":11082,"ĠÙĦÙĦÙħÙĤØ§":11083,"soft":11084,"ĠØ§ÙĦØ¯ÙĦÙĬÙĦ":11085,"ÙĪØ§Ø¶":11086,"ĠØ§Ø¨ØŃØ«":11087,"ĠØ§ÙĦÙĨÙĤØ§Ø·":11088,"ĠØ§ÙĦØ¶Ø±ÙĪØ±ÙĬ":11089,"ÙĬØ§Ø·ÙĬ":11090,"ÙĥØ±Ø±":11091,"ĠÙĪÙĦÙĥ":11092,"Ġfree":11093,"Ġ});":11094,"Ø¹ÙĦØ§Ùģ":11095,"ĠØ³Ø§ØŃØ©":11096,"urr":11097,"ĠØ²Ø±Ø§":11098,"Ø®ÙĪØ©":11099,"ªÙĪÙħØ§ØªÙĬ":11100,"Ø¨Ø±Ø§Ø·":11101,"ĠØ¨Ø§ÙĦØ²":11102,"ØµÙĪØ¯":11103,"ĠØªØªØ±Ø§ÙĪØŃ":11104,"¬ÙĦØ©":11105,"ĠØªØ±Ø¯Ø¯":11106,"ĠØ«ÙĨØ§Ø¦ÙĬ":11107,"ĠØ§ÙĦÙħØ±Ø¶Ùī":11108,"´Ø§Ø·Ø§Øª":11109,"Ø§ÙĦÙħØ§Ø¯Ø©":11110,"Ø¨ÙĬØ¹Ø©":11111,"ĬÙĪØ§Ø¬Ùĩ":11112,"ĠØ¨ÙĪÙĦØ§":11113,"ÙĬÙĪØ§Ø¬Ùĩ":11114,"ÙħÙĨÙĪØ¹Ø§Øª":11115,"ĠWe":11116,"ÙħØ³ØªØ®Ø¯Ùħ":11117,"ĪÙħØ¬":11118,"ĠÙĥÙĬØ±Ø§ÙĦØ§":11119,"Ġme":11120,"ĠÙĪÙĪØ¶Ø¹":11121,"Th":11122,"ĠÙĪØªØ¨":11123,"ĠÙħÙĬØ¬Ø§":11124,"2014":11125,"ĠIndustr":11126,"ÙĩÙĪÙĬØ©":11127,"ĠØ¨Ø§ÙĦØ¶ØºØ·":11128,"ĠØ³ÙĦØ·Ø§ÙĨ":11129,"ĠWhatsapp":11130,"ÙĪÙħØ¬":11131,"ron":11132,"ªÙħÙĦØ©":11133,"ĠÙĬØ¹Ø±Ø¶":11134,"ĠØ¥Ø¹ÙĦØ§":11135,"ĠØ¨Ø§ÙĦØ¨Ø´Ø±Ø©":11136,"ÙĨÙĪØ¨ÙĬ":11137,"ĠØ§ÙĦØ¬ÙĬØ²Ø§":11138,"ĠÙħØ´ØªØ±Ùĥ":11139,"ÙĨØºØ§ÙĦ":11140,"ÙĪØ§Ø¦ÙĬ":11141,"ĠØ§ÙĦØ®ÙĬ":11142,"Ø¬ÙĪ":11143,"ĠEl":11144,"ĠÙĬØ´Ø¹Ø±":11145,"ĠIS":11146,"ĠØ³Ø§Ø¦ÙĤ":11147,"ĠØ§ÙĦØ®Ø§ÙħØ§Øª":11148,"oud":11149,"ĠÙħØ¯ÙĬÙĨÙĢÙĢÙĢÙĢØ©":11150,"Ġcons":11151,"ĠØ§ÙĦØ·Ø§Ø¦Ø±Ø©":11152,"ĠØ²ÙĬØ¯":11153,"ĠÙĨØ¬Ùħ":11154,"ĠØ§ÙĦÙĪØ¹ÙĬ":11155,"Ø§ÙĦØ¯ÙĪ":11156,"ĠØ±Ø³ÙħÙĬØ©":11157,"ÙĪØ«ÙĬÙĤ":11158,"72":11159,"ĠâĻ":11160,"ĠÙģÙĬÙĨ":11161,"Ø¨Ø¶Ø©":11162,"ĠÙħØ¨Øª":11163,"ĠØ§ÙĦØ±ØŃÙħ":11164,"ĠØªØ¬ÙħÙĬØ¹":11165,"71":11166,"ØµØ¯Ø§Ø±":11167,"Ø³ÙĬÙĥÙĬØ©":11168,"ĠØ§ÙĦÙħØªÙĤØ¯Ùħ":11169,"ĠØ±Ø§Ø¦Ø¯Ø©":11170,"ĠÙĪØªÙĪÙģÙĬØ±":11171,"ĠØ§ÙĦØ£Ø¨Ø¹Ø§Ø¯":11172,"ÙĬØªØ³":11173,"Ø§ÙĦØªÙĬ":11174,"zh":11175,"ĠÙģØ¹Ø§ÙĦ":11176,"ĠIsl":11177,"ĠØ¨Ø°":11178,"ĠPlay":11179,"ĠØ§ÙĦÙĪØ§Ø±Ø¯Ø©":11180,"Ø±Ø§ÙĪÙĬ":11181,"reat":11182,"±ÙĪØ³ÙĬØ§":11183,"ĠÙĪØ¥ÙĦÙī":11184,"ÙĬØªÙĩÙħ":11185,"ĠØ´Ø®Ø":11186,"Ø±Ø§Ø¯Ø©":11187,"Ġup":11188,"ĠThis":11189,"Ø§ÙĦÙĪØ±ÙĬÙĪØ³":11190,"Ġcl":11191,"¸ÙĨ":11192,"ÙĥÙĪØ§":11193,"ÛĮØ¯":11194,"ĠØ¨ÙĤÙĦÙħ":11195,"ĠÙħØ³ØªÙĤØ¨ÙĦ":11196,"ĠØ§ÙĦØŃÙĤÙĬÙĤÙĬØ©":11197,"ĠØŃØ¯ÙĬÙĤØ©":11198,"ĠØ§ÙĦÙĤÙĪØ§":11199,"ĠØ§ÙĦØµÙĪÙħ":11200,"ĪÙĦÙĪ":11201,"ÙĦÙħÙĨÙĬÙĪÙħ":11202,"idd":11203,"ÙĦØ³ÙģØ©":11204,"ÙĨÙĬØ³":11205,"ĠØ§ÙĦÙħØ¹Ø±":11206,"ØªØ±ÙģÙĬÙĨ":11207,"ÙĦÙĪØŃØ©":11208,"ĠÙĬØ·ÙĦØ¨":11209,"¬Ø¯Ø§Øª":11210,"ĠØ§ÙĦØ´Ø±ÙĬØ¹Ø©":11211,"Ø±ÙĬØ§ÙĦ":11212,"ĠØ§ÙĦØŃØ¯Ø§Ø¦ÙĤ":11213,"ªØ£":11214,"ĠØªØ§ÙĬÙĪØ§ÙĨ":11215,"ĠÙħØ¹Ø¯ÙĨÙĬØ©":11216,"ĠÙĪØ¹ÙĨØ¯":11217,"ĠÙĦÙĦØ§Ø³ØªØ«ÙħØ§Ø±":11218,"return":11219,"ĠÙĪÙħØ¬":11220,"ĠØŃÙħØ¯":11221,"Ø¬ÙĪØ¨Ø©":11222,"ĠÙĦØ¹ÙħÙĦÙĬØ©":11223,"Ø£Ø·":11224,"ĠØ·ÙĦØ§Ø¡":11225,"ervices":11226,"´Ø§Ø±ÙĬØ¹":11227,"ĠÙĥØªØ§Ø¨Ùĩ":11228,"ĠÙĬØ¯ÙģØ¹":11229,"ĠØ§ÙĦÙħØ³Ø§ØŃØ©":11230,"ĠØ§ÙĦØªØ£Ø«ÙĬØ±":11231,"ĠGroup":11232,"ÙĤØ§Ø±ÙĬØ©":11233,"ĠØ§ÙĦÙħØ¨Ø§ÙĨÙĬ":11234,"ÙħØ¹Øª":11235,"ĠÙĪÙĥØ°Ø§":11236,"ĠØªÙĪØ¬ÙĬÙĩ":11237,"ÙĥÙĨØª":11238,"ĠÙĪÙĨØ¸Ø§Ùħ":11239,"¶Ø¨Ø·":11240,"ĬØ³Ø":11241,"ĠØ£Ø±Ø":11242,"ĠÙĥØ§Ø´":11243,"ÙĦØºØ§Ø":11244,"Ø¬Ø§ÙĨ":11245,"ĠØ§ÙĨØ¹":11246,"ĠØ§ÙĦØ´ÙĩØ±ÙĬØ©":11247,"ĠÙĤØ§Ø¦Ø¯":11248,"ĠØ£Ø³Ø§Ø³ÙĬØ©":11249,"ĠÙĦØ£Ø³":11250,"§ÙĨØ":11251,"Ġ750":11252,"\")":11253,"ĠØ¹Ø±Ùģ":11254,"ĠØ§ÙĦÙħØ´Ø§ÙĩØ¯Ø§Øª":11255,"ĠØ§ÙĦØ§ÙĥØªØ":11256,"ĠØ«ÙĪØ±Ø©":11257,"ĠÙĪØ¹Ø§Ø¡":11258,"Ø¬ÙĬÙĦ":11259,"ÙħÙģØ±":11260,"ÙĬÙĦØª":11261,"ĠÙħØŃØ¯ÙĪØ¯Ø©":11262,"ĠØ§ÙĦÙĤÙĬÙħ":11263,"ĠÙĪØ¥Ø¹Ø§Ø¯Ø©":11264,"Ø¶Ø©":11265,"ÙħØ§Ø¯ÙĬ":11266,"Ø±Ø³Ø§ÙĦØ©":11267,"±ÙĤÙĬØ©":11268,"ĠÙħÙĦØ®Øµ":11269,"ĠØªØŃÙĪÙĦ":11270,"Ø¨ÙĪØ³":11271,"ĠØŃØµØ±":11272,"Û©Ûŀ":11273,"ĠØ§ÙĦÙħØ·Ø§Ø¹Ùħ":11274,"±Ø¨ÙĬÙĨ":11275,"evel":11276,"ªÙĤØ¯Ùħ":11277,"ĠâĢĭ":11278,"ĠØŃØ¶ÙĪØ±":11279,"ĠØ§ÙĨÙĥ":11280,"ªÙĨØ¯Ø§Øª":11281,"ĠÙĬØ¹ÙĦÙħ":11282,"ĠSe":11283,"ĠØ§ÙĦØ¥ÙĤØ§ÙħØ©":11284,"ĠÙĪØ¹ÙĨØ¯ÙħØ§":11285,"ĠØ¬Ø§Ø":11286,"ÙĪØ±ÙĬØ¯":11287,"ØªÙĤ":11288,"ĠØ§ÙĦÙĨØ·Ø§ÙĤ":11289,"ĠØ§ÙĦÙħØ±ØªØ¨Ø·Ø©":11290,"ĠØ§Ø³ØªØ±Ø§ØªÙĬØ¬ÙĬØ§Øª":11291,"ÙģØ±Ø§Ø¯":11292,"als":11293,"ĠØªØ¨Ø¯ÙĪ":11294,"ĠÙħØŃØ¯Ø¯":11295,"ĠÙħÙĪØ¸":11296,"ĠØªÙĪÙĥÙĬÙĦ":11297,"ĠØ§ÙĦÙħÙĪØ¬":11298,"ĠÙħØ¹Ø¯ÙĦØ§Øª":11299,"ĠØ¨ÙĪØ±ØµØ©":11300,"ĠØ¬ÙĪÙĨ":11301,"ÙĨØªØ´Ø§Ø±":11302,"ĠØ³ÙĬØ¯ÙĬ":11303,"à¹":11304,"ĠØ§ÙĦØŃØ¯Ø«":11305,"ĠMT":11306,"ĠØ²ÙĪØ¬ØªÙĩ":11307,"ÙģØ¢Øª":11308,"ĠØ£ÙĥØ§Ø¯ÙĬÙħÙĬØ©":11309,"ĠØ¬ÙĪØ§":11310,"ĠØ¬Ø§Ø¨Ø±":11311,"ÙĥØ§ÙĨØ©":11312,"ĠØ±ÙĪØ§Ø¨Ø·":11313,"ĠØ§ÙĦÙĤØ¯Ø±Ø§Øª":11314,"ĠØ²Ø¬Ø§":11315,"ĠØ¯ÙĬÙĨØ§":11316,"ĠØ¨Ø®Ø§Ø±":11317,"Ø±Ø¬Ùĩ":11318,"ĠØ§ÙĦØªØ·ÙĪÙĬØ±":11319,"ĠØ§ÙĦØ¹Ø²":11320,"ĠØ§ÙĦØ§ÙĨÙĤ":11321,"ÙģØ±Ø¨ÙĪÙĦ":11322,"ĠØ§ÙĦØ¹ÙĤØ§Ø±Ø§Øª":11323,"Ø±Ø§Ø¨Ø·":11324,"ĠØ£Ø¹ÙĦØ§Ùĩ":11325,"ĠÙĪØ§Ø³ØªØ®Ø¯Ø§Ùħ":11326,"ĪÙĥÙħ":11327,"ĠØ£ÙĨØ´Ø·Ø©":11328,"ĠØ§ÙĦØ®Ø¨Ø²":11329,"ÙĦÙģØª":11330,"ĠØ¢ÙĬØ©":11331,"ÙģØªØ§Ø¡":11332,"ĠØ§ÙĦØªØ¬ÙħØ¹":11333,"ĠØ¨ÙħØ¹ÙĨÙī":11334,"ĠÙĪØ±Ø¨ÙħØ§":11335,"ĠÙģØ§ÙĬØ±":11336,"ĠÙĪØ£ÙĨÙĩ":11337,"PS":11338,"ĠØ§ÙĦÙħÙĥØ±ÙħØ©":11339,"ĠÙĬØ¤ÙĥØ¯":11340,"ĠÙħØ¤Ø³Ø³Ø§Øª":11341,"Ø³ØªØ®Ø¯ÙħÙĩØ§":11342,"ĠØ§ÙĦÙģÙĨØ§Ø¯ÙĤ":11343,"che":11344,"ĠØ§ÙĦÙħØªØ¯Ø§Ù":11345,"ĠÙĦÙħÙĨØ¹":11346,"ĠÙħØªÙĪÙģØ±":11347,"ĠØ¨Ø¹Ø¯Ùħ":11348,"ĠØ¹ÙĦÙħÙĬ":11349,"ux":11350,"ĠØªØ¯ÙĪØ±":11351,"ĠØ§ÙĦÙħÙĨØ²ÙĦÙĬ":11352,"Ø§ÙĦØ±ØŃÙħÙĨ":11353,"ÙĦÙĬØº":11354,"idth":11355,"Ġpm":11356,"ĠØ§ÙĦØ´ÙĪ":11357,"ÙĬÙĨØ§ÙĬØ±":11358,"ĠØ£Ø¨Ø·Ø§ÙĦ":11359,"ĠØ§ÙĦÙģØ¦Ø§Øª":11360,"ĠØ§Ø³ØªØ·Ø§":11361,"ĠØ´Ø§ÙĥØ±":11362,"ĠØªÙĪÙĬ":11363,"Û©ÛŀÛ©":11364,"enu":11365,"ĠØ¬Ø¯Ø±Ø§ÙĨ":11366,"ĠØ§ÙĦØ¨ÙĬØ¦ÙĬØ©":11367,"ĨÙĩØ¬":11368,"ÙĬØ§Ø±ÙĬ":11369,"her":11370,"ĠØ§ÙĦØ¬Ø§Ø":11371,"ĠØ®Ø·Ø§Ø¨":11372,"Ø¦ÙĬØ§Øª":11373,"ĠØŃÙĤÙĨ":11374,"ĠØŃÙħØ§Ùħ":11375,"ĠÙĪØ²ÙĬØ§Ø¯Ø©":11376,"Ġtal":11377,"ĠÙħÙĨØº":11378,"Ø±Ø´Ø§Ø¯":11379,"ĠØ³ÙĪÙĬØ³Ø±Ø§":11380,"ĠÙħØ®ØªØµ":11381,"ĠØ§ÙĩØªÙħØ§Ùħ":11382,"ĠØµØ¯ÙĬ":11383,"ĠÙĤØ§Ø¦ÙĦØ§":11384,"ĠØ§ÙĦØªÙĤØ¯ÙĬÙħ":11385,"Ø¨ÙĪØ¹Ø©":11386,"Ġdesign":11387,"ĠØ³Ø¨Ø§ØŃØ©":11388,"add":11389,"´ØªÙĩØ±":11390,"²Ø§Ø±Ø¹":11391,"ĠØ§ÙĦÙħØ²Ø¯":11392,"ĠØ§ÙĦØ§ÙĦØªØ²Ø§Ùħ":11393,"ĠÙĬÙĤØ§ÙĦ":11394,"ĠØ§ÙĦØ´Ø§ÙħÙĦØ©":11395,"ĠØ³ÙĨÙĪÙĬØ§":11396,"ĠOr":11397,"ĠØ§ÙĦÙĪØ§Ù":11398,"Ø³ÙĨÙĬ":11399,"Ġ64":11400,"ÙĬØºØ±":11401,"ĠØ§ÙĦØ´Ø¤ÙĪÙĨ":11402,"ĠØ¨ÙĪØ±Ø":11403,"ĠØ§ÙĦÙĩÙĪÙĬØ©":11404,"Ø³ÙĬØ¯Ø³":11405,"ĠØ§ÙĦØ¨ÙĪÙĦÙĬ":11406,"ÙĬØ¬Ø§ÙĨ":11407,"IT":11408,"ħØ¨ÙĨÙī":11409,"Ø§ÙĦÙħØ§Ø":11410,"ĠØ²Ø§ÙĪÙĬØ©":11411,"ĠØ§ÙĦÙħØ´ÙĥÙĦØ§Øª":11412,"ªØ¯":11413,"ĠØ§ÙĦØ·ÙĦØ¨Ø©":11414,"·Ø§ÙĬØ±":11415,"ĠØ§ÙĦÙĨØ§Ø¦Ø¨":11416,"ĠØ¯ÙĬÙĪØ§ÙĨ":11417,"ĠÙĩÙĪØ¯":11418,"Ø³ÙĬÙĤÙĬØ©":11419,"ĠØ§ÙĦÙħØ¨Ø§Ø±ÙĬØ§Øª":11420,"press":11421,"ĠÙĤØ¨ÙĪÙĦ":11422,"Ø¨Ø±ÙĬØ©":11423,"ĠØ§ÙĦØ£ÙĪÙĦÙ":11424,"ĠØ§ÙĦÙħØ¨ÙĦØº":11425,"ĠÙĪØ«Ø§":11426,"ĠØ¨ÙĨØ´Ø±":11427,"ĠØªØ¨Ø§Ø¯ÙĦ":11428,"ÙĨØ²ÙĬÙĨ":11429,"ĠØ§ÙĦÙĬÙĪØªÙĬÙĪØ¨":11430,"ĨÙħØ´ÙĬ":11431,"§Ø±Ø³ÙĦ":11432,"ĬÙĥØªØ¨":11433,"ĠØ§ÙĦÙħØªÙĪÙģØ±Ø©":11434,"xx":11435,"Ø§Ø±Ø³ÙĦ":11436,"ĠÙĪØ§ÙĦØ£Ù":11437,"ĠØªØ¬Ø§Ø±Ø¨":11438,"ÙģØ¹Ø§ÙĦ":11439,"ĠÙĩÙĨ":11440,"ĠØ§ÙĦÙĥØ§Ø´":11441,"Ø§ÙĦÙĨØ³Ø¨Ø©":11442,"Ø¬Ø§Ø¡":11443,"Ġ$(":11444,"ĠØ§ÙĦØªÙĪÙĤ":11445,"ĠØ§ÙĦØ¯Ø®ÙĦ":11446,"ĠØ§ÙĦÙģÙĦÙģÙĦ":11447,"ĠãĢ":11448,"ĠØ§ÙĦØªØ¬Ø±Ø¨Ø©":11449,"ĠØ§ÙĦÙħÙĩØ§Ù":11450,"zz":11451,"ÙĦÙĪÙģ":11452,"ÙĬÙĥØªØ¨":11453,"ÙĨÙħØ´ÙĬ":11454,"ÙĨØªÙĪ":11455,"ÙĬØ§ØªÙĩ":11456,"ĠØ§ÙĦÙħÙĨØ®ÙģØ¶":11457,"ĠØ§ÙĩØª":11458,"ĠØ§ÙĦØ²ÙĪØ§Ø±":11459,"ĠØ£ÙħÙ":11460,"ĠÙĬÙħÙĦÙĥ":11461,"ĠØ§ÙĦØ³ØŃÙĤ":11462,"ĠØ§ÙĦØ§Ø³ØªÙĤ":11463,"ĠØ§ÙĦØ¯ÙĪØ§Ø¡":11464,"ĠØ§ÙĦÙĨØ¹":11465,"ĠØµÙĬÙĨÙĬØ©":11466,"ĠØ§ÙĦØ´Ø¯ÙĬØ¯":11467,"Ø¹ÙĬÙĩ":11468,"ĠÙĪØ§ÙĦØ£Ø³":11469,"Ø¹Ø·Ø§ÙĦ":11470,"You":11471,"Ø¢ÙĨ":11472,"ica":11473,"ÙĬØ³Ø":11474,"ĠØ§ÙĦØ¢ÙĬØ§Øª":11475,"ĠØªÙĥØ³Ø§Ø³":11476,"ĠØ®ÙģÙĬÙģØ©":11477,"ĠÙĥÙħÙĬØ§Øª":11478,"Ø¯Ø¦Ø©":11479,"===":11480,"ĠÙħØ³ØªØ®Ø¯Ùħ":11481,"ĠØ£Ø±Ø§Ø¯":11482,"Online":11483,"ĠØ¸Ø§ÙĩØ±Ø©":11484,"ĠØªØ´Ø§Ø±Ùĥ":11485,"ĠØ§ÙĦÙħÙĩØ§Ùħ":11486,"ĠÙĪÙĬØ¯":11487,"ĠØ§ÙĦÙĦØ§Øª":11488,"ĠØ±Ø¬Ø¨":11489,"ĠØ«ÙĦØ§Ø¬Ø§Øª":11490,"ĠØ§ÙĦØ£ÙĩØ¯Ø§Ùģ":11491,"®Ø·ÙĬØ·ÙĬ":11492,"ĢÙĢÙ":11493,"ÙĨØªØ¬":11494,"Ø§ÙĨØ":11495,"ĠÙĦÙĨØ¸Ø§Ùħ":11496,"ĠÙĨØ³Ø§Ø¡":11497,"Ġmachinery":11498,"ote":11499,"ĠØ¯ÙĪÙĦØ§":11500,"±Ø§ØªÙĬØ¬ÙĬ":11501,"Ø¯ÙĬØ¨":11502,"ĠØ´Ø§Ø¨":11503,"ĠØ£ÙĨÙ":11504,"ĠØ§ÙĦÙħØ´Ø§Ø±Ùĥ":11505,"ĠØªØ¹Ø¨ÙĬØ±":11506,"ĠØ§ÙĦØ£Ø²Ø±ÙĤ":11507,"ÙĬØ§ØªÙĩØ§":11508,"ÙĨØ§ÙĨÙĬØ©":11509,"ĠØŃÙĤÙĬØ¨Ø©":11510,"ĠØ§Ø³ØªÙĬ":11511,"ĠØ§ÙĦØªØ¹Ø¨Ø¦Ø©":11512,"ĠØ§ÙĦØªÙĨÙģÙĬØ°":11513,"ĠØ§ÙĦØµØ¯":11514,"ĠAP":11515,"ĠAut":11516,"ĠØ§ÙĦÙĪØ§ØŃØ¯Ø©":11517,"ĠÙħØ®Ø§":11518,"ĠØ§ÙĦØªØ£ÙĥØ¯":11519,"ĢØ©":11520,"ĠØ§ÙĦØ§ÙĬ":11521,"ĠØ¨ØŃØ¬Ùħ":11522,"ºÙĬØ¨":11523,"ĠØ§ÙĦØ°ÙĥØ§Ø¡":11524,"±Ø¨Ø¹ÙĬÙĨ":11525,"ªØµÙĦ":11526,"ĠØªØªØŃ":11527,"ĠJul":11528,"ĠØ§ÙĦÙĥÙĨÙĬØ³Ø©":11529,"gypt":11530,"ĠBe":11531,"ĠÙĦØ£Ù":11532,"ĨÙĥÙĪÙĨ":11533,"ĠÙĤØ¯ÙĬÙħ":11534,"ĠÙĦÙĦÙħØ¨ØªØ¯Ø¦ÙĬÙĨ":11535,"ĠÙħÙĬÙĥØ±ÙĪÙĨ":11536,"ĠØªÙĪØ±":11537,"ĠØ§ÙĦØŃØ§Ø¦":11538,"ĠØ³ÙĬØ§Ø³ÙĬ":11539,"pen":11540,"ĠØ§ÙĦØ¹Ø§Ø´Ø±":11541,"Ø±ÙĬÙģ":11542,"Ø¬Ø§ÙħØ¹Ø§Øª":11543,"ÙĤÙĬÙģ":11544,"ĠØ´Ø¯ÙĬØ¯Ø©":11545,"ĠØ§ØºØ§ÙĨÙĬ":11546,"«Ø§Ø±Ø©":11547,"ĠÙĦÙĦÙĤÙĬØ§Ùħ":11548,"ĠØ§ÙĦØ£ÙĦ":11549,"ĠØ§ÙĥØªØ´Ùģ":11550,"ĠØ§ÙĦÙĦÙĪØ§Ø¡":11551,"ĠÙģØ®":11552,"ĠØ£ÙħÙĪØ±":11553,"ÙĨÙĥÙĪÙĨ":11554,"ÙĬØ«Ø§Øª":11555,"ĠInstagram":11556,"iy":11557,"°Ø±Ø¨":11558,"ĠØ§ÙĦØªØŃØª":11559,"ĠÙĦÙĦÙħØ¬":11560,"ĪØ³Ùħ":11561,"ĠÙģÙĩØ¯":11562,"ĠØ§ÙĦÙĥÙĪØ§":11563,"ĠÙĥØ±ÙĪØ":11564,"ĠØ§ÙĦÙĩÙĨØ¯Ø³ÙĬØ©":11565,"ĠÙĦÙĦØ´Ø±ÙĥØ©":11566,"ĠÙĥÙĨØ":11567,"§ÙĤØªØµØ§Ø¯":11568,"ĠØ¬ÙĪØ§Ø²":11569,"ĠØ§ÙĦÙħÙĪÙĤÙģ":11570,"ÙģØ·":11571,"ĠÙĦÙĦØ¨Ø´Ø±Ø©":11572,"ĨØ¨ÙĬØ§Ø¡":11573,"ĠÙħÙĢ":11574,"ĠØºØ§ÙĦØ¨Ø§":11575,"ĠÙħØ±ÙĬÙħ":11576,"ĠÙĪØªØŃÙħÙĬÙĦ":11577,"ĠØ§ÙĦØ³ÙĦØ³ÙĦØ©":11578,"ĠÙħÙģØ±":11579,"§Ø¹":11580,"ĪØ³ÙĪ":11581,"ÙĪÙĨØ¯":11582,"ĠØ§Ø±Ø®Øµ":11583,"Ġ$('":11584,"ĠØ§ÙĦØŃÙĤÙĪÙĦ":11585,"ĠÙħØ´ÙĬØ±Ø§":11586,"ights":11587,"ĠØ´ÙĩØ¯":11588,"ĠØ§ÙĦØ£ÙĤØ³Ø§Ùħ":11589,"ĠØªØŃÙħÙĬ":11590,"ªÙħØ±Ø§Øª":11591,"ĪÙĬØªÙĬ":11592,"âĤª":11593,"ĠÙħØ§ÙĥÙĨØ§Øª":11594,"ĪÙĪÙ":11595,"ĠÙ¢ÙłÙ¡":11596,"ĠÙĪØ£ÙħØ§":11597,"ĠØ§ÙĦØ·ÙĬÙĪØ±":11598,"ĠØ§ÙĦØµØ±Ø§":11599,"ÙĦØªØ§":11600,"ĠØ£Ø«Ø§Ø«":11601,"ØŃØ§ÙģØ¸":11602,"ØŃØ§Ø¯ÙĬØ©":11603,"ĬÙħØ±":11604,"ĠØ§ÙĦØ³Ø±Ø·Ø§ÙĨ":11605,"Ø´ØªØ±Ùĥ":11606,"ĠØ¹ÙĬÙĪØ¨":11607,"Ø³ÙħÙĬÙĨ":11608,"µØª":11609,"ĠØ®Ø±Ø¬":11610,"([":11611,"ØµØ§Ø¦ÙĬØ§Øª":11612,"Ġ44":11613,"ĠØŃÙģØ±Ø©":11614,"ĠÙĩÙĪØ§Ø¯Ø©":11615,"ĠØªÙĤØ±ÙĬØ¨":11616,"ĠÙĪØ§Ø¨ÙĨ":11617,"ĠØ§ÙĦØ£ØŃÙĪØ§ÙĦ":11618,"ĠØ¨ÙħÙĥØ©":11619,"ÙĤØ±ÙĬ":11620,"PH":11621,"ĠÙĦÙħØ¹Ø¯Ø§Øª":11622,"Ùİ:":11623,"´ØªØ§":11624,"ÙĥØ±ÙĬÙħ":11625,"ĠÙĪØ§ÙĦØµØŃØ©":11626,"ĠØ§ÙĦÙħØ®ØµØµØ©":11627,"ĠØ¨ÙħØŃØ§ÙģØ¸Ø©":11628,"ĠÙĦÙĦÙĨØ´Ø±":11629,"ĠÛĮ":11630,"ĠIntern":11631,"±ÙĪÙĨÙĬØ§Øª":11632,"ĠØªØ°ÙĥØ±":11633,"ĠÙĪØ°Ø§Øª":11634,"ĠØ§ÙĦÙħØ³ØªØ´ÙģÙī":11635,"ĠØ¨Ø§ÙĦØ§Ø¶Ø§ÙģØ©":11636,"ÙĩØ±Ø³":11637,"ĠÙĨÙĥÙĪÙĨ":11638,"ĠÙģØ§Ø®Ø±Ø©":11639,"ĠÙħÙĨØ¸ÙĪÙħØ©":11640,"ĠØ¹ÙĬÙĪÙĨ":11641,"ĠØµÙĨØ§Ø¯ÙĦ":11642,"ĠØ³ÙĦØ·Ø©":11643,"ĠÙĪÙħØ³Ø":11644,"ĠNews":11645,"ĠÙħØªØ§Ø¨":11646,"ĠÙĪØ®Ø·":11647,"ĠØ¬Ø¯Ùĩ":11648,"±Ùĩ":11649,"ÙĬÙģÙĬØ©":11650,"ÙĦÙĪØ¯":11651,"ØŃØ³ÙĨ":11652,"ĠØ§ÙĦØµÙĩ":11653,"Ø´Ø±ÙĪØ·":11654,"ĠÙĪØªØ¹Ø§ÙĦÙī":11655,"ĠØ§ÙĦØ¯ÙĬÙĨÙĬ":11656,"ĠØ¹ÙħÙĬØ¯":11657,"ĠÙĬÙĪØ§Ø¬Ùĩ":11658,"ĠÙĬØ¯Ø¹Ùħ":11659,"ĠØ§ÙĦØ¥ÙĬØ±Ø§ÙĨÙĬØ©":11660,"ĠÙĦÙĥØ§ÙģØ©":11661,"ĠØªØ´ÙĬ":11662,"ĠØ§ÙĦØ¥ÙĨØªØ§Ø¬ÙĬØ©":11663,"ĠÙĩÙĬÙĦÙģ":11664,"ĠØªØ®Ø±ÙĬØ¬":11665,"ĠÙĬØªØ¹Ø±Ø¶":11666,"Ø·Ø§Ù":11667,"ĠØ§ÙĦØ¨ØªØ±ÙĪÙĦ":11668,"CO":11669,"ized":11670,"ĠØ§ÙĦØµØ¯Ùħ":11671,"ØŃØªÙī":11672,"ĠØ§ÙĦØ£ÙħÙĬØ±ÙĥÙĬ":11673,"ĠØ§ÙĦØªØ¹Ø±ÙĬÙģ":11674,"ĠØŃÙĬÙĪØ§ÙĨØ§Øª":11675,"ĠØ®Ø§Ø±Ø¬ÙĬ":11676,"ĠÙħØ¨Ø§Ø¯Ø¦":11677,"Ġgrinding":11678,"ĠØ§ÙĦØ£ÙĪÙĥØ±Ø§ÙĨÙĬØ©":11679,"Ø¹Ø§Ø±Ø§Øª":11680,"Ø§ÙĤØªØµØ§Ø¯":11681,"ĠØ³ÙĪØ¡":11682,"Ø±ÙĨ":11683,"Ġmt":11684,"ĠØ§ÙĨØ³":11685,"ħÙĦÙĬØ§":11686,"ĠØ§ÙĦØ¹Ø´Ø±ÙĬÙĨ":11687,"ĠØ¯ÙĦÙĪ":11688,"ĠØ±ÙĪÙĨ":11689,"2010":11690,"ĠØ§ÙĦÙħØ±Ø§ØŃÙĦ":11691,"ĠÙĪÙħØµ":11692,"ĠØ§ÙĦØ¥Ø³ÙĥÙĨØ¯Ø±ÙĬØ©":11693,"ĠØ§ÙĦÙĨØªÙĬØ¬Ø©":11694,"91":11695,"ĠØ§ÙĦØªØŃØªÙĬØ©":11696,"ĠØ¨ÙħØ±ÙĥØ²":11697,"Ø§ÙĦÙħØ³":11698,"bo":11699,"ĠService":11700,"ÙĤÙĪÙģ":11701,"ĠØ¨ÙĦØ§Ø·":11702,"Ø¬ÙĩØ§Øª":11703,"ĠØªØµØ§ÙħÙĬÙħ":11704,"ĠØªØ¶Ø¹":11705,"ĠÙĪØ§ÙĦÙģÙ":11706,"ecess":11707,"ĠØ§ÙĦÙħØ¹Ø±ÙĪÙģØ©":11708,"ĠØ§ÙĦÙĤØ§ÙĨÙĪÙĨÙĬ":11709,"ĠØ§ÙĦØ¬Ø§ÙħØ¹Ù":11710,"ĠØ§ÙĦØ¬Ø§ÙħØ¹ÙĬ":11711,"Ġ46":11712,"ĠMin":11713,"ĠØ§ÙĦØ¬Ø²Ø§Ø¦Ø±ÙĬØ©":11714,"ety":11715,"ĠÙĩÙĬÙĦÙģÙĬØºØ±":11716,"µØ±ÙĬØ©":11717,"ĠPR":11718,"ĠØ§ÙĦÙħÙĨÙĩØ¬":11719,"ĠÙĤÙĦÙĪØ¨":11720,"ĠÙĬØ¹Ø§ÙĨÙĪÙĨ":11721,"ĠÙĪØ§ÙĦØ¨ÙĨØ§Ø¡":11722,"ĠØ§ÙĪÙĦØ§":11723,"ĠØ§ÙĦØ§Ø®ØªØ¨Ø§Ø±":11724,"Ø²Øª":11725,"ĠÙĨÙħØ´ÙĬ":11726,"ÙĦÙĪØ¬":11727,"ØµØ§ÙĦ":11728,"ĠÙĨØ¸Ùħ":11729,"ĠØ§ÙĦØ¯Ø¹ÙĪØ©":11730,"ĠØ¬ÙĪØ§ÙĦ":11731,"Ġu":11732,"ÙĬÙĪÙģØ±":11733,"ªÙħØ©":11734,"ĠØ§ÙĦÙĤÙĪØ§Ø¹Ø¯":11735,"ĠiPhone":11736,"ÙĪØ§Ø·Ø±":11737,"Ø§ÙĦÙĤØ§":11738,"ĠØ§ÙĦØ§Ø¹ØªØ¨Ø§Ø±":11739,"Ø¶ÙĦ":11740,"ĠØ¹ÙĨÙĩÙħ":11741,"ĠØ§ÙĦÙħØªØ¬Ø¯Ø¯Ø©":11742,"ĠØ§ÙĦÙħØ¹Ø±Ø¶":11743,"ĠÙĪØ§ÙĦØŃØ¬Ø±":11744,"ÙĨØ¬ÙĦØªØ±Ø§":11745,"abl":11746,"Ø¬ÙĪØ¡":11747,"ĠØ§ÙĦØ¬ÙĬØ²Ø©":11748,"ĠØ§Ø¶Ø§ÙģØ©":11749,"ĠØ¹Ø§Ø¯":11750,"ĠØ§ÙĦØ«Ø§Ø¨ØªØ©":11751,"ĠÙĪÙĦÙħØ§":11752,"ĠØ§ÙĦÙħØªÙħØ¯ÙĨ":11753,"ĠÙĤØ§Ø¯Ø±Ø©":11754,"ĠØªÙģØª":11755,"ĠØ§ÙĦÙĨÙĬÙĥÙĦ":11756,"ĠØ§ÙĦØªØ¯ÙĪÙĬØ±":11757,"ĠÙģØ±Ø²":11758,"Ø¥ÙĤØ±Ø£":11759,"ĠÙĪØ§ÙĦØªÙī":11760,"ĠÙĪØ§ÙĦØ§Ø³ØªØ":11761,"ĠØ£Ø¨Ø¯Ø§":11762,"ªÙĪØ³Ø·Ø©":11763,"ĠØºØ¯Ø§":11764,"ÙĦÙĬØ¬ÙĬ":11765,"Ø¨Ø±ÙĨØ§":11766,"ĠØŃØ§ÙħÙĦ":11767,"ĠÙħØ¤ÙĤØª":11768,"ĠØ§ÙĦØ¬Ø³":11769,"ÙİØĮ":11770,"ĠÙĦØ¹ÙħÙĦ":11771,"ĠÙħØŃÙĪØ±":11772,"Ø£Ø¯ÙĪØ§Øª":11773,"ĠØ§ÙĦÙħÙĪØ¶ÙĪØ¹Ø§Øª":11774,"ÙĪØ·Ø©":11775,"ĠØ§ÙĦØªÙĪØ¸ÙĬÙģ":11776,"ÙħØ¬ÙĬØ§Øª":11777,"ĠØ¬Ø¹ÙģØ±":11778,"ÙħØº":11779,"ĠØ§ÙĦØ¬Ø¯Ø±Ø§ÙĨ":11780,"µÙĪÙĬØª":11781,"ĠØ§Ø¹Ø±Ùģ":11782,"ĠØ§ÙĦÙĪØ³Ø§Ø¦ÙĦ":11783,"ĠØ±Ø§Ø¦ØŃØ©":11784,"·Ø§Ø·":11785,"ĠØ·Ø±Ø§":11786,"ĠØ¬ÙĪÙĦØ©":11787,"ĠÙĥÙĪÙĦÙĪÙħØ¨ÙĬØ§":11788,"ÙĨØ§ÙĨÙĬ":11789,"ØŃØ²ÙħØ©":11790,"ĠÙĪØªÙĥÙĪÙĨ":11791,"its":11792,"®Ø§ÙĪÙģ":11793,"ally":11794,"atalog":11795,"ĠØ¹Øµ":11796,"ĠÙĪÙĩÙĨØ§":11797,"ĠÙħØ§Ø±ÙĥØª":11798,"ĠØ¯ÙĨ":11799,"ĠÙħØ®ØµØµ":11800,"ĠÙħÙĨØ·":11801,"ĠÙĦØ£ÙĥØ«Ø±":11802,"ÙĪÙħØ¹":11803,"Ø¹Ø±Ø©":11804,"ĠPEW":11805,"ĠØ§ÙĦØ±Ø¯ÙĪØ¯":11806,"Ġse":11807,"ĠØªØ§Ø±ÙĬØ®ÙĬØ©":11808,"ĠØ§ÙĨØ³ØªÙĤØ±Ø§Ùħ":11809,"ĠÙħØªÙĪÙģØ±Ø©":11810,"ÙĤØ·Ø±":11811,"ĠØªØ®ØµÙĬØµ":11812,"ĠØ§ÙĦÙĨØ²":11813,"ÙħØ§Ø¹ÙĬ":11814,"ĠSc":11815,"ĠÙĪØ§ÙĦØªÙĥÙĨÙĪÙĦÙĪØ¬ÙĬØ§":11816,"ĠØ§ÙĦØ§Ø·ÙĦØ§Ø¹":11817,"ĠØ§ÙĦØŃØ¬Ø±ÙĬ":11818,"Ø£Ø±Ø³ÙĦ":11819,"ĠØ§ÙĦÙĥÙĦÙī":11820,"ÙĪØ§ÙģØ±":11821,"âĢ¦âĢ¦âĢ¦âĢ¦":11822,"ĠØ¢Ø":11823,"ĠØ§ÙĦØ¯ÙĨ":11824,"®Ø§Ø±ÙĬØ©":11825,"ĠØ§ÙĦØ¨Ùĥ":11826,"ĠÙĤÙĪØ§ÙĦØ¨":11827,"ĠØ±Ø¬Ø§ÙĦÙĬØ©":11828,"Ġsm":11829,"ĨØ¹Ø±Ùģ":11830,"ĠØ§Ø®ØªØ¨Ø§Ø±Ø§Øª":11831,"ĠØ¢Ø®Ø±ÙĬÙĨ":11832,"ÙĥØªÙĩ":11833,"ÙĪØ¯ÙĬ":11834,"ĠØ§ÙĦØ¬ÙĩØ©":11835,"ĠØ§ÙĦØ²ÙĪØ¬ÙĬØ©":11836,"ĠØ§ÙĦØªÙĬØ§Ø±":11837,"ĠØ´Ø±Ø·Ø©":11838,"ĠØ§ÙĦØ¥Ø·Ø§Ø±":11839,"ØªÙĤØ¯Ùħ":11840,"Ø´ØªØ±Ø§Ùĥ":11841,"±ÙĬØ§ÙĦ":11842,"ÙĨØ¹Ø±Ùģ":11843,"ÙĥÙĦÙħ":11844,"ĠØ¨ÙĨÙģØ³Ùĥ":11845,"ªØ±ÙĪ":11846,"ĠÙĨØ§Ø¹Ùħ":11847,"uro":11848,"ĠØ£ÙĨØ¨Ø§Ø¡":11849,"ĠØ£ØµØ§":11850,"¤Ø¯ÙĬ":11851,"ĠØ§ÙĦÙħØ°ÙĥÙĪØ±Ø©":11852,"ĠØªÙħØ":11853,"ĠØ´ÙĥØ±Ø§":11854,"ĠØªØ´ÙĩØ¯":11855,"ĠÙĬØ¹ÙĦÙĨ":11856,"µÙĨØ¹ÙĬÙĨ":11857,"ĪÙģÙĬØ¯":11858,"ĠØªØ³Ø¹ÙĬØ±Ø©":11859,"Ø¨Ø§ØŃØ«":11860,"Ø·ÙĨÙĬ":11861,"ĠÙħØ¹Øª":11862,"ĠØªÙħØ§Ø±ÙĬÙĨ":11863,"ªØ§ÙĨÙĬØ§":11864,"ular":11865,"ĠPr":11866,"Ø·Ø§Ø±ÙĬØ©":11867,"ĠGu":11868,"ĠØ¨ÙĥÙĦÙĬØ©":11869,"ĠØ§ÙĦØ£ÙĩÙĦÙĬØ©":11870,"ÙģÙĬØ¯Ø©":11871,"Ø²ÙĬÙĨÙĪ":11872,"ÙĪØºØ§ÙĨ":11873,"120":11874,"ĠØ§ÙĦØ§ÙĨØªÙĤØ§ÙĦ":11875,"ĠØ¹ÙĬØ§Ø±":11876,"ĠØ§ÙĦØ°Ø§ØªÙĬ":11877,"ĠÙĬÙĥØªØ¨":11878,"ĠØ§ÙĦÙħÙĪØ§ÙģÙĤØ©":11879,"Ø§ÙĦÙĪØ³ÙĪÙħ":11880,"ĠØ§ÙĦØŃØ§Ø³ÙĪØ¨":11881,"ĠØ¯ÙĬØ²ÙĦ":11882,"ÙĦØªÙĬÙĨ":11883,"ĠØ§ÙĦØªÙĦÙĥ":11884,"ĠØ³Ø¤":11885,"Ø§ÙĦÙĬÙĨ":11886,"Ø¨Ø§ÙĦØ¥ÙĨØ¬ÙĦÙĬØ²ÙĬØ©":11887,"ĠØªØ¯Ø§Ù":11888,"ĠÙĪØ£Ø¨":11889,"ĠØ¹ÙĬÙĨØ©":11890,"ĠØ§ÙĦÙħØ´Ø±ÙĪØ¹Ø§Øª":11891,"iness":11892,"ĠÙģØ§ÙĦ":11893,"ĠØªØŃØ¯":11894,"ĠØ§ÙĦØ³ÙĦØ·Ø§ÙĨ":11895,"ĠØ®ÙĦÙĬÙĦ":11896,"olor":11897,"ĠÙĬØ¯Ø¹ÙĪ":11898,"Ġ85":11899,"ĠØªØ£ÙĥÙĬØ¯":11900,"Ġ2003":11901,"inkedIn":11902,"ĠØ§ÙĦÙģØ±ØµØ©":11903,"ĠØ§Ø³ØªØº":11904,"ĠÙĬÙĦØª":11905,"Ø§ÙĦØ±ÙħØ§ÙĦ":11906,"Step":11907,"wa":11908,"ĠØ¨ÙĪØª":11909,"ĠÙĦÙĦØŃØ§":11910,"ĠÙĦÙĦÙģØŃÙħ":11911,"ĠØ£Ø·ÙĦÙĤ":11912,"Ø®Ø±ÙĬÙĨ":11913,"ĠÙĬÙĪÙħÙĬÙĨ":11914,"ĠÙĬØ£Ø®Ø°":11915,"ÙħÙĬÙĨØ©":11916,"ĠÙĬØ°ÙĥØ±":11917,"µØ¨":11918,"ĪÙĩØ§":11919,"ĠØ§ÙĬØ±Ø§ÙĨ":11920,"ÙĪÙĥÙħ":11921,"ĠØ§Ø®ØªÙĦØ§Ùģ":11922,"ØµÙĨØ¹":11923,"ĠØ¬ÙĦØ¨":11924,"ÙĩÙĬØ²Ø§Øª":11925,"Ø¨ÙĪØ·":11926,"ÙĤØ¨ÙĦÙĬØ©":11927,"lement":11928,"ÙĪØ³ÙĪ":11929,"ĠØ¹ÙħÙĦØ§Ø¦ÙĨØ§":11930,"Â°":11931,"ĠØ§Ø³ØªØ¨Ø¯Ø§ÙĦ":11932,"ĠÙĬØ¬ÙħØ¹":11933,"ĠØ§ÙĦØ£ÙĦÙħ":11934,"ĠØ³ØªØ±":11935,"ÙĦÙĬÙħØ©":11936,"ĠØ§ÙĦÙħØ®ÙĬÙħØ§Øª":11937,"¤Ø§":11938,"ĠØ§ÙĦØªØ·ÙĪØ±":11939,"ØµØ§ØŃ":11940,"ÙĥØ§Ø³":11941,"ĠÙĦØ°":11942,"ĠÙħØ«Ø§ÙĦ":11943,"ĠÙħÙĤØ§Ø·Ø¹Ø©":11944,"ÙĦÙĬÙĨÙĬ":11945,"ĠÙĩÙħØ§":11946,"ĠÙĦÙĦØ§Ø":11947,"ĠØ¨Ø§ÙĦØ´Ø¹Ø±":11948,"ĠØ·Ø§Ø¦Ø±Ø©":11949,"ĠÙħØ¹ÙĬ":11950,"ĠÙħØ¤Ø´Ø±Ø§Øª":11951,"Ø¬Ø¯ÙĬØ¯":11952,"ÙĦØ·Ø§Øª":11953,"ĢÙĢØ©":11954,"ÙĥØ³Ø¨":11955,"ĠÙĪØªØŃÙĤÙĬÙĤ":11956,"ĠØ³Ø¹ÙĪØ¯ÙĬØ©":11957,"ĠØ²ÙĬÙĨÙĬØ«":11958,"ĠØ§ÙĦØ§ØŃØªÙĬØ§Ø¬Ø§Øª":11959,"ecessary":11960,"ĠØ§ÙĦØ¥Ø¹ÙĦØ§ÙħÙĬØ©":11961,"sch":11962,"ĠØ§ÙĦØ´Ø§Ø¨":11963,"ÙģØ¶Ø©":11964,"Ø³ÙĪØ¹":11965,"Ø§ÙĦØ§Ù":11966,"ĠÙħØ«Ø§ÙĦÙĬØ©":11967,"µØ§Ø¦ÙĬ":11968,"Ø£Ø®":11969,"ĠÙħØ³ØªÙħØ±Ø©":11970,"ĠÙħÙĪÙĤ":11971,"Ø§ÙĦÙģØ§Ø":11972,"Ø²Ø§Ø®Ø³ØªØ§ÙĨ":11973,"ĠØ§ÙĨØ¸Ø±":11974,"Ġ95":11975,"ĠØªÙħÙĦÙĥ":11976,"ĠØ¨ÙĦØ§Ø¯Ùĩ":11977,"ÙħØ£":11978,"ĠØ·ÙģÙĦÙĥ":11979,"ĠØ§ÙĦÙħØ³ØªØ¯Ø§ÙħØ©":11980,"²Ø±Ø¹Ø©":11981,"ĠÙ¾":11982,"Ø¥ÙĦÙī":11983,"ĠÙĪØ³ÙĪ":11984,"ĠØ§ÙĦÙħØªØ·Ø§ÙĬØ±":11985,"ĠÙĨØ¹Ø±Ùģ":11986,"ĪÙĩÙī":11987,"ĠÙĦØªØŃØ¯ÙĬØ¯":11988,"Ø£ÙĨØª":11989,"de":11990,"ÙĪÙĨØª":11991,"ĠØ³Ø¬Ø§Ø¯":11992,"ĠØ¨ÙĪÙĦÙĨØ¯Ø§":11993,"ĠØ¯Ùħ":11994,"ĠØ§ÙĦÙĨÙĩØ§Ø±":11995,"ĠØ§ÙĦÙħØ¹ÙĩØ¯":11996,"ĠÙĦÙĦØŃØ¯":11997,"ÙĪÙĩÙī":11998,"¤ØªÙħØ±":11999,"ĠØ§ï»":12000,">>":12001,"ĠØªØªÙĪÙģØ±":12002,"ĠÙĦÙĦØªØ¬Ø§Ø±Ø©":12003,"«Ùī":12004,"ĠÙĪØ·Ø§":12005,"Ġ:-":12006,"Ø®Ø±ÙĪÙĨ":12007,"ĠØ§ÙĦØ§Ø²":12008,"ĠHe":12009,"Ø£Ø¹ÙĦÙī":12010,"ĠØ¨Ø§ÙĦÙĩ":12011,"ØŃØ¨Ùĩ":12012,"ĠØ§ÙĦÙħØ¸":12013,"ĠØ§ÙĦØ¬ÙĩÙĪØ¯":12014,"ĠÙĦÙħØ´Ø±ÙĪØ¹":12015,"ÙħØ§Ø¯Ø©":12016,"Ġbrow":12017,"ĠØ§ÙĦÙĥÙĦÙĬØ§Øª":12018,"ĠØ§ÙĦÙħÙĪØ²":12019,"ĠØ§ÙĦØªÙĪØ§ÙĦÙĬ":12020,"ener":12021,"ĠØ¬ÙĩØ§Ø²Ùĥ":12022,"ĠØ¯ÙĩØ§ÙĨØ§Øª":12023,"ªÙĩØªØ²":12024,"ĠÙħÙĪØ±Ø¯ÙĬ":12025,"Ø±Ø²Ø©":12026,"²Ø§Ø¹":12027,"ĠÙħÙĪÙħ":12028,"ĠÙħØ²Ø¯ÙĪØ¬":12029,"ÙĦÙĬÙĦØ§Øª":12030,"Ø²Ø§ÙĨ":12031,"ĠØ§ÙĦØ¹Ø¯Ø§ÙĦØ©":12032,"ĠÙĨØ§Ù":12033,"ĠØ¨Ø¹ÙĬØ¯Ø§":12034,"ĠØ¨Ø±Ø§Ø¯ÙĬØ´":12035,"ĠØ§ÙĦØ¯ÙĪØ±Ø§ÙĨ":12036,"·Ø±ÙĬØ©":12037,"ĠØµÙĬØºØ©":12038,"ØªÙĩØªØ²":12039,"ĠØ§ÙĦÙĬØ¯ÙĪÙĬØ©":12040,"ÙĩØ±ÙĬØ©":12041,"Ø¨Ø¥":12042,"ĠØ§ÙĦØ°ÙĥÙĬ":12043,"ØŃØµÙĦ":12044,"ĠØ¬ÙĨØ§":12045,"ĠØªØºØ·ÙĬØ©":12046,"ren":12047,"ĠØ§ÙĦØ·Ø§Ø¦Ø±Ø§Øª":12048,"Ø²ÙĬØ©":12049,"ĠØ§ÙĦØ£Ø±Ø¬ÙĨØªÙĬÙĨ":12050,"ØŃÙĪÙĨ":12051,"Ø£ÙĪÙĦ":12052,"ĠØ§ÙĦÙħÙħØ§":12053,"ĠDownload":12054,"ĠÙģÙĥØ§ÙĨ":12055,"ĠÙĬØ³Ø":12056,"ĠØ§ÙĦØ¥ÙĨØ¬ÙĦÙĬØ²ÙĬ":12057,"ĠØ¨Ø±Ø´ÙĦÙĪÙĨØ©":12058,"ĠØ§ÙĦØ£ÙħØ§ÙĨ":12059,"ĠØ§ÙĦÙģØªØ§Ø©":12060,"ĠØ§ÙĦÙģÙĬØ³Ø¨ÙĪÙĥ":12061,"ĠØ§ÙĦØ¯Ø¹":12062,"ĠØ§ÙĦÙĦØ§Ø¬Ø¦ÙĬÙĨ":12063,"ĠØ§ÙĦÙģØªØŃ":12064,"Ø£ÙĩÙħ":12065,"ĠØ´ÙĬØ±":12066,"ĠÙħØ³Ø§Ø¹Ø¯":12067,"ĠØ§ÙĦØªØ§Ø¨Ø¹":12068,"Ø¨ÙĦÙĬØ©":12069,"ĠÙĬØ¬Ø¯":12070,"ĠØ§ÙĦØ¥Ø¶Ø§":12071,"ĠØ§ÙĦÙħÙĩÙĨØ¯Ø³ÙĬÙĨ":12072,"ĠØ§ÙĦØŃÙĬØ©":12073,"ĠÙĦÙĪÙĥ":12074,"¦Ø§Ø¨":12075,"ĠØ§ÙĦÙħÙĩØ§Ø±Ø§Øª":12076,"ĠØ§ÙĦØ§ÙĨØ¯Ø±ÙĪÙĬØ¯":12077,"ĠØ£ÙĦÙĪØ§ÙĨ":12078,"ĠØ§ÙĦØŃÙħÙĬØ¯":12079,"ºØ°ÙĬ":12080,"Ø±Ø¬Øª":12081,"ĠØ§ÙĦØ¥Ø±ÙĩØ§":12082,"ĠÙĦÙĬÙĥÙĪÙĨ":12083,"ï»¨":12084,"ĠØ§ÙĦØ§Ø®Ø±Ùī":12085,"ĠØ§ÙĦÙħØªØ¹Ø¯Ø¯Ø©":12086,"ĠÙĬØ¶Ø¹":12087,"Com":12088,"ĠØ§ÙĦÙĤØ±Ø§ÙĨ":12089,"ĠØ£ÙĪÙĤØ§Øª":12090,"ĠØ§ÙĦÙĤØ±Ø§Ø±Ø§Øª":12091,"µØ¨ØŃ":12092,"°ÙĪÙĤ":12093,"ĠØ³ÙĬÙĪØ±":12094,"ÙģÙĬØ":12095,"ĠØ§ÙĦØ¢ÙĦØ©":12096,"ĠØ¥Ø®Ø":12097,"ĠØ¹ÙĨØ§ÙĪÙĬÙĨ":12098,"ĠØ§ÙĦØ·Ø±Ùģ":12099,"ĠÙħØ²ÙĬØ¬":12100,"ĪØ¨Ù":12101,"ĠØ¨Ø§ÙĦÙħØ§Ø¡":12102,"ĠØ§ÙĦØ¶Ø±":12103,"ĠØ¥Ø¬Ø§Ø¨Ø©":12104,"ĠØ®ØµÙĪØµ":12105,"ĠØµØ§Ø¨ÙĪÙĨ":12106,"ĠØ§ÙĦØ£Ø³Ø·":12107,"ĠDe":12108,"Ø§ÙĦØ°":12109,"ĠØªÙĪÙĬÙĪØªØ§":12110,"ĠØªØ£Ø®Ø°":12111,"ĠBy":12112,"·ÙĦØ¹":12113,"ÙĪØ§Ùĩ":12114,"ĨÙĬÙĦ":12115,"ĠØ§ÙĦØ¨Ø·ÙĪÙĦØ©":12116,"ºØ§ÙĨØ³ØªØ§ÙĨ":12117,"ĠÙĨØ±Ùī":12118,"ĠØ§ÙĦØ£ÙĨØ¸ÙħØ©":12119,"ĠØªÙĤØ¯ÙĬ":12120,"ØŃØªØ±Ø§Ù":12121,"ØŃØªØ±Ø§Ùħ":12122,"ĠÙĬÙħÙĥÙĨÙĩ":12123,"Ġcs":12124,"ĠDr":12125,"ĠØ¨Ø§Ø±Ùĥ":12126,"ĠØ¥Ø«Ø±":12127,"ĠÙģØ±ÙĬØ¯Ø©":12128,"ĠØ§ÙĦØªØ¯Ø±ÙĬØ¨ÙĬØ©":12129,"ĠØ·Ø±":12130,"ĠPosts":12131,"ĠØ¨ØªÙĪÙģÙĬØ±":12132,"ĠØ§ÙĦØ´Ø§ÙĬ":12133,"ØŃØ³Ø§Ø¨":12134,"ÙĥØ§ÙĬØ©":12135,"Ø¸Ø±":12136,"ĠØ§ÙĦØ¨Ø§ÙĦØº":12137,"esin":12138,"ĠØ§ÙĦÙģØ§Ø":12139,"ĠØ§ÙĦØ«Ø§ÙĨÙī":12140,"ÙĬØ²ÙĪ":12141,"ĠØ§ÙĦÙħÙĥØª":12142,"ØµÙĬÙĦØ©":12143,"ØªØµÙĨÙĬØ¹":12144,"ĠØ³ØªØ¬Ø¯":12145,"Ø³ØªØ±Ø¯Ø§Ø¯":12146,"ĠÙĪÙĨØ´":12147,"ĠØ§ÙĦÙĤØ§Ø":12148,"ĠØ¨Ø§ÙĬØ¯ÙĨ":12149,"ĠØ§Ø³ØªØ®ÙĦØ§Øµ":12150,"ĩÙĨ":12151,"Ø¶ØŃ":12152,"ĠÙĬØ¨ÙĤÙī":12153,"ÙĬÙĤÙĪ":12154,"ĠÙħØªÙħÙĬØ²":12155,"ĠØ§ÙĦÙħØ¬ØªÙħØ¹Ø§Øª":12156,"ĠØ¨Ø±Ø§Ø":12157,"Ø¨Ø¹Ø§Øª":12158,"ÙģØ§Ø±Ø§Øª":12159,"ĠØ§ÙĦØ®Ø´":12160,"Ø¥ÙĨØªØ§Ø¬":12161,"ÙħØ¨ÙĨÙī":12162,"ĠÙĦÙĦØªØ£Ø¬ÙĬØ±":12163,"ĠØ§ÙĦÙħØ¹ÙĦÙħ":12164,"Ø³ÙĪØ³":12165,"ĠÙĩÙĨØ¯ÙĬ":12166,"plete":12167,"ĠØ¨Ø§Ø¨Ø§":12168,"¤ÙĥØ¯":12169,"âĤªâĢ¢":12170,"ĠÙĬØ¹Ø·ÙĬ":12171,"ĠØ§ÙĬØ§Ùħ":12172,"Ø§Ø¹":12173,"ÙĩØªØ²Ø§Ø²ÙĬ":12174,"ĠÙĬØ¯ÙĬ":12175,"CM":12176,"ĠØ§ÙĦØ¥Ø¨ØªØ¯Ø§Ø¦ÙĬ":12177,"ĠÙĪØ¸":12178,"ĠØ³ÙĬÙħÙĪÙĨØ²":12179,"ĠÙģØ£ÙĨØª":12180,"ĠØ¬ÙĩØ§Øª":12181,"Ø³ÙĤ":12182,"ĠØ§ÙĦØªÙĨØ³ÙĬÙĤ":12183,"ØŃÙĬÙĤ":12184,"ĠØ§ÙĦÙħØ¹ÙĨÙĬØ©":12185,"ĠØ§ÙĦØ±Ø¬Ø§Ø¡":12186,"ØµØµ":12187,"ĠÙĦÙĦØ£ÙĪÙĦØ§Ø¯":12188,"ĠØªÙĪÙĤÙĬØ¹":12189,"ĠØªØ·ÙĦÙĤ":12190,"ĠØ¹Ø¯Ø¯Ø§":12191,"yd":12192,"ĠØ§ÙĦØ¹Ø²ÙĦ":12193,"ĠÙĨØ¸Ø§ÙģØ©":12194,"ĠØ¨Ø§ÙĦØªÙģØµÙĬÙĦ":12195,"ĠÙħÙĤØ·Ø¹":12196,"ins":12197,"ĠØªÙĪØ¶ÙĬØŃ":12198,"ĠØ§ÙĦØ£Ø¶":12199,"ĠØ§ÙĦØ¶ÙĪØ":12200,"Ø¹ÙĪØ¨Ø§Øª":12201,"ĠØ§ÙĦØ·ÙĪØ§ØŃÙĬÙĨ":12202,"ĠØ¥ÙĬØ¬Ø§Ø¯":12203,"ÙħØ±Ø":12204,"ĠØ§ÙĦØ¬ÙĬØ¯":12205,"Ġ43":12206,"µØ±Ø©":12207,"ĠÙħØ´Ø±ÙĪ":12208,"ĠÙĥØ¨Ø±":12209,"ĠØ²Ø":12210,"ÙĨØ§ØªØ§":12211,"')":12212,"ØŃÙĬØ¨":12213,"ĠÙ±":12214,"ĠØ§ÙĦØ´ÙĩÙĬØ¯":12215,"yz":12216,"ĠØ§ÙĦØªØ¹ÙĦÙĬÙħÙĬ":12217,"ĠÙĪÙĦÙĬØ¯":12218,"ÙĪÙĬÙĤÙĬØ©":12219,"ÙģÙĪÙĦØ©":12220,"ÙıØĮ":12221,"¦ÙĪÙĦÙĬØ©":12222,"ĠÙģØ§Ø¦Ø¯Ø©":12223,"ĠØ¹ØµÙĬØ±":12224,"ĠØªÙĪÙĥ":12225,"Ø¹ÙĦÙĥ":12226,"ĠÙĪØ£Ø´":12227,"ĠØ§ÙĦÙĨØ®ÙĬÙĦ":12228,"ĠØ£ÙĤØ³Ø§Ùħ":12229,"ĠØ§ÙĥØªÙĪØ¨Ø±":12230,"ĠØ§ÙĦÙĥÙĪ":12231,"ĠØ·Ø§ØŃÙĪÙĨ":12232,"ĠÙĪØªØµÙħÙĬÙħ":12233,"âĹı":12234,"ÙĨÙģØ":12235,"ÙĥÙĬÙĥ":12236,"ĠØ¨Ø±Ø³":12237,"Ø³ØªØ®Ø¯ÙħÙĬÙĨ":12238,"ĠØ£ØŃØ¨":12239,"ĠØ§ÙĦÙĨØµÙĪØµ":12240,"ĠØŃÙĥ":12241,"ĠÙħØ°ÙĥØ±Ø©":12242,"ĠØ¨ØŃÙĦÙĪÙĦ":12243,"ĨÙĪØ§Ø¹":12244,"ÙĩÙĪØ±Ø©":12245,"Ø±Ø§ÙģÙĬØª":12246,"ĠØ¨ÙĪÙħØ§":12247,"ĠØ§ÙĦØ¹ÙĪØ§":12248,"ĠÙĪÙħØªØ§ÙĨØ©":12249,"ĠÙĦÙĦØ³ÙģØ±":12250,"ĠØŃØ¸Ø±":12251,"ĠÙĪØ§ÙĦÙĤØ":12252,"ĠÙĪÙĤØ·Ø¹":12253,"ÙĪØ¨Ù":12254,"ĠØ¨ÙħÙĨØ·ÙĤØ©":12255,"box":12256,"ÙĤÙĪÙĦÙĩ":12257,"Ø¨ÙĪÙĤ":12258,"ĠØ§ÙĦØ³Ø·ØŃ":12259,"ĠÙĦÙĦØµÙĨØ§Ø¹Ø§Øª":12260,"read":12261,"ĠÙĪØ·ÙĨÙĬØ©":12262,"Ġï¿½":12263,"ĠØŃÙĤÙĬÙĤÙĬ":12264,"ãĥ":12265,"ĬØ¹ØªÙĤØ¯":12266,"ĠÙĪØ§ÙĦØ±ÙħÙĦ":12267,"ĠÙĪØ§ÙĦÙĦØ":12268,"ĠØ§ÙĦØªÙĨØ§":12269,"ĠÙĪÙĬØ¹ØªØ¨Ø±":12270,"ªØ´Ø±":12271,"ÙĬØ¹ØªÙĤØ¯":12272,"ĠØªÙĨØ´":12273,"ÙĪØ©":12274,"ĠÙĦÙĬØª":12275,"ºØ´":12276,"¶ÙĬØ¹":12277,"ÙħÙĬØµ":12278,"ĠØ¥Ø¹":12279,"ĠÙĪØ¯Ø§":12280,"ĠPolicy":12281,"ĠØ¹ÙħÙĪØ¯":12282,"ĠØªØµØ±ÙĬØŃØ§Øª":12283,"ĠØ±ÙĬÙģ":12284,"ÙĦØ§ÙĬØ§Øª":12285,"ĠØ¨Ø§ÙĦÙĤØ§ÙĩØ±Ø©":12286,"Post":12287,"ĠØ³ÙĪØ³Ùĩ":12288,"ĠÙħÙĪØ³ÙĥÙĪ":12289,"ĠØ³Ø¨Ø¹":12290,"ĠÙĪØªØŃØ¯ÙĬØ¯":12291,"Ġmay":12292,"ħØ¯Ø®ÙĦ":12293,"ĠShanghai":12294,"ĠØ§ÙĦÙħØ¹ÙĨÙī":12295,"ĠØ¨Ø·Ø§Ø±ÙĬØ©":12296,"ÙĬØ§ÙĨÙĩ":12297,"ĠÙģØ¹Ø§ÙĦÙĬØ©":12298,"ĠØ£Ø¹ÙĦÙħ":12299,"ĠØ¬ÙĪØ±":12300,"ÙħÙĪØ±Ø¯":12301,"ĠØªØ¨ÙĤÙī":12302,"ÙĨØ¬Ø§Ø²Ø§Øª":12303,"ĠØ³ÙĦÙĪÙĥ":12304,"ÙĪØ±Øº":12305,"ĠØ´Ø§ØŃÙĨØ©":12306,"lay":12307,"ªÙĨØ¸ÙĬÙģ":12308,"Ġaf":12309,"erson":12310,"ĠÙģØ¨":12311,"ĠØ§ÙĦÙħØ±ÙĥØ¨Ø§Øª":12312,"ģØ":12313,"Ġ82":12314,"ĠØ§ÙĦØ¨ÙĨÙĬØ©":12315,"Ø·Ø±Ø©":12316,"ĠØ´ÙĩØ¯Øª":12317,"ĠÙħÙĪÙĤØ¹Ùĥ":12318,"Ø¹Ø¨ÙĬ":12319,"ÙĪØ¹Ø¯":12320,"ĠÙĪÙĩÙī":12321,"ÙĬØ°":12322,"ĠØ¨ÙĪØ¬ÙĪØ¯":12323,"ĠØ§ÙĦÙħØŃØ§ÙģØ¸Ø§Øª":12324,"ĠÙĥÙĪØ":12325,"Ġhttp":12326,"ĬØ¹Ùħ":12327,"ĠØ§ÙĦÙĬÙĩÙĪØ¯":12328,"ĠØ§ÙĦØ£Ø¨ØŃØ§Ø«":12329,"ĠØ§ÙħØ§ÙĥÙĨ":12330,"ĠØ£Ø³Ø³":12331,"ĠÙĬÙĤÙĪ":12332,"ĠØ¨Ø¹ÙĨØ§ÙĬØ©":12333,"ĪØ¹Ùħ":12334,"ĠØ¬ÙĬØ±":12335,"ÙħÙĦØ§ØŃØ¸Ø§Øª":12336,"ĠØ§ÙĦØ´Ø±ÙĤÙĬ":12337,"ĠØ§ÙĦØ¥ÙĦØ²Ø§":12338,"ÙĬØ¹Ùħ":12339,"ĠØ§ÙĦØµØ§Ø¯Ø±":12340,"ÙĪØ¹Ùħ":12341,"ĠØ§ÙĦØŃØ±Ø§Ø±ÙĬ":12342,"ĠØµØ¯ÙĪØ±":12343,"ĬÙĬÙĨ":12344,"ĠÙħÙĥØªÙĪØ¨":12345,"Ø§ÙĦÙħØ§Øª":12346,"ĠØ¯Ø³Øª":12347,"Ø¬Ø§Ø¨Ø§Øª":12348,"ĠØ§ÙĦØ£ØŃÙĦØ§Ùħ":12349,"ĠØªÙĤØ³ÙĬÙħ":12350,"ÙĬÙĪØ¹":12351,"·Ø±Ùģ":12352,"ĠØªØ³Ø§Ø¹Ø¯Ùĥ":12353,"ĠÙĨØ³ØªØ®Ø¯Ùħ":12354,"âĢİ.":12355,"ĠÙģÙĪÙĦ":12356,"ĠÙĦÙĬØ±Ø©":12357,"ĠØ§ÙĦØ¹ÙħÙĪÙħÙĬØ©":12358,"ĠØ£ØºÙĨÙĬØ©":12359,"ØªÙĨØ¸ÙĬÙģ":12360,"An":12361,"aa":12362,"Ġwhich":12363,"Ġadmin":12364,"ĠØ·ÙĬØ±Ø§ÙĨ":12365,"ĠØ§ÙĦØ£Ø±ÙĤØ§Ùħ":12366,"§Ø®Ø±":12367,"ĠØ§ÙĦÙģÙĪÙĦ":12368,"ÙĪÙĤØ§ÙĦØª":12369,"ĠØ§ÙĦØªÙĪØµÙĬÙĦ":12370,"ĠÙĥÙĪØ§":12371,"ĠØ§ÙĦØ´ÙĩØ§Ø¯Ø©":12372,"ĠÙĦØªØ¹Ø²ÙĬØ²":12373,"ĠÙĪØ§ÙĦØ¹Ø§ÙĦÙħ":12374,"ĠØ¨ÙĬÙĪØª":12375,"ÙĬÙĨØ«":12376,"Ø±Ø£Ù":12377,"ĠØ¬ÙĦÙĬ":12378,"ĠÙģØ¥ÙĨÙĩØ§":12379,"ĠØ§ÙĦØ¶ÙħØ§ÙĨ":12380,"ĠØ§ÙĦØ³Ø¹Ø§Ø¯Ø©":12381,"ĠØ§ÙĦÙĬÙĪÙĨØ§ÙĨ":12382,"ØªØ§Ø¨Ø¹ÙĨØ§":12383,"Ø§ÙĦØ´ÙĬØ®":12384,"ĠØ¨Ø¯ÙĬÙĦ":12385,"ĠØ§ÙĦÙħÙĨØ§ÙģØ³Ø©":12386,"ĠØ§ÙĦÙħØµÙĨØ¹Ø©WhatsApp":12387,"ĠÙĪØ§ÙĦØ¹ÙĦØ§":12388,"ĠØ´Ø¤ÙĪÙĨ":12389,"----------------":12390,"ĠÙĦÙĦÙħØ±Ø©":12391,"ĠØ§Ø³ØªØ´":12392,"ÙĦÙĬØµ":12393,"ĠÙĪØ¥Ø¯Ø§Ø±Ø©":12394,"ĠØ§ÙĦÙĦÙĬÙħÙĪÙĨ":12395,"ĠFeb":12396,"ĠØ´Ø®ØµÙĬØ§Øª":12397,"ĠØ§ÙĦÙĤØ§Ø¹Ø¯Ø©":12398,"ĠØ§ÙĦØ®Ø²Ø§ÙĨØ§Øª":12399,"ĠØ§ÙĦØ£ÙĪÙĦÙĬ":12400,"ĠÙĦØªØ´":12401,"ĠØ§ÙĦÙĨØ¨ÙĪÙĬØ©":12402,"ÙĥØ§ÙĬ":12403,"ĠØ¥ÙĨØ¬Ø§Ø²":12404,"ĠÙĨØ§Ø±":12405,"Ġï´¿":12406,"ØªØ¹ÙĦÙĬÙĤØ§Øª":12407,"ĠØ§ÙĦÙħØ¬Ø§ÙĨÙĬ":12408,"Ø§ÙĦÙĬØ¯":12409,"ĠØ³ÙĬÙĨØ§Ø¡":12410,"ĠØ§ÙĦÙģÙĦØ³Ø·ÙĬÙĨÙĬÙĬÙĨ":12411,"Ø¨Ø§Ø±Ø§":12412,"ÙħØ§Ø¹Ø©":12413,"Ù¥Ùł":12414,"cent":12415,"ĠØŃØ±ÙĬØ©":12416,"ĠØ§ÙĦØªØ§Ø³Ø¹Ø©":12417,"ĠMicro":12418,"ĠØ§ÙĦÙĤØ±Øµ":12419,"ĠØ§ÙĦØ´Ø®ØµÙĬØ§Øª":12420,"ĠÚ©Ø":12421,"ĠØ¨Ø§ÙĦÙħÙħÙĦÙĥØ©":12422,"ĠÙģØŃØ³Ø¨":12423,"Ø§ÙĦÙĤØ§Ø¦ÙħØ©":12424,"ĠØ§ÙĦØªØŃØ¶ÙĬØ±":12425,"ĠØ¯ÙĩØ§ÙĨ":12426,"ĠØ³ÙħØ¹Øª":12427,"ĤØ¯":12428,"ÙĢÙĢØ":12429,"ĠØ§ÙĦÙĤØ¶Ø§Ø¦ÙĬØ©":12430,"Live":12431,"Ø¯Ø±ÙĬØ³":12432,"ĠÙĬØ¹Ùħ":12433,"ĠØµØŃÙģÙĬ":12434,"ĠØ§ÙĦÙħÙĩÙĨÙĬ":12435,"ĠÙĦÙĪØ³":12436,"ĠÙĥØ§Ø±Ø¯":12437,"Ø§ÙĦÙħØ©":12438,"ĠØ³ØªÙĪÙĨ":12439,"Ø¹Ø§ÙĨØ©":12440,"ĠØ§ÙĦÙħØ±Ø§Ø¯":12441,"·Ø§ÙĦ":12442,"ooks":12443,"ÙĤÙĩØ§":12444,"Ġarab":12445,"ĠØ§ÙĦØµØŃØ§Ø¨Ø©":12446,"ÙĦÙĬÙĪØ¨":12447,"ĠÙĦØ¥Ø¯Ø§Ø±Ø©":12448,"ĬØ²Ø±":12449,"ÙģØ±Ø¯":12450,"ÙĨÙĪØ§Ø¹":12451,"ÙģØªØ±":12452,"Ø§Ø®Ø±":12453,"ĠØ§ÙĦØ¨Ø§ØŃØ«ÙĬÙĨ":12454,"ĠØ¨Ø£Ø":12455,"ĠÙĪØ¢ÙĦÙĩ":12456,"ĠØ¥Ø·":12457,"ĠÙĦÙĦØ·ÙĦØ§Ø¨":12458,"µØ§ÙħÙĬÙħ":12459,"ĠØ§ÙĦØ·ÙĦØ§ÙĤ":12460,"Ø·Ø§Ø¦":12461,"ÙħÙĦÙĬØ§":12462,"ĠØ§ÙĦÙĨØ§Ø´Ø¦Ø©":12463,"ĠØ§ÙĦÙĨØµÙģ":12464,"ĠÙĪÙħØ·ØŃÙĨØ©":12465,"ĠÙĥÙĪÙģÙĬØ¯":12466,"ĠØ§ÙĦÙĤØ¯Ø±":12467,"ĠØ§ÙĦØ·ÙĦØ¨Ø§Øª":12468,"ĠØ§ÙĦØ±Ø¶Ø§":12469,"ĠCNC":12470,"ĠØ±Ø®ÙĬØµ":12471,"Ø¹Ø§ÙĦÙħ":12472,"ĠØ®ÙĦØ§Ùģ":12473,"ĠØ§ØµÙĦØ§ØŃ":12474,"ÙĬÙĨØ§Ø±ÙĬÙĪ":12475,"²Ø§ÙĪÙĬØ©":12476,"Ġvar":12477,"ĠÙĤÙĦØ¨ÙĬ":12478,"ĠØ´ÙĬØ¦":12479,"ĠÙĦØ¥ÙĨ":12480,"ĠØŃØ¸":12481,"ĠØ¨ÙħØ®ØªÙĦÙģ":12482,"ĠØŃØ§ÙĪÙĦ":12483,"ĠÙħÙĪÙĨ":12484,"ĬÙĩØ¯Ùģ":12485,"Ġ130":12486,"Ø¯Ø§ÙģØ¹":12487,"Ġalso":12488,"ÙĬÙĩØ¯Ùģ":12489,"ĠEquipment":12490,"ĠØªÙĥØ±ÙĬØ±":12491,"ĠØ§ÙĦØ°ÙĥØ±Ùī":12492,"oon":12493,"ĠÙĩÙĬØ±":12494,"ĠØ¨ÙĦØ§Ùĥ":12495,"Ø¬Ø±ÙĬÙĨ":12496,"ĠØ¶Ø±Ø¨":12497,"Cl":12498,"ĠØ§ÙĦØµÙĨØ¯ÙĪÙĤ":12499,"ØªØ®Ø§Ø°":12500,"ĠØ§ÙĦØ³ÙĥÙĨÙĬØ©":12501,"ÙģÙĬÙĥ":12502,"ĠØ§ÙĦØªÙĥØ§ÙĦÙĬÙģ":12503,"ĠØ¨Ø§ÙĦØ¹Ø¯ÙĬØ¯":12504,"ĠØªØ±Ø®ÙĬØµ":12505,"Ø±Ø§ÙħØ§Øª":12506,"ĠÙħØ¬Ø":12507,"ĠØ®ÙģØ¶":12508,"ĠÙħØªÙĪØ§":12509,"ĠØ¥ÙĬÙħØ§ÙĨ":12510,"ĠØ¨Ø§Ø±Ø¯":12511,"ĠØ§ÙĦÙĤØ·Ø·":12512,"ĠØªØ®ØªØ§Ø±":12513,"ĠØ§ÙĦÙĬÙħÙĨÙĬ":12514,"ĠÙħÙĪØ¶Ø¹":12515,"ĠØ§Ø³ØªØ¹Ø§Ø¯Ø©":12516,"usiness":12517,"Ø§ÙĦÙħÙĪØ±Ø¯ÙĬÙĨ":12518,"ħÙĦÙĩ":12519,"ĠØ§ÙĦÙĨÙĪÙĪÙĬØ©":12520,"ĠØ®ÙĦØ§ÙĬØ§":12521,"§Ø¶ØºØ·":12522,"ĠÙĪØªÙĨØ¸ÙĬÙģ":12523,"Ġ700":12524,"Ø§Ø¶ØºØ·":12525,"Ġ47":12526,"ØµØ§Ø±":12527,"ÙģÙĩØ§":12528,"ĠØ§ÙĦØŃØ§ÙħÙĦ":12529,"Ø§ÙĦÙģØ§Øª":12530,"ĠØ§ÙĦØªÙĪØ§Ø¨ÙĦ":12531,"ØµØ§Ø¦Ø¯":12532,"ĠØ±ÙĪØ§Ùĩ":12533,"ĠØ§ÙĦØ·Ø¨ÙĤØ©":12534,"ĠÙĬØ¹Ø¬":12535,"ĠØ§ÙĦÙħØªØ¯Ø§ÙĪÙĦ":12536,"ĠÙĦØ¹Ø¯Ùħ":12537,"ÙĦÙĨÙĬ":12538,"ÙģØ§Ø¹ÙĦ":12539,"ÙĬØ¦":12540,"ĠØ§ÙĦÙģØªØ§ØŃ":12541,
[...]
