#version: 0.2
Ġ t
Ġ a
e n
i n
" :
e r
o n
Ġt h
r e
r o
a t
l l
o r
, "
Ġ s
e s
l a
e l
Ġth e
": "
" ,"
Ġ w
a r
i t
o u
Ġ c
p ro
i s
n d
in g
{ "
e d
Ġ b
Ġ f
la b
Ġ o
pro b
a n
lab el
en t
} ,
Ġt o
n u
Ġ m
i c
nu ll
i on
Ġ p
a l
Ġa nd
Ġ h
Ġ in
Ġo f
Ġ d
l e
s t
}, {"
o m
i d
â Ģ
e t
Ġ y
2 0
c t
a s
Ġy ou
Ġ re
Ġ I
Ġ S
. \
v e
Ġ n
Ġ T
er s
Ġ A
Ġ C
Ġ e
c e
a d
c h
Ġ l
at ion
o t
u r
Ġ g
u s
Ġ is
Ġf or
h e
w ar
i g
o w
Ġ on
Ġ 20
a y
, {"
i l
i f
Ġb e
Ġ M
i m
t h
Ġ P
a m
war c
l y
it h
o o
on t
u t
Ġth at
at e
Ġw h
âĢ Ļ
v er
Ġ (
Ġs t
a g
i r
es t
Ġw ith
Ġ B
r a
o l
u n
Ġa n
Ġ it
i es
e m
p e
Ġ D
es s
t er
c k
i ll
Ġ F
Ġ W
a ll
Ġ or
Ġ pro
Ġa re
ou r
Ġa s
k e
u l
Ġ R
Ġ 1
Ġw e
p p
Ġ20 1
h t
it y
q u
9 6
o re
9 7
Ġyou r
2 2
Ġh a
Ġ H
ou t
o s
9 5
m ent
e w
Ġa t
r i
9 8
s h
0 0
e p
er e
Ġ L
Ġ N
Ġc om
9 4
is t
Ġ us
ont ent
b er
or t
9 3
a b
e ct
Ġ E
n T
u st
Ġ v
Ġ G
o p
Ġe x
Ġ O
c ontent
u re
l d
Ġ âĢ
oo k
i v
Ġth is
9 1
Ġ J
e ar
Ġb y
id ent
Ġn ot
an t
ro m
o st
u p
ĠT he
i ve
Ġha ve
l o
2 1
Ġc an
ar t
ag e
n A
u m
en d
Ġs h
Ġc on
n S
e c
a in
Ġ r
ig ht
Ġf rom
ident if
9 0
s s
u g
o d
u d
t y
Ġw as
Ġc h
2 3
Ġa l
en ce
": {"
om e
c i
Ġw ill
ic ation
ar y
1 1
8 6
8 5
2 5
2 4
ĠT h
ic e
Ġd o
8 7
8 4
ur n
en g
8 3
Ġs u
Ġa b
in e
n C
or d
8 0
Ġ le
2 6
it e
a nd
Ġ U
2 7
a re
n R
all y
Ġa ll
f f
c c
t o
e x
ion s
ou ld
or m
u nd
Ġa d
s e
id e
la n
8 1
p t
p er
ing s
n I
s ent
or k
Ġs o
Ġd e
a k
ĠI n
ar d
Ġ j
i re
Ġm e
Ġ k
n P
g e
Ġh e
a ct
p s
in d
Ġs e
i ke
\ "
u id
o g
er v
âĢ Ŀ
1 0
a st
c om
on e
f orm
1 5
r y
ou n
i z
i a
i e
Ġ our
1 3
Ġcom p
Ġ Y
r u
1 4
t l
h er
Ġm y
1 7
at ed
1 6
Ġm ore
ty pe
a ke
a il
a ch
n W
identif ication
ver y
3 0
Ġh as
":" <
u uid
u b
} ,"
Ġb ut
im e
a c
tl sh
Ġre s
ic h
Ġ up
Ġ la
th er
": [
n M
d u
Ġ out
s o
m ber
an ce
oo d
an s
Ġp re
o ve
4 4
5 5
o ll
Ġc ont
ay s
3 6
en c
ĠS t
ou s
Ġn e
Ġthe y
Ġan y
at a
as e
Ġ im
a ck
1 2
on g
f ul
ig n
. .
i b
Ġthe ir
ex t
i p
f er
> ","
0 6
3 7
ĠâĢ ľ
ate g
3 5
b s
ab le
n F
Ġab out
4 6
is h
ic k
ul t
0 7
Ġ K
am e
i ed
4 7
0 5
Ġ V
g et
n L
4 5
en s
ar k
Ġon e
al ity
Ġ un
Ġm an
p la
9 9
: \
' s
a p
ic al
nT he
a v
Ġw ork
re at
re e
c l
g u
in k
c on
n B
es e
v el
ĠC h
) \
n D
ateg or
ar m
u e
re ss
o c
Ġa g
Ġa m
ent s
Ġt ime
Ġp er
i le
Ġt e
/ /
he ad
el y
n ow
Ġ qu
i al
e b
Ġwh ich
v ers
Ġn ew
Ġal so
oun t
Ġ -
Ġg o
Ġd is
: //
Ġwh o
n N
3 3
n H
i ew
or s
Ġo ther
Ġs p
Ġ en
ĠI t
7 6
Ġa cc
Ġp art
7 5
os e
Ġ if
Ġt r
ĠW e
Ġa r
it ion
Ġg et
0 4
Ġm ay
Ġe v
ct ion
w w
Ġs ome
Ġl ike
Ġp la
on d
Ġus e
Ġf e
Ġy ear
lo ck
3 4
c ord
in t
Ġthe m
o v
2 8
Ġs erv
f ers
Ġs a
Ġh el
ci al
Ġc l
p ort
6 6
Ġe m
la r
ation s
Ġwh en
ht t
Ġwh at
n E
Ġh ow
ment s
eng th
form ation
n O
Ġp e
Ġc ook
t e
20 22
Ġpro v
il d
Ġ20 22
Ġne ed
p r
Ġh is
ĠâĢ ĵ
ug h
Ġth ere
Ġ ro
0 3
7 7
Ġin ter
gu age
Ġk now
ategor ies
Ġbe en
d ate
pla in
or y
? \
ar get
ers on
5 6
lan guage
ow n
us e
ro w
ĠTh is
ep ly
8 8
m et
an k
} }
Ġ &
op le
ĠR e
Ġw ould
h arm
em ber
ur i
Ġ 3
at er
ic es
ou g
n ings
i an
nT h
qu ality
Ġj ust
Ġo ver
m er
Ġ 2
a ce
0 8
1 9
0 9
ic s
ĠD e
ig h
identif ied
Ġad d
c a
vers ion
d ig
Ġn o
htt ps
sh a
ĠW h
on s
n e
t ext
b lock
er m
ad e
at es
l ength
Ġs pe
Ġ und
re cord
cl ud
ad ata
t arget
c ategories
r am
dig est
con version
p h
ĠY ou
] }}
met adata
sent ence
identification s
head ers
war nings
harm ful
re fers
" },"
Ġd es
ro ugh
du ct
bs ite
Ġ 5
ou nd
0 1
ir st
r it
l es
Ġin formation
Ġa pp
6 5
Ġpe ople
Ġhel p
re d
! \
ĠC om
Ġh er
as s
w e
an g
Ġit s
ol d
Ġon ly
ra ct
Ġw ere
Ġh ad
n ing
4 3
ear ch
n J
Ġin to
Ġth ese
Ġcom m
f ter
it ies
u al
9 2
Ġin d
u ll
Ġund er
Ġex per
ic t
" ]
":[ "
"] ,"
oo l
Ġth an
is s
enc es
Ġm ake
1 8
Ġp r
nR eply
j ect
":[ {"
in ess
Ġ 4
ĠP ro
y s
f t
ub l
w n
ri v
Ġa ct
} ]}}
Ġt ra
Ġb et
t ing
at ing
0 2
o b
o ot
pp ort
is e
Ġin clud
e k
er t
Ġth rough
l ine
am p
Ġp erson
Ġm ost
ĠH e
Ġw or
Ġe very
Ġcook ies
if e
5 7
Ġwe bsite
v iew
Ġcon s
et h
Ġw ant
Ġp ost
ĠM ar
Ġ \"
il ity
n G
Ġl ook
al th
us iness
Ġp h
b e
at ure
Ġof f
ol og
i ous
d ay
ib le
Ġa p
6 7
an y
ove mber
a i
nW h
un e
o ber
c ri
c es
e f
Ġc o
\ \
Ġ20 21
Ġwe ll
Ġb u
6 4
Ġf irst
os s
âĢ ¦
Ġd if
Ġ el
Ġre ad
an ge
ĠU n
ĠA n
lo g
il y
ro und
ep t
Ġt w
an u
ark et
Ġs et
at h
Ġ very
Ġr ight
el f
y st
Ġb ack
em ent
7 4
ation al
it s
Ġ20 20
2 9
u ch
c re
ce mber
ow er
Ġus ed
al s
5 4
Ġre g
t s
ect ion
c ed
Ġ |
ct ober
Ġre l
Ġ nu
Ġsh ould
e e
Ġin v
Ġyear s
Ġat t
ĠI f
pe ct
la nd
Ġre m
E A
Ġse e
Ġman y
Ġg ood
Ġre qu
it ed
Ġ $
i ence
Ġw ay
ot h
5 3
nI n
as ed
Ġex p
Ġ ke
Ġst ud
ept ember
7 3
c o
i k
ak ing
war d
pr il
if ic
u ly
e ll
n Y
anu ary
ĠN ew
oll ow
Ġp o
ug ust
6 3
vel op
f ore
Ġsu ch
Ġo wn
ĠM ay
Ġm on
8 2
Ġs he
Ġa fter
Ġserv ice
en er
Ġ ent
ol ic
Ġd on
Ġsa id
E D
Ġh igh
Ġ201 9
a ir
Ġ 6
at ch
Ġv is
le ase
Ġc ould
Ġev en
oug h
Ġb est
Ġst r
Ġwh ere
B B
ĠS h
a ve
Ġin st
c ess
Ġa c
Ġh ere
yst em
Ġd ec
eb ru
Ġn ow
ebru ary
Ġth en
d er
ag es
. ","
Ġin s
A C
Ġas s
8 9
ch n
ca use
Ġs ec
Ġg reat
Ġdo es
Ġ1 0
Ġbe cause
Ġ201 8
Ġf ind
o y
Ġp lan
i o
Ġs ays
ust om
it t
Ġtw o
ur ing
Ġ201 7
Ġpro duct
Ġm uch
ĠA nd
e ad
g ram
Ġth ink
Ġe ff
Ġs m
Ġa v
n er
Ġdif fer
) ,
ww w
at ive
g an
4 0
Ġc oll
ĠA r
ĠN ovember
5 1
Ġ201 6
Ġd ata
' t
Ġd own
ch ool
ce pt
n g
Ġb el
Ġp ur
Ġst art
r ic
Ġre p
iv es
Ġ ra
as h
d d
Ġprov id
Ġf in
la ss
Ġtr ans
ĠF or
Ġb usiness
5 0
p le
Ġpla y
E C
t en
iv ers
a z
E R
Ġar t
Ġ201 5
i x
Ġ 7
al k
.. .\
ĠDe cember
Ġsu b
Ġd id
Ġo pt
Ġl ong
Ġt ake
ac y
ot her
a x
ĠO ctober
Ġd ay
iz ed
al e
D A
Ġs c
Ġf un
Ġbe ing
ĠS o
l ed
Ġm od
Ġg u
ter n
e g
ĠMar ch
ĠS eptember
Ġm ed
C A
e ver
Ġm ade
ro up
er n
Ġc he
3 1
Ġb o
Ġwor ld
4 1
ĠJ une
sh ort
Ġ201 4
Ġd et
ĠJ uly
Ġc our
Ġth ose
ĠA pril
B A
u es
Ġto o
ĠJ anuary
Ġc re
ĠA ugust
u ally
Ġp l
iz e
Ġm in
ion al
sent ences
Ġp ubl
Ġbe fore
ire ct
u th
u lar
Ġl ife
Ġag ain
Ġexper ience
ol ut
Ġde velop
) .
Ġdes ign
Ġs im
in s
v en
Ġc ar
ur r
Ġl oc
ist r
Ġre t
. âĢĿ
Ġsu pport
Ġd el
Ġ201 3
re ad
a h
ai lab
Ġpro cess
ĠF ebruary
00 0
i er
Ġad v
Ġto p
Ġp m
n V
Ġ prob
o ck
4 2
Ġ ed
Ġh im
w ay
Ġf ollow
nW e
olog y
Ġm arket
ar n
ĠE x
c ent
Ġf am
Ġmon th
un ity
Ġs ystem
Ġs om
Ġ end
Ġfor m
as on
Ġpro f
Ġh ome
Ġb ook
ire d
w ays
Ġus ing
p en
it al
B C
F A
st and
n ess
Ġwe ek
3 2
4 8
Ġc are
Ġc all
F C
ure s
a f
c ome
Ġsh ow
ou se
ĠC on
Ġb r
Ġs ur
E E
r en
ĠA l
Ġ201 2
Ġcomp le
i el
Ġl ist
Ġdiffer ent
at her
Ġwh ile
O N
Ġre ally
t t
Ġst ore
nTh is
m in
Ġex t
7 1
i ent
ĠA ll
im es
I N
Ġc ustom
olic y
ri end
ak es
et s
in es
B D
ailab le
at or
id er
âĢ ľ
p l
Ġs ite
Ġha nd
Ġ 8
Ġde f
Ġe ach
Ġf ree
3 8
ĠB ut
b ook
Ġem ail
Ġp ay
Ġhe alth
Ġ1 1
/ ","
- -
enc y
6 0
Ġc le
in ce
et y
Ġon line
Ġprov ide
Ġfe el
Ġle ad
ĠO n
Ġs ign
Ġte chn
t he
n U
ĠT o
ec ess
d e
4 9
Ġd ep
ĠA s
7 0
Ġl ove
Ġre ce
E S
f oot
Ġ Q
b ers
is m
ic le
ri b
Ġe as
B F
A A
Ġacc ess
Ġs ame
Ġpro gram
we en
t on
Ġin t
Ġch ar
Ġs k
l ess
Ġg r
Ġf l
Ġl ot
er g
Ġc a
Ġt y
Ġof fer
Ġha pp
us s
le m
Ġst ill
ĠS erv
in ing
a w
5 2
3 9
ĠA d
Ġf ound
mer ic
an c
Ġres p
E F
ro l
Ġim port
i qu
Ġw rit
r ist
Ġch ild
foot er
ĠH ow
Ġa round
Ġap pro
6 1
Ġav ailable
ĠThe y
Ġin f
7 8
ra nd
i ps
Ġl o
Ġs ay
Ġperson al
Ġs er
Ġ1 2
Ġgo ing
ar s
Ġor der
b o
Ġ [
v ent
Ġh ear
Ġre al
Ġwith out
od y
Ġc or
ro ss
ĠR es
iv ing
y m
Ġserv ices
Ġf ull
E B
Ġc ount
O R
iel d
Ġbet ween
Ġv ar
cri pt
Ġke ep
Ġvis it
m ail
Ġinter est
Ġapp l
th ing
Ġv al
Ġte am
Ġth ings
Ġsh are
lo y
Ġpla ce
Ġp oss
cc ess
Ġall ow
am es
in y
ĠI nd
Ġg ener
re s
ir d
v ing
Ġ 9
ut e
Ġla st
Ġm ust
riv acy
er y
ĠT r
A D
Ġcomp any
Ġo b
Ġ /
ra ph
ĠU s
9 98
F F
nL ike
ic ally
ur al
5 8
Ġpo int
u c
w are
9 94
Ġacc ount
od e
Ġres ult
Ġb oth
it es
al y
oug ht
Ġunder stand
Ġ i
w it
Ġ201 1
Ġis s
ecess ary
nS h
in ed
uth or
one y
el s
Ġpart ic
Ġc ontent
7 2
C C
Ġnu mber
Ġ Â
Ġus er
ist s
Ġbet ter
Ġinclud ing
D D
Ġp ass
ru ct
nY ou
ish ed
Ġf ew
ert ain
is ter
or n
Ġqu est
Ġal ways
Ġcont in
Ġspe c
w ork
ĠU S
pp ing
ĠP h
.. .
Ġim p
at t
lo ad
ver n
Ġle g
itt le
ot e
ver t
Ġt ry
our s
ank s
v ed
Ġcon f
Ġla w
Ġeff ect
urr ent
Ġst ate
ĠA meric
eth ing
ĠâĢ ĺ
ĠI s
Ġs l
ag ement
Ġs ure
Ġor gan
5 9
ect ed
e y
Ġd uring
m an
Ġf act
ent ial
Ġm em
Ġm ain
Ġa ff
6 8
Ġem p
_ _
Ġfe ature
Ġd ays
ivers ity
6 2
9 93
nS t
Ġl ink
ication s
nA n
ĠC l
Ġr un
iv id
Ġe ar
Ġbu ild
Ġper form
ĠT e
Ġre st
s elf
nWh at
Ġinv est
Ġdis c
Ġpro t
in a
iss ion
Ġla r
T he
ĠTh ere
as es
Ġimport ant
Ġpro per
A T
Ġb l
Ġt ru
Ġwith in
D C
Ġf il
Ġg roup
Ġsu pp
9 95
Ġre port
o f
Ġprob lem
9 97
it ions
Ġ ide
D F
Ġp ar
en se
\\ \\
nH ow
Ġsom ething
Ġg ive
Ġne ver
sh ip
r al
l ing
f e
v es
g le
om en
Ġpro ject
Ġb as
erm s
Ġd irect
Ġf riend
Ġo pen
Ġb ro
is ion
ĠM ore
9 91
us h
ĠB e
9 96
âĢ Ķ
Ġ #
head er
a j
w h
o h
Ġm ight
ĠC ont
ant s
Ġcom e
em s
n K
at ely
ĠP r
Ġ201 0
Ġp at
Ġfam ily
Ġ est
ĠS p
r on
Ġsm all
in al
Ġ Z
ace book
Ġc ost
Ġab le
ĠY our
an n
Ġl ittle
Ġp ower
a ut
Ġche ck
nI f
or g
Ġg row
Ġs chool
Ġc lass
Ġcont act
A F
ĠCom m
red it
m ed
A B
Ġas k
Ġre f
Ġim pro
ur ity
ight s
E N
i ents
Ġn ext
ard s
Ġst and
Ġcont ract
ĠTh ese
Ġb row
Ġan other
i or
ill s
Ġin cre
Ġb log
Ġch ange
ater ial
Ġproduct s
Ġp ut
Ġcons ider
t iny
b y
Ġw ater
i um
Ġc ent
Ġo ld
ĠN o
Ġc ol
i ver
Ġbel ie
Ġle vel
th ers
f or
Ġadd ress
u ro
Ġn ame
ĠM ed
Ġt est
ent al
Ġ 30
iz ation
ĠCom p
Ġcour se
ĠO r
er ing
Ġv iew
, âĢĿ
g est
ab ility
Ġre view
Ġwork ing
g r
ĠF r
ĠM an
ĠP ost
Ġh ard
if y
at s
la ck
is ing
I T
Ġact iv
7 9
F B
et her
b out
Ġth ree
Ġprof ess
A N
Ġadd ition
A R
Ġrequ ire
ail s
C E
.âĢĿ \
ĠW ith
Ġf r
at ter
Ġj o
Ġres earch
end ing
Ġc r
ne y
Ġb ig
D B
9 90
Ġ Ġ
nP ost
if ied
or ies
ĠE n
Ġpro du
ide o
Ġl ess
Ġmonth s
um an
t ain
Ġs ince
ad ing
p or
Ġinter n
Ġc urrent
en ef
Ġ1 5
Ġe qu
e v
Ġp ract
I S
Ġg ot
Ġo per
Ġch ang
id s
Ġp age
Ġcon d
p os
m end
ĠS he
D E
Ġd ist
Ġfun ction
u ck
ook ie
v ious
Ġt ri
Ġle t
ivid ual
Ġcon sent
g er
ĠâĢ Ķ
s er
Ġ eng
ĠR ep
min istr
à ¸
ir on
Ġm oney
o k
ĠG od
Ġle arn
Ġwh y
Ġpubl ic
nLike L
ĠM y
Ġlook ing
wit ter
Ġcom ment
6 9
Ġp os
um p
Ġm ov
Ġ '
b b
Ġnew s
in o
Ġd r
ĠCh rist
us ic
Ġ .
Ġret urn
ĠC an
Ġpre sent
Ġb re
la im
ur y
j oy
nI t
â ĸ
ou th
ĠC ent
Ġme et
Ġap pe
el ect
Ġc ase
re am
Ġp op
Ġm aking
amp le
ĠC o
rib ut
n ot
ĠTh at
nR ead
ĠWh at
our ce
Ġt urn
our ces
ent ion
Ġbu y
is k
B E
Ġspe cial
ĠNew s
y n
Ġc ertain
Ġm aterial
Ġ 0
Ġg ame
Ġbo ard
Ġph ot
la y
ar ing
Ġposs ible
Ġto day
Ġbe h
Ġf re
g in
ĠA m
Ġso cial
Ġn on
Ġpur ch
Ġ et
oc us
Ġstud ents
nC ont
et e
ĠL e
or th
op y
ĠD o
ind ow
re m
ew s
al es
Ġre c
ĠE ng
re t
Ġcon n
ot t
L L
Ġpro m
A E
og raph
Ġind ividual
o pe
Ġp a
Ġw ord
Ġf ood
98 4
nC om
Ġemp loy
Ġcon st
in ation
Ġm et
Ġl im
ist ory
Ġag o
Ġth ought
Ġd i
Ġk ind
nC l
ill ion
Ġhe ad
ĠQ u
b al
vern ment
h ip
Ġind ust
ab ly
Ġp ol
Ġ20 09
is ed
Ġcook ie
ĠA ss
Ġd em
Ġc reat
Ġt alk
ĠS c
ĠP olicy
9 21
Ġb ased
ort s
Ġco ver
ast er
O U
Ġl og
Ġse ver
Ġ1 8
n s
96 6
re sent
9 24
) .\
Ġagain st
ir m
Ġf ac
o int
en e
Ġsec ond
ur ance
et work
a ff
Ġneed s
ĠA pp
Ġ es
Ġcre ate
âĸ º
Ġ ens
if t
Ġde v
9 27
Ġp lease
g ed
Ġth ing
iqu e
Ġcomm unity
Ġcomm un
ĠWh en
ch ed
Ġ ve
s w
in ter
l ish
iv en
an cial
97 6
iv ed
ut ure
t il
I D
or ld
9 25
c le
it ive
Ġa ut
il i
Ġt imes
r ies
con om
Ġfollow ing
f ect
v iron
ategor y
olut ion
b a
95 5
ĠT ra
Ġme ans
97 5
c u
Ġ 24
Ġqu ality
Ġt reat
Ġ 25
Ġre cord
Ġs it
Ġinclud e
96 5
ĠIn st
Ġth ird
ĠO ur
C D
Ġb enef
ĠUn iversity
oo gle
n ers
Ġspec ific
Ġ ess
Ġcont rol
ir l
Ġa uthor
ĠS u
le t
Ġsu ccess
iv ely
Ġof ten
Ġw r
T h
Ġeas y
F D
get her
Ġare a
Ġso ft
Ġen joy
Ġchild ren
ĠT H
Ġc ap
Ġpr ice
Ġp ast
oo se
Ġha ving
Ġs earch
Ġo thers
s ide
l ies
9 23
F E
ro ll
Ġa way
9 20
Ġp ain
S T
Ġed uc
9 26
b d
Ġm ar
Ġl ive
Ġwe b
98 7
h a
Ġloc al
ot s
Ġme an
ĠO ff
Ġre com
read y
pp ed
C B
are d
Ġimpro ve
a e
it ch
Ġfeature s
ĠB y
Ġin c
ar r
98 5
it ing
Ġb ody
Ġh tt
nC h
o ice
' m
80 2
Ġel ect
du c
98 6
Ġ *
im ate
ĠIn tern
Ġac ross
eth od
Ġf ocus
ward s
Ġmem bers
> "},"
f act
Ġre le
Ġm ess
Ġresp ons
ith er
Ġv ia
Ġh ours
Ġm ind
ĠD is
Ġm akes
Ġcl ick
Ġty p
ib ility
95 6
z e
ĠA g
! !
Ġto gether
96 7
Ġrecom mend
ĠN ot
Ġ â
viron ment
s el
y le
Ġ1 4
Ġad ministr
Ġm ove
m it
Ġ1 6
Ġl ight
a la
Ġs ing
] \
ĠServ ice
âĢ¦ \
Ġbe come
Ġc redit
ci ence
it or
e ed
Ġ 21
Ġus ers
Ġe ver
f ort
ro om
lo bal
Ġf und
Ġdevelop ment
ub s
Ġcle an
ut es
94 6
en n
P R
id d
Ġd one
Ġev ent
ic les
Ġm ult
all eng
ĠAr t
ig ital
ĠG u
b ack
ain s
Ġte ll
Ġex pect
ent ly
Ġte ach
Ġact ually
Ġre ason
Ġ1 3
um b
Ġl ik
Ġt ax
ĠC oun
ri ve
nA bout
Ġde al
ul ation
Ġst ory
I C
r ight
ure d
ĠP art
97 7
os ed
Ġm en
Ġrece ive
nLikeL ike
Ġcount ry
ar ch
aj or
Ġh ouse
an ies
Ġbel ow
Ġor ig
w ord
Ġs ug
Ġw omen
m p
Ġal ready
as k
Ġpartic ular
Ġun til
Ġp ot
Ġn ear
Ġbe aut
94 5
ĠM e
Ġdo ing
nP ro
Ġsh ort
I n
âĢ ĵ
o x
nT op
ol id
ĠA t
Ġl ow
u ff
at form
97 4
art ment
ĠP M
ĠHe alth
, \
Ġal ong
Ġto ol
ra w
Ġqu ick
Ġget ting
' re
at ic
Ġpre s
. ,
cri be
Ġf uture
96 4
O V
at ors
ro p
Ġtr ad
Ġre cent
nE mail
Ġa ir
Ġv ers
93 6
an ces
A L
Ġen ough
ĠHow ever
ur s
Ġo pport
e a
led ge
nR ep
Ġf ield
Ġsever al
Ġdid n
Ġo cc
ĠD es
ull y
ĠC oll
on es
i od
ci ally
Ġmed ia
O T
Ġm om
co ver
95 7
ĠD r
Ġj ob
ĠS chool
ug ht
Ġcoll ect
ed d
nD e
Ġp ri
nSh are
95 3
an e
l or
ur ch
Ġpost s
Ġex ample
Ġ1 7
at ural
Ġvar i
Ġcom es
Ġro om
ag ing
our n
Ġ X
ĠUn ited
ĠSt ud
t ed
Ġ 22
Ġrequ est
C F
cl us
Ġh uman
Ġv ideo
Ġke y
d f
ĠA M
Ġin te
up er
ubl ic
re en
Ġf ore
Ġr isk
ur ther
cript ion
Ġdoes n
Ġart icle
e ge
ra in
Ġ20 08
ra ft
ar ning
l i
Ġprovid ed
83 7
Ġtra ck
ce ll
Ġlar ge
nA s
Ġdisc uss
Ġle ast
un ch
u le
n c
Ġh old
nR e
93 5
Ġrel ation
94 7
ĠP lease
O M
Ġw in
Ġcontract or
a a
Ġcon c
Ġsome one
Ġsec urity
A M
en ing
at est
ag ed
uro pe
Ġrequ ired
le ct
er ed
nA d
Ġb it
nCont act
Ġon ce
il ities
et er
Ġle ft
p ly
ĠAmeric an
Ġresult s
al f
Ġ enc
Ġcle ar
Ġbrow ser
fer ence
9 22
Ġam ount
95 4
91 6
ĠO ut
ĠC al
Ġf av
Ġ :
ad a
Ġw atch
Ġper fect
Ġs ex
Ġf ar
Ġl ine
Ġt em
Ġiss ues
Ġla nd
* *
Ġwh ether
ĠSt ate
Ġst ep
nA r
i ans
ens ive
Ġstud y
Ġindust ry
Ġp ack
Ġs ide
IN G
ĠS ec
8 84
ord ing
ĠServ ices
Ġm ethod
aly t
Ġquest ions
Ġy et
Ġty pe
end ed
Ġf our
c ast
nF or
l u
ir t
b f
a pp
Ġ1 00
I ON
ĠC ar
1 00
Ġn ecessary
m y
Ġth ough
m e
Ġp olicy
ĠR ec
Ġag ree
Ġevery thing
pla y
Ġc ult
ro r
Ġof fers
Ġbelie ve
r id
9 00
97 3
erg y
id ence
Ġstr ateg
b c
Ġ +
Ġval ue
Ġcall ed
Ġread ing
Ġm ajor
end s
riv ate
g o
Ġb rand
A S
om an
91 5
94 4
m ost
Ġse ll
Ġcomp anies
ð Ł
96 3
Ġet c
Ġac cept
Ġman agement
98 3
Ġprofess ional
Ġchar act
ib r
nO n
Ġsub ject
b le
Ġgo vernment
htt p
f r
93 3
Ġopt ions
ĠO ne
Ġsu bs
ci p
oh n
.\ "
m m
er al
Ġt ext
Ġstart ed
Ġrep resent
Ġc amp
u ation
Ġd ue
Ġab ove
n a
ob ile
Ġ 23
nN ovember
Ġbr ing
i lar
s p
93 7
ĠA ct
Ġm usic
Ġ1 9
a ur
8 23
Ġinst all
Ġdet ails
h ing
if ication
Ġg ames
Ġd am
Ġch alleng
Ġan sw
Ġcan not
8 87
e es
Ġtechn ology
97 0
Ġe conom
and s
ĠF acebook
Ġoff ic
Ġinv ol
il t
Ã ©
Ġquest ion
og n
Ġh ot
Ġmarket ing
Ġwrit ing
Ġyou ng
8 00
Ġph ys
Ġus es
um e
bo x
Ġn ight
os p
ĠSt ates
Ġm il
id es
Ġcom ments
U R
ĠG o
Ġstr ong
Ġc ou
Ġw a
Ġright s
nPost ed
itt ed
Ġh ope
ore d
nO ur
ĠC ity
Ġbe gin
E T
Ġperform ance
ĠM in
ĠN ow
Ġen ergy
Ġw ond
ĠR eply
le x
Ġcustom ers
ut er
8 85
Ġc laim
ĠRe g
ur g
ĠM on
Ġg iven
nS earch
8 94
if ul
Ġ z
Ġsp ace
Ġtra vel
Ġleg al
Ġc al
al ys
8 91
nB y
ict ion
o id
end er
re ct
Ġper iod
Ġd ate
Ġw indow
Ġan n
Ġexper i
Ġpl atform
Ġab s
pla ce
Ġpre p
Ġf la
Ġens ure
i pping
ĠW orld
Ġcom b
Ġe y
u y
Ġre ach
ĠM arket
ĠA dd
Ġt erm
Ġp ort
ĠG oogle
Ġsoft ware
Ġto t
Ġopt ion
ail y
d a
ig ation
ĠE d
Ġcomm on
\\\\ \\\\
96 0
98 0
Ġh istory
ru ction
Ġt erms
t r
pe cially
Ġdo cu
Ġwork s
el ete
Ġc ame
un g
O S
Ġknow n
Ġme as
b all
Ġreg ister
a u
ĠS e
N D
Ġst ay
as ing
-- --
ag s
Ġe ither
ĠU p
Ġc ard
ĠE urope
ch e
ul es
Ġprovid es
nM ay
nA l
Ġany thing
un ction
f o
p ose
er c
Ġdel iver
Ġn etwork
Ġsh all
t ime
ak en
nS o
ff ic
Ġen vironment
Ġfin ancial
Ġre du
d o
est er
Ġ ,
ĠRe view
f ully
93 4
ec ut
Ġw alk
Ġst at
re et
8 26
ĠF in
Ġvar ious
ĠD ep
ĠL aw
Ġan t
ĠP re
Ġpre ss
nA ll
Ġc as
Ġwho le
ill ed
90 6
Ġs um
97 00
Ġb ad
ĠâĢ ¦
Ġfriend s
em ic
Ġreg ard
nE x
Ġpartic ip
Ġcomple te
80 51
Ġ er
n Q
ĠB usiness
Ġs elf
Ġtra ining
90 5
8 86
is on
Ġex c
s ing
Ġt aking
et t
ĠR o
Ġ 27
Ġl ater
f ic
r ation
m s
c f
ĠC he
Ġdown load
ĠC or
it ut
Ġcustom er
ition al
Ġear ly
p art
ĠT witter
Ġw ays
Ġm ot
Ġs ound
O L
olut ions
Ġyour self
Ġevery one
gu lar
s on
Ġw on
, \"
94 3
ĠH ome
Ġ 26
8 83
__ __
nRep lies
ĠB o
Ġass ist
so ci
Ġent ire
95 0
av ing
ĠA cc
Ġimp act
it le
an a
Ġa ge
ov ed
Ġsing le
Ġch oose
91 7
v ant
Ġse ason
Ġc ategory
ĠW ork
90 7
ĠC ol
it er
ĠP lan
sel ves
Ġess ential
Ġinclud es
Ġpart y
Ġsug gest
8051 802
ĠS pe
nTh ere
Ġaut om
Ġc oun
Ġhapp en
nWh en
Ġc rit
am b
Ġs cre
Ġres pect
la d
Ġc ity
b ed
c ing
g ing
ri ed
el t
l ic
Ġpol it
Ġv ol
Ġs ent
U S
ci ent
at ory
ĠS m
o on
alys is
Ġhear t
Ġse en
Ġpri or
Ġl oss
Ġm illion
nT o
ĠG r
u k
ip ment
ĠP er
ch ie
ic ro
Ġide a
' ve
Ġam ong
Ġproper ty
Ġ 28
Ġf urther
Ġa ud
re g
ĠB ook
Ġappro ach
ĠRe ad
Ġchang es
m ission
alyt ics
ĠP l
Ġc ut
f a
Ġr ange
91 4
Ġ ill
i ol
Ġw ent
v al
Ġtoo k
Ġdet erm
ag n
Ġpurch ase
ĠY ork
Ġapp ly
p ri
c d
ou d
90 3
v est
Ġp ick
ĠW est
ĠA fter
s y
ish ing
al t
Ġcomp et
Ġpre fer
nDe cember
l er
Ġex ist
nV iew
ou ch
Ġbuild ing
Ġtry ing
Ġ =
is es
Ġo p
n y
Ġknow ledge
w in
Ġmin utes
Ġcont ain
Ġsim ply
8 27
Ġcontin u
8 25
Ġun ique
on y
s c
i am
i ber
i very
m l
ub e
ĠP e
Ġle arning
nP rivacy
Ġit ems
Ġsim ple
Ġve h
Ġ20 07
ĠC ons
Ġh y
Ġl iving
Ġs ize
we et
le y
Ġbre ak
Ġso on
or ing
8 81
Ġneed ed
Ġser ies
nY our
86 6
Ġes pecially
nO ctober
g ress
Ġde b
Ġhtt ps
ear n
Ġsim ilar
ig her
Ġ @
91 3
ĠI m
Ġdef in
Ġas soci
ĠB r
Ġins urance
ĠN ational
Ġproblem s
Ġcre ated
Ġm atter
ĠO f
Ġr ate
Ġbas ic
E L
Ġsign ific
Ġm iss
ver age
st er
med i
Ġrel ated
ĠP ar
Ġcontin ue
Ġo il
Ġfav or
' ll
ers hip
Ġev ents
Ġvisit ors
w ise
at ur
Ġup d
Ġm ach
Ġfe ed
Ġg irl
O P
8 24
Ġh ost
ĠD ay
a cc
Ġword s
I L
Ġbeaut iful
8 11
Ġs w
Ġexp ress
Ġpop ular
g es
Ġn atural
ĠA re
O W
Ġhow ever
ourn al
erv ed
re w
Ġiss ue
Ġn av
Ġaddition al
n ov
8 21
Ġf all
Ġph one
ĠI N
8 96
Ġdif fic
W e
ĠCent er
Ġm or
ĠIn formation
duc ation
Ġqu ite
a pt
ess ion
c er
m ing
ag er
erson al
th ough
ĠS ome
az on
T S
op s
Ġf ace
Ġeduc ation
ĠTH E
T M
l ight
it i
Ġprot ect
iz ing
Ġc ir
90 4
nM y
em pt
94 0
Ġse em
Ġare as
Ġ x
Ġpr int
n ew
o es
ĠJ ust
93 0
87 6
8 95
us ed
24 17
ab les
nA dd
em ents
Ġpre t
Ġext ra
Ġcons um
Ġh om
Ġtru e
Ġp rivate
ĠPro gram
I V
opy right
Ġgener al
I P
Ġdesign ed
Ġhapp y
nA pril
Ġcond itions
h ib
ĠS outh
ĠB est
ro du
Ġw ish
Ġpre vent
8 22
et imes
el eb
Ġis n
ĠIn s
Ġany one
ĠW ill
nJ une
80 6
Ġsa f
nJ anuary
ĠA ust
ist ic
Ġus ually
Ġsystem s
mer cial
Ġm ark
D elete
ep end
Ġa ction
ĠA f
Ġst e
Ġs end
Ġoff ice
ir it
Ġrem ember
Ġf it
Ġfor ward
S h
nCl ick
Ġd om
Ġdo g
an ced
Ġlik ely
Ġal most
E M
Ġincre ase
Ġcl ose
Ġup on
nR ec
ĠR el
Ġlong er
nM arch
Ġ5 0
âĢĿ \
c y
Ġel se
Ġmod el
Ġb ar
nS eptember
81 5
Ġsa fe
u x
el p
Ġst aff
Ġmed ical
nA ugust
l ier
Ġconn ect
ar ant
le ep
Ġp ict
I M
l im
Ġorig inal
i et
Ġle ave
Ġtreat ment
âĢĿ ,
r ing
g y
Ġt aken
Ġprob ably
op h
Ġrep air
W h
ĠB l
ĠN orth
.. ..
Ġd igital
Ġadministr ator
Ġsk ills
Ġrece ived
84 5
Ġl atest
Ġad vert
80 7
Ġwrit ten
Ġappl ication
ĠG roup
Ġl ic
o ci
Ġsignific ant
nA nd
iv al
ĠP ark
j ust
Ġ2 9
a pe
az ing
8 20
ĠH ere
Ġf ive
ĠP res
80 5
Ġt akes
9700 2417
nReply Delete
Ġs ites
Ġa chie
Ġactiv ities
o le
Ġm ember
us es
81 6
Ġc ode
A P
Ġr ather
) ;
ep h
Ġ identif
Ġre d
Ġbook s
Ġm atch
I R
ĠH igh
ener al
Ġwond er
nJ uly
Ġb lack
Ġ ut
Ġto ld
Ġann oun
ill e
Ġwant ed
80 4
ĠH is
Ġnot hing
Ġpre vious
Ġh igher
com ing
ĠP rivacy
Ġhel ps
Ġpur pose
im um
Ġman u
85 5
ĠPro f
ĠG e
u ild
8 93
Ġpract ice
ĠD on
ubs cribe
Ġmanu fact
ch o
Ġpa per
Ġob ject
Ġset t
b ased
Ġadd ed
ĠTe chn
Ġf ast
00 00
as ons
Ġwe ight
ĠPost s
Ġappe ar
nG et
pp er
Ġcl os
à ¤
Ġout side
Ġfr ont
a ult
ag ram
bs ites
d c
ĠJ o
ĠJ ohn
Ġrec ogn
ĠAmeric a
Ġcom ing
86 4
ruct ure
a ign
Ġtop ic
ip le
C H
I G
ir th
Ġf irm
on ym
85 4
ce ed
Ġt re
Ġconc ern
iv ity
ie f
Ġrun ning
85 6
ast e
Ġlo ans
Ġs el
98 1
Ġt er
nH e
Ġstore d
Ġeng ine
i able
ab or
Ġcharact er
ĠF rom
Ġbo x
ĠA ir
it ation
Ġwor th
Ġre fer
am er
Ġd ou
Ġcol or
Ġweek s
97 1
Ġest ab
ak er
Ġs ol
Ġb lock
Ġg lobal
ĠB log
nE n
h ood
m on
Ġpos ition
Ġpot ential
a lan
port s
Ġ* \
87 5
ograph y
Ġcomple t
Ġfor um
form ance
Ġcor rect
r is
ĠIn c
Ġf ail
Ġpl ug
Ġtyp es
83 6
ĠTr ans
nF ebruary
Ġh on
86 5
in ary
ĠO ver
if orn
Ġg en
ht ml
nM ore
84 6
Ġh alf
Ġag re
Ġcom fort
Ġdiffic ult
Ġpubl ished
Ġc ell
ĠB ar
Ġg uid
Ġs ales
Ġmain tain
Ġtool s
Ġpret ty
Ġ {
Ġ language
87 4
ed eral
Ġ ðŁ
n es
l ist
Ġro le
Ġent er
Ġan aly
Ġm ass
f ace
l ow
Ġre gular
E O
8 98
Ġn orm
ĠF ree
Ġopport unity
ic a
Ġg ra
s u
Ġs uper
ĠL o
ĠIn ter
d b
e ase
ĠD irect
k y
Ġs at
ĠM c
r up
ĠG D
Ġex plain
ĠU se
on se
S S
b log
ĠD ata
Ġtr ust
23 5
Ġse ems
ist or
Ġvers ion
ĠCom ments
8 97
p ens
Ġrem ain
Ġex act
ĠB lack
iforn ia
Ġf oot
ĠCoun ty
f c
v is
Ġs ource
ĠC our
87 7
Ġbenef its
Ġprovid ing
h old
ĠB ro
ĠDes ign
il es
Ġde ath
ar i
Ġcl ients
OV ID
ĠP a
nF acebook
Ġprogram s
Ġk ids
ab y
Ġca use
Ġst op
83 3
83 4
ĠH er
c are
81 4
Ġpoint s
ĠW ord
S t
am a
ĠS er
83 5
m as
ĠE ducation
o ff
ĠĠ ĠĠ
olog ical
im al
Ġper cent
86 7
Ġem b
ci ety
o ver
ĠH ouse
Ġc ases
y ear
nH ome
Ġlo an
Ġf ire
or age
Ġsh op
k s
Ġp le
Ġwh ite
al ities
ĠC ookie
ĠCh ar
cell ent
Ġinter act
Ġmom ent
Ġcons ult
ud e
enc ed
Ġstud ent
Ġs elect
ĠAss oci
Ġread y
ĠA c
Ġins p
Ġgrow th
sh ips
Ġs ym
Ġcurrent ly
nU n
ĠIntern ational
n et
20 6
id ed
nR el
pos es
ple ment
Ġabs olut
st r
ie ce
Ġl ives
Ġs ens
96 1
Ġd est
Ġsk in
Ġdis play
Ġbeh ind
Ġallow s
Ġst yle
Ġb ank
istr ict
Ġsh aring
Ġb ed
Ġwr ite
Ġin j
Ġst ock
Ġacc ording
ad es
Ġquick ly
ategor ized
Ġt able
Ġw all
nN o
ĠT op
Ġde ep
ĠEng lish
h am
ĠComp any
ide os
Ġtot al
Ġdirect ly
Ġres ources
ust ain
f d
Ġbl ood
Ġmaterial s
Ġc y
d om
20 0
Ġcost s
Ġm ix
Ġim medi
ĠOn line
Ġeffect ive
ad u
Ġrele vant
Ġo bs
Ġf lo
c b
er ap
Ġmy self
Ġcomp uter
ar a
m iss
s es
Ġl ower
re ci
re l
Ġthrough out
sy ch
Ġde g
Ġnot e
Ġshow s
Ġv iol
84 7
ĠC are
U T
f b
81 3
c ul
Ġacc om
Th is
Ġex cept
Ġproject s
Ġs ense
Ġind ic
ra p
ĠG et
at ives
23 4
idd le
Ġequ ipment
ĠL ife
ll ing
Ġim age
E W
ĠInd ia
Ġrelation ship
nJ o
g round
Ġask ed
Ġcond ition
ĠTh anks
ĠMan agement
ĠSt e
Ġwr ong
ep ar
ĠDe velop
nN ews
Ġab ility
Ġc ert
P S
Ġw oman
it ute
ug e
81 7
Ġpr im
Ġcou ple
ĠE l
ist ics
Ġcoll ection
b it
Ġam azing
Ġexper t
Ġide as
85 7
a use
Ġpart ners
Ġins ide
ud d
95 1
i ally
Ġdec ision
el come
84 4
Ġfin al
Ġch oice
Ġaff ect
am ily
Ġeas ily
un ities
Ġim m
Ġne g
ĠGD PR
Ġwe bsites
nQ u
duct s
ir ing
p ar
ab led
Ġla y
Ġm ention
ĠAf ric
ĠWh ile
Ġorgan ization
Ġprodu ction
ad d
Ġdocu ment
est s
onym ous
nP h
Ġvari ety
ĠM od
Ġpay ment
Ġâ Ĩ
Ġex am
ill ing
Ġdet ail
Ġe p
Ġf ile
8 90
Ġcount ries
Ġd aily
80 3
m a
P M
o pping
ck s
Ġro ad
et ic
L C
es us
ĠL ink
Ġw ar
ĠD ec
Ġadv ice
Ġfl ow
Ġpur poses
Ġf ig
EN T
Ġlim ited
ibr ary
Ġintern ational
Ġt arget
p ut
ch ange
bo ard
Ġinclud ed
Ġdel ivery
ĠT erms
nF ollow
Ġeff ic
nP re
ĠL og
Ġansw er
ĠU K
20 5
Ġmess age
87 3
Ġ20 06
od ay
Ġan alysis
Ġin form
Ġmult iple
ĠP R
Ġindividual s
m ark
Ġse ek
; \
ĠP lay
Ġg round
86 3
Ġon es
ĠC ook
p ress
it ely
Ġext rem
Ġs ection
Ġinvest ment
Ġr ad
Ġs ale
nL e
Ġsaf ety
Ġhel d
Ġs ix
w ood
own load
ed u
c ol
P A
91 0
Ġbeh av
h ere
Ġim ages
Ġb i
is c
nWh y
Ġha ir
o ke
nR es
Ġwork ed
Ġdev ice
Ġappro pri
ing ton
Ġinte gr
b and
Ġpat ients
Ġf ix
ĠW ar
27 6
Ġdis cover
ĠAm azon
Ġar ch
Ġintern et
nN ew
e ch
14 6
Ġc ur
ĠMed ia
Ġsa ve
it ary
nC on
Ġhe av
Ġrespons ible
k er
m itted
Ġinterest ing
Ġthem selves
20 21
Ġ u
nAd vert
Ġd rive
Ġfil m
Ġen h
ĠÂ »
Ġp ers
ĠW eb
inter est
if f
il ies
Ġn ational
er ve
83 2
av id
Ġstand ard
Ġveh icle
ĠP at
Ġinst ead
Ġav oid
m ore
ĠR em
nP lease
Ġp an
Ġn ice
ar ies
Ġgroup s
ĠE v
ct or
ĠF irst
14 5
f ield
itch en
Ġthink ing
Ġlevel s
85 3
99 2
Ġit em
ot o
Ġits elf
Ġatt ack
Ġfavor ite
ve y
Ġf a
is ions
Ġim plement
Ġl ost
ĠO F
Ġ lab
Ġs olution
ĠRes earch
Ġc ash
84 3
la m
le ment
Ġ ver
Ġloc ation
com es
nN ecessary
ĠCal ifornia
Ġacc ur
ĠRe al
om s
Ġunderstand ing
ĠR et
Ġhigh ly
ĠT O
Ġn ature
Ġl if
Ġst ories
22 6
93 1
Ġs ect
Ġc eleb
C h
t ra
P L
Ġp rivacy
20 3
23 7
p m
Ġplay ers
Ġreg ul
94 1
Ġlook s
ĠT V
t ion
ĠCan ada
Ġcas ino
an ch
y l
Ġsit uation
Ġcamp aign
ug s
ar ter
ot es
let ter
Ġoffic ial
ĠDep artment
Ġ3 1
Ġinterest ed
Ġenc our
r im
ĠA ut
Ġt ouch
ĠPres ident
al ing
Ġpart s
e ature
Ġlink s
ĠE very
unction al
ĠC a
Ġrecent ly
Ġ Ð
Ġs ched
Ġphys ical
b ody
Ġrep ly
un t
Ġgu arant
st ate
ĠCh ina
ĠâĢ ¢
Ġb ott
ĠS ystem
Ġs epar
86 0
ĠR uss
Ġser ious
ĠM ost
ap an
ĠY ear
ĠAust ral
Ġint rodu
am s
Ġd riv
ĠA b
A G
Ġs olutions
Ġo pp
Ġw ide
ĠM ich
ribut ion
Ġconsider ed
Ġresp onse
Ġg ives
Ġbu ilt
5 00
la s
ĠP ol
che ck
ra st
Ġcomplet ely
Ġspe ak
Ġh it
I t
Ġm ag
ĠK ing
Ġa w
Â ®
Ġdam age
Ġest ate
el ess
Ġob tain
Ġm obile
Ġmod ern
Ġs leep
er o
Ĥ ¬
Ġsa w
Ġcare er
Ġrequire ments
v ille
nT witter
Ġcour t
l ation
k a
âĢ ¢
) :
z z
Ġp ages
Ġlead ing
ĠFr id
Ġgo es
ĠG erm
ron ic
Ġin nov
qu ired
por ate
n ect
od cast
Ġatt ention
Ġatt empt
ash ion
ĠS im
ther n
Ġorgan iz
l ike
ist ry
Ġcon cept
Ġreview s
Ġmeet ing
s et
ĠC OVID
T H
d ers
Ġag ency
O D
.\" \
ĠE ast
nd er
Ġc ool
Ġemploy ees
ĠS an
ĠP ay
25 5
Ġc ry
Ġexp l
id a
ph p
em b
ĠJ esus
Ġcomm it
Ġp ath
Ġactiv ity
ri ver
Ġt our
ens ion
Ġplay ing
ard en
row n
ĠTh ank
ĠAn y
ĠSt r
ĠA ND
ou l
Ġcent er
ore s
Ġpar ents
Ġstr ength
av es
Ġth ank
46 4
97 2
47 6
ĠAr ch
Ġidentif y
M S
11 6
n i
t op
nB ut
air s
23 3
Ġregard ing
Ġd raw
Ġ4 0
Ġcreat ing
8 80
Ġhand s
Ġre v
Ġcl in
Ġloc ated
ic o
22 5
Ġtrans fer
ult s
Ġs un
Ġapp reci
21 6
enc ies
Ġs cience
nu al
ĠL a
for ce
Ġinf lu
98 2
23 6
Ġplug in
ic ine
Ġex erc
Ġex cellent
Ġplan s
t ies
Ġres ident
anc y
ha ps
Ġa verage
= =
91 1
20 4
96 2
Ġinvol ved
ct ions
Ġop in
Ġnot ice
85 2
nS ubscribe
Ġgo al
r ay
wh ere
10 5
land s
ord er
Ġp ark
Ġind epend
ond on
Ġsom etimes
Ġsh ipping
Ġcomple x
Ġc and
nW ith
ond ay
ud get
ĠA p
m od
Ġclean ing
ar ily
ire s
20 20
17 5
am ent
Ġs ong
ĠP la
ĠG ood
Ġdefin itely
Ġch ance
Ġdo or
c il
36 5
Ġscre en
ĠH ar
as y
Ġcult ure
Ġg ain
oot h
Ġget s
10 6
is ement
ĠP ort
part y
al d
Ġt ro
Ġother wise
ĠColl ege
nD es
21 5
olic ies
ĠCon sent
edd ing
ĠFrid ay
11 5
Ġabsolut ely
Ġappl ic
e ep
n ews
t ag
Ġm is
Ġg iving
Ġl ate
lan t
p a
Â ©
nRel ated
ĠIntern et
it able
Ġsett ings
Ġdevelop ed
âĢ ¯
Ġc ra
Ġf ight
ĠS elect
ĠS um
att le
30 6
Ġpolit ical
iz es
a el
Ġst ra
Ġre asons
ĠE ar
ific ate
Ġdes cri
if ications
our ney
ch an
Ġj ud
ci ous
Ġpos itive
Ġm us
k now
ec ause
Ġjo in
Ġar gu
Ġr ules
I I
L E
Ġgu ide
Ġass ess
Ġappropri ate
13 7
ĠAl so
Ġpa id
Ġfull y
ĠM r
ig ate
cho lar
ang er
olog ies
ke y
id ing
Ġst uff
25 4
Ġsub st
ĠC le
ĠWe ll
ĠS w
ĠG reat
ĠN e
eg al
ĠÂ ·
ĠG eneral
Ġpass word
ĠTh en
Ġst orage
Ġprofess ion
Ġd iv
P ress
Ġp iece
Ġf air
Ġre lease
Ġto wards
b or
Ġregister ed
Ġb alan
Ġ >
Ġqu al
Ġeffect s
Ġs us
Ġst ates
Ġd ream
A Y
o ly
Ġsay ing
Ġassoci ated
Ġmach ine
or ney
Ġbusiness es
Ġdiffer ence
istr ation
w o
Ġs qu
Ġd a
ĠB rit
Ġa uth
n o
ĠD el
ri al
act ion
Ġst ress
ĠT y
Ġspe ed
9 28
Ġtop ics
ĠP ersonal
ĠChrist mas
Ġpr ices
Ġem erg
Ġr ates
T R
Ġredu ce
Ġb all
Ġcons ist
Ġmor ning
Ġhealth y
Ġfre sh
um ber
24 4
ĠOff ice
13 3
qu is
Ġp en
Ġstart ing
ur b
Ġpro gress
r an
ib ly
nAr ch
Ġsum mer
Ġcon duct
Ġinst ruct
Ġachie ve
13 5
Ġt el
Ġad s
Ġsur pr
16 6
Ġf elt
Ġtechn ical
ĠS cience
Ġw arm
z y
ow s
Ġpr in
am ed
Ġs il
Ġin iti
r ate
ov ing
Ġfunction alities
ic ated
\ ":
Ø §
ur ation
Ġsupp ly
Ġc ross
f ord
k en
Ġresp ond
Ġsat is
Ġ ic
Ġplan ning
se qu
Ġpart ner
Ġt ask
Ġto wn
at al
26 5
Ġpre d
it ect
Ġb ase
ĠS ite
ĠWe bsite
24 5
em y
27 5
Ġs old
Ġprom ot
* \
Ġphot os
O C
ĠS k
re st
ĠD et
h ouse
l in
Ġm ax
und ay
95 2
nP er
c el
25 6
ca pe
10 3
ĠMon th
81 0
osp ital
26 6
37 5
21 4
nN ot
Ġe arn
22 4
nTh anks
Ġprot ection
c ame
22 7
ĠC ustom
20 7
Ġm other
iv il
ĠD em
is ode
ĠDevelop ment
Ġbas is
Ġcar ry
Ġass ign
ult ure
16 7
ĠL et
Ġproper ly
ĠT ime
d own
w ide
ĠMarket ing
Ġexact ly
Ġaff ili
ĠF ound
ren ch
Ġem ot
Ġdec ided
\\\\\\\\ \\\\\\\\
y ond
Ġh uge
or ge
Ġgr ant
st ic
00 5
at ically
85 0
nT r
Ġth anks
Ġt ips
Ġwas n
ĠSo cial
Ġinter view
i j
am ing
Ġ Ã
Ġdr ink
Ġopport unities
Ġfeel ing
Ġtr ade
Ġcertain ly
nD o
24 6
Ġr en
Ġpre m
Ġmean ing
05 4
Ġh or
ĠM em
ag ue
Ġimmedi ately
Ġro und
u la
13 6
Ġey es
A Q
nC ategories
26 7
Ġwa it
ex as
ĠW ater
amp les
Ġadv ant
Ġstrateg y
93 2
n https
Ġeconom ic
ĠV iew
Ġal tern
26 4
Ġbe came
Ġpla ces
ecut ive
Ġde ad
in ue
Ġth erap
ul ty
Ġpart ies
Ġs av
83 0
um s
Ġbut ton
Ġsu ff
ĠWe ek
Ġhear d
en ior
Ġparticular ly
p to
Ġsp irit
ress ion
anc el
21 3
Ġg ift
ĠEurope an
Ġact ive
21 7
nTh ank
Ġh um
E G
Ġsp end
Ġallow ed
ĠC ert
Ġhtt p
Ġinte ll
Ġb irth
90 1
Ġpro s
nH i
nP r
Ġart icles
ic ip
Ġbro ad
Ġwonder ful
Ġmeas ure
Ġappl ications
ant ly
ĠSt reet
m ar
Ġg reen
ĠP an
u el
Ġd ark
Ġsuccess ful
Ġplan t
ĠPro ject
Ġtri p
Ġchar ge
Ġrem ove
85 1
olid ay
ĠB ank
Ġpost ed
ĠO pen
ent y
f ree
im ately
14 7
en ed
u ed
Ġg old
ĠSc ot
Ġ20 05
Ġnu m
ĠBo ard
w ith
25 3
10 4
Ġw ood
ĠC lass
ĠM ag
Ġbe yond
n b
Ġev idence
anc ing
Ġrel ig
Ġfre qu
Ġim ag
ĠWh y
el er
ir us
z a
ĠA tt
ru it
Ġmethod s
Ġl oved
en a
h ow
Ġcir c
ĠC ond
ĠS ee
Ġinst itut
o ices
ĠR ed
irt ual
Ġcom mercial
er ia
ĠY OU
ĠO ther
84 0
ff ee
11 4
I A
Ġev al
r ict
Ġh istor
ĠA v
Ġ[ âĢ¦
ew ork
Ġpress ure
Ġtrad itional
ĠO R
ess ions
Ġf arm
as c
Ġp oll
ĠE m
Ġex clus
11 3
con s
Ġ- -
b on
Ġer ror
ĠV is
L S
Ġtru ly
Ġc opy
Ġoffer ed
Ġfor mer
ĠL ist
ĠA bout
36 6
ĠJ apan
atur day
Ġdis ease
Ġmay be
Ġinf o
22 3
Ġdem and
y d
Ġa im
us band
37 6
Ġh our
Ġsl ow
Ġbenef it
Ġ <
ach ing
15 5
Ġt im
ĠUs er
Ġp i
ĠP ublic
nc ookie
15 6
ven ue
ĠCour t
Ġcommun ication
ĠN ov
la win
ĠRep ort
oc ation
lawin fo
ri p
ĠP ower
ick s
ncookie lawinfo
j a
Ġuse ful
ik ed
Ġs cient
ĠInd ian
Ġca pt
Ġgo als
Ġl iter
Ġg ave
Ġh ous
os it
C T
pro f
g g
te e
Ġbe gan
\" .\
Ġadvert ising
Ġshare d
Ġcon vers
nA t
Ð ¾
ĠA R
nO ne
ĠCh ild
Ġch urch
ro te
Ġmov ing
Ġref lect
Ġs ort
Ġfam ilies
on ent
ĠCont rol
ĠAn g
Ġs ustain
Ġlaw s
Ġcour ses
Ġlim it
Ġl ock
ĠR ights
nRec ent
ĠCont act
Ġal one
Ġn or
Ġpro ced
Ġ ...\
ĠS T
Ġsec ure
os ure
Ġt itle
ĠIn vest
ĠP ress
P T
Ġnorm al
27 4
ĠE ven
Ġm er
e ff
Ġin come
Ġrest aur
Ġtem per
Ġgrow ing
94 2
Ġth reat
od es
miss ions
Ġb on
ash ington
ĠCook ies
U N
27 7
ĠF ood
it iz
oc al
24 3
Ġelect ric
Ġad just
Ġtri ed
nL og
ĠG old
24 7
ugh ter
ĠS ch
Ġsp orts
ap ter
Ġman age
in ated
ic ed
ol es
Ġval id
/ \
Ġf ine
Ġpat tern
36 4
30 5
Ġup date
ĠE lect
Ġchang ed
em p
co very
45 6
Ġf em
Ġb us
pect ive
O G
17 6
Ġexpect ed
b urg
Ġp ush
ĠWh ite
Ġk new
35 6
Ġtra ffic
cre te
ĠL ondon
10 7
C om
15 4
ĠSu pport
00 6
Ġc art
B S
17 4
ate ver
Ġanaly ze
p ite
Ġeff ort
Ġcoll ege
Ġ ult
il s
ul f
Ġcl ient
Ġp ull
Ġs on
Ġconn ection
Ġth ous
ĠUS A
Ġstat us
ol f
in ner
\" ,
U L
ĠF lor
Ġb ra
Ġprocess ing
U M
Ġexperi ences
Ġsm art
ĠG reen
Ġpro pos
Ġnum bers
iqu es
C R
Ġm id
ĠSec urity
ri ef
26 3
87 0
f riend
Ġe at
Ġt en
Ġas pect
Ġdeg ree
âĢ ĭ
Ġut il
Ġbegin ning
g en
Ġd ed
11 7
ed ia
s m
Ġm ount
ĠL ead
n t
nB log
Ġexp and
Ġstep s
Ġd ry
ĠM et
ĠÂ» \
Ġown er
Ġeas ier
Ġhelp ing
ĠComm unity
ĠV ol
ĠEx per
al ent
13 4
Ġcl oth
arr ant
ĠS ur
a ps
oc r
Ġwant s
ĠEng ine
Ġj ourney
rit ing
Ġ ...
Ġmod er
pt ion
Ġfil es
Ġtru th
Ġ6 0
nN ext
n ecessary
i pped
Ġd ro
55 5
00 1
16 5
az ine
00 3
i ance
un k
Ġre ve
ĠW indow
ĠM ac
Ġfe es
Ġreport ed
Ġcoll abor
ĠPe ople
Ġthought s
14 4
Ġdo ll
Ġatt ach
N Y
Ġre place
Ġmov ie
ĠE mail
nO r
ch es
ĠF ore
Ġatt ract
à ¹
n ed
25 0
Ġser ve
nF irst
ĠPr ice
ĠH ot
know n
ĠI S
ter m
Ð °
99 9
Ġsh own
Ġrele ased
Ġprot ected
Ġd en
Ġcap ital
ur t
ĠM any
Ġw rote
nS ign
ad o
Ġne igh
Ġ ing
ivers e
E V
C L
Ġbro ught
nN ame
Ġd at
Ġprof ile
Ġtalk ing
p et
Ġh usband
re h
ac es
en ess
on a
nLe ave
Ġan im
ook ing
Ġhelp ful
Ġp olicies
ĠTe am
av a
O pens
N A
Ġpract ices
nAdvert isement
Sh are
Ġstud ies
P h
st on
ĠL im
Ġaff ord
Ġset ting
ĠChrist ian
ĠL ove
Ġs ession
ĠF R
Ġv ideos
adu ate
Ġen able
ĠI T
ing er
Ġbott om
55 7
nCl ose
Ġturn ed
Ġstra ight
Ġclick ing
ĠTechn ology
check box
Ġexper ts
Ġincre ased
Ġey e
Ġorganiz ations
Ġrequire s
Ġla ck
und red
Ġdev ices
00 4
10 2
Ġhe at
and emic
Ġdem on
h an
20 1
or row
Ġapp oint
ĠL earn
37 4
nB e
ĠC r
f l
30 4
Ġh arm
ĠAcc ount
Ġb aby
ĠF amily
ĠA ccess
Ġincre asing
ĠWord Press
ĠCh urch
Ġf at
ad emic
in ate
ad s
Ġpat ient
Ġn ation
Ġf ear
Ġhelp ed
Ġcont ribut
Ġb udget
Ġre pe
R S
ed nes
we ll
\" \
g age
35 4
91 2
88 2
nLikeL iked
Ġa ward
ĠC ontent
---- ----
ĠS ub
Ġsp ent
Ġar riv
Ġfa ith
or ial
rib ute
Ġconst ruction
Ġpower ful
90 2
Ġreg ion
y er
Ġfin ally
Ġl ed
86 1
ĠCh ange
16 4
Ġexperi enced
80 1
ar ian
Ġb atter
Ġover all
Ġt ick
ĠS af
Ġextrem ely
Ġg l
37 7
Ġfe ll
Ġstate ment
N L
ĠO b
Ġview s
ĠS pr
ac ity
Ġsp read
ens es
ro s
ra el
l ished
25 7
R A
ef ore
ĠE mp
Ġm att
ĠF orm
ec es
Ġmod els
Ġv ict
ues day
O K
ig ence
as ure
ĠAssoci ation
it ude
Ġgener ally
ĠScot land
83 1
10 1
ĠB et
ĠB uy
ĠÂ ©
ĠM ake
ab ilities
17 7
65 3
y a
Ġenh ance
Ġtemper ature
r ics
Ġchalleng es
in ese
nArch ives
Ġg as
11 1
ĠGu ide
84 1
Ġf ant
Ġw ife
ot a
os ing
Ġmess ages
nA fter
Ġoffer ing
D S
Ġphot o
Ġreport s
Ġf ederal
up s
I F
Ġstr ug
Ġme chan
oo f
Ġpict ure
Ġp et
ĠM onday
ĠRep ublic
Ġar en
y ing
____ ____
Ġplay er
Ġhappen ed
Ġsur v
i ant
20 2
ĠL ord
h i
Ġgreat er
Ð µ
Ġupd ates
por ary
ĠChe ck
Ġgu y
87 1
Ġs n
âĢĿ .
int s
n by
ĠM or
ten ance
Ġst ream
Ġv s
ednes day
Ġtrans port
stand ing
Ġc ru
Ġst age
45 4
Ġschool s
15 3
Ġ[âĢ¦ ]\
qu e
i ation
ĠL ike
Ġf ab
Ġpol ice
Ġsub mit
Ġcrit ical
ĠS unday
Ġdeterm ine
95 9
Ġfeed back
44 5
n am
55 6
ra b
ĠC ap
ic ious
Ġfact ors
it ness
Ġexist ing
15 0
il ed
47 5
ĠW omen
re ak
ell ow
30 3
33 3
Ġj ournal
ĠB ack
re sh
Ġ }
Ġpr ay
ous ly
Ġlot s
nL ink
ro id
g n
Ġso ciety
ĠD avid
ĠH elp
44 6
Ġdi et
837 55
ĠA P
ag o
? ?
Ġc amer
nI s
ER S
00 7
ĠN ame
Ġfor ce
Ġinc or
Ð ¸
T ube
ĠAd v
ound s
46 6
Ġra ce
Ġcan cer
al ed
ind ing
ĠT exas
so ft
sh op
Ġhim self
Ġdou b
ĠPh ot
Ġadv ance
m at
27 3
ĠT ru
Ġg lass
urs day
i ability
Ġg e
nC he
46 5
33 4
r ated
ang ing
Ġp sych
ĠS ign
ĠB ig
in c
nC an
ĠM usic
Y ou
ĠS ing
Ġjo bs
ri age
Ġprim ary
Ġpe ace
ag ged
r ad
G B
ed om
ĠJ ack
p ons
l ife
Ġfield s
ĠA uthor
ĠAustral ia
Ġche m
nD on
Ġs ources
Ġst ructure
la x
Ġ ident
Ġv acc
87 83755
Ġf ather
Ġor ders
8 28
Ġmil itary
Ġw ild
Ġlist ed
el ines
nS u
ĠTr ump
Ġar r
ĠPro t
44 4
Ġinj ury
ĠH all
11 0
ĠU nder
07 5
est yle
H S
Ġact ual
Ġlook ed
Ġh op
Ġgu ys
35 3
Ġm ail
c ont
Ġwe ar
ly ing
ast ic
Ġun s
erv ation
ic ing
nTh at
Ġfe et
Ġbehav ior
Ġteam s
Ġcommun ities
Ġb rain
ĠN OT
uild ing
nL earn
Ġw ww
Ġprofession als
ĠF OR
Ġc ards
ak ers
ĠT oday
h ol
ĠC amp
ĠW ashington
. )
ĠN etwork
Ġun less
wit ch
nO ther
ĠCoun cil
n m
Ġeff orts
ed s
ĠC all
Ġc old
ĠInst itute
k i
red its
ĠOn ce
ĠN or
ĠSpe cial
al m
or ry
Ġprefer ences
b ing
Ġh undred
Ġint ended
us ing
C S
Ġcreat ive
Ġmon itor
Ġs up
Ġinc red
ĠCl ick
urr ency
vers e
act ions
ĠI D
ĠS earch
ri e
Ġm ental
Ġro ll
Ġsee ing
30 7
Ġcl imate
Ġg rand
Ġcover age
all ey
20 19
Ġlead ers
Ġm ission
F L
Ġupd ated
ur er
n p
44 7
yn am
ĠCon st
ĠPa ul
ĠH istory
nEn ter
ap ers
Ġpla ced
Ã Ĺ
Ġnu r
Ġhigh est
ĠE p
Ġnear ly
Ġpo or
Ġv oice
Ġfin ish
Ġha ven
Ġapplic able
Ġnav igation
f ol
35 7
ĠD an
Ġgo vern
AT ION
Ġback ground
a ught
36 0
er ry
Ġwh ose
ĠâĨ Ĵ
Ġatt orney
en u
Ġa ware
05 6
% \
ĠMed ical
Ġl ines
ĠP o
r d
et te
06 6
Ġ ir
Ġlar gest
66 6
Ġpl us
Ġed it
Ġcould n
ĠJ an
Ġestab lish
im ent
ann el
ĠIns urance
ĠPro v
Ġmention ed
Ġlead er
Ġpass ion
Ġsur face
Ġsp ot
Ġd ress
Ġpost ing
Ġcomple ted
ĠReview s
Ġear th
il ing
Ġh ar
Ġautom atically
Ġchalleng e
Ġex change
f in
ĠM icro
Ġla unch
at ively
ĠRo ad
Ġtra in
Ġwe ather
p ond
use um
Ġdisc ount
Ġcomp la
Ġflo or
Ġre ality
Ġexerc ise
81 2
Ġplay ed
Ġtr ading
Ġorig in
re y
N U
A V
N S
Ġb orn
ĠS aturday
76 5
Ġcont roll
Ġthere fore
Ġ 35
ĠB el
ed In
ĠT est
15 7
ĠInst agram
i os
' d
Â ½
all ery
ĠDirect or
ect ive
Ġw id
Ġsel ection
Ġa head
14 3
ir gin
Ġob l
55 4
Ġprodu ce
ĠH uman
la w
Ġb urn
Ġs em
es ome
it ure
Ñ Ĥ
16 3
Ġ eth
nI nd
Ġser ver
Ġg ar
Ġrest rict
z er
âĢĶ âĢĶ
ĠAfric a
nAr t
Ġad op
ĠCom ment
ĠSt ar
Ġform s
ĠÂ £
ĠProf ess
Ġent ry
93 78
if ts
Ġm ill
nIn st
Ġl ose
ĠI ss
1 23
Ġassist ance
do or
ist ance
Ġtest ing
idd en
36 7
Ġindepend ent
st e
Ġspecific ally
oy al
E X
clus ion
oo p
Ġstrateg ies
Ġl ength
ĠC ur
it ial
Ġfund s
ĠWill iam
Ġcand id
ĠL LC
Ġocc ur
Ġm icro
Ġfind ing
Ġcomfort able
Ġprovid er
** **
Ġro ck
ĠD istrict
nTh ese
nH ere
Ġeffic ient
M A
Ġteach ing
ĠS ince
Ġm iddle
ist an
Ġwork ers
ify ing
Ġpres ident
Ġclaim s
ĠG lobal
Ġic on
Ġocc as
Ġown ers
ĠB ra
nR eg
nS ub
Ġacc ident
Ġb and
vent ion
Ġst ation
ĠS un
Ġsh ip
Ġopt im
Ġlearn ed
37 3
Ġestab lished
rid ge
ĠSh are
Ġcont ains
Ġprin cip
Ġdo ctor
ĠC ard
20 18
ĠF rench
qu est
Ġrespons ibility
ner gy
nJo in
Ġagre ement
tern al
ri an
co in
j o
Ġper haps
Ġb illion
Ġmove ment
N T
Ġcon ven
Ġconf irm
ul um
47 4
Ġg raph
Ġref und
ĠF l
ĠM at
Ġstand ards
46 7
oll y
Ġs weet
ĠL ight
ĠC A
Ġent ertain
Ġhom es
Ġear lier
ĠPart y
un te
Ġcomp ared
ĠM us
21 2
ĠO ld
Ġno vel
Ġbalan ce
Ġrelation ships
Ġph p
ĠE ach
nB est
Ġcover ed
Ġl uck
{ {
Ġrecord s
ĠAn n
ĠA ff
Ġsur round
ĠF und
ĠM ark
Ġn ames
Ġb reat
Ġpop ulation
ain t
Ġdec isions
Ġfe e
ire ction
/ ?
n l
ĠSt art
Ġdep end
Ġhapp ens
ĠApp le
Ġ20 04
Ġrecommend ed
F T
Ġchang ing
Ġreg istration
Ġval ues
ĠFlor ida
Ġf ill
i ency
Ġlet ter
Ġ )
om b
Ġhand le
ĠIs land
ĠM ary
Ġact ions
on ents
it a
Ġlar ger
ĠY es
nWe bsite
Ġbe g
end ar
ĠCl ub
un ately
ĠTra vel
Ġp andemic
Ġdis cl
Ġal though
17 3
Ġexpl ore
Ġoper ations
ic ate
ES S
45 3
Ġwh atever
and a
x y
Ġant i
Ġt end
Ġs yn
Ġr ich
11 2
Ġdescri bed
ag on
ĠN Y
Ã ¡
Ġre ci
Ġob vious
Ġret ail
nA pp
oo st
Ġr ank
ut y
Ġdocu ments
Ġannoun ce
Ġold er
nF rom
Ġf ram
ĠM ain
Ġk n
Ġbuy ing
ĠFin ancial
Ġadvant age
Ġbrow sing
ĠEn ter
nL o
Ġg one
ĠD igital
Ġnu mer
c an
Ġv ac
Ġan nual
p age
Ġide al
i pp
ĠB ecause
Ġgu ess
1 98
Ġpict ures
ĠIs rael
ĠJ ames
Ġlead ership
Ġprodu ced
nS ee
e h
Ġbl ue
â Ħ
Ġmov ed
o ro
ĠI I
Ġded icated
ĠR ich
ĠOr gan
21 0
47 7
mer ce
ĠK now
ĠG ar
pro duct
Ġst ri
Ġel ements
75 6
Ġk itchen
om a
Ġplatform s
76 6
1 25
Ġsex ual
Ġhon est
Ġst ick
Ġb an
ĠDis c
Ġaud ience
Ġphp BB
Ġm ist
Ġex hib
nY es
Ġsh oot
Ġnav igate
Ġc ast
06 5
nC ookie
ĠC ong
45 7
t a
Ġdi agn
clud ing
Ġ20 23
Ġsh opping
ĠS em
Ġing red
Ġcharact ers
n f
Ġcirc um
T C
ĠC as
in i
Ġ )\
Ġknow s
ĠF il
86 2
Ġw he
ĠCh inese
20 17
Ġcont ext
Ġgirl s
ĠM art
Ġeconom y
Â ¿
Ġfig ure
ear ning
nCom p
Ġd rop
el ine
ar io
Ġb la
ch em
Ġco ffee
Ġprocess es
ĠS am
os h
ĠE qu
ĠðŁ Ļ
3 00
ab ase
ĠGo vernment
Ġcal cul
and er
nSt ud
75 4
Ġd ating
Ġw arrant
Ġpi eces
E P
36 3
all s
Ġweek end
Ġw elcome
ind s
os is
ĠInd ust
Ġtechn iques
46 3
/ "},"
ind er
Ġopin ion
84 2
i ers
ree k
ĠComm ission
ĠR ob
ĠP age
ric ulum
ĠCond itions
23 2
ĠTra ining
Ġdriv ing
an ia
76 4
Ġdou ble
ĠS om
Ġannoun ced
Ġb ath
07 6
ĠM iss
81 47
Ġd ig
Ġprovid ers
Ġn amed
ĠBrit ish
Ġf ashion
Ġcon v
20 16
il os
oc u
os ition
ill a
Ġsc en
ĠR ock
Ġca used
oun ce
Ġs al
Ġv ot
Ġdiscuss ion
ĠQu est
Ġg ather
s pe
Ġimp ress
Ġst ar
nAn y
ĠSt and
R L
nT ra
ĠH ave
in os
P ro
Ġatt end
Ġst ruct
ount ry
nM ar
n http
T A
S A
Ġaccur ate
nPer formance
Ġb ur
Ġqu ant
Ġb oy
ĠR oof
ĠF ire
nI m
ĠV al
Ġsl ight
is ation
d y
Ġcall s
A n
ĠSh ow
Ġdevelop ing
Ġb ill
U D
Ġke pt
ir ation
âĦ ¢
as p
Ġun it
Ġdemon str
Ġf lex
ĠIn t
ĠFound ation
Ġf an
Ġcl oud
nM an
Ġ 90
ĠG ra
ort gage
ent ially
OR E
Ġme ant
S P
ĠT ur
ĠO h
nT e
Ġro b
S E
Ġsched ule
Ġre cip
N G
Ġwould n
21 1
p ay
. )\
25 1
ĠN one
i at
ĠWindow s
24 1
Ġtechn ologies
es is
Ġclass es
Ġest im
ĠJ ul
f ast
ĠSo ft
22 2
il er
Ġcomp reh
Ġlic ens
Ġcontinu ed
k es
Ġfun ctions
984 9378
Ġ 80
ĠB ill
Ġres erved
oo per
i la
44 3
Ġvis ion
ic ial
Ġvis ual
o e
Ġkeep ing
ĠC BD
Ġm ale
Ġc raft
x i
I Y
20 15
Ġsc ore
Ġcl osed
I B
rup t
ĠW atch
ĠS il
34 3
Ġdec ide
Ġproper ties
H R
ĠS to
Ġmark ed
Ġl iber
Ġ ign
Ġguarant ee
Ġp ool
ov es
I f
Ġpro ceed
Ġdr ug
ĠSer ies
d es
97 8
Ġplan ts
ook s
w est
ĠIn te
ill er
ik i
ĠComm it
view s
06 4
ab et
ark s
Ġlic ense
P C
22 1
Ġwa iting
ES T
Ġappreci ate
ĠAdd ress
Ġsatis f
k in
ent ure
ck now
nA m
at in
Ġthous ands
Ġfore ign
ĠE conom
ĠM ex
l ict
87 2
H T
ĠJ ournal
55 3
Ġsel ected
Ġpack age
nF unctional
Ġappl ied
ĠAn t
Ġwor ry
urn iture
Ġcent ury
Ġarch itect
Ġre lax
tt ers
ĠN ext
ĠðŁĻ Ĥ
Ġfollow ed
nT erms
Ġst y
Ġt ree
ĠO pt
Ġhot el
nWh ile
Ġb ound
ĠâĨĴ \
ĠF ull
nP ubl
ĠB ay
est ival
Ġbe comes
Ġcoun ter
Ġes c
ĠL ab
Ġcr is
ang es
b um
b ut
Ġcap acity
c ategorized
Ġbig gest
ĠSu pp
Ġopen ing
Ġpresent ed
nN ow
pt oms
nPre vious
ed y
l ink
Ġc itiz
cl es
Ġm aster
Ġb ag
ĠC ode
ic ian
Ġad apt
est ic
Ġreci pe
Ġf ol
go ing
â Ĥ¬
0 44
Ġs olid
nS pe
ĠS ports
ĠC y
47 3
ĠI P
Ġheav y
25 2
Ġinstruct ions
ĠR est
Ġadv anced
ĠO ct
ab in
Ġmot or
ire ment
am in
us ion
Ġm o
nS ome
Ġserv ed
p an
Ġch at
n Z
ect ions
amb ling
ĠS uper
ĠL eg
Ġmem ory
Ġconn ected
Ġconcern s
loy ment
ĠC ore
75 7
Ġr at
Ġlo ad
Ġadv is
ĠAd ministr
pr ene
i i
Ġdeliver ed
Ġc ore
Ġda ughter
Ġdep ending
Ġ 45
Ġbeaut y
ĠS en
ig er
ĠC reat
el e
76 7
Ġmin imum
un ning
ĠU k
= \"
77 7
ĠCent ral
X X
ĠA TM
Ġmarket s
Ġm ap
Ġeval u
ick en
ĠM a
Ġcoll ected
ber g
Ġan g
ĠM ont
ĠT ax
Ġread ers
ĠV ideo
ĠSum mer
Ġp ow
Ġfla v
Ġra p
Ġd er
ach es
EA D
ĠT om
ĠL ake
Ġsug ar
Ġsupp lier
Ġbe coming
y ou
Ġen roll
> \
Ġpain t
ĠAng el
Ġpass ed
nM e
66 5
ĠP ubl
ĠP et
ĠA ud
Ġclear ly
Ġlab or
23 0
ri a
nA cc
Ġprep ared
4 00
ĠM ount
fer ences
Ġfor get
Ġsepar ate
ĠThe ir
p re
Ġreturn ed
Ġcontinu ing
n ight
Ġ20 0
p oint
1 26
ul ations
ĠSt at
EC T
ĠâĢ¦ \
it ors
Ġsm ooth
Ġind ex
Ġf ans
Ġsell ing
Ġin itial
ĠBl ue
ã ģ
R e
is her
30 2
Ġtyp ically
t d
Ġra re
E x
Ġd anger
ĠAr ts
Ġsec ret
05 7
ĠWh o
Ġmajor ity
Ġpar ent
âĢ ĺ
ĠD iv
Ġaccount s
ĠR iver
nC opyright
ĠL u
h ab
i en
ĠComm un
ili ar
ĠEar th
Ġexc ited
07 4
Ù Ħ
il it
Ġv ary
Ġinterest s
Ġfocus ed
Ġcol ors
Ġcell s
k m
b r
Ġsect or
Ġd irection
Ġm at
um m
Ġconf ident
re prene
nT ags
Ġtherap y
nB ack
ĠT uesday
Ġto ward
b ol
Ñ ģ
c raft
Ġsom ew
Ġpred ict
ĠMich ael
ĠCol or
Ġbon us
an ing
K S
94 8
ĠJ ew
ĠC ancel
Ġg lo
ci ences
Ġappro ved
Ġpay ments
Ġw edding
nB uy
cept ion
Ġw inter
H A
R I
Ġsh ape
75 0
ic ago
e en
A r
Ġst ars
um n
77 4
nB usiness
Ġ lan
96 8
re ement
ĠT our
Ġnumer ous
ĠE state
Ġaltern ative
pr ise
Ġmain tenance
U P
Ġcircum st
enc ing
nD r
in ct
u a
Ġform at
Ġh oliday
Ġgood s
Ġfor g
95 8
ch ar
re es
Ġsit u
om as
ou thern
ĠR ad
T V
Ġsound s
ĠC O
ĠW ednesday
Ġset s
Ġmil es
ĠP C
Ġ label
Ġsh ot
Ġh ospital
20 14
Ġcomp ar
ĠL ong
07 7
on om
Ġfriend ly
ow l
ĠApp l
et ry
Ġoper ating
ĠE nd
56 5
24 0
ĠB i
ĠStud ents
Ġg lad
98 8
ĠP en
Ġcomm itted
Ġc atch
rel ated
Ġmen u
u able
13 0
A pp
Ġrel iable
ce an
88 8
Ġcent ral
ro ad
ĠM ember
Ġcontin ues
com p
ol ate
Ġphot ograph
ĠN eed
Ġman ner
ro y
nF ind
ist ant
or ation
el d
ĠR ober
Ġmeas ures
Ġtro ub
Ġw ine
ĠG en
ĺ ħ
id ge
ĠM ass
p o
b u
Ġwill ing
Ġadd ing
ĠC ON
Ġinstall ation
Ġcl ub
ĠP ract
Ġr ent
k ing
ne ll
c cept
Ġab use
Ġbatter y
n el
ĠD i
Ġo k
Ġneg ative
Ġse ven
ĠEng land
87 15
ĠOver view
ĠL ou
Ġart ist
Ġa cknow
ĠM aster
ilos oph
Ġdeb t
ĠPro duct
Ġenvironment al
Ġac ademic
91 8
M G
Ġsl ot
Ġpro ud
Ġc ivil
ÃĹ \
ĠS a
in ations
iven ess
M P
e ah
Ġcry pto
Ġth us
b i
Ġdep artment
ĠF eature
27 2
u ing
Ġpres ence
ur ies
ad ian
ĠK eep
ĠTh ursday
ĠRoof ing
ĠT ips
per ty
ot ic
g ment
Ġsur g
p es
ĠYou Tube
Ġc at
S L
35 0
ol it
Ġbr ings
Ġpre c
13 2
ĠP ass
Ã ¯
ill age
Ġcamer a
Ġappro x
Ġon to
Ġlist en
Ġask ing
Ġdom ain
ĠDe v
30 1
Ġf ra
ig an
ĠAl though
amp ion
Q U
S C
Ġtot ally
Ġdep osit
ĠArt icle
rast ructure
nU p
Ġdetail ed
gr ade
es h
ĠB en
ot al
in st
ailab ility
H L
Ġwatch ing
nJ ust
ĠW ood
Ġteach er
p ost
ã Ĥ
ĠF lo
14 0
44 0
Ġe ight
Ġwrit er
Ġc up
d en
Ġsp ending
Ġm and
ĠEv ents
Â ·
ĠL ive
Ġfin ished
ĠP interest
ĠO per
ut s
ad emy
ĠA LL
ĠRe ading
Ġrem ains
Ġelect ronic
re ate
Ġmost ly
Ġr ule
d is
Ġd ish
ĠUn ion
ov id
P G
ĠD ate
Ġanim als
ĠF ind
Ġle aving
24 2
ĠIt s
os es
ell o
ert s
ra ine
23 1
Ġtri al
Ġ20 03
ĠSo ciety
ĠT ake
ĠJ un
ri vers
ĠL ast
i us
ĠRes ources
ĠOn ly
ĠL ic
Ġfund ing
Ġper mission
Ġmax imum
p ret
or ter
nL ast
Ġmonth ly
Ġg un
ĠPh ys
af e
ĠBe ach
Ġrestaur ant
Ġresident s
Ġnews letter
b ar
\" .
Ġc opyright
04 3
Ġchar ges
xi ety
ĠL in
nF in
ĠF re
Ġcomb ination
Ġoper ation
Ġcor porate
al se
d raw
Ġv irtual
Ġthe ory
M T
D R
14 1
g a
Ġdirect or
ig ration
ĠJ ava
Ġd ied
duc ing
Ġy es
qu ire
ult ural
ĠA lex
ĠPro ducts
Ġprep are
Ġel ig
ĠT imes
Ġappe ars
Ġconf lict
Ġf ish
Ġsc ale
Ġfac ility
Ġbrand s
Ġg arden
Ġemploy ee
Ġintern al
Ġexp ensive
Ġ Î
ĠP ri
nD is
Ġstore s
ĠF ort
ĠS et
Ġ5 00
Ġb ird
qu ir
Ġteach ers
Ġcult ural
3 36
Ġenjoy ed
Ġass ets
Ġshow ing
os en
ĠP ack
16 0
Ġconsum ers
Ġan onymous
ĠCa rol
ĠCommit tee
Ġmult i
Ġmot iv
Ġwh om
k et
Ð ½
ck ing
Ġass um
ĠM ot
Ġs and
nA re
Ġn et
O X
U B
Ġt alent
nO ver
Ġst ated
ĠH y
ĠH ear
Ġconvers ation
ĠPan el
76 3
ĠV irgin
fort unately
nAn onymous
ĠLim ited
15 1
lo c
Ġloc ations
66 4
ĠHe ad
nDes cription
oun ter
55 0
ĠSm ith
Ġpl enty
ĠQ ue
ĠH om
Ġt ab
ool s
\": \"
Ġnot es
A K
ul ated
ĠC H
n h
v ents
nC ustom
nG o
Ġeven ing
Ġn ecess
I Z
war eness
06 3
Ġsubs cri
co pe
Ġr ental
Ġqu arter
Ġex ecut
Ġconf ig
Ġtrans form
Ñ Ģ
06 7
Ġb ought
em porary
ĠH and
g ar
r ical
M C
Ġperson ally
ĠL ibrary
Ġd river
ov al
Ġpro te
op ular
Ġsym ptoms
oun g
27 1
at ers
Ġour selves
ĠRuss ia
co hol
room s
le ments
ĠMan ager
ĠGerm any
O B
erv es
Ġman ager
ic he
Ġrem oved
Ġe ating
Ġre ference
al ian
Ġfil ter
ĠF riend
ĠE nergy
ĠFr ance
r s
ic ians
ĠK ore
E Y
? âĢĿ
Ġsmall er
N C
ĠW all
ak ed
45 0
Ġlog in
f il
e qu
se e
ĠE th
ĠM ad
ĠT or
Ġlead s
Ġleg is
ĠC ost
Ġfam ous
I K
Ġprevious ly
Ġf ulf
Ġident ity
iqu id
y e
la sh
ĠT wo
W S
75 3
fol io
nF eature
Ġeduc ational
ĠW in
ck et
Ġapp s
ĠPl us
Ġs oul
ĠB as
n on
Ġch oices
li ance
nD ownload
ĠJ oh
Ġsp ring
nM ost
z en
og a
80 8
Ġinflu ence
Ġr id
ĠO N
Ġingred ients
ĠC redit
Ġw aste
Ġ Ø
Ã ³
g ers
S cript
Ġan alytics
anc is
Ġgener ation
Ġconf idence
ph as
Ġdel ete
832 8147
o pped
13 1
ag ers
ĠH ill
Ġro ut
ĠAg reement
Ġk id
ĠI d
Ġend ed
Ġd ynam
Ġl ibrary
Ġfem ale
16 1
Ġany where
Ġ{ {
Ġprom ote
Ġdist ribut
20 8
Ġw ind
Ġm ent
al i
Ġd ie
Ġaspect s
E U
! ","
nCom ment
34 0
Ġr ise
ĠD uring
nS ave
ĠF ollow
n ab
ĠN on
vel y
ĠM er
ĠG rand
Ġcar s
nN on
Ġsupport ed
Ġag ent
Ġallow ing
35 1
in ating
ĠM il
we ek
Ġdis p
ĠS up
ĠT er
Ġm agn
ĠI ll
Ġ ice
ĠCert ificate
ition ally
nV is
Ġput ting
g ov
Ġcomment ing
Ġse a
Ġhear ing
Ġcomp ut
Ġart ists
erv ice
ĠStr ateg
A s
Ġcompet ition
Ġman aged
z ed
Ġaw esome
Ġs we
m en
ul ate
a ro
ĠF e
Ġc row
Ġmatt ers
77 3
Ġstart s
ĠB ible
Ġd istrict
ĠT im
Ġt it
Ġ7 0
D T
ĠRuss ian
05 3
Ġmed ium
ur ers
Ġmin ute
ond s
ĠBook s
Ġknow ing
Ġsur vey
Ġv ote
h ost
nThe y
Ġtrack ing
Ã Ń
56 7
Ġim pl
Ġmin or
ĠR ight
Ġmet al
ĠC ath
H Y
i pe
Ġpurch ased
wh ich
ĠM o
ĠGerm an
Ġdes cription
ĠE ss
at o
Ġed itor
Ġhealth care
nF ree
20 13
Ġfac ilities
Ġ 01
Ã ¢
ĠS ett
Ġd im
out s
nHe alth
ĠWh ere
Ġbelie f
ĠS y
Ġreal ize
Ġexpert ise
57 4
oo sing
nChe ck
Ġinst ru
26 1
Ġmov ies
ĠAfric an
Ġmiss ing
Ġland s
Ġdat abase
la ce
98 9
cript ions
G R
Ġst reet
Ġ20 00
b l
Ġinstall ed
Ġres ource
ur l
pro ducts
Ġfeel s
27 0
ĠV alley
97 9
Ġpers pective
93 9
Ġopen ed
Ġclass ic
ĠD en
Ġclin ical
Ġche ap
Ġexp lor
Ġchem ical
Ġre covery
N N
Ġdef ault
res pond
os ph
er ies
th is
Ġcon sequ
und er
36 1
r um
ĠG ame
app y
ĠM ult
Ġbr ight
ĠS l
nCom ments
nIn ter
Ġrece iving
10 9
Ġb oost
Ġfam iliar
Ġdes ire
Ġcr im
ost er
se ll
ĠDo es
Ġthem e
Ġimport ance
Ġreason able
26 0
26 2
e ases
65 4
ess age
Ġcircumst ances
Ġdoub t
Ġa id
Ġth row
y pe
an o
Ġexc iting
ĠSt ory
ĠT ree
Ġcon ference
Ġd ram
Ġle aves
rem e
ffic ient
20 9
ĠLo ading
Ġspec ies
u zz
Ġad min
Â Ń
ĠW ay
Ġveh icles
Ġinvest ig
pect ed
ĠB rand
Ġarr ang
ens ions
g i
ib ilities
Ġaccess ible
l ines
96 9
Ġag ents
anc er
Ġreturn s
Ġcon cent
quis ite
og ue
T T
65 7
ĠMed icine
Q L
on ial
Ġencour age
nP art
id en
Ġsign s
ri er
nE d
Ġt on
Ġc op
V D
Ġauthor ity
nS p
end ers
Ġro of
ĠP ain
ĠE U
ĠA ward
et ime
ĠL earning
07 3
od ies
Ġf uel
nL et
âĢ¦ .
Ġdog s
Wh at
Ġvict im
oth ing
ĠB it
75 1
Ġauth ent
Ġmar riage
laim er
Ġappro val
ian a
Ġdes pite
r ick
Ġscient ific
b es
por ation
Ġfant astic
93 8
nC oll
10 8
Ġbel ong
r ite
U G
ĠC EO
Ġs witch
28 2
oc olate
Ġt aste
Ġcre ation
ĠG ames
ĠJ ud
Ġsc ene
h and
ĠSoft ware
ĠB efore
15 2
Ġcomp onents
f ra
Ġshow ed
â ĺħ
ĠAut o
pr int
Ġf aster
Ġb rief
Ġfre edom
Ġs now
ĠM ach
O Y
udd en
ĠF ederal
\" ,\"
c oll
ã ĥ
ĠG irl
p lan
u pp
Ġun iversity
Ġth r
P N
ĠĠĠĠ ĠĠĠĠ
H e
Ġca uses
ĠSt ore
Ġneigh bor
Ġ .\
ĠW riting
Ġemerg ency
67 4
ĠF arm
ul ed
ol ve
Ġmed icine
Ġad ults
Ġdist ance
Ġconsum er
Ġdec re
Ġm outh
ĠS al
F R
Ġra ised
Ġregul ations
Ġpla stic
ĠV er
ĠAmeric ans
17 1
ĠDet ails
em ail
00 2
Ġtrans l
I X
m es
et ing
oss ible
Ġcontent s
Ġwin ning
ĠRe v
Ġacc ord
Ġrisk s
56 2
Ġdesign s
ĠCont in
Ġcompreh ensive
ĠDe f
ĠC up
\\\\\\\\\\\\\\\\ \\\\\\\\\\\\\\\\
in er
ĠSh op
Ġreach ed
14 2
Ġj oy
Ġb less
ĠAs ia
ĠD og
anu fact
56 4
ĠD ownload
re land
Ġspe ct
Ġvol unte
Ġap art
81 8
c ar
Ġad ult
ĠM en
Ġinst ance
Ġl it
Ġaccept ed
ĠA ge
rom e
Ġiss ued
Ġafford able
ĠChild ren
Ġaccom pl
Ġcris is
t own
ut ter
Ġe gg
Ġcommun ications
Ġdec or
ĠCustom er
ĠG l
90 8
ĠN et
Ġsp l
ĠB re
du ction
ĠS cholar
v a
11 8
Ġdist ribution
Ġseek ing
Ġf illed
1 21
Ġc ities
M L
Ġw est
la st
l ied
un ched
Ġregular ly
k o
Ġd u
Ġpre gn
ĠS ant
Ġb ull
H P
ĠCong ress
Ġprem ium
Ġfl at
Ġposs ibly
â Ĩ
w orld
Ġill ust
w ater
ern ame
ĠSp irit
Ġown ed
Ġ %
Ġs enior
Ġs essions
ĠArt icles
Ġansw ers
ĠK ey
ĠSh ould
Ġfoot ball
Ġra nd
ĠN av
66 7
Ġs ad
Ġch art
Ġsqu are
Ġmar ried
ĠC R
Ġex amples
Ġel ement
Ġvisit ing
Ġsign ed
Ġex ternal
Ġcre am
Ġhy d
Ġpay ing
âĢĭ \
Ġcou p
y an
ach el
ĠTr ust
Ġvol ume
Ġvis its
ev ision
nu s
ĠD eb
ĠH am
Ġval uable
in ar
nO ff
ik es
org ia
Ġrap id
Ġste el
Ġre venue
Ġwalk ing
ĠU N
ĠB er
Ġm ur
a way
or ce
Ġserv ing
Ġslight ly
Ġshare s
ĠN umber
8 92
Ġve get
Ġaccom mod
Ġs ending
e an
Ġdesign er
ĠDem ocr
Ġparticip ants
h ome
Ġp air
nR et
Ġper man
Ġauth ors
Ġinv ent
90 9
Ġtax es
Ġyou th
ĠFr ancis
Ġar m
r ating
ĠC art
Ġdeterm ined
im b
be ll
Ġch ain
Ġstrug g
Ġadministr ation
Ġdec ades
Ġan imal
n Î
44 1
37 1
ĠD om
Ġm ine
an ish
Ġra in
ach e
16 2
Ġs cholar
ĠStud ies
ĠGe orge
Ġj ump
ĠS ell
ĠM att
Ġsupport ing
ĠM obile
ĠTh rough
Ð¾ Ð
ĠWest ern
ow ing
ear s
g reg
ĠS P
Ġs in
Ġep isode
Ġp ills
Ġperform ed
ĠA ug
ack s
ĠIn f
20 12
Ġel ection
ister ed
z h
Ġfail ure
Ġte ch
45 1
Ġtrad em
o or
ĠRes erved
ĠO il
Ġm ir
ĠOr der
Ġcomp ens
Ġsp ort
46 1
ri z
Ġb ike
ĠI mp
U K
ĠS and
ĠPol it
! !\
Ġeffect ively
91 06
11 9
U C
33 1
l ights
Ġemail s
Ġel im
Ġg ender
ra ce
Ġrelig ious
is a
ĠL and
Ġe c
c lass
osp it
Ã ¼
Ġinnov ative
Ġup load
ĠTe ch
Ġreport ing
ĠCent re
Ġhistor ical
Ġrun s
U V
Ġass ume
he alth
H E
Ġdef ined
17 0
Ġaut o
Ġtre es
Ġr ide
ac ific
Ġdis cre
H D
Ġal bum
Ġequ al
ec urity
Ġrand om
Ġviol ence
ĠI r
Ġrad io
ol ved
ĠEn vironment
Ġpay day
Ġf old
ĠB ox
act ive
ect s
AR T
ĠCh icago
th let
Ġworld wide
Ġexclus ive
ed er
Ġspe aking
ord s
Ġsign ature
m unity
47 1
Ġcomb ined
Ġkind s
ĠL an
ract or
Ġv ul
93 07
Ġengine ering
o il
ic an
in cluding
34 1
ĠMicro soft
Ġbus y
ĠPro cess
Ġlaw yer
ĠC redits
19 2
Ġmanufact uring
Ġpubl ish
Ġgu ests
ĠEngine ering
i as
IT Y
Ġsp ons
Ġs la
ĠS olutions
ĠSc ott
Ġdiscover ed
Ġemploy ment
ux ury
R C
Ġan al
Ġevent ually
ĠTy pe
ĠA S
4 06
.... ....
Ġseem ed
Ġl ived
Ġcall ing
Ġpan el
Ġbe at
ou p
ĠSec ret
94 9
Ġinvest ors
Ġdes k
um er
Ġsupport s
O J
ĠT em
or a
pl ate
Ġcor ner
Ġcare fully
ber t
cre en
Ġlicens ed
Ġd ial
24 9
i ors
um in
Ġtest s
ns on
33 2
uri ous
Ġren ew
M W
Ġparticip ate
1 20
Ġun its
Ġfr ame
Ġmach ines
n j
Ġbro ken
ĠP oint
75 23
35 2
Ġmom ents
C on
91 9
Ġgrant ed
A d
ĠG uid
t ers
ĠT own
re al
ĠMex ico
Ġleg it
ĠP rem
nWh o
86 8
Ġed ge
< /
ĠP al
ĠP sych
ĠCon nect
Ġde als
ĠE r
ĠL td
37 0
Ġmod e
' '
clus ive
Ġth ick
Ġre pla
Ġco vers
m b
ord ers
Ġhous ing
Ġcy cle
Ġpract ical
ĠCon crete
Ġp odcast
ter y
A W
ĠA rab
nS he
95 63
Ġconst ruct
ĠU l
w s
Ġprocess ed
Ġspe ech
ĠE vent
ĠM useum
Ġaud io
Ġfact or
Ġall eg
Ġguid ance
Ġs an
Ġhigh light
l ook
17 2
erv ices
Ġrep ut
ĠL os
le e
Ġsim pl
}} \
r ance
Ġwith draw
Ġadv oc
ĠCons ult
A FC
Ġwe ap
ĠðŁĻĤ \
Ġjust ice
Ġth read
Ġfab ric
ĠCarol ina
Ġper missions
re f
ĠAre a
ĠMem bers
Ø ±
nLo ading
urb an
Ġf uck
ĠS ale
ct ors
ers ey
ict or
enef its
04 0
Ġse qu
Ġ 08
Ġinstitut ions
Ġbro ther
prof it
Ġcampaign s
Ġjo ined
U n
Ġassess ment
I s
O F
Ġdis s
Ġwor se
Ġsignificant ly
pa per
Ġstr ict
ĠH a
Ġdeliver ing
+ \
Ġgr ad
Ġcomm ission
nWh ere
nL atest
Ġdoll ars
Ġ rom
edd ed
83 8
84 8
Ġto w
nQu ick
Ġnot ed
Ġw ire
n n
id i
Ġ 07
ĠS ales
Ġple asure
46 0
Ġinnov ation
ĠFor um
Ġsu itable
itut ion
olid ays
Ġinsp ired
lan ce
ĠI de
Ġp ure
ĠAcc ording
Ġ 09
P P
Ġpur su
Ġh ate
Ġsubs cribe
a uthor
Ġv an
I ES
Ġprom pt
Ġhold ing
ĠT el
18 2
Ġgreat est
ĠAc ademy
C l
Ġr ating
36 2
Ġbring ing
Ġpro of
ĠAd vis
ll e
erm an
Ġfor ces
Ġch osen
Ġcommit ment
av en
Ġappoint ment
Ġt ough
f rom
i est
05 0
Ġcomp liance
ĠThere fore
Ġte eth
L D
Ġun able
Ġinter pret
Ġimag ine
Ġt ail
Ġg ambling
ph one
Ġs cript
w rit
Ġproced ures
U Y
Ġs y
ĠD aily
ir ty
ocu ment
at i
Ġaff ected
ĠAngel es
Ġhundred s
y our
Ġem phas
h y
00 9
ot ed
ĠB rown
Ġdr ugs
Ġemot ional
u ction
ul ous
Ġdis abled
s he
f low
Ġen force
85 8
Ġconsider ing
ath y
S D
Ġbe ach
ĠF L
Ġre b
book s
ĠAnd roid
ĠProt ection
Ġsurg ery
ur a
ĠG ener
Ġra ise
th at
cle ar
ĠLe vel
à ¥
V I
Ġpro c
nE very
ĠSaf ety
84 9
ĠStud y
Ġd inner
ak s
AC T
ĠM ax
ur ities
80 27
Ġ20 02
Ġb attle
Ġun ivers
r ich
Ġweek ly
ĠSett ings
ĠCur riculum
Ġconst antly
nCont inue
Ġfix ed
Ġwe alth
Ġfell ow
we ight
37 2
Ġaccord ance
ĠLe ague
O H
55 2
Ġh idden
34 2
ĠP eter
at re
Ġcert ificate
ind ex
ĠCon ference
ĠPart ners
nW ork
Ġk illed
ĠM oney
gu ages
ĠWh ether
Ġess ay
Ġtr ends
Ġfrequ ently
22 9
Ġs outh
ĠF act
Ġt ight
nAl ways
Ġproced ure
ĠT en
ĠCan adian
Ġsupp osed
Ġfor th
Ġindust rial
A l
Ġsym bol
Ġwas h
ĠC ross
Ġo dd
Ġf ruit
81 9
M B
Ġwe ak
55 1
erg roup
87 8
ĠT reat
wh ile
Ġocc up
66 3
o om
on av
Ġus age
Ġlif estyle
st ract
Ġlink ed
Ġcor respond
ĠI reland
77 0
94 86
ĠFr ank
ĠRe f
ap es
Ġeng age
ĠBe aut
ĠW ild
Ġinf rastructure
Ġelig ible
nC are
ĠA I
ĠMay be
ĠPla ce
Ġsu it
Ġc ategorized
Ġsuccess fully
ĠP rom
ĠVirgin ia
Ġsubs cription
h at
Ġintrodu ced
Ġprof it
ĠB ur
Ġforum s
Ġlo vely
âĢĿ )
nHow ever
Ġfac ilit
Ġincred ible
05 1
ĵ \
Ġl iability
in n
p ack
cl ing
46 2
Ġopt ing
ĠSec ond
ar row
22 8
on line
Ġtell ing
Ġguid elines
un ting
N o
Ġapp ar
Ġemp ty
Ph one
Ġroom s
C O
Ġk ing
Ġqu ote
L Y
25 9
Ġtask s
emb ly
ĠJapan ese
ĠB on
Ġinform ed
k ins
Ġav ailability
y ers
C P
ĠS EO
ĠT re
Ġeffic iency
ĠLe ave
Ġhapp ening
ap ore
20 11
R P
Ġfood s
ĠD own
Ġsh ut
id ers
Ġv eter
ĠS ciences
56 3
Ġcoun sel
Ġcol our
Ġan xiety
ĠF un
M D
ĠS ort
Ġsk ill
15 8
ip es
Ġsustain able
Ġconcern ed
12 8
ĠH aw
ere quisite
Ġbre ast
Ġent ered
Ġ3 2
ĠC ategory
Ġapprox imately
Ġprincip les
nP interest
Ġk ill
ĠB oth
ĠSystem s
Ġentire ly
Ġl oves
Ġco ach
ion ally
nA uthor
Ġ 36
T ER
Ġm ut
ill y
ĠLou is
Ġfact s
Ġgu est
Ġout door
Ġopin ions
ur is
Ġs udden
Ġpro hib
Ġflow ers
Ġkeep s
Ġcrow d
Ġv it
Ġsitu ations
Ġext ent
80 9
Ġco ord
ĠE V
all ed
Ġre ject
Ġst ret
45 2
p in
I CA
Ġhouse hold
d ated
Ġfl ight
v i
Ġtre ated
Ġp ump
Ġde lay
Ġp harm
Ġ identified
Ġdel icious
ple te
Ġn orth
Ġbig ger
Ġsav ed
Ġobl ig
ĠAn alytics
nOn line
mon th
Ġredu ced
a per
Ġcar ried
Ġbro ker
a it
Ġspirit ual
nPh one
ll a
Ġm ask
ans as
et ary
Ġnetwork s
21 9
Ġcook ing
el ry
Ġfol ks
ic er
Ġp un
c ase
Ġappear ance
ĠUn categorized
Ġla ugh
ĠPr int
Ġsit ting
Ġgr ade
23 8
ograph ic
n in
Ġse at
Ġcompet itive
is er
Ġco ast
w eb
ad y
Ġjo int
ĠSpr ing
Ġrecogn ize
abet es
Ġpolit ics
83 9
ĠL iving
Ġpattern s
ĠKing dom
ect ual
ing u
Ġt aught
Ġrequest s
Ġro t
Ġc ategories
to col
Ġst one
TM L
nB ook
Ġt ut
ĠC la
nAn alytics
nH ello
ĠS ar
Ġpo ly
F S
ĠW il
pro m
ĠSt ories
ost on
Ġdeal er
tl es
Ġch annel
8 99
B N
nG reat
onav irus
Ġg od
nPr int
O n
Ġte a
F P
65 0
c s
Ġperfect ly
ĠE ff
R T
Ġcomm and
ester day
Ġrequest ed
Ġj ew
ĠS qu
ĠH im
n ic
ĠF oot
ig r
Ġens ures
Ġs ac
nÎ Ķ
AN T
Ġsong s
Ġgu ard
ĠF eb
nC ons
rap her
Ġlog o
L A
] .
Ġp riv
ist ers
IV E
ĠâĨ ĵ\
B I
13 9
Ġin put
ĠH ard
ER E
ĠHot el
âĢĿ .\
ĠK ar
Ġrem od
Ġrem ote
if er
ir med
ĠM S
nW ell
994 7523
ĠH el
44 2
Ġchar ged
Ġtroub le
Ġf urniture
Ġfollow s
ilosoph y
fr ont
Ġhost ing
ĠB ell
ĠL ocal
Ġso lar
47 0
c or
Ġevery day
Ġent reprene
Ġconven ient
Ġd iverse
Ġ ur
ĠTh omas
A nd
Ġfram ework
Ġbeg ins
Ġag encies
ĠEn t
ĠAdministr ation
o rough
Ġd ur
Ġsub mitted
8715 653
Ġexpect ations
ĠCh ief
ĠF ac
Ġcut ting
Ġentertain ment
ĠO wn
erm al
ĠL ar
Ã ¤
6 00
12 9
wh at
ĠAg ain
76 0
atur ally
g s
ĠSe ason
ĠEx t
Ġ 06
og rapher
Ġmechan ism
M M
Ġ 03
ĠSem ester
N ew
ĠPh oto
z ing
ĠE X
nE ng
b est
Ġun f
Ġstand ing
ch ain
Ġwrit ers
ĠPh one
b our
Ġcontain ed
Ù ħ
Ġs chem
ĠIt alian
Ġport ion
ĠC ir
Ġwhen ever
Ġtell s
le vel
Ġla unched
ĠRober t
ign ed
ut ch
Ġexp enses
it ar
us her
Ġhold s
Ġtr ig
Ġstate ments
Ġfail ed
Ġs orry
Ġfav our
Ġk ick
ak istan
nPost s
Ġchalleng ing
ĠFR EE
olog ist
Ġfound ation
ĠUk raine
Ġex cess
Ġsh ift
21 8
ĠIt aly
F or
g or
r as
Ġmanufact urer
87 9
A ll
J V
ĠCas ino
Ġsupp lement
Ġwindow s
Ġpla ys
be ing
14 9
A ccept
em ed
ĠCon f
ĠSm all
57 3
urn s
ĠM iddle
ĠRep air
ĠL ow
B R
26 8
Ġcan nab
m ary
Ġrecord ed
ĠB ath
ĠF air
word s
Ġsh ock
st ar
08 2
ĠW alk
ĠComp onent
âĢĻ \
Ġimpro ved
Ġsecond s
it age
Ġch air
ĠUs ing
Ġofficial s
Ġenc ounter
ĠL ock
ĠG row
Ġc red
O I
st one
tain ment
Ġ iron
Ġturn s
es th
Ġs ample
Ġd raft
ĠAt lant
64 0
nS c
Ġg ro
ot i
Ġappe ared
p erson
Ġexpress ed
ast ers
P U
ĠW H
em bers
ĠJava Script
Ġg aming
le ction
ï ¿
b rid
Ġl unch
Ġrecip es
W W
Ġcan cel
nG oogle
nO pen
Ġrelig ion
D V
Ġ 02
Ġfin ance
Ġh ers
nD isc
ĠTh ose
Ġcrim inal
09 2
our se
Ġaffili ate
Ġdisplay ed
ĠPar is
ra cy
Ġext ensive
Ġ3 00
ĠProfess ional
Ġa wareness
av or
ke ep
Ġfore st
Ġst opped
ĠP DF
ush ing
n X
86 9
or al
Ġoper ate
ar p
Ġal ter
ĠO k
el ing
Ġis land
Ġdep art
92 9
ĠIn fo
Ġsp am
nS m
Ġtr end
ĠMin ister
Ġd ra
998 7
á ½
Ġimprove ment
Ġinc ident
igh ter
Ġ20 01
Ġpos itions
27 8
ĠSto ck
67 3
( '
Ġmass ive
nR em
Q u
nStud ents
Ġbelie ved
24 8
Ġj ack
ci a
nH ave
h us
Ġr ub
Ġobtain ed
ed ing
l ot
an i
Ġf alse
Ġ 05
Ġs ick
oth ers
Z Z
47 2
Ġout put
ĠU r
Ġless ons
Ġperson s
Ġen abled
Ġcr ime
ĠK itchen
K Y
ĠS ep
Ġdep ends
ĠT ri
ĠC ry
ob by
Ġcar bon
ĠAn other
Ġc ro
at ar
ĠM el
16 8
Ġfor t
ĠSp ace
nNot ify
Ġpubl ication
ĠStud ent
ĠB uilding
Ġret ain
Ġstud io
Ġmil k
r ig
!! !
en ch
fact ion
Ġc lar
Ġc er
Ġreplace ment
Ġlik ed
Ġme al
Ġt ast
27 9
ĠF urther
11 19
Ġl iquid
âĢ¦ âĢ¦
ĠT R
Ġorgan ic
az z
nD ec
os ite
Ġfor ced
ĠS H
um ps
Ġinvol ve
ĠTh ings
n oon
Ġtrans actions
um a
Ġw itness
Ġbut ter
Ġon going
out ube
ĠE s
ĠCl oud
ĠIs lam
nCon nect
Ġ 04
ĠC OM
ĠK e
Ġimplement ation
ĠJo e
Ġme at
ĠP odcast
Ġqu iet
Ġn om
ĠPr erequisite
nS chool
it ter
Ġb oot
Ġend s
Ġs ister
ĠD am
Ġconcept s
Ġd ivid
Ġcomp are
85 9
Ġj u
H ow
Ġexplain ed
D M
ĠJ im
ĠJ ones
Ġfra ud
m un
Ġpurch asing
Ġill ness
Ġserious ly
ĠN ight
13 8
ĠSt aff
Ġt un
Ġemb edded
ic y
Ġeng agement
nAl so
d ef
ann a
I LL
Ġmembers hip
Ġprote in
Ġre cover
Ġrepe at
ĠH ope
iz er
Ġintell igence
Ġtw ice
Ġcollabor ation
Ġâ Ĥ¬
nS elect
end a
ĠM ov
IT H
ĠCl in
ĠEx ecutive
Ġneighbor hood
ĠT alk
Ġnot iced
ĠSp anish
nO thers
nOn ce
ĠColl ection
A X
Ġ ~
ĠS ection
n the
Ġcontroll ed
ad ed
Ġstrateg ic
23 9
Ġdiffer ences
Ġsw im
Ġar rest
Ġrecommend ations
Ġprep ar
Ġm al
Ġtru ck
o la
ĠP ot
Ġrem oval
Ġb ul
ab out
Ġrefer red
H G
ĠL ook
Ġal cohol
ĠS on
m ond
Ġsl ots
Ġmill ions
93 34
43 2
Ġpartners hip
Ġn arr
nTr ans
Ġs ides
Ġind eed
I O
Ġlog ged
ĠT ry
Ġclos er
ink ing
? âĢĿ\
Ġsubst ant
Â °
Ġdef ense
Ġrecogn ized
w orth
t ure
Ġat m
ber ry
am ental
ab b
M y
Ġmer ch
in em
ĠLink s
yl v
it ting
f unction
Ġimpro ving
26 9
Th ere
c m
Ġtrans ition
ĠD u
Ġpropos ed
uris d
96 85
99 95
ne ys
st ream
Ġcustom ized
20 10
ĠJust ice
Ġbuild ings
B M
Ġaccur acy
om et
ĠK en
Ġth orough
Ġimp ossible
Ġne ck
nG ood
Ġfac ulty
Ġins ights
ĠF a
Ġbeh alf
Ġnu tr
Ġvul ner
Ġinvest igation
ĠC opyright
Â »
Ġclin ic
hold ers
nU se
Ã ¶
ĠR oman
p ot
nS k
Ġus ername
Ġtrans action
ĠFin ance
Ġrel ief
Ġv en
Ġattack s
14 8
z il
L T
Ġso le
Ġdi am
Ġr ing
Ġarriv ed
Ġc am
app oint
ĠPro perty
Ġret irement
Ġ 33
nP e
ĠUS D
Ġfit ness
w p
Ġexpress ion
Ġphot ography
Ġext ended
m ade
ĠM ap
Ġpresent ation
ĠH or
U X
Ġread er
h ar
Ġcru cial
Ġdanger ous
nSt art
nL ocation
ĠGe orgia
Ġbirth day
Ġm ortgage
Ġsearch ing
Ġn one
meric an
i pt
ĠM id
Ġex ceed
Ġpain ting
ĠðŁ ĺ
Ġre ward
Ġp ed
rodu ction
1 24
ans ion
Ġconsist ent
nC redit
Ġfl u
Ġresearch ers
ut ion
25 8
ĠY oung
Ġdest roy
Ġar ts
os eph
ĠMart in
A Z
Ġca ught
Ġun c
h ips
Ġ ;
ï¿ ½
Ġch oosing
ĠL ee
96 11
c ategory
06 0
nJ ohn
re quired
Ġlist ening
Ġfeel ings
Ġf ly
Ġ4 8
ĠRo om
Ġwe aring
iss ions
== ==
Ġa st
ĠInst ead
Ġcitiz ens
nSu pport
pl ore
Ġguarant eed
15 9
Ġam b
ĠLink edIn
Ġcas inos
ĠC ast
nAn other
05 8
S W
Ġed ition
Ġs izes
as ant
ĠS ex
iet nam
Ġe ast
osph ere
Ġb read
ĠMag azine
ĠExper ience
Ġsp aces
OU T
03 2
924 3
Ġsh oes
Ġremain ing
Ġhum ans
Ġconduct ed
Ġfunction ality
Ġlist s
Ġsol ve
u er
l r
Ġdes cribe
Â «
Ġbet ting
v in
Ġst im
ap ed
Ġyour s
ĠAg ency
Ġtest ed
Ġs alt
ĠSm art
ĠS elf
ist ical
ĠA wards
Ġposs ibility
04 1
ĠD C
Ġbe ar
Ġtyp ical
ION S
ĠG arden
Ù Ĩ
ĠMich igan
Ġus ergroup
rib le
ap pe
Ġpro p
Ġc ooper
ik ing
om y
Ġex ecutive
b re
ul s
ĠM ike
at uring
nInst agram
m o
Ġhy p
t itle
pro ve
iz z
ĠAut om
ĠJoh nson
v y
Ġ à¤
om mend
p ass
Ġrel atively
Ġagre ed
l ong
Ġincre ases
Ġd rivers
lim ited
ĠSu ite
Ġl ights
nPro duct
Ġinsp iration
ĠO l
ĠD av
97 47
Ġd ent
Ġte en
ĠP A
ĠC ra
clud ed
C ont
43 1
Ġ 75
Ġso ci
Ġmus cle
Ġplan et
ĠC ase
ĠCol umb
K K
ric ulture
ll y
er ning
ep s
Ġobject s
L e
ĠL ess
ĠCh alleng
Ġf if
ĠCh ris
Ġmur der
ĠR en
b ro
Ġv ital
ĠH o
nC ar
ĠA ction
Ġhe ight
edd it
7 00
99 25
nSh ow
8 29
J J
Ġcheck ing
Ġcommun icate
ĠI ran
Ġpr icing
Ġgen u
Ġd ental
Ġcloth es
Ġd ance
G E
Ġbreat h
T X
03 1
94 44
oo s
Ġnu t
ĠL egal
he mat
17 9
ĠPlan ning
Ġl osing
Ġmiss ed
B L
ĠQuest ions
R Y
H W
Ġcra zy
ĠR a
sh ire
c ers
ĠAn alysis
ific ial
Ġh ur
ĠA NY
b an
ell y
m aking
ĠJ eff
ĠW rit
Ġprogram ming
ĠRe quired
friend ly
l ined
Ġfac ing
Ġmonitor ing
Ġmeet ings
T F
atal og
ĠE mer
Ġus ual
28 8
s ub
Ġb lan
C M
Ġch apter
chn ology
ĠE st
Ġro ugh
est ing
Ġgener ate
Ġgrow n
O Z
ĠT able
Ġout comes
ĠC D
Ġre pro
T o
Ġdom estic
E ED
Ġlay er
m arket
tern ational
33 9
S o
im ize
ign ment
Ġdo ors
ĠV an
U ST
17 8
Ġup coming
nC ol
gy pt
ant ic
et ed
ĠYOU R
Ġi Phone
it z
Ġp apers
- \
ĠBit coin
ĠF estival
Ġb ot
34 9
Ġfil ms
Ġsm ile
Ġsever e
H V
ĠB uild
ĠIs lands
Ġdeal ing
ci pl
1 22
Ġd uration
enn y
Ġfeature d
Ġauthor ities
Ġargu ment
Q Y
d ep
Ġb odies
b ec
46 8
Ġhe aling
Ġqual ified
Ġdiscuss ed
Ġnecess arily
Ġcont ribute
ĠWith out
Ġhers elf
28 9
Ġserv es
nPubl ished
riz ona
Ġh ire
p at
ĠTr ad
ĠAr my
ĠN ote
f ac
Ġg ifts
16 9
Ġz ero
Ġassign ed
Ġdeg rees
Ġb anks
Ġv ast
Ġpark ing
ĠLic ense
Ġtick ets
ĠM om
u ality
Ġcap abilities
alyt ical
Ġpurch ases
Ġ //
ĠM ethod
Ġd ates
nM ake
Ġbr anch
nVis it
Ġmag ic
Ġamount s
Ġins ight
eph one
05 2
Ġac id
Ġsus p
997 7
ens ity
Ġcrit ic
75 2
Ġsurpr ise
ann els
D e
Ġhous es
Ġan cient
ĠS ea
Ġor d
95 36
c al
ĠCap ital
Ġsens itive
ĠAs k
Ġp ill
46 9
Ġdist inct
ĠL ittle
ĠIndust ry
ont o
Ġrestrict ions
Ġwarrant y
ĠL ands
Ġent hus
p ir
ach er
ĠF eed
Ġhe ll
J Y
I W
nM ed
ĠS at
Ġcont emporary
nSh op
Ġpr ison
Q X
Ġres olution
as er
88 9
T P
Ġsc r
Ġph ase
Ġregard less
Ġman aging
ĠIss ue
Ġorgan ized
Ġrem ind
Ġcreat es
gor ith
oc racy
ĠVis it
Ġtechn ique
ĠG R
ip l
Ġc ake
pro of
ĠPol ice
Ġpick ed
ĠB all
g ent
Ġv end
ĠJ ersey
Ġdest ination
Ù Ī
ĠH ospital
uck y
ro g
u an
T E
ĠR om
ower ed
ĠH on
Q V
ut r
H K
NU LL
Ġcon vert
Q Z
Ġimmedi ate
he ast
Ġint ent
Ġfla sh
Ġoffic er
nC or
G S
ud i
ev in
Ï Ħ
nM any
Ġt ables
Ġdefin ition
Ġch icken
ion e
Ġsupp lies
c ific
Ġport folio
ĠD id
00 8
b ad
Ġresult ing
Ġreg ional
Ġin ches
g iving
Ġc abin
AT E
ĠV ery
ĠS ty
á »
N V
EA R
Ġf asc
ig inal
ĠIn nov
ĠJew ish
Ġdel ight
Ġsu fficient
ab ling
Ġn ative
ĠH en
ĠS av
97 25
ĠPro b
Ġto m
Ġwor st
rup tion
ĠB ang
Ġplan ned
Ġdep th
ĠEp isode
Ġexp osure
ig ure
Ġmand atory
ĠD ie
Ġro ute
Ġlim its
nS im
ĠCont inue
Ġbrow n
921 1119
AN D
Ġmain ly
Q W
Ġbo at
Ġc la
Ġcert ified
Ġexp lan
li ers
ĠP acific
r at
M ed
99 96
est ed
ist ed
' ,
ĠPr in
Ġvis ited
nM arket
ĠCle an
Ġintegr ated
Ġindic ate
H C
nH igh
ĠR oyal
nM on
ĠP L
ĠCath olic
66 0
Ġcamp us
ĠAustral ian
ck er
ron ics
67 1
Ġprov en
55 9
37 9
74 0
enn is
ab eth
Ġreal ized
Ġcandid ates
Ġso il
97 07
Wh en
Ġinst ant
s earch
ĠColor ado
n w
ĠCo ast
Ġspe ll
Ð º
b et
Ġstand s
Ġsurround ing
Ġb at
ste in
Ġbas ically
Ġ( âĢľ
Ġrestaur ants
Ġj urisd
ĠOb ama
A t
ĠTh erap
Ġlands cape
Ġt ur
âĢĻ ,
nSo cial
73 2
Ġv irus
J W
Ġwhe el
Ġhard ware
Ġfirm s
Ġafter noon
Ġm a
ĠN EW
Ġcr ash
U I
ĠN atural
Ġcompens ation
1 85
Ġb ond
o ch
Ġrel ating
ĠH oly
Ġsup erv
Ġg rew
epend ent
ĠM ill
op t
L P
F X
Ġrespect ive
nA ccess
ĠEmp loy
ect or
ĠConst ruction
ĠS ubs
b orn
ĠWh ich
Ġres istance
J X
is dom
ir a
nH elp
ĠD ays
ot ton
ched ule
ĠD rive
wh el
Ġappl ies
eng er
Ġbo ys
ate ful
Ġpro ve
Ġcap able
âĺħ âĺħ
ad or
ĠF all
. .\
ĠM ala
Ġsty les
D P
Ġcont rast
al er
Ġcomp lic
ath an
G M
olly wood
n ame
Ġwall s
04 2
ĠFeature s
Ġintrodu ction
ul ing
Ġdef end
Ġaddress es
Ġv ibr
nLink edIn
Ġcloth ing
ap ing
J S
Ġg ent
int age
F i
ĠC ulture
it em
Ġfore ver
nF AQ
ĠOh io
J Z
IS T
nA ss
I AL
cu it
am m
Ġqu e
fil ter
st ood
Ġprov ision
G Y
ĠInte ll
nS ince
Ġu nus
J P
Ġconf irmed
ili pp
nN ov
ap pro
s ite
ok ing
H Z
Ġbook mark
Ġmot ion
45 8
Ġvac ation
Ġfr ust
Ġreve aled
u ce
Ġst ake
Ġsav ings
um es
ac le
Ġbas ket
Ġhon or
1 27
Ġout standing
Ġconc erning
Ġgr aduate
Ġsub sequ
Ġap artment
in ch
ĠD a
Ġv irt
ĠA pr
Ġturn ing
Ġw el
ĠM anufact
Ġyoung er
Ġill egal
U E
Ġag es
Ġ ri
âĢ ³
ivers ary
Ġmet rics
ĠAd vert
Ġerror s
Ġsuggest ions
56 0
Ġr an
B y
ĠPa per
umb lr
47 8
Ġtra il
Ġent ering
Ġc urrency
I E
own ed
H X
m g
ĠCreat ive
ĠS ky
Ġconst ant
97 44
riv ing
Ġinter ior
Ġfight ing
0 80
N P
30 8
Ġlik es
ĠM aterial
Ġt iss
Ġe ase
Ġclos ely
ag raph
37 8
Ġel ev
or gan
Ġmount ain
G A
nSub mit
Ġorigin ally
Ġdec ade
un a
ĠP erson
Ġst orm
Ġt iny
ĠDis ney
es ides
U W
30 9
ĠProf ile
Ġ urban
Ġfund amental
F O
ino is
ing ers
Ġtra ined
Ã §
Ġdiscre tion
Ġo vers
Ġu pper
ĠC L
Ġev il
nC al
Ġext ract
Ġadv enture
ĠC ro
V P
Ġmag azine
Ġch ocolate
Ġne ither
J K
M R
Ġlist ing
nA v
Ġcorrect ly
ĠJ ob
Ġgener ated
Ġstrug gle
Ġfun ny
ĠV ictor
all ow
ĠOff icer
ir al
re ets
Ġtel evision
ĠS outhern
ĠT ext
Ġexclus ively
ĠB oston
Ġgr adu
nMan age
ĠCh air
ĠEx press
ĠRich ard
Ġsuff ering
Ġtransport ation
ĠC re
es y
ĠN O
Ġsurpr ised
il ot
Ġla pt
Ġh urt
Ġdynam ic
ĠPl atform
Ġnorm ally
Ġl ift
Ġorder ed
ĠM ORE
ĠS n
R ead
Ġ ?
Ġprim arily
d s
ol ving
ĠSt eph
Ġle tters
ĠJo bs
ĠFrancis co
ĠH TML
ond er
Ġconnect ions
Ġsuggest ed
Ġinter face
Ġvers ions
ĠL abor
ĠSing apore
i h
ĠQu ality
ay lor
T Y
ĠAs ian
76 1
. [
B P
nA b
w ear
Ġg ear
Ġrepresent ative
Ġexp lo
Ġoffic ers
Ġrepresent s
Ġd uty
Ġcoll e
Q K
Ġsk y
ĠL ine
a ul
r ates
l ie
Ġlan guages
Ġcandid ate
ã Ģ
act er
ĠC lar
nF ull
ĠJ on
ĠN ever
18 9
Ġceleb rate
Ġsect ions
ly mp
Ġprom ise
om ing
Ġmix ed
Ġabs or
Ġro les
ĠQu ote
ĠTr ade
ĠJ er
P er
Ġcal endar
1 80
F W
ĠL iber
Ù Ĭ
Ġflex ible
quis ition
Ġexper iment
tr ans
Ġult imately
Ġpot entially
Ġindust ries
ĠK ids
IN E
ĠP ur
et ails
N Z
M Y
us ive
ĠF ield
ĠEd itor
U Z
Ġc os
B log
47 9
Ġcent re
Ġra w
Ġdis appoint
it led
ĠS enior
99 26
ĠH ol
sh ow
Ġsu c
ĠAdv anced
Ġmem ories
Ġb owl
Ġcons cious
Ġsol ely
Ġclass ified
ĠC urrent
Ġw arning
Ġliter ature
nRes earch
ĠS essions
ia h
ĠComm on
998 77
Ġdream s
in ity
Ġchild hood
44 8
ĠState ment
Ġprint ing
45 9
ann ed
ject s
Ġforg ot
M E
Ġn aturally
93 30
ĠNot ice
ea land
ail ing
ĠC ivil
ĠA k
06 1
36 8
Ġcrit eria
Ġlegit imate
Ġconsider ation
ĠB iden
umb le
Ġeval uation
Ġtrans mission
Ġfollow ers
8027 464
ĠSh ipping
Ġt ip
er a
nM od
ĠC ovid
r ations
Ġple ased
c ular
Ġ 34
ĠMc C
Ġph en
ĠMus lim
Ġhand ling
Ġpercent age
Ġh ospit
ĠZ ealand
Ġd iversity
07 0
t le
are s
nG u
ĠSom etimes
Ġstruct ures
Ġwas hing
Ġdec la
Ġpar am
Ġman ual
________ ________
umm ies
nS te
Ġ id
og en
Ġfair ly
Ġsuggest s
ĠCom mercial
ap y
Ġpack aging
ĠG allery
Ġestim ated
54 1
s k
ĠFil m
Ġph r
N W
Ġper m
nIn t
nCh rist
Ġche ese
Ġincred ibly
Ġass et
Ġch ief
ĠLead ership
ĠWilliam s
ĠSh ort
81 06
ich ael
Ġrequire ment
Ġ river
Ġar ms
Ġmanufact urers
ag ues
Ġsil ver
iz abeth
w atch
T W
ĠA sh
Ġmo ist
Ġro ot
ar on
Ġm g
ĠR os
Ġa thlet
Ġtrans par
x ic
Ġcomp onent
if fer
Ġspec ified
v as
Ġobs erv
Ġconsult ant
Ġl uxury
76 2
ĠInvest ment
~ ~
ĠD ist
Ġnot ifications
ĠRad io
ĠP akistan
Ġb orrow
ï ¸
ly n
ĠElect ric
Ġinvol ves
Ġb order
Ġcon crete
Ġh ook
ad ow
Ġany way
( )
Ġtick et
s ec
Ġexist ence
uss ion
Ġed ited
Ġm ac
Ġneg oti
Ġf ro
V R
Ġextrem e
92 98
Ġter rit
Ġb ab
Ġg re
ĠEn abled
Ġapproach es
ĠM oving
nA ct
ĠV eg
st ore
Ġinvest ments
06 2
nW elcome
Ġsp a
Ġdam aged
Ġant icip
Ġar rive
o ir
Ġexplain s
Ġpow der
OR T
ĠM A
N R
nT weet
Ġdevelop ers
nPro f
ĠH ous
ĠK n
B Y
Ġarchitect ure
iz za
Ġn ine
âĢĶâĢĶ âĢĶâĢĶ
! âĢĿ
Ġsuc ceed
Ġfound ed
G H
Ġprint ed
Ġy esterday
ang ed
Ġpubl ishing
ĠR am
w a
Ġ 65
Ġen ables
sm ith
Ġrout ine
Ġequ ival
Ġsp in
D on
55 8
nC all
98 93
ĠC ountry
Ġsomew here
Ġcoun ty
BB B
æ ľ
ĠH ost
nS e
Ġbreak fast
ig ent
ĠProfess or
33 8
Ġperman ent
T Q
Ġslow ly
Ġsur f
Ġhy per
ord an
97 66
ĠH as
97 27
nW ill
-------- --------
on ed
Ġany more
fra id
Ġappe al
Ġattach ed
la mm
ict ed
nD ata
Ġview ing
Ġdep ression
Ġtr ick
im onial
98 86
ĠF uture
ap h
Ġaffili ated
ĠGo vern
ot ive
la h
nS ec
and y
ĠKore a
Ġs ight
ĠWe ight
nD elete
99 21
x x
L R
Ġinstitut ion
Ġover whel
Ġwid ely
07 1
Ġfl ood
20 09
F Y
nT oday
nAcc ording
w ing
92 96
ĠS ource
Ġfour th
row se
77 1
ĠSp ain
ĠW ITH
ĠC ru
nP ay
Ġa fraid
Ġst ain
Ġact s
ĠContin uing
ĠB ed
N K
Ġacc eler
Ġp itch
ĠK h
Ġc lock
nO h
ou ston
Ø§ ÙĦ
ĠSant a
ang ers
Ġ âĢĻ
Ġcomp at
ĠD ream
Ġredu ction
Ġsatisf ied
Ġobvious ly
Ġprepar ation
ĠO S
Ġdo ctors
97 14
ĠG ive
w an
ĠEd ition
ĠE gypt
ĠS ER
ort ion
35 8
Ġstret ch
ylv ania
Ä ±
44 9
Ġb are
ĠHear t
Ġearn ed
nL ist
Ġres erve
p olicy
Ġpo ker
Ġt ag
Ġr ig
07 2
ĠC ash
Ġprior ity
Ġsh ipped
ag ra
G V
94 85
Ġjud ge
d ates
y ard
Ġauthor ized
Ġw et
ĠC am
clud es
ian o
Ġcan cell
clud e
80 10
Ġblog s
ĠM D
4 11
Ġtrust ed
Ġch annels
et ics
O ST
e z
in f
Ġconsum ption
Ġresident ial
ĠR oll
Ġz one
Ġvacc ine
ĠI mm
cc er
ĠR ental
ĠCh apter
Ġexper im
V AC
Ġcommon ly
ĠH old
ĠY et
98 05
Ġadministr ators
Ġf iction
I nd
Ġsatis faction
ĠD O
ĠAnd rew
Ġinstru ment
ra ction
c ard
Ġal gorith
f ound
Ġintell ectual
N ews
N X
d r
Ġdis eases
nS ource
M V
35 9
Ġpass ing
Ġy ellow
67 0
nL ab
ĠP ast
Ġmass age
ĠS ize
Ġcompar ison
ust er
em on
Ġdiscuss ions
Ġm ob
ĠIss ues
ĠCour se
ĠM ess
j p
st al
ir ts
ĠB BC
nC o
d ays
O ur
Ġcre w
ĠB enefits
or ship
Ġtalk s
ro ph
Ġequ ity
d ata
Ġmoder ator
b el
ers e
Ġre ly
Ġprefer red
ĠYear s
19 26
J R
Ġs aving
ut en
pe ction
ĠF ather
le g
Ġad m
Ġliter ally
87 55
Ġl ie
il st
ĠTh ree
ĠEx p
a fter
at us
Ġreput ation
Ġwond ering
4 15
Ġshould n
Q R
ĠD ark
ĠP ut
20 08
st ud
ĠS C
Ġup grade
if ting
Ġcl im
ĠT w
pp y
Ġf le
Ġpl ate
if estyle
G W
F K
Ġlegis lation
od d
BF B
Ġsubject s
Ġposs ess
Ġper mit
nE l
ĠF our
Ġsm ell
Ġlight ing
Ġinvest ing
ĠMach ine
on na
Ġattach ments
Ġatm osphere
ĠB Y
Ġfocus es
Ġdirect ed
ic ide
ĠB ad
ĠSil ver
ou ble
4 14
97 23
li ament
Ġtreat ments
ri ers
Ġeng aged
Ġth in
Ġdes ired
Ġdis ability
Ġauthent ic
ĠPh il
IT E
Ġout come
à ¦
97 36
ĠAd vent
Ġrel ations
ï¸ ı
e u
op er
ĠM al
ĠK im
gu ard
Ġk it
ĠS uch
ĠAv ailable
ĠSte ve
ĠV ietnam
ĠAdd itionally
20 64
ot ion
98 85
ĠG ift
Ġw er
nO ut
Ġ 37
ch ild
Ġla d
Ġvis ible
g ency
nP at
Ġdeb ate
ci ple
77 2
ĠTh ai
57 0
S R
nFeature d
M O
Ġdraw ing
ĠStand ard
Ġca using
nW eb
98 56
ĠA T
Ġm el
ĠR un
Ġre con
i rop
Ġ1 50
Ġ| \
Ġaccess ories
h av
Ġhop ing
ĠBro ok
Ġcharacter istics
Ġincreasing ly
Ġgr ateful
nM enu
ro gen
Ġfig ures
Ġenter prise
ib l
G O
Ġcarry ing
i our
nK eep
97 94
U p
nes ota
if ies
orm al
G P
nA ut
Ġco ck
Ġcont ribution
te en
ĠBe ing
ns ylvania
43 8
Ġk ne
re ction
nC ancel
Ġfr ag
Ġmin i
M X
nE vents
!! !!
ĠJack son
it is
4 16
am ber
Ġscient ists
Ġacknow led
AC E
Ġrec y
ĠH air
g roup
ast s
Ġfound er
Ġrespons es
ind a
Ġg am
ĠF AQ
ress ed
36 9
Ġperform ing
Ġcheck ed
Ġcons ists
Ġme als
ĠUp date
Z X
Ġdec ent
Ġsign ing
v ard
B FC
ĠSu ccess
Ġbuy ers
Ġmov es
ak a
ol is
ĠChar les
ĠNews letter
nC reate
Ġsuff er
Ġbath room
ĠB ull
te ch
Ġshe et
Ġreg ions
Ġimpress ive
Ġevery where
ĠCh oose
Ġrem ark
se y
Ġpro tocol
Ġadd s
96 46
Ġch ose
ĠAppl ication
Ġev olution
Ġeng aging
ĠN ear
l ive
Ġinj uries
reg on
73 1
Ġens uring
Ġcapt ure
he m
ce ived
ĠL iter
ĠM ah
Ġrecord ing
Ġmin ing
Ġv illage
ĠL aur
Ġin ner
ĠDel ivery
96 23
al ty
Ġown ership
Ġha bit
ann y
per formance
Ġsched uled
Ġenjoy ing
ĠE ll
the w
Ġbott le
Ġsign al
Ġc odes
Ġfla g
Ġdam ages
f it
Ġform ed
Ġcover ing
ĠU t
Ġre ducing
ĠMod ern
Ġshoot ing
Ð ²
Ġman agers
Ġconsequ ences
op en
Ġl oving
ĠF la
97 85
ĠM ir
Ġult imate
Ġre in
98 65
Ġle ct
ĠCor poration
ass ion
99877 71
Ġanaly zed
Z Y
cell ence
IC K
Ġact ing
ĠEx change
nComp any
ĠQu ick
Ġperson ality
Ġre action
ĠMount ain
V C
ĠB ody
Ġt ank
! )
66 1
Ġexhib ition
nP R
im a
74 2
ĠB la
Ġincor por
ĠW as
ĠDan iel
ĠM ur
Î ½
Ġaccompl ish
Ġemploy er
90 63
Ġhor se
ĠT urn
ĠPract ice
ĠSo lar
ĠA rizona
tl ed
Ġless on
ĠAp pro
Ġop ens
Ġpros pect
4 13
Ġl iable
ĠP rivate
L B
ĠB ob
2 20
95 16
Ġsp oke
Ġfind s
Ġin her
Ġfil ed
ĠPre vious
t ario
Ġwin ner
ĠNor thern
56 1
t ru
AC K
ers ion
re p
G X
Ġp ra
orge ous
Ġra il
f all
Ġmark s
Ġt ack
Ġst uck
) (
Ġcomp ly
04 8
Ġparticip ation
Ġadvert is
Ġmaintain ing
ĠDiv ision
ĠP harm
ĠSt ill
Ġch arm
nP ress
Ġobs erved
ĠS her
Ġbo ards
r ont
ĠC ancer
le tters
Ġtom orrow
ĠComp uter
Ġl ies
01 8
ĠRes ults
ins on
Ġcomplic ated
Ġstat istics
B ook
Î ¿
ĠBra zil
pp ers
ĠB lock
Ġc e
Ġel eg
Ġapply ing
iam i
6 20
Ġincor rect
54 0
K R
Ġno ise
ĠPr ime
Ġpresent s
ch ester
Z W
Ġer a
ĠBet ter
ĠFor ce
less ly
b reak
ĠG reek
n v
Ġt all
O O
Ġext ension
ad em
Ġunder stood
Ġpersonal ized
Ġsp ok
eg a
Ġluck y
port ant
ĠLan guage
ent er
Ġok ay
P ost
ĠPer formance
ĠB aby
.. .","
Ġfe aturing
96 75
Ġbuild er
Ġ 55
c ue
Î ±
Ġn arrow
or able
Ġremod eler
ï ¼
ens us
0 90
Ġform al
Ġo cean
Ġpublic ly
Ġdi abetes
03 9
] ,
Ġh ang
ut ies
ĠQue en
Ġd edu
Ġch ances
ĠJ oseph
Ġjo ining
ĠW al
à¸ ²
96 06
l ers
Ġtravel ing
97 57
ant ed
Q S
pe ll
re ts
4 10
66 2
ĠS us
ĠM other
Ġ 00
Ġal ive
us er
nArt icle
aw a
4 80
view ed
Ġcontrol s
Ġh olidays
ĠSp ot
g mail
T r
ĠT X
us al
98 76
A dd
Ġle ts
Ã ±
Ġmed ication
Ġre form
nSk ip
Ġto oth
Ġcare ful
ed ge
u ana
nIn s
Ġinst ruction
63 1
ĠBro ad
am i
ĠS ol
urr ing
y es
Ġy ield
ĠI ce
Ġhost ed
Ġl in
4 21
Ġinteract ion
ĠTh us
Ġst unning
ĠF ord
ha ust
ent ures
63 2
A BA
Ġint ro
ĠT agged
Ġbre aking
ina fter
Ġsomew hat
ia c
iat ric
Ġcommit tee
Ġdistribut ed
Ġst able
4 25
ent ed
ĠSw ed
art ers
ĠD ar
ĠT itle
E FC
Ġ( @
Ġbe er
04 9
Ġsp r
n k
96 56
Ġar bit
et ers
Ġacknow ledge
Ġfunction al
z one
Ġadvant ages
Ġbenef icial
96 16
97 13
97 45
ge on
vent ional
ĠSup reme
Ġoff ices
ig s
Ġbroad cast
Ġb id
Ġinf ection
Ġintegr ation
1 91
43 9
ĠId ent
Ġrece ipt
o ard
ĠE asy
i ro
Ġflav or
id th
Ġsyn th
4 23
c urrency
Ġsupp lements
ĠK it
et ch
95 76
90 50
Ġsus pect
ĠV en
ah oo
à¸ Ļ
Ġj e
96 36
Ġre act
C or
Ġexcept ional
34 8
nD avid
Ġ !
w ed
Ġrepla ced
Ġde emed
ing ly
w ich
Ġsh el
B W
Ġd ust
a id
ĠB u
ex pected
G L
Ġblock s
Ġwalk ed
Ø§ Ø
Ġachie ved
Ġdrink ing
Ġsuper ior
Ġb ags
e ven
7 17
Ġprogram me
9243 959
ĠAn nual
20 07
cl osure
ĠH VAC
Ġfavour ite
K W
Ġenforce ment
ER Y
ill iant
Ġne uro
Ġ( $
Ġ1 999
Ġattract ive
ay a
ĠArch ive
Ġgr ass
Ġtalk ed
Ġnu clear
Ġemot ions
84 73
Ġwork place
Ġ4 00
Ġstrong er
ĠL atin
08 9
Ġstrong ly
Ġd ining
sh ops
ĠA C
Ġobject ive
G C
nU s
un icip
98 26
nG eneral
Ġset up
Ġspl it
Ġnot ify
Ġmus ical
Ġoccur red
ar c
up id
94 36
I H
Ġtrans formation
Ġent ity
Ġbelie ves
B O
Ġh es
Ġbox es
Ġbuy er
ĠG lass
R es
ĠPhot ography
iz ations
Ġtit les
ĠB reak
Ġf its
oro us
nSt ep
Ġear nings
Ġc able
Ġaccount ing
Ġopp osite
Ð »
B Q
F OR
ĠH arr
et o
ĠK ong
ce ive
lo om
96 25
Ġin ject
Ġex ch
Ġfl our
ĠW ould
al o
ĠT ools
ĠSen ate
ĠPlan t
nRep ort
os ystem
0 15
Ġtrans lation
97 06
nT ake
Ġper mitted
Ġpack ages
med ia
ì Ŀ
ĠStud io
quir y
Ġr ising
Ġbr ush
rie ved
Ġpassion ate
ĠRem ember
ig en
**** ****
j i
Ġde eply
Ġstat istical
com fort
Ġdiscount s
97 95
art s
l s
1 90
ĠGu ard
Ġlif etime
for um
nC ON
Ġassoci ation
ĠJ ac
Ġam end
Ġtrig ger
96 96
Ġconsult ation
ĠK ind
p ersonal
ĠO K
ĠMod el
a o
burg h
Ġhead s
Ġsc an
Ġg ram
ĠPost ed
on ic
Ġs ew
4 20
ph ones
05 9
Ġassign ment
p x
w all
Ġp orn
Ġs amples
ĠH ERE
ĠTrans port
ĠB ase
Ġnear by
nCustom er
476 76
Ġexperi encing
Ġun known
ov en
Ġas ide
98 47
Ġor ient
Ġaward ed
ĠSt an
ĠOpt ions
ĠN ature
ĠBeaut y
ard ens
Ġun w
Ġclass room
ĠTop ics
74 1
here inafter
ik a
7 25
st ery
ter ior
Ġbed room
Ġequival ent
ĠProgram s
B X
Ġor al
ĠG ro
Ġindic ated
Ġtrad ition
b its
P r
ĠCh ampion
b ury
Ġdisc rim
um my
Ġpar agraph
Ġrecogn ition
ĠInte gr
Ġevalu ate
Ġbird s
03 8
Ġtradem arks
ĠF ar
Ġf ishing
Ġnutr ition
Ġrepe ated
nJ ul
nP opular
Ġd ad
D L
nLog in
Ġ4 2
Ġprov isions
Ġb le
Ġrel ative
Ġocc urs
ump ster
cc o
98 24
ĠCon n
ĠS ym
Ġm ort
ĠW inter
Ġ :\
Ġproc ure
Ġfulf ill
Ġco aching
ĠH appy
ĠR E
Ġdeep er
h igh
% ,
98 37
ĠL oss
Ġabsolut e
Ġm m
97 16
les h
ah a
Ġmatch es
ĠAir port
Ġent itled
Ġcomp r
955 47676
Ġv otes
75 04
Ġins pect
ict ions
91 47
ĠL A
ĠN OW
ic i
V S
ĠMin istry
0 22
OM E
} \
96 07
ĠD ise
Ġs cope
Ġm ood
B T
Ġunder t
Ġsur ve
4 07
r ent
Ġaim s
ĠM ind
all as
3 21
1 95
ĠA venue
Ġp in
7 27
Ġloss es
ĠH R
97 11
98 14
Ġfind ings
Ġher o
02 9
nK ey
Ġelect rical
Ġunc ertain
Ġintrodu ce
Ġpriv ile
ĠInst all
ĠSecret ary
Ġpen is
ĠSchool s
ĠJo in
Ġfore cast
ĠAss istant
ĠIde as
ĠSte el
ĠChe m
F BB
el ph
95 87
Ġcondition ing
1 86
Ġis ol
ĠN urs
g ain
rid ay
( \"
et a
Ġ urg
nA tt
ig in
h u
ĠE sc
V A
Ġest imate
or i
st ers
nTra vel
ug u
Ġrev olution
od ing
Ġch ampion
âĢĻ .
nSpe cial
in fo
Ġenhance ment
Ġb ounce
ĠR h
v an
if orm
ĠArch itect
Ġbook ing
96 55
Ġk iss
le ar
nE ven
ra q
Ġclos ing
ail ed
97 21
Ġra c
nW atch
Ġdriv en
Ġsudden ly
98 66
Ġed iting
7 07
Ġref resh
st yle
96 91
Ġm it
Ġb unch
nD uration
Ġgra ce
J L
nIn vest
98 16
ew here
is cons
H Q
i y
ist ent
Ġleg s
gress ive
Ġair port
ĠH aving
ĠH istor
Ġparticip ating
97 15
ĠAct iv
Ġdoll ar
Ġt act
Ġw ave
96 44
Ġ 44
Ġexp osed
Ġend ing
ĠTherap y
Ġsa uce
E K
f ire
Ġhistor ic
i ences
ick et
iscons in
0 11
Ġhard er
nE ach
Ġcons erv
nC urrent
Ġrest oration
Ġutil ize
nL ooking
Ġex ists
Ġmin imal
Ġanonymous ly
Ġa wards
Ġiniti ally
ĠP S
A DA
Ġla dy
Ġspecial ist
ab a
94 77
Ġw ra
sp ot
ĠU RL
ĠAff airs
ĠP resent
X L
84 44
Ġdef e
97 83
Ġmatt ress
Ġh iring
ick ing
96 86
Ġtarget ed
Ġscr atch
Ġad mit
Ġgreat ly
ĠEvery thing
ĠR eb
Ġtel ephone
53 2
ĠM ade
6 37
Ġin box
91 24
97 55
od ge
Ġalong side
Ġpopular ity
la ry
Ġannounce ments
nS end
96 76
et ies
98 06
CA A
ĠImp act
Ġst reets
Ġpray er
ri x
Ġexplor ing
ĠColumb ia
4 17
Ġcent ers
EA B
Ġstrict ly
Ġse ed
P D
ĠEconom ic
nCare ers
ou red
g ely
ig eria
96 65
ust ral
el i
ĠOn tario
4 22
95 56
Ġrepresent ation
it utes
nB efore
P Y
Ġatt ribut
Ġweap ons
nU S
Ġh all
Ġto ler
3 45
il ton
l ication
0 10
Ġwatch ed
Ġme ets
1 99
ĠS ave
ist a
Ġalleg ed
Ġvisit or
B e
Ġsub mission
I Q
ow a
Ġex port
Ġpower ed
Ġoblig ations
H N
ĠCons ider
Ġun iverse
97 35
FA E
ĠTH IS
97 24
Ġexam ine
97 75
Ġl es
J C
Ġtw enty
Û Į
ĠC amer
Ġg ate
ĠVeg as
it ative
ĠFriend s
Ġcontract s
98 07
ĠTor onto
Ġtem porary
ag en
Ġheav en
nCh ar
is odes
ĠFlo or
we ets
ock et
i ology
Ġad equ
ĠEqu ipment
Ġnur sing
Ġm old
ĠIr ish
ate ll
Ġc m
ĠF ast
ĠR on
nCom munity
um mer
ĠL oc
98 55
Ġfin ancing
Ġ vert
nD ep
om es
Ġdem ands
Ġp atch
Ġ1 998
ĠDe ad
Ġup gr
Ġperiod s
Ġquant ity
Ġmir ror
ĠPh ilipp
char ge
94 26
urch ase
nc ategorized
Ġg ym
ĠA st
96 14
th rough
64 2
Ġleg ally
Ġdis appe
99 23
ĠD ub
Ġstudy ing
1 81
r un
b usiness
98 11
Ġdocument ation
ĠA L
1 93
Ġle ather
ĠR ose
ck ets
Ġdis cip
20 23
tl ess
Ġiniti ative
ĠE ver
ĠFoot ball
r if
ĠIll inois
ĠO pport
9563 198
F M
97 26
Ġf o
V Y
Ġinteract ive
Ã³ n
AC B
Ġ3 8
Ġindic ates
T D
nAl though
ĠO ak
nD el
Ġvictim s
Ġdro pped
ĠP op
Ġcert ification
54 2
nTh en
T L
Ġbr idge
Ġcontain ing
Ġrapid ly
ĠK ent
Ġsurpr ising
nP ersonal
ĠA D
com merce
ĠO lymp
Ġint ention
Ġsecond ary
. âĢĻ
ĠP ers
ĠB eg
96 05
98 13
Ġlapt op
97 86
nD ate
Ġstr ange
ð Ŀ
nRes ources
R R
ĠStrateg y
O ther
ĠM os
E Z
ĠRel ease
Ġreturn ing
b ra
97 76
h r
96 66
Ġinvol ving
ĠR ay
Ġoper ated
nSh ipping
nG e
G K
n and
Ġg olf
J D
Ġform ula
Ġpl ot
ĠI II
Ġprotect ing
Ġinf lation
Ġprodu cing
it ate
97 84
ot ics
ch er
ten se
Ġinvent ory
98 87
en z
Ġver ify
4 26
Ġinterview s
ogn itive
99 24
re qu
3 10
Ġexp lic
Ġch ronic
ĠV e
95 24
ĠC apt
97 65
99 91
95 83
im age
EA F
nU nder
ĠDe ath
nN ote
s en
Ġdet ect
d ec
Ġpull ed
Ġb io
ĠO m
Ġdis pos
ĠS ide
3 44
Ġgu itar
98 15
ĠW he
Ġbl ind
0 13
Ġserv ers
all el
B OUT
c ut
Ġinv ited
J Q
Ġwork shop
ĠB E
Ġguid es
Ġstay ing
3 14
91 71
Ġregul atory
aught y
84 93
lic a
ut ical
nW orld
ĠEnvironment al
c ookie
F ree
Ġc ute
Ġin n
ĠFr ont
ook ies
ĠSt one
993 5
ĠM oon
Ġwant ing
Ġt ired
ĠL ED
F Z
Ġthous and
ĠM ail
ident ial
nD irect
Ġlar gely
Ġfl ower
Ġqu otes
Ġencour aged
Ġfocus ing
nPr ice
ĠB oy
ro t
96 84
ĠR isk
S M
ĠAl tern
nP ar
ĠPlay ed
¹ ´
Ġmer ely
ĠRest aur
4 35
4 24
ĠD ent
98 36
i lad
Ġf ake
ĠHe ll
1 84
c ap
ab e
Ġmist ake
nV ideo
et ts
96 27
âĨ Ĳ
97 37
Ġun ion
Ġcon clusion
Ġcom prom
95 95
em ony
ĠM P
Ġjew elry
i lan
96 24
Ġenthus i
94 23
A FA
ok er
ul pt
l ik
ourn als
P al
97 87
Ġcontribut ions
un ter
ĠV ideos
97 56
Ġconven ience
Ġp ounds
ĠLo an
Ġjurisd iction
Ġcitiz en
iffer ent
ĠFore st
ours es
ĠC ount
Ñ ĥ
ck ed
97 17
w ill
Ġg orgeous
3 35
Ġclaim ed
Ġhas n
98 17
o z
ĠB R
Ġexp ansion
) ","
97 81
Ġd ose
Ġsupp liers
ĠâĢ Ŀ
Ġphen omen
work s
Ġgot ten
d em
G Z
achel or
Ġgraph ics
c est
98 95
Ġob st
Ġmist akes
Ġban ner
Ġp ace
H M
B ut
Ġsh ower
Ġ1 000
BB F
98 46
Ġco al
98 22
997 5
ĠCl imate
y th
Ġdef ine
ix ed
ĠD NA
Ġw isdom
h yd
Ġstream ing
Ġh its
Ġpow ers
Ġc redits
le ts
ast ed
Ġt ill
Ġb ills
c ode
viron ments
Ġexplic it
ĠC amb
76 8
in ars
G D
ĠChalleng e
Ġcomplet ion
ĠPolit ics
97 91
Ġobl igation
E d
C Y
ĠHom es
990 7
D o
ĠB udd
98 23
Ġtrack s
67 9
Ġph ilosophy
Ġrat io
get s
EN TS
Ġt or
76 9
ĠV eh
Ġn ations
Ġr ural
osp el
95 66
ec ome
95 47
Ġegg s
V W
ĠF ashion
ar ry
Ġprohib ited
\" )
h elp
Ġwer en
ĠHaw ai
ro vers
Ġinv ite
Ġl oyal
Ġcompla int
Ġlaw yers
Ġan nu
96 15
ĠC ategories
fl ix
95 86
ij uana
nPe ople
98 10
AR E
Ġdra wn
Ġes cape
ĠV A
ĠEnter tainment
p ubl
3 37
Ġevery body
imonial s
ĠT og
99 27
3 11
ru its
ys ia
h our
Ġsp ray
O A
Ġcannab is
Ġcreat ivity
Ġh ole
ĠAd am
int on
ach us
ĠOff er
nF orm
utr ition
ĠT erm
95 26
98 44
ĠUn fortunately
96 37
Î ¹
EA L
Ġfac es
ĠS ites
ie ve
ĠI L
iss a
ĠIm ages
ĠH ong
ĠFin ally
Ġsurv ive
Ġsc ores
97 46
95 55
ĠB irth
Ġnew ly
97 05
Ġfall ing
966 34
Ġb ars
ĠT aylor
Ġtra ve
Ġconvers ations
ct ic
1 94
Ġac quisition
Ġr ice
Ġatt ended
ing back
Ġobject ives
98 27
ĠC at
Ġa uction
Ġdescri bes
ĠEar ly
Ġschem e
Ġbut t
ĠCont ract
% )
ĠEx pl
Ġcolle agues
30 22
ĠDie go
Ġimplement ed
ĠL at
Ġelectric ity
Ġimprove ments
ĠTur key
4 90
y r
z es
so le
nRe views
98 25
ĠH oliday
!! !\
ĠGirl s
4 27
3 20
Ġprep aring
0 14
96 13
ĠV eter
94 94
m ag
ĠN C
ĠF ile
67 2
ac ing
ish es
Ġneigh b
nO f
ac on
ĠPen nsylvania
98 21
4 55
Ġrele ases
Ġreview ed
do ors
Ġentreprene ur
\\\\\\\\\\\\\\\\\\\\\\\\\\\\\\\\ \\\\\\\\\\\\\\\\\\\\\\\\\\\\\\\\
Ġdiagn osis
u ous
ĠR ES
nPh oto
S p
ĠRep resent
Ġoccas ion
Ġprofess or
Ġpur s
Ġover view
57 2
Ġemerg ing
Ġext end
st art
06 8
i ate
st ock
Ġthem es
Ġpromot ion
7 37
b ow
4 05
nReg ister
Ġchar ging
th eless
12 96
ĠEast ern
Ġcol umn
Ġst ead
K X
Ġexplan ation
97 77
d irect
ov a
or neys
Ġf inger
1 96
Ġpregn ancy
Ġdevelop er
Ġsaf ely
Ġtut orial
Ġdiv ision
7 14
ĠH D
Ġse es
v anced
th rop
Ġex haust
ĠTreat ment
Ġir re
art icle
Ġautom atic
98 83
V X
Ġfrequ ency
Ġbank ing
ic on
b ie
n al
ĠSt ation
Ġp al
enn ifer
Ġprof iles
Ġ1 990
c ity
Ġflex ibility
M I
O r
ether lands
M an
Ġadop ted
achus etts
nD oes
er r
Ġf ault
ĠB a
Ġh ide
Ġh orm
Ġreg ulation
la ys
Ġrepresent ed
Ġequ ipped
Ġhapp iness
56 9
94 17
ĠRep orts
94 16
ness ee
T O
g han
s chool
Ġautom ated
67 8
Ġre fers
Ġaccept ance
Ġstrugg ling
Ġim per
O ne
ĠUn ivers
ĠEvery one
95 21
ĠRepublic an
ĠR od
ĠWork ing
it o
Ġm ole
O OK
4 37
Ġmaintain ed
ace utical
nF ood
Ġag greg
Ġremember ing
83 17
Q Q
BA B
ug al
Ġre ar
op her
ore t
Ġst ages
Ġ3 9
Ġi P
Ġh at
ane ous
Ġstr ing
Ġwe ird
g ood
Ġiniti atives
ĠComp anies
in ator
n Ð
ĠD ental
Ġesc ort
Ġmor al
ĠR ules
Ġreve al
Ġo ven
96 47
iny l
iv a
Ġess entially
Ġmeaning ful
Ġgar age
ĠK at
Ġdur able
BF D
Ġstock s
Ġsh ops
96 87
Ġansw ered
Ġab usive
DA B
93 83
Ġ 95
itut ional
Ġview ed
ĠGold en
ĠMin nesota
P E
cy cle
ĠĠ Ġ
Ġm ile
77 8
3 17
Ġ 64
ab il
4 91
ĠPer haps
Ġal ert
Ġend ors
ĠTh ird
A LL
96 26
nD uring
are t
ĠStat istics
ĠWork s
96 83
er k
93 75
ĠC ell
ĠM ust
Ġspe aker
Ġbehav iour
Ġsent ence
Ġt one
ĠSqu are
nD igital
r ary
ru ck
C o
Ġgovern ments
Ġ ere
Ġpromot ing
h o
3 25
c r
nRe quest
nM edia
f unctional
Ġcal m
ĠR ub
ĠF ox
06 9
ĠPay ment
ĠRes pons
95 85
ig ious
v o
Ġgenu ine
S H
DA Y
ĠInnov ation
Ġconv in
ĠP ick
nJ an
ic are
Ġput s
ĠInd ones
ĠRet urn
4 36
Ġab and
ĠTh ink
at ile
93 23
ĠW i
elph ia
ĠS ustain
ps on
is ely
ĠDo ctor
ĠS O
1 83
k ers
ĠHen ry
Ġp ink
56 8
Ġphotograph s
t able
Ġexerc ises
ĠS ug
Ġac quired
ian ces
Ġst ability
96 94
ĠUs ers
nP ingback
0 20
65 2
! âĢĿ\
ob e
BA D
CA D
Ġpr ide
Ġr u
Ġsp ark
Ġsubmit ting
95 25
ig e
B FA
Ġfact ory
Ġref use
ĠMot or
0 23
og y
the y
ĠL as
nDisc laimer
Ġtiss ue
Ġf illing
ĠInd ex
nE mp
Ġpropos al
ure au
ĠEn joy
Ġdesign ers
ĠL i
Ġemploy ers
nEng lish
ĠCo ver
umin um
f i
95 46
Ġw aters
it ations
ĠC reek
Ġha z
ĠAtt orney
Ġun expected
96 21
h es
ord inary
ĠIm age
Ġh am
994 6
ric ultural
nP lay
Ġconfig uration
ĠO regon
th a
Ġdemonstr ate
ĠD un
ĠG re
3 80
Ġcomb ine
ĠI raq
ĠH ouston
ĠC ome
Ġcomput ers
Ġrec all
93 37
ĠU P
Ġt ags
Ġb aking
ĠB ased
ach ed
he im
ĠB L
Ġl atter
Ġannounce ment
Ġpri ze
ĠReg ister
Ġs oph
98 84
ask et
cri bed
ĠM uch
Ġm ath
Ġwe igh
4 94
Ġscen es
3 55
ĠChrist ians
ĠJ ess
ilad elphia
it u
Ġatt itude
Ġla id
ĠB io
ĠArch ives
3 84
80 927
du ced
ĠIn v
s uch
Ġhot els
et al
Ġg ap
A BB
Ġg ay
EE B
ist ing
Ġlegis l
Ġn aughty
hemat ics
wh o
Ġreach ing
E BB
c ore
ibr aries
Ġglo be
Ġimpact s
ĠC eleb
65 1
Ġres erves
IG HT
ĠS ound
p se
av y
Ġtem plate
ĠC ann
7 35
im m
nL ove
ĠC rit
96 17
Ġar ray
96 35
ĠAl ways
Ġcon version
ĠUp dates
anch ise
Ġin ch
UR E
ĠFacebook Share
ĠIm prove
sh ot
Ġmod ify
list e
ow ers
Ġro se
53 1
Ġwrit es
as m
Ġbl end
4 33
ro ke
ĠPr im
77 9
98 45
ĠJ r
Ġvict ory
3 13
Ġpubl ications
Ġch a
d og
Ġsell er
BD B
ent h
Ġ25 0
ĠR ound
ĠL ot
ourn ament
s ewhere
Ġl oud
3 15
Ġfall s
F V
d i
EC A
Ġsp ots
nIn ternational
Ġmind s
d ed
Ġdis ag
97 93
Ġjud gment
nN e
v ity
Ġgain ed
nH ey
ĠL y
Ġw ins
nM in
4 81
95 75
s ervice
ĠC S
pr ing
95 06
B K
0 26
pl ates
ĠAuthor ity
ud es
Ġro w
Ġy ard
7 36
ĠB an
96 93
96 33
se lling
% .
0 81
Ġ1 20
Ġdec line
g l
95 93
Ġphot ographer
Ġt ub
Ġaddition ally
nB l
y p
min ent
ĠO cean
Ġj un
nUn known
A BC
Ġemp ower
Ġtri ps
p onse
n ie
nAs k
Ġsome how
Ġestim ates
07 8
Ġdeb ut
C W
ess ional
Ġb ench
Ġres idence
ĠUn it
Ġadministr ative
95 14
ĠA CC
ĠCommun ications
5 10
Ġse eds
ile y
n an
Ġ 46
ĠB ern
o en
P O
p ur
ĠE ric
fer red
Ġw arn
w riting
Ġc urious
con f
98 75
ĠC ards
Ġappreci ated
nIn formation
Ġexp ense
our i
f irst
Ġdis pla
64 1
B Z
ĠM ove
Ġperson nel
Ġin tense
ĠD iet
lo ans
95 15
nLab els
Ġinteract ions
nM r
Ġen vironments
Ġk m
M K
Ġfl uid
nEx per
Ġdecre ase
ou ver
ĠN ation
Ġb one
4 84
Ġdep loy
96 45
Ġy oga
Ġdon ation
Ġstud ied
ick ets
Ġtransfer red
in ance
ĠFlo oring
8010 7504
3 30
be an
95 13
Ġwh ilst
nM ain
ĠO x
B V
ar th
ĠPe ace
3 16
ĠT ags
915 1926
ĠSar ah
ĠS port
AC A
EA T
Ġdiv orce
U Q
ĠA z
âĢ ī
Ġin cent
ED B
ol k
95 37
Ġvot ing
ĠDef ense
Ġfac ed
Ġw ake
M ay
ĠD ue
95 84
Ġcont est
G T
95 94
rupt cy
ĠMe eting
96 67
Ġper f
Ġconfirm ation
Ġpurs ue
im p
s l
ath ers
Ġequ ally
Ġproduct ivity
Ġg iant
0 21
AF D
Ġask s
ĠP ict
6 75
Ġhigh lights
Ġsum mary
Ġwell ness
Ġdist ingu
emp loyment
ed in
Ġinform ative
AG E
96634 054
Ġd uties
Ġmy th
act eria
Ġres olve
ĠUl t
riv en
il ty
ĠFurther more
ac les
erv ing
nColl ege
98 35
Ġres et
Ġst ood
E ng
ruit ment
ut ral
91 66
Ġorgan is
eng ers
Ġhe ating
j ud
Ġeffect iveness
4 30
Ġodd s
Ġcomb at
Ġcas ual
Ġimm une
ĠN AS
ĠEl izabeth
H O
Ġ 43
95 17
ĠSty le
st ruction
98 94
ĠL ew
BA E
ĠB and
em ble
á º
ch a
Ġfew er
Ġh ors
Y Y
1 87
Ġcor onavirus
pay day
Ġde ck
Ġst ack
ĠTwitter Share
ang el
D W
log y
Ġv ent
ĠSt ay
ĠN ick
I J
Ġremain ed
Ġprincip al
n ad
ound ed
G N
95 23
Ġkn ock
Ġaddress ed
Ġen abling
ex ual
Ġbro ke
ik ip
OV E
ĠS aint
95 45
ĠS el
Ġr end
rim inal
W ith
ĠC C
7 75
nU ncategorized
7 44
95 65
ĠVal ue
Ġman if
Ġapp et
st ep
Ġthink s
ĠQuest ion
Ġpo cket
nSt ay
1 000
M Z
Ġintegr ity
Ġse am
Ġab ilities
ĠYou th
Ġhear ts
Ġair craft
ĠG as
Ġp ic
ĠS ong
Ġsk illed
ink s
Ġec osystem
ĠH ind
95 91
i agra
ious ly
0 12
R E
nJo ined
Ġk illing
Ġ: )\
ĠIn iti
ĠAP I
ĠJ ordan
ĠF red
ĠM ission
Ġd il
95 44
2 80
he art
I CE
Ġ á
ĠAss ess
Ġdiffic ulty
0 91
ra it
Ġlimit ations
c at
su pport
on ia
Ġliber t
BD F
ĠV irtual
ĠW ars
Ġr ush
r us
on ly
5 16
Ġre cre
ĠD oll
Ġ 99
Ġstri ke
ay er
Ġl ens
Ġbr illiant
Ġactiv ely
Ġsh ots
6 10
Ġcollect ions
Ġprin ciple
Ġst ations
ĠComp et
ĠH ub
ĠBrit ain
Ġpe ak
urr encies
ab ad
Ġv ess
Ġs ought
ĠCle ar
ĠDav is
ĠM iami
20 06
57 1
wit zer
ol t
ree ce
Ġres id
Ġcr usher
Ġl enders
Ġsubstant ial
80927 044
æ Ĺ
20 00
Ġvers us
BA A
BA F
anc ouver
Ġnarr ative
Ġwor ship
Ġhy brid
nD id
ĠMore over
4 93
ph a
95 27
Ġindex es
Ġse gment
Ġac qu
own ers
ĠB ag
nQu est
Ġconsist ently
Ġdis order
Ġman ip
EE E
Ġnot ification
ĠPrem ium
ĠAct ive
ĠN FL
u um
ĠCar l
Ġf lying
Ġlay out
Ġb oss
96 77
Ġveget ables
N ot
Ġattempt s
nRe view
ĠC reate
7 26
Ġv ill
4 34
96 00
ĠPer fect
Ġcontinu ous
Ġd ys
Ġmove ments
ĠV illage
Ġsh arp
Ġpract ition
Ġlet ting
ĠP oly
Ġanal yst
yd ney
Ġoper ational
ä ¸
ĠMe et
nT wo
Ġmod ified
nA c
p ath
Ġn ic
Ġsubst ance
g ie
Â £
à¸ Ń
Ġem issions
ĠLog in
ĠR yan
ĠTru ck
ER T
ĠUS B
Ġbelief s
Ġha bits
un s
ĠM ajor
ĠThe atre
D X
Ġg all
ct u
or se
ĠF ed
p ower
Ġp upp
od a
nMe et
Ġcollect ive
Ġpregn ant
Ġpla in
ol i
M F
Ġst upid
ĠR at
' \
H H
U J
las ka
ĠW ays
Ġappar ently
ad ium
5 37
93 85
ul ating
Ġlot tery
Ġm ild
witzer land
eg es
Ġsubsequ ent
98 77
Ġ ought
th ony
Ġdes erve
64 9
Ġb ow
nEx plore
Ġenc ry
Ġf estival
Ġlist ings
5 11
FOR M
4 04
ermal ink
ĠAust in
Ġord inary
p df
ikip edia
ĠS cient
ĠThanks giving
Ġagre ements
Ġfacilit ate
ĠF itness
l ooking
em an
Ġdrink s
re view
5 21
Ġtemperature s
Ġreg ards
Ġ `
Ġcour ts
Ġph ones
nG r
Ġimpress ed
9106 276
t es
Ġcontain er
ey ond
Ġant ib
nR ef
nE ducation
Ġn ights
ili ate
0 16
ĠIn sp
ĠPress ure
im s
ĠReg istration
Ġmoder ators
ur u
4 01
975 04
N J
Ġsustain ability
97 33
P V
Ġfarm ers
Ġc ats
3 24
ag an
ĠN J
nB lack
Ġcop ies
Ġprof its
95 07
Ġdiscl osure
ĠAn sw
Ġa esth
ĠT ro
ĠD iam
ĠW edding
nD an
Ġsome body
Ġgr at
ĠP OL
Ġres ort
ĠH ollywood
Ġle ase
Ġqual ify
ĠCommun ication
o a
j ack
ĠDon ald
98 91
ĠAdvert ising
Ġprevent ion
Blog This
ud io
3 26
ĠOrgan ization
Ġel ected
Ġblan k
Ġhor iz
Ġvulner able
A merican
Ġshe ll
ĠTh ough
ĠPro s
Ġa lar
ĠN ations
... .\
7 16
D K
ful ness
ĠBl ood
6 36
Ġv oc
ĠThis BlogThis
ell e
84 07
96 57
pl iance
EA C
nAdd itional
ĠC raft
Ġsa lary
Ġtim ely
for ward
Ġc otton
Ġle ague
5 15
ĠP ed
r ific
Ġscen ario
ĠPart ner
4 03
ĠHall ow
94 07
Ġr iding
Ġhop es
B EC
Ã ¨
95 35
Ġ4 1
ĠPhys ical
3 27
ĠCons umer
u ition
Ġoper ator
col or
Ġab road
nS ports
ell ing
Ġpres cription
97 67
93 36
ec onom
Ġ ×
Ġwor ried
Ġs en
93 13
Ġover come
nB rand
ĠAr m
94 14
Ġac quire
n th
m ind
ined u
Ġconsult ing
c amp
94 76
ĠS ir
nOn ly
98 03
Ġra ising
Ġimportant ly
b age
Ġwish es
Ġar my
ĠM aking
ĠG reg
os ity
F FC
95 11
Ġexcept ion
g reen
Ġdel eted
ĠSaf e
Ġtherap ist
Î µ
ĠD umpster
Ġmod ule
Ġdirect ions
95 05
top ic
S O
Ġposs ibilities
nRe al
ĠT ut
ec om
ĠC ut
ĠE duc
6 16
air y
Ġple asant
o very
su it
Ġp ul
G et
Ġmeas ured
EA E
g ra
98 00
) :\
m ont
\" >
P W
Ġaccess ed
nF r
nB ecause
ĠCo ffee
Ġsm oke
Ġpoint ed
ĠGar age
ĠApp s
97 80
Ġplan e
3 46
D ED
enn ial
Ġmus cles
nL ife
Ġunus ual
Ġd ies
ĠIntell igence
Ġy o
nP l
Ġse ats
ĠB C
Ġp ets
FA F
90 94
ri or
6 25
ĠM ental
Ġprot est
nPro v
ĠM iller
nG lobal
ential s
cl ick
ĠSe attle
Ġass ault
ang le
if ier
à¸² à¸
Ġd ash
ĠB h
E LL
6 21
Ġf urn
3 86
DA F
Ġ identification
Ġp uzz
ĠReg ional
7 24
93 26
93 17
P I
ĠE uro
Ġbreak s
4 87
ĠV ice
nAn alytical
ĠT ool
Ġch est
ĠD at
it arian
ĠB rian
w as
Ġdeath s
Ġspeak ers
Ġ 47
ĠDes pite
ub a
ok ed
The y
Ġf est
94 35
m akers
uck s
olit ics
4 95
94 83
7 13
96 10
st ory
99 00
c ery
ĠPri or
7 15
Ġcoup les
hold er
5 20
3 23
Ġt ap
un ct
ĠMary land
7 55
uth ors
94 84
Ġlow est
ĠSk in
Ġen emy
R ef
am ic
Ġdiscl ose
v ation
ĠDel hi
ĠB ird
ĠW isconsin
om ach
k ind
are house
Ġke ys
Ġshould er
Ġdivid ed
Ġbab ies
con ut
g ener
ĠTr ading
Ġthreat s
Ġrep lied
98 34
Ġ4 9
ell a
Ġro y
ast ing
97 30
ĠP in
5 33
Ġrare ly
pect ives
K L
ru ce
Ġf iber
lo an
Ġel sewhere
Ġblog ging
Ġg onna
95 77
Ġfem in
ĠW orth
Ġaccess ing
read s
t w
nM ark
Ġcheck s
5 75
r ity
95 00
ĠDr ug
ĠTra il
Ġ1 980
ĠB lu
ab ol
ock ey
ĠPre p
94 13
Ġart ificial
Ġsett lement
9486 562
D FC
ever al
Ġcompla ints
K Z
ĠPh D
ro us
94 55
Ġm useum
lab ama
98 57
n or
ĠUs ed
Ġrepair s
Ġ1 997
Ġany time
AR D
nM embers
ĠWh ats
ĠF ive
Ġ- \
Ġcoun cil
pro t
ain e
94 25
Ġinstru ments
Ġtarget s
d on
0 55
94 65
B G
c ert
Ġgener ations
ĠC os
Ġl ender
Ġfant asy
63 8
ĠCal endar
995 4
H J
ĠF ant
nL egal
lo ve
ĠCare er
olog ists
Ġlock ed
ĠL ooking
Ġrespect ively
m ic
66 8
Th at
AC C
Ġphys ician
98 53
97 22
Ġann iversary
Ġopp osed
Ġlay ers
g ame
nD ef
Ġpack ed
94 11
ĠD IY
ir k
Ġsuff ered
nSt r
93 76
ĠGrow th
Ġter rible
ĠJ ews
ĠL ocation
V E
96 54
U F
Ġinst antly
ou b
94 56
Ġunivers ities
des ign
ic it
Ġpan els
73 9
ĠOld er
Ġins pection
ĠL atest
Ġver ified
5 17
ap se
Ġcont rovers
37 57
93 74
win ning
ĠS EC
Ġport al
Ġdis aster
95 61
Ġres ume
97 54
g ement
Ġpro port
Ġbl ow
94 06
mm a
Ġmix ture
ĠA h
ub Med
Ġm oon
Ġro ots
Ġun limited
Ġrefer ences
87 47
ĠAR E
oles ale
ĠB at
c alled
r ine
96 64
Ġdep os
nO ct
S I
Ġvirt ually
Ġpo etry
Ġcomple ting
Ø ¯
97 34
5 13
ĠHallow een
N F
Ġelect ions
Ġvolunte ers
M ENT
ĠC ould
nd rome
Ġcomp an
Ġdesk top
X Y
93 44
Ġr h
Ġh ung
Ġdis orders
Ġdepend ent
ĠW ish
3 22
Ġterm ed
nWhat s
Ġwire less
5 25
G u
ĠK evin
Ġconsent ed
Ġrob ust
Ġent ities
ĠWil son
nS H
ĠM u
Ġdish es
Ġla ke
Ġpla cing
ĠHealth care
I EW
97 64
Ġlad ies
d eb
94 46
ĠRec ords
ĠP ath
ex p
b ally
ĠCert ified
quir ies
99 22
ĠL uc
Ġs olic
Ġrest ore
ag a
nT HE
nF iled
ĠTechn ical
Ġs our
Ġaffect s
nM onday
ĠDemocr atic
Ġconnect ing
D Y
Ġwest ern
6 44
lah oma
Ġunder lying
ams ung
P art
73 8
prof ile
W Y
ĠC T
â ľ
96 22
7 23
6 24
94 66
7 20
pt on
Ġcl ubs
97 10
d am
p ool
nS ervices
ĠFore ign
T ra
ear ing
Ġorgan isation
BB A
per ties
Ġdr ag
Ġm ature
ĠProb lem
Ġsleep ing
Ġheav ily
um ni
Ġt ons
sp ace
Ġcon vey
Ġven ue
ĠH ills
7 10
Ġrepresent atives
Ġn a
ĠB urn
Ġcompat ible
Ġcr ush
ish ment
ĠS ay
ĠSt ep
ĠG h
Ġbet s
d iv
Ġefficient ly
Ġno body
I d
91 55
Ġth er
ĠPhot os
igr ants
ĠCor porate
0 25
Ġb old
Ġpe er
â Ī
H F
Ġarriv al
ĠN igeria
4 85
Ġa er
Ġleg end
H I
Ġ8 00
ĠR og
93 86
6 46
ot ing
ĠHous ing
Ġhor ror
ph ot
f ood
Ġco at
95 57
97 20
Ġpr ime
Ġinj ured
ĠGr ant
Ġ ou
2 86
Ġdis covery
word press
Ġhuman ity
ĠâĢ º
Ġoffic ially
d ale
ous es
Ġgraph ic
94 15
nM ichael
6 56
Ġf ib
Ġdis able
Ġceleb ration
82 2064
æĹ ¥
ĠW ire
7 11
nWh ether
Ġb ug
Ġd ear
OU R
ĠBr ad
Ġknowledge able
ĠTH AT
v ance
5 77
il ation
Ġcomp lim
in als
Ġsure ly
ĠIn j
ĠDe ep
Ġ1 970
ile t
Ġhe ading
Ġnut ri
Ġinf ring
Ġor ange
Ġbrow se
ĠG ala
Ġt ort
Ñ Į
Ġcomp assion
Ġre wards
ĠIndust rial
90 55
Ġcalcul ated
Ġacc um
Ġsect ors
Y our
Ġnews paper
pt ed
ĠF irm
ĠR SS
n re
6 35
Ġpre cious
6 30
elf are
m ate
EF D
Ġpsych ological
Ġst er
medi ate
Ġcon ver
Ġelim inate
5 14
Ġgen etic
Ġburn ing
G F
Ġsec urities
un ate
Ġinvest igate
res ident
pt ions
nT ype
Ġdevelop ments
nT otal
Ġfasc inating
Ġexpand ed
ĠKore an
5 26
sp a
M ar
Ġs outhern
ob b
97 04
Ġdel ivers
ig ion
93 46
nS om
4 83
B CA
ĠDise ase
ĠN etherlands
Ġcult iv
Ġ }}
ft en
94 75
U A
27 35
ĠL ady
0 37
umb ing
ĠS ala
Ġun lock
Ġ ì
V Z
Ġcomp osition
ĠA N
953 19
ĠEx am
5 23
Ġl ip
ĠAll iance
7 76
7 84
Ġgra b
Ġroad s
ĠD IS
Ġcur riculum
Ġmult ip
Ġmed ications
ick ed
Ġsurv ival
! )\
Ġdriv es
7 21
ĠRel ation
ĠBath room
ĠT a
nV ery
2 84
oen ix
ĠC ooper
ĠG raph
ĠC her
Ġemploy ed
other apy
Ġtradem ark
D es
| \
ond a
ĠComm ons
ĠS ix
Ġp ip
Ġy e
Ġaccept ing
6 14
Ġmoder ate
t ail
ĠAtlant a
nAdvert ise
um or
ĠWell ness
ĠP opular
ĠNot es
ĠR ome
ed e
Ġsex y
AD E
0 27
ĠPar ent
in ant
nC ategory
5 22
4 86
met ic
Ġvol unt
ĠB ot
col n
Ġi OS
ape ut
ĠRec ipes
91 76
pl us
Ġt ape
96 81
Ġadv ised
2 85
ĠN ob
Ġb acteria
ĠT otal
ĠR ap
war t
95 43
FA B
Ġm ad
ĠL yn
T ime
Ġb anned
ĠProv ider
du ce
ĠF low
Ġatt ending
s ource
6 22
9050 175
ĠM essage
Ġphys ically
an alytics
Ġsw ing
Ġtri als
Ġcamer as
Ġdis miss
98 74
O Q
ĠS W
erv ous
Ġ Ø§ÙĦ
p ublic
98 81
C CA
ĠK enn
ĠD allas
Â Ģ
ĠD ry
96 53
ĠJ am
b urn
est one
90 44
ommend ed
ath on
5 07
5 30
Ġshort ly
ĠClass ic
Ġren ov
ĠM oo
Ġbre ach
st an
Ġfrequ ent
Ġdifferent ly
Ġab und
Ġinf lamm
S G
ver ty
Ġc ure
97 74
Ġrespons ibilities
ĠF ellow
inem a
Ġswim ming
ocu ments
x id
Ġto xic
Ġbu ff
Ġemphas is
Ġbon uses
T e
lik ely
Ġm aps
V L
item ap
Ġeleg ant
B AC
l on
act iv
ric ing
Ġc ul
ĠD ig
Ġ1 996
Ġg allery
Ġpro pri
94 45
6 15
Ġcar ing
Per formance
nQu ote
ĠLin ux
ĠProject s
ĠCry pto
and ise
4 12
it ivity
75 9
20 05
ĠAud io
7 03
d el
Ġf ert
Ġcon ventional
Ġact or
7 80
ĠMov ie
ĠB ul
Ġvolunte er
98 67
out heast
Ġju ice
Ġse asons
ric a
Ġinv al
Ġharm ful
ĠMass achusetts
Ġadop tion
6 11
Ø ª
ĠP ages
Ġwork er
j s
6 55
93 84
2 81
Ġfre ely
ĠEmer gency
OR D
Ġstay ed
Ġlike wise
3 90
Ġton ight
Ġhar vest
Ġmechan ical
load s
7 06
95 30
ĠNurs ing
66 9
in ely
gr aduate
ĠM s
Ġmount ains
Ġcons olid
ĠAn ton
ach ers
ĠP it
v ia
ĠK ansas
ĠFR OM
Ġcut s
ĠR ate
Ġp our
enn a
urg ery
ĠN othing
9334 894
f ish
Ġdes per
Ġtr im
Ġpo verty
Ġeth nic
ĠAssoci ate
p al
94 24
Ġchemical s
ĠS now
Ġform ation
ĠCom ple
ĠSing le
p any
Ġm ic
V M
he ll
ott ed
Ġadv ise
95 10
S c
Ġenh anced
Ġsem i
f ly
Ġwork out
96 167
Ġblock chain
ĠC and
G I
T Z
Ġpr inter
iche lle
94 87
T ACT
az e
P X
ĠH ours
la stic
EC B
ser ve
6 80
ĠF oil
Ġins ert
ĠA ve
blog spot
Ġground s
91 46
98 04
92 85
our t
nDon ate
ĠCh annel
sc ale
Ġarrest ed
ĠD oug
ĠD ak
ĠVol ume
nH ot
0 24
Ġoff ensive
AA A
96 74
94 37
93 66
un es
nMarket ing
Ġm erc
N ecessary
6 23
Ġchar ity
84 95319
Ġg ummies
isc al
Ġmechanism s
0 84
Ġca ps
atell ite
Ġgold en
ph y
ĠT ai
ĠCoun sel
Ñ ı
ĠM enu
5 36
0 17
ac a
Ġhost s
Ġg ene
jp g
ĠSur vey
Ġl oose
Ġviol ation
Ġb es
re ach
C BC
c end
nSt ate
Ġdownload ed
ap olis
Ġinsp ire
Ġar ising
m ers
k h
n is
BF F
Ġd ont
Ġcir cle
Ġspecial ized
ĠM I
ĠN ev
ĠT rip
93 27
AV E
Ġcooper ation
T ION
Ġgr ants
Ġfil ters
AB LE
96 63
A AC
Ġexam ination
nD etails
FA D
ĠF ocus
K U
ĠAssoci ates
90 66
Ġdram a
Ġvend ors
Ġd rain
ĠF inal
97 53
Ġassist ant
Ù ĩ
Ġsc ulpt
ĠM ortgage
A I
F EB
Ġto ys
ĠT owing
Ġst rip
95 03
Ġcer emony
3 81
Ġidentify ing
ĠT am
Ġarrang ements
ĠTh ought
Ġcar rier
95 67
N Q
und ry
Ġsequ ence
yth on
ĠD ave
p apers
65 9
ĠTen nessee
irl ines
ĠExper t
0 36
Ġwhere as
Ġcy ber
ĠD R
av ed
75 8
ĠC laim
2 91
ĠC abin
W R
ĠF am
an ne
Ġtext s
Ġre verse
98 33
back s
ĠR and
93 976
Ġargu e
93 16
Ġimp ression
B J
Ġhar ass
ĠG olf
64 8
Ġtext ure
Ġcult ures
Ġ 85
r in
Ġw ise
al g
u is
Ġ5 2
ĠCle aning
ĠCom b
Ġmin istry
ĠDub ai
ĠO cc
7 47
Ġf t
93 25
99 20
ĠMaterial s
Ġn ose
Ġindepend ently
Ġfil ing
Ġh ub
EA A
Ġh anging
94 91
Ġmy stery
nNews letter
87 66
Ġsatisf y
nEd itor
93 15
nL ead
ĠF ab
933 3022
Ġrecommend ation
6 76
C an
v ar
Ġopt imal
96 73
ĠCh irop
se ason
ĠD ocument
ĠJ ane
2 83
3 85
94 47
Ġd up
Ġextra ordinary
Ġch ips
Ġun t
ĠL GB
96 98
96 34
Ġass embly
93 55
7 22
Ġsh it
ĠS yn
ĠMil itary
Ġappoint ed
old s
Ġexecut ion
Ġ1 01
vent ions
Ġspecial ists
nFeature s
Ġmatch ing
nC lass
ĠAf ghan
à¹ Ī
ÂĢ Â
Ġdown town
Ġo m
Ġhad n
bo ards
est y
ĠS cript
Ġamong st
com ment
ost ic
11 64
T ech
ĠCo ach
ĠR ain
cipl inary
nDes ign
G Q
ĠDes cription
Ġreve als
w iki
xy gen
Ġselect ing
ĠW ine
e vent
ĠSpr ings
u i
5 24
Ġtalent ed
Ġthorough ly
pr ises
ĠY eah
Ġutil izing
96 04
Ġut ility
ex per
Ġnetwork ing
nCh ild
c ountry
Ġaffili ates
Ġaim ed
ĠD utch
Ġfeedback s
5 76
ĠJ osh
ĠC ool
Ġphr ase
avor ite
Ġent rance
ĠPl umber
2 90
7 05
ater al
man n
ac ular
Ġmin ister
ane ously
av as
P H
Ġor g
Ġpros pective
ĠInd ependent
Ġl y
Ġsol o
ĠG a
ĠHar ry
Ġrece ives
ĠS ept
nP lan
Ġsign als
54 8
IC ES
Ġnew est
ĠAR T
ĠAss embly
if ully
nU sing
Ð ´
ĠS leep
u h
u z
98 30
ing ham
E n
es a
b oy
Ġeng ines
M J
95 74
93 56
w idth
Ġpush ed
n www
Ġp it
93 47
il itation
nF il
Ġ riv
ĠReg istered
nN ational
an while
ĠPart icip
b uy
0 85
0 45
Ġrat ings
7 30
ĠGuid elines
le an
Ġoper ators
nPh ot
ĠB uff
Ġcollect ing
94 57
ĠOr ange
ĠRec overy
i op
Ġb other
ex am
nC ontent
AN CE
Ġleg acy
nT est
63 9
I DE
An alytics
ff e
ab olic
ĠW ales
pin ion
IG N
Ġcorrespond ing
Ġcor por
cent er
h ot
ĠPr ince
ĠF at
Ġt rib
Ġcheck out
am ps
m ad
nT ime
Ġy eah
ak i
53 8
876 30
ĠTru th
ĠMr s
ĠN ic
à¹ Ģ
c ash
Ġwork shops
Ġwatch es
im ony
Ġconc ert
Ġinterpret ation
Ä ģ
Ġrem oving
OS E
ĠL es
ĠIndian a
98 64
Ġun iform
Ġvis a
Ġl i
Ġmar ijuana
81 61
se a
Ġ ?\
Ġag enda
IM E
BD C
Ġep isodes
G o
ĠI V
ĠH ur
Ġrom antic
Ġterrit ory
ĠN utrition
m ay
ĠTechn ologies
Ġinv as
ĠG al
Ġweap on
ch est
ĠW ant
ĠU nd
ĠT an
nT el
Ġst rive
Ġpush ing
6 17
Ġf ont
lot te
0 46
ĠOff icial
Ġmeasure ment
96 30
elt a
pens ion
Ġf ingers
Ġinsp iring
Ġparticip ant
Ġbasket ball
s a
Ġm aker
ĠCh at
ĠM atch
Ġhead ed
53 9
96 80
ag le
Ġboy friend
Ã ł
Ġg la
nP ort
6 26
os a
th od
Ġautom ation
Ġrel ate
ĠI ron
Ġpros ecut
M e
Ġabs ence
ĠH yd
ĠDemocr ats
Ġaccept able
ĠPh iladelphia
art icles
Ġuns ure
7 45
ĠPhilipp ines
07 9
ism s
Ã Ĥ
6 06
7 34
7 81
Ġdem ocracy
ĠE ST
91 86
ĠMala ysia
ĠSteph en
ĠDe al
g irl
Ġin clusion
Ġr anging
re a
pr ice
Ġsh ips
95 22
nE lect
Ġspeak s
Ġgu ilty
nP ass
97 03
94 27
Ġbalan ced
AF E
Ġmed ic
93 06
t i
6 34
ĠMin i
Ġst omach
Y R
nWe ek
Ġstake holders
ot ional
ĠB ridge
s creen
ï »
DA A
Ġcontract ors
Ġsp ouse
Ġgather ing
Ġbla me
Ġart work
Ġh ol
D EC
ĠAm ong
Ġcra ck
ĠR V
iction ary
Ġstrength en
Ġet ern
ĠLo ans
N E
97 90
Ġpromot ions
93 35
un n
ish op
4 08
Ġadd iction
Ġimplement ing
Ġw aves
in ction
ĠFre edom
6 13
nL a
nP ublic
Ġche aper
EE F
ann ah
nJ un
j an
Ġign ore
n viewed
Ġmotiv ation
Ġs orts
ak h
ĠOper ations
852 8473
98 54
Ġcl ip
Ġ \\
å ¹´
5 35
ĠF em
b uilding
Ġtable t
ĠGu arant
Ġaltern atives
F unctional
Ġdisp ute
Ġw ider
ĠR ace
Ġprodu ces
Ġenjoy able
Ġinter vention
ustral ia
95 81
Ġoil s
Ġhospit als
nW ater
et in
4 02
7 90
nK now
P K
Ġel der
96 20
EF B
ĠJ ay
ĠS ure
Ġst opping
Ġl on
Ġst ops
Ġfin est
Ġsold iers
Ġdestroy ed
95 64
ĠRe ally
AS S
Ġconf used
D BB
Ġ }}\
3 47
93 14
ĠMed icare
Ġra cing
S m
ad er
r iger
Ġt ours
94 05
Ġproduct ive
Ġparam eters
or ient
ĠL ev
Ġen orm
Ġex empt
ĠInd ividual
ic ut
r ane
Ġann oy
ic ity
5 27
nDe velop
Ġcour age
A ED
7 85
Ġ6 00
ĠLar ge
Ġadvis ory
98 80
ĠLaw yer
ĠE lement
B EB
nA ir
93 80
nL ocal
ĠF iction
ĠCont ractor
Ġen jo
Ġscre ening
nR SS
Ġconcent ration
Ġ7 2
95 80
ĠClin ical
G G
Ġflo oring
Ġattempt ing
Ġwork force
ĠF IN
A H
nF ill
ol en
row s
Ġbul k
Ġpick ing
ĠRel ations
as a
ĠR us
ĠMet al
ï» ¿
Ġarrang ement
Ġd ipl
ĠFa ith
5 05
Ġgather ed
so cial
ĠDes k
is an
ac o
Ġn ervous
Ġpar ad
Ġto mat
98 90
b lack
ĠSer ver
Ġdesign ing
Ġathlet es
Ġun categorized
93 87
Ġidentif iable
ain ed
ĠV it
Ġh oles
asc ular
Ġlim itation
ĠApp ly
Ġsmart phone
ĠPal est
ĠH ay
Ġlog ic
Ġfund ed
t ax
as ures
54 9
Ġind oor
Ġsim ult
v s
k el
ĠRestaur ant
Y S
add y
ĠV ar
ĠWith in
5 66
ĠCamp aign
Ġoverwhel ming
b ound
Ġlink ing
nTe chnology
36 74
Ġhope fully
in ery
ĠRec ord
94 81
96 90
eth eless
a ac
Ġb ub
nA BOUT
b ase
ĠB ear
Ġopp osition
Ġall erg
Ġadvertis ements
enc er
ĠRes erve
T I
Ġk il
ment ed
ĠAg ent
98 73
j e
Ġm aj
form ing
Ġcon j
ìĿ ´
91 26
ĠP est
ash ing
æľ Ī
ĠS ydney
ĠP ear
con d
Ar t
5 06
Ġrequ iring
Ġv intage
verse as
Ġadequ ate
Ġa cre
93 65
Ġact ors
Ġvot ers
V K
87630 147
à¹Ģ à¸
Ġadvis or
nU ser
7 46
+ +
Ġm unicip
m ap
ĠIndones ia
let te
ab s
Ġtw itter
Ġacc used
ĠWeek ly
Ġwor n
Ġestablish ment
Ġsubs criptions
C AC
nu t
hav ior
ĠD ouble
ol s
ĠM ath
Ġprodu cer
form ed
Ġany body
m aster
Ġcons ervation
ĠRel eases
6 05
re c
98 20
9171 852
98 9987
Ġbound aries
ĠTog ether
92 80
93 24
ĠSt ream
Z R
Ġdesign ated
800 10
con n
ĠCl ient
97 61
ical s
97 63
Ġrepresent ing
m ates
ll er
nWh ich
ĠSt op
f s
ĠCal cul
Ġcontact ed
Ġint ers
C X
dep th
Ġres il
Ġdes ires
nD ay
93 21
re tt
Ġs le
ĠPat rick
, âĢĻ
ĠÃ ¢
at oes
nF riday
ed a
Ġback up
ĠB ush
Ġpro minent
Ġy ards
us cript
ĠBon us
ra c
> >
Ġtra uma
ĠT ouch
Ġdifficult ies
Ġintell igent
Ġc ognitive
j u
57 8
Ġprec ise
96 95
ĠD J
Ġan ger
Ġpre ced
in th
ĠMod er
Ġhonest ly
ĠMar c
Ġbi ological
ĠTru e
930 96167
nV ol
C U
ĠR aj
94 21
Ġdig est
A m
Ï ĥ
Ġp ilot
Ġremark able
ĠCom plete
Ġbro thers
0 86
Ġg ains
' ).
Ġag ed
Ġnor thern
ro it
97 50
Ġ1 995
k an
ĠPar liament
6 27
94 74
BF E
94 67
Ġwhere ver
ĠIns ulation
ipp i
Ġ 360
âĢĿ ),
96 916
T K
ĠP ala
ĠV ision
nS ite
ĠSt orage
ĠRet ail
wh en
Ġth ro
ĠLew is
ĠR ail
0 33
ather ine
83 36
Ġin k
F I
ĠVictor ia
php BB
ĠM erc
D I
S pe
N O
ĠH an
Ġa x
Ġargu ments
nA g
FF B
nN EW
993 7
em n
); \
Ġorganis ations
th ere
Ġsubst itute
6 45
Ġro lling
Ġexpand ing
de velop
Ġrestrict ed
........ ........
à ®
ro rist
Ġsk i
0 35
l ications
D ef
Ġf ruits
ĠR eddit
Ġfl ights
nA p
ec ute
Z K
Ġr ated
b ird
ĠN ative
Ġan cest
ĠO FF
Ġhere in
ĠDo or
ĠNav y
ĠG i
666 83
Ġdispla ys
ash ed
Ġv enture
hy th
nF amily
Y W
Ġad mission
Ġcontact s
ug g
Ġdent ist
A EC
nUn ited
ĠV ac
s ize
om atic
Ġo h
Ġspect rum
ĠG aming
nA ccept
9330 965
ĠJ oy
ĠW W
ĠCar pet
ch ing
92 84
ĠJ ason
ĠConst itution
E FA
93976 235
Ġengine ers
ĠG reece
Ġste am
Ï Ĥ
ĠT ony
90 65
sh ore
Ġt ube
ĠR ating
W ork
ĠM LS
author ized
p lant
Ġh ip
91 35
Ġtre mend
Ġinvest or
Ġmoist ure
95 54
Ġinstruct or
Ġmess aging
Ġv ice
6 77
Ġbel t
Ġpen alty
2 87
Ġdial ogue
R O
ĠAg riculture
ot ype
Ġsubscri ber
Ġappet ite
ĠTh om
Ġv ine
ver e
p iece
C I
Ġs ne
ĠNet flix
g row
Ġopt ional
ast y
E BA
FF D
Ġan gle
Ġmarket place
Ġpass es
Ġdirect ors
Ġal ign
Ġla ser
Ġst ir
ĠH IV
Ġtem por
ĠBar b
ĠPri ze
Ġrespond ed
oun ces
Ġent ries
Ġconf ront
Ġcent uries
Ġmail ing
Ġcir cuit
8755 1296
ĠM AT
ĠSim ple
wh ite
Ġplace ment
ari os
alt ies
Ġb inding
ĠT it
Ġdecla red
ĠAnd erson
Ġt ied
Ġdis abilities
OR S
ĠPay Pal
ĠMem orial
nW ant
on ing
Ġmy ster
5 45
ur d
ut ing
97 43
laim ed
er ver
Ġal t
6 84
ed uc
s id
ĠW elcome
ation ally
97 73
Ġsa lad
ĠAp pe
5 44
Ġher itage
Ġengine er
Ġic ons
ĠK elly
Ġassoci ate
ĠP ow
Ġover night
nInd ust
ĠMag ic
g ate
Ġj ournals
Ġcrypto currency
826 66683
83 86
ĠFore x
Ġdirect ory
ĠPlan s
ĠIn cre
6 47
ĠPubl ishing
Ġang ry
Ġenjo ys
Ġimm igration
ĠMat thew
pe lling
80010 146
h ard
ĠR s
4 09
b ass
Ġbase ball
Ġ( \"
Ġdet ection
ĠI owa
ĠM and
DA D
74 9
94 73
AT ED
ĠO s
nH appy
94 04
Ġun like
Ġencour aging
ĠW A
ĠO bs
nWhats App
Ġb ump
Ġpromot ional
Ġcontribut ed
oster one
ĠSim ply
Ġm erg
Ġpost er
v ideo
nOr der
Ġind irect
ĠUt ah
Ġdemonstr ated
Ġan alys
ĠS lo
57 9
ĠTra ck
P lease
Ø ©
0 30
Ġcomp ete
d riven
7 04
3 99
tl ing
Ġdedu ct
F Q
ht m
6 07
ĠH app
Ġc ow
ial is
Ġcommun ic
Ġun likely
is ure
ĠAtlant ic
nP age
Ġfold er
spe cific
Ġab stract
t witter
ĠRe quest
Ġtra iler
Ġd irt
93 45
nRem ember
ach ment
Ġhyp oth
or ate
ĠB ureau
Ġd ual
ĠJ ean
Ġorder ing
95 34
el ve
Ġst amp
Ġconst itute
Ġp df
ĠSp ons
Ġresult ed
6 03
ĠHealth y
ĠT ell
94 03
Ġqu ery
iss ippi
Ġf er
ĠP i
Ġgent le
w alk
95 33
X R
ĠB rid
95 90
u f
Ġdon ations
Ġcompet itors
ĠD VD
oc a
ank ing
h h
rop ical
95 53
98 43
Ġout doors
6 33
Ġperform ances
N M
ĠL I
Ġv oices
nT im
Ġvacc ines
ĠG O
6 91
98 235
Ġcool ing
ad vant
93 05
Ġpre serve
ĠC ars
Ġcare ers
oun ty
Ġnon profit
Ġdel eg
Ġwid th
ĠEmp loyment
st ruct
ĠY oga
Ġt ong
C he
65 8
y pes
Ġrom ance
ĠA mend
ero ids
7 33
ne ed
an ie
Ġha ck
U CT
ĠS ays
97 96
ĠG A
ĠM O
ĠS chedule
Ġl iv
ĠL ib
Ġg ut
ĠT oo
BC D
ĠFac ulty
Ġlast ing
inst all
op les
L W
94 10
be e
nR EAD
ĠW E
ĠV iol
int end
Ġh oney
Ġsh apes
nA lex
ĠR ent
h ill
Ġind ivid
ĠRev olution
N ame
ĠDis cover
ĠRes ource
p ix
Ġsing ing
eb r
ze ch
X W
ian g
ĠLa unch
ĠG all
ld er
Ġlo ver
ON E
ĠFollow ing
els on
Ġend less
Ġwin ners
Ġl oop
nP aul
Ġsurf aces
ol o
ĠMon itor
it ement
Ġsubs idi
4 19
Ġp or
ĠPrin cip
Ġin hib
nD ear
nT agged
Ġloc ate
Ġoccas ionally
p ng
Ġfo am
Ġmeasure ments
nS T
Ġsc ored
m ir
Ġpre vents
ĠA laska
Ġgener ous
Ġreason ably
Ġc atalog
qu arters
ing le
v et
Ġcontroll er
Ġmake up
ĠB ow
ĠD est
Ġb onds
Ñ ĸ
ps y
74 8
nAm azon
Ġsh ame
res earch
Ġass ured
Ġwood en
p ed
4 28
Ġter ror
95 04
Ġbless ed
Ġt ie
k ish
Ġh unt
Ġunivers al
ĠN eg
Ġobs c
ĠAr k
ĠF eder
93 67
Ġcustom ize
ĠB arn
ĠT oy
ĠM ix
4 29
ib bean
Ġredu ces
g ments
ra ising
Ġf ool
Ġv ir
nB el
Ġdro ps
ĠAn im
Ġaccommod ation
Ġst em
Ġ 56
96 887
ĠA qu
ĠS ession
ĠH ad
92 86
G J
ĠS witzerland
ĠHarr is
ol ves
o ons
Ġoccas ions
Ġpain ful
st op
Ġloc ally
93 64
Ġload ed
Ġwithdraw al
nIm age
ĠBel g
nA ug
Ġobs erve
Ġfr anchise
m al
Ġaff airs
91 85
Ġcontact ing
Ġwalk s
on i
f amily
Ġl ung
DA E
4 99
pri ate
98 63
Ġder ived
TH ER
S U
ĠThai land
6 85
nR ich
nW ord
Ġsac rif
ĠW OR
t est
ard ening
Ġdead line
nDis cover
Com merce
cons cious
Ġbe ings
Ġwhe els
7 86
ĠAnt i
Ġdiscl osed
ĠWh it
1 97
Ġoffer ings
EN D
ĠBel ow
Ġinst ances
Ġpubl isher
Ġkey board
bour ne
writ er
Ġne utral
pe ople
Q J
ĠSh opping
ĠE c
Ġvari able
T B
98 97
in ates
Ġold est
Ġre hab
ip h
j ac
Ġland ing
5 91
2 95
keep ing
ĠGet ting
15 35
ĠC old
ĠOther wise
Ġdiscrim ination
Ġc bd
ĠAc cept
H ome
Ġexpl os
nM ember
B ED
Ġc ater
93 00
f ull
ĠH ung
nApp ly
nT ax
ĠO NL
ev ents
c ourse
Ï ģ
re ll
Ġ5 1
avas cript
5 46
eli hood
S F
84 72
ch ron
ocr atic
Ġc ord
nS outh
Ġwild life
ident s
Ġab ortion
4 96
de v
Ġexplor ation
Ġt ears
94 00
nB rowse
Ġcar pet
a ver
Ġpre ference
Ġpain ted
94 64
tern et
Ġle af
ĠAn imal
BB C
Ġref riger
BB D
ĠThe ory
ĠB ry
ubl in
ĠDak ota
ĠEnter prise
Ġbare ly
ig g
Ġfif th
Ġpass age
V V
ĠW oman
ig ue
nCh oose
ĠMar ine
ĠStat us
Ġatt orneys
Ġle an
6 86
ĠSpe ed
c ss
Ġs id
94 33
AD B
Ġh unting
ĠF DA
Ġ1 960
93 93
94 63
ĠMiss ouri
att an
et ter
are st
ĠF an
90 86
FA A
nAdd ress
m other
ĠV ancouver
99 28
Ġlabor atory
nP odcast
be at
Ġrub ber
6 04
Ġadop t
oot ing
bs p
ĠHawai i
à¤ ¾
Ġset tled
es c
Ġrid ic
Ġw rap
ĠPolit ical
5 04
ĠM E
98 96
BC B
min ute
nT able
Ġhard ly
nFin ally
ĠC ab
ut ers
Ġrem ed
ĠTe a
P Z
a is
Ġal ike
Ġrough ly
ag u
1 88
u ber
ĠHer itage
Ñ ĭ
Ġpartners hips
Ġ ]
ĠS creen
nYou Tube
ĠE ye
ĠB us
Ġg a
ĠS ac
5 34
ffic ial
94 22
91 23
arm s
91 84
ĠTy pes
D is
Ġdist ract
Ġaccess ibility
ĠCr ime
ĠSim ilar
u ke
nF l
er als
Ġcapt ured
nC L
93 77
Ġsm oking
em ies
ĠMor gan
Ġ 66
ĠMar sh
um bers
ph abet
ĠE NL
d isc
ĠWord s
E EA
or er
Ġdest ruction
Ġret ired
ĠM oh
istic ated
Ġbutt ons
ĠM yst
Ġinf ections
Ġcor n
ĠMoo re
ens ed
ĠM Y
ĠLet ter
nOff ice
H B
Ġrel iability
and ra
nW ednesday
nL ive
nT om
to gether
Ġve gan
Ġad mitted
Ġin ev
ro ck
Ġblock ed
Ġal erts
ĠBer lin
ĠBet ween
Ġprogress ive
am an
Ġin clusive
A BD
ĠIslam ic
ober t
ĠR oss
ĠF ine
Ġg ross
ing e
C K
?? ??
Ġsal on
Ġoper ates
nT uesday
le ading
ĠA w
am ins
Ġnot ified
Ġincor porate
oot er
ar ah
Å ¿
m i
Ġhand led
od ium
ec ca
Ġhors es
Ġout s
5 90
ĠMed ium
ĠTop ic
ĠIt ems
nV er
ont al
5 03
ud s
. ;
Ġpe pper
G U
tru e
Ġpark s
ĠR out
al ia
Ġ( +
CA R
Ġb ands
ic ient
C al
Ġt ire
ĠSum mit
ry ing
96 03
Ġforgot ten
in ning
I m
Ġprec isely
rain ian
os ures
Ġex cellence
9307 234
Ġsh irt
Ġsubscri bers
Ġmar g
84 15
20 04
5 01
93 54
DC B
94 54
Ġp izza
93 11
str ong
Ġbreat hing
Ġinc ur
Ġult ra
Ġun fortunately
96 43
Ġdeterm ining
nC reat
ul in
BB E
Ġsupp ose
ĠAd ult
atter y
Ġtable ts
Ġend e
C DD
b ig
92 87
ĠiP ad
it ual
Ġr ug
EM ENT
ĠS L
A EA
Ġcr imes
quire ments
nM ult
ĠC itiz
Ġnur se
ĠGra ce
C ED
Ġbe ll
worth y
Ġmet ers
Ġbit coin
mark s
com mercial
5 47
Ġprom ises
IL ITY
Ġc ust
ĠA labama
ĠCy ber
ĠReg ion
Ġmag ical
Ġcol ours
Ġprov ed
em a
Ġc ups
av ailable
Ġs ed
nR eddit
ĠMov ies
nN orth
AC F
D Z
ĠM int
O h
? !
nS ep
ĠW AR
om ed
Ġphys ics
Ġvit amin
Ġmed itation
Ġpr on
Ġaud iences
Ġdiscuss ing
Ġref ug
Ġutil ized
Ġreflect s
Ġsem ester
S V
ĠGovern or
ox y
nL aw
Ġentreprene urs
l t
a ccess
Ġscre ens
Ġd ough
7 87
ĠAssess ment
s ur
ĠLock smith
Ġv iagra
ĠĠĠĠĠĠĠĠ ĠĠĠĠĠĠĠĠ
en ities
idd ing
Ġdepart ments
Ġb atch
Ġemb race
Ġapp le
it ime
91 65
5 85
Ġtechn ological
Ġfab ulous
ĠClar k
Ġweak ness
Ġprom ised
Ġart istic
AA B
nW rit
con nect
r ant
n at
umb ai
ĠGr aduate
Ġhe al
91 36
t alk
ĠF ace
CA E
Ġshe ets
95 82
ĠG lo
ĠR EL
R W
Ġtreat ing
r ence
M Q
Ġfast est
cl ed
ĠUS E
Ġsu icide
Ġpi pe
Ġtrad ers
Ġrefer ring
ĠAll en
ĠN a
Ġachie ving
Ġeth ical
Ġgen re
Ġsing er
Ġaccom pan
g oogle
T op
Ġsp are
Ġun to
3 12
Ġsh o
ount ain
6 90
95 20
Ġint im
ounce ments
Y Z
nFin ancial
Ġflo ors
Ġal uminum
nH er
Ġgener ic
E Q
ĠEconom ics
Ġbatter ies
4 98
nC opy
X Z
Ġl iver
Ġco ins
f ox
bers ecurity
nJ ames
N H
ĠAppl ications
r ish
Ġexcess ive
91 15
Ġvari ables
ĠPo land
Ġd irty
ĠRet urns
Ġres cue
ym e
Ġspok en
az i
Ġinn oc
ĠGroup s
ĠB alt
Ġoptim ize
ĠâĢ ĭ
Ġ ..
ĠF urniture
ĠH op
Ġcourt esy
ĠUr ban
4 18
un ger
Ġtr ies
ĠWhats App
FORM ATION
Ġconserv ative
ĠI M
od s
s im
ill ance
ĠT rib
ab is
Ġb oo
OR Y
att oo
Ġver ification
writ ten
Ġind ia
nM obile
Ġp p
Ġglo bally
94 34
ĠF ish
ĠDe g
Ġadv entures
ĠIn come
Ġt ent
Ġdiagn osed
Ġdec lar
Ġfunction ing
ĠCustom ers
ugs burg
nBe aut
5 81
91 25
nM ike
ick y
Ġaud it
Ġtrans it
Ġshel ter
3 83
ul ent
ĠB lan
et on
nO k
Ġsc ar
Ġreal istic
Ġorganiz ational
91 44
ul u
s ers
ĠEd ward
ĠHar vard
nTh ursday
N B
95 73
ĠTe aching
nR ob
in formation
Ġeditor ial
Ġref used
L ink
wh y
Ġtour ism
Ġviol ent
s ervices
ac ed
nW omen
Ġcomput ing
clus ions
Ġdram atic
EF E
ĠN orm
ĠV in
ĠEx tra
ĠLin coln
nEn t
Ġh em
Ġsurround ed
ĠB udget
it udes
ĠT umblr
6 81
ph et
Ġsens or
Ġh ence
Ġg oogle
nu p
ĠL am
Ġwarm ing
ĠSwed en
l en
u j
F J
nB ar
Ġbur den
Ġden ied
Ġst eroids
S K
cept ions
ĠAdd itional
ibl ical
ĠW y
h ind
ĠF ram
nA ff
Ġthe ories
Ġdu ct
Ġh ired
Ġag gressive
ĠRepublic ans
Ġwall et
Ġex it
ĠBBC ode
z ens
ĠDiam ond
Cor nell
Ġsepar ately
Ġd ying
ĠS ens
Ġaddress ing
id ity
96916 145
ĠD ur
Ġre actions
Ġentertain ing
25 25
EC E
Ġconstruct ed
Ġfavor ites
ĠInter view
nR ed
Ġpar allel
Ġhes itate
T ags
? \"
Ġpop ulations
Ġe ager
Ġo xygen
nE p
ro le
Ġsett le
ĠEmp ire
Ġliter ary
at ics
3 87
ry pto
[ /
ĠGu est
ĠS weet
Y L
U H
93 22
nD eb
ĠH eb
ĠB eth
Ġt ension
Ġst rain
id o
b in
Ġinvolve ment
Ġp ays
ĠB ah
ĠMar g
Ġusergroup s
om ic
7 83
c am
Ġs ke
ĠK a
oo ps
ĠC AN
90 36
ĠB attle
und le
ĠG ate
AA D
ĠSk ills
Ġ> \
iff s
Ġdiscip line
Ġorient ation
ou ched
nM usic
n x
ĠSa udi
ĠV oice
ound ing
S X
Ġvibr ant
Ġle mon
t urn
erc ise
nN eed
Ġveter an
ĠF alls
AR K
{ \"
Ġch ip
Ġt ournament
d et
nS an
Ġ _
Ġaccommod ate
ad i
ĠC orn
Ġtack le
Ġsymbol s
rist ian
Ġ1 994
id al
: :
Ġcounsel ing
le te
ĠWe ather
Ġcomple ment
Ġt a
Ġd ivers
ĠAp artment
Ġh iking
Ġst ruck
2 94
5 80
Ġso ccer
ĠB owl
ĠR ot
v oc
Ġguid ed
ĠF resh
ĠTem ple
ific ates
Ġm ast
Ġper pet
ĠKent ucky
s ort
Ġcorpor ations
O LL
oun ge
==== ====
ĠEn h
ĠCor nell
Ġtim ing
Ġhyd ro
nE m
Ġlo ads
d ent
ĠElect ronics
Ø ¨
Ġtranspar ent
OL D
DD B
P oint
ĠY outube
Ġcoun tless
it ively
ĠEd ge
im ens
Ġvari ations
845 44
Ġstart up
Ġseek s
Ġenorm ous
Ġgradu ated
Ġth erm
ĠGr ade
at is
ĠVeh icle
Ġdist ribute
ĠT arget
Ã© s
ĠSim on
nA merican
Ġmut ual
ĠÐ ²
Ġag ing
lem an
nS un
Ġcap ability
IS S
ĠAn thony
az ines
a round
90 24
ĠM illion
Ġsp ir
ĠB alan
Ġread s
Ġrep lies
vious ly
81 21
ris is
lan g
93 91
ac ies
ĠDisc ount
sh ine
pos ition
Ġl ying
ĠThe me
j ob
Ġsupp ress
ĠY ellow
Ġstruct ural
Ġup set
Ġth irty
Ġm ouse
ĠF ly
work ing
ĠA th
Ġimag ination
Ġsu its
Ġsl ide
4 88
ar an
v ision
Ġir rit
R ep
Ġadvoc ate
Ġbeaut ifully
20 03
ah o
pro gram
Ġindepend ence
Ġnu ts
ĠMarket s
ord on
Ġfin ishing
AR Y
nC ookies
3 91
ĠB rew
nConnect ing
94 80
Ġe ars
ĠBe at
ve land
ĠL it
Ġcol on
Ġs wit
Ġjournal ism
ĠOk lahoma
6 87
C V
ĠC ow
Ġliber al
Ġglass es
Ġchurch es
Ġblog ger
Ġbehav iors
ĠP oll
Ġperman ently
Ù ģ
ĠDen ver
Ð ¼
arr ing
nSt and
Ġr ational
er ge
re port
ĠOx ford
gi ene
88 11
ĠInst ruct
ĠStand ards
\" ).
Ð ¹
ĠW ILL
Ġstraight forward
\\ /
Ġappreci ation
Ġbel oved
ĠS D
Ġrank ing
ĠW onder
ĠWe bsites
Ġvot ed
AA F
ĠCl inton
Ġ5 4
98235 36
ĠHe ating
rit is
ĠSom ething
ĠAdvis ory
n to
ĠPro duction
Ġbla st
997 0
92 83
Ġsu ite
ĠP ier
ĠTH C
Ï Ģ
Ġj aw
Ġoptim ization
EC F
Ġstain less
Ġident ical
em ade
k it
igen ous
Ġpar a
Ġam id
... ]\
ur se
ĠRec ipe
Add ress
ĠNY C
Ġla wn
ĠF lash
ĠJ en
Ġhand y
ĠE le
Ġexperim ental
Ġlight weight
ĠNe uro
add le
nOr gan
91 146
ĠD ance
Ġcont em
Ġass ert
ĠCor p
ĠCom merce
ĠAccess ories
ow ed
nCh ris
Ġra ces
Ġtail ored
Ġsp an
f und
ĠVis a
Ġrad iation
ĠW ind
ĠTrans fer
91 16
Ġbe ef
b rand
im edia
N I
ĠAn ne
T ok
âĤ¬ âĦ¢
BC F
re ated
ĠQ ual
Ġinvest ed
ĠDirect ory
Ġsp ins
D CA
0 34
ĠR EA
Ġt agged
Ġmob ility
Ġconvin ced
Ġcal ories
red ited
pla sh
C Z
ĠTransport ation
ĠPrem ier
Ġrecip ient
Ġdim ensions
ĠD er
ĠCent ury
off s
Ġo z
Ġst itch
Ġmotiv ated
ĠR oy
93 81
Ġprint s
T G
m oney
Ġaccompl ished
0 47
A EB
Ġicon ic
ĠD ress
Ġpsych ology
D ay
arr ass
rup ted
ĠFor ums
âĢ Ĥ
5 86
ĠB uck
Ġb ass
qu er
nE ar
Ġcomp act
4 92
Ġt ear
ric ane
oot s
eff ective
91 37
Ġgovern ance
93 57
Ġexc itement
p ers
Ġv el
ett ers
ĠChristian ity
Ġceleb rated
Ġcomplim ent
95 97
ĠMor ning
Ġgl ory
Ġking dom
au x
Ġass emb
895 56
Wh y
al ore
91 14
Ġintegr ate
Ġp ig
Ġn ail
ĠAl b
Ġsoph isticated
Le ave
ĠN ik
Ġen rich
Ġappar ent
ele gram
Ġcomp os
ĠP red
apeut ic
ĠSec urities
lan ts
Ġconst ra
sh irt
L ife
95 96
Ġar ise
ell er
apt ers
ĠS i
umb led
ĠH art
ĠTe ams
Ġdocument ary
Ġb udd
90 76
Ġtrad itions
Ġgirl friend
Ġcomplex ity
Ġmain stream
Ġgro cery
Ġsh orter
um ing
Ġgr id
90 26
90 47
z o
nW ow
nJ ob
Ġconscious ness
ĠTe acher
Ġfeed ing
Ġgun s
83 24
18 25
Ġland sc
ar at
Ġg reet
Ŀ ¤
Ġmerch andise
com munity
vel ation
ar en
Ġle verage
ECT ION
b ul
Ġcor poration
R X
is ons
im ore
E J
Ġprodu cers
p rivacy
Ġdes ert
BD D
ĠG round
L M
ĠTest ing
Ġmanufact ured
R D
[ âĢ¦
ĠEqu ity
g h
Ġhold er
ĠS oul
Ġposs ession
Ġed ges
ĠSt ri
Ġupload ed
ĠW rite
Ġkne e
ĠO thers
ĠPart s
eng e
Ġtr icks
Ġt ang
ĠMethod s
ĠE val
arrant y
nS et
Ġpat ience
c urrent
Ġexpect ing
Ġperm its
ĠE P
Ġf ails
Ġimpl ications
L X
Ġprov ince
A J
igr ant
ch at
ĠLands cape
Ġneighb ors
Ġd ict
t v
Ġap olog
ĠMex ican
Ġsupp lied
90 64
Ġspec ifications
0 83
Ġmon etary
94 53
ĠM is
Ġfro zen
ag ine
Ġreg ime
W D
Ġref lection
ĠC ourses
ĠSupp ly
uer to
at ility
ĠDr agon
th ur
Ġback ed
ĠV AT
Ġalgorith m
Ġmar gin
ĠÂ §
BD E
nW est
Ġdig it
Ġapplic ants
ĠFe el
nS ervice
ĠS old
ĠEss ay
ĠPr ices
ix el
ĠCon vention
ĠPre vention
ec a
B EF
ract ice
ore m
ĠS ri
Ġpart ial
Ġchart s
ig ating
ĠCom pliance
93 43
ĠA Z
ĠInter est
ĠSER V
0 19
i ov
Ġdetail ing
Ġvert ical
91 83
nAn n
igh th
90 85
nM ary
nM essage
90 46
im ming
m outh
0 94
Ġ ë
Ġtrad es
pro ject
ĠAc ademic
ĠR ange
Ġdeterm ination
ograph ical
k g
ĠRem od
ĠP ra
He alth
ĠH it
Y X
nV ideos
i ality
Ġinstitut ional
ĠE D
Ġd ess
f iction
V iew
B ooks
Ġretail ers
Ġprevent ing
ĠDisc ussion
96 97
ĠV ersion
Ġexperim ents
Ġport able
C DC
91 27
c ost
ĠC ape
Ġtransl ated
f la
90 37
Ġhum or
ard less
oun ced
ĠJ u
Ġbot tles
91 75
ĠP ink
atch ed
af ety
Ġlo vers
Ġconfident ial
Ġf oster
ĠAl i
ĠZ one
ĠMembers hip
nC y
3 94
Ġlog istics
ĠD ating
ĠO H
Ġhit ting
Ġd ive
Ġcollabor ative
81 81
Ġhighlight ed
nS unday
ĠOr iginal
nT itle
as i
= &
Ġlabel s
Ġball s
ĠAlex ander
Ġth y
ĠBuy er
ĠEx hib
5 12
sh are
Ġclar ity
Ġcontinu ously
ĠGuid es
Ġspons ored
ene ath
l oss
Ġmax imize
A FF
ĠMe chan
Ġachieve ment
Ġsignific ance
Ġpaint ings
ĠDu ke
Ġsurve ys
ĠH P
Ġmin im
ort heast
ĠEconom y
Ġbas ics
nInt roduction
bs olut
Ġse vent
Ġincorpor ated
97 01
ĠV alent
Ġm ater
Ġcompan ion
5 84
Ġsh r
nPro gram
7 01
ED F
9298 102
ĠLe on
ĠCl ose
Ġin com
ĠFr an
nS ur
0 28
h ave
ron es
Ġra cial
s cience
n r
ru b
h as
nPro ducts
act s
Ġcook ed
FC C
DF D
pro v
Ġex terior
for ums
ĠPort al
990 6
roll er
Ġcru ise
ĠDe als
Ġthe ater
ud a
nPro ject
ĠC riminal
ĠB eyond
gle ct
roll ed
99 97
ĠB ond
im mer
4 82
5 83
Ġinflu enced
ir ates
f ather
Ġs lee
U U
Ġpers pectives
Ġbe ans
ĠPoint s
âĢ İ
Ġrec ru
4 97
c ow
F CA
F BA
Ġen emies
è ¿
âĪ Ĵ
f ile
Ġint rig
C G
Ġvac uum
par ent
C OM
Ġenc l
am el
Ġqu alities
ĠCast le
Ġqu it
F DB
nG reen
90 54
91 45
g red
Ġlibert ine
ĠFeature d
Ġpursu ant
Ġt al
à ´
ĠC OP
IN D
s ized
Ġdynam ics
B ased
ĠV i
S ee
n ia
ĠL OVE
ĠN FT
97 97
Ġsurv iv
Ġd ump
à ²
ĠS in
H ER
e ous
ra ham
Ġle ak
K J
child ren
Ġsn ap
Ġcor rel
Ġexch anges
ĠDe fin
Ġp ione
Ġ5 3
ment ation
Ġign or
Ġexpl ores
ID S
ĠC er
Ġsol ving
90 14
Ġre ception
Ġaccident s
ĠAdvis or
comfort able
82 83
nS cience
nW rite
Ġo w
Ġb lo
Ġre ct
Ġprem ier
Ġfig ured
ort on
Ġpoll ution
Ġf ired
nH istory
Ġcontribut ing
Ġag ricultural
S he
Ġpropos als
Ġtranspar ency
ĠSt ars
o bs
om er
nP rivate
nB ig
Ġprof ound
oret ical
B EA
Ġint ake
Ġprotect ive
Ġess ays
le ans
Ġint end
Ġsc am
ĠLeg is
nF R
land o
l ate
Ġcraft s
ĠAdv ice
ĠS urgery
AD D
Ġhas s
ĠK y
Ġexplicit ly
ĠS end
ch i
Ġbeg un
Ġdel iber
ĠAd s
3 96
Ġco in
Ġinstall ing
n read
Ġh oly
ĠRes ort
Ġce iling
Ġprof itable
nRet urn
Ġtrans fers
nCol or
h uman
8106 8444
b ank
ern ess
ĠB right
Ġdev ast
Ġhar sh
Ġdelay ed
7 91
82 84544
ag ar
c as
Ġh ug
Ġsupport ive
D AC
Ġappe aring
d oc
V Q
AB E
Ġst oring
tain ing
ĠDirect ors
ĠPain ting
Ġout lined
ĠArt ist
P e
Ġcour s
ĠLiter ature
93 04
Ġregul ated
nH aving
Ġarr ange
ĠKnow ledge
P re
Ġmanif est
ĠC ream
94 43
AD F
Ġsepar ated
Ġdisappoint ed
94 95
ĠL isa
ĠAgain st
ĠM ale
ag g
ĠZ h
f ee
iz able
f are
and o
94 96
nR est
Ġconsider able
E very
ank a
93 33
ĠCo ord
Ġdisag ree
854 3757
ĠO UR
Ġst ays
Ġscen arios
Ġrem inder
O E
ĠCh oice
ĠW olf
Ġcamp ing
Ġprior it
Ġmask s
Ġsec ured
Ġorgan ize
Ġe Cornell
um ns
Ġtrans mit
is en
Ġspect acular
ic iency
Ġobtain ing
Ġr um
ĠDe an
Ġper ception
ĠInt roduction
ĠV PN
Ġrank ed
Ġdiam ond
Ġsimult aneously
val ue
Ġtru cks
AA E
ĠZ oom
ir able
90 75
ĠAfghan istan
9977 9063
Ġto y
ĠLead er
Ġoff ense
ĠMain tenance
Ġsupport ers
p op
ĠL ane
Ġto ilet
Ġter rorist
Ġcritic ism
Ñģ ÑĤ
P F
Ġw arehouse
93 53
Ġst raw
nC EU
Ġl at
ĠP as
Ġtem plates
Ġassum ed
Ġbi as
ĠS pect
ĠQ U
ĠSt ra
ĠCon vers
Ġteach es
87 06
Ġkn ife
ĠSc ore
Ġbi ology
Ġcom edy
C ol
Ġde lays
ĠReg ulation
ĠMain e
ED A
Ġvers atile
ate ur
Ġlo ading
Ġpolit icians
com mon
Ġgr ades
Ġaccur ately
OT E
ĠSw iss
99 99
Ġaffect ing
F FA
94 20
Ġ Ä
6 83
ir s
Ġam pl
c in
ĠSy ria
Ġb om
edd ings
m ain
96 60
Ġan ch
> <
Ġannu ally
icy cle
ĠA id
90 35
nAcc ount
ĠG ab
Ġs oup
ĠTr ends
Ġvari ation
Ġfall en
ĠArab ia
Ġf ut
Ġcom pelling
Ġvend or
indow s
nS ize
Ġstead y
Ġt weet
Ġthank ful
90 27
ĠPsych ology
C EB
emp loy
Ġr ust
ess ed
appro priate
P Q
7 43
Ġeconom ics
ĠChirop ractor
Ġso ap
Ġflow s
ĠCh icken
ic ular
ol ph
ĠPer iod
ask a
Ġg rain
' );
ad ays
o T
ĠPre ferences
op tion
91 13
olit an
Ġveter ans
94 30
Ġmar ine
Ġl ol
ĠR d
olit ical
ĠCar ibbean
ĠPort land
Ġcustom s
bre aking
Ġdo zen
87 27
ĠPower ed
Ġdem o
995 5
Ġsty lish
Ġg ri
ent o
nNew er
0 95
Ġgar lic
nE st
M H
ci Ã³n
ĠVis ual
EF F
nH ead
Ġworth y
V G
ĠB esides
c ulation
ĠD ifferent
OS S
Ġb its
lay er
91146 815
nArt icles
coll ections
in vest
Ġag riculture
chn ical
Ġp unch
ĠD raw
ĠMar ia
ant ry
Ġm ig
p ing
ĠS U
ĠW a
ĠDisc laimer
ĠR edu
Ġdes criptions
ight ing
Ġrelax ing
Ġ 365
orm s
Ġhom ework
Ġac adem
L K
ĠChampion ship
ĠMc K
Ġcom ic
Ġgrad ually
ett a
N ovember
nSec ond
ĠMonth ly
Ġb ite
ĠI RS
ance ll
ĠMult i
Ġrespons ive
Ġassign ments
ĠD ick
93 95
p read
ing o
reprene ur
ĠB rain
the m
ĠCamp us
r c
90 23
Ġvis ibility
Ġsub tle
ĠJ oint
Ġpe ers
t or
Ġscholar ship
ĠH um
ĠS amsung
ys ical
Ġb ones
ĠM agn
ag ic
ĠBas ic
gu e
ber ta
W X
nE ss
usal em
Ġou ter
Ġd ensity
Ġcon cluded
gent ina
6 43
ĠMar s
Ġdest inations
ĠView s
amp ions
93 03
ent ral
Ġj ail
Ġsuper b
ĠCr usher
Ġl ately
asp x
nS aturday
93 97
EC D
nC ity
Ġg ang
ĠK iss
Ġtest imony
are l
a ire
ä ¿
nV al
Ġthere by
Ġmin s
om in
Ġh ill
Ġgrow s
ĠM itch
ĠD if
ĠNorth west
Ġsh aped
Ġbranch es
ili ation
ĠO p
Ġc iv
Ġl ibraries
r ator
âĢ¦ .\
Ġtax pay
Ġconf usion
Ġm akers
91 17
Ġret ention
ott om
Ġprior ities
ĠMc G
ĠG ram
Ġlaw suit
Ġpray ers
te lling
Ġ# \
ĠC AR
Ġprop ag
Ġswe at
AD C
Ġthere of
ĠStart ed
ĠE aster
AF B
Ġst roke
igin ally
M on
Ġvol t
Ġo verseas
Ġcalcul ate
Ġre vers
Ġpass engers
DD D
ĠIN FORMATION
ĠB ron
Ġman uscript
6 95
Ġform ats
re ply
91 11
86 07
Ġtem ple
ĠP ART
la ware
m ode
Ġmind set
ĠA CT
92 81
ĠIn side
Ġindivid ually
ĠAsk ed
í Ĭ
ĠPrim ary
Ġprocess or
n st
IC S
Ġne glect
Ġw age
N e
Ġdec iding
90 84
Ġhealth ier
Ġsuperv is
nCON TACT
n ch
Ġf iscal
Ġint imate
ver ages
Ġtro ops
nB ecome
ĠActiv ities
Ġcomp osed
Ġinf in
Ġdat as
Ġadv ances
91 07
be y
M N
ip her
Ġep id
ek s
ĠPh oenix
C Q
Ġreject ed
ul ator
Ġw elfare
ĠW aste
ĠMan chester
up loads
b ur
tra ck
Ġl bs
Ġconst itutes
Ġfear s
âĢ¦ ","
ur ate
em e
Ġtour ist
ĠE T
Ġcont rary
ain ts
77 13
ro b
Ġad verse
EA SE
98 31
Ġco pper
91 56
ĠH igher
al con
D EA
Ġcoll eges
S Y
Ġcoup on
Ġcr ushing
Ġf ur
ĠT ob
Ġ uk
Ġavoid ing
iv als
ber ries
Ġsafe guard
b uild
ĠD ad
Ġbar riers
force ment
ĠAl ong
E I
ĠDom in
C DA
FC B
Ġere ct
Ġtit led
nTh rough
Ġco conut
nB ro
nG en
98 98
Ġexplain ing
Ġcur ve
and al
ĠAss istance
c all
p ages
loc ation
Ġfriend ship
Ġsh ield
nT umblr
90 15
E BF
6 01
Ġdo zens
Ġesc orts
ment al
ĠB row
Ġcomb ines
Ġth rive
qu et
Ġpropri etary
ĠCh ain
af a
a ways
5 43
a ired
ĠF MG
Ġingred ient
Ġadjust ed
26 53
Ġch ains
ul i
T J
Ġcar ries
Ġtime zone
D BA
ĠR ou
ant a
ĠS ad
] .\
CL A
Ġp ants
Ġsh ed
nB ooks
Ġb ust
v d
vere ign
Ġaccom pany
Ġa f
f ed
ĠWalk er
Ġv oid
90 56
90 25
Ġl ux
ĠP urchase
ĠCh amber
Ġpat ent
T U
Ġc um
ep age
Ġfram es
Ġadjust ments
Ġs its
ĠCh rome
Ġs ons
91 93
ĠCent ers
Ġh orn
Ġc ous
ides pread
ĠRes ponse
B ER
ĠM ic
ĠðŁĺ ī
86 76
ĠC AS
iz ers
Ġthe atre
f ab
80 34
do i
Ġcor ruption
Ġtrain er
p ark
Ġsc roll
90 17
Ġproceed ings
ĠAm y
Ġattempt ed
Ġear ning
Ġout let
Ġex ecute
nL ong
p her
Ġvolunt ary
Ġam ended
Ġstruct ured
ĠPlay er
W ell
Ġinter f
R ec
ĠOpport unities
F G
Ġappl iances
Ġ ÏĦ
ĠLe ft
Ġemb arrass
Ġg el
Ġremind ed
r ise
Ġres istant
ĠG un
Ġut ter
Ġbank ruptcy
Ġsus pension
am as
Ġtreat s
ĠN ap
amp a
ĠO w
× Ļ
g on
ĠKen ya
Ġl os
903 9611
Ġin hab
ĠTh an
Ġo live
ĠM ason
Ġaccompan ied
7 02
s om
tra vel
nAb stract
S N
Ġr anks
ĠH oll
Ġcomm od
ĠBrook lyn
DD C
Ġview ers
EB E
ĠPro perties
Ġst ones
W Z
ĠW el
ĠPass word
Ġsh ade
Ġhaz ard
B est
ĠB asket
arch y
81 77
ĠGu y
itt ers
oc ated
Ġbuild s
R M
nS ale
CA B
P J
Y es
Ġsh ipment
Ġlab our
pos ed
ĠFant asy
Ġtremend ous
ĠK ings
Ġread ily
Ġpre v
Ġin quiry
ĠSus an
is y
Ġtong ue
Ġqu eries
ĠB ol
c ra
ĠOff ers
Ġst olen
ĠE lection
atin um
Ġar med
ling ton
Ġinflamm ation
Ġcancell ation
ĠA ugsburg
Ġre vis
ec d
ĠP erm
Ã ª
Ġdeal ers
Ġc rown
nH is
ĠAn al
op es
Ġqual ifying
ĠO UT
ĠBe havior
g un
Ġuncertain ty
94 93
ĠR ule
Ġpoll s
alm art
Ġcours ework
Ġeas iest
ĠConsult ing
u v
loy d
Ġ 63
ĠRem ote
s ign
946 43
Ġ: )
icro soft
ĠG er
Ġp iano
Post ed
ĠNev ada
Ġpo em
Ġr uling
Ġd os
994 3
c ad
Ġsl ip
Ġhom eless
L ist
837 8493
qu al
or ph
à¸ £
s i
lad es
ĠP olicies
Ġpresent ing
ĠK ate
Ġdist urb
ĠE UR
Ġnovel s
Ġret reat
996 7
Ġ- --
ĠAn na
90 74
Ġr ings
Ġconduct ing
Ġsur geon
Ġas p
a ed
ĠRober ts
Ġpet ition
us a
Ġpan ic
90 13
Ġbed s
93 94
Ġcreat or
Ġ 77
ov ies
Ġjournal ist
Ġalgorith ms
product ive
Ġreach es
Ġ} );
Ġrelax ed
ib les
Ġph ilosoph
Ġarch ive
D FA
Ġke en
Ġs ink
6 02
te ll
Ġ1 993
3 28
Ġmod ules
y outube
l at
ĠMult iple
o in
Ġre cept
Ġco aches
Ġattribut es
Ġhand ful
ĠP apers
[âĢ¦ ]
ĠStrateg ies
Ġess ence
Ġ um
8317 3674
De cember
ro logy
Ġworld s
ĠConnect icut
o ids
Ġpresent ations
ain ing
91 87
ĠJ ennifer
Ġdis cipl
ĠClin ic
v ol
Ġg host
A IL
ĠI F
ĠUk rainian
ab ula
Ġsec rets
ym ph
ĠMar riage
Ġun authorized
ĠInd eed
nO b
p y
ĠUnivers al
N ING
Ġdis rupt
Ġpl ates
US D
IG H
Ġe book
ĠCh ap
Ġsubscri bing
Ġflav ors
ĠJ ourney
Ġnutri ents
Ġspeed s
Ġpeace ful
85 37
ĠP os
Ġb illing
ig ma
Ġexpress ly
Ġm igration
Ġtown s
Ġbr ick
Ġg ently
ere um
Ġth esis
Ġevalu ated
to ck
Ġun comfortable
Ġappro ve
Ġmeas uring
Ġhome owners
4 89
ĠP ool
ĠSubs cription
ĠÃ ł
Ġfund ament
mind ed
Ġe uro
Ġlin ear
nM ax
b ab
pa id
93 10
Ġ[âĢ¦ ]
V J
A BF
Ġt ale
k t
E BC
nMed ical
u it
Eng lish
Ġg est
ĠTai wan
ĠG ov
T N
Ġs q
nS pons
w ick
nA pr
Ġtra ce
Ġun necessary
nR obert
Ġpull ing
N ow
f iles
ĠH ack
Ġres on
ĠT ik
ĠD ra
ĠRus sell
ĠD ynam
eral d
eb e
E EC
Ġsh elf
Ġd ancing
ab ases
Ġtarget ing
ĠP ump
84 86
ĠAnton io
ĠUp on
Ġdiv ine
ĠJud ge
nG ive
nB ased
Ġr anges
nGet ting
u itive
91 74
Ġt ender
la in
Ġweek ends
91 05
Ġdark ness
Ġs ake
? )
Ġdys function
ĠN BA
Ġt ires
Ġse al
cess ion
Ġuns ubscribe
p ol
Ġmem orable
ĠM aps
Ġnation wide
Ġt une
ĠBi ology
lass es
Ġun cover
ĠN ash
Ġlog os
un ny
ĠSur v
Ġto ken
ĠIniti ative
990 5
93 73
ĠS olution
m atic
Ġro utes
nF urther
Ġterm ination
ĠS everal
Ġg rip
Ġa qu
Ġm ere
Ġm as
ĠR ow
Ġch airs
Ġpath s
ĠUlt imate
2 96
91 54
Ġth rown
Ġdev oted
ĠA y
Ġ !\
. -
Ġrep orter
a ug
Ġsmooth ly
Ġmin imize
Ġpo ison
ĠLouis iana
Ġm art
id y
ĠHam ilton
ĠF le
ret urn
Ġeth ics
ĠEsc orts
91 77
Ġregister ing
Ġfuck ing
Ġimpl ied
ĠStr ong
Ġro cks
Ġclass ical
86 85
ĠK ay
ig o
J une
Ġep ic
ĠInj ury
ky o
R K
ĠCert ification
w ire
AC D
Ġsell ers
Ġthreat ening
Ġaesth etic
C EA
i ere
s v
Ġsuggest ion
Ġcon ferences
ĠB less
Ġestablish ing
Ġc rop
Ġparent ing
Ġfa cial
n it
Ġboot s
Ġproceed ing
87 07
Ġsil ence
nE vent
5 95
ri k
FB E
d rop
b ian
Ġaband oned
ĠComm and
91 00
83 11
nL an
oss il
nC OVID
ĠBirth day
Ġtra ils
C are
Ġh al
Ġb omb
Ġun iqu
nSt at
t ube
Ġobserv ations
2 99
Ġprospect s
U LL
ĠChar lotte
Ġh ike
Ø ³
Ġb er
Ġg rey
ĠMe aning
ĠUp dated
ĠOr ders
ap or
o ft
Ġ5 8
ram a
Ġvar ied
urope an
n as
onom y
z i
Ġautom otive
Ġm ush
Ġpre st
ĠS ent
ĠEngine er
Ġswe ep
ĠD ublin
ĠCamb ridge
85 35
ĠCo al
Ġgain ing
nEnter tainment
Ġcon ce
cl ub
Ġbroad er
Ġstrugg les
D r
Ã¼ r
94 18
D J
Ġperform s
ym an
Ġprec ision
Ġapplic ant
Ġprivile ge
991 2735
Ġo d
Ġdro ve
ĠDe ck
C N
C BD
p i
95 98
ĠA B
ĠD ocuments
ĠBro ker
Ġs isters
Ġintern ationally
Ġb oring
Ġ1 992
ĠSpecial ist
Ġ1 950
] ]
meric a
ĠA part
5 02
ĠList ing
nL aur
Ġun employment
ĠCh ron
S B
81 37
Ġsh oe
Ġth resh
Ġhospit ality
ts burgh
Ġpres cribed
nOver all
Ġimpro ves
EN CE
ĠSug ar
ĠM ob
ĠLu ke
ĠS la
nSm all
ĠDet roit
r ons
Ġwork flow
B DA
86 65
Ġres olved
97 98
ĠMiss issippi
ĠQu otes
last ing
l ining
ĠWrit er
20 02
fe eding
Ġpick s
ĠM all
W eb
Ġeduc ated
L Z
for ced
nE asy
Ġsc ary
ĠRep lace
n atural
exam en
Ġdelight ed
# #
ĠM as
ĠB achelor
D DA
Ġnic ely
b ridge
Ġt ies
ĠA lan
eb an
Ġrac ism
90 16
Ġin cl
20 01
ĠArchitect ure
ĠAdvent ure
ĠF ra
Ġrenew able
93 96
Ġdecre ased
st ick
860 12
ĠP ok
ĠD elta
N et
so ever
Ġw ard
Ġc ant
Ġclaim ing
et ooth
Ġsoon er
ĠOpt im
7 28
. ),
loc al
r ange
ĠG il
ĠIS O
88 25
ĠH amp
Ġsil ent
ĠL ost
Ġbur st
Ġf acebook
ĠOut door
Ġelect ro
Ġres ist
91 33
Ġb ugs
Ġg ardens
o i
lab le
Ġf lesh
eng ine
Ġn it
le ft
Ġconflict s
Ġunw anted
Ġen lar
Ġcam ps
pat ient
Ġchem istry
ĠBeaut iful
nPro s
nF requ
B l
ĠR ather
Ġst ere
Ġev ident
86 84
Ġceleb rating
eb ook
~~ ~~
nC ong
Ġsh out
ĠSh a
ĠPro ced
Ġsh adow
Ġrad i
ĠC row
Ġpra ise
ect ing
it ol
Ġrep ay
nJ ack
C J
Ġthe ft
Ġcount s
Ġsy ndrome
ĠSum mary
link s
ĠS ter
Ġ rib
ebr aska
ĠTre as
AM E
nCh ina
Ġindic ating
ach t
erm ont
Ġdemand ing
Ġwarrant ies
Ġval ued
ĠC opy
li est
ĠP ills
Ġw ax
ĠT ower
W K
Ġint r
ĠL ad
ĠHigh way
nOver view
iz ard
Ġ[ [
ĠRel ated
W N
ĠT al
ĠIsrael i
fe ed
ĠG ary
Ġtrans mitted
F BF
Ġemb ra
90 45
Ġout fit
ĠR ing
Ġrep lica
ĠCh anges
igh bor
ĠM ining
nDes pite
5 87
F DA
Ġcontin ually
ĠCond ition
om i
ar ity
Ġw idespread
k ens
Ġl ending
ĠP H
use ums
Ġint ensity
em en
nP ower
Ġun re
90 22
ĠS ov
Ġel ite
Ġres erv
96 70
lad esh
uss ia
Ġsa fer
Ġsc rap
80 57
Ġneed ing
Ġc ig
Ġwish list
nTop ics
Ġb ay
Ġspecial ty
Ġ5 9
Ġfail ing
98 60
ĠL uck
Ġman ually
ra is
Ġproport ion
Ġpast e
91 22
81 33
riv es
nAd vanced
abula ry
Ø ¹
Ġ ï
ĠH unter
Ġb eneath
Ġnot ices
ĠAccount ing
g al
Ġdefe at
M U
ĠHe aven
Ġv inyl
0 87
80 26
ught ers
ĠAmend ment
ED D
t c
ĠUn like
Ġreflect ed
ĠChair man
ĠT ickets
ĠColl abor
O ctober
ĠL ater
ĠCurrent ly
ĠMan ual
Ġsh ine
ĠG ulf
Ġseason al
gred ients
7 94
f acebook
ĠSp a
Ġp up
97 70
Ġr hyth
nB r
nComp are
Ġexhib it
ĠUl tra
90 11
ĠM AN
ol ester
te am
A ss
ä¿ ¡
ĠT ours
Ġkey words
D BC
Ġloyal ty
ĠRem ove
ĠBlog s
91 64
ĠInter ior
nApp le
ĠD rop
ĠM un
ĠIn n
C BB
Ġpros per
Ġcry stal
ine a
ra h
ĠIns ights
Ġfol k
OC K
Ġsc ared
Ġrepla cing
nStud ent
Ġt ends
Ġ1 80
93 98
Ġeduc ate
Ġcontain ers
d ocument
ĠB loom
Ġrob ot
Ġvalid ation
ro se
x ide
O ff
Ġcons ume
Ġf ed
Ð¾Ð ²
Ġnews letters
nS uper
ĠApp oint
ĠHistor ical
ĠPlay ers
f its
ĠO tt
Ġparticip ated
nTh ree
ĠC OU
ĠH al
nE nd
ĠG ifts
Ġinv itation
Ġden y
ĠO P
J uly
Ġsubst ances
ĠCons erv
Ġ q
ĠG rey
Ġ 76
Ġlock down
Ġm others
h ai
R eg
ĠQu ant
anc ies
Ġla undry
i pper
98 50
Ġad vers
o ad
ĠWork shop
H U
nWh ite
ĠProcess ing
Ġdur ability
97 40
ond e
atter ed
Ġvar ies
Ġan x
85 57
ret ty
rane an
Ġfin an
unte er
ĠDec or
nF ore
m aker
Ġsepar ation
C lass
Ġg ad
et or
Ġd ried
w i
n z
93 63
Ġr itual
ĠHo ward
c art
uss y
Ġh o
Ġ6 2
nAccess ibility
W est
Ġunderstand s
Ġl ib
s ome
ĠA G
Ġunder graduate
E BD
Ġbre ed
90 77
Ġalar m
7 95
Ġn iche
ch en
Ġnot ion
C ON
Ġcl imb
ke e
99 98
Ġá ¼
ĠF ro
ĠOr leans
C ar
97 12
Ġpre view
man ship
v it
87 56
6 12
ri el
ant e
Ġpr iced
nOff line
ĠBr ing
c ustom
L a
ession als
ĠM ode
Ġw ines
Ġprob ability
Ġprov in
Ġarbit ration
Ġs ciences
ĠPh ill
St ar
Ġagre es
Ġencour ages
nS ecurity
ĠS alt
Ġjack et
r ong
Ġoff line
Ġshow case
Ġanticip ated
Ġdepos its
Ġsex ually
Ġpract icing
Ġconvert ed
w ind
Ġrec ruitment
w y
Ġgr asp
uth ent
Ġsand wich
ĠK id
CE PT
Ġhass le
Don ald
rat ulations
ĠLaur a
ĠG iven
Ġpen alties
nC ost
c os
ĠDis closure
N ET
st ra
ĠG ot
Ġout break
Å ¡
Ġang el
3 18
Ġvacc ination
ĠJer usalem
u ct
n ormal
Ġn am
e ach
nR ight
Ġn ick
Ġsacrif ice
ĠS E
ĠWe alth
he el
w er
94 70
ene z
nAv ailable
R el
id ency
p ace
uss ian
Ġp ie
Ġs atellite
ĠF ix
osit ory
bb ed
Ġtact ics
Ġspons or
Ġwra pped
ĠOwn er
Ġtest osterone
Ġseem ingly
ce b
DB E
ĠL ifestyle
iz on
ord able
Ġh emp
atal ie
ch air
G e
ĠIn to
Ġdet er
ict s
Ġrad ical
ĠCons ists
Ġ5 7
Ġ 98
M arch
Ġded ication
AR S
Ġtrave lling
Ġattach ment
Ġport ray
ĠOver all
Ġpresident ial
nUp dated
Ġattract ed
Ġb in
ĠH alf
× ķ
Ġc od
88 85
90 33
D Q
Ġinformation al
Z Q
A U
3 95
am ents
ĠPort ugal
ĠD im
nF eb
n av
94 97
ann on
Ġdon ate
Ġv et
91 43
L ES
Ġra bb
Ġmusic ians
Ġcharm ing
Ġobs ervation
ish a
ĠCapt ain
v able
Ġmet abol
ĠC op
om etry
m ath
Ġarrang ed
ĠBudd h
Ġexecut ed
ĠBut ter
Ġlog ical
K Q
A EF
sm all
Ġguarant ees
8472 9296
87 86
ĠInd igenous
Ġ35 0
99 94
Ġrepeated ly
ĠAl t
u els
g lobal
e em
DF B
88 23
Ġexam ined
ov o
nSo ft
L O
on al
h eld
fe ature
90 83
Ġreview ing
. </
ĠN ich
Ġdo ct
nM at
in ners
g ames
Ġh ood
Ġin acc
l est
F BD
ĠA uction
ier ra
ĠB os
nC amp
ĠSub ject
pro cess
spe ed
O ut
86 20
ĠB rief
ĠP alm
82 86012
Ġacre s
ĠMonth s
Ġw ing
Ġneg l
D EB
Ġexp ed
Ġ1 991
Ġpress ing
Ġoccas ional
Ġ' :
Ġchar ter
og ram
à¸ ¡
Î »
A ST
P l
91 81
ĠA round
nSh ould
ĠC zech
Ġs ca
Ġpack ing
Ġindic ators
88 26
Ġappoint ments
Ġelder ly
Ġcreat ures
ĠSERV ICES
Ġ 97
im ents
Ġam az
93 20
Ġret rieved
ĠFor ces
ĠÂ «
Ġpe oples
Ġp il
Ġdis advant
E H
ĠC ertain
ha ppy
Ġper ceived
ĠSign s
83 37
Ġmin eral
Ġround s
ĠB apt
nB as
Ġdom ains
Ġcompar able
Ġaff irm
C BA
7 18
c ab
sc ar
Ġpartic les
nEx cellent
B lack
90 30
Ġf ought
nCor porate
ĠF er
Ġpass enger
ib e
91 53
ĠPla stic
ĠJ a
FF E
ag ger
ĠEff ective
Ġimm un
Ġam er
ĠAv oid
Ġpen et
Ġadjust ment
Ġev olved
) )
95 50
Ġminor ity
91 34
ĠPar ents
ĠChe ap
d ad
Ġrem inds
Ġaccording ly
Ġatt raction
Ġmix ing
Ġ 67
ig a
83 35
fr ame
98 40
Ġp ension
nG od
89 23
87 36
IS H
nT ech
in ian
ĠT rial
84 26
Ġ1 10
A EE
ĠInstall ation
Ġwhat soever
s un
we alth
Ġattend ance
ĠL ind
ĠL if
j amin
Ġt v
95 78
994 4
I AN
Ġv ocal
Ġappe aling
ĠAll ah
olester ol
th ink
Ã £
ĠR ick
2 93
m ill
Ġviol ate
7 08
IN T
ĠRe quirements
Ġim aging
Ġjo ke
ĠC ities
st atus
il k
994 5
ot or
ĠBr un
Ġcost ly
Ġign ored
Ġa rom
l b
Ġcolor ful
ĠFeder ation
89 24
ch ant
Ġin e
ie val
Ġpublish ers
91 21
87 37
am ine
em et
il ver
S outh
Ġpers u
c reat
W C
Ġtw ist
EN S
im g
Ġm eth
point s
ĠP OST
97 60
Ġpot atoes
Ġscholar s
96 50
ĠAd ams
Ġg rief
Ġedit ors
ic op
Ġclean ed
Ġp sy
ĠJon athan
f ocus
t ags
Ġt ouched
nC ase
Ġsurg ical
ĠC bd
ĠON E
own er
Ġstrength s
Ġactiv ated
yn th
ĠR idge
Ġthr illed
Ġclos est
Ġauthent ication
nT ry
Ġshow c
g as
ign ity
Ġdiam eter
ĠCo aching
Ġgrat itude
ĠA er
Ġg em
Ġshould ers
Ġgood ness
at on
89 25
op ath
she et
ins p
Ġb esides
991 5
Ġhor rible
Ġtw elve
ĠS ab
7 12
I U
V T
nS itemap
ric an
atch ing
ogn ition
ĠPark s
arn ess
ĠDent ist
ĠL ay
ĠK rist
erm at
ĠP ython
ert ation
nS orry
Ġfit ting
nFAQ s
Ġinf ected
n ational
oo oo
lic ate
Ġcompet ent
uis ine
nProf essional
ĠG ib
Ġbar rel
ĠMuslim s
Def ault
Ġf ancy
Ġche er
Ġdet ected
ĠS cre
iv ia
Ġbe aches
Ġ> >
m ons
i ot
ĠSpe c
2 98
in ent
Ġthreat ened
ort ed
828 1164
Ġroll ed
S eptember
F BC
CC B
ĠW ikipedia
Ġorgan izing
Ġblock ing
ov ie
Ġconsist ency
Ġl ips
L og
it us
Ġeduc ators
Ġgr ay
b les
az a
ĠP ubMed
Ù ĥ
Ġsuggest ing
Ġs ends
ĠQu arter
Ġz ip
ĠEth iop
ĠSte ven
ĠCh a
87 85
95 41
Ġcomment ed
nin fo
nP ages
ĠTur kish
C FC
Ġth ermal
Ġbr ut
ĠLaw yers
ĠF ee
e ur
ĠP aint
p oke
Ġelect ronics
ok u
Ġin con
A ugust
Ġgr inding
nP owered
form er
Ġte ens
ĠManufact uring
nPass word
âĢĶâĢĶâĢĶâĢĶ âĢĶâĢĶâĢĶâĢĶ
es la
Ġal b
ĠThe ater
AT A
am ous
orient ed
Ġ20 24
Ġal together
ĠÐ ¿
ĠAny one
Ġdistrict s
ĠG M
Ġc ub
âĢĿ ).
ĠSustain able
ĠBe ck
t wo
Ġcomment ary
Ġstri king
A O
U s
ala m
ith ium
92 94
ĠL oop
Ġclean er
ĠGreat er
Ġindic ator
Ġto ll
ven ues
Ġren owned
nRec ommended
Ġal ien
Ġprompt ly
R Z
ĠImprove ment
ĠG ym
Ġpre val
m ake
Ġarchitect ural
r l
Ġsu ited
F ED
pla ces
Ġcan vas
ĠB aker
ĠMus k
nL ifestyle
nIns urance
Ġun ited
nS us
Ġcount ed
ĠPubl ished
m el
ĠLead ers
In t
Ġfarm ing
Ġm ales
Ġp airs
Ġg lor
Ġisol ated
Ġgener ating
ĠB ruce
f old
conn ected
ru e
X K
ĠN am
Ġemot ion
Ġremember ed
Ġcabin et
ĠM ight
ĠFact s
ĠT ag
ens ively
ĠRe venue
! \"
ĠNor way
J ust
ific ent
Ġown s
ĠFood s
Ġimpact ed
ard ing
A pril
Ã ¥
0 96
Ġcoll apse
ĠWrit ers
Ġdeal t
pir acy
ut o
Ġcle ver
Ġp ad
ett i
ick er
nP olitics
rit ies
ĠStud ios
ĠS outheast
91 67
' .
ĠJ ose
ep al
st age
ĠRe hab
ĠReal ty
Ġtow er
hemat ical
ĠCor ps
Ġaggreg ate
Ġcol ored
l ord
Ġdis k
Ġe quality
Ġcle ans
7 29
2 97
Ġrespond ing
Ġw ages
à¸ ¥
Ġprotect s
Ġspok es
Ġact ress
ĠDis ability
CC D
Ġvari eties
ĠH u
Ġthrow ing
Ġto ss
C ookie
ĠS eed
m usic
ĠDeg ree
nQuest ion
Ġv ig
harm a
m essage
im ated
ĠGala xy
Ã º
ĠR achel
Th ese
ĠÃ ¯
ĠG PS
ĠO ften
Ġfle et
IN K
Qu ery
W L
Ġstick y
ĠH olidays
ĠT un
Ġsur ge
Ġjournal ists
N OW
Ġb out
our cing
ist le
Ġgen es
ĠSt age
â Ĺ
94 52
267 35
Ġrelax ation
ĠContent s
comp ass
à¸ ±
n etwork
è¿ Ķ
Ð ¿
Ġg low
96 40
ĠScott ish
qu es
9685 936
ĠT aking
af ood
ĠNAS A
D BF
âĢĻ .\
Ġpur ple
Ġmodel ing
ĠJac ob
n ity
m ax
duct ory
ĠCompet ition
Ġ idi
Ġth umb
CH A
Ġmethod ology
Ġ1 989
ĠT weet
ĠG ay
Ġdes p
ĠSing h
ĠAct ivity
nE conom
Ġre ass
nO pt
nT ips
Ġsk ip
IR E
ĠI R
if i
Ġf ract
Ġexc use
F DF
at ia
ĠN AT
c ur
Ġdim ension
Ġher bs
ag h
92 97
A fter
98 70
Ġcompet ing
6 28
Ġvers e
an ite
ĠE ve
993 406
Ġf ence
Ġphenomen on
Ġviol ations
Ġfound ing
ĠEs pecially
qu ick
ĠS ony
IP P
ĠL ower
Ġbar rier
ar ia
Ġun pre
Ġl enses
IM IT
Ġt ennis
Ġactiv ate
\\\\\\\\\\\\\\\\\\\\\\\\\\\\\\\\\\\\\\\\\\\\\\\\\\\\\\\\\\\\\\\\ \\\\\\\\\\\\\\\\\\\\\\\\\\\\\\\\\\\\\\\\\\\\\\\\\\\\\\\\\\\\\\\\
Ġne at
ĠKind le
ĠMar ie
ĠS ud
Ġam enities
Ġpharm aceutical
ĠC oup
Ġreg istr
Ġsens itivity
B ay
Ġsum mar
ĠP ER
Ġ6 1
ilt ers
ai ver
Ġbehavior al
Ġis lands
D BD
ĠH ab
Ġmet als
W O
Ġcomp ounds
Ġmet aph
ĠL iver
Ġmal icious
nTh ose
Ġfin ances
Ġdraw s
Ġelig ibility
è¿Ķ ä¿¡
ĠNEW S
994 336
81 25
ĠK u
Ġhy giene
3 29
ĠSt uff
ĠR ates
ang a
Ġcand y
g ender
Ġprom ising
ĠP uerto
Ġcont rad
OU S
Ġetern al
) {
ĠEn c
Ġst abil
ĠGener ation
Ġemerg ed
ĠM asters
Ġtour ists
F N
Ġregard ed
iter ranean
um atic
Ġdiv ide
91 04
Ġda ughters
ĠR ab
ist ically
lim inary
** *
Ġsitu ated
blog s
ĠG ospel
ĠM umbai
nW H
Ġupd ating
ĠB ir
ĠEng agement
W P
Ġav atar
ai k
ĠP ill
nG old
Ġinvestig ations
Ġfat igue
ĠBelg ium
ĠHeb rew
econom ic
98 18
Ġser ial
Ġfe as
Ġc ited
rit ish
à¹ ī
83 38
ĠAnd y
Ġdiet ary
Ġclim bing
Ġc atal
ard o
du e
Ġbrow sers
Y K
95 70
nB re
ĠOrgan ic
Ġcomp ound
ĠCost a
ĠMet ro
95 01
88 86
nS am
í Ĩ
Ġ Ùħ
ad ows
Ġwel coming
nEn joy
ĠKenn edy
ĠS ubscribe
ĠSpe aker
r ust
96 68
Ġeast ern
Ġexam s
ci um
EE N
ĠHost ing
IS E
ĠRead y
te es
ĠSome one
Î ¼
W A
Ġphys icians
lor ida
d ra
6 94
nT og
ul se
ĠColl ections
cel ona
Ġnot able
nR eb
ĠE N
ĠPhys ics
5 08
enef it
Ġdisp utes
ĠTo kyo
Ġprote ins
Ġg aps
90 20
Ġadv ent
. :
Ġl ighter
991 3
ĠB eng
Ġanalys es
g uid
à¸ ģ
ĠK han
Ġdes erves
5 94
91 94
Ġpharm acy
ĠGuarant ee
Ġg ig
Ġdef ensive
Ġfl ip
Ġactiv ation
urr ay
F AC
ĠN ecessary
ĠT N
83 27
ĠF BI
ĠThom pson
B H
ĠTe achers
936 1535
ĠWork ers
ĠRet rieved
in nam
ul ates
Ġvir uses
993406 53
art en
nSte ve
Ġcraft ed
Ġ7 00
nL ow
ion ed
ĠC ultural
Ġtr ash
ĠE li
ab lish
90 87
994336 96
nPro perty
ĠF it
Ġre de
iv an
Ġj ury
ĠPh ilosophy
ĠR EAD
ar ge
Ġtrans cript
Ġout lets
Ġb ikes
W orld
ĠG ear
Ġhand les
Ġstri kes
96 01
F rom
Ġac ids
Ġbelong s
ugu ese
âĢ¦ ..
CC C
Â ł
Ġrecy cling
h attan
Ġpoint ing
Ġrem edy
m id
ur able
ĠEduc ational
nF ire
5 18
86 26
91 57
Ġencounter ed
ush i
Ġ ug
90 67
ĠU V
Ġterm inal
ĠS MS
ĠC NN
O AD
Ġk inedu
S earch
aw s
ĠS M
as is
Ġb inary
ĠH our
bel ie
g ral
dig ital
Ġlit igation
Ġwa ist
47 06
nLo ad
e very
90 21
Ġspec ify
86 87
t em
Ġconf using
Ġsurv ived
Ġgl uten
Ġgl uc
ĠCle veland
ĠChrist opher
ĠR unning
Ġdro pping
ca per
nWe ight
health y
Ġs amp
ĠGr ay
ĠZ ero
ĠH ans
84 43
Ġc ement
Ġhold ers
VI CE
Ġ' ,
ĠEth ics
Ġtransform ed
ev a
ul ative
umm ary
nGu est
ĠCir cle
Ġdisc ont
Ġurg ent
nS enior
Ġc uri
89 26
Ġb orders
ĠP ap
0 97
ĠV IP
Ġo re
ĠG MT
Ġp ose
Ġquant ities
88 81
omet ric
W H
id el
ĠOlymp ic
ut ory
ĠL ie
ĠGo ing
Ġdescri bing
Ġbad ly
ul us
nCon f
B EE
ĠMass age
al so
ĠProgram me
nP ermalink
91 03
read ing
comp any
nW ould
Ġhand ed
ĠM eg
ens on
3 19
] ;
Ġpro pose
re le
nB oth
Ġgovern ed
ĠHe at
Ġdom inant
op ic
Ġhorm one
heim er
ĠTra in
93 944
Ġterm inate
le ad
Ġdif f
um ar
ĠBo ys
Ġâ ľ
ĠN at
80 64
5 28
Ġ 84
B U
Ġaw a
un ted
Ġprom otes
ĠL en
Ġj am
90 57
Ġw ings
Ġcon sole
87 87
P rivacy
Ġsusp ended
Ġspe cially
b ay
Ġprom o
Ġthe oretical
r ights
88 27
Ġ' '
Ġcontroll ing
8407 751
mun ications
nD et
Ġprotocol s
Ġbur ied
Ġmod ification
. '
991 6
ĠAre as
Y P
ot ions
95 60
O f
ĠH ence
ĠBuy ing
ĠCh ocolate
ut m
DD F
n è¿Ķä¿¡
Ġlaunch es
Ġbless ing
ol er
com ments
J M
823 7
Ref s
D ata
r age
Ġadvoc acy
Ġm os
Ġpo ckets
Ġassess ments
ĠC ass
S Z
ĠCoun ter
ĠAdv oc
ĠMatt ress
is met
or ia
ĠPack age
F H
nY eah
Ġvary ing
85 36
Ġh ist
ent ry
Ġmod es
nJo bs
ĠHamp shire
Ġch apters
Ġenter prises
ĠPract ices
Ġhon ored
ĠM BA
ĠK er
Ġcancell ed
Ġn erve
r isk
Ġpractition ers
I ns
ĠSt orm
Ġinnoc ent
Ġscient ist
Ġl obby
ĠV acc
h is
Ġsh ore
ĠS A
jo bs
ĠPhil ip
ou is
ĠInt el
nS chedule
Ġde ce
UT H
nWord Press
6 08
ĠPlan et
CA F
um ph
ĠH unt
88 24
ill o
W Q
Ġearth qu
ĠRet irement
Ġw inds
ot ely
nJ im
ĠExper ts
Ġdim in
nH uman
ĠGra ham
Ġther apeutic
9747 84
X Q
nCon clusion
ĠVeter ans
Ġarriv es
ud ge
R U
Ġsearch ed
b id
o las
ĠA thlet
Ġrev ised
a ad
ĠB or
in burgh
83 74
ĠPat ri
ur rection
Ġover look
rist mas
Ġfoot age
Ġgenu inely
Ġpri zes
88 84
ĠChar lie
Ġbas ement
imb urs
Ġle ver
s ystem
Ġcomp aring
89 21
ĠSo on
ĠK am
EC C
Ġadvert isement
Ġinval id
87 14
com ed
th an
Ġc ab
ĠEth ereum
g reat
nP rom
UL T
nList en
à¥ į
Ġreg ret
Ġsl ides
nD aily
Ġsqu ee
ĠG ardens
Ġdel icate
ĠC risis
al ink
Ġmag azines
iz a
ĠMay or
ĠD river
AK E
90 34
ĠDep ending
ĠDog s
ĠBank ing
Ġnur ses
he w
ĠONL Y
b ag
Ġdevelopment al
Ġspread ing
Ġvit amins
Ġ 94
ĠArk ansas
9561 851
ĠCont ribut
íĨ ł
land er
87 16
nWrit ten
Ġres ervation
se ud
te in
95 68
Ġdisappe ar
ĠFil ter
ab i
Ġh iding
ĠN DA
ĠSpe cific
ĠMel bourne
Ġmin erals
91 96
88 21
ĠP le
Ġp orts
Ġsh ar
Ġun law
90 974784
ĠC M
ĠDo ing
ĠRead er
Ġin fer
Ġc raw
n ote
993 6
ĠOpport unity
Ġher bal
ĠD aw
Th ank
nA f
ĠSt eps
F EF
Ġlog ging
( );
Ġ 96
Ġwond ered
Ġe co
ED C
Ġassum ing
Ġj et
nEn vironment
P s
ats on
enn ai
998 26735
5 96
Ġd airy
Ġun ch
enc il
Ġch er
Ġexist ed
ver ning
Ġsurve illance
B ack
Ġdist inction
Ġread ings
cont act
ĠO THER
Ġh ills
Ġsubsequ ently
ÑĢ Ð°
Ġco inc
Ġgovern or
Ġinv oice
Ġst atic
ĠB erg
im en
ĠSov iet
891 15
83 16
Ġk g
Ġste ep
Ġment or
Ġmedic ines
Ġwarn ed
ĠR ank
92 95
ij ing
ĠF ence
ON S
98 71
Ġnew er
. âĢĻ\
nSt eph
ĠG host
Ġk its
P ar
Ġappropri ately
ĠJust in
rop olitan
ĠMad ison
Ġtravel s
84 57
Ġt ile
app le
Ġder iv
Ġvol umes
Ġtal ents
innam on
ĠF ig
Ġs word
à¤ °
bb ing
ĠSn ap
s ports
olog ically
ĠLu ther
Ġmagn etic
ĠChar ter
b ot
Ġs ail
Ġimp osed
rep resent
83 13
nLink s
ĠBarb ara
6 96
row ave
ĠMove ment
Î ·
ĠNeed s
Ġmanufact ure
01 23
0 98
ne ath
= âĢĿ
Ġh ref
ĠAff iliate
Ġdistinct ive
ours elf
Ġpursu ing
ĠPain ter
Â® ,
g ary
uff y
od ia
nC lear
806 7713
ang o
nB en
d ess
Ġte asp
ĠUn less
Ġjud ges
ug gage
lu ence
ĠSell er
AN K
ro be
Ġw ars
ĠPartners hip
In ter
Ġbe aring
Ġb en
ĠAd obe
ĠD iversity
t ake
Ġdepart ure
6 18
ĠRec ent
F U
ĠF lex
ĠCOM M
j ournal
Ġad oles
nM el
Ġsens ors
85 16
ĠLaw rence
X P
Ġtem pt
Ġhung ry
ul atory
84 25
M ore
S e
ost ed
Ġbo iler
Ġadapt ed
Ġtempor arily
âĢ¦âĢ¦ âĢ¦âĢ¦
Ġcross ed
Ġwh it
, ,
ĠM aj
Ġconv ince
ĠN ord
80 23
80 46
Ġs illy
Ġc ush
Ġconj unction
Ġbar gain
us ers
bu ilt
AS H
ĠT odd
io xid
M od
Ġblog gers
ĠExpl orer
Ġprogram mes
ĠY ahoo
Ġb ol
Ġcy cles
ph oto
Ġcha os
ĠEff ect
Ġbreak down
ĠS witch
80 76
ig ible
nC ountry
ĠCh art
Ġpart ially
ĠSh ows
Ġinject ion
nChild ren
nEmp loy
5 09
ra cle
W V
ĠC ou
erm any
80 13
86 23
5 99
la p
Ġprot ests
ĠWh atever
dem and
3 97
ĠAd min
le arning
Ġexp end
ĠMem ory
ĠA le
Ġst ating
Ġdress ed
ink le
Ġly rics
nM ag
nF e
81 23
ĠStan ford
95 40
ĠRel igion
ĠI an
ced ented
nC H
ĠHot els
Ġsolic itation
at ial
end y
ĠS orry
6 99
nSub ject
ĠStr ength
ĠCom ing
nAn sw
Ġwood s
Ġd ated
ĠKar en
Ġatt ain
ĠB ever
Ġp est
à¸ ĩ
ĠO ri
nCom mercial
Z L
Ġvari ant
87 11
cc a
nY ear
Ġelect ron
Cont inue
Ġlearn ers
Ġcy cling
ĠTest ament
97 28
ĠSettings Accept
7 19
Ġsc oring
Ġridic ulous
Ġrespect ed
ĠAss ignment
ĠR acing
nEditor ial
FC F
Ġwh is
nP rim
un ts
Ġref in
th ritis
ĠH i
Ġweb inar
c urrencies
ĠUn til
S Q
Ġw rist
ff ective
ĠG B
947 04
nF ac
ol ine
field s
BC C
Ġsearch es
Ġsurround ings
f y
ash a
Ġgrad uation
ens ing
Ġsynth etic
Ġcoast al
Ġpredict ed
ĠN iger
96 08
Ġenroll ed
Ġour s
ĠP ure
ĠM ut
94 98
à¸ µ
Ġconnect s
à¸ ļ
Ġca ution
ĠR ico
ĠP ent
Ġz ones
ĠCommission er
ust in
987 55
reply to
emet ery
ĠSt ress
ru ed
ĠPol ish
87 33
% .\
3 98
ĠPubl ications
Ġra ck
nSu pp
Ġfra ction
il itary
Ġ 88
æ ĸ
nAdvert ising
ĠAm azing
Ġev olving
Ġcollabor ate
Ġincent ives
Ġstress ful
nJ eff
ĠC DC
he at
Ġr ender
ĠL ux
Ġvess els
Ġj unk
Ġtechn icians
nWork ing
ain less
83 55
nB ill
Ġmoment um
Ġoff set
Ġassoci ations
ĠGener ally
Ġperm alink
ance ment
Ġpromot ed
Ġhousehold s
ĠU g
ĠCon cept
Ġdownload ing
t ures
ĠPat tern
ĠPut in
Ġk iller
AN G
Ġphr ases
g ot
ry lic
Ph oto
FF F
Ġpres um
f un
Ġlicens ing
s ex
ĠDesign er
v or
995 6
EV ER
EE T
Ġout line
b one
ann ers
Ġexecut ives
ĠQue ens
ab c
2 92
Y C
ĠCamp bell
Ġr amp
ĠLands caper
Ġrev ision
Ġaw ful
ĠB ike
ĠF I
Ġpuzz le
ĠAk ismet
Ġsell s
Ġar row
Ġdiscuss es
85 24
Ġmotor cycle
Ġmyster ious
Ġanim ation
84 16
Ġcons ensus
ell ery
ĠT ask
ĠAd mission
Ġqu oted
D ate
Ġkind ness
ĠLab our
b dd
Ġs ch
Ġlect ure
Ġtransl ate
a ec
Ġbrand ing
93 90
W I
ĠPo etry
7 09
Ġcor rection
epend ence
Ġin quiries
Ġcomp lications
ĠG ordon
ĠMan aging
ĠL ag
ĠIm portant
replyto com
ĠBalt imore
Ġintro ducing
Ġcirc ulation
D G
Ã ĥ
ĠBase ball
by e
we g
iov ascular
Ġargu ed
ĠEx pect
Ġv iral
Ġagree ing
Ġmod ifications
5 93
c ross
Ġ6 8
nI N
ĠL inda
Ġback yard
Ġs ized
nM att
ae a
Ġassess ed
5 19
f re
ì Ĥ¬
D EF
86 25
ĠB al
f ive
nP eter
Ġisol ation
ĠAtt ribution
Ġpick up
Ġsent ences
is co
log ical
Ġtem p
Ġbegin ners
Ġsn ack
Ġdeterm ines
ĠPrin cess
pt ic
Ġintrodu ces
qu are
Ġspir its
ud ed
Ġfem ales
7 96
ĠElect ronic
V N
Ġimpl ies
ĠCo verage
id ad
6 19
h ire
ĠMat hematics
Un ited
T ext
84 13
AB ILITY
Ġinflu ences
Ġconsum ing
A re
ind ust
ĠRec ommend
ĠLGB TQ
v als
M in
ement ia
Ġachieve ments
R ANT
nF igure
Ġpredict ions
nRich ard
ĠA irlines
3 82
the me
Cl ick
DC F
Ġlaunch ing
uck er
reat h
ĠH az
nTr ending
Ġ 73
In st
ĠA aron
o cc
nH and
Ġfort unate
ON G
Ġat e
81 36
Ġthought ful
ĠM ichelle
ĠP s
Ġcare s
Ġbr id
b eb
org ot
Ġpip eline
ĠD or
Ġcount ing
Ġsing les
nDel ivery
ĠWar ren
ĠA BC
sh ots
end or
86 56
as ia
91 63
ica id
D O
nTe am
any on
ĠW right
Ġ6 9
7 97
empt ion
Ġreward ing
g old
Z J
Ġen erg
Ġvolt age
W J
urg ical
ĠS TR
R G
bd a
Ġbet a
ĠThought s
ĠG ill
ĠCol omb
Ġspecial izes
ĠR u
Ġnegoti ations
Ġconnect ivity
Sh ow
92 20
Ġpass ive
Ġdam n
ĠQ atar
ĠØ ¨
US A
Ġdeal ership
Ġ 91
A cc
Ġj azz
W M
Ġauthor ization
Y Q
Ġar c
Ġbook ed
us k
Ġresil ience
D N
P ort
BC E
om on
ĠP ope
p red
ure a
uc lear
nSim ilar
ch et
Â ´
nF und
oc y
Ġroll s
nFrequ ently
Ġin dig
Ġaccept s
el ong
ud son
Ġfore x
88 83
ĠB ab
Â· \
Ġunder ground
Ġan alytical
Ġsub t
10 16
87 35
EA S
are a
] [
nSh ort
Ġpro x
nBe ing
ĠTour ism
pell ed
ted ly
Ġlic enses
ĠNo vel
ĠEmploy ee
ĠN H
Ġcor ners
98 28
ĠE M
ĠF igure
fl ower
d ing
ĠB ou
Ġrefer ral
ĠEx cellence
Ġac ute
ĠFrank lin
K T
nC ert
N ext
al ous
89 27
J anuary
Ġs ins
94 90
Ġbackground s
Ġmount ed
aa a
ĠOb ject
Ġveget able
all e
Ġm ice
al p
Ð ·
ĠP el
F EA
Ġo l
ĠM B
M CA
S J
85 53
5 92
nIn f
ce e
89 95
Ġfun eral
ĠA bb
Ġjun ior
nA ng
91 95
or us
ĠAb use
a ft
Ġ 74
V ER
ĠF iles
th y
Ġstream s
ĠBrand s
C FA
nH ar
ĠCons ervation
ĠE L
ĠEx cel
ĠPla ces
ĠF ees
nJ ess
Ġret ro
Ġassum ptions
nSt aff
bl ue
Ġh obby
ĠP ricing
un ion
ĠSwed ish
925 6
ĠW ard
cl ose
CC E
Ġfinan cially
Ġs aves
87 25
Ġform ing
Ġbo ats
ĠMar vel
ĠI con
t ab
ighbor hood
ĠRelation ship
ĠG ambling
att ed
akes pe
r aduate
Ġdispos al
ĠDen mark
Ġanaly zing
80 36
Ġlist ened
ĠDat abase
C oll
la re
st ics
ĠM alt
Ã© e
0 88
ĠDoll ar
a eb
ĠCamer a
Ġexam ines
Ġwell being
Ġport rait
ĠRes ult
Ġra pe
Ġfr idge
ĠJun ior
5 29
Ġlic ence
ĠM ent
â Ļ
nu m
Ġtast es
nPay ment
ĠAd vant
Ġ{{ /
97 51
Ġrem otely
Ġdat abases
Ġchar ger
re place
ĠCann abis
ist ence
ĠP ad
ĠDesign ed
ĠAct ually
Ġsew ing
Ġpast a
Ù Ĥ
Ġher oes
Ġright eous
Ġl iqu
ep lay
ĠNever theless
in come
ĠRe qu
nUn iversity
W G
el sea
cu its
ĠR EC
ĠW EB
Ġe lab
gu ide
ĠBalan ce
87 44
Ġattack ed
3 93
Ġcomb ining
ott age
Ġsort ing
Ġassist ed
Ġwh olesale
ĠN i
ĠE gg
ĠL ex
Ġpract ically
At om
84 24
ĠTy p
board ing
ĠEx plore
or iginal
g raph
f red
Ġbro kers
Ġyou tube
d an
ĠF isher
ĠEn s
b ac
ĠEm ily
Ġpl umbing
m ember
ĠS ame
Ġaccount ability
Ġter r
87 77
C OP
Ġfert il
Ġv alley
att a
Ġneigh bour
Ġm ock
sell er
d eg
h op
cap ital
Ġhigh way
Ġconsist ing
ĠN elson
6 97
Ġven ues
Ġg ospel
85 14
php bb
Ã ´
Ġund ers
Ġsac red
urr ence
Ġblan ket
r ill
ĠN E
Ġchalleng ed
ĠCar ter
0 93
Ġcloud s
Ġannoy ing
S ec
Ġautom obile
Ġclass ification
ĠT ip
ĠR ice
Ġvess el
ĠPala ce
ar ium
nM et
Ġwhe at
91 73
Ġhere by
ĠCar bon
7 98
Ġdef ects
Ġse gments
Ġshe ep
ĠLaw s
Ġdram atically
Ġaltern ate
Ġsim ulation
Ń Ĳ
es ign
6 09
ek ing
Ġp y
nJ on
ĠH at
ĠGar bage
nEx p
ĠIm port
ĠRem oval
H z
AG ES
ĠCo in
f ind
ĠFl at
ĠViol ence
ĠAust ria
Ġb ush
N orth
ĠS ue
84 06
Ġr ides
ĠU PS
Ġsen iors
aa S
Ġdec lined
nSom etimes
ĠRe gular
ĠP izza
9954 802
ĠTrad itional
Ġcoord ination
91 30
85 15
5 98
or ie
ĠPh ase
Ġco ating
X V
nP et
Ġfrust rating
nBl ue
Ġf ier
d ownload
ef e
ĠCabin et
Ġc oding
nN ever
ian e
C DB
R V
k le
ĠEr ror
av al
X J
ĠDr ink
ro d
ĠUs ually
Ġstress ed
ster dam
Ġt ropical
l ings
nUn fortunately
87 23
Ġocc urring
ob i
******** ********
Ġass ure
Ġch ick
ĠBro ther
ĠCh en
ĠPro gress
ĠS we
97 32
b ff
ĠJ e
ĠHor se
80 45
81 76
Ġp ine
oub tedly
bo ro
ant i
92 93
ĠMed iterranean
la g
Ġactiv ists
80 44
Ġdevelop s
f ix
Ġpupp y
D EE
ĠK ath
es ity
ĠM N
87 76
S u
Ġseam less
ĠP un
ĠUnder standing
Ġthread s
89 96
ĠCor ner
87 46
all ing
nPro t
Ġtast y
off ice
ĠAssoci ated
C EC
u ate
Ġlegend ary
if le
Ġcell ular
Ġsh ades
Ġtravel ers
J ohn
K A
Ġbed rooms
nC ond
reat ment
ĠU I
ĠDev ice
Ġra ises
86 46
w oman
ĠBr anch
Ġgener ator
ĠLight ing
- )
ĠEx amples
ĠK night
ĠS ector
arm a
ĠB ee
K V
old ing
Ġclos et
ĠWay ne
n ap
Ġv on
Ġscre w
AC Y
Ġa th
ĠMos cow
Ġfl or
P B
t im
ĠElement ary
84 46
87 24
910 27
ĠM oro
Ġz oom
l ib
97 02
885 2
Ġad her
Ġabsor b
Ġn aked
Ġretail er
nM ess
ĠCitiz en
Ġfab rics
EA M
{{ /
Ġwor ries
ĠSpe ech
ri ous
Ġbla de
Ġelement ary
ĠPsych ic
8 960
ĠB I
Ġsport ing
lu x
e asy
st orm
ĠV ill
ĠLiber ty
Ġqual ifications
998 6
ĠMe anwhile
86 55
Ġpers istent
? \"\
akespe are
Ġdocument ed
Ġmed i
99 93
Ġp ound
Ġref ined
ĠJew elry
Ġconsider ations
ĠChem istry
Ġabund ance
Ġal ignment
AA AA
ur dy
96 28
nC ap
Ñģ Ðº
Ġevalu ating
Ġman ages
b irth
nTest imonials
bsolut ely
ĠV ista
G eneral
ĠH AVE
nB et
ok es
00 85
Ġlim iting
Ġinte gral
ĠV R
Ġreal m
Ñ ĩ
m and
Ġart ic
Ġbe ars
Ġinvas ion
Ġdi agram
Ġfaith ful
Ġprofession ally
Ġmach inery
Ġmechan ics
81 24
Ġpun ishment
ogen ic
ob a
ens ation
Ġcla use
nB uilding
Ġnow here
Ġmatch ed
DD E
Ġwel comed
Ġtim eline
enez ue
DF E
f ty
6 98
Ġinters ection
86 36
nD em
Ġdress es
Ġ1 988
ĠEff ects
Ġinstall ment
Ġc oc
ĠStrateg ic
85 07
Ġj ar
Ġto ps
ĠT ar
ĠValent ine
Ġplan ner
Ġapart ments
nI ss
Ġdraw ings
83 46
86 37
ĠTem plate
ĠAb raham
Ġcomprom ise
ĠList en
Ġrank ings
Ġ 83
ĠIt em
ĠAd just
ĠSte am
nR EL
Ġen light
Ġrel atives
ias m
Ġint ensive
ĠCir cuit
cent ury
rem ium
! \"\
ener gy
ĠJ et
Ġh ier
b en
ĠPodcast s
Ġthresh old
ĠIntern al
nMon th
Ġmaintain s
ĠOr thod
Ù İ
ĠH ugh
Ġg lim
o lar
ĠCon duct
nL ook
par ents
ĠSt adium
ĠTh er
Ġdeb it
Ġsol ved
ĠM atter
86 66
Ġla s
ci e
ch anging
law s
b cc
Ġincident s
83 76
Ġadjust able
nS ales
Ġafter wards
ĠD ES
ot ypes
Ġf ossil
af c
98 557
ĠL anka
ract ic
F DC
Ġp ending
ir i
Ġshock ed
ud y
ĠSh ip
Ġroy al
Ġrel ates
Ġair line
ĠSe ven
Ġt we
Ġvan illa
80 24
98 08
ĠS S
Ġcont am
85 13
Ġt urb
Ġn ons
Ġste pped
Ġtw in
exp ensive
Ġcontrovers ial
Ġn in
Ġbookmark ing
98 01
Ġsh ake
ĠEx cellent
ĠSh el
97 78
ĠM ON
Ġpat io
Ġins ulin
ĠG ent
Ġsn acks
ĠRe asons
nMay be
Ġpass port
Ġthro at
5 82
ĠT on
nM aterial
ĠOr lando
Ġconcent rate
Ġcry ing
87 45
ĠFound er
83 94
fact ory
ed ar
ll i
Ġclos ure
ood le
Ġinter ventions
r h
Ġhop ed
97 39
ĠS und
EX T
91 10
ĠT IME
Ġlong est
87 84
Ġ 93
ĠR av
7 93
ced es
Ġdownload s
Ġlux urious
S tr
vent ory
860 93944
Ġapproach ing
ĠH arm
Ġsched ules
Ġdem ocratic
ĠImm igration
D ec
83 22
Ġinnov ations
Ġtail or
Ġp add
85 25
ici ary
Ġut most
ri ors
ĠO ption
Ġunder neath
ĠS au
ĠMont ana
Ġur ge
ĠPro p
Ġcust ody
Ġcop ied
Ġdistingu ish
ĠSpot light
Ġcomp iled
Ġ 86
97 08
Ġexpl ored
ig nup
ser ies
Ġinfin ite
nD en
il ia
Ġbe lly
Ġamend ment
nU K
Ġm i
T witter
Ġlif ting
Ġast ron
Ġinhab it
Ġcred entials
Ġ15 00
Ġste al
ĠT ER
uk i
itut ions
ĠFin land
81 35
res ources
89 22
ĠAl cohol
ĠI RA
ĠB attery
nK im
Ġc ave
Ġcreat ors
ge la
oth y
e er
Ġt ar
u lette
bor ne
90 10
âĢĶ \
sec ond
nI mp
Ġpharm ac
85 84
is ible
alk ing
nM en
Ġch amber
Ġtra ins
Ġsal vation
ĠN ut
ĠConsult ant
ĠPR OD
h ouses
ĠAccess ibility
ĠPict ure
ĠF el
ĠG em
ĠJess ica
ĠClass es
Ġharass ment
ĠProf essionals
ĠR anch
ew ater
R Q
Ġhead quarters
Ġimm igrants
ĠW or
ĠPat ient
Ġperf ection
at ars
Ġperiod ically
nL eg
Ġra lly
F EE
ĠPr ayer
Ġham mer
Ġsustain ed
ff icking
ph alt
rit ical
II I
rest ling
ĠCOM P
K D
87 26
ot he
Ġobst acles
Ġle isure
ous ing
994 7
ĠPit tsburgh
Ġdec ides
ĠB art
o is
ĠRob inson
ab lished
L ab
Ġbu zz
h ma
man agement
ĠLa wn
op ed
ĠSupp lement
86 83
nP ol
ĠM az
h al
Ġre venues
ĠFort une
L I
L Q
Ġmaj ors
Ġcharacter istic
E l
Ġattract ions
Ġd ia
Ġexcept ions
nPart ners
ll ed
ĠDis p
ĠUn iverse
imens ional
6 93
Ġb od
gr ad
86 75
Ġtre asure
86 24
ĠA PR
IC Y
Ġguard ian
ĠS ew
86 16
Ġd oses
Ġelev ated
Ġnecess ity
K G
nH ope
Ġansw ering
EV IEW
ĠC PU
ri um
th ird
Ġhol istic
P age
86 14
Ġshort age
884 21
Ġnever theless
g allery
Ġprem ises
ERS ON
94 60
anu el
iss ance
Ġadapt ation
ĠD E
ĠPark er
rie ve
Ġret ire
Ġlect ures
Ġag gress
ĠLegis l
ĠAr gentina
ĠL etters
n ext
Ġb is
ĠColl ins
Ġendors ement
af d
94 058
ĠPict ures
nM aster
Ġind ication
ED E
b ial
ĠDis play
Ġ1 987
Ġv iable
ĠV ers
ĠL akes
Z V
Ġreput able
Ġgod s
Ġcou pons
ount ers
Ġimp ly
ĠStart ing
Ġt ens
v ak
Ġdiagn ostic
ik h
Ġb ored
81 75
ĠG iving
ĠTer rit
ut ed
Ġcro ps
Ġflo ating
20 24
Ġaccount able
Ġint uitive
er b
Ġrep et
ĠCon c
Ġto dd
Ġw ag
G od
ĠG ender
Ġqu ot
ĠBang ladesh
ĠP ic
ĠBreak fast
ĠA x
Ġmole cular
ĠEss ential
ĠSell ing
Ġf ate
Ġen act
7 99
Ġemot ionally
86 15
Ġdesper ate
nL ic
Ġkid ney
Ġmagn ificent
Ġup s
nSm art
A ct
\" ,\
ĠC ake
Ġdr um
ener y
Ġtravel ed
Ġhapp ier
88 22
Ġunpre cedented
ast ro
bb c
ty le
Ġprevent ed
p ad
ĠAl berta
ðŁ ĺ
86 13
Ġen z
ii i
Ġfre ight
nP ack
jac ent
80 16
Ġdead ly
ĠPar ad
Ġsecure ly
Tr ans
L V
X T
Ġcert ificates
Ġmis con
86 64
Ġsuperv ision
ĠU T
Ġcomb inations
íĬ ¸
Ã± ol
Ġd umb
ba cco
ĠHe ights
Ġdep loyment
ĠL ang
nE nergy
Ġas c
991 7
bo rough
Ġre load
87 17
Ġrig orous
c bd
ĠComp ar
an ium
97 58
ĠRec re
Ġopp onent
Ġstart ups
ra its
ĠFeed back
any a
Ġch ron
Ġdeb ris
Ġswitch ing
nS arah
ĠShare s
nR ated
nD ue
Ġrac ist
Ġsun light
el o
Ġjust ify
84 47
ci o
Ġsched uling
93 02
Ġsh ifting
Ġsla very
nS ubs
nad min
Ġcir cles
ĠHer o
ol ia
Ġins ured
ĠU AE
Ġ 81
L et
Ġt iles
ĠFAQ s
ĠC oh
the ir
ĠS olid
acter ial
Ġathlet ic
ĠWish list
Ġr uled
ĠTik Tok
Ġsoul s
Ġso vereign
R J
87 05
Ġsus pected
ĠEx ercise
Ġaut ism
ĠH ospit
Ġunlaw ful
ĠWeek end
ĠG am
83 93
86 06
ĠL ots
Ġcar riers
C BE
Ġtra its
ĠN urse
Ġpractition er
Ġt uition
intend o
ĠWAR RANT
ĠAr thur
88 93
Wh o
Ġsp ine
Ġrespect ful
& _
Ġh int
ĠSte wart
Ġimm ers
ĠP oker
z el
ail ure
ain ted
ĠD riving
Ġb ang
nSt rict
h istory
nCal ifornia
Ġcar go
istr ies
Ġalb ums
ĠRe ference
fore st
Ġne arest
Ġb ree
Ġnon etheless
âĢ į
92 91
ĠInf rastructure
ĠDep osit
ĠVit amin
bo ys
Ġth rew
Ġn ost
Ġs urr
P ay
ĠN V
em i
Ġencry pted
ĠI ND
Ġvari ants
Ġsh ifts
Ġbreat he
Ġrest ored
03 18
art z
ĠCra ig
ĠJ avascript
Ġill um
ĠâĢº \
Ġsub missions
aged y
ĠF ill
found er
ef ined
nM oney
om eter
Ġalter ed
ĠCh ase
Ġuniqu ely
Ġconsider ably
be a
84 65
Ġâ Ī
Ġfarm s
ĠToy ota
Ġex cluded
Ġd ub
Ġ ion
ĠS oph
ĠN ice
Ġbre w
ĠY an
Ġforest s
l ists
ĠH end
ĠDe laware
fl ict
Ġ ãĤ
91 91
ĠReport ing
ĠFund s
R AM
H ere
Ġco pe
Ġmort ality
spe cial
IL E
ĠG U
Ġsurprising ly
Ġval ve
Ġass urance
80 55
nF riend
ĠCry stal
Ġfund raising
Ġenh ancing
ĠMan hattan
Ġb iod
Ġdash board
nP ast
Ġen compass
ĠL eban
Ġcons ecutive
g re
ĠAl bert
Ġkind ly
pl it
ĠAcc ident
Ġlegisl ative
g ow
Ġmax im
for get
Ġacknowled ged
ĠB UT
ab d
96 61
Ġbo il
ĠM iles
ke ys
ĠNetwork s
ĠL IMIT
nFin ance
Ġcl ips
Che ck
Ġproceed s
Ġprest igious
ou stic
Ġburn ed
80 14
ĠC lay
81 97
ĠRe ality
nW as
5 97
Ġcy cl
Th anks
90 43
ĠGuard ian
tain s
AY S
ĠReg ulations
ĠD y
Ġresp ir
Y N
Ġrepro duced
erm ine
hes ive
oc ations
Ġschem es
ĠD raft
ĠBo at
om o
81 26
83 84
Ġcre ep
Ġst iff
nRe gular
83 14
ograph ics
ĠL or
ĠMitch ell
ĠZ e
at ts
ĠLess ons
Ġamaz ed
Ġt orn
Ġcross ing
ĠMarsh all
Ġy arn
Ġdis comfort
G ood
6 29
sub ject
Ġmon ster
ĠDeb t
nCons ider
80 25
Ġrepresent ations
st ration
Ġmat hematics
pr us
87 65
Ġhapp ily
ãĤ Ĭ
ĠS UP
ĠPat ients
Ġnews papers
88 00
47 26
nC eleb
ĠEx c
80 37
k ward
ir ational
ĠSec ure
ĠM US
C DE
Ġb aked
r iction
et ra
Ġpartner ed
Ġins ulation
Ġcon clude
up unct
Ġ$ {
Ġun ve
a ef
ĠRob in
Ġso y
ĠBro thers
Ġsatisf ying
Ġass ists
ro ider
ĠSe an
c ott
Ġupgr ades
87 75
v t
b n
Ġc ovid
Ġm esh
nTh ird
ĠChar acter
m are
ĠTh inking
ĠJ azz
96 48
Ġrenew al
Ġcalcul ator
Ġfor k
Y J
Ġhom emade
Ġ1 986
ĠM akes
Ġquant um
Ġgr ill
EG AL
Ġrefresh ing
p owered
Ġillust ration
ĠP E
iv o
ĠR AM
Ġ| |
Ġdiscover ing
ĠLab s
irm ingham
Ġresearch ing
af b
bro ok
Ġh ind
per or
Ġf ax
se en
ĠA verage
b us
nEx t
Ġn an
log in
Ġresearch er
Ġenthusi asts
ny ou
ĠC arm
nFollow ing
ĠS ie
nAut om
ĠCl ients
cl oud
Ġkil omet
ruct ive
Ġcare g
nQu ant
Ġp ier
ĠGood s
ĠSl ot
nT ext
nStand ard
G en
89 00
Ġbr on
Ġinvestig ating
ĠC ub
Ġgrand mother
Ar ch
ĠBlu etooth
993 3
AC CEPT
0 99
ĠIndust ries
F irst
ĠHigh ly
ip ur
Ġanx ious
arch ive
St ate
ĠOcc up
94 50
K C
c redit
ĠRemod eler
Ġp ond
og g
ĠCor onavirus
ĠCR M
D CC
ĠId aho
nSt ill
b ecause
ĠD ash
Ġcon clusions
Ġadvertis ers
Ġpri est
Ġmerch ant
part s
Ġmid st
nInd ia
Ġliter acy
Ġstrugg led
ood y
ib li
Ġrece iver
Ðµ Ð½
f alls
ĠG la
Ġy og
Ġrecord ings
D U
96 51
Ġgradu ates
96887 56
ust ers
Ġdecla re
Ġp ile
th en
Ġpro st
roll ing
Ġmon u
nS elf
nWith in
Ġincur red
Ġan ime
Ġw ound
Ġintim id
Ġn est
ĠV ict
P DF
ex press
0000 001
Ġdress ing
Ġd it
nS w
3 92
Ġsix th
Ġa u
ÑĤ ÑĮ
pen se
Ġcle ared
ĠGro ve
85 65
3 88
ĠDep ression
Ġcirc ular
ICA L
r one
ĠSt ev
Ġsimpl er
Ġgluc ose
996 6
Ġdest ro
ĠL ights
ĠMor ris
84 55
Ġbu ck
Ġn ails
997 6
d est
osp her
ĠAnn iversary
z heimer
Ġtri ple
ĠPart ies
Ġspa cious
ĠX box
vert ed
L J
oc ity
ĠP il
85 26
Ġcon gr
97 41
dis play
art in
list ed
94 40
be f
Ġclear ance
form at
f ar
ĠDep uty
ĠW I
nN et
Ġatt itudes
a ud
ĠBasket ball
Ġnutr itional
ĠF inding
uss els
Å Ł
Ġgram s
ĠRep lica
Ġdiscip les
Ġconsult ants
85 55
Ġremed ies
el ia
ĠHind u
Ġoccup ied
90 81
ĠL uxury
Ġjo ints
an im
Ġro d
Ġimp air
Ġc ath
Ġlack ing
85 44
à¥ ĩ
831 8161
uts ch
Ġoverwhel med
Ġintent ions
X S
ar re
f air
es pecially
Ġje ans
Ġcir cul
D H
r ide
Ġst ats
D isc
itt en
ur an
80 86
Ġche f
Ġtomat oes
83 64
Ġthick ness
Ġtouch ing
ĠDesign s
Ġdiscipl ines
Ġst arter
ind y
Ġcons iders
Ġriv al
R em
Ġcru el
Ġwarm th
nG roup
nCh ange
( +
D IT
Ġg ala
97 38
i otics
Ġ7 8
Ġrecy cled
R F
Ġw eld
lan k
ĠAl ice
ATION S
chest ra
c ount
en o
85 76
Ġt um
ĠD ipl
qu arter
âĢ¦ âĢĿ
Ġrandom ly
nF ast
m os
Ġglo ves
ĠE mma
84 14
ell ar
Ġout look
g b
Ġbrief ly
n ik
ĠPet ers
PL Y
ĠShop ify
Ġadvoc ates
et ically
Ġrecover ed
ĠC atalog
Ġcon vention
Ġment ally
ĠFam ilies
ĠTut orial
ic one
ĠForm s
Ġh rs
Ġgram mar
43 15
ĠScholar ship
Ġtun ed
86 44
Ġcool er
F ebruary
ĠTel evision
Ġp ork
ĠC it
ub le
Ġh unger
\" ;
Ġcommunic ating
ING S
Ġt ract
âĢ¢ \
ĠFre qu
Ġsubstant ially
Ġc ere
g el
m ount
________________ ________________
6 82
Ġp alm
98 88
81 53
Ġdess ert
nE r
Ġback ing
86 27
Ġcl uster
ĠN ebraska
DC D
j et
Ã£ o
ĠScient ific
nS ustain
Ġpro long
Ġo v
K B
nM iss
p orn
ĠWild life
13 65
an ut
ĠSen ator
ĠMet a
ĠF ut
Ġcorrespond ence
ully ing
Ġbub ble
Ġcuri osity
ĠF light
90 73
Ġwealth y
Ġrefug ees
ĠCON T
ĠNe ither
Ġende av
Ġcomm ands
Ġext ensions
ĠBusiness es
Ġf ond
80 15
ino ids
Ġfirm ly
be aut
Ġdon ated
6 88
dis ciplinary
80 35
Ġas leep
Ġcy l
nS ection
qu o
Ġconsolid ation
Ġvacc inated
nC r
nR ad
ĠM ist
Ġ 87
97 68
ĠFram ework
ĠF if
Ġgl oss
Ġfif ty
Ġsla ve
ĠD ial
81 46
ĠF ri
Ġbelong ing
ĠElect rical
Ġconsequ ence
Ġsem inar
ĠEx ample
ĠK an
Ġroll er
Ġtrick y
ĠRen ew
ĠA chie
86 35
Ġant ioxid
Ġdemonstr ates
ĠT weets
ĠD AM
Ġmac ro
erman ent
Ġrecommend s
DC E
Ġch olesterol
su ccess
ĠThe m
Ġacceler ate
ac f
f ollow
94 88
Ġbegin ner
th s
ĠSam uel
Ġb ases
Ġ= =
Ġgive away
nF ound
ut ions
ĠH TT
l ibrary
Ġenthus iasm
Ġjump ed
ĠE ither
Ġf are
ĠM T
96 71
ĠAnsw ers
f lo
ed ral
83 26
ĠWire less
h om
95 51
ĠHe aling
95 28
nSc ott
Ġa ug
l it
Ġear liest
Ġto bacco
Ġwa ited
onom ous
98 58
sh ould
vel ope
ear t
l ower
Ġmet er
b ce
ĠâĢĵ \
nAnd rew
re lla
ĠU pper
nP in
ett es
nM aking
Y ear
ag ain
ĠSo ccer
Ġ7 1
ĠH ide
97 18
ĠH onda
Ġvulner ability
Ġrend ered
nG ET
Ġconfig ured
85 45
Ġinev itable
ĠY e
ĠEm b
b order
ĠE at
Ġcl ue
nSt ore
Ġgu ilt
Ġbra ve
nM er
pro ved
nB enefits
ĠC anyon
ĠRat ings
80 75
v ic
990 4
921 4
ava Script
84 05
ĠFact ory
91 20
T ype
83 23
Ġmeant ime
ĠP enn
ĠAb u
Ġcount ies
Ġjo ins
Ġfail ures
ug gest
Ġkey word
Ġw ore
Ġ1 984
s ch
ĠR oth
nWill iam
Ġbelie ving
90 53
Ġacc redited
Ġug ly
c z
reh ensive
M IT
Ġfrust ration
Ġpart ly
Ġcompla in
Ð ³
o pp
ĠGr iff
ĠPro tocol
ĠW almart
Ġb ooth
ĠReplace ment
Ġc lay
86 45
nG ener
nL im
5 88
nStrict ly
ĠChe f
ĠW ash
ĠCap itol
Ġunf air
Ġg room
ain er
ĠRe ve
w rite
ĠHe avy
nB ra
Ġpo ems
ĠEnt repreneur
Ġto kens
bit ious
Ġc ialis
93 01
nN ice
ĠBu ilt
ĠFund ing
t imes
Ġnam ely
ĠSc ar
ĠMin or
Ġbes ide
ĠCa ro
Ġsan ctions
Ġpack s
81 56
la ke
ul er
85 66
Ġdef ence
W T
ĠBapt ist
av an
90 95
Ġdis charge
ĠLabor atory
ĠWatch es
ĠInvest ig
Ġro ulette
Ġun ions
ĠAccount s
90 96
Ġreason ing
in ology
ĠL iability
Ġfire s
Ġhyd rogen
ph ere
ĠL ate
Ġcon gress
Ġroof ing
Ġw ool
ĠEx cept
Ġencour agement
n bsp
ĠA wareness
nFil ter
ĠAl ert
Ġsil k
Ġmusic ian
ĠBuff alo
ĠN ancy
ĠSh ar
ctu ary
Ġlik elihood
ac d
ĠBe ijing
ne apolis
ard ed
ĠBe er
Ġd ot
cont rol
Ġab sent
ress ive
ĠRepresent atives
ĠBar celona
7 82
AN S
ev al
ĠM ast
8 935
ĠIns ider
Ġla mp
nPre v
ab f
97 48
89115 244
o j
ĠW arranty
ĠRel ief
ĠCh and
84 17
nRec ently
Ġpar liament
Ġrel ie
81 55
s an
85 46
96 41
ĠEv ans
b ca
84 76
ĠC rown
98 41
erm arket
Ġpla int
p c
89 93
Ġse ating
ĠGh ana
ĠB oo
83 25
er ick
86 17
Ġsu cc
Ġt ier
lan e
Ġpre ca
96 12
ff f
nI dent
Ġd rew
83 87
ĠG lad
L G
amb oo
Ġstat utory
921 2653
Ġ1 30
Ġbr ide
96 18
O ver
Ġg lance
ĠDoug las
ĠClaim s
Ġtoler ance
Ġd ip
ĠAnsw er
ĠNash ville
ĠCre ated
ict ure
83 06
Ġacc ent
Ġv ouch
W E
ĠP HP
96 31
nB it
nJo e
Ġchampion ship
inc inn
86 74
S ub
nN av
Ġl id
Ġsk etch
ĠRo le
nPre p
K P
op ard
Ġp ear
ĠE PA
es es
ĠRog er
ĠC ock
Ġorig ins
r il
ibl ings
nF ort
ĠS UV
Ġfree ze
Ġc urrencies
ĠM i
K M
Ġlength y
Ġadmin istered
O OD
Ġdist ress
Ġg um
ĠIN TER
f our
ĠR ivers
ĠRes idential
r ings
s pring
ĠIce land
Ġdr agon
ĠG OP
Ġdist ant
ĠCh ile
Ġtiss ues
nM c
nQu ality
ĠWH O
Z S
Ġg ardening
Ġsystem atic
Ġ[ ...]\
Ġwater proof
nS P
ĠCrit ical
84 66
Ġextra ction
ĠManufact urer
rim ination
ĠComple x
94 61
Ĥ ¹
Ġtroub les
sh aped
l ift
ĠRe wards
Ġtend ency
Ġinflu ential
Ġco zy
nD i
Ġfe ver
nLan guage
Ġsoci eties
Ġon ion
Ġhe ated
ĠEl ite
ĠRepresent ative
Ġbe verage
greg ation
ĠWhe el
Ġwitness ed
Ġf itted
Ġ1 985
g t
Ġd ignity
95 94704
iv ities
Un iversity
Ġc af
bb a
nTh ings
ric ia
ĠG P
Ġcollect s
ĠD al
ĠR y
nFR EE
Ġavoid ed
ig m
form s
co ck
w omen
just ice
get ic
86 05
Ġconsum ed
Ġkne es
h n
Ġcry st
ter ms
nPrim ary
ĠPl ug
m c
Ġmar itime
m obile
Ġund oubtedly
ĠMe asure
ĠE NG
87 57
nCan ada
nSu ccess
s ale
Ġrefund s
ĠBrazil ian
er d
Ġfort une
mun ication
Ġpursu it
L N
Ġs lo
Ġselect ions
80 33
85 64
ĠLar ry
Ġad orable
ang hai
pl ug
ĠMed icaid
m us
ĠL ect
ĠDiv orce
ĠHy per
Ġquick er
Ġmiss ions
ra ul
ĠB anks
Ġtra p
nIn cre
ĠEval uation
ĠP ermalink
Ġs ir
Ġwe ed
Ġc rap
84 27
890 9582
Ġapproach ed
ĠW arm
Ġceleb rity
ĠEmploy ees
Ġland ed
Ġfrust rated
ĠHope fully
ĠL ives
Ġimag ined
Ġtechn ically
nReg istered
ĠI A
Ġlog s
95 08
97 31
996 15
Ġmis use
84 36
Ġdel et
Ġdon ors
ad c
ĠWh ole
ol ition
996 4
ĠTra ffic
23 59
Ġt attoo
Ġposition ing
ĠCalcul ator
ĠOut look
ĠM AY
Ġres emb
Ġclar ify
ĠCont emporary
J H
nF ashion
Ġpat ri
ĠK az
Ï ħ
ĠW R
all et
Ġfil mm
ĠB ecome
84 56
sh irts
98 38
pt s
Ġloc als
87 13
AL E
Ġ5 01
gu ards
Ġdeploy ed
Ġmal ware
85 05
ĠN an
ĠThrough out
Ġenroll ment
J T
Ġfr ank
Ġspons ors
G oogle
ĠBroad way
94 48
Z D
01 21
nO pinion
Ġcal culation
Ġsecret ary
J G
ĠT win
86 34
Ġfinish es
ĠV a
nS ort
ps um
on z
go vernment
ov able
ĠSh ield
85 54
Ġjump ing
ĠF est
ĠSt ruct
Ġanalyst s
nB oard
83 44
ĠF o
Q T
98 51
Ġplan ted
Ġbreast feeding
t ry
ĠUnd erg
IT S
incinn ati
at omy
ĠHe av
op edia
Ġp iv
ĠF ight
Ġsqu ad
Ġopt ical
Ġp seud
ĠE DT
Ġbull et
ĠDom ain
83 56
nTra ining
nP lace
Ġter rific
nL earning
c ro
ĠF avorite
b ear
H igh
R NA
Ġlast s
Ġh umble
96 58
Ġw and
96 770
87 64
Ġsh y
Ġhand made
C EE
C DF
A f
te gr
F EC
ĠT ank
ĠProblem s
if iers
Ġin appropriate
996 5
art ments
nCare er
à¸ ķ
nEvery thing
Ġ 82
à¸ Ĺ
west ern
01 26
Ġmem orial
Ġclick s
ffic iency
ia o
Ġall ies
Ġpodcast s
ĠBlog ger
ba a
ĠSER VICE
R et
Ġ rivers
ecut ion
Ġfeed s
87 54
19 96
20 25
Ġindig en
oven ant
ĠD ictionary
Ġtutorial s
85 06
Ġrepro duce
Ġvalid ity
99 90
W F
Ġmod est
ìĿ´ íĬ¸
ar ently
ĠP y
Ġre ign
993 4
nO per
85 04
Ġ: :
ac b
pr ison
ĠE co
Ġ 92
Ġmerc y
Ġc it
C FD
ĠD inner
ot iation
Ġforg iveness
Ġport ions
Ġ1 25
Ġ1 40
86 79
84 23
ĠTreas ury
âĢĭ âĢĭ
Ġc inema
ĠN om
ĠAnal yst
ĠG ard
Ġrepro duction
Ġsu ck
991 4
Ġvol can
ĠART IC
ĠF ern
h aw
ĠV ermont
Ġbe ating
Ġster oid
$ \
h all
n å
Ġneed le
Ġcharacter ized
86 77
ĠAp ache
itch es
ro e
Ġint ra
Ġqu een
ark ing
Ġback s
em ia
97 71
au kee
Ġannoun ces
Ġs ou
ĠProgram ming
U ser
81 27
nCh apter
Ġred irect
ĠAud i
ĠRes olution
Ġtrad ed
Ġpure ly
Ġformat ting
ĠSustain ability
Ġped est
nF ax
Ġcompliment ary
ĠS low
96 78
Ġrot ation
Ġvill ages
âĸ ¼
ĠE agle
Cont act
93 40
Ġfoot print
Ġcabin ets
ĠShe et
t ops
ĠTre k
weg ian
Ġcos metic
Ġext ends
Q G
k u
k ar
Ġt umor
80 56
ilan throp
Ġ1 60
ĠPort uguese
ĠThe mes
84 35
87 21
uff icient
nIt em
ĠAny way
Ġkind a
Ġa ids
Ġadvis ors
Ġdisc our
ĠPhys ician
nT H
ĠW ear
or ah
995 7
ĠRom ance
Ġhel met
ĠO d
80 65
ag les
Ġt anks
ĠHar bor
11 36
Ġam ateur
Ġla p
Ġalleged ly
ĠK ash
Ġyear ly
Ġdefin itions
ĠFlow ers
A merica
bc d
Ø ´
N on
Ġdef ines
ap i
Ġfound ations
ĠTe en
top ics
ator ies
d etails
93 70
Ġam azon
ĠL O
duc er
ĠC ad
Ġout reach
Ġd amp
86 03
Ġgreen house
nL ight
N ote
86 10
ĠTra cking
7 88
85 75
c ards
ĠB oost
Ġwar nings
ĠP ine
ĠFriend ly
ib et
Ġless er
ud ent
83 05
R N
ĠM ask
nIndust ry
ĠC AD
Ġmar ry
nR en
81 22
Ġqu ilt
ĠF M
ĠEnt ry
re v
Ġev olve
ĠMur phy
nREL ATED
83 33
ex cept
Ġpos itively
ĠF ishing
nV irtual
Ġweb page
Ġequ ation
ĠIn cludes
Ġcons piracy
ribut ed
ĠCoord inator
Ġvine gar
83 15
Ġsent iment
ĠP O
Ġscript s
83 47
Q M
ĠN epal
Ġm es
Ġflu ctu
BS CR
Ġmat hematical
Ġp ale
Ġp ics
96 38
ĠCand id
Ġdis g
Ġpo et
Ġmem or
nB ob
ĠAdvis ors
FC E
Ġplan ting
Ġattend ees
nO ld
h l
Ġpred iction
keep er
83 75
Ġrespir atory
res istant
t ips
ĠInd ians
ĠP aving
Ġopp onents
and om
ĠM IN
ĠIm per
av el
Ġinst inct
ĠComm unities
ĠFore cast
ĠAr c
ĠM ort
ĠW id
act ly
ĠO t
ĠBang alore
an ical
Ġco h
b as
Ġpar ental
Ġpaper work
im on
Ġst ap
Ġpoor ly
bc f
Ġsc ra
ĠIdent ity
nB i
R B
ess a
ĠArab ic
per ature
ĠT esla
ac re
Ġdis pens
990 3
Ġus eless
Ġbra ke
bb f
Ġaff air
ĠðŁĺī \
20 26
Ġunch anged
CC F
lo e
Ġback pack
ĠB ishop
ĠAltern ative
ad vert
st airs
97 29
Ġ Ñģ
nOr iginally
ĠMatt ers
nN umber
est ation
ed it
Ġ1 920
ĠMin utes
Ġcomprom ised
dra wn
' )
ĠK ir
Ġfor cing
Ġlight ly
Ġcompet itions
Ġir res
Ġsun ny
ach ine
S elect
c opy
ĠB id
98 61
Ġdefend ant
Ġla zy
ac cept
ĠO racle
Ġath lete
Ġprogress ion
ĠR ug
ĠPay ments
87 34
ĠB MW
ĠF ried
80 66
Ġre imburs
Ġm ant
nC ross
bf d
86 54
Ġind ul
ĠRe ce
ĠInvest or
98 48
ĠInvest ing
nStat istics
Ġam bitious
Y V
oc o
ĠScript ure
Ġy a
86 21
ĠGo als
Ġpool s
Y M
AT ES
ĠEd it
ĠS ITE
86 96
IP S
90 93
ĠDam aged
F DE
85 23
S ort
Ġt ribute
Ġproject ed
nC OM
ans om
Ġrecip ients
Ġbit ter
Ġind o
920 4
M arket
Ġcr ust
---------------- ----------------
S ome
Ġtrust worthy
Ġrele asing
h ou
Ġalleg ations
ĠP ocket
Ġav atars
Ġtur key
Ġexpress ions
Ġinvestig ated
ĠAl most
end ant
ĠSh akespeare
ĠIll ust
Ġen er
FC D
ĠAutom otive
Ġcast ing
Ġindigen ous
ĠS QL
Ġaut umn
Ġinv iting
for cing
nB uild
ĠStan ley
ĠM oses
nPhot os
bb d
ĠPre view
I ED
Ġgo verning
Ġl ining
H ub
Ġ# >
ch t
Ġgar bage
Ġse aled
Ġidentif ies
Ġsubsidi ary
nK evin
Ġesc al
Ġconfident iality
ba e
om mod
Ġb ake
ĠTH R
Ġso cks
ĠW oo
ĠEd inburgh
Pr ice
kel ey
ĠH orn
.. ...
B usiness
Ġwash ed
Ġpro l
bb b
Ġupgr aded
ĠVe get
ĠDisc uss
nRet urns
Ġmetabol ism
Ġh arness
ST R
ĠY u
t ails
ĠFem ale
cl ip
84 11
ĠAl pha
lem en
ad min
c od
att ers
98 78
n how
ĠMount ains
84 37
ĠSo ci
nT er
Ġre loc
Ġconst itutional
Ġcom ics
ca f
e ce
Ġoptim ized
Ġdis par
Ġh ockey
eb a
il ateral
Ġcur ated
Ġcontribut es
o vers
h or
Ġent ers
ĠSup erv
J I
Ġshare holders
ĠK B
Ġst urdy
ock ing
Ġpot ato
c ules
ĠM ED
nu mber
be it
ĠC uba
Ġcont ra
ins ula
nF our
X M
ĠEx plain
ĠCan on
Î º
arant ine
nC ome
b la
ĠT ampa
Ġencry ption
ĠWood s
Ġmarg inal
Ġch rom
in ical
ĠF ear
ä º
al ph
Ġrid ers
Ġreported ly
93 50
ĠFort unately
93 60
nM anufact
ðĿ Ĳ
IC T
77 94
Ġcol umns
Ġarch ives
Ġadd ict
ĠEv olution
93 640
Ġall ocation
ĠComp uting
forget table
Ġin cons
at ible
nH y
ess or
aw are
ĠLoc ations
ĠN ar
la v
ad f
ment ioned
Ġshel ves
06 71
91 80
5 89
Ġcontem pl
Ġpre liminary
employ ed
sha w
927 6
98 68
Ġad jacent
Ġsid ew
Ġem erge
9925 931
Ġfla w
Ġas pir
ens ely
nAut o
ĠAss et
84 64
ĠSpot ify
am y
Ġl ithium
\" );
84 45
Ġincon ven
or p
995 3
Ġlaugh ing
nArch ive
ĠJ erry
S chool
C s
Ġy ang
87 43
ĠSat an
Ġswit ched
Ġch opped
ĠAnn ouncements
ĠGe org
umb ling
ĠH em
ĠN BC
year s
C BF
85 17
Ġdr ill
ĠRand om
Ġcreat ure
val ues
Ġneighborhood s
ah u
ĠFor ward
P lay
gar ia
ĠAm bass
94 08
ĠH oney
Ġ1 930
redit ation
Ġw iki
ĠW ol
ĠK ill
ĠM t
ï¿½ ï¿½
ĠN az
à¸ ª
ĠVin cent
3 89
81 45
Ġaw kward
Ġinv isible
ĠA GR
Y T
Ġdis allow
ĠAppoint ment
ĠC V
Ġun st
ipp ers
905 9536
ìĤ¬ ìĿ´íĬ¸
ĠDis covery
Ġcar p
87 04
Ġb ou
ag ne
86 47
ĠB S
Ġstr ings
Ġla v
Ġmis under
Ġinher ent
p it
K E
91 97
83 53
Ġher b
Ġbull etin
nDan iel
Ġbu cket
um per
ux e
ĠT ab
irgin ia
ear ly
le tt
Ġst icks
Ġincent ive
83 45
95 38
ĠL odge
ĠRich mond
ĠL ion
in stein
nM ac
ict ional
Ġhistor ically
un less
ĠM urray
pos ium
in is
Ġve gg
Ġm ud
we lling
ins urance
ĠGl en
ĠProv iders
le arn
Ġjud icial
Ġsl ower
Ġfl oral
Ġfor ty
Ġth ru
Ä į
ĠLe ather
ĠÃ Ĺ
Ġcatch ing
83 65
Ġregul ate
pro duction
ah l
nR ating
Ġenjoy ment
85 56
a ab
98557 08
Ġcopyright ed
yst er
l iness
Ġdiagn ose
84 04
ad b
Ġrec ruit
ĠBuild er
Ġin expensive
ĠCook ing
apan ese
Ġd rast
ĠBet ting
nE mer
Ġsc ent
Ġcous in
ĠL ORD
p res
al one
à ª
6 89
ĠS ierra
Ġhead lines
Ġdem ographic
Ġarriv ing
is i
ch ec
Ġerect ile
F DD
ĠDevelop er
un ks
ss on
Ġwrit ings
Ġcalcul ations
w aukee
c ision
pe g
nP ocket
nAd ministr
83 07
Ġpray ing
99 250
ĠAr men
Ġre ck
las gow
Ġma pping
ER N
Ġm amm
Ġstrong est
Ġp ipes
ĠC urrency
6 92
ĠPhot ographer
J B
95 18
Ġforg ive
nf rom
nF inal
ĠD uty
Ġprompt ed
ear th
educ ation
Ġassum ption
ĠRef und
f m
ĠSaf ari
ĠMad rid
ĠPOL ICY
Ġal igned
acc ount
Ġp umps
s ky
Ġv o
nG ift
row ing
Ġp ub
Ġpress ed
Ġf lee
ĠBen jamin
Ġiniti ated
ĠArt ists
ĠST EM
ĠCare ers
if iable
un ge
80 21
Ġr am
nUp date
la ces
83 66
ey er
Ġhoriz ontal
ĠH ood
he y
ĠJim my
Ġc ens
Ġc uisine
95 31
bf c
Ġwond ers
ĠJ ama
K N
84 39
Ġflow ing
Ġden ial
nI S
ĠCru z
OU ND
Ġteasp oon
19 97
st y
ĠAz ure
ĠR aw
Ġs ung
nS l
Ġcapt ain
ĠB oot
86 57
W B
a ee
ens en
à¸ ´
Ġimport ed
Q C
IR ECT
Ä ĥ
Ġdef ining
ĠEthiop ia
Ġad here
Ġfr ight
Ġreve aling
ĠIn fin
de al
âĢ ²
ĠT erry
in ers
p athy
nH ard
d ie
ine e
ĠCru ise
Ġl ined
Ġin ability
85 11
bo hyd
Ġdefe ated
D irect
Ġp ist
Ġpr one
nA w
Ġsurviv ors
lar ies
Ġconstra ints
47 36
Ġsum mit
Z G
f ashion
ĠDev ices
de a
nL isa
Ġnow adays
Ġlan e
Ġdes irable
Ġexc er
A b
ĠD oc
Ġgra vity
82 86
Ġcorrel ation
D FF
Ġn our
W elcome
Ġin aug
Ġm elt
Ġsens es
c ir
ĠJul ie
qu in
Ġtr illion
g ence
Ġassist ing
Ī ãĤĬ
ĠP T
ÃŃ a
nF eed
F orm
bd f
g ro
ĠReg ardless
Ġn ov
Ġcompat ibility
Ġdeclar ation
re ck
Ġpast or
96 88
Ġcer amic
ĠOper a
Ġl uggage
9444 1825
g lass
Ġ1 940
nA sh
I BE
ill i
Ġc ort
an as
J N
12 84
Ġlift ed
og s
IPP ING
m om
Ġrem arks
Ġprov es
sen al
ĠP icks
Ġsl im
ep r
ĠO dd
ener ation
Ġvoc abulary
886 5
Ġfix ing
U ND
Ġsimilar ly
! ,
Ġ 000
81 44
Ġwork outs
Ġwh isk
Ġ umb
ĠT alent
bd c
Ġ> >\
t ar
Ġobject ion
et own
ĠK in
nG uid
nC a
Ġcitizen ship
Ġmunicip al
ĠW ide
nUn less
) .","
Ġha cking
Ġchar itable
Ġd an
Ġrob ots
ĠTy ler
Ġrequest ing
87 95
Ġcou ch
ĠP urch
chec box
Ġun m
S ave
Ġillust rations
bc b
ĠB ak
Ġconst itution
ult ing
ĠSh aring
ern atural
Ġspecial ize
ĠSt u
87 67
ĠBook mark
Ġdry ing
inst agram
ĠFl ower
ĠG utter
ud er
Ġconvenient ly
Ġstr angers
aut o
ĠInst ant
Ġâ Ŀ¤
Ġd ots
ĠV ari
nTh ough
Ġdoct rine
Y G
Ġcrit ics
Ġst airs
Ġmand ate
85 85
11 16
Ġhard est
Ġm asters
ec oming
h um
Ġbat tles
nC rypto
ĠG ene
ER V
ĠMonitor ing
ĠV ine
ĠExt ension
Ġdam aging
Ġrecru iting
nQuest ions
IS A
Ġpost p
81 07
pher d
re x
80 93
887 98755
bf a
ĠS F
ĠPer ry
eng u
Ġbroker age
ce ans
im i
81 66
Ġter rain
nTog gle
Ġactiv ist
ĠColl ect
ĠM ills
io let
Ġdiscre et
Ġhead er
ĠAppl ied
Ġgam ers
/ -
Ġb urg
Ġfulf illing
E mail
pr ising
Ġhorm ones
84 54
Ġcent res
bf b
Ġposition ed
ĠGD P
ĠAltern atively
Ġoff shore
ĠSh oes
Com ment
Å Ĥ
ĠAutom ation
ĠIn clusion
Ġtrad itionally
Ġeat en
nH ouse
met ics
h ub
Ġro uter
? ","
c dd
Ġo ak
ĠVeh icles
u ity
Ġcomm issions
á ¿
ĠM L
ospher ic
Ġc urs
94 68
Ġf el
Ġplug ins
AN Y
ĠãĤ ĪãĤĬ
ĠSex ual
or ne
Ġexpect ation
nInvest ment
ĠM aur
h alf
Ġdos age
Ġb undle
ĠGu inea
) -
Ġcrit ically
cel et
84 20
ĠRes cue
ĠI oT
ĠB A
ĠMc Donald
Ġexp ose
80 17
Ġp ads
ĠSl ots
87 22
-- -
alg ia
Ġintern ship
g om
Ġc lo
nSoft ware
Ġshe er
am bers
Ġmed ian
Ðµ ÑĤ
Ġre cession
re views
L aw
Ġ Ñ
ĠMont real
ĠC ant
li ant
Ġg ly
Ġinstruct ors
nStr ateg
?? ?
T unes
Ġexp ired
ĠC odes
Â· Â·
ok en
ĠV el
Ġla m
Ġrhyth m
Q P
ĠMyst ery
nCom mon
Ġtun nel
t el
res ource
f an
nMess ages
Ġpill ow
ĠCh an
Ġinform al
Ġunder go
ĠSpe aking
84 21
ĠSub st
Ġcent ered
Ġlay ing
46 35
Ġcol onial
ON D
f eb
es ley
d aily
V H
Ġdiss em
n more
ĠM ilan
ĠW ang
amp oo
de u
ĠL aser
Ġrecre ational
Ġanim ated
ĠC AP
ĠDirect ions
Ġb uses
Ġinf ant
43 21
are tt
87 73
OR K
ick r
d ict
ĠT u
ĠC ord
i enced
Ġrecre ation
Ġfulf illed
f dd
Ġtechn ician
Ġ9 00
ĠH ire
n old
ul k
he a
m embers
Ġtrigger ed
ĠFun eral
ĠW alt
ĠLog o
ur ally
Ġmarket ers
ge bra
ĠOb viously
a af
Ġdisappe ared
Ġcap ac
Ġconv iction
qu ote
nExper ience
94 51
nChrist mas
Ġcoup led
nE qu
Ġcrypto currencies
ĠHistor ic
su pp
i u
Ġrel ies
84 77
94 28
ĠB ass
all ic
nM ap
Ġw aiver
ĠAl zheimer
822 9907
86 33
Ġl oos
op us
Ġover head
EA N
Ġ 89
Ġth ou
h art
ĠDi agn
85 22
op ens
Ġretain ed
ĠK ap
84 75
pr ints
Ã¡ n
nS ummary
93 28
Ġfre ed
83 34
K H
Ġcost ume
ĠPlan ts
ĠLeg acy
Ġinst itute
ĠRich ards
h omes
ĠFellow ship
7 89
Ġrenov ation
Ġadmin ister
ĠE SP
ĠDown town
Ġrehab ilitation
ĠLiver pool
nH on
Ġsoci o
Ġstory telling
v ice
nG allery
ĠR EG
cri bing
ĠPharm aceutical
Ġorgan ised
Z N
< #
Ġsimpl icity
í ķ
97 99
C EF
cy cl
ĠD EL
81 05
922 6
nM eta
Ġpa ired
95 71
Z T
95 48
nA ge
ĠAn xiety
nN or
Ġpre jud
Ġmet a
ĠGen esis
nCl imate
Ġeconom ies
ĠAm sterdam
ĠF ame
ĠGovern ance
nIm portant
ĠIN C
cle an
ĠKe ith
ĠC ases
Ġrevolution ary
IC H
ĠMod els
c ce
ĠK ra
Ġcollect ively
998 5
Ġproud ly
Ġres ide
Ġsp ice
nCl oud
97 88
K I
nTr ust
ĠU til
Ġph ases
V O
Ġb icycle
ĠShe ll
Ġrest riction
Ġext ending
f illed
Ġm useums
c us
9921 075
h ole
ĠB enn
ĠA WS
ch anges
ĠÎ ¼
as ino
Ġhonest y
nPer haps
ĠWalk ing
Ġdevast ating
ĠSk etch
Ġjack pot
r ank
ĠT ed
ĠM ack
ood les
ĠHon or
Ġsettings ACCEPT
R eply
86 11
IN ESS
ĠH udson
ĠInvest ors
op ing
86 22
nP L
Ġemb roider
nStart ing
ĠF C
bd b
927 7
nP o
ĠSav ings
Ġcat ast
ot er
Ġidentif ier
fa q
gi ar
ĠÐ ¸
y o
ĠWi Fi
ĠMarg aret
ĠPot ter
Ġga uge
ĠJeff erson
Ġd are
Ġpa use
81 03
Ġca ffe
882 9147
ik o
Ġinterview ed
Ġph osph
Ġcy bersecurity
89 20
ĠW ave
nM ade
Ġconcept ual
Ġun ity
88 96
nJ ournal
op ening
Ġpay roll
Ġste ering
vis or
ĠK irk
ĠFla g
95 58
n ex
met h
ĠNe il
On line
our g
à¤ ¿
Ġkick ed
997 4
Ġb apt
Ġso cially
Ġd iving
Ġlock s
Ġteach ings
on ge
Ġstr anger
Ġmir acle
á ĥ
Q H
Ġterror ism
im o
87 03
am per
ĠMo z
l iving
Ġexam ining
ob ic
ent on
Ġj Query
D ep
x t
ĠColumb us
Ġcred ibility
ĠSt ats
ĠOk ay
nC art
85 10
ĠLeg end
Ġ[âĢ¦] ","
k n
90 91
85 27
ĠAn cient
Ġc afe
à¸ Ķ
uc r
ott est
with out
nD ave
Ġd Ã©
ĠS ci
ĠOl iver
Ġf uels
ĠPre gn
Ġphotograph ers
obb ies
ĠB EST
âĺħâĺħ âĺħâĺħ
im ag
85 93
Ġearthqu ake
b ies
Ġv ag
Ġ$ ('
884 71
lan cers
nI T
Ġfree lance
Ġtro ubl
im ages
cell aneous
Q N
ash i
ĠSal v
nEng ine
- $
87 74
Ġconst itu
ĠCl osed
ĠConn ected
Ġdon or
le en
w al
lest on
Ġpump kin
ĠS iding
Ġendors ed
Ġtel ecom
à¹ Ħ
Ġnot ing
co h
Ġinf ect
e eb
ĠDem ocracy
y ll
Ġc ease
923 7
nCurrent ly
ĠDist ribution
85 47
ourn aments
ĠJohn ny
Ġble eding
ĠNav igation
Ġharm ony
ĠMer ch
upunct ure
ĠMir ror
anc ers
ĠK inedu
ĠConn ection
81 74
Ġsmart phones
ĠDiv ine
Ġtow el
Ġgl ue
Ġ7 9
Ġbill ions
cl ient
ĠCont est
ĠSh adow
Ġrele vance
ĠOtt awa
Ġmass es
was her
ĠBar ry
8852 866
Ġcongr at
81 84
Ġpro ph
ä¸ Ń
Ġgam eplay
Ġc ables
ind ers
ĠN ames
Ġtax i
Ġc ents
ĠV enezue
Ġsy rup
nK at
ĠN HS
ur pose
im ity
J F
81 54
Ġcock tail
Ġ20 30
ĠHell o
ex ico
ĠAsh ley
Ġanticip ate
Ġrefriger ator
ĠA uthors
Ġcoll aps
ĠPear l
ï¼ Į
her o
83 77
ows ki
Ġtast ing
ym es
95 09
ĠRoman ia
qu ery
chem ical
V B
ĠAct s
ĠCom fort
ade qu
ĠV intage
Ġfest ivals
Ð Ĥ
atur ated
ĠC otton
Ġtr agedy
19 95
Ġcal cium
Ġtre k
nB o
oh nson
Ġsh irts
Ġc av
L F
ĠRe fer
ĠO z
ĠDel iver
nE v
Ġdef ending
nD om
Ġsp ite
b be
Ġred ist
f cc
Ġbound ary
nB rian
Ġw oke
est ock
ĠR ica
94 71
Ġst umbled
Ġst rand
nRef und
om ens
Ġf isher
K O
ĠS SL
nPart ner
r als
Ġfraud ulent
co vers
C ard
ĠY am
Cl oud
ĠBl vd
21 03
Ġassess ing
f ight
oll ey
Ġassoci ates
ĠConsult ation
Ġwitness es
Ġgen ius
ĠIm plement
Ġimm unity
plan e
Ġsh aft
ri en
Ġnegoti ate
y cle
O k
nS ummer
Ġcard iovascular
Ġ= ==
ĠPharm acy
Ġp ussy
Ġlabel ed
Ġf atal
ĠZ en
Ġfif teen
Ġreal ise
n om
pan ic
ra iser
fort unate
Ġa ver
Ġb achelor
ĠAnim als
z b
Ġb iz
Ġw it
98 12
in as
ĠJul ia
Ġs oda
nF orgot
80 54
Ġmar vel
94 78
ĠAll ow
Ġattribut ed
ĠO pinion
ĠComp ensation
ĠProt ect
nT ur
f alse
nAss oci
Ġincom plete
J U
, ...\
Ġconst rued
ĠE t
duct ions
ec c
Ġoccup ation
Q I
ich igan
s ki
elect ric
V al
81 65
nP ut
Ġcontin ent
am azon
91 98
Ġquant itative
ĠA ld
Ġmount ing
Ġdr one
ĠC BS
Ġdisplay ing
Ġgra ve
Ġac ne
Ġir r
ec raft
Ġp anc
ĠBe hind
ĠC afe
nA udio
nc ont
ĠY ourself
Ġcommit ments
ĠRef lect
94 41
Ġrel ieve
int eg
ere k
Ġceleb rates
923 6
ĠTh read
Ġopen ly
: -
Ġillust rated
ĠSher iff
Ġqu il
Ġ1 979
ĠTO DAY
Ġsun set
ĠH aven
Ġworry ing
ĠSpirit ual
nC ourse
nFr ank
86 04
Ġdeb ts
b oth
ĠArt ificial
ĠA W
ĠRest oration
Ġfire place
\\ '
80 53
Ġorg ans
LL Y
ĠFin n
923 5
Ġallow ance
Ġassum es
Ġres ign
Ġconv icted
Ġli abilities
UL AR
ĠFire fox
F ollow
nL in
Q F
Z M
d at
v ine
Ġd angers
nBeaut iful
Ġhom os
Ġcred ited
Ġcor rupt
ir ical
Ġchair man
ĠOut side
! ).
h el
Ġc ough
ock s
Ġk in
St art
ĠM ong
ĠTrans formation
84 94
Ġsp o
AC H
ĠCreat ing
ut ation
ĠPort folio
b fe
80 11
C FB
su its
ĠAdvent ures
81 64
80 74
ĠHy brid
ai ro
edu ct
Ġemp athy
nT R
co al
87 83
ĠE TF
raul ic
ĠJ uan
B ox
Ġsh orts
Ġbo om
ĠPur pose
nAdd itionally
it an
Ġcontext s
Ġtyp ing
J A
ea u
Ġex otic
Ġun forgettable
Ġgrand father
ĠLevel s
à §
Ġproblem atic
89 94
p ractice
ĠDemocr at
nI ts
ĠF oes
OU NT
ĠL unch
93640 834
ind u
Ġel eph
ĠNe ck
develop ment
b af
ĠTh rive
Ġrecogn ised
ĠLe af
ĠL ith
ba lan
23 75
Ġunus ed
osh op
19 94
Ġcom merce
fol k
86 86
Ġbo asts
nL ess
ul ously
Ġview er
ch ure
97 92
ĠCro atia
Ġsmall est
Ġliber ty
ĠN M
iss ue
Ġg inger
Ġtr an
ix on
Ġinspect or
nAr ts
d ream
85 03
nP resident
Ġpost al
Ġins ects
Ġnation ally
95 88
cont ract
od i
ar as
ĠC ult
ĠW atson
Ġrel uct
Ġline up
ĠDam age
926 6
ry s
ĠG ummies
Ġpay able
ĠR io
ĠBill y
med ium
ĠForm ula
Ġt sp
ĠChem ical
Ġcris p
w ild
81 34
Ġhead phones
cd c
Ġro ses
nAct ive
iling ual
, '
ĠAr ctic
er ie
Ġcon form
ĠN uclear
ĠC arn
Ġre lying
ĠPalest inian
IGH TS
ĠC arr
erg arten
Ġr anch
Ġsw ingers
83 21
n one
ĠF err
Ġhe ater
nTe chnical
Ġacqu iring
Ġdr unk
Ġk ay
15 04
ĠÐ ½
alth ough
Ġelim inating
Ġfeas ible
ber y
Ġm ate
Ġtherap ies
cer ely
ĠHung ary
Ġd well
nT V
Ġrenew ed
Ġe Bay
ĠE C
ðŁ Ĵ
Q D
ĠSimilar ly
Ġ1 983
W ill
OLL OW
G reat
93 51
IT ION
ĠSu z
ĠEditor ial
80 47
Ġhabit at
Ġrest art
Ġbe ast
ĠF uel
c ultural
998 4
ĠV s
Ġadjust ing
80 22
925 5
ot yp
Ġener getic
ĠIntegr ation
Ġs iblings
91 60
Ġt ales
94 58
Ġcompr ised
Ġf ost
Ġ4 01
":" âĢľ
Ġgu ards
ĠIm agine
Ġfulfill ment
ĠW ag
grow ing
Ġnom inated
na ire
Ġfore most
26 76
ĠWell s
Ġad ul
Ġact ed
atch es
Ġc akes
focus ed
Ġmil estone
ĠO scar
Ġkiss es
ĠJ eh
j ar
sm art
ĠN GO
Ġpro xy
à¥ Ģ
Ġcle aring
ĠColomb ia
ple x
ĠO pp
ĠL av
Ġle tt
Ġpar cel
= %
ĠCra ck
CLA IM
Ġb ail
85 86
f ont
nL iving
Ġbench mark
Ġclin ics
Ġsamp ling
com b
nG ender
80 67
Ġse as
cl er
R H
publ ished
Ġdiam onds
Ġrel ied
AT CH
nL ength
nD ev
ĠAnn ounces
Ġpersonal ize
Ġancest ors
ĠK al
b iz
ĠV I
ĠRe form
ĠS ample
np osted
. ).
ĠM IT
nW riting
ĠB ud
88471 234
90 98
ĠSh ah
Ġhoriz on
X N
ĠManufact urers
Ġne ur
ram ento
96770 25
nM ad
Ġmis leading
ĠRelation ships
br ush
y ahoo
924 6
COP Y
ĠD ro
Ġball ot
ĠOper ating
ĠChe ese
ĠAr bit
a iah
n for
d cc
ĠF u
ĠInst ru
94 39
Ġex em
ĠH ER
n sh
ĠPow der
V U
Ġbe es
Ġit er
Ġharm on
Ġprofessional ism
Ġbath rooms
Ġinfring ement
ĠForm er
995 0318
81 04
ĠB orn
Ġinv ites
Ġdemon stration
ĠHarr ison
CL UD
ĠAppro ach
91 28
99 920
âĹ ı
phabet ically
Ġde er
c ff
nC ulture
Ġtouch es
ĠPrincip les
te chn
Ġimag ery
k ids
Ġar ena
ĠAdministr ator
.âĢĿ ","
Ġbas eline
Z H
Ġsusp icious
94 01
ĠHel en
Ġexpect s
ard i
ĠG oth
el iness
ĠLaur en
8181 251
Ġhighlight ing
ĠRout e
ĠP ST
ĠV ir
nMe anwhile
ĠK ick
Ġinter pre
Ġtra pped
100 3
ĠParent ing
Ġst rap
ĠDem and
Ġjurisd ictions
ĠA way
ĠE R
ĠWork place
ĠEm irates
Ġcoll ar
ĠOff ic
ĠProv ide
p n
ĠEV ERY
ĠCoal ition
Ġsl ice
ĠIncre ase
ĠL amb
ĠHeav ily
ĠInter active
Ġdistingu ished
it ored
l if
nS tock
76 75
991 0
83 57
âĨ Ĵ
rim p
ĠN in
ic ia
Ġmin ors
ĠTurn er
ĠP UR
ĠChalleng es
nB on
Ġgen res
um bs
ĠCal gary
c ents
A bout
ĠV ent
nS U
ĠM old
7 92
Ġ ÙĪ
Ġsub po
Ġst adium
ĠInter esting
84 34
921 6
nA gain
Ġf ame
nJ ennifer
ĠK i
Ġd read
f ce
85 77
X G
Ġsom etime
Ġfavor able
94 38
nEp isode
ific ant
ĠB enefit
84 03
ĠWal ter
ĠI BM
icop ter
86 30
Ġserv ant
nF oot
nCl ient
ĠCON S
Ġpre dom
Ġs nu
ĠC SS
Ġdev il
Ġver bal
ov ah
Ġpassword s
it ives
ĠM ine
Ġang els
Ġk not
Ġindirect ly
Ġdef am
ĠSupp lies
S ign
Ġun clear
Ġh eter
ies el
ĠGraph ic
Q B
T oday
84 74
76 95
ĠSt ainless
Ġqu arters
ĠCom ics
ĠDi abetes
F ind
Ġdef ective
Ġb ible
O pen
Ġaff ection
ĠEv idence
Ġob esity
e o
ĠComp are
M edia
f ill
Ġf et
IK E
in cip
ĠChild hood
ab we
Ġdismiss ed
Ġ null
Ġdom inated
el ed
00 33
ach i
Ġapp les
market ing
Ġrent als
s em
Ġb urea
Ġfarm er
Ġ< #
56 87
ch urch
ad ult
Ġdecor ative
ĠW ed
nH el
Ġmark ers
Ġstrength ening
pos al
ĠIran ian
Ġcand le
85 74
ĠTra iler
Ġtomat o
85 87
gener ation
ĠRec ently
r ina
Ġinher it
ĠC I
ĠHigh lights
EL P
spa Ã±ol
Ġend orse
nLead ership
Ġcorrect ed
Ġre ver
Ġlif elong
Ġp ec
Ġpar as
ill ery
/ .\
ĠR ise
Ġobsc ene
Ġ1 05
Ġb arn
our neys
Ġcast le
irst y
r ug
ĠPr ide
98 39
98 02
Ġeffic acy
ĠM unicip
Ġlaugh ed
ĠModer ately
ĠNAT O
ĠBer keley
921 5
ad os
Ġg i
Ġ1 982
ĠPos itive
Ð ±
Ġintro ductory
ey e
c orn
Ġe lastic
fin ancial
90 97
E nd
ĠB BQ
reci ation
r r
Ġdec ay
ĠHuman ities
Ġanal og
Ġf ights
Ġro pe
Ġscholar ships
nMonth ly
en es
ĠH unting
Ġcrowd s
ĠC atal
85 21
ĠLe o
ĠA A
83 04
nS ch
nW ar
Ã¡ s
Ġd ense
ĠRe ason
osp ace
nP resent
Ġcheap est
Ġc attle
ne e
com a
Ġexclus ion
Ġquiet ly
imb abwe
nLog ged
V ol
Ġun available
ĠR S
OW ER
Ġdial og
Ġup side
post s
s ection
ett ings
ĠAdd ed
Ġmic rowave
T alk
ĠF unctional
Ġspe lling
Ġquarter ly
nIn ternet
ĠJ os
Ġcontrovers y
à¸ ¢
l v
96 42
w ait
95 49
Ġexpress ing
X H
V F
yl um
eb b
ĠOlymp ics
nM icrosoft
Ġreport ers
d ff
Ġwe ights
vent ure
ĠK yle
Ġsw ift
nS at
m or
nAnsw er
Ġb idding
Ġp c
est ly
prof its
ĠBr ig
ĠR ush
gom ery
Y I
ĠL iz
ĠG ates
p odcast
ç ļ
ĠSt ick
Ġsh red
ĠEd wards
nF ive
ĠHe y
ĠInd ependence
ĠB oss
nRead ing
ĠD ys
Ġal umni
ĠSpons or
ĠCl othing
ĠCre ation
ĠAdd iction
m itt
Ġ{{ #
ee e
e fficient
st reet
Ġfair y
926 5
im an
ri bs
Ġassemb led
ĠWH AT
ĠK o
ĠL OL
ĠLight ly
Ġsculpt ure
Ġsubsidi aries
Ġn odes
ĠE ating
91 206
Ġceleb rities
Ġphys i
p ic
inc ere
cre ate
85 33
nT ell
Ġrespond ents
M ail
ĠW iki
Ġdes cend
Ġsus cept
U O
Ġto x
b ull
Ġf og
ott a
ug a
nF un
L ike
doc s
s ens
nP rior
nBel ow
p rivate
Ġm ala
en za
ĠIns pect
Ġmole cules
ä ½
M at
ĠDr ag
86 67
cu ador
ent i
f df
ĠMot ion
Ġsc ales
ĠI gn
al ter
Ġdro ught
Ġch im
_ \
Ġbelie vers
ĠC rew
ĠJam ie
Ġfro st
nO K
Ġsw ap
Pe ople
Ġc el
u las
Z P
99 947
ri zz
81 67
th ree
ĠA DV
w en
: ","
Ġlandsc apes
f arm
be fore
nM em
Ġv ague
F in
ĠS it
Ġdecent ral
C FE
ĠS ounds
Ġ \
84 33
leg al
28 24
Ġenc ounters
ren e
m ass
ĠUn limited
ĠP ete
Ġsens ation
ĠCraft s
L ove
ĠN umbers
Ġpres ervation
Â® \
quis itions
995 77
stud y
Ġbe verages
Ġbless ings
c df
ĠOr d
Ġun con
Ġas h
83 54
ĠS OL
Ġappe als
ĠB irmingham
ĠSud an
a ae
Ġn ap
ĠAGR EE
T ON
ci er
ĠApp lic
Ġcomp liant
ĠTrad er
ĠSlo ven
nGo vernment
stand ard
Ġh ila
Ġc innamon
e ef
13 55
ater nity
ĠMan age
down s
ĠM aker
ĠI C
Ġint act
c lock
Ġatt ribute
×Ļ ×
ny our
Ġexplo it
Ġadvance ment
ĠPro of
C OVID
ĠCamer on
ull ivan
Ġrede em
20 44
998 2
Ġadm ire
div ision
920 5
ĠInter views
Ġelim inated
8 986
ak y
Ġbrid ges
Ġsal mon
ba lance
ĠT iger
ĠMin neapolis
ĠEnh ancement
ew ay
à °
Ġmob il
Ġformer ly
Ġd ull
80 83
sequ ently
98 821
Ġpol ish
ĠAv iation
Ġcoll ision
X C
Ġdatas et
d cf
ĠP ull
to k
ĠT ap
Ġreflect ing
ros is
Ġpost ers
not es
ic her
pr im
am ar
85 34
Ġdis ruption
Ġfree zer
Ġl ingu
Ġtim eless
ĠR uth
we bsite
ĠL ip
Ġenthusi astic
nEar ly
84 22
UTH OR
82 96
riv ed
tra ining
d oll
ades h
craft ed
lar us
ody nam
ĠHear ing
ç Ķ
co ins
pred ict
nAl tern
f ef
87 94
ĠWater proof
ĠÄ ĳ
F riend
ph is
Ġ20 25
ĠB order
Ġexplan ations
ur as
rist ol
play ing
Ġla kes
ĠDaw son
K F
nPart icip
Ġf ried
Ġval uation
ĠF ruit
ograph s
ĠS ah
Ġround ed
ĠAn a
Ġbr ass
ĠCh ip
Ġintrig uing
922 5
ort ium
995 1
Ġvers es
Ġcomp ression
Ġrh etor
Ġun belie
nSt ar
ĠW ait
Ġp s
us c
nIn sp
Ġer up
917 22
ĠCounsel ing
85 823
923 3
Ġall ev
fil m
Ġe go
Ġdist ancing
ĠB rowse
it as
ĠE S
H elp
an alysis
Ġcontribut ors
Ġv ivid
Ġam ple
ĠSh aw
nPro cess
role um
Ġtr ump
o fficial
an mar
ĠKat ie
ĠM ead
00 14
ĠE dd
Ġfat ty
81 63
Ġpret end
86 73
U AL
esth es
30 37
r ag
Ġcan ada
Ġsm iling
ĠNov a
Ġart if
EA K
ĠRes pond
Ġcolle ague
k ed
ur ry
L H
less ness
char ged
Ġpo le
ĠBre ast
im portant
f cf
ĠS AP
ĠN intendo
Ġguid ing
Ġang les
Ġc ache
88421 89
Ġbe am
ĠB read
b de
nC ra
ĠB inary
w heel
ĠF IR
do es
ĠM UST
ar ians
85 83
ĠC able
Ġmar ch
21 65
Ġdry er
ĠC E
67 05
Ġc ategor
Ġprovin cial
Ġhe y
um en
Ġch irop
Ġun fortunate
Ġqu iz
ĠGr an
m ala
Ġrefer enced
ĠLyn n
Ġbe ats
94643 14
ĠM ull
Ġinterf ere
ĠFIN RA
ĠM AR
b olic
920 6
our ing
927 5
Ġn ode
ress ing
Ġd ementia
Ġ1 981
96 02
nC ourt
iv ation
Ġmor ph
ĠW ere
ĠUn its
nUp coming
ĠM ak
Y D
ott le
ĠP att
ĠCreat or
Ġimp lant
Ġyoung est
Ġt ones
ĠProt est
ĠMil k
ĠDe aler
...\ "
ì §
e ast
d rive
ĠFil ip
nS old
ĠL ength
nSpe aking
es ium
Ġaband on
ĠMot ors
ĠEgypt ian
ot land
Ġsever ely
nPro b
Ġtrans plant
Ġpatch es
ish ers
bo at
88 95
Ġinvent ed
ĠOrgan izations
Ġ1 978
ll o
x it
ĠCh i
Ġrel iance
ĠS aw
Ġrec urring
Ġhypoth esis
iner ary
gu y
Ġundert ake
A v
Ġharm less
Ġnegl igence
Ġequ ip
Ġseason ed
non ce
l os
ys ics
ĠPlace ment
f est
L ED
inc eton
um at
ĠL iquid
ĠT ig
Ġinterpret ed
20 42
nGe orge
ĠG ET
84 84
93 58
Ġpath ways
Ġdelight ful
Ġe cho
ĠConvers ation
Ġse iz
93 48
O s
af il
Ġped iatric
t ension
ĠTh under
Ġsevent h
ĠY ang
Ã ¸
Z A
ĠAm anda
Ġcaffe ine
ĠPer u
80 77
R ed
nSt ory
92 90
ell ed
el in
Ġ il
ĠF oster
ĠLeban on
ĠR ide
ĠH ook
Ġdiscont in
nC ould
Ġtri umph
p g
Ġaccommod ations
ĠEv il
Ġaim ing
Ġhuman itarian
ir ie
ĠU C
87 63
Ġpropag anda
Ú ©
Ġhe els
ĠW aters
ĠHur ricane
Ġenvironment ally
ĠF ont
p ine
nT urn
nN atural
Ġsyn chron
Ġsho ppers
Ġadvert ised
im ental
Ġrecogn izes
Ġmed ieval
olk ata
ol in
ĠN athan
al ine
ĠC atherine
ids on
ĠÂ· \
d ead
nB ath
S im
Ġdoub ts
Ġappl iance
Ġle ap
27 32
Ġca ut
W U
ĠX L
Ġvis ually
amb ia
ari us
P ER
Ġsold ier
Ġbra ins
Ġstick ing
c ending
z ania
ĠEn forcement
94 31
Ġimm ense
27 73
01 25
Ġav iation
ĠSh ore
mod ern
Ġâ Ļ
log ged
Ġ1 972
av erse
Ch ild
Ġallerg ies
Ġpath way
J O
83 52
pan ish
% )\
22 76
Ġf oll
88 87
ik er
Ġint ric
ĠPark ing
Ġon ions
Ġcannab inoids
Ġine quality
est inal
925 272
Ġimp lants
Ġdecor ated
nA my
à¸ §
ĠS id
ĠD ining
? !\
Ġcrush ed
Ġhum idity
84 85
Ġspot light
ĠN PR
Ġhom epage
nE ric
Ġl ounge
Ġp ix
Ġinstall ations
Ġvol atility
S ervice
Ø§ ÙĨ
27 27
93 31
ĠOper ation
ĠCh ennai
hold ing
Ġexcept ionally
Ġencl osed
ar se
83 83
Ġl oses
Ġinstrument al
Ġch erry
Ġexhib itions
mb H
Ġinv ention
Ġcomfort ably
96 894
ĠPl ate
ĠSt ructure
G reen
IN S
86 00
ĠPrint ing
ĠU ber
ĠC inema
W atch
Ġbl own
Ġmid night
nStud y
Ġtoler ate
Ġcom ed
and ing
885 5
d imensional
Ġc ram
nMod el
k k
heart ed
Ġillness es
Ġ1 976
ĠJ ake
nAn t
Ġ ul
ĠHard ware
ĠCommon wealth
ca a
Ġconfig ure
ĠK umar
nEvery one
ould er
Ġim pe
atter ing
Ġm int
Ġcircumst ance
ĠFil ms
80 85
nP ricing
Ġinacc urate
996 17
oc aly
ĠSouth west
Ġnons ense
Ġstri ps
81 57
ĠDom estic
ĠT all
å ¤
en ic
ĠJ S
Ġsh aping
23 76
ry er
84 95
m d
ĠW ife
Ġcoord inate
d ee
ĠL anc
ĠHTT P
rais al
ĠUg anda
Ġwh oles
ĠProv ince
st aff
884 6
Ġqual ification
Ġplay ground
ĠKiss es
Ġcontribut or
Ġapolog ize
88 94
ĠBl ues
Ġtrad er
Ġcivil ization
Ġap ost
Ġec ological
ro ts
Ġm all
Ġmon itors
Ġex clude
ĠDif ference
ĠI psum
nG rand
95 12
âĺħ \
at able
Com p
Ġpremium s
ĠS IM
996 3
Ġabsor ption
Ġiniti ate
A ny
ĠK rish
ĠP retty
it ic
ĠC AT
US INESS
Ġye ast
Ġdiss ertation
med ical
Ġreject ion
ĠS eg
ĠTo ys
ĠFac ility
u u
- %
m em
Ġgad gets
uc p
BSCR IBE
ad itional
11 11
ect ively
b ike
Ġar thritis
Ġi Tunes
87 00
Ġre productive
Wh ile
nU SA
ri ka
Ġignor ance
8338 9926
coh olic
Ġun n
Ġrest ra
ett le
ĠSub mit
Ġband width
ro ot
02 20
83 85
nE ast
nTra ck
90 60
Ġcheck box
Ġc ite
Ġsec uring
Ġscr ut
Ġgra bbed
Ġro ster
nS afety
Ġ= >
g ages
ĠMarket place
nRe ferences
Ġbl u
ap a
Ġa ka
nPodcast s
end ra
Ġwarm er
T ax
ec f
Ġappear ances
ĠPrincip al
81 85
93 88
Ġve ctor
nA R
lo ys
Ġsens ible
çļ Ħ
23 36
ĠSw imming
â ŃĲ
ĠS ched
Re quired
b ai
Ġfemin ine
29 22
ce a
ĠP andemic
arch ives
Ad vanced
ĠOak land
atic an
ĠPR O
81 86
Ġhas ht
87 53
ĠB in
nL ondon
nRet ail
ĠK ell
ĠB elt
s r
ĠCo le
ar ious
UB L
nPubl ications
Ġgovernment al
ĠQue bec
Ġanaly se
Ġo we
14 32
Ġen velope
nG ame
nG l
Ġdead lines
Ġsm iled
Ġm uff
ĠCost s
Ġext ensively
Ġrefund ed
nQuant ity
86 94
Ġo xid
ol or
ĠStand ing
ĠD ow
ĠReb ecca
Ġper t
ĠSh anghai
ãĥ ¼
b idden
nApp lication
Ġanch or
Ġgener ates
em ale
91 09
ĠL ines
ĠAtt ack
Ġattack ing
Ġemail ed
Ġhead ache
Q A
ĠT ot
nM ORE
ĠCol ors
ĠR an
ar l
957 55
L U
um ers
nM a
Ġrun ner
ĠHor ror
ĠK os
ĠB OOK
e la
res ults
ĠG mbH
ĠSc out
ÂĢÂ Ļ
Ġge ographic
P ORT
uro ra
93 68
im eter
Ġinter val
EE K
ĠG it
Ġsp otted
nInd ividual
Ġr ises
nCom plete
ĠChe v
ĠN Z
ĠTr inity
Ġan onym
Ġadv ancing
Ġsurpr ises
ĠWorld wide
ĠG ad
Ġl ymph
86 53
Ġâ ĺħ
ĠG T
ĠK S
act ivity
Ġsubs id
Ġaccident ally
ĠJer emy
Ġw eddings
nF a
Ġdeliver ies
ĠRog ers
ĠClean ers
Ġconcent rated
el ection
it ably
Ġinst agram
nIn tegr
Ġcare d
Ġbeat en
Ġs i
erm on
th ood
ĠT ol
00 01
Ġargu ing
ì ł
Ġw ishing
Ġauthentic ity
S ource
Ġre use
UR ES
ĠK il
Ġspin ning
Ġ1 969
ĠF unction
ĠDem on
93 18
Ġje alous
Ġfla me
Ġfle w
Ġover ly
Ġsever ity
91 58
Ġcar b
Ġsex uality
Ġirre le
Ġrisk y
g rand
st ones
Ġliquid ity
ĠT elegram
91 50
ĠB urg
ĠDes ert
Ġsp ices
825 4
nW ood
ĠVe gan
ĠTh ing
Ġrep ository
Ġemp ire
nEmp loyment
h en
Ġfundament als
19 98
ĠProb ably
Ġterrit ories
c ounter
997 3
Ġrespect s
Ġst ains
ĠOptim ization
nSt atus
Ġdown s
miss ible
Ġinsight ful
83 03
Ġg al
15 16
Ġfac ets
th al
ĠUn s
Ġgift ed
Ġpriv ately
nTh ink
Ġyield s
Ġwel comes
ĠGrow ing
Ġst ove
Ġmit igate
ĠPast or
Ġtr agic
âĤ¬ Â
Ġs plash
ĠPort able
Ġbreak through
Ġship ments
s ma
fa ith
m ile
our met
ĠTh reat
Ġ1 975
Ġimag in
nIn gredients
yl on
Ġins ane
r ice
ĠC incinnati
ĠH emp
Ġfut ures
926 3
Wh ere
Ġglim pse
Ġru in
Ġabs urd
nWH AT
ĠP and
o qu
Ø§ Ø±
8 945
Ġhook up
87 10
. (
90 40
Ġcomm ence
Ġtaxpay er
nInst ead
ĠLoc ated
S te
Ġdef icit
Ġbrut al
nM ass
Ġout fits
ĠSu ff
Ġsp ends
Ġten ants
der abad
Ġcompr ises
Ġteen ager
B oard
ĠSpect rum
ĠA SS
Ġblack jack
83 73
Ġbudget s
Ġresid ency
93 41
Ġincorpor ating
m ult
Ġtr ay
itch ens
fac ing
Ġadvert ise
ĠCh elsea
f at
ĠA F
nH OW
Ġbre eding
Ġinstall er
Ġh ats
nAn nual
Ġexerc ising
( /
80 84
sp an
ner g
ĠFra ud
ĠAd ults
ĠC P
ĠA uthent
ĠInstruct ions
Ġim prison
nAny way
ĠHe ight
M ac
Ġan ten
ĠN ortheast
923 4
agn etic
b ucks
ĠInvest ments
P acific
Ġw asted
ĠC iv
is ive
Ġl ively
group s
Ġbe e
Ġdiscount ed
83 67
Ġrad ar
Ġdeter ior
ĠAss isted
Ġinval uable
m illion
Ġmay or
par ation
Ġcont ing
us ions
Ġdies el
Ġmon itored
ĠDa wn
ĠE y
ĠRap ids
Ġglor ious
Ġw ipe
Ġt roll
ĠNor wegian
ĠHe ather
ime o
Ġimp ose
k ok
ĠSp ark
ĠT s
Ġto e
10 47
15 00
Ġtransform ing
Ġflood ing
93 71
ĠRom ans
ig ibility
ĠMar x
ĠSt amp
97 79
Ã§ ais
ĠM C
s ecurity
emb ourg
S ITE
Ġw anna
Ġfacilit ates
Ġt an
Ġex ports
ans on
08 00
v id
nInt ro
Ġs na
ĠAff ordable
91 31
Ġmat rix
Ġl b
ĠD ennis
ET S
Ġexplos ion
amp ire
Ġworth while
ĠB AS
ug ar
k ill
Ġut ilities
ĠProm otion
c ology
25 66
Ġcompassion ate
Ġemphas ize
EAR CH
nMod ern
87 38
OW N
87 96
ĠE lder
ĠTax es
lamm atory
Ġmail box
82 84
ĠP oss
ce f
ĠV M
Ġpres erved
ĠHoll and
nF inding
Ġs ore
Ġfl ush
ĠS ara
Ġmet ric
91 70
Ġout dated
ĠCh ampions
Ġat he
ĠS aints
Ġward robe
ĠParticip ants
ĠVal ues
Ġteen agers
90 80
head s
d p
m ac
Ġten ant
Ġcounsel or
Ġin adequ
ĠSug gest
Ġment ions
f to
ĠW u
Ġphilosoph ical
Ġste pping
ĠGet ty
ĠP osition
Ġf ing
ce c
Ġstat ute
Ġill eg
ĠCy prus
Ġl od
Ġst ip
an ic
enc ers
Ġbalan cing
ĠFI FA
ed ay
Ġn asty
16 36
ĠNic ole
ĠP ets
ĠAnd re
26 75
nRe ceive
ãģ ®
nTop ic
ĠAdministr ative
Ġwilling ness
K ey
g eneral
998 45
nH as
Ġconvin cing
Ġa ston
85 00
Ġmom s
M AN
f u
Ġprofess ors
r ication
ĠÐ ¾
nUnder standing
ef in
91 48
ĠMalt a
Ġsur pass
997 0671
s uper
nSus an
ten ess
ham mad
Ġsun shine
Ġall iance
ĠH ands
ĠPur ple
Ġ1 971
Ġcr unch
Ġhell o
Ġsp y
OR N
ĠBrand on
95 02
âĢĿ :
Ġacc us
Ġro ws
EAR N
Ġun common
ĠBlog ging
om p
Ġp H
Ġexhaust ed
ĠSP EC
B ar
Ġslee ve
Ġteen age
Ġemail ing
85 67
nK en
ri ages
roph y
Ġreal izing
ĠColl ective
Ġsystem ic
appro ved
ĠS eb
ou df
nSh opping
cient ific
ĠT ile
MA IL
Z F
Ġnew born
X F
Ġin coming
ĠS OC
Ġnav igating
ĠLog istics
ĠDent istry
Ġpot ent
m t
ĠL ed
Ġa pt
ĠBern ard
b ling
Ġ url
20 84
n my
ak u
86 95
ĠJ ill
coll ection
nov ation
nW ashington
et ting
ĠC ob
is le
l iter
Ġw icked
ĠT OP
ĠPre vent
Ġelab orate
Ġenh ances
ver ter
oo ses
nLink edin
Ġne ural
Ġinter mediate
ĠInsp iration
Ġpol ite
Ġcart oon
Ġdil igence
8 906
nPubl ication
Ġa fore
Ġs ights
ĠJeh ovah
Ġev angel
ĠFr ame
wp nonce
ĠE yes
97 42
ĠSc ale
So cial
AN C
924 5
98 09
Ġprison ers
13 36
Ġur ine
O b
d ab
à¸ Ħ
Spe cial
25 26
we i
nOr iginal
nS ingle
it ated
01 24
13 35
8 964
/ .
à¹ ĩ
b ags
avor ites
Ġbet ray
Ġadd itions
ili ans
Ġsyn c
23 12
olog ic
ĠEx clusive
81 43
Ġrock et
ĠDream s
Ġw ast
C ons
nAl ready
ĠSto cks
nRead y
nCL OSE
Å ĵ
Ġind emn
nR ev
iss an
âĢ¦ âĢĿ\
95 833
aff e
Ä ĩ
ĠK le
Ġsla ves
Ġgrant ing
ĠBroad cast
udd y
Ġlon ely
80 50
T ED
14 76
80 63
Ġper ceive
Ġch ase
nA uthors
yn c
nF ile
pl atform
Ġsym pt
Ġspecial izing
Ġgrand children
ĠG an
nB L
X B
Ġsup ermarket
cript ive
Ġass ass
ĠForm at
re lease
Ġw ished
cc c
nY et
r t
Ġbi om
ĠAchie ve
ĠRo lex
ĠAD HD
Ġper taining
Ġm ph
83 63
n of
h im
Ġfun nel
Ġswe lling
81 20
Ġh edge
ec b
Ġle aks
Ġmush rooms
pe at
ĠM end
ĠV ik
ur st
97 19
Ġquestion ing
ĠEqu al
84 67
| |
Ġsour ced
s afe
Ġobs essed
Ġcontract ual
ĠSy rian
it ant
96 09
ĠJosh ua
Ġamend ments
i ated
Ch ina
ĠRecre ation
h d
Ġc ried
L ast
c ulture
ĠVac ation
Ġcomp ress
ĠW inner
erse ys
ĠAn onymous
nT ag
im ation
Ġjust ified
ĠA bd
Ġindo ors
Ġabsor bed
Ġremain der
× ¨
ij i
nEnt ries
Ġqu ad
ven ile
ĠPlay ing
927 4
ĠH E
Ġfree zing
Ġcheck list
insp ired
Ġtub es
OW NL
Ġconcent rations
lesh ooting
Ġrecogn ise
Ġsubpo ena
Ġhead aches
b ands
Ġd ick
ĠKash mir
nF act
Ġdis asters
93 38
Ġpro active
ET H
ĠRub y
Ġc lash
nT en
nS er
X D
ant o
ent e
lar ation
ĠZ oo
Ġsing ular
but ton
Ġmet abolic
nEd it
Ġwin nings
Ġenthusi ast
roph ic
Ġshift ed
ĠR ac
Ġ1 973
Ġ18 00
ri o
80 73
Ġsp atial
ĠA u
22 56
ili ated
ĠFin ancing
Ġcrowd ed
Ġscan ning
re ements
Ġf iring
ad ians
925 4
reg n
Ġveget arian
in ational
ĠRel igious
Ġp erv
oca ust
81 00
Ġa irlines
Ġreserv ations
Ġprox imity
Ġnu cle
cent ered
ĠHous es
c ac
97 913
ĠP ul
Ġdr ift
ĠR M
Ġpract iced
ĠRead ers
å ı
ri ad
83 96
nThe ir
Ġconc erts
ĠLGB T
un i
writ ers
nForm at
nG ar
nInter esting
ĠT icket
ĠM orm
per fect
ĠB ug
nD own
Ġfant as
Ġinter ven
ĠAr ena
Ġst ub
Ġad missions
M aster
Ġrend ering
N ov
ĠF B
Ġr ider
Ġby pass
st own
ah n
nA P
Ġintention ally
Ġsc ram
A g
v iol
Ġhila rious
E ffective
nG reg
ĠExhib ition
ĠFab ric
Ġb ids
Ġst reak
ĠE arn
s d
nTh omas
ĠC MS
ĠD od
Ġcomm em
uck ed
ĠJ ar
Ġand roid
or ative
924 4
ĠOpen ing
lar ge
nC la
nJ ason
ĠK el
ĠIntegr ated
ĠC IA
nS uch
ĠA BOUT
omb ie
84 87
Ġmerg er
Ġnot ably
Ġcapt uring
Ġinsp irational
ĠLink edin
93 61
Ġgall eries
ĠI Q
Ġtab s
ili ates
ĠCy cle
c iliation
Ġsp inal
Ġbu cks
ĠS r
asp berry
ĠB ald
Ġbeh ave
Ġb acon
sh opping
Ġam ino
nA ustralia
Ġlisten ers
ca e
ĠHill ary
ut t
v acc
in j
et ric
Ġ* *
nLaur a
che ap
ĠD ual
9436 557
Ġsh iny
ĠIndividual s
ĠSt ores
ĠBe en
lad der
Ġpun ct
Ġundert aking
Ġoverlook ed
Ġwith drawn
Ġillust rate
ĠT ibet
Ġtra fficking
nForm er
ĠA V
924 7
ust ing
93 12
load ed
ĠN HL
ĠRec on
Ġ: -
ig i
Ġ1 968
Ġb iblical
f en
Ġengine ered
Ġoptim istic
Ġframework s
ĠList ings
Ġcream y
ĠE as
ro ads
Ġwag ering
ĠD I
ru th
Ġf ats
Z U
ðŁ ĩ
nM ont
Ġdep ressed
Ġv ibe
Ġk ills
Y U
Ġse afood
Ġbl ues
Ġmem oir
Ġmet res
mont on
un ar
Ġ- >
Ġboard ing
Ġfla gs
c uts
Ġs ailing
Ġvirt ue
à¤ ¨
ĠN as
ĠAut umn
d ating
Ġpack aged
ĠTh ous
Ġur ged
l ifting
85 73
Ġdu o
Ġovers ee
M ax
n Ã
Ġabund ant
c bc
Ġman kind
ink les
Y H
us age
nSpons ored
ì§ Ģ
aro t
à ¯
ĠD rama
ET TER
nPubl isher
st atic
ĠPla za
od ed
ĠDr ugs
Ġbree ze
nE urope
ĠHind i
ig ator
ros ion
á Ī
ĠW ing
aur us
s g
1 999
Ġpress ures
Ġneg otiation
Ġprem ise
Ġch ill
laim s
nDirect or
Ġpor ch
Ġst ance
En ter
ĠAg ents
Ġcra cks
81 94
nFor um
88 20
ĠKeep ing
ale y
Ġsafe guards
Ġimpro per
Ġ1 977
91 01
bet ter
966 22
Ã© t
% ),
81 95
ĠHand book
nD iv
am iliar
Ġtim ber
f da
nR ate
ar u
Ġb und
Z B
ĠRe ed
Ġth riving
Ġcompla ining
OWNL OAD
ĠBed room
Ġreform s
Ġgra pe
ĠAmbass ador
ä »
Ġcoh ort
ts y
80 43
98 49
Ġtort ure
Ġcivil ian
nS pring
921 3
97 09
ĠAud it
nInst all
ĠTyp ically
E lement
f ig
cl osures
ĠP ip
ĠC u
90 90
8 937
ob ia
ĠAl erts
nR on
810 306
ennial s
Ġsequ ences
Ġwh ites
& &
96 72
Ġsynth esis
44 66
98 52
ï¼ ļ
Ġinvas ive
ab etic
Ġten ure
Ġpersonal ities
Ġs odium
ĠDec ision
47 86
ĠPr ison
993 0
91 90
Ġc itation
81 73
8 987
ĠIn form
920 2
Ġp ant
fin ance
Ġexhib its
stan bul
Ġirrele vant
m enu
t ur
V ideo
Ġtrack ed
ĠAny thing
Ġinform ing
all i
ĠOr igin
! ),
f ad
926 7
Ġd ar
giar ism
te chnology
ĠSecond ary
cont rolled
Ġshall ow
ĠAmeric as
uls ion
B IT
Ġsad ly
s up
nM id
Ġexch anged
ĠElectric ian
est ate
ĠLuck ily
ĠR ic
8 983
re ed
te ous
Ġstim ulate
alyt ic
900 6
Ġg lam
Ġpass ages
Ġow ning
ĠV ert
ng o
ah an
zer bai
ĠAut ism
86 63
nRes ults
ĠU ND
Ġh ated
Ġla min
nR E
int ech
iat rist
on er
nBlog s
A IN
Ġ1 974
, .
ĠÂ °
Ġfest ive
nAm ong
Ġg ates
Ġsubs ection
85 95
C ity
ack ing
Ġdemand ed
Ġhe ights
v ideos
Ġcont ribs
ðŁ ĳ
ĠBr ush
fe a
Ġceleb rations
ract ions
97 49
ĠV ia
D ownload
97 52
ĠG PU
Z C
ĠW ow
13 76
ib an
Ġf athers
96 19
ĠN W
ĠUn ique
896 76
Ġorient ed
quest ion
Ġmanip ulation
ote chnology
cf d
Ġlapt ops
ĠNew ton
ĠSupp lements
at ra
Ġ Å
in to
Ġmoist ur
ĠTown ship
ĠV oices
wn ed
Ġeduc ator
end um
Ġunder way
ĠMer cedes
cd b
au la
84 02
Ġthank ed
ĠN ag
920 3
ĠPe ak
Ġfla ws
Ġtherap ists
ĠAutom atic
Ġsurf ing
ĠG ain
04 36
[...]
