{
  "version": "1.0",
  "truncation": null,
  "padding": null,
  "added_tokens": [
    {
      "id": 0,
      "content": "<|endoftext|>",
      "single_word": false,
      "lstrip": false,
      "rstrip": false,
      "normalized": true,
      "special": true
    }
  ],
  "normalizer": null,
  "pre_tokenizer": {
    "type": "ByteLevel",
    "add_prefix_space": false,
    "trim_offsets": true,
    "use_regex": true
  },
  "post_processor": {
    "type": "ByteLevel",
    "add_prefix_space": true,
    "trim_offsets": false,
    "use_regex": true
  },
  "decoder": {
    "type": "ByteLevel",
    "add_prefix_space": true,
    "trim_offsets": true,
    "use_regex": true
  },
  "model": {
    "type": "BPE",
    "dropout": null,
    "unk_token": null,
    "continuing_subword_prefix": "",
    "end_of_word_suffix": "",
    "fuse_unk": false,
    "byte_fallback": false,
    "ignore_merges": false,
    "vocab": {
      "<|endoftext|>": 0,
      "!": 1,
      "\"": 2,
      "#": 3,
      "$": 4,
      "%": 5,
      "&": 6,
      "'": 7,
      "(": 8,
      ")": 9,
      "*": 10,
      "+": 11,
      ",": 12,
      "-": 13,
      ".": 14,
      "/": 15,
      "0": 16,
      "1": 17,
      "2": 18,
      "3": 19,
      "4": 20,
      "5": 21,
      "6": 22,
      "7": 23,
      "8": 24,
      "9": 25,
      ":": 26,
      ";": 27,
      "<": 28,
      "=": 29,
      ">": 30,
      "?": 31,
      "@": 32,
      "A": 33,
      "B": 34,
      "C": 35,
      "D": 36,
      "E": 37,
      "F": 38,
      "G": 39,
      "H": 40,
      "I": 41,
      "J": 42,
      "K": 43,
      "L": 44,
      "M": 45,
      "N": 46,
      "O": 47,
      "P": 48,
      "Q": 49,
      "R": 50,
      "S": 51,
      "T": 52,
      "U": 53,
      "V": 54,
      "W": 55,
      "X": 56,
      "Y": 57,
      "Z": 58,
      "[": 59,
      "\\": 60,
      "]": 61,
      "^": 62,
      "_": 63,
      "`": 64,
      "a": 65,
      "b": 66,
      "c": 67,
      "d": 68,
      "e": 69,
      "f": 70,
      "g": 71,
      "h": 72,
      "i": 73,
      "j": 74,
      "k": 75,
      "l": 76,
      "m": 77,
      "n": 78,
      "o": 79,
      "p": 80,
      "q": 81,
      "r": 82,
      "s": 83,
      "t": 84,
      "u": 85,
      "v": 86,
      "w": 87,
      "x": 88,
      "y": 89,
      "z": 90,
      "{": 91,
      "|": 92,
      "}": 93,
      "~": 94,
      "¡": 95,
      "¢": 96,
      "£": 97,
      "¤": 98,
      "¥": 99,
      "¦": 100,
      "§": 101,
      "¨": 102,
      "©": 103,
      "ª": 104,
      "«": 105,
      "¬": 106,
      "®": 107,
      "¯": 108,
      "°": 109,
      "±": 110,
      "²": 111,
      "³": 112,
      "´": 113,
      "µ": 114,
      "¶": 115,
      "·": 116,
      "¸": 117,
      "¹": 118,
      "º": 119,
      "»": 120,
      "¼": 121,
      "½": 122,
      "¾": 123,
      "¿": 124,
      "À": 125,
      "Á": 126,
      "Â": 127,
      "Ã": 128,
      "Ä": 129,
      "Å": 130,
      "Æ": 131,
      "Ç": 132,
      "È": 133,
      "É": 134,
      "Ê": 135,
      "Ë": 136,
      "Ì": 137,
      "Í": 138,
      "Î": 139,
      "Ï": 140,
      "Ð": 141,
      "Ñ": 142,
      "Ò": 143,
      "Ó": 144,
      "Ô": 145,
      "Õ": 146,
      "Ö": 147,
      "×": 148,
      "Ø": 149,
      "Ù": 150,
      "Ú": 151,
      "Û": 152,
      "Ü": 153,
      "Ý": 154,
      "Þ": 155,
      "ß": 156,
      "à": 157,
      "á": 158,
      "â": 159,
      "ã": 160,
      "ä": 161,
      "å": 162,
      "æ": 163,
      "ç": 164,
      "è": 165,
      "é": 166,
      "ê": 167,
      "ë": 168,
      "ì": 169,
      "í": 170,
      "î": 171,
      "ï": 172,
      "ð": 173,
      "ñ": 174,
      "ò": 175,
      "ó": 176,
      "ô": 177,
      "õ": 178,
      "ö": 179,
      "÷": 180,
      "ø": 181,
      "ù": 182,
      "ú": 183,
      "û": 184,
      "ü": 185,
      "ý": 186,
      "þ": 187,
      "ÿ": 188,
      "Ā": 189,
      "ā": 190,
      "Ă": 191,
      "ă": 192,
      "Ą": 193,
      "ą": 194,
      "Ć": 195,
      "ć": 196,
      "Ĉ": 197,
      "ĉ": 198,
      "Ċ": 199,
      "ċ": 200,
      "Č": 201,
      "č": 202,
      "Ď": 203,
      "ď": 204,
      "Đ": 205,
      "đ": 206,
      "Ē": 207,
      "ē": 208,
      "Ĕ": 209,
      "ĕ": 210,
      "Ė": 211,
      "ė": 212,
      "Ę": 213,
      "ę": 214,
      "Ě": 215,
      "ě": 216,
      "Ĝ": 217,
      "ĝ": 218,
      "Ğ": 219,
      "ğ": 220,
      "Ġ": 221,
      "ġ": 222,
      "Ģ": 223,
      "ģ": 224,
      "Ĥ": 225,
      "ĥ": 226,
      "Ħ": 227,
      "ħ": 228,
      "Ĩ": 229,
      "ĩ": 230,
      "Ī": 231,
      "ī": 232,
      "Ĭ": 233,
      "ĭ": 234,
      "Į": 235,
      "į": 236,
      "İ": 237,
      "ı": 238,
      "Ĳ": 239,
      "ĳ": 240,
      "Ĵ": 241,
      "ĵ": 242,
      "Ķ": 243,
      "ķ": 244,
      "ĸ": 245,
      "Ĺ": 246,
      "ĺ": 247,
      "Ļ": 248,
      "ļ": 249,
      "Ľ": 250,
      "ľ": 251,
      "Ŀ": 252,
      "ŀ": 253,
      "Ł": 254,
      "ł": 255,
      "Ń": 256,
      "Ġt": 257,
      "Ġa": 258,
      "en": 259,
      "in": 260,
      "\":": 261,
      "er": 262,
      "on": 263,
      "Ġth": 264,
      "re": 265,
      "ro": 266,
      "at": 267,
      "ll": 268,
      "or": 269,
      ",\"": 270,
      "Ġs": 271,
      "es": 272,
      "la": 273,
      "el": 274,
      "Ġthe": 275,
      "\":\"": 276,
      "\",\"": 277,
      "Ġw": 278,
      "ar": 279,
      "it": 280,
      "ou": 281,
      "Ġc": 282,
      "pro": 283,
      "is": 284,
      "nd": 285,
      "ing": 286,
      "{\"": 287,
      "ed": 288,
      "Ġb": 289,
      "Ġf": 290,
      "lab": 291,
      "Ġo": 292,
      "prob": 293,
      "an": 294,
      "label": 295,
      "ent": 296,
      "},": 297,
      "Ġto": 298,
      "nu": 299,
      "Ġm": 300,
      "ic": 301,
      "null": 302,
      "ion": 303,
      "Ġp": 304,
      "al": 305,
      "Ġand": 306,
      "Ġh": 307,
      "Ġin": 308,
      "Ġof": 309,
      "Ġd": 310,
      "le": 311,
      "st": 312,
      "},{\"": 313,
      "om": 314,
      "id": 315,
      "âĢ": 316,
      "et": 317,
      "Ġy": 318,
      "20": 319,
      "ct": 320,
      "as": 321,
      "Ġyou": 322,
      "Ġre": 323,
      "ĠI": 324,
      "ĠS": 325,
      ".\\": 326,
      "ve": 327,
      "Ġn": 328,
      "ĠT": 329,
      "ers": 330,
      "ĠA": 331,
      "ĠC": 332,
      "Ġe": 333,
      "ce": 334,
      "ad": 335,
      "ch": 336,
      "Ġl": 337,
      "ation": 338,
      "ot": 339,
      "ur": 340,
      "Ġg": 341,
      "us": 342,
      "Ġis": 343,
      "Ġfor": 344,
      "he": 345,
      "war": 346,
      "ig": 347,
      "ow": 348,
      "Ġon": 349,
      "Ġ20": 350,
      "ay": 351,
      ",{\"": 352,
      "il": 353,
      "if": 354,
      "Ġbe": 355,
      "ĠM": 356,
      "im": 357,
      "th": 358,
      "ĠP": 359,
      "am": 360,
      "warc": 361,
      "ly": 362,
      "ith": 363,
      "oo": 364,
      "ont": 365,
      "ut": 366,
      "Ġthat": 367,
      "ate": 368,
      "Ġwh": 369,
      "âĢĻ": 370,
      "ver": 371,
      "Ġ(": 372,
      "Ġst": 373,
      "ag": 374,
      "ir": 375,
      "est": 376,
      "Ġwith": 377,
      "ĠB": 378,
      "ra": 379,
      "ol": 380,
      "un": 381,
      "Ġan": 382,
      "Ġit": 383,
      "ies": 384,
      "em": 385,
      "pe": 386,
      "ĠD": 387,
      "ess": 388,
      "ter": 389,
      "ck": 390,
      "ill": 391,
      "ĠF": 392,
      "ĠW": 393,
      "all": 394,
      "Ġor": 395,
      "Ġpro": 396,
      "Ġare": 397,
      "our": 398,
      "Ġas": 399,
      "ke": 400,
      "ul": 401,
      "ĠR": 402,
      "Ġ1": 403,
      "Ġwe": 404,
      "pp": 405,
      "Ġ201": 406,
      "ht": 407,
      "ity": 408,
      "qu": 409,
      "96": 410,
      "ore": 411,
      "97": 412,
      "Ġyour": 413,
      "22": 414,
      "Ġha": 415,
      "ĠH": 416,
      "out": 417,
      "os": 418,
      "95": 419,
      "ment": 420,
      "ew": 421,
      "Ġat": 422,
      "ri": 423,
      "98": 424,
      "sh": 425,
      "00": 426,
      "ep": 427,
      "ere": 428,
      "ĠL": 429,
      "ĠN": 430,
      "Ġcom": 431,
      "94": 432,
      "ist": 433,
      "Ġus": 434,
      "ontent": 435,
      "ber": 436,
      "ort": 437,
      "93": 438,
      "ab": 439,
      "ect": 440,
      "ĠE": 441,
      "nT": 442,
      "ust": 443,
      "Ġv": 444,
      "ĠG": 445,
      "op": 446,
      "Ġex": 447,
      "ĠO": 448,
      "content": 449,
      "ure": 450,
      "ld": 451,
      "ĠâĢ": 452,
      "ook": 453,
      "iv": 454,
      "Ġthis": 455,
      "91": 456,
      "ĠJ": 457,
      "ear": 458,
      "Ġby": 459,
      "ident": 460,
      "Ġnot": 461,
      "ant": 462,
      "rom": 463,
      "ost": 464,
      "up": 465,
      "ĠThe": 466,
      "ive": 467,
      "Ġhave": 468,
      "lo": 469,
      "21": 470,
      "Ġcan": 471,
      "art": 472,
      "age": 473,
      "nA": 474,
      "um": 475,
      "end": 476,
      "Ġsh": 477,
      "Ġcon": 478,
      "nS": 479,
      "ec": 480,
      "ain": 481,
      "Ġr": 482,
      "ight": 483,
      "Ġfrom": 484,
      "identif": 485,
      "90": 486,
      "ss": 487,
      "ug": 488,
      "od": 489,
      "ud": 490,
      "ty": 491,
      "Ġwas": 492,
      "Ġch": 493,
      "23": 494,
      "Ġal": 495,
      "ence": 496,
      "\":{\"": 497,
      "ome": 498,
      "ci": 499,
      "Ġwill": 500,
      "ication": 501,
      "ary": 502,
      "11": 503,
      "86": 504,
      "85": 505,
      "25": 506,
      "24": 507,
      "ĠTh": 508,
      "ice": 509,
      "Ġdo": 510,
      "87": 511,
      "84": 512,
      "urn": 513,
      "eng": 514,
      "83": 515,
      "Ġsu": 516,
      "Ġab": 517,
      "ine": 518,
      "nC": 519,
      "ord": 520,
      "80": 521,
      "Ġle": 522,
      "26": 523,
      "ite": 524,
      "and": 525,
      "ĠU": 526,
      "27": 527,
      "are": 528,
      "nR": 529,
      "ally": 530,
      "Ġall": 531,
      "ff": 532,
      "cc": 533,
      "to": 534,
      "ex": 535,
      "ions": 536,
      "ould": 537,
      "orm": 538,
      "und": 539,
      "Ġad": 540,
      "se": 541,
      "ide": 542,
      "lan": 543,
      "81": 544,
      "pt": 545,
      "per": 546,
      "ings": 547,
      "nI": 548,
      "sent": 549,
      "ork": 550,
      "Ġso": 551,
      "Ġde": 552,
      "ak": 553,
      "ĠIn": 554,
      "ard": 555,
      "Ġj": 556,
      "ire": 557,
      "Ġme": 558,
      "Ġk": 559,
      "nP": 560,
      "ge": 561,
      "Ġhe": 562,
      "act": 563,
      "ps": 564,
      "ind": 565,
      "Ġse": 566,
      "ike": 567,
      "\\\"": 568,
      "uid": 569,
      "og": 570,
      "erv": 571,
      "âĢĿ": 572,
      "10": 573,
      "ast": 574,
      "com": 575,
      "one": 576,
      "form": 577,
      "15": 578,
      "ry": 579,
      "oun": 580,
      "iz": 581,
      "ia": 582,
      "ie": 583,
      "Ġour": 584,
      "13": 585,
      "Ġcomp": 586,
      "ĠY": 587,
      "ru": 588,
      "14": 589,
      "tl": 590,
      "her": 591,
      "Ġmy": 592,
      "17": 593,
      "ated": 594,
      "16": 595,
      "Ġmore": 596,
      "type": 597,
      "ake": 598,
      "ail": 599,
      "ach": 600,
      "nW": 601,
      "identification": 602,
      "very": 603,
      "30": 604,
      "Ġhas": 605,
      "\":\"<": 606,
      "uuid": 607,
      "ub": 608,
      "},\"": 609,
      "Ġbut": 610,
      "ime": 611,
      "ac": 612,
      "tlsh": 613,
      "Ġres": 614,
      "ich": 615,
      "Ġup": 616,
      "Ġla": 617,
      "ther": 618,
      "\":[": 619,
      "nM": 620,
      "du": 621,
      "Ġout": 622,
      "so": 623,
      "mber": 624,
      "ance": 625,
      "ood": 626,
      "ans": 627,
      "Ġpre": 628,
      "ove": 629,
      "44": 630,
      "55": 631,
      "oll": 632,
      "Ġcont": 633,
      "ays": 634,
      "36": 635,
      "enc": 636,
      "ĠSt": 637,
      "ous": 638,
      "Ġne": 639,
      "Ġthey": 640,
      "Ġany": 641,
      "ata": 642,
      "ase": 643,
      "Ġim": 644,
      "ack": 645,
      "12": 646,
      "ong": 647,
      "ful": 648,
      "ign": 649,
      "..": 650,
      "ib": 651,
      "Ġtheir": 652,
      "ext": 653,
      "ip": 654,
      "fer": 655,
      ">\",\"": 656,
      "06": 657,
      "37": 658,
      "ĠâĢľ": 659,
      "ateg": 660,
      "35": 661,
      "bs": 662,
      "able": 663,
      "nF": 664,
      "Ġabout": 665,
      "46": 666,
      "ish": 667,
      "ick": 668,
      "ult": 669,
      "07": 670,
      "ĠK": 671,
      "ame": 672,
      "ied": 673,
      "47": 674,
      "05": 675,
      "ĠV": 676,
      "get": 677,
      "nL": 678,
      "45": 679,
      "ens": 680,
      "ark": 681,
      "Ġone": 682,
      "ality": 683,
      "Ġun": 684,
      "Ġman": 685,
      "pla": 686,
      "99": 687,
      ":\\": 688,
      "'s": 689,
      "ap": 690,
      "ical": 691,
      "nThe": 692,
      "av": 693,
      "Ġwork": 694,
      "reat": 695,
      "ree": 696,
      "cl": 697,
      "gu": 698,
      "ink": 699,
      "con": 700,
      "nB": 701,
      "ese": 702,
      "vel": 703,
      "ĠCh": 704,
      ")\\": 705,
      "nD": 706,
      "ategor": 707,
      "arm": 708,
      "ue": 709,
      "ress": 710,
      "oc": 711,
      "Ġag": 712,
      "Ġam": 713,
      "ents": 714,
      "Ġtime": 715,
      "Ġper": 716,
      "ile": 717,
      "Ġte": 718,
      "//": 719,
      "head": 720,
      "ely": 721,
      "now": 722,
      "Ġqu": 723,
      "ial": 724,
      "eb": 725,
      "Ġwhich": 726,
      "vers": 727,
      "Ġnew": 728,
      "Ġalso": 729,
      "ount": 730,
      "Ġ-": 731,
      "Ġgo": 732,
      "Ġdis": 733,
      "://": 734,
      "Ġwho": 735,
      "nN": 736,
      "33": 737,
      "nH": 738,
      "iew": 739,
      "ors": 740,
      "Ġother": 741,
      "Ġsp": 742,
      "Ġen": 743,
      "ĠIt": 744,
      "76": 745,
      "Ġacc": 746,
      "Ġpart": 747,
      "75": 748,
      "ose": 749,
      "Ġif": 750,
      "Ġtr": 751,
      "ĠWe": 752,
      "Ġar": 753,
      "ition": 754,
      "Ġget": 755,
      "04": 756,
      "Ġmay": 757,
      "Ġev": 758,
      "ction": 759,
      "ww": 760,
      "Ġsome": 761,
      "Ġlike": 762,
      "Ġpla": 763,
      "ond": 764,
      "Ġuse": 765,
      "Ġfe": 766,
      "Ġyear": 767,
      "lock": 768,
      "34": 769,
      "cord": 770,
      "int": 771,
      "Ġthem": 772,
      "ov": 773,
      "28": 774,
      "Ġserv": 775,
      "fers": 776,
      "Ġsa": 777,
      "Ġhel": 778,
      "cial": 779,
      "Ġcl": 780,
      "port": 781,
      "66": 782,
      "Ġem": 783,
      "lar": 784,
      "ations": 785,
      "Ġwhen": 786,
      "htt": 787,
      "Ġwhat": 788,
      "nE": 789,
      "Ġhow": 790,
      "ments": 791,
      "ength": 792,
      "formation": 793,
      "nO": 794,
      "Ġpe": 795,
      "Ġcook": 796,
      "te": 797,
      "2022": 798,
      "Ġprov": 799,
      "ild": 800,
      "Ġ2022": 801,
      "Ġneed": 802,
      "pr": 803,
      "Ġhis": 804,
      "ĠâĢĵ": 805,
      "ugh": 806,
      "Ġthere": 807,
      "Ġro": 808,
      "03": 809,
      "77": 810,
      "Ġinter": 811,
      "guage": 812,
      "Ġknow": 813,
      "ategories": 814,
      "Ġbeen": 815,
      "date": 816,
      "plain": 817,
      "ory": 818,
      "?\\": 819,
      "arget": 820,
      "erson": 821,
      "56": 822,
      "language": 823,
      "own": 824,
      "use": 825,
      "row": 826,
      "ĠThis": 827,
      "eply": 828,
      "88": 829,
      "met": 830,
      "ank": 831,
      "}}": 832,
      "Ġ&": 833,
      "ople": 834,
      "ĠRe": 835,
      "Ġwould": 836,
      "harm": 837,
      "ember": 838,
      "uri": 839,
      "Ġ3": 840,
      "ater": 841,
      "ices": 842,
      "oug": 843,
      "nings": 844,
      "ian": 845,
      "nTh": 846,
      "quality": 847,
      "Ġjust": 848,
      "Ġover": 849,
      "mer": 850,
      "Ġ2": 851,
      "ace": 852,
      "08": 853,
      "19": 854,
      "09": 855,
      "ics": 856,
      "ĠDe": 857,
      "igh": 858,
      "identified": 859,
      "Ġadd": 860,
      "ca": 861,
      "version": 862,
      "dig": 863,
      "Ġno": 864,
      "https": 865,
      "sha": 866,
      "ĠWh": 867,
      "ons": 868,
      "ne": 869,
      "text": 870,
      "block": 871,
      "erm": 872,
      "ade": 873,
      "ates": 874,
      "length": 875,
      "Ġspe": 876,
      "Ġund": 877,
      "record": 878,
      "clud": 879,
      "adata": 880,
      "target": 881,
      "categories": 882,
      "ram": 883,
      "digest": 884,
      "conversion": 885,
      "ph": 886,
      "ĠYou": 887,
      "]}}": 888,
      "metadata": 889,
      "sentence": 890,
      "identifications": 891,
      "headers": 892,
      "warnings": 893,
      "harmful": 894,
      "refers": 895,
      "\"},\"": 896,
      "Ġdes": 897,
      "rough": 898,
      "duct": 899,
      "bsite": 900,
      "Ġ5": 901,
      "ound": 902,
      "01": 903,
      "irst": 904,
      "rit": 905,
      "les": 906,
      "Ġinformation": 907,
      "Ġapp": 908,
      "65": 909,
      "Ġpeople": 910,
      "Ġhelp": 911,
      "red": 912,
      "!\\": 913,
      "ĠCom": 914,
      "Ġher": 915,
      "ass": 916,
      "we": 917,
      "ang": 918,
      "Ġits": 919,
      "old": 920,
      "Ġonly": 921,
      "ract": 922,
      "Ġwere": 923,
      "Ġhad": 924,
      "ning": 925,
      "43": 926,
      "earch": 927,
      "nJ": 928,
      "Ġinto": 929,
      "Ġthese": 930,
      "Ġcomm": 931,
      "fter": 932,
      "ities": 933,
      "ual": 934,
      "92": 935,
      "Ġind": 936,
      "ull": 937,
      "Ġunder": 938,
      "Ġexper": 939,
      "ict": 940,
      "\"]": 941,
      "\":[\"": 942,
      "\"],\"": 943,
      "ool": 944,
      "Ġthan": 945,
      "iss": 946,
      "ences": 947,
      "Ġmake": 948,
      "18": 949,
      "Ġpr": 950,
      "nReply": 951,
      "ject": 952,
      "\":[{\"": 953,
      "iness": 954,
      "Ġ4": 955,
      "ĠPro": 956,
      "ys": 957,
      "ft": 958,
      "ubl": 959,
      "wn": 960,
      "riv": 961,
      "Ġact": 962,
      "}]}}": 963,
      "Ġtra": 964,
      "Ġbet": 965,
      "ting": 966,
      "ating": 967,
      "02": 968,
      "ob": 969,
      "oot": 970,
      "pport": 971,
      "ise": 972,
      "Ġinclud": 973,
      "ek": 974,
      "ert": 975,
      "Ġthrough": 976,
      "line": 977,
      "amp": 978,
      "Ġperson": 979,
      "Ġmost": 980,
      "ĠHe": 981,
      "Ġwor": 982,
      "Ġevery": 983,
      "Ġcookies": 984,
      "ife": 985,
      "57": 986,
      "Ġwebsite": 987,
      "view": 988,
      "Ġcons": 989,
      "eth": 990,
      "Ġwant": 991,
      "Ġpost": 992,
      "ĠMar": 993,
      "Ġ\\\"": 994,
      "ility": 995,
      "nG": 996,
      "Ġlook": 997,
      "alth": 998,
      "usiness": 999,
      "Ġph": 1000,
      "be": 1001,
      "ature": 1002,
      "Ġoff": 1003,
      "olog": 1004,
      "ious": 1005,
      "day": 1006,
      "ible": 1007,
      "Ġap": 1008,
      "67": 1009,
      "any": 1010,
      "ovember": 1011,
      "ai": 1012,
      "nWh": 1013,
      "une": 1014,
      "ober": 1015,
      "cri": 1016,
      "ces": 1017,
      "ef": 1018,
      "Ġco": 1019,
      "\\\\": 1020,
      "Ġ2021": 1021,
      "Ġwell": 1022,
      "Ġbu": 1023,
      "64": 1024,
      "Ġfirst": 1025,
      "oss": 1026,
      "âĢ¦": 1027,
      "Ġdif": 1028,
      "Ġel": 1029,
      "Ġread": 1030,
      "ange": 1031,
      "ĠUn": 1032,
      "ĠAn": 1033,
      "log": 1034,
      "ily": 1035,
      "round": 1036,
      "ept": 1037,
      "Ġtw": 1038,
      "anu": 1039,
      "arket": 1040,
      "Ġset": 1041,
      "ath": 1042,
      "Ġvery": 1043,
      "Ġright": 1044,
      "elf": 1045,
      "yst": 1046,
      "Ġback": 1047,
      "ement": 1048,
      "74": 1049,
      "ational": 1050,
      "its": 1051,
      "Ġ2020": 1052,
      "29": 1053,
      "uch": 1054,
      "cre": 1055,
      "cember": 1056,
      "ower": 1057,
      "Ġused": 1058,
      "als": 1059,
      "54": 1060,
      "Ġreg": 1061,
      "ts": 1062,
      "ection": 1063,
      "ced": 1064,
      "Ġ|": 1065,
      "ctober": 1066,
      "Ġrel": 1067,
      "Ġnu": 1068,
      "Ġshould": 1069,
      "ee": 1070,
      "Ġinv": 1071,
      "Ġyears": 1072,
      "Ġatt": 1073,
      "ĠIf": 1074,
      "pect": 1075,
      "land": 1076,
      "Ġrem": 1077,
      "EA": 1078,
      "Ġsee": 1079,
      "Ġmany": 1080,
      "Ġgood": 1081,
      "Ġrequ": 1082,
      "ited": 1083,
      "Ġ$": 1084,
      "ience": 1085,
      "Ġway": 1086,
      "oth": 1087,
      "53": 1088,
      "nIn": 1089,
      "ased": 1090,
      "Ġexp": 1091,
      "Ġke": 1092,
      "Ġstud": 1093,
      "eptember": 1094,
      "73": 1095,
      "co": 1096,
      "ik": 1097,
      "aking": 1098,
      "ward": 1099,
      "pril": 1100,
      "ific": 1101,
      "uly": 1102,
      "ell": 1103,
      "nY": 1104,
      "anuary": 1105,
      "ĠNew": 1106,
      "ollow": 1107,
      "Ġpo": 1108,
      "ugust": 1109,
      "63": 1110,
      "velop": 1111,
      "fore": 1112,
      "Ġsuch": 1113,
      "Ġown": 1114,
      "ĠMay": 1115,
      "Ġmon": 1116,
      "82": 1117,
      "Ġshe": 1118,
      "Ġafter": 1119,
      "Ġservice": 1120,
      "ener": 1121,
      "Ġent": 1122,
      "olic": 1123,
      "Ġdon": 1124,
      "Ġsaid": 1125,
      "ED": 1126,
      "Ġhigh": 1127,
      "Ġ2019": 1128,
      "air": 1129,
      "Ġ6": 1130,
      "atch": 1131,
      "Ġvis": 1132,
      "lease": 1133,
      "Ġcould": 1134,
      "Ġeven": 1135,
      "ough": 1136,
      "Ġbest": 1137,
      "Ġstr": 1138,
      "Ġwhere": 1139,
      "BB": 1140,
      "ĠSh": 1141,
      "ave": 1142,
      "Ġinst": 1143,
      "cess": 1144,
      "Ġac": 1145,
      "Ġhere": 1146,
      "ystem": 1147,
      "Ġdec": 1148,
      "ebru": 1149,
      "Ġnow": 1150,
      "ebruary": 1151,
      "Ġthen": 1152,
      "der": 1153,
      "ages": 1154,
      ".\",\"": 1155,
      "Ġins": 1156,
      "AC": 1157,
      "Ġass": 1158,
      "89": 1159,
      "chn": 1160,
      "cause": 1161,
      "Ġsec": 1162,
      "Ġgreat": 1163,
      "Ġdoes": 1164,
      "Ġ10": 1165,
      "Ġbecause": 1166,
      "Ġ2018": 1167,
      "Ġfind": 1168,
      "oy": 1169,
      "Ġplan": 1170,
      "io": 1171,
      "Ġsays": 1172,
      "ustom": 1173,
      "itt": 1174,
      "Ġtwo": 1175,
      "uring": 1176,
      "Ġ2017": 1177,
      "Ġproduct": 1178,
      "Ġmuch": 1179,
      "ĠAnd": 1180,
      "ead": 1181,
      "gram": 1182,
      "Ġthink": 1183,
      "Ġeff": 1184,
      "Ġsm": 1185,
      "Ġav": 1186,
      "ner": 1187,
      "Ġdiffer": 1188,
      "),": 1189,
      "www": 1190,
      "ative": 1191,
      "gan": 1192,
      "40": 1193,
      "Ġcoll": 1194,
      "ĠAr": 1195,
      "ĠNovember": 1196,
      "51": 1197,
      "Ġ2016": 1198,
      "Ġdata": 1199,
      "'t": 1200,
      "Ġdown": 1201,
      "chool": 1202,
      "cept": 1203,
      "ng": 1204,
      "Ġbel": 1205,
      "Ġpur": 1206,
      "Ġstart": 1207,
      "ric": 1208,
      "Ġrep": 1209,
      "ives": 1210,
      "Ġra": 1211,
      "ash": 1212,
      "dd": 1213,
      "Ġprovid": 1214,
      "Ġfin": 1215,
      "lass": 1216,
      "Ġtrans": 1217,
      "ĠFor": 1218,
      "Ġbusiness": 1219,
      "50": 1220,
      "ple": 1221,
      "Ġplay": 1222,
      "EC": 1223,
      "ten": 1224,
      "ivers": 1225,
      "az": 1226,
      "ER": 1227,
      "Ġart": 1228,
      "Ġ2015": 1229,
      "ix": 1230,
      "Ġ7": 1231,
      "alk": 1232,
      "...\\": 1233,
      "ĠDecember": 1234,
      "Ġsub": 1235,
      "Ġdid": 1236,
      "Ġopt": 1237,
      "Ġlong": 1238,
      "Ġtake": 1239,
      "acy": 1240,
      "other": 1241,
      "ax": 1242,
      "ĠOctober": 1243,
      "Ġday": 1244,
      "ized": 1245,
      "ale": 1246,
      "DA": 1247,
      "Ġsc": 1248,
      "Ġfun": 1249,
      "Ġbeing": 1250,
      "ĠSo": 1251,
      "led": 1252,
      "Ġmod": 1253,
      "Ġgu": 1254,
      "tern": 1255,
      "eg": 1256,
      "ĠMarch": 1257,
      "ĠSeptember": 1258,
      "Ġmed": 1259,
      "CA": 1260,
      "ever": 1261,
      "Ġmade": 1262,
      "roup": 1263,
      "ern": 1264,
      "Ġche": 1265,
      "31": 1266,
      "Ġbo": 1267,
      "Ġworld": 1268,
      "41": 1269,
      "ĠJune": 1270,
      "short": 1271,
      "Ġ2014": 1272,
      "Ġdet": 1273,
      "ĠJuly": 1274,
      "Ġcour": 1275,
      "Ġthose": 1276,
      "ĠApril": 1277,
      "BA": 1278,
      "ues": 1279,
      "Ġtoo": 1280,
      "ĠJanuary": 1281,
      "Ġcre": 1282,
      "ĠAugust": 1283,
      "ually": 1284,
      "Ġpl": 1285,
      "ize": 1286,
      "Ġmin": 1287,
      "ional": 1288,
      "sentences": 1289,
      "Ġpubl": 1290,
      "Ġbefore": 1291,
      "irect": 1292,
      "uth": 1293,
      "ular": 1294,
      "Ġlife": 1295,
      "Ġagain": 1296,
      "Ġexperience": 1297,
      "olut": 1298,
      "Ġdevelop": 1299,
      ").": 1300,
      "Ġdesign": 1301,
      "Ġsim": 1302,
      "ins": 1303,
      "ven": 1304,
      "Ġcar": 1305,
      "urr": 1306,
      "Ġloc": 1307,
      "istr": 1308,
      "Ġret": 1309,
      ".âĢĿ": 1310,
      "Ġsupport": 1311,
      "Ġdel": 1312,
      "Ġ2013": 1313,
      "read": 1314,
      "ah": 1315,
      "ailab": 1316,
      "Ġprocess": 1317,
      "ĠFebruary": 1318,
      "000": 1319,
      "ier": 1320,
      "Ġadv": 1321,
      "Ġtop": 1322,
      "Ġpm": 1323,
      "nV": 1324,
      "Ġprob": 1325,
      "ock": 1326,
      "42": 1327,
      "Ġed": 1328,
      "Ġhim": 1329,
      "way": 1330,
      "Ġfollow": 1331,
      "nWe": 1332,
      "ology": 1333,
      "Ġmarket": 1334,
      "arn": 1335,
      "ĠEx": 1336,
      "cent": 1337,
      "Ġfam": 1338,
      "Ġmonth": 1339,
      "unity": 1340,
      "Ġsystem": 1341,
      "Ġsom": 1342,
      "Ġend": 1343,
      "Ġform": 1344,
      "ason": 1345,
      "Ġprof": 1346,
      "Ġhome": 1347,
      "Ġbook": 1348,
      "ired": 1349,
      "ways": 1350,
      "Ġusing": 1351,
      "pen": 1352,
      "ital": 1353,
      "BC": 1354,
      "FA": 1355,
      "stand": 1356,
      "ness": 1357,
      "Ġweek": 1358,
      "32": 1359,
      "48": 1360,
      "Ġcare": 1361,
      "Ġcall": 1362,
      "FC": 1363,
      "ures": 1364,
      "af": 1365,
      "come": 1366,
      "Ġshow": 1367,
      "ouse": 1368,
      "ĠCon": 1369,
      "Ġbr": 1370,
      "Ġsur": 1371,
      "EE": 1372,
      "ren": 1373,
      "ĠAl": 1374,
      "Ġ2012": 1375,
      "Ġcomple": 1376,
      "iel": 1377,
      "Ġlist": 1378,
      "Ġdifferent": 1379,
      "ather": 1380,
      "Ġwhile": 1381,
      "ON": 1382,
      "Ġreally": 1383,
      "tt": 1384,
      "Ġstore": 1385,
      "nThis": 1386,
      "min": 1387,
      "Ġext": 1388,
      "71": 1389,
      "ient": 1390,
      "ĠAll": 1391,
      "imes": 1392,
      "IN": 1393,
      "Ġcustom": 1394,
      "olicy": 1395,
      "riend": 1396,
      "akes": 1397,
      "ets": 1398,
      "ines": 1399,
      "BD": 1400,
      "ailable": 1401,
      "ator": 1402,
      "ider": 1403,
      "âĢľ": 1404,
      "pl": 1405,
      "Ġsite": 1406,
      "Ġhand": 1407,
      "Ġ8": 1408,
      "Ġdef": 1409,
      "Ġeach": 1410,
      "Ġfree": 1411,
      "38": 1412,
      "ĠBut": 1413,
      "book": 1414,
      "Ġemail": 1415,
      "Ġpay": 1416,
      "Ġhealth": 1417,
      "Ġ11": 1418,
      "/\",\"": 1419,
      "--": 1420,
      "ency": 1421,
      "60": 1422,
      "Ġcle": 1423,
      "ince": 1424,
      "ety": 1425,
      "Ġonline": 1426,
      "Ġprovide": 1427,
      "Ġfeel": 1428,
      "Ġlead": 1429,
      "ĠOn": 1430,
      "Ġsign": 1431,
      "Ġtechn": 1432,
      "the": 1433,
      "nU": 1434,
      "ĠTo": 1435,
      "ecess": 1436,
      "de": 1437,
      "49": 1438,
      "Ġdep": 1439,
      "ĠAs": 1440,
      "70": 1441,
      "Ġlove": 1442,
      "Ġrece": 1443,
      "ES": 1444,
      "foot": 1445,
      "ĠQ": 1446,
      "bers": 1447,
      "ism": 1448,
      "icle": 1449,
      "rib": 1450,
      "Ġeas": 1451,
      "BF": 1452,
      "AA": 1453,
      "Ġaccess": 1454,
      "Ġsame": 1455,
      "Ġprogram": 1456,
      "ween": 1457,
      "ton": 1458,
      "Ġint": 1459,
      "Ġchar": 1460,
      "Ġsk": 1461,
      "less": 1462,
      "Ġgr": 1463,
      "Ġfl": 1464,
      "Ġlot": 1465,
      "erg": 1466,
      "Ġca": 1467,
      "Ġty": 1468,
      "Ġoffer": 1469,
      "Ġhapp": 1470,
      "uss": 1471,
      "lem": 1472,
      "Ġstill": 1473,
      "ĠServ": 1474,
      "ining": 1475,
      "aw": 1476,
      "52": 1477,
      "39": 1478,
      "ĠAd": 1479,
      "Ġfound": 1480,
      "meric": 1481,
      "anc": 1482,
      "Ġresp": 1483,
      "EF": 1484,
      "rol": 1485,
      "Ġimport": 1486,
      "iqu": 1487,
      "Ġwrit": 1488,
      "rist": 1489,
      "Ġchild": 1490,
      "footer": 1491,
      "ĠHow": 1492,
      "Ġaround": 1493,
      "Ġappro": 1494,
      "61": 1495,
      "Ġavailable": 1496,
      "ĠThey": 1497,
      "Ġinf": 1498,
      "78": 1499,
      "rand": 1500,
      "ips": 1501,
      "Ġlo": 1502,
      "Ġsay": 1503,
      "Ġpersonal": 1504,
      "Ġser": 1505,
      "Ġ12": 1506,
      "Ġgoing": 1507,
      "ars": 1508,
      "Ġorder": 1509,
      "bo": 1510,
      "Ġ[": 1511,
      "vent": 1512,
      "Ġhear": 1513,
      "Ġreal": 1514,
      "Ġwithout": 1515,
      "ody": 1516,
      "Ġcor": 1517,
      "ross": 1518,
      "ĠRes": 1519,
      "iving": 1520,
      "ym": 1521,
      "Ġservices": 1522,
      "Ġfull": 1523,
      "EB": 1524,
      "Ġcount": 1525,
      "OR": 1526,
      "ield": 1527,
      "Ġbetween": 1528,
      "Ġvar": 1529,
      "cript": 1530,
      "Ġkeep": 1531,
      "Ġvisit": 1532,
      "mail": 1533,
      "Ġinterest": 1534,
      "Ġappl": 1535,
      "thing": 1536,
      "Ġval": 1537,
      "Ġteam": 1538,
      "Ġthings": 1539,
      "Ġshare": 1540,
      "loy": 1541,
      "Ġplace": 1542,
      "Ġposs": 1543,
      "ccess": 1544,
      "Ġallow": 1545,
      "ames": 1546,
      "iny": 1547,
      "ĠInd": 1548,
      "Ġgener": 1549,
      "res": 1550,
      "ird": 1551,
      "ving": 1552,
      "Ġ9": 1553,
      "ute": 1554,
      "Ġlast": 1555,
      "Ġmust": 1556,
      "rivacy": 1557,
      "ery": 1558,
      "ĠTr": 1559,
      "AD": 1560,
      "Ġcompany": 1561,
      "Ġob": 1562,
      "Ġ/": 1563,
      "raph": 1564,
      "ĠUs": 1565,
      "998": 1566,
      "FF": 1567,
      "nLike": 1568,
      "ically": 1569,
      "ural": 1570,
      "58": 1571,
      "Ġpoint": 1572,
      "uc": 1573,
      "ware": 1574,
      "994": 1575,
      "Ġaccount": 1576,
      "ode": 1577,
      "Ġresult": 1578,
      "Ġboth": 1579,
      "ites": 1580,
      "aly": 1581,
      "ought": 1582,
      "Ġunderstand": 1583,
      "Ġi": 1584,
      "wit": 1585,
      "Ġ2011": 1586,
      "Ġiss": 1587,
      "ecessary": 1588,
      "nSh": 1589,
      "ined": 1590,
      "uthor": 1591,
      "oney": 1592,
      "els": 1593,
      "Ġpartic": 1594,
      "Ġcontent": 1595,
      "72": 1596,
      "CC": 1597,
      "Ġnumber": 1598,
      "ĠÂ": 1599,
      "Ġuser": 1600,
      "ists": 1601,
      "Ġbetter": 1602,
      "Ġincluding": 1603,
      "DD": 1604,
      "Ġpass": 1605,
      "ruct": 1606,
      "nYou": 1607,
      "ished": 1608,
      "Ġfew": 1609,
      "ertain": 1610,
      "ister": 1611,
      "orn": 1612,
      "Ġquest": 1613,
      "Ġalways": 1614,
      "Ġcontin": 1615,
      "Ġspec": 1616,
      "work": 1617,
      "ĠUS": 1618,
      "pping": 1619,
      "ĠPh": 1620,
      "...": 1621,
      "Ġimp": 1622,
      "att": 1623,
      "load": 1624,
      "vern": 1625,
      "Ġleg": 1626,
      "ittle": 1627,
      "ote": 1628,
      "vert": 1629,
      "Ġtry": 1630,
      "ours": 1631,
      "anks": 1632,
      "ved": 1633,
      "Ġconf": 1634,
      "Ġlaw": 1635,
      "Ġeffect": 1636,
      "urrent": 1637,
      "Ġstate": 1638,
      "ĠAmeric": 1639,
      "ething": 1640,
      "ĠâĢĺ": 1641,
      "ĠIs": 1642,
      "Ġsl": 1643,
      "agement": 1644,
      "Ġsure": 1645,
      "Ġorgan": 1646,
      "59": 1647,
      "ected": 1648,
      "ey": 1649,
      "Ġduring": 1650,
      "man": 1651,
      "Ġfact": 1652,
      "ential": 1653,
      "Ġmem": 1654,
      "Ġmain": 1655,
      "Ġaff": 1656,
      "68": 1657,
      "Ġemp": 1658,
      "__": 1659,
      "Ġfeature": 1660,
      "Ġdays": 1661,
      "iversity": 1662,
      "62": 1663,
      "993": 1664,
      "nSt": 1665,
      "Ġlink": 1666,
      "ications": 1667,
      "nAn": 1668,
      "ĠCl": 1669,
      "Ġrun": 1670,
      "ivid": 1671,
      "Ġear": 1672,
      "Ġbuild": 1673,
      "Ġperform": 1674,
      "ĠTe": 1675,
      "Ġrest": 1676,
      "self": 1677,
      "nWhat": 1678,
      "Ġinvest": 1679,
      "Ġdisc": 1680,
      "Ġprot": 1681,
      "ina": 1682,
      "ission": 1683,
      "Ġlar": 1684,
      "The": 1685,
      "ĠThere": 1686,
      "ases": 1687,
      "Ġimportant": 1688,
      "Ġproper": 1689,
      "AT": 1690,
      "Ġbl": 1691,
      "Ġtru": 1692,
      "Ġwithin": 1693,
      "DC": 1694,
      "Ġfil": 1695,
      "Ġgroup": 1696,
      "Ġsupp": 1697,
      "995": 1698,
      "Ġreport": 1699,
      "of": 1700,
      "Ġproblem": 1701,
      "997": 1702,
      "itions": 1703,
      "Ġide": 1704,
      "DF": 1705,
      "Ġpar": 1706,
      "ense": 1707,
      "\\\\\\\\": 1708,
      "nHow": 1709,
      "Ġsomething": 1710,
      "Ġgive": 1711,
      "Ġnever": 1712,
      "ship": 1713,
      "ral": 1714,
      "ling": 1715,
      "fe": 1716,
      "ves": 1717,
      "gle": 1718,
      "omen": 1719,
      "Ġproject": 1720,
      "Ġbas": 1721,
      "erms": 1722,
      "Ġdirect": 1723,
      "Ġfriend": 1724,
      "Ġopen": 1725,
      "Ġbro": 1726,
      "ision": 1727,
      "ĠMore": 1728,
      "991": 1729,
      "ush": 1730,
      "ĠBe": 1731,
      "996": 1732,
      "âĢĶ": 1733,
      "Ġ#": 1734,
      "header": 1735,
      "aj": 1736,
      "wh": 1737,
      "oh": 1738,
      "Ġmight": 1739,
      "ĠCont": 1740,
      "ants": 1741,
      "Ġcome": 1742,
      "ems": 1743,
      "nK": 1744,
      "ately": 1745,
      "ĠPr": 1746,
      "Ġ2010": 1747,
      "Ġpat": 1748,
      "Ġfamily": 1749,
      "Ġest": 1750,
      "ĠSp": 1751,
      "ron": 1752,
      "Ġsmall": 1753,
      "inal": 1754,
      "ĠZ": 1755,
      "acebook": 1756,
      "Ġcost": 1757,
      "Ġable": 1758,
      "ĠYour": 1759,
      "ann": 1760,
      "Ġlittle": 1761,
      "Ġpower": 1762,
      "aut": 1763,
      "Ġcheck": 1764,
      "nIf": 1765,
      "org": 1766,
      "Ġgrow": 1767,
      "Ġschool": 1768,
      "Ġclass": 1769,
      "Ġcontact": 1770,
      "AF": 1771,
      "ĠComm": 1772,
      "redit": 1773,
      "med": 1774,
      "AB": 1775,
      "Ġask": 1776,
      "Ġref": 1777,
      "Ġimpro": 1778,
      "urity": 1779,
      "ights": 1780,
      "EN": 1781,
      "ients": 1782,
      "Ġnext": 1783,
      "ards": 1784,
      "Ġstand": 1785,
      "Ġcontract": 1786,
      "ĠThese": 1787,
      "Ġbrow": 1788,
      "Ġanother": 1789,
      "ior": 1790,
      "ills": 1791,
      "Ġincre": 1792,
      "Ġblog": 1793,
      "Ġchange": 1794,
      "aterial": 1795,
      "Ġproducts": 1796,
      "Ġput": 1797,
      "Ġconsider": 1798,
      "tiny": 1799,
      "by": 1800,
      "Ġwater": 1801,
      "ium": 1802,
      "Ġcent": 1803,
      "Ġold": 1804,
      "ĠNo": 1805,
      "Ġcol": 1806,
      "iver": 1807,
      "Ġbelie": 1808,
      "Ġlevel": 1809,
      "thers": 1810,
      "for": 1811,
      "Ġaddress": 1812,
      "uro": 1813,
      "Ġname": 1814,
      "ĠMed": 1815,
      "Ġtest": 1816,
      "ental": 1817,
      "Ġ30": 1818,
      "ization": 1819,
      "ĠComp": 1820,
      "Ġcourse": 1821,
      "ĠOr": 1822,
      "ering": 1823,
      "Ġview": 1824,
      ",âĢĿ": 1825,
      "gest": 1826,
      "ability": 1827,
      "Ġreview": 1828,
      "Ġworking": 1829,
      "gr": 1830,
      "ĠFr": 1831,
      "ĠMan": 1832,
      "ĠPost": 1833,
      "Ġhard": 1834,
      "ify": 1835,
      "ats": 1836,
      "lack": 1837,
      "ising": 1838,
      "IT": 1839,
      "Ġactiv": 1840,
      "79": 1841,
      "FB": 1842,
      "ether": 1843,
      "bout": 1844,
      "Ġthree": 1845,
      "Ġprofess": 1846,
      "AN": 1847,
      "Ġaddition": 1848,
      "AR": 1849,
      "Ġrequire": 1850,
      "ails": 1851,
      "CE": 1852,
      ".âĢĿ\\": 1853,
      "ĠWith": 1854,
      "Ġfr": 1855,
      "atter": 1856,
      "Ġjo": 1857,
      "Ġresearch": 1858,
      "ending": 1859,
      "Ġcr": 1860,
      "ney": 1861,
      "Ġbig": 1862,
      "DB": 1863,
      "990": 1864,
      "ĠĠ": 1865,
      "nPost": 1866,
      "ified": 1867,
      "ories": 1868,
      "ĠEn": 1869,
      "Ġprodu": 1870,
      "ideo": 1871,
      "Ġless": 1872,
      "Ġmonths": 1873,
      "uman": 1874,
      "tain": 1875,
      "Ġsince": 1876,
      "ading": 1877,
      "por": 1878,
      "Ġintern": 1879,
      "Ġcurrent": 1880,
      "enef": 1881,
      "Ġ15": 1882,
      "Ġequ": 1883,
      "ev": 1884,
      "Ġpract": 1885,
      "IS": 1886,
      "Ġgot": 1887,
      "Ġoper": 1888,
      "Ġchang": 1889,
      "ids": 1890,
      "Ġpage": 1891,
      "Ġcond": 1892,
      "pos": 1893,
      "mend": 1894,
      "ĠShe": 1895,
      "DE": 1896,
      "Ġdist": 1897,
      "Ġfunction": 1898,
      "uck": 1899,
      "ookie": 1900,
      "vious": 1901,
      "Ġtri": 1902,
      "Ġlet": 1903,
      "ividual": 1904,
      "Ġconsent": 1905,
      "ger": 1906,
      "ĠâĢĶ": 1907,
      "ser": 1908,
      "Ġeng": 1909,
      "ĠRep": 1910,
      "ministr": 1911,
      "à¸": 1912,
      "iron": 1913,
      "Ġmoney": 1914,
      "ok": 1915,
      "ĠGod": 1916,
      "Ġlearn": 1917,
      "Ġwhy": 1918,
      "Ġpublic": 1919,
      "nLikeL": 1920,
      "ĠMy": 1921,
      "Ġlooking": 1922,
      "witter": 1923,
      "Ġcomment": 1924,
      "69": 1925,
      "Ġpos": 1926,
      "ump": 1927,
      "Ġmov": 1928,
      "Ġ'": 1929,
      "bb": 1930,
      "Ġnews": 1931,
      "ino": 1932,
      "Ġdr": 1933,
      "ĠChrist": 1934,
      "usic": 1935,
      "Ġ.": 1936,
      "Ġreturn": 1937,
      "ĠCan": 1938,
      "Ġpresent": 1939,
      "Ġbre": 1940,
      "laim": 1941,
      "ury": 1942,
      "joy": 1943,
      "nIt": 1944,
      "âĸ": 1945,
      "outh": 1946,
      "ĠCent": 1947,
      "Ġmeet": 1948,
      "Ġappe": 1949,
      "elect": 1950,
      "Ġcase": 1951,
      "ream": 1952,
      "Ġpop": 1953,
      "Ġmaking": 1954,
      "ample": 1955,
      "ĠCo": 1956,
      "ribut": 1957,
      "not": 1958,
      "ĠThat": 1959,
      "nRead": 1960,
      "ĠWhat": 1961,
      "ource": 1962,
      "Ġturn": 1963,
      "ources": 1964,
      "ention": 1965,
      "Ġbuy": 1966,
      "isk": 1967,
      "BE": 1968,
      "Ġspecial": 1969,
      "ĠNews": 1970,
      "yn": 1971,
      "Ġcertain": 1972,
      "Ġmaterial": 1973,
      "Ġ0": 1974,
      "Ġgame": 1975,
      "Ġboard": 1976,
      "Ġphot": 1977,
      "lay": 1978,
      "aring": 1979,
      "Ġpossible": 1980,
      "Ġtoday": 1981,
      "Ġbeh": 1982,
      "Ġfre": 1983,
      "gin": 1984,
      "ĠAm": 1985,
      "Ġsocial": 1986,
      "Ġnon": 1987,
      "Ġpurch": 1988,
      "Ġet": 1989,
      "ocus": 1990,
      "Ġstudents": 1991,
      "nCont": 1992,
      "ete": 1993,
      "ĠLe": 1994,
      "orth": 1995,
      "opy": 1996,
      "ĠDo": 1997,
      "indow": 1998,
      "rem": 1999,
      "ews": 2000,
      "ales": 2001,
      "Ġrec": 2002,
      "ĠEng": 2003,
      "ret": 2004,
      "Ġconn": 2005,
      "ott": 2006,
      "LL": 2007,
      "Ġprom": 2008,
      "AE": 2009,
      "ograph": 2010,
      "Ġindividual": 2011,
      "ope": 2012,
      "Ġpa": 2013,
      "Ġword": 2014,
      "Ġfood": 2015,
      "984": 2016,
      "nCom": 2017,
      "Ġemploy": 2018,
      "Ġconst": 2019,
      "ination": 2020,
      "Ġmet": 2021,
      "Ġlim": 2022,
      "istory": 2023,
      "Ġago": 2024,
      "Ġthought": 2025,
      "Ġdi": 2026,
      "Ġkind": 2027,
      "nCl": 2028,
      "illion": 2029,
      "Ġhead": 2030,
      "ĠQu": 2031,
      "bal": 2032,
      "vernment": 2033,
      "hip": 2034,
      "Ġindust": 2035,
      "ably": 2036,
      "Ġpol": 2037,
      "Ġ2009": 2038,
      "ised": 2039,
      "Ġcookie": 2040,
      "ĠAss": 2041,
      "Ġdem": 2042,
      "Ġcreat": 2043,
      "Ġtalk": 2044,
      "ĠSc": 2045,
      "ĠPolicy": 2046,
      "921": 2047,
      "Ġbased": 2048,
      "orts": 2049,
      "Ġcover": 2050,
      "aster": 2051,
      "OU": 2052,
      "Ġlog": 2053,
      "Ġsever": 2054,
      "Ġ18": 2055,
      "ns": 2056,
      "966": 2057,
      "resent": 2058,
      "924": 2059,
      ").\\": 2060,
      "Ġagainst": 2061,
      "irm": 2062,
      "Ġfac": 2063,
      "oint": 2064,
      "ene": 2065,
      "Ġsecond": 2066,
      "urance": 2067,
      "etwork": 2068,
      "aff": 2069,
      "Ġneeds": 2070,
      "ĠApp": 2071,
      "Ġes": 2072,
      "Ġcreate": 2073,
      "âĸº": 2074,
      "Ġens": 2075,
      "ift": 2076,
      "Ġdev": 2077,
      "927": 2078,
      "Ġplease": 2079,
      "ged": 2080,
      "Ġthing": 2081,
      "ique": 2082,
      "Ġcommunity": 2083,
      "Ġcommun": 2084,
      "ĠWhen": 2085,
      "ched": 2086,
      "Ġve": 2087,
      "sw": 2088,
      "inter": 2089,
      "lish": 2090,
      "iven": 2091,
      "ancial": 2092,
      "976": 2093,
      "ived": 2094,
      "uture": 2095,
      "til": 2096,
      "ID": 2097,
      "orld": 2098,
      "925": 2099,
      "cle": 2100,
      "itive": 2101,
      "Ġaut": 2102,
      "ili": 2103,
      "Ġtimes": 2104,
      "ries": 2105,
      "conom": 2106,
      "Ġfollowing": 2107,
      "fect": 2108,
      "viron": 2109,
      "ategory": 2110,
      "olution": 2111,
      "ba": 2112,
      "955": 2113,
      "ĠTra": 2114,
      "Ġmeans": 2115,
      "975": 2116,
      "cu": 2117,
      "Ġ24": 2118,
      "Ġquality": 2119,
      "Ġtreat": 2120,
      "Ġ25": 2121,
      "Ġrecord": 2122,
      "Ġsit": 2123,
      "Ġinclude": 2124,
      "965": 2125,
      "ĠInst": 2126,
      "Ġthird": 2127,
      "ĠOur": 2128,
      "CD": 2129,
      "Ġbenef": 2130,
      "ĠUniversity": 2131,
      "oogle": 2132,
      "ners": 2133,
      "Ġspecific": 2134,
      "Ġess": 2135,
      "Ġcontrol": 2136,
      "irl": 2137,
      "Ġauthor": 2138,
      "ĠSu": 2139,
      "let": 2140,
      "Ġsuccess": 2141,
      "ively": 2142,
      "Ġoften": 2143,
      "Ġwr": 2144,
      "Th": 2145,
      "Ġeasy": 2146,
      "FD": 2147,
      "gether": 2148,
      "Ġarea": 2149,
      "Ġsoft": 2150,
      "Ġenjoy": 2151,
      "Ġchildren": 2152,
      "ĠTH": 2153,
      "Ġcap": 2154,
      "Ġprice": 2155,
      "Ġpast": 2156,
      "oose": 2157,
      "Ġhaving": 2158,
      "Ġsearch": 2159,
      "Ġothers": 2160,
      "side": 2161,
      "lies": 2162,
      "923": 2163,
      "FE": 2164,
      "roll": 2165,
      "Ġaway": 2166,
      "920": 2167,
      "Ġpain": 2168,
      "ST": 2169,
      "Ġeduc": 2170,
      "926": 2171,
      "bd": 2172,
      "Ġmar": 2173,
      "Ġlive": 2174,
      "Ġweb": 2175,
      "987": 2176,
      "ha": 2177,
      "Ġlocal": 2178,
      "ots": 2179,
      "Ġmean": 2180,
      "ĠOff": 2181,
      "Ġrecom": 2182,
      "ready": 2183,
      "pped": 2184,
      "CB": 2185,
      "ared": 2186,
      "Ġimprove": 2187,
      "ae": 2188,
      "itch": 2189,
      "Ġfeatures": 2190,
      "ĠBy": 2191,
      "Ġinc": 2192,
      "arr": 2193,
      "985": 2194,
      "iting": 2195,
      "Ġbody": 2196,
      "Ġhtt": 2197,
      "nCh": 2198,
      "oice": 2199,
      "'m": 2200,
      "802": 2201,
      "Ġelect": 2202,
      "duc": 2203,
      "986": 2204,
      "Ġ*": 2205,
      "imate": 2206,
      "ĠIntern": 2207,
      "Ġacross": 2208,
      "ethod": 2209,
      "Ġfocus": 2210,
      "wards": 2211,
      "Ġmembers": 2212,
      ">\"},\"": 2213,
      "fact": 2214,
      "Ġrele": 2215,
      "Ġmess": 2216,
      "Ġrespons": 2217,
      "ither": 2218,
      "Ġvia": 2219,
      "Ġhours": 2220,
      "Ġmind": 2221,
      "ĠDis": 2222,
      "Ġmakes": 2223,
      "Ġclick": 2224,
      "Ġtyp": 2225,
      "ibility": 2226,
      "956": 2227,
      "ze": 2228,
      "ĠAg": 2229,
      "!!": 2230,
      "Ġtogether": 2231,
      "967": 2232,
      "Ġrecommend": 2233,
      "ĠNot": 2234,
      "Ġâ": 2235,
      "vironment": 2236,
      "sel": 2237,
      "yle": 2238,
      "Ġ14": 2239,
      "Ġadministr": 2240,
      "Ġmove": 2241,
      "mit": 2242,
      "Ġ16": 2243,
      "Ġlight": 2244,
      "ala": 2245,
      "Ġsing": 2246,
      "]\\": 2247,
      "ĠService": 2248,
      "âĢ¦\\": 2249,
      "Ġbecome": 2250,
      "Ġcredit": 2251,
      "cience": 2252,
      "itor": 2253,
      "eed": 2254,
      "Ġ21": 2255,
      "Ġusers": 2256,
      "Ġever": 2257,
      "fort": 2258,
      "room": 2259,
      "lobal": 2260,
      "Ġfund": 2261,
      "Ġdevelopment": 2262,
      "ubs": 2263,
      "Ġclean": 2264,
      "utes": 2265,
      "946": 2266,
      "enn": 2267,
      "PR": 2268,
      "idd": 2269,
      "Ġdone": 2270,
      "Ġevent": 2271,
      "icles": 2272,
      "Ġmult": 2273,
      "alleng": 2274,
      "ĠArt": 2275,
      "igital": 2276,
      "ĠGu": 2277,
      "back": 2278,
      "ains": 2279,
      "Ġtell": 2280,
      "Ġexpect": 2281,
      "ently": 2282,
      "Ġteach": 2283,
      "Ġactually": 2284,
      "Ġreason": 2285,
      "Ġ13": 2286,
      "umb": 2287,
      "Ġlik": 2288,
      "Ġtax": 2289,
      "ĠCoun": 2290,
      "rive": 2291,
      "nAbout": 2292,
      "Ġdeal": 2293,
      "ulation": 2294,
      "Ġstory": 2295,
      "IC": 2296,
      "right": 2297,
      "ured": 2298,
      "ĠPart": 2299,
      "977": 2300,
      "osed": 2301,
      "Ġmen": 2302,
      "Ġreceive": 2303,
      "nLikeLike": 2304,
      "Ġcountry": 2305,
      "arch": 2306,
      "ajor": 2307,
      "Ġhouse": 2308,
      "anies": 2309,
      "Ġbelow": 2310,
      "Ġorig": 2311,
      "word": 2312,
      "Ġsug": 2313,
      "Ġwomen": 2314,
      "mp": 2315,
      "Ġalready": 2316,
      "ask": 2317,
      "Ġparticular": 2318,
      "Ġuntil": 2319,
      "Ġpot": 2320,
      "Ġnear": 2321,
      "Ġbeaut": 2322,
      "945": 2323,
      "ĠMe": 2324,
      "Ġdoing": 2325,
      "nPro": 2326,
      "Ġshort": 2327,
      "In": 2328,
      "âĢĵ": 2329,
      "ox": 2330,
      "nTop": 2331,
      "olid": 2332,
      "ĠAt": 2333,
      "Ġlow": 2334,
      "uff": 2335,
      "atform": 2336,
      "974": 2337,
      "artment": 2338,
      "ĠPM": 2339,
      "ĠHealth": 2340,
      ",\\": 2341,
      "Ġalong": 2342,
      "Ġtool": 2343,
      "raw": 2344,
      "Ġquick": 2345,
      "Ġgetting": 2346,
      "'re": 2347,
      "atic": 2348,
      "Ġpres": 2349,
      ".,": 2350,
      "cribe": 2351,
      "Ġfuture": 2352,
      "964": 2353,
      "OV": 2354,
      "ators": 2355,
      "rop": 2356,
      "Ġtrad": 2357,
      "Ġrecent": 2358,
      "nEmail": 2359,
      "Ġair": 2360,
      "Ġvers": 2361,
      "936": 2362,
      "ances": 2363,
      "AL": 2364,
      "Ġenough": 2365,
      "ĠHowever": 2366,
      "urs": 2367,
      "Ġopport": 2368,
      "ea": 2369,
      "ledge": 2370,
      "nRep": 2371,
      "Ġfield": 2372,
      "Ġseveral": 2373,
      "Ġdidn": 2374,
      "Ġocc": 2375,
      "ĠDes": 2376,
      "ully": 2377,
      "ĠColl": 2378,
      "ones": 2379,
      "iod": 2380,
      "cially": 2381,
      "Ġmedia": 2382,
      "OT": 2383,
      "Ġmom": 2384,
      "cover": 2385,
      "957": 2386,
      "ĠDr": 2387,
      "Ġjob": 2388,
      "ĠSchool": 2389,
      "ught": 2390,
      "Ġcollect": 2391,
      "edd": 2392,
      "nDe": 2393,
      "Ġpri": 2394,
      "nShare": 2395,
      "953": 2396,
      "ane": 2397,
      "lor": 2398,
      "urch": 2399,
      "Ġposts": 2400,
      "Ġexample": 2401,
      "Ġ17": 2402,
      "atural": 2403,
      "Ġvari": 2404,
      "Ġcomes": 2405,
      "Ġroom": 2406,
      "aging": 2407,
      "ourn": 2408,
      "ĠX": 2409,
      "ĠUnited": 2410,
      "ĠStud": 2411,
      "ted": 2412,
      "Ġ22": 2413,
      "Ġrequest": 2414,
      "CF": 2415,
      "clus": 2416,
      "Ġhuman": 2417,
      "Ġvideo": 2418,
      "Ġkey": 2419,
      "df": 2420,
      "ĠAM": 2421,
      "Ġinte": 2422,
      "uper": 2423,
      "ublic": 2424,
      "reen": 2425,
      "Ġfore": 2426,
      "Ġrisk": 2427,
      "urther": 2428,
      "cription": 2429,
      "Ġdoesn": 2430,
      "Ġarticle": 2431,
      "ege": 2432,
      "rain": 2433,
      "Ġ2008": 2434,
      "raft": 2435,
      "arning": 2436,
      "li": 2437,
      "Ġprovided": 2438,
      "837": 2439,
      "Ġtrack": 2440,
      "cell": 2441,
      "Ġlarge": 2442,
      "nAs": 2443,
      "Ġdiscuss": 2444,
      "Ġleast": 2445,
      "unch": 2446,
      "ule": 2447,
      "nc": 2448,
      "Ġhold": 2449,
      "nRe": 2450,
      "935": 2451,
      "Ġrelation": 2452,
      "947": 2453,
      "ĠPlease": 2454,
      "OM": 2455,
      "Ġwin": 2456,
      "Ġcontractor": 2457,
      "aa": 2458,
      "Ġconc": 2459,
      "Ġsomeone": 2460,
      "Ġsecurity": 2461,
      "AM": 2462,
      "ening": 2463,
      "atest": 2464,
      "aged": 2465,
      "urope": 2466,
      "Ġrequired": 2467,
      "lect": 2468,
      "ered": 2469,
      "nAd": 2470,
      "Ġbit": 2471,
      "nContact": 2472,
      "Ġonce": 2473,
      "ilities": 2474,
      "eter": 2475,
      "Ġleft": 2476,
      "ply": 2477,
      "ĠAmerican": 2478,
      "Ġresults": 2479,
      "alf": 2480,
      "Ġenc": 2481,
      "Ġclear": 2482,
      "Ġbrowser": 2483,
      "ference": 2484,
      "922": 2485,
      "Ġamount": 2486,
      "954": 2487,
      "916": 2488,
      "ĠOut": 2489,
      "ĠCal": 2490,
      "Ġfav": 2491,
      "Ġ:": 2492,
      "ada": 2493,
      "Ġwatch": 2494,
      "Ġperfect": 2495,
      "Ġsex": 2496,
      "Ġfar": 2497,
      "Ġline": 2498,
      "Ġtem": 2499,
      "Ġissues": 2500,
      "Ġland": 2501,
      "**": 2502,
      "Ġwhether": 2503,
      "ĠState": 2504,
      "Ġstep": 2505,
      "nAr": 2506,
      "ians": 2507,
      "ensive": 2508,
      "Ġstudy": 2509,
      "Ġindustry": 2510,
      "Ġpack": 2511,
      "Ġside": 2512,
      "ING": 2513,
      "ĠSec": 2514,
      "884": 2515,
      "ording": 2516,
      "ĠServices": 2517,
      "Ġmethod": 2518,
      "alyt": 2519,
      "Ġquestions": 2520,
      "Ġyet": 2521,
      "Ġtype": 2522,
      "ended": 2523,
      "Ġfour": 2524,
      "cast": 2525,
      "nFor": 2526,
      "lu": 2527,
      "irt": 2528,
      "bf": 2529,
      "app": 2530,
      "Ġ100": 2531,
      "ION": 2532,
      "ĠCar": 2533,
      "100": 2534,
      "Ġnecessary": 2535,
      "my": 2536,
      "Ġthough": 2537,
      "me": 2538,
      "Ġpolicy": 2539,
      "ĠRec": 2540,
      "Ġagree": 2541,
      "Ġeverything": 2542,
      "play": 2543,
      "Ġcult": 2544,
      "ror": 2545,
      "Ġoffers": 2546,
      "Ġbelieve": 2547,
      "rid": 2548,
      "900": 2549,
      "973": 2550,
      "ergy": 2551,
      "idence": 2552,
      "Ġstrateg": 2553,
      "bc": 2554,
      "Ġ+": 2555,
      "Ġvalue": 2556,
      "Ġcalled": 2557,
      "Ġreading": 2558,
      "Ġmajor": 2559,
      "ends": 2560,
      "rivate": 2561,
      "go": 2562,
      "Ġbrand": 2563,
      "AS": 2564,
      "oman": 2565,
      "915": 2566,
      "944": 2567,
      "most": 2568,
      "Ġsell": 2569,
      "Ġcompanies": 2570,
      "ðŁ": 2571,
      "963": 2572,
      "Ġetc": 2573,
      "Ġaccept": 2574,
      "Ġmanagement": 2575,
      "983": 2576,
      "Ġprofessional": 2577,
      "Ġcharact": 2578,
      "ibr": 2579,
      "nOn": 2580,
      "Ġsubject": 2581,
      "ble": 2582,
      "Ġgovernment": 2583,
      "http": 2584,
      "fr": 2585,
      "933": 2586,
      "Ġoptions": 2587,
      "ĠOne": 2588,
      "Ġsubs": 2589,
      "cip": 2590,
      "ohn": 2591,
      ".\\\"": 2592,
      "mm": 2593,
      "eral": 2594,
      "Ġtext": 2595,
      "Ġstarted": 2596,
      "Ġrepresent": 2597,
      "Ġcamp": 2598,
      "uation": 2599,
      "Ġdue": 2600,
      "Ġabove": 2601,
      "na": 2602,
      "obile": 2603,
      "Ġ23": 2604,
      "nNovember": 2605,
      "Ġbring": 2606,
      "ilar": 2607,
      "sp": 2608,
      "937": 2609,
      "ĠAct": 2610,
      "Ġmusic": 2611,
      "Ġ19": 2612,
      "aur": 2613,
      "823": 2614,
      "Ġinstall": 2615,
      "Ġdetails": 2616,
      "hing": 2617,
      "ification": 2618,
      "Ġgames": 2619,
      "Ġdam": 2620,
      "Ġchalleng": 2621,
      "Ġansw": 2622,
      "Ġcannot": 2623,
      "887": 2624,
      "ees": 2625,
      "Ġtechnology": 2626,
      "970": 2627,
      "Ġeconom": 2628,
      "ands": 2629,
      "ĠFacebook": 2630,
      "Ġoffic": 2631,
      "Ġinvol": 2632,
      "ilt": 2633,
      "Ã©": 2634,
      "Ġquestion": 2635,
      "ogn": 2636,
      "Ġhot": 2637,
      "Ġmarketing": 2638,
      "Ġwriting": 2639,
      "Ġyoung": 2640,
      "800": 2641,
      "Ġphys": 2642,
      "Ġuses": 2643,
      "ume": 2644,
      "box": 2645,
      "Ġnight": 2646,
      "osp": 2647,
      "ĠStates": 2648,
      "Ġmil": 2649,
      "ides": 2650,
      "Ġcomments": 2651,
      "UR": 2652,
      "ĠGo": 2653,
      "Ġstrong": 2654,
      "Ġcou": 2655,
      "Ġwa": 2656,
      "Ġrights": 2657,
      "nPosted": 2658,
      "itted": 2659,
      "Ġhope": 2660,
      "ored": 2661,
      "nOur": 2662,
      "ĠCity": 2663,
      "Ġbegin": 2664,
      "ET": 2665,
      "Ġperformance": 2666,
      "ĠMin": 2667,
      "ĠNow": 2668,
      "Ġenergy": 2669,
      "Ġwond": 2670,
      "ĠReply": 2671,
      "lex": 2672,
      "Ġcustomers": 2673,
      "uter": 2674,
      "885": 2675,
      "Ġclaim": 2676,
      "ĠReg": 2677,
      "urg": 2678,
      "ĠMon": 2679,
      "Ġgiven": 2680,
      "nSearch": 2681,
      "894": 2682,
      "iful": 2683,
      "Ġz": 2684,
      "Ġspace": 2685,
      "Ġtravel": 2686,
      "Ġlegal": 2687,
      "Ġcal": 2688,
      "alys": 2689,
      "891": 2690,
      "nBy": 2691,
      "iction": 2692,
      "oid": 2693,
      "ender": 2694,
      "rect": 2695,
      "Ġperiod": 2696,
      "Ġdate": 2697,
      "Ġwindow": 2698,
      "Ġann": 2699,
      "Ġexperi": 2700,
      "Ġplatform": 2701,
      "Ġabs": 2702,
      "place": 2703,
      "Ġprep": 2704,
      "Ġfla": 2705,
      "Ġensure": 2706,
      "ipping": 2707,
      "ĠWorld": 2708,
      "Ġcomb": 2709,
      "Ġey": 2710,
      "uy": 2711,
      "Ġreach": 2712,
      "ĠMarket": 2713,
      "ĠAdd": 2714,
      "Ġterm": 2715,
      "Ġport": 2716,
      "ĠGoogle": 2717,
      "Ġsoftware": 2718,
      "Ġtot": 2719,
      "Ġoption": 2720,
      "aily": 2721,
      "da": 2722,
      "igation": 2723,
      "ĠEd": 2724,
      "Ġcommon": 2725,
      "\\\\\\\\\\\\\\\\": 2726,
      "960": 2727,
      "980": 2728,
      "Ġhistory": 2729,
      "ruction": 2730,
      "Ġterms": 2731,
      "tr": 2732,
      "pecially": 2733,
      "Ġdocu": 2734,
      "Ġworks": 2735,
      "elete": 2736,
      "Ġcame": 2737,
      "ung": 2738,
      "OS": 2739,
      "Ġknown": 2740,
      "Ġmeas": 2741,
      "ball": 2742,
      "Ġregister": 2743,
      "au": 2744,
      "ĠSe": 2745,
      "ND": 2746,
      "Ġstay": 2747,
      "asing": 2748,
      "----": 2749,
      "ags": 2750,
      "Ġeither": 2751,
      "ĠUp": 2752,
      "Ġcard": 2753,
      "ĠEurope": 2754,
      "che": 2755,
      "ules": 2756,
      "Ġprovides": 2757,
      "nMay": 2758,
      "nAl": 2759,
      "Ġanything": 2760,
      "unction": 2761,
      "fo": 2762,
      "pose": 2763,
      "erc": 2764,
      "Ġdeliver": 2765,
      "Ġnetwork": 2766,
      "Ġshall": 2767,
      "time": 2768,
      "aken": 2769,
      "nSo": 2770,
      "ffic": 2771,
      "Ġenvironment": 2772,
      "Ġfinancial": 2773,
      "Ġredu": 2774,
      "do": 2775,
      "ester": 2776,
      "Ġ,": 2777,
      "ĠReview": 2778,
      "fully": 2779,
      "934": 2780,
      "ecut": 2781,
      "Ġwalk": 2782,
      "Ġstat": 2783,
      "reet": 2784,
      "826": 2785,
      "ĠFin": 2786,
      "Ġvarious": 2787,
      "ĠDep": 2788,
      "ĠLaw": 2789,
      "Ġant": 2790,
      "ĠPre": 2791,
      "Ġpress": 2792,
      "nAll": 2793,
      "Ġcas": 2794,
      "Ġwhole": 2795,
      "illed": 2796,
      "906": 2797,
      "Ġsum": 2798,
      "9700": 2799,
      "Ġbad": 2800,
      "ĠâĢ¦": 2801,
      "Ġfriends": 2802,
      "emic": 2803,
      "Ġregard": 2804,
      "nEx": 2805,
      "Ġparticip": 2806,
      "Ġcomplete": 2807,
      "8051": 2808,
      "Ġer": 2809,
      "nQ": 2810,
      "ĠBusiness": 2811,
      "Ġself": 2812,
      "Ġtraining": 2813,
      "905": 2814,
      "886": 2815,
      "ison": 2816,
      "Ġexc": 2817,
      "sing": 2818,
      "Ġtaking": 2819,
      "ett": 2820,
      "ĠRo": 2821,
      "Ġ27": 2822,
      "Ġlater": 2823,
      "fic": 2824,
      "ration": 2825,
      "ms": 2826,
      "cf": 2827,
      "ĠChe": 2828,
      "Ġdownload": 2829,
      "ĠCor": 2830,
      "itut": 2831,
      "Ġcustomer": 2832,
      "itional": 2833,
      "Ġearly": 2834,
      "part": 2835,
      "ĠTwitter": 2836,
      "Ġways": 2837,
      "Ġmot": 2838,
      "Ġsound": 2839,
      "OL": 2840,
      "olutions": 2841,
      "Ġyourself": 2842,
      "Ġeveryone": 2843,
      "gular": 2844,
      "son": 2845,
      "Ġwon": 2846,
      ",\\\"": 2847,
      "943": 2848,
      "ĠHome": 2849,
      "Ġ26": 2850,
      "883": 2851,
      "____": 2852,
      "nReplies": 2853,
      "ĠBo": 2854,
      "Ġassist": 2855,
      "soci": 2856,
      "Ġentire": 2857,
      "950": 2858,
      "aving": 2859,
      "ĠAcc": 2860,
      "Ġimpact": 2861,
      "itle": 2862,
      "ana": 2863,
      "Ġage": 2864,
      "oved": 2865,
      "Ġsingle": 2866,
      "Ġchoose": 2867,
      "917": 2868,
      "vant": 2869,
      "Ġseason": 2870,
      "Ġcategory": 2871,
      "ĠWork": 2872,
      "907": 2873,
      "ĠCol": 2874,
      "iter": 2875,
      "ĠPlan": 2876,
      "selves": 2877,
      "Ġessential": 2878,
      "Ġincludes": 2879,
      "Ġparty": 2880,
      "Ġsuggest": 2881,
      "8051802": 2882,
      "ĠSpe": 2883,
      "nThere": 2884,
      "Ġautom": 2885,
      "Ġcoun": 2886,
      "Ġhappen": 2887,
      "nWhen": 2888,
      "Ġcrit": 2889,
      "amb": 2890,
      "Ġscre": 2891,
      "Ġrespect": 2892,
      "lad": 2893,
      "Ġcity": 2894,
      "bed": 2895,
      "cing": 2896,
      "ging": 2897,
      "ried": 2898,
      "elt": 2899,
      "lic": 2900,
      "Ġpolit": 2901,
      "Ġvol": 2902,
      "Ġsent": 2903,
      "US": 2904,
      "cient": 2905,
      "atory": 2906,
      "ĠSm": 2907,
      "oon": 2908,
      "alysis": 2909,
      "Ġheart": 2910,
      "Ġseen": 2911,
      "Ġprior": 2912,
      "Ġloss": 2913,
      "Ġmillion": 2914,
      "nTo": 2915,
      "ĠGr": 2916,
      "uk": 2917,
      "ipment": 2918,
      "ĠPer": 2919,
      "chie": 2920,
      "icro": 2921,
      "Ġidea": 2922,
      "'ve": 2923,
      "Ġamong": 2924,
      "Ġproperty": 2925,
      "Ġ28": 2926,
      "Ġfurther": 2927,
      "Ġaud": 2928,
      "reg": 2929,
      "ĠBook": 2930,
      "Ġapproach": 2931,
      "ĠRead": 2932,
      "Ġchanges": 2933,
      "mission": 2934,
      "alytics": 2935,
      "ĠPl": 2936,
      "Ġcut": 2937,
      "fa": 2938,
      "Ġrange": 2939,
      "914": 2940,
      "Ġill": 2941,
      "iol": 2942,
      "Ġwent": 2943,
      "val": 2944,
      "Ġtook": 2945,
      "Ġdeterm": 2946,
      "agn": 2947,
      "Ġpurchase": 2948,
      "ĠYork": 2949,
      "Ġapply": 2950,
      "pri": 2951,
      "cd": 2952,
      "oud": 2953,
      "903": 2954,
      "vest": 2955,
      "Ġpick": 2956,
      "ĠWest": 2957,
      "ĠAfter": 2958,
      "sy": 2959,
      "ishing": 2960,
      "alt": 2961,
      "Ġcompet": 2962,
      "Ġprefer": 2963,
      "nDecember": 2964,
      "ler": 2965,
      "Ġexist": 2966,
      "nView": 2967,
      "ouch": 2968,
      "Ġbuilding": 2969,
      "Ġtrying": 2970,
      "Ġ=": 2971,
      "ises": 2972,
      "Ġop": 2973,
      "ny": 2974,
      "Ġknowledge": 2975,
      "win": 2976,
      "Ġminutes": 2977,
      "Ġcontain": 2978,
      "Ġsimply": 2979,
      "827": 2980,
      "Ġcontinu": 2981,
      "825": 2982,
      "Ġunique": 2983,
      "ony": 2984,
      "sc": 2985,
      "iam": 2986,
      "iber": 2987,
      "ivery": 2988,
      "ml": 2989,
      "ube": 2990,
      "ĠPe": 2991,
      "Ġlearning": 2992,
      "nPrivacy": 2993,
      "Ġitems": 2994,
      "Ġsimple": 2995,
      "Ġveh": 2996,
      "Ġ2007": 2997,
      "ĠCons": 2998,
      "Ġhy": 2999,
      "Ġliving": 3000,
      "Ġsize": 3001,
      "weet": 3002,
      "ley": 3003,
      "Ġbreak": 3004,
      "Ġsoon": 3005,
      "oring": 3006,
      "881": 3007,
      "Ġneeded": 3008,
      "Ġseries": 3009,
      "nYour": 3010,
      "866": 3011,
      "Ġespecially": 3012,
      "nOctober": 3013,
      "gress": 3014,
      "Ġdeb": 3015,
      "Ġhttps": 3016,
      "earn": 3017,
      "Ġsimilar": 3018,
      "igher": 3019,
      "Ġ@": 3020,
      "913": 3021,
      "ĠIm": 3022,
      "Ġdefin": 3023,
      "Ġassoci": 3024,
      "ĠBr": 3025,
      "Ġinsurance": 3026,
      "ĠNational": 3027,
      "Ġproblems": 3028,
      "Ġcreated": 3029,
      "Ġmatter": 3030,
      "ĠOf": 3031,
      "Ġrate": 3032,
      "Ġbasic": 3033,
      "EL": 3034,
      "Ġsignific": 3035,
      "Ġmiss": 3036,
      "verage": 3037,
      "ster": 3038,
      "medi": 3039,
      "Ġrelated": 3040,
      "ĠPar": 3041,
      "Ġcontinue": 3042,
      "Ġoil": 3043,
      "Ġfavor": 3044,
      "'ll": 3045,
      "ership": 3046,
      "Ġevents": 3047,
      "Ġvisitors": 3048,
      "wise": 3049,
      "atur": 3050,
      "Ġupd": 3051,
      "Ġmach": 3052,
      "Ġfeed": 3053,
      "Ġgirl": 3054,
      "OP": 3055,
      "824": 3056,
      "Ġhost": 3057,
      "ĠDay": 3058,
      "acc": 3059,
      "Ġwords": 3060,
      "IL": 3061,
      "Ġbeautiful": 3062,
      "811": 3063,
      "Ġsw": 3064,
      "Ġexpress": 3065,
      "Ġpopular": 3066,
      "ges": 3067,
      "Ġnatural": 3068,
      "ĠAre": 3069,
      "OW": 3070,
      "Ġhowever": 3071,
      "ournal": 3072,
      "erved": 3073,
      "rew": 3074,
      "Ġissue": 3075,
      "Ġnav": 3076,
      "Ġadditional": 3077,
      "nov": 3078,
      "821": 3079,
      "Ġfall": 3080,
      "Ġphone": 3081,
      "ĠIN": 3082,
      "896": 3083,
      "Ġdiffic": 3084,
      "We": 3085,
      "ĠCenter": 3086,
      "Ġmor": 3087,
      "ĠInformation": 3088,
      "ducation": 3089,
      "Ġquite": 3090,
      "apt": 3091,
      "ession": 3092,
      "cer": 3093,
      "ming": 3094,
      "ager": 3095,
      "ersonal": 3096,
      "though": 3097,
      "ĠSome": 3098,
      "azon": 3099,
      "TS": 3100,
      "ops": 3101,
      "Ġface": 3102,
      "Ġeducation": 3103,
      "ĠTHE": 3104,
      "TM": 3105,
      "light": 3106,
      "iti": 3107,
      "Ġprotect": 3108,
      "izing": 3109,
      "Ġcir": 3110,
      "904": 3111,
      "nMy": 3112,
      "empt": 3113,
      "940": 3114,
      "Ġseem": 3115,
      "Ġareas": 3116,
      "Ġx": 3117,
      "Ġprint": 3118,
      "new": 3119,
      "oes": 3120,
      "ĠJust": 3121,
      "930": 3122,
      "876": 3123,
      "895": 3124,
      "used": 3125,
      "2417": 3126,
      "ables": 3127,
      "nAdd": 3128,
      "ements": 3129,
      "Ġpret": 3130,
      "Ġextra": 3131,
      "Ġconsum": 3132,
      "Ġhom": 3133,
      "Ġtrue": 3134,
      "Ġprivate": 3135,
      "ĠProgram": 3136,
      "IV": 3137,
      "opyright": 3138,
      "Ġgeneral": 3139,
      "IP": 3140,
      "Ġdesigned": 3141,
      "Ġhappy": 3142,
      "nApril": 3143,
      "Ġconditions": 3144,
      "hib": 3145,
      "ĠSouth": 3146,
      "ĠBest": 3147,
      "rodu": 3148,
      "Ġwish": 3149,
      "Ġprevent": 3150,
      "822": 3151,
      "etimes": 3152,
      "eleb": 3153,
      "Ġisn": 3154,
      "ĠIns": 3155,
      "Ġanyone": 3156,
      "ĠWill": 3157,
      "nJune": 3158,
      "806": 3159,
      "Ġsaf": 3160,
      "nJanuary": 3161,
      "ĠAust": 3162,
      "istic": 3163,
      "Ġusually": 3164,
      "Ġsystems": 3165,
      "mercial": 3166,
      "Ġmark": 3167,
      "Delete": 3168,
      "epend": 3169,
      "Ġaction": 3170,
      "ĠAf": 3171,
      "Ġste": 3172,
      "Ġsend": 3173,
      "Ġoffice": 3174,
      "irit": 3175,
      "Ġremember": 3176,
      "Ġfit": 3177,
      "Ġforward": 3178,
      "Sh": 3179,
      "nClick": 3180,
      "Ġdom": 3181,
      "Ġdog": 3182,
      "anced": 3183,
      "Ġlikely": 3184,
      "Ġalmost": 3185,
      "EM": 3186,
      "Ġincrease": 3187,
      "Ġclose": 3188,
      "Ġupon": 3189,
      "nRec": 3190,
      "ĠRel": 3191,
      "Ġlonger": 3192,
      "nMarch": 3193,
      "Ġ50": 3194,
      "âĢĿ\\": 3195,
      "cy": 3196,
      "Ġelse": 3197,
      "Ġmodel": 3198,
      "Ġbar": 3199,
      "nSeptember": 3200,
      "815": 3201,
      "Ġsafe": 3202,
      "ux": 3203,
      "elp": 3204,
      "Ġstaff": 3205,
      "Ġmedical": 3206,
      "nAugust": 3207,
      "lier": 3208,
      "Ġconnect": 3209,
      "arant": 3210,
      "leep": 3211,
      "Ġpict": 3212,
      "IM": 3213,
      "lim": 3214,
      "Ġoriginal": 3215,
      "iet": 3216,
      "Ġleave": 3217,
      "Ġtreatment": 3218,
      "âĢĿ,": 3219,
      "ring": 3220,
      "gy": 3221,
      "Ġtaken": 3222,
      "Ġprobably": 3223,
      "oph": 3224,
      "Ġrepair": 3225,
      "Wh": 3226,
      "ĠBl": 3227,
      "ĠNorth": 3228,
      "....": 3229,
      "Ġdigital": 3230,
      "Ġadministrator": 3231,
      "Ġskills": 3232,
      "Ġreceived": 3233,
      "845": 3234,
      "Ġlatest": 3235,
      "Ġadvert": 3236,
      "807": 3237,
      "Ġwritten": 3238,
      "Ġapplication": 3239,
      "ĠGroup": 3240,
      "Ġlic": 3241,
      "oci": 3242,
      "Ġsignificant": 3243,
      "nAnd": 3244,
      "ival": 3245,
      "ĠPark": 3246,
      "just": 3247,
      "Ġ29": 3248,
      "ape": 3249,
      "azing": 3250,
      "820": 3251,
      "ĠHere": 3252,
      "Ġfive": 3253,
      "ĠPres": 3254,
      "805": 3255,
      "Ġtakes": 3256,
      "97002417": 3257,
      "nReplyDelete": 3258,
      "Ġsites": 3259,
      "Ġachie": 3260,
      "Ġactivities": 3261,
      "ole": 3262,
      "Ġmember": 3263,
      "uses": 3264,
      "816": 3265,
      "Ġcode": 3266,
      "AP": 3267,
      "Ġrather": 3268,
      ");": 3269,
      "eph": 3270,
      "Ġidentif": 3271,
      "Ġred": 3272,
      "Ġbooks": 3273,
      "Ġmatch": 3274,
      "IR": 3275,
      "ĠHigh": 3276,
      "eneral": 3277,
      "Ġwonder": 3278,
      "nJuly": 3279,
      "Ġblack": 3280,
      "Ġut": 3281,
      "Ġtold": 3282,
      "Ġannoun": 3283,
      "ille": 3284,
      "Ġwanted": 3285,
      "804": 3286,
      "ĠHis": 3287,
      "Ġnothing": 3288,
      "Ġprevious": 3289,
      "Ġhigher": 3290,
      "coming": 3291,
      "ĠPrivacy": 3292,
      "Ġhelps": 3293,
      "Ġpurpose": 3294,
      "imum": 3295,
      "Ġmanu": 3296,
      "855": 3297,
      "ĠProf": 3298,
      "ĠGe": 3299,
      "uild": 3300,
      "893": 3301,
      "Ġpractice": 3302,
      "ĠDon": 3303,
      "ubscribe": 3304,
      "Ġmanufact": 3305,
      "cho": 3306,
      "Ġpaper": 3307,
      "Ġobject": 3308,
      "Ġsett": 3309,
      "based": 3310,
      "Ġadded": 3311,
      "ĠTechn": 3312,
      "Ġfast": 3313,
      "0000": 3314,
      "asons": 3315,
      "Ġweight": 3316,
      "ĠPosts": 3317,
      "Ġappear": 3318,
      "nGet": 3319,
      "pper": 3320,
      "Ġclos": 3321,
      "à¤": 3322,
      "Ġoutside": 3323,
      "Ġfront": 3324,
      "ault": 3325,
      "agram": 3326,
      "bsites": 3327,
      "dc": 3328,
      "ĠJo": 3329,
      "ĠJohn": 3330,
      "Ġrecogn": 3331,
      "ĠAmerica": 3332,
      "Ġcoming": 3333,
      "864": 3334,
      "ructure": 3335,
      "aign": 3336,
      "Ġtopic": 3337,
      "iple": 3338,
      "CH": 3339,
      "IG": 3340,
      "irth": 3341,
      "Ġfirm": 3342,
      "onym": 3343,
      "854": 3344,
      "ceed": 3345,
      "Ġtre": 3346,
      "Ġconcern": 3347,
      "ivity": 3348,
      "ief": 3349,
      "Ġrunning": 3350,
      "856": 3351,
      "aste": 3352,
      "Ġloans": 3353,
      "Ġsel": 3354,
      "981": 3355,
      "Ġter": 3356,
      "nHe": 3357,
      "Ġstored": 3358,
      "Ġengine": 3359,
      "iable": 3360,
      "abor": 3361,
      "Ġcharacter": 3362,
      "ĠFrom": 3363,
      "Ġbox": 3364,
      "ĠAir": 3365,
      "itation": 3366,
      "Ġworth": 3367,
      "Ġrefer": 3368,
      "amer": 3369,
      "Ġdou": 3370,
      "Ġcolor": 3371,
      "Ġweeks": 3372,
      "971": 3373,
      "Ġestab": 3374,
      "aker": 3375,
      "Ġsol": 3376,
      "Ġblock": 3377,
      "Ġglobal": 3378,
      "ĠBlog": 3379,
      "nEn": 3380,
      "hood": 3381,
      "mon": 3382,
      "Ġposition": 3383,
      "Ġpotential": 3384,
      "alan": 3385,
      "ports": 3386,
      "Ġ*\\": 3387,
      "875": 3388,
      "ography": 3389,
      "Ġcomplet": 3390,
      "Ġforum": 3391,
      "formance": 3392,
      "Ġcorrect": 3393,
      "ris": 3394,
      "ĠInc": 3395,
      "Ġfail": 3396,
      "Ġplug": 3397,
      "Ġtypes": 3398,
      "836": 3399,
      "ĠTrans": 3400,
      "nFebruary": 3401,
      "Ġhon": 3402,
      "865": 3403,
      "inary": 3404,
      "ĠOver": 3405,
      "iforn": 3406,
      "Ġgen": 3407,
      "html": 3408,
      "nMore": 3409,
      "846": 3410,
      "Ġhalf": 3411,
      "Ġagre": 3412,
      "Ġcomfort": 3413,
      "Ġdifficult": 3414,
      "Ġpublished": 3415,
      "Ġcell": 3416,
      "ĠBar": 3417,
      "Ġguid": 3418,
      "Ġsales": 3419,
      "Ġmaintain": 3420,
      "Ġtools": 3421,
      "Ġpretty": 3422,
      "Ġ{": 3423,
      "Ġlanguage": 3424,
      "874": 3425,
      "ederal": 3426,
      "ĠðŁ": 3427,
      "nes": 3428,
      "list": 3429,
      "Ġrole": 3430,
      "Ġenter": 3431,
      "Ġanaly": 3432,
      "Ġmass": 3433,
      "face": 3434,
      "low": 3435,
      "Ġregular": 3436,
      "EO": 3437,
      "898": 3438,
      "Ġnorm": 3439,
      "ĠFree": 3440,
      "Ġopportunity": 3441,
      "ica": 3442,
      "Ġgra": 3443,
      "su": 3444,
      "Ġsuper": 3445,
      "ĠLo": 3446,
      "ĠInter": 3447,
      "db": 3448,
      "ease": 3449,
      "ĠDirect": 3450,
      "ky": 3451,
      "Ġsat": 3452,
      "ĠMc": 3453,
      "rup": 3454,
      "ĠGD": 3455,
      "Ġexplain": 3456,
      "ĠUse": 3457,
      "onse": 3458,
      "SS": 3459,
      "blog": 3460,
      "ĠData": 3461,
      "Ġtrust": 3462,
      "235": 3463,
      "Ġseems": 3464,
      "istor": 3465,
      "Ġversion": 3466,
      "ĠComments": 3467,
      "897": 3468,
      "pens": 3469,
      "Ġremain": 3470,
      "Ġexact": 3471,
      "ĠBlack": 3472,
      "ifornia": 3473,
      "Ġfoot": 3474,
      "ĠCounty": 3475,
      "fc": 3476,
      "vis": 3477,
      "Ġsource": 3478,
      "ĠCour": 3479,
      "877": 3480,
      "Ġbenefits": 3481,
      "Ġproviding": 3482,
      "hold": 3483,
      "ĠBro": 3484,
      "ĠDesign": 3485,
      "iles": 3486,
      "Ġdeath": 3487,
      "ari": 3488,
      "Ġclients": 3489,
      "OVID": 3490,
      "ĠPa": 3491,
      "nFacebook": 3492,
      "Ġprograms": 3493,
      "Ġkids": 3494,
      "aby": 3495,
      "Ġcause": 3496,
      "Ġstop": 3497,
      "833": 3498,
      "834": 3499,
      "ĠHer": 3500,
      "care": 3501,
      "814": 3502,
      "Ġpoints": 3503,
      "ĠWord": 3504,
      "St": 3505,
      "ama": 3506,
      "ĠSer": 3507,
      "835": 3508,
      "mas": 3509,
      "ĠEducation": 3510,
      "off": 3511,
      "ĠĠĠĠ": 3512,
      "ological": 3513,
      "imal": 3514,
      "Ġpercent": 3515,
      "867": 3516,
      "Ġemb": 3517,
      "ciety": 3518,
      "over": 3519,
      "ĠHouse": 3520,
      "Ġcases": 3521,
      "year": 3522,
      "nHome": 3523,
      "Ġloan": 3524,
      "Ġfire": 3525,
      "orage": 3526,
      "Ġshop": 3527,
      "ks": 3528,
      "Ġple": 3529,
      "Ġwhite": 3530,
      "alities": 3531,
      "ĠCookie": 3532,
      "ĠChar": 3533,
      "cellent": 3534,
      "Ġinteract": 3535,
      "Ġmoment": 3536,
      "Ġconsult": 3537,
      "ude": 3538,
      "enced": 3539,
      "Ġstudent": 3540,
      "Ġselect": 3541,
      "ĠAssoci": 3542,
      "Ġready": 3543,
      "ĠAc": 3544,
      "Ġinsp": 3545,
      "Ġgrowth": 3546,
      "ships": 3547,
      "Ġsym": 3548,
      "Ġcurrently": 3549,
      "nUn": 3550,
      "ĠInternational": 3551,
      "net": 3552,
      "206": 3553,
      "ided": 3554,
      "nRel": 3555,
      "poses": 3556,
      "plement": 3557,
      "Ġabsolut": 3558,
      "str": 3559,
      "iece": 3560,
      "Ġlives": 3561,
      "Ġsens": 3562,
      "961": 3563,
      "Ġdest": 3564,
      "Ġskin": 3565,
      "Ġdisplay": 3566,
      "Ġbehind": 3567,
      "Ġallows": 3568,
      "Ġstyle": 3569,
      "Ġbank": 3570,
      "istrict": 3571,
      "Ġsharing": 3572,
      "Ġbed": 3573,
      "Ġwrite": 3574,
      "Ġinj": 3575,
      "Ġstock": 3576,
      "Ġaccording": 3577,
      "ades": 3578,
      "Ġquickly": 3579,
      "ategorized": 3580,
      "Ġtable": 3581,
      "Ġwall": 3582,
      "nNo": 3583,
      "ĠTop": 3584,
      "Ġdeep": 3585,
      "ĠEnglish": 3586,
      "ham": 3587,
      "ĠCompany": 3588,
      "ideos": 3589,
      "Ġtotal": 3590,
      "Ġdirectly": 3591,
      "Ġresources": 3592,
      "ustain": 3593,
      "fd": 3594,
      "Ġblood": 3595,
      "Ġmaterials": 3596,
      "Ġcy": 3597,
      "dom": 3598,
      "200": 3599,
      "Ġcosts": 3600,
      "Ġmix": 3601,
      "Ġimmedi": 3602,
      "ĠOnline": 3603,
      "Ġeffective": 3604,
      "adu": 3605,
      "Ġrelevant": 3606,
      "Ġobs": 3607,
      "Ġflo": 3608,
      "cb": 3609,
      "erap": 3610,
      "Ġmyself": 3611,
      "Ġcomputer": 3612,
      "ara": 3613,
      "miss": 3614,
      "ses": 3615,
      "Ġlower": 3616,
      "reci": 3617,
      "rel": 3618,
      "Ġthroughout": 3619,
      "sych": 3620,
      "Ġdeg": 3621,
      "Ġnote": 3622,
      "Ġshows": 3623,
      "Ġviol": 3624,
      "847": 3625,
      "ĠCare": 3626,
      "UT": 3627,
      "fb": 3628,
      "813": 3629,
      "cul": 3630,
      "Ġaccom": 3631,
      "This": 3632,
      "Ġexcept": 3633,
      "Ġprojects": 3634,
      "Ġsense": 3635,
      "Ġindic": 3636,
      "rap": 3637,
      "ĠGet": 3638,
      "atives": 3639,
      "234": 3640,
      "iddle": 3641,
      "Ġequipment": 3642,
      "ĠLife": 3643,
      "lling": 3644,
      "Ġimage": 3645,
      "EW": 3646,
      "ĠIndia": 3647,
      "Ġrelationship": 3648,
      "nJo": 3649,
      "ground": 3650,
      "Ġasked": 3651,
      "Ġcondition": 3652,
      "ĠThanks": 3653,
      "ĠManagement": 3654,
      "ĠSte": 3655,
      "Ġwrong": 3656,
      "epar": 3657,
      "ĠDevelop": 3658,
      "nNews": 3659,
      "Ġability": 3660,
      "Ġcert": 3661,
      "PS": 3662,
      "Ġwoman": 3663,
      "itute": 3664,
      "uge": 3665,
      "817": 3666,
      "Ġprim": 3667,
      "Ġcouple": 3668,
      "ĠEl": 3669,
      "istics": 3670,
      "Ġcollection": 3671,
      "bit": 3672,
      "Ġamazing": 3673,
      "Ġexpert": 3674,
      "Ġideas": 3675,
      "857": 3676,
      "ause": 3677,
      "Ġpartners": 3678,
      "Ġinside": 3679,
      "udd": 3680,
      "951": 3681,
      "ially": 3682,
      "Ġdecision": 3683,
      "elcome": 3684,
      "844": 3685,
      "Ġfinal": 3686,
      "Ġchoice": 3687,
      "Ġaffect": 3688,
      "amily": 3689,
      "Ġeasily": 3690,
      "unities": 3691,
      "Ġimm": 3692,
      "Ġneg": 3693,
      "ĠGDPR": 3694,
      "Ġwebsites": 3695,
      "nQu": 3696,
      "ducts": 3697,
      "iring": 3698,
      "par": 3699,
      "abled": 3700,
      "Ġlay": 3701,
      "Ġmention": 3702,
      "ĠAfric": 3703,
      "ĠWhile": 3704,
      "Ġorganization": 3705,
      "Ġproduction": 3706,
      "add": 3707,
      "Ġdocument": 3708,
      "ests": 3709,
      "onymous": 3710,
      "nPh": 3711,
      "Ġvariety": 3712,
      "ĠMod": 3713,
      "Ġpayment": 3714,
      "ĠâĨ": 3715,
      "Ġexam": 3716,
      "illing": 3717,
      "Ġdetail": 3718,
      "Ġep": 3719,
      "Ġfile": 3720,
      "890": 3721,
      "Ġcountries": 3722,
      "Ġdaily": 3723,
      "803": 3724,
      "ma": 3725,
      "PM": 3726,
      "opping": 3727,
      "cks": 3728,
      "Ġroad": 3729,
      "etic": 3730,
      "LC": 3731,
      "esus": 3732,
      "ĠLink": 3733,
      "Ġwar": 3734,
      "ĠDec": 3735,
      "Ġadvice": 3736,
      "Ġflow": 3737,
      "Ġpurposes": 3738,
      "Ġfig": 3739,
      "ENT": 3740,
      "Ġlimited": 3741,
      "ibrary": 3742,
      "Ġinternational": 3743,
      "Ġtarget": 3744,
      "put": 3745,
      "change": 3746,
      "board": 3747,
      "Ġincluded": 3748,
      "Ġdelivery": 3749,
      "ĠTerms": 3750,
      "nFollow": 3751,
      "Ġeffic": 3752,
      "nPre": 3753,
      "ĠLog": 3754,
      "Ġanswer": 3755,
      "ĠUK": 3756,
      "205": 3757,
      "Ġmessage": 3758,
      "873": 3759,
      "Ġ2006": 3760,
      "oday": 3761,
      "Ġanalysis": 3762,
      "Ġinform": 3763,
      "Ġmultiple": 3764,
      "ĠPR": 3765,
      "Ġindividuals": 3766,
      "mark": 3767,
      "Ġseek": 3768,
      ";\\": 3769,
      "ĠPlay": 3770,
      "Ġground": 3771,
      "863": 3772,
      "Ġones": 3773,
      "ĠCook": 3774,
      "press": 3775,
      "itely": 3776,
      "Ġextrem": 3777,
      "Ġsection": 3778,
      "Ġinvestment": 3779,
      "Ġrad": 3780,
      "Ġsale": 3781,
      "nLe": 3782,
      "Ġsafety": 3783,
      "Ġheld": 3784,
      "Ġsix": 3785,
      "wood": 3786,
      "ownload": 3787,
      "edu": 3788,
      "col": 3789,
      "PA": 3790,
      "910": 3791,
      "Ġbehav": 3792,
      "here": 3793,
      "Ġimages": 3794,
      "Ġbi": 3795,
      "isc": 3796,
      "nWhy": 3797,
      "Ġhair": 3798,
      "oke": 3799,
      "nRes": 3800,
      "Ġworked": 3801,
      "Ġdevice": 3802,
      "Ġappropri": 3803,
      "ington": 3804,
      "Ġintegr": 3805,
      "band": 3806,
      "Ġpatients": 3807,
      "Ġfix": 3808,
      "ĠWar": 3809,
      "276": 3810,
      "Ġdiscover": 3811,
      "ĠAmazon": 3812,
      "Ġarch": 3813,
      "Ġinternet": 3814,
      "nNew": 3815,
      "ech": 3816,
      "146": 3817,
      "Ġcur": 3818,
      "ĠMedia": 3819,
      "Ġsave": 3820,
      "itary": 3821,
      "nCon": 3822,
      "Ġheav": 3823,
      "Ġresponsible": 3824,
      "ker": 3825,
      "mitted": 3826,
      "Ġinteresting": 3827,
      "Ġthemselves": 3828,
      "2021": 3829,
      "Ġu": 3830,
      "nAdvert": 3831,
      "Ġdrive": 3832,
      "Ġfilm": 3833,
      "Ġenh": 3834,
      "ĠÂ»": 3835,
      "Ġpers": 3836,
      "ĠWeb": 3837,
      "interest": 3838,
      "iff": 3839,
      "ilies": 3840,
      "Ġnational": 3841,
      "erve": 3842,
      "832": 3843,
      "avid": 3844,
      "Ġstandard": 3845,
      "Ġvehicle": 3846,
      "ĠPat": 3847,
      "Ġinstead": 3848,
      "Ġavoid": 3849,
      "more": 3850,
      "ĠRem": 3851,
      "nPlease": 3852,
      "Ġpan": 3853,
      "Ġnice": 3854,
      "aries": 3855,
      "Ġgroups": 3856,
      "ĠEv": 3857,
      "ctor": 3858,
      "ĠFirst": 3859,
      "145": 3860,
      "field": 3861,
      "itchen": 3862,
      "Ġthinking": 3863,
      "Ġlevels": 3864,
      "853": 3865,
      "992": 3866,
      "Ġitem": 3867,
      "oto": 3868,
      "Ġitself": 3869,
      "Ġattack": 3870,
      "Ġfavorite": 3871,
      "vey": 3872,
      "Ġfa": 3873,
      "isions": 3874,
      "Ġimplement": 3875,
      "Ġlost": 3876,
      "ĠOF": 3877,
      "Ġlab": 3878,
      "Ġsolution": 3879,
      "ĠResearch": 3880,
      "Ġcash": 3881,
      "843": 3882,
      "lam": 3883,
      "lement": 3884,
      "Ġver": 3885,
      "Ġlocation": 3886,
      "comes": 3887,
      "nNecessary": 3888,
      "ĠCalifornia": 3889,
      "Ġaccur": 3890,
      "ĠReal": 3891,
      "oms": 3892,
      "Ġunderstanding": 3893,
      "ĠRet": 3894,
      "Ġhighly": 3895,
      "ĠTO": 3896,
      "Ġnature": 3897,
      "Ġlif": 3898,
      "Ġstories": 3899,
      "226": 3900,
      "931": 3901,
      "Ġsect": 3902,
      "Ġceleb": 3903,
      "Ch": 3904,
      "tra": 3905,
      "PL": 3906,
      "Ġprivacy": 3907,
      "203": 3908,
      "237": 3909,
      "pm": 3910,
      "Ġplayers": 3911,
      "Ġregul": 3912,
      "941": 3913,
      "Ġlooks": 3914,
      "ĠTV": 3915,
      "tion": 3916,
      "ĠCanada": 3917,
      "Ġcasino": 3918,
      "anch": 3919,
      "yl": 3920,
      "Ġsituation": 3921,
      "Ġcampaign": 3922,
      "ugs": 3923,
      "arter": 3924,
      "otes": 3925,
      "letter": 3926,
      "Ġofficial": 3927,
      "ĠDepartment": 3928,
      "Ġ31": 3929,
      "Ġinterested": 3930,
      "Ġencour": 3931,
      "rim": 3932,
      "ĠAut": 3933,
      "Ġtouch": 3934,
      "ĠPresident": 3935,
      "aling": 3936,
      "Ġparts": 3937,
      "eature": 3938,
      "Ġlinks": 3939,
      "ĠEvery": 3940,
      "unctional": 3941,
      "ĠCa": 3942,
      "Ġrecently": 3943,
      "ĠÐ": 3944,
      "Ġsched": 3945,
      "Ġphysical": 3946,
      "body": 3947,
      "Ġreply": 3948,
      "unt": 3949,
      "Ġguarant": 3950,
      "state": 3951,
      "ĠChina": 3952,
      "ĠâĢ¢": 3953,
      "Ġbott": 3954,
      "ĠSystem": 3955,
      "Ġsepar": 3956,
      "860": 3957,
      "ĠRuss": 3958,
      "Ġserious": 3959,
      "ĠMost": 3960,
      "apan": 3961,
      "ĠYear": 3962,
      "ĠAustral": 3963,
      "Ġintrodu": 3964,
      "ams": 3965,
      "Ġdriv": 3966,
      "ĠAb": 3967,
      "AG": 3968,
      "Ġsolutions": 3969,
      "Ġopp": 3970,
      "Ġwide": 3971,
      "ĠMich": 3972,
      "ribution": 3973,
      "Ġconsidered": 3974,
      "Ġresponse": 3975,
      "Ġgives": 3976,
      "Ġbuilt": 3977,
      "500": 3978,
      "las": 3979,
      "ĠPol": 3980,
      "check": 3981,
      "rast": 3982,
      "Ġcompletely": 3983,
      "Ġspeak": 3984,
      "Ġhit": 3985,
      "It": 3986,
      "Ġmag": 3987,
      "ĠKing": 3988,
      "Ġaw": 3989,
      "Â®": 3990,
      "Ġdamage": 3991,
      "Ġestate": 3992,
      "eless": 3993,
      "Ġobtain": 3994,
      "Ġmobile": 3995,
      "Ġmodern": 3996,
      "Ġsleep": 3997,
      "ero": 3998,
      "Ĥ¬": 3999,
      "Ġsaw": 4000,
      "Ġcareer": 4001,
      "Ġrequirements": 4002,
      "ville": 4003,
      "nTwitter": 4004,
      "Ġcourt": 4005,
      "lation": 4006,
      "ka": 4007,
      "âĢ¢": 4008,
      "):": 4009,
      "zz": 4010,
      "Ġpages": 4011,
      "Ġleading": 4012,
      "ĠFrid": 4013,
      "Ġgoes": 4014,
      "ĠGerm": 4015,
      "ronic": 4016,
      "Ġinnov": 4017,
      "quired": 4018,
      "porate": 4019,
      "nect": 4020,
      "odcast": 4021,
      "Ġattention": 4022,
      "Ġattempt": 4023,
      "ashion": 4024,
      "ĠSim": 4025,
      "thern": 4026,
      "Ġorganiz": 4027,
      "like": 4028,
      "istry": 4029,
      "Ġconcept": 4030,
      "Ġreviews": 4031,
      "Ġmeeting": 4032,
      "set": 4033,
      "ĠCOVID": 4034,
      "TH": 4035,
      "ders": 4036,
      "Ġagency": 4037,
      "OD": 4038,
      ".\\\"\\": 4039,
      "ĠEast": 4040,
      "nder": 4041,
      "Ġcool": 4042,
      "Ġemployees": 4043,
      "ĠSan": 4044,
      "ĠPay": 4045,
      "255": 4046,
      "Ġcry": 4047,
      "Ġexpl": 4048,
      "ida": 4049,
      "php": 4050,
      "emb": 4051,
      "ĠJesus": 4052,
      "Ġcommit": 4053,
      "Ġpath": 4054,
      "Ġactivity": 4055,
      "river": 4056,
      "Ġtour": 4057,
      "ension": 4058,
      "Ġplaying": 4059,
      "arden": 4060,
      "rown": 4061,
      "ĠThank": 4062,
      "ĠAny": 4063,
      "ĠStr": 4064,
      "ĠAND": 4065,
      "oul": 4066,
      "Ġcenter": 4067,
      "ores": 4068,
      "Ġparents": 4069,
      "Ġstrength": 4070,
      "aves": 4071,
      "Ġthank": 4072,
      "464": 4073,
      "972": 4074,
      "476": 4075,
      "ĠArch": 4076,
      "Ġidentify": 4077,
      "MS": 4078,
      "116": 4079,
      "ni": 4080,
      "top": 4081,
      "nBut": 4082,
      "airs": 4083,
      "233": 4084,
      "Ġregarding": 4085,
      "Ġdraw": 4086,
      "Ġ40": 4087,
      "Ġcreating": 4088,
      "880": 4089,
      "Ġhands": 4090,
      "Ġrev": 4091,
      "Ġclin": 4092,
      "Ġlocated": 4093,
      "ico": 4094,
      "225": 4095,
      "Ġtransfer": 4096,
      "ults": 4097,
      "Ġsun": 4098,
      "Ġappreci": 4099,
      "216": 4100,
      "encies": 4101,
      "Ġscience": 4102,
      "nual": 4103,
      "ĠLa": 4104,
      "force": 4105,
      "Ġinflu": 4106,
      "982": 4107,
      "236": 4108,
      "Ġplugin": 4109,
      "icine": 4110,
      "Ġexerc": 4111,
      "Ġexcellent": 4112,
      "Ġplans": 4113,
      "ties": 4114,
      "Ġresident": 4115,
      "ancy": 4116,
      "haps": 4117,
      "Ġaverage": 4118,
      "==": 4119,
      "911": 4120,
      "204": 4121,
      "962": 4122,
      "Ġinvolved": 4123,
      "ctions": 4124,
      "Ġopin": 4125,
      "Ġnotice": 4126,
      "852": 4127,
      "nSubscribe": 4128,
      "Ġgoal": 4129,
      "ray": 4130,
      "where": 4131,
      "105": 4132,
      "lands": 4133,
      "order": 4134,
      "Ġpark": 4135,
      "Ġindepend": 4136,
      "ondon": 4137,
      "Ġsometimes": 4138,
      "Ġshipping": 4139,
      "Ġcomplex": 4140,
      "Ġcand": 4141,
      "nWith": 4142,
      "onday": 4143,
      "udget": 4144,
      "ĠAp": 4145,
      "mod": 4146,
      "Ġcleaning": 4147,
      "arily": 4148,
      "ires": 4149,
      "2020": 4150,
      "175": 4151,
      "ament": 4152,
      "Ġsong": 4153,
      "ĠPla": 4154,
      "ĠGood": 4155,
      "Ġdefinitely": 4156,
      "Ġchance": 4157,
      "Ġdoor": 4158,
      "cil": 4159,
      "365": 4160,
      "Ġscreen": 4161,
      "ĠHar": 4162,
      "asy": 4163,
      "Ġculture": 4164,
      "Ġgain": 4165,
      "ooth": 4166,
      "Ġgets": 4167,
      "106": 4168,
      "isement": 4169,
      "ĠPort": 4170,
      "party": 4171,
      "ald": 4172,
      "Ġtro": 4173,
      "Ġotherwise": 4174,
      "ĠCollege": 4175,
      "nDes": 4176,
      "215": 4177,
      "olicies": 4178,
      "ĠConsent": 4179,
      "edding": 4180,
      "ĠFriday": 4181,
      "115": 4182,
      "Ġabsolutely": 4183,
      "Ġapplic": 4184,
      "eep": 4185,
      "news": 4186,
      "tag": 4187,
      "Ġmis": 4188,
      "Ġgiving": 4189,
      "Ġlate": 4190,
      "lant": 4191,
      "pa": 4192,
      "Â©": 4193,
      "nRelated": 4194,
      "ĠInternet": 4195,
      "itable": 4196,
      "Ġsettings": 4197,
      "Ġdeveloped": 4198,
      "âĢ¯": 4199,
      "Ġcra": 4200,
      "Ġfight": 4201,
      "ĠSelect": 4202,
      "ĠSum": 4203,
      "attle": 4204,
      "306": 4205,
      "Ġpolitical": 4206,
      "izes": 4207,
      "ael": 4208,
      "Ġstra": 4209,
      "Ġreasons": 4210,
      "ĠEar": 4211,
      "ificate": 4212,
      "Ġdescri": 4213,
      "ifications": 4214,
      "ourney": 4215,
      "chan": 4216,
      "Ġjud": 4217,
      "cious": 4218,
      "Ġpositive": 4219,
      "Ġmus": 4220,
      "know": 4221,
      "ecause": 4222,
      "Ġjoin": 4223,
      "Ġargu": 4224,
      "Ġrules": 4225,
      "II": 4226,
      "LE": 4227,
      "Ġguide": 4228,
      "Ġassess": 4229,
      "Ġappropriate": 4230,
      "137": 4231,
      "ĠAlso": 4232,
      "Ġpaid": 4233,
      "Ġfully": 4234,
      "ĠMr": 4235,
      "igate": 4236,
      "cholar": 4237,
      "anger": 4238,
      "ologies": 4239,
      "key": 4240,
      "iding": 4241,
      "Ġstuff": 4242,
      "254": 4243,
      "Ġsubst": 4244,
      "ĠCle": 4245,
      "ĠWell": 4246,
      "ĠSw": 4247,
      "ĠGreat": 4248,
      "ĠNe": 4249,
      "egal": 4250,
      "ĠÂ·": 4251,
      "ĠGeneral": 4252,
      "Ġpassword": 4253,
      "ĠThen": 4254,
      "Ġstorage": 4255,
      "Ġprofession": 4256,
      "Ġdiv": 4257,
      "Press": 4258,
      "Ġpiece": 4259,
      "Ġfair": 4260,
      "Ġrelease": 4261,
      "Ġtowards": 4262,
      "bor": 4263,
      "Ġregistered": 4264,
      "Ġbalan": 4265,
      "Ġ>": 4266,
      "Ġqual": 4267,
      "Ġeffects": 4268,
      "Ġsus": 4269,
      "Ġstates": 4270,
      "Ġdream": 4271,
      "AY": 4272,
      "oly": 4273,
      "Ġsaying": 4274,
      "Ġassociated": 4275,
      "Ġmachine": 4276,
      "orney": 4277,
      "Ġbusinesses": 4278,
      "Ġdifference": 4279,
      "istration": 4280,
      "wo": 4281,
      "Ġsqu": 4282,
      "Ġda": 4283,
      "ĠBrit": 4284,
      "Ġauth": 4285,
      "no": 4286,
      "ĠDel": 4287,
      "rial": 4288,
      "action": 4289,
      "Ġstress": 4290,
      "ĠTy": 4291,
      "Ġspeed": 4292,
      "928": 4293,
      "Ġtopics": 4294,
      "ĠPersonal": 4295,
      "ĠChristmas": 4296,
      "Ġprices": 4297,
      "Ġemerg": 4298,
      "Ġrates": 4299,
      "TR": 4300,
      "Ġreduce": 4301,
      "Ġball": 4302,
      "Ġconsist": 4303,
      "Ġmorning": 4304,
      "Ġhealthy": 4305,
      "Ġfresh": 4306,
      "umber": 4307,
      "244": 4308,
      "ĠOffice": 4309,
      "133": 4310,
      "quis": 4311,
      "Ġpen": 4312,
      "Ġstarting": 4313,
      "urb": 4314,
      "Ġprogress": 4315,
      "ran": 4316,
      "ibly": 4317,
      "nArch": 4318,
      "Ġsummer": 4319,
      "Ġconduct": 4320,
      "Ġinstruct": 4321,
      "Ġachieve": 4322,
      "135": 4323,
      "Ġtel": 4324,
      "Ġads": 4325,
      "Ġsurpr": 4326,
      "166": 4327,
      "Ġfelt": 4328,
      "Ġtechnical": 4329,
      "ĠScience": 4330,
      "Ġwarm": 4331,
      "zy": 4332,
      "ows": 4333,
      "Ġprin": 4334,
      "amed": 4335,
      "Ġsil": 4336,
      "Ġiniti": 4337,
      "rate": 4338,
      "oving": 4339,
      "Ġfunctionalities": 4340,
      "icated": 4341,
      "\\\":": 4342,
      "Ø§": 4343,
      "uration": 4344,
      "Ġsupply": 4345,
      "Ġcross": 4346,
      "ford": 4347,
      "ken": 4348,
      "Ġrespond": 4349,
      "Ġsatis": 4350,
      "Ġic": 4351,
      "Ġplanning": 4352,
      "sequ": 4353,
      "Ġpartner": 4354,
      "Ġtask": 4355,
      "Ġtown": 4356,
      "atal": 4357,
      "265": 4358,
      "Ġpred": 4359,
      "itect": 4360,
      "Ġbase": 4361,
      "ĠSite": 4362,
      "ĠWebsite": 4363,
      "245": 4364,
      "emy": 4365,
      "275": 4366,
      "Ġsold": 4367,
      "Ġpromot": 4368,
      "*\\": 4369,
      "Ġphotos": 4370,
      "OC": 4371,
      "ĠSk": 4372,
      "rest": 4373,
      "ĠDet": 4374,
      "house": 4375,
      "lin": 4376,
      "Ġmax": 4377,
      "unday": 4378,
      "952": 4379,
      "nPer": 4380,
      "cel": 4381,
      "256": 4382,
      "cape": 4383,
      "103": 4384,
      "ĠMonth": 4385,
      "810": 4386,
      "ospital": 4387,
      "266": 4388,
      "375": 4389,
      "214": 4390,
      "nNot": 4391,
      "Ġearn": 4392,
      "224": 4393,
      "nThanks": 4394,
      "Ġprotection": 4395,
      "came": 4396,
      "227": 4397,
      "ĠCustom": 4398,
      "207": 4399,
      "Ġmother": 4400,
      "ivil": 4401,
      "ĠDem": 4402,
      "isode": 4403,
      "ĠDevelopment": 4404,
      "Ġbasis": 4405,
      "Ġcarry": 4406,
      "Ġassign": 4407,
      "ulture": 4408,
      "167": 4409,
      "ĠLet": 4410,
      "Ġproperly": 4411,
      "ĠTime": 4412,
      "down": 4413,
      "wide": 4414,
      "ĠMarketing": 4415,
      "Ġexactly": 4416,
      "Ġaffili": 4417,
      "ĠFound": 4418,
      "rench": 4419,
      "Ġemot": 4420,
      "Ġdecided": 4421,
      "\\\\\\\\\\\\\\\\\\\\\\\\\\\\\\\\": 4422,
      "yond": 4423,
      "Ġhuge": 4424,
      "orge": 4425,
      "Ġgrant": 4426,
      "stic": 4427,
      "005": 4428,
      "atically": 4429,
      "850": 4430,
      "nTr": 4431,
      "Ġthanks": 4432,
      "Ġtips": 4433,
      "Ġwasn": 4434,
      "ĠSocial": 4435,
      "Ġinterview": 4436,
      "ij": 4437,
      "aming": 4438,
      "ĠÃ": 4439,
      "Ġdrink": 4440,
      "Ġopportunities": 4441,
      "Ġfeeling": 4442,
      "Ġtrade": 4443,
      "Ġcertainly": 4444,
      "nDo": 4445,
      "246": 4446,
      "Ġren": 4447,
      "Ġprem": 4448,
      "Ġmeaning": 4449,
      "054": 4450,
      "Ġhor": 4451,
      "ĠMem": 4452,
      "ague": 4453,
      "Ġimmediately": 4454,
      "Ġround": 4455,
      "ula": 4456,
      "136": 4457,
      "Ġeyes": 4458,
      "AQ": 4459,
      "nCategories": 4460,
      "267": 4461,
      "Ġwait": 4462,
      "exas": 4463,
      "ĠWater": 4464,
      "amples": 4465,
      "Ġadvant": 4466,
      "Ġstrategy": 4467,
      "932": 4468,
      "nhttps": 4469,
      "Ġeconomic": 4470,
      "ĠView": 4471,
      "Ġaltern": 4472,
      "264": 4473,
      "Ġbecame": 4474,
      "Ġplaces": 4475,
      "ecutive": 4476,
      "Ġdead": 4477,
      "inue": 4478,
      "Ġtherap": 4479,
      "ulty": 4480,
      "Ġparties": 4481,
      "Ġsav": 4482,
      "830": 4483,
      "ums": 4484,
      "Ġbutton": 4485,
      "Ġsuff": 4486,
      "ĠWeek": 4487,
      "Ġheard": 4488,
      "enior": 4489,
      "Ġparticularly": 4490,
      "pto": 4491,
      "Ġspirit": 4492,
      "ression": 4493,
      "ancel": 4494,
      "213": 4495,
      "Ġgift": 4496,
      "ĠEuropean": 4497,
      "Ġactive": 4498,
      "217": 4499,
      "nThank": 4500,
      "Ġhum": 4501,
      "EG": 4502,
      "Ġspend": 4503,
      "Ġallowed": 4504,
      "ĠCert": 4505,
      "Ġhttp": 4506,
      "Ġintell": 4507,
      "Ġbirth": 4508,
      "901": 4509,
      "Ġpros": 4510,
      "nHi": 4511,
      "nPr": 4512,
      "Ġarticles": 4513,
      "icip": 4514,
      "Ġbroad": 4515,
      "Ġwonderful": 4516,
      "Ġmeasure": 4517,
      "Ġapplications": 4518,
      "antly": 4519,
      "ĠStreet": 4520,
      "mar": 4521,
      "Ġgreen": 4522,
      "ĠPan": 4523,
      "uel": 4524,
      "Ġdark": 4525,
      "Ġsuccessful": 4526,
      "Ġplant": 4527,
      "ĠProject": 4528,
      "Ġtrip": 4529,
      "Ġcharge": 4530,
      "Ġremove": 4531,
      "851": 4532,
      "oliday": 4533,
      "ĠBank": 4534,
      "Ġposted": 4535,
      "ĠOpen": 4536,
      "enty": 4537,
      "free": 4538,
      "imately": 4539,
      "147": 4540,
      "ened": 4541,
      "ued": 4542,
      "Ġgold": 4543,
      "ĠScot": 4544,
      "Ġ2005": 4545,
      "Ġnum": 4546,
      "ĠBoard": 4547,
      "with": 4548,
      "253": 4549,
      "104": 4550,
      "Ġwood": 4551,
      "ĠClass": 4552,
      "ĠMag": 4553,
      "Ġbeyond": 4554,
      "nb": 4555,
      "Ġevidence": 4556,
      "ancing": 4557,
      "Ġrelig": 4558,
      "Ġfrequ": 4559,
      "Ġimag": 4560,
      "ĠWhy": 4561,
      "eler": 4562,
      "irus": 4563,
      "za": 4564,
      "ĠAtt": 4565,
      "ruit": 4566,
      "Ġmethods": 4567,
      "Ġloved": 4568,
      "ena": 4569,
      "how": 4570,
      "Ġcirc": 4571,
      "ĠCond": 4572,
      "ĠSee": 4573,
      "Ġinstitut": 4574,
      "oices": 4575,
      "ĠRed": 4576,
      "irtual": 4577,
      "Ġcommercial": 4578,
      "eria": 4579,
      "ĠYOU": 4580,
      "ĠOther": 4581,
      "840": 4582,
      "ffee": 4583,
      "114": 4584,
      "IA": 4585,
      "Ġeval": 4586,
      "rict": 4587,
      "Ġhistor": 4588,
      "ĠAv": 4589,
      "Ġ[âĢ¦": 4590,
      "ework": 4591,
      "Ġpressure": 4592,
      "Ġtraditional": 4593,
      "ĠOR": 4594,
      "essions": 4595,
      "Ġfarm": 4596,
      "asc": 4597,
      "Ġpoll": 4598,
      "ĠEm": 4599,
      "Ġexclus": 4600,
      "113": 4601,
      "cons": 4602,
      "Ġ--": 4603,
      "bon": 4604,
      "Ġerror": 4605,
      "ĠVis": 4606,
      "LS": 4607,
      "Ġtruly": 4608,
      "Ġcopy": 4609,
      "Ġoffered": 4610,
      "Ġformer": 4611,
      "ĠList": 4612,
      "ĠAbout": 4613,
      "366": 4614,
      "ĠJapan": 4615,
      "aturday": 4616,
      "Ġdisease": 4617,
      "Ġmaybe": 4618,
      "Ġinfo": 4619,
      "223": 4620,
      "Ġdemand": 4621,
      "yd": 4622,
      "Ġaim": 4623,
      "usband": 4624,
      "376": 4625,
      "Ġhour": 4626,
      "Ġslow": 4627,
      "Ġbenefit": 4628,
      "Ġ<": 4629,
      "aching": 4630,
      "155": 4631,
      "Ġtim": 4632,
      "ĠUser": 4633,
      "Ġpi": 4634,
      "ĠPublic": 4635,
      "ncookie": 4636,
      "156": 4637,
      "venue": 4638,
      "ĠCourt": 4639,
      "Ġcommunication": 4640,
      "ĠNov": 4641,
      "lawin": 4642,
      "ĠReport": 4643,
      "ocation": 4644,
      "lawinfo": 4645,
      "rip": 4646,
      "ĠPower": 4647,
      "icks": 4648,
      "ncookielawinfo": 4649,
      "ja": 4650,
      "Ġuseful": 4651,
      "iked": 4652,
      "Ġscient": 4653,
      "ĠIndian": 4654,
      "Ġcapt": 4655,
      "Ġgoals": 4656,
      "Ġliter": 4657,
      "Ġgave": 4658,
      "Ġhous": 4659,
      "osit": 4660,
      "CT": 4661,
      "prof": 4662,
      "gg": 4663,
      "tee": 4664,
      "Ġbegan": 4665,
      "\\\".\\": 4666,
      "Ġadvertising": 4667,
      "Ġshared": 4668,
      "Ġconvers": 4669,
      "nAt": 4670,
      "Ð¾": 4671,
      "ĠAR": 4672,
      "nOne": 4673,
      "ĠChild": 4674,
      "Ġchurch": 4675,
      "rote": 4676,
      "Ġmoving": 4677,
      "Ġreflect": 4678,
      "Ġsort": 4679,
      "Ġfamilies": 4680,
      "onent": 4681,
      "ĠControl": 4682,
      "ĠAng": 4683,
      "Ġsustain": 4684,
      "Ġlaws": 4685,
      "Ġcourses": 4686,
      "Ġlimit": 4687,
      "Ġlock": 4688,
      "ĠRights": 4689,
      "nRecent": 4690,
      "ĠContact": 4691,
      "Ġalone": 4692,
      "Ġnor": 4693,
      "Ġproced": 4694,
      "Ġ...\\": 4695,
      "ĠST": 4696,
      "Ġsecure": 4697,
      "osure": 4698,
      "Ġtitle": 4699,
      "ĠInvest": 4700,
      "ĠPress": 4701,
      "PT": 4702,
      "Ġnormal": 4703,
      "274": 4704,
      "ĠEven": 4705,
      "Ġmer": 4706,
      "eff": 4707,
      "Ġincome": 4708,
      "Ġrestaur": 4709,
      "Ġtemper": 4710,
      "Ġgrowing": 4711,
      "942": 4712,
      "Ġthreat": 4713,
      "odes": 4714,
      "missions": 4715,
      "Ġbon": 4716,
      "ashington": 4717,
      "ĠCookies": 4718,
      "UN": 4719,
      "277": 4720,
      "ĠFood": 4721,
      "itiz": 4722,
      "ocal": 4723,
      "243": 4724,
      "Ġelectric": 4725,
      "Ġadjust": 4726,
      "Ġtried": 4727,
      "nLog": 4728,
      "ĠGold": 4729,
      "247": 4730,
      "ughter": 4731,
      "ĠSch": 4732,
      "Ġsports": 4733,
      "apter": 4734,
      "Ġmanage": 4735,
      "inated": 4736,
      "iced": 4737,
      "oles": 4738,
      "Ġvalid": 4739,
      "/\\": 4740,
      "Ġfine": 4741,
      "Ġpattern": 4742,
      "364": 4743,
      "305": 4744,
      "Ġupdate": 4745,
      "ĠElect": 4746,
      "Ġchanged": 4747,
      "emp": 4748,
      "covery": 4749,
      "456": 4750,
      "Ġfem": 4751,
      "Ġbus": 4752,
      "pective": 4753,
      "OG": 4754,
      "176": 4755,
      "Ġexpected": 4756,
      "burg": 4757,
      "Ġpush": 4758,
      "ĠWhite": 4759,
      "Ġknew": 4760,
      "356": 4761,
      "Ġtraffic": 4762,
      "crete": 4763,
      "ĠLondon": 4764,
      "107": 4765,
      "Com": 4766,
      "154": 4767,
      "ĠSupport": 4768,
      "006": 4769,
      "Ġcart": 4770,
      "BS": 4771,
      "174": 4772,
      "atever": 4773,
      "Ġanalyze": 4774,
      "pite": 4775,
      "Ġeffort": 4776,
      "Ġcollege": 4777,
      "Ġult": 4778,
      "ils": 4779,
      "ulf": 4780,
      "Ġclient": 4781,
      "Ġpull": 4782,
      "Ġson": 4783,
      "Ġconnection": 4784,
      "Ġthous": 4785,
      "ĠUSA": 4786,
      "Ġstatus": 4787,
      "olf": 4788,
      "inner": 4789,
      "\\\",": 4790,
      "UL": 4791,
      "ĠFlor": 4792,
      "Ġbra": 4793,
      "Ġprocessing": 4794,
      "UM": 4795,
      "Ġexperiences": 4796,
      "Ġsmart": 4797,
      "ĠGreen": 4798,
      "Ġpropos": 4799,
      "Ġnumbers": 4800,
      "iques": 4801,
      "CR": 4802,
      "Ġmid": 4803,
      "ĠSecurity": 4804,
      "rief": 4805,
      "263": 4806,
      "870": 4807,
      "friend": 4808,
      "Ġeat": 4809,
      "Ġten": 4810,
      "Ġaspect": 4811,
      "Ġdegree": 4812,
      "âĢĭ": 4813,
      "Ġutil": 4814,
      "Ġbeginning": 4815,
      "gen": 4816,
      "Ġded": 4817,
      "117": 4818,
      "edia": 4819,
      "sm": 4820,
      "Ġmount": 4821,
      "ĠLead": 4822,
      "nt": 4823,
      "nBlog": 4824,
      "Ġexpand": 4825,
      "Ġsteps": 4826,
      "Ġdry": 4827,
      "ĠMet": 4828,
      "ĠÂ»\\": 4829,
      "Ġowner": 4830,
      "Ġeasier": 4831,
      "Ġhelping": 4832,
      "ĠCommunity": 4833,
      "ĠVol": 4834,
      "ĠExper": 4835,
      "alent": 4836,
      "134": 4837,
      "Ġcloth": 4838,
      "arrant": 4839,
      "ĠSur": 4840,
      "aps": 4841,
      "ocr": 4842,
      "Ġwants": 4843,
      "ĠEngine": 4844,
      "Ġjourney": 4845,
      "riting": 4846,
      "Ġ...": 4847,
      "Ġmoder": 4848,
      "ption": 4849,
      "Ġfiles": 4850,
      "Ġtruth": 4851,
      "Ġ60": 4852,
      "nNext": 4853,
      "necessary": 4854,
      "ipped": 4855,
      "Ġdro": 4856,
      "555": 4857,
      "001": 4858,
      "165": 4859,
      "azine": 4860,
      "003": 4861,
      "iance": 4862,
      "unk": 4863,
      "Ġreve": 4864,
      "ĠWindow": 4865,
      "ĠMac": 4866,
      "Ġfees": 4867,
      "Ġreported": 4868,
      "Ġcollabor": 4869,
      "ĠPeople": 4870,
      "Ġthoughts": 4871,
      "144": 4872,
      "Ġdoll": 4873,
      "Ġattach": 4874,
      "NY": 4875,
      "Ġreplace": 4876,
      "Ġmovie": 4877,
      "ĠEmail": 4878,
      "nOr": 4879,
      "ches": 4880,
      "ĠFore": 4881,
      "Ġattract": 4882,
      "à¹": 4883,
      "ned": 4884,
      "250": 4885,
      "Ġserve": 4886,
      "nFirst": 4887,
      "ĠPrice": 4888,
      "ĠHot": 4889,
      "known": 4890,
      "ĠIS": 4891,
      "term": 4892,
      "Ð°": 4893,
      "999": 4894,
      "Ġshown": 4895,
      "Ġreleased": 4896,
      "Ġprotected": 4897,
      "Ġden": 4898,
      "Ġcapital": 4899,
      "urt": 4900,
      "ĠMany": 4901,
      "Ġwrote": 4902,
      "nSign": 4903,
      "ado": 4904,
      "Ġneigh": 4905,
      "Ġing": 4906,
      "iverse": 4907,
      "EV": 4908,
      "CL": 4909,
      "Ġbrought": 4910,
      "nName": 4911,
      "Ġdat": 4912,
      "Ġprofile": 4913,
      "Ġtalking": 4914,
      "pet": 4915,
      "Ġhusband": 4916,
      "reh": 4917,
      "aces": 4918,
      "eness": 4919,
      "ona": 4920,
      "nLeave": 4921,
      "Ġanim": 4922,
      "ooking": 4923,
      "Ġhelpful": 4924,
      "Ġpolicies": 4925,
      "ĠTeam": 4926,
      "ava": 4927,
      "Opens": 4928,
      "NA": 4929,
      "Ġpractices": 4930,
      "nAdvertisement": 4931,
      "Share": 4932,
      "Ġstudies": 4933,
      "Ph": 4934,
      "ston": 4935,
      "ĠLim": 4936,
      "Ġafford": 4937,
      "Ġsetting": 4938,
      "ĠChristian": 4939,
      "ĠLove": 4940,
      "Ġsession": 4941,
      "ĠFR": 4942,
      "Ġvideos": 4943,
      "aduate": 4944,
      "Ġenable": 4945,
      "ĠIT": 4946,
      "inger": 4947,
      "Ġbottom": 4948,
      "557": 4949,
      "nClose": 4950,
      "Ġturned": 4951,
      "Ġstraight": 4952,
      "Ġclicking": 4953,
      "ĠTechnology": 4954,
      "checkbox": 4955,
      "Ġexperts": 4956,
      "Ġincreased": 4957,
      "Ġeye": 4958,
      "Ġorganizations": 4959,
      "Ġrequires": 4960,
      "Ġlack": 4961,
      "undred": 4962,
      "Ġdevices": 4963,
      "004": 4964,
      "102": 4965,
      "Ġheat": 4966,
      "andemic": 4967,
      "Ġdemon": 4968,
      "han": 4969,
      "201": 4970,
      "orrow": 4971,
      "Ġappoint": 4972,
      "ĠLearn": 4973,
      "374": 4974,
      "nBe": 4975,
      "ĠCr": 4976,
      "fl": 4977,
      "304": 4978,
      "Ġharm": 4979,
      "ĠAccount": 4980,
      "Ġbaby": 4981,
      "ĠFamily": 4982,
      "ĠAccess": 4983,
      "Ġincreasing": 4984,
      "ĠWordPress": 4985,
      "ĠChurch": 4986,
      "Ġfat": 4987,
      "ademic": 4988,
      "inate": 4989,
      "ads": 4990,
      "Ġpatient": 4991,
      "Ġnation": 4992,
      "Ġfear": 4993,
      "Ġhelped": 4994,
      "Ġcontribut": 4995,
      "Ġbudget": 4996,
      "Ġrepe": 4997,
      "RS": 4998,
      "ednes": 4999,
      "well": 5000,
      "\\\"\\": 5001,
      "gage": 5002,
      "354": 5003,
      "912": 5004,
      "882": 5005,
      "nLikeLiked": 5006,
      "Ġaward": 5007,
      "ĠContent": 5008,
      "--------": 5009,
      "ĠSub": 5010,
      "Ġspent": 5011,
      "Ġarriv": 5012,
      "Ġfaith": 5013,
      "orial": 5014,
      "ribute": 5015,
      "Ġconstruction": 5016,
      "Ġpowerful": 5017,
      "902": 5018,
      "Ġregion": 5019,
      "yer": 5020,
      "Ġfinally": 5021,
      "Ġled": 5022,
      "861": 5023,
      "ĠChange": 5024,
      "164": 5025,
      "Ġexperienced": 5026,
      "801": 5027,
      "arian": 5028,
      "Ġbatter": 5029,
      "Ġoverall": 5030,
      "Ġtick": 5031,
      "ĠSaf": 5032,
      "Ġextremely": 5033,
      "Ġgl": 5034,
      "377": 5035,
      "Ġfell": 5036,
      "Ġstatement": 5037,
      "NL": 5038,
      "ĠOb": 5039,
      "Ġviews": 5040,
      "ĠSpr": 5041,
      "acity": 5042,
      "Ġspread": 5043,
      "enses": 5044,
      "ros": 5045,
      "rael": 5046,
      "lished": 5047,
      "257": 5048,
      "RA": 5049,
      "efore": 5050,
      "ĠEmp": 5051,
      "Ġmatt": 5052,
      "ĠForm": 5053,
      "eces": 5054,
      "Ġmodels": 5055,
      "Ġvict": 5056,
      "uesday": 5057,
      "OK": 5058,
      "igence": 5059,
      "asure": 5060,
      "ĠAssociation": 5061,
      "itude": 5062,
      "Ġgenerally": 5063,
      "ĠScotland": 5064,
      "831": 5065,
      "101": 5066,
      "ĠBet": 5067,
      "ĠBuy": 5068,
      "ĠÂ©": 5069,
      "ĠMake": 5070,
      "abilities": 5071,
      "177": 5072,
      "653": 5073,
      "ya": 5074,
      "Ġenhance": 5075,
      "Ġtemperature": 5076,
      "rics": 5077,
      "Ġchallenges": 5078,
      "inese": 5079,
      "nArchives": 5080,
      "Ġgas": 5081,
      "111": 5082,
      "ĠGuide": 5083,
      "841": 5084,
      "Ġfant": 5085,
      "Ġwife": 5086,
      "ota": 5087,
      "osing": 5088,
      "Ġmessages": 5089,
      "nAfter": 5090,
      "Ġoffering": 5091,
      "DS": 5092,
      "Ġphoto": 5093,
      "Ġreports": 5094,
      "Ġfederal": 5095,
      "ups": 5096,
      "IF": 5097,
      "Ġstrug": 5098,
      "Ġmechan": 5099,
      "oof": 5100,
      "Ġpicture": 5101,
      "Ġpet": 5102,
      "ĠMonday": 5103,
      "ĠRepublic": 5104,
      "Ġaren": 5105,
      "ying": 5106,
      "________": 5107,
      "Ġplayer": 5108,
      "Ġhappened": 5109,
      "Ġsurv": 5110,
      "iant": 5111,
      "202": 5112,
      "ĠLord": 5113,
      "hi": 5114,
      "Ġgreater": 5115,
      "Ðµ": 5116,
      "Ġupdates": 5117,
      "porary": 5118,
      "ĠCheck": 5119,
      "Ġguy": 5120,
      "871": 5121,
      "Ġsn": 5122,
      "âĢĿ.": 5123,
      "ints": 5124,
      "nby": 5125,
      "ĠMor": 5126,
      "tenance": 5127,
      "Ġstream": 5128,
      "Ġvs": 5129,
      "ednesday": 5130,
      "Ġtransport": 5131,
      "standing": 5132,
      "Ġcru": 5133,
      "Ġstage": 5134,
      "454": 5135,
      "Ġschools": 5136,
      "153": 5137,
      "Ġ[âĢ¦]\\": 5138,
      "que": 5139,
      "iation": 5140,
      "ĠLike": 5141,
      "Ġfab": 5142,
      "Ġpolice": 5143,
      "Ġsubmit": 5144,
      "Ġcritical": 5145,
      "ĠSunday": 5146,
      "Ġdetermine": 5147,
      "959": 5148,
      "Ġfeedback": 5149,
      "445": 5150,
      "nam": 5151,
      "556": 5152,
      "rab": 5153,
      "ĠCap": 5154,
      "icious": 5155,
      "Ġfactors": 5156,
      "itness": 5157,
      "Ġexisting": 5158,
      "150": 5159,
      "iled": 5160,
      "475": 5161,
      "ĠWomen": 5162,
      "reak": 5163,
      "ellow": 5164,
      "303": 5165,
      "333": 5166,
      "Ġjournal": 5167,
      "ĠBack": 5168,
      "resh": 5169,
      "Ġ}": 5170,
      "Ġpray": 5171,
      "ously": 5172,
      "Ġlots": 5173,
      "nLink": 5174,
      "roid": 5175,
      "gn": 5176,
      "Ġsociety": 5177,
      "ĠDavid": 5178,
      "ĠHelp": 5179,
      "446": 5180,
      "Ġdiet": 5181,
      "83755": 5182,
      "ĠAP": 5183,
      "ago": 5184,
      "??": 5185,
      "Ġcamer": 5186,
      "nIs": 5187,
      "ERS": 5188,
      "007": 5189,
      "ĠName": 5190,
      "Ġforce": 5191,
      "Ġincor": 5192,
      "Ð¸": 5193,
      "Tube": 5194,
      "ĠAdv": 5195,
      "ounds": 5196,
      "466": 5197,
      "Ġrace": 5198,
      "Ġcancer": 5199,
      "aled": 5200,
      "inding": 5201,
      "ĠTexas": 5202,
      "soft": 5203,
      "shop": 5204,
      "Ġhimself": 5205,
      "Ġdoub": 5206,
      "ĠPhot": 5207,
      "Ġadvance": 5208,
      "mat": 5209,
      "273": 5210,
      "ĠTru": 5211,
      "Ġglass": 5212,
      "ursday": 5213,
      "iability": 5214,
      "Ġge": 5215,
      "nChe": 5216,
      "465": 5217,
      "334": 5218,
      "rated": 5219,
      "anging": 5220,
      "Ġpsych": 5221,
      "ĠSign": 5222,
      "ĠBig": 5223,
      "inc": 5224,
      "nCan": 5225,
      "ĠMusic": 5226,
      "You": 5227,
      "ĠSing": 5228,
      "Ġjobs": 5229,
      "riage": 5230,
      "Ġprimary": 5231,
      "Ġpeace": 5232,
      "agged": 5233,
      "rad": 5234,
      "GB": 5235,
      "edom": 5236,
      "ĠJack": 5237,
      "pons": 5238,
      "life": 5239,
      "Ġfields": 5240,
      "ĠAuthor": 5241,
      "ĠAustralia": 5242,
      "Ġchem": 5243,
      "nDon": 5244,
      "Ġsources": 5245,
      "Ġstructure": 5246,
      "lax": 5247,
      "Ġident": 5248,
      "Ġvacc": 5249,
      "8783755": 5250,
      "Ġfather": 5251,
      "Ġorders": 5252,
      "828": 5253,
      "Ġmilitary": 5254,
      "Ġwild": 5255,
      "Ġlisted": 5256,
      "elines": 5257,
      "nSu": 5258,
      "ĠTrump": 5259,
      "Ġarr": 5260,
      "ĠProt": 5261,
      "444": 5262,
      "Ġinjury": 5263,
      "ĠHall": 5264,
      "110": 5265,
      "ĠUnder": 5266,
      "075": 5267,
      "estyle": 5268,
      "HS": 5269,
      "Ġactual": 5270,
      "Ġlooked": 5271,
      "Ġhop": 5272,
      "Ġguys": 5273,
      "353": 5274,
      "Ġmail": 5275,
      "cont": 5276,
      "Ġwear": 5277,
      "lying": 5278,
      "astic": 5279,
      "Ġuns": 5280,
      "ervation": 5281,
      "icing": 5282,
      "nThat": 5283,
      "Ġfeet": 5284,
      "Ġbehavior": 5285,
      "Ġteams": 5286,
      "Ġcommunities": 5287,
      "Ġbrain": 5288,
      "ĠNOT": 5289,
      "uilding": 5290,
      "nLearn": 5291,
      "Ġwww": 5292,
      "Ġprofessionals": 5293,
      "ĠFOR": 5294,
      "Ġcards": 5295,
      "akers": 5296,
      "ĠToday": 5297,
      "hol": 5298,
      "ĠCamp": 5299,
      "ĠWashington": 5300,
      ".)": 5301,
      "ĠNetwork": 5302,
      "Ġunless": 5303,
      "witch": 5304,
      "nOther": 5305,
      "ĠCouncil": 5306,
      "nm": 5307,
      "Ġefforts": 5308,
      "eds": 5309,
      "ĠCall": 5310,
      "Ġcold": 5311,
      "ĠInstitute": 5312,
      "ki": 5313,
      "redits": 5314,
      "ĠOnce": 5315,
      "ĠNor": 5316,
      "ĠSpecial": 5317,
      "alm": 5318,
      "orry": 5319,
      "Ġpreferences": 5320,
      "bing": 5321,
      "Ġhundred": 5322,
      "Ġintended": 5323,
      "using": 5324,
      "CS": 5325,
      "Ġcreative": 5326,
      "Ġmonitor": 5327,
      "Ġsup": 5328,
      "Ġincred": 5329,
      "ĠClick": 5330,
      "urrency": 5331,
      "verse": 5332,
      "actions": 5333,
      "ĠID": 5334,
      "ĠSearch": 5335,
      "rie": 5336,
      "Ġmental": 5337,
      "Ġroll": 5338,
      "Ġseeing": 5339,
      "307": 5340,
      "Ġclimate": 5341,
      "Ġgrand": 5342,
      "Ġcoverage": 5343,
      "alley": 5344,
      "2019": 5345,
      "Ġleaders": 5346,
      "Ġmission": 5347,
      "FL": 5348,
      "Ġupdated": 5349,
      "urer": 5350,
      "np": 5351,
      "447": 5352,
      "ynam": 5353,
      "ĠConst": 5354,
      "ĠPaul": 5355,
      "ĠHistory": 5356,
      "nEnter": 5357,
      "apers": 5358,
      "Ġplaced": 5359,
      "ÃĹ": 5360,
      "Ġnur": 5361,
      "Ġhighest": 5362,
      "ĠEp": 5363,
      "Ġnearly": 5364,
      "Ġpoor": 5365,
      "Ġvoice": 5366,
      "Ġfinish": 5367,
      "Ġhaven": 5368,
      "Ġapplicable": 5369,
      "Ġnavigation": 5370,
      "fol": 5371,
      "357": 5372,
      "ĠDan": 5373,
      "Ġgovern": 5374,
      "ATION": 5375,
      "Ġbackground": 5376,
      "aught": 5377,
      "360": 5378,
      "erry": 5379,
      "Ġwhose": 5380,
      "ĠâĨĴ": 5381,
      "Ġattorney": 5382,
      "enu": 5383,
      "Ġaware": 5384,
      "056": 5385,
      "%\\": 5386,
      "ĠMedical": 5387,
      "Ġlines": 5388,
      "ĠPo": 5389,
      "rd": 5390,
      "ette": 5391,
      "066": 5392,
      "Ġir": 5393,
      "Ġlargest": 5394,
      "666": 5395,
      "Ġplus": 5396,
      "Ġedit": 5397,
      "Ġcouldn": 5398,
      "ĠJan": 5399,
      "Ġestablish": 5400,
      "iment": 5401,
      "annel": 5402,
      "ĠInsurance": 5403,
      "ĠProv": 5404,
      "Ġmentioned": 5405,
      "Ġleader": 5406,
      "Ġpassion": 5407,
      "Ġsurface": 5408,
      "Ġspot": 5409,
      "Ġdress": 5410,
      "Ġposting": 5411,
      "Ġcompleted": 5412,
      "ĠReviews": 5413,
      "Ġearth": 5414,
      "iling": 5415,
      "Ġhar": 5416,
      "Ġautomatically": 5417,
      "Ġchallenge": 5418,
      "Ġexchange": 5419,
      "fin": 5420,
      "ĠMicro": 5421,
      "Ġlaunch": 5422,
      "atively": 5423,
      "ĠRoad": 5424,
      "Ġtrain": 5425,
      "Ġweather": 5426,
      "pond": 5427,
      "useum": 5428,
      "Ġdiscount": 5429,
      "Ġcompla": 5430,
      "Ġfloor": 5431,
      "Ġreality": 5432,
      "Ġexercise": 5433,
      "812": 5434,
      "Ġplayed": 5435,
      "Ġtrading": 5436,
      "Ġorigin": 5437,
      "rey": 5438,
      "NU": 5439,
      "AV": 5440,
      "NS": 5441,
      "Ġborn": 5442,
      "ĠSaturday": 5443,
      "765": 5444,
      "Ġcontroll": 5445,
      "Ġtherefore": 5446,
      "Ġ35": 5447,
      "ĠBel": 5448,
      "edIn": 5449,
      "ĠTest": 5450,
      "157": 5451,
      "ĠInstagram": 5452,
      "ios": 5453,
      "'d": 5454,
      "Â½": 5455,
      "allery": 5456,
      "ĠDirector": 5457,
      "ective": 5458,
      "Ġwid": 5459,
      "Ġselection": 5460,
      "Ġahead": 5461,
      "143": 5462,
      "irgin": 5463,
      "Ġobl": 5464,
      "554": 5465,
      "Ġproduce": 5466,
      "ĠHuman": 5467,
      "law": 5468,
      "Ġburn": 5469,
      "Ġsem": 5470,
      "esome": 5471,
      "iture": 5472,
      "ÑĤ": 5473,
      "163": 5474,
      "Ġeth": 5475,
      "nInd": 5476,
      "Ġserver": 5477,
      "Ġgar": 5478,
      "Ġrestrict": 5479,
      "zer": 5480,
      "âĢĶâĢĶ": 5481,
      "ĠAfrica": 5482,
      "nArt": 5483,
      "Ġadop": 5484,
      "ĠComment": 5485,
      "ĠStar": 5486,
      "Ġforms": 5487,
      "ĠÂ£": 5488,
      "ĠProfess": 5489,
      "Ġentry": 5490,
      "9378": 5491,
      "ifts": 5492,
      "Ġmill": 5493,
      "nInst": 5494,
      "Ġlose": 5495,
      "ĠIss": 5496,
      "123": 5497,
      "Ġassistance": 5498,
      "door": 5499,
      "istance": 5500,
      "Ġtesting": 5501,
      "idden": 5502,
      "367": 5503,
      "Ġindependent": 5504,
      "ste": 5505,
      "Ġspecifically": 5506,
      "oyal": 5507,
      "EX": 5508,
      "clusion": 5509,
      "oop": 5510,
      "Ġstrategies": 5511,
      "Ġlength": 5512,
      "ĠCur": 5513,
      "itial": 5514,
      "Ġfunds": 5515,
      "ĠWilliam": 5516,
      "Ġcandid": 5517,
      "ĠLLC": 5518,
      "Ġoccur": 5519,
      "Ġmicro": 5520,
      "Ġfinding": 5521,
      "Ġcomfortable": 5522,
      "Ġprovider": 5523,
      "****": 5524,
      "Ġrock": 5525,
      "ĠDistrict": 5526,
      "nThese": 5527,
      "nHere": 5528,
      "Ġefficient": 5529,
      "MA": 5530,
      "Ġteaching": 5531,
      "ĠSince": 5532,
      "Ġmiddle": 5533,
      "istan": 5534,
      "Ġworkers": 5535,
      "ifying": 5536,
      "Ġpresident": 5537,
      "Ġclaims": 5538,
      "ĠGlobal": 5539,
      "Ġicon": 5540,
      "Ġoccas": 5541,
      "Ġowners": 5542,
      "ĠBra": 5543,
      "nReg": 5544,
      "nSub": 5545,
      "Ġaccident": 5546,
      "Ġband": 5547,
      "vention": 5548,
      "Ġstation": 5549,
      "ĠSun": 5550,
      "Ġship": 5551,
      "Ġoptim": 5552,
      "Ġlearned": 5553,
      "373": 5554,
      "Ġestablished": 5555,
      "ridge": 5556,
      "ĠShare": 5557,
      "Ġcontains": 5558,
      "Ġprincip": 5559,
      "Ġdoctor": 5560,
      "ĠCard": 5561,
      "2018": 5562,
      "ĠFrench": 5563,
      "quest": 5564,
      "Ġresponsibility": 5565,
      "nergy": 5566,
      "nJoin": 5567,
      "Ġagreement": 5568,
      "ternal": 5569,
      "rian": 5570,
      "coin": 5571,
      "jo": 5572,
      "Ġperhaps": 5573,
      "Ġbillion": 5574,
      "Ġmovement": 5575,
      "NT": 5576,
      "Ġconven": 5577,
      "Ġconfirm": 5578,
      "ulum": 5579,
      "474": 5580,
      "Ġgraph": 5581,
      "Ġrefund": 5582,
      "ĠFl": 5583,
      "ĠMat": 5584,
      "Ġstandards": 5585,
      "467": 5586,
      "olly": 5587,
      "Ġsweet": 5588,
      "ĠLight": 5589,
      "ĠCA": 5590,
      "Ġentertain": 5591,
      "Ġhomes": 5592,
      "Ġearlier": 5593,
      "ĠParty": 5594,
      "unte": 5595,
      "Ġcompared": 5596,
      "ĠMus": 5597,
      "212": 5598,
      "ĠOld": 5599,
      "Ġnovel": 5600,
      "Ġbalance": 5601,
      "Ġrelationships": 5602,
      "Ġphp": 5603,
      "ĠEach": 5604,
      "nBest": 5605,
      "Ġcovered": 5606,
      "Ġluck": 5607,
      "{{": 5608,
      "Ġrecords": 5609,
      "ĠAnn": 5610,
      "ĠAff": 5611,
      "Ġsurround": 5612,
      "ĠFund": 5613,
      "ĠMark": 5614,
      "Ġnames": 5615,
      "Ġbreat": 5616,
      "Ġpopulation": 5617,
      "aint": 5618,
      "Ġdecisions": 5619,
      "Ġfee": 5620,
      "irection": 5621,
      "/?": 5622,
      "nl": 5623,
      "ĠStart": 5624,
      "Ġdepend": 5625,
      "Ġhappens": 5626,
      "ĠApple": 5627,
      "Ġ2004": 5628,
      "Ġrecommended": 5629,
      "FT": 5630,
      "Ġchanging": 5631,
      "Ġregistration": 5632,
      "Ġvalues": 5633,
      "ĠFlorida": 5634,
      "Ġfill": 5635,
      "iency": 5636,
      "Ġletter": 5637,
      "Ġ)": 5638,
      "omb": 5639,
      "Ġhandle": 5640,
      "ĠIsland": 5641,
      "ĠMary": 5642,
      "Ġactions": 5643,
      "onents": 5644,
      "ita": 5645,
      "Ġlarger": 5646,
      "ĠYes": 5647,
      "nWebsite": 5648,
      "Ġbeg": 5649,
      "endar": 5650,
      "ĠClub": 5651,
      "unately": 5652,
      "ĠTravel": 5653,
      "Ġpandemic": 5654,
      "Ġdiscl": 5655,
      "Ġalthough": 5656,
      "173": 5657,
      "Ġexplore": 5658,
      "Ġoperations": 5659,
      "icate": 5660,
      "ESS": 5661,
      "453": 5662,
      "Ġwhatever": 5663,
      "anda": 5664,
      "xy": 5665,
      "Ġanti": 5666,
      "Ġtend": 5667,
      "Ġsyn": 5668,
      "Ġrich": 5669,
      "112": 5670,
      "Ġdescribed": 5671,
      "agon": 5672,
      "ĠNY": 5673,
      "Ã¡": 5674,
      "Ġreci": 5675,
      "Ġobvious": 5676,
      "Ġretail": 5677,
      "nApp": 5678,
      "oost": 5679,
      "Ġrank": 5680,
      "uty": 5681,
      "Ġdocuments": 5682,
      "Ġannounce": 5683,
      "Ġolder": 5684,
      "nFrom": 5685,
      "Ġfram": 5686,
      "ĠMain": 5687,
      "Ġkn": 5688,
      "Ġbuying": 5689,
      "ĠFinancial": 5690,
      "Ġadvantage": 5691,
      "Ġbrowsing": 5692,
      "ĠEnter": 5693,
      "nLo": 5694,
      "Ġgone": 5695,
      "ĠDigital": 5696,
      "Ġnumer": 5697,
      "can": 5698,
      "Ġvac": 5699,
      "Ġannual": 5700,
      "page": 5701,
      "Ġideal": 5702,
      "ipp": 5703,
      "ĠBecause": 5704,
      "Ġguess": 5705,
      "198": 5706,
      "Ġpictures": 5707,
      "ĠIsrael": 5708,
      "ĠJames": 5709,
      "Ġleadership": 5710,
      "Ġproduced": 5711,
      "nSee": 5712,
      "eh": 5713,
      "Ġblue": 5714,
      "âĦ": 5715,
      "Ġmoved": 5716,
      "oro": 5717,
      "ĠII": 5718,
      "Ġdedicated": 5719,
      "ĠRich": 5720,
      "ĠOrgan": 5721,
      "210": 5722,
      "477": 5723,
      "merce": 5724,
      "ĠKnow": 5725,
      "ĠGar": 5726,
      "product": 5727,
      "Ġstri": 5728,
      "Ġelements": 5729,
      "756": 5730,
      "Ġkitchen": 5731,
      "oma": 5732,
      "Ġplatforms": 5733,
      "766": 5734,
      "125": 5735,
      "Ġsexual": 5736,
      "Ġhonest": 5737,
      "Ġstick": 5738,
      "Ġban": 5739,
      "ĠDisc": 5740,
      "Ġaudience": 5741,
      "ĠphpBB": 5742,
      "Ġmist": 5743,
      "Ġexhib": 5744,
      "nYes": 5745,
      "Ġshoot": 5746,
      "Ġnavigate": 5747,
      "Ġcast": 5748,
      "065": 5749,
      "nCookie": 5750,
      "ĠCong": 5751,
      "457": 5752,
      "ta": 5753,
      "Ġdiagn": 5754,
      "cluding": 5755,
      "Ġ2023": 5756,
      "Ġshopping": 5757,
      "ĠSem": 5758,
      "Ġingred": 5759,
      "Ġcharacters": 5760,
      "nf": 5761,
      "Ġcircum": 5762,
      "TC": 5763,
      "ĠCas": 5764,
      "ini": 5765,
      "Ġ)\\": 5766,
      "Ġknows": 5767,
      "ĠFil": 5768,
      "862": 5769,
      "Ġwhe": 5770,
      "ĠChinese": 5771,
      "2017": 5772,
      "Ġcontext": 5773,
      "Ġgirls": 5774,
      "ĠMart": 5775,
      "Ġeconomy": 5776,
      "Â¿": 5777,
      "Ġfigure": 5778,
      "earning": 5779,
      "nComp": 5780,
      "Ġdrop": 5781,
      "eline": 5782,
      "ario": 5783,
      "Ġbla": 5784,
      "chem": 5785,
      "Ġcoffee": 5786,
      "Ġprocesses": 5787,
      "ĠSam": 5788,
      "osh": 5789,
      "ĠEqu": 5790,
      "ĠðŁĻ": 5791,
      "300": 5792,
      "abase": 5793,
      "ĠGovernment": 5794,
      "Ġcalcul": 5795,
      "ander": 5796,
      "nStud": 5797,
      "754": 5798,
      "Ġdating": 5799,
      "Ġwarrant": 5800,
      "Ġpieces": 5801,
      "EP": 5802,
      "363": 5803,
      "alls": 5804,
      "Ġweekend": 5805,
      "Ġwelcome": 5806,
      "inds": 5807,
      "osis": 5808,
      "ĠIndust": 5809,
      "Ġtechniques": 5810,
      "463": 5811,
      "/\"},\"": 5812,
      "inder": 5813,
      "Ġopinion": 5814,
      "842": 5815,
      "iers": 5816,
      "reek": 5817,
      "ĠCommission": 5818,
      "ĠRob": 5819,
      "ĠPage": 5820,
      "riculum": 5821,
      "ĠConditions": 5822,
      "232": 5823,
      "ĠTraining": 5824,
      "Ġdriving": 5825,
      "ania": 5826,
      "764": 5827,
      "Ġdouble": 5828,
      "ĠSom": 5829,
      "Ġannounced": 5830,
      "Ġbath": 5831,
      "076": 5832,
      "ĠMiss": 5833,
      "8147": 5834,
      "Ġdig": 5835,
      "Ġproviders": 5836,
      "Ġnamed": 5837,
      "ĠBritish": 5838,
      "Ġfashion": 5839,
      "Ġconv": 5840,
      "2016": 5841,
      "ilos": 5842,
      "ocu": 5843,
      "osition": 5844,
      "illa": 5845,
      "Ġscen": 5846,
      "ĠRock": 5847,
      "Ġcaused": 5848,
      "ounce": 5849,
      "Ġsal": 5850,
      "Ġvot": 5851,
      "Ġdiscussion": 5852,
      "ĠQuest": 5853,
      "Ġgather": 5854,
      "spe": 5855,
      "Ġimpress": 5856,
      "Ġstar": 5857,
      "nAny": 5858,
      "ĠStand": 5859,
      "RL": 5860,
      "nTra": 5861,
      "ĠHave": 5862,
      "inos": 5863,
      "Pro": 5864,
      "Ġattend": 5865,
      "Ġstruct": 5866,
      "ountry": 5867,
      "nMar": 5868,
      "nhttp": 5869,
      "TA": 5870,
      "SA": 5871,
      "Ġaccurate": 5872,
      "nPerformance": 5873,
      "Ġbur": 5874,
      "Ġquant": 5875,
      "Ġboy": 5876,
      "ĠRoof": 5877,
      "ĠFire": 5878,
      "nIm": 5879,
      "ĠVal": 5880,
      "Ġslight": 5881,
      "isation": 5882,
      "dy": 5883,
      "Ġcalls": 5884,
      "An": 5885,
      "ĠShow": 5886,
      "Ġdeveloping": 5887,
      "Ġbill": 5888,
      "UD": 5889,
      "Ġkept": 5890,
      "iration": 5891,
      "âĦ¢": 5892,
      "asp": 5893,
      "Ġunit": 5894,
      "Ġdemonstr": 5895,
      "Ġflex": 5896,
      "ĠInt": 5897,
      "ĠFoundation": 5898,
      "Ġfan": 5899,
      "Ġcloud": 5900,
      "nMan": 5901,
      "Ġ90": 5902,
      "ĠGra": 5903,
      "ortgage": 5904,
      "entially": 5905,
      "ORE": 5906,
      "Ġmeant": 5907,
      "SP": 5908,
      "ĠTur": 5909,
      "ĠOh": 5910,
      "nTe": 5911,
      "Ġrob": 5912,
      "SE": 5913,
      "Ġschedule": 5914,
      "Ġrecip": 5915,
      "NG": 5916,
      "Ġwouldn": 5917,
      "211": 5918,
      "pay": 5919,
      ".)\\": 5920,
      "251": 5921,
      "ĠNone": 5922,
      "iat": 5923,
      "ĠWindows": 5924,
      "241": 5925,
      "Ġtechnologies": 5926,
      "esis": 5927,
      "Ġclasses": 5928,
      "Ġestim": 5929,
      "ĠJul": 5930,
      "fast": 5931,
      "ĠSoft": 5932,
      "222": 5933,
      "iler": 5934,
      "Ġcompreh": 5935,
      "Ġlicens": 5936,
      "Ġcontinued": 5937,
      "kes": 5938,
      "Ġfunctions": 5939,
      "9849378": 5940,
      "Ġ80": 5941,
      "ĠBill": 5942,
      "Ġreserved": 5943,
      "ooper": 5944,
      "ila": 5945,
      "443": 5946,
      "Ġvision": 5947,
      "icial": 5948,
      "Ġvisual": 5949,
      "oe": 5950,
      "Ġkeeping": 5951,
      "ĠCBD": 5952,
      "Ġmale": 5953,
      "Ġcraft": 5954,
      "xi": 5955,
      "IY": 5956,
      "2015": 5957,
      "Ġscore": 5958,
      "Ġclosed": 5959,
      "IB": 5960,
      "rupt": 5961,
      "ĠWatch": 5962,
      "ĠSil": 5963,
      "343": 5964,
      "Ġdecide": 5965,
      "Ġproperties": 5966,
      "HR": 5967,
      "ĠSto": 5968,
      "Ġmarked": 5969,
      "Ġliber": 5970,
      "Ġign": 5971,
      "Ġguarantee": 5972,
      "Ġpool": 5973,
      "oves": 5974,
      "If": 5975,
      "Ġproceed": 5976,
      "Ġdrug": 5977,
      "ĠSeries": 5978,
      "des": 5979,
      "978": 5980,
      "Ġplants": 5981,
      "ooks": 5982,
      "west": 5983,
      "ĠInte": 5984,
      "iller": 5985,
      "iki": 5986,
      "ĠCommit": 5987,
      "views": 5988,
      "064": 5989,
      "abet": 5990,
      "arks": 5991,
      "Ġlicense": 5992,
      "PC": 5993,
      "221": 5994,
      "Ġwaiting": 5995,
      "EST": 5996,
      "Ġappreciate": 5997,
      "ĠAddress": 5998,
      "Ġsatisf": 5999,
      "kin": 6000,
      "enture": 6001,
      "cknow": 6002,
      "nAm": 6003,
      "atin": 6004,
      "Ġthousands": 6005,
      "Ġforeign": 6006,
      "ĠEconom": 6007,
      "ĠMex": 6008,
      "lict": 6009,
      "872": 6010,
      "HT": 6011,
      "ĠJournal": 6012,
      "553": 6013,
      "Ġselected": 6014,
      "Ġpackage": 6015,
      "nFunctional": 6016,
      "Ġapplied": 6017,
      "ĠAnt": 6018,
      "Ġworry": 6019,
      "urniture": 6020,
      "Ġcentury": 6021,
      "Ġarchitect": 6022,
      "Ġrelax": 6023,
      "tters": 6024,
      "ĠNext": 6025,
      "ĠðŁĻĤ": 6026,
      "Ġfollowed": 6027,
      "nTerms": 6028,
      "Ġsty": 6029,
      "Ġtree": 6030,
      "ĠOpt": 6031,
      "Ġhotel": 6032,
      "nWhile": 6033,
      "Ġbound": 6034,
      "ĠâĨĴ\\": 6035,
      "ĠFull": 6036,
      "nPubl": 6037,
      "ĠBay": 6038,
      "estival": 6039,
      "Ġbecomes": 6040,
      "Ġcounter": 6041,
      "Ġesc": 6042,
      "ĠLab": 6043,
      "Ġcris": 6044,
      "anges": 6045,
      "bum": 6046,
      "but": 6047,
      "Ġcapacity": 6048,
      "categorized": 6049,
      "Ġbiggest": 6050,
      "ĠSupp": 6051,
      "Ġopening": 6052,
      "Ġpresented": 6053,
      "nNow": 6054,
      "ptoms": 6055,
      "nPrevious": 6056,
      "edy": 6057,
      "link": 6058,
      "Ġcitiz": 6059,
      "cles": 6060,
      "Ġmaster": 6061,
      "Ġbag": 6062,
      "ĠCode": 6063,
      "ician": 6064,
      "Ġadapt": 6065,
      "estic": 6066,
      "Ġrecipe": 6067,
      "Ġfol": 6068,
      "going": 6069,
      "âĤ¬": 6070,
      "044": 6071,
      "Ġsolid": 6072,
      "nSpe": 6073,
      "ĠSports": 6074,
      "ĠCy": 6075,
      "473": 6076,
      "ĠIP": 6077,
      "Ġheavy": 6078,
      "252": 6079,
      "Ġinstructions": 6080,
      "ĠRest": 6081,
      "Ġadvanced": 6082,
      "ĠOct": 6083,
      "abin": 6084,
      "Ġmotor": 6085,
      "irement": 6086,
      "amin": 6087,
      "usion": 6088,
      "Ġmo": 6089,
      "nSome": 6090,
      "Ġserved": 6091,
      "pan": 6092,
      "Ġchat": 6093,
      "nZ": 6094,
      "ections": 6095,
      "ambling": 6096,
      "ĠSuper": 6097,
      "ĠLeg": 6098,
      "Ġmemory": 6099,
      "Ġconnected": 6100,
      "Ġconcerns": 6101,
      "loyment": 6102,
      "ĠCore": 6103,
      "757": 6104,
      "Ġrat": 6105,
      "Ġload": 6106,
      "Ġadvis": 6107,
      "ĠAdministr": 6108,
      "prene": 6109,
      "ii": 6110,
      "Ġdelivered": 6111,
      "Ġcore": 6112,
      "Ġdaughter": 6113,
      "Ġdepending": 6114,
      "Ġ45": 6115,
      "Ġbeauty": 6116,
      "ĠSen": 6117,
      "iger": 6118,
      "ĠCreat": 6119,
      "ele": 6120,
      "767": 6121,
      "Ġminimum": 6122,
      "unning": 6123,
      "ĠUk": 6124,
      "=\\\"": 6125,
      "777": 6126,
      "ĠCentral": 6127,
      "XX": 6128,
      "ĠATM": 6129,
      "Ġmarkets": 6130,
      "Ġmap": 6131,
      "Ġevalu": 6132,
      "icken": 6133,
      "ĠMa": 6134,
      "Ġcollected": 6135,
      "berg": 6136,
      "Ġang": 6137,
      "ĠMont": 6138,
      "ĠTax": 6139,
      "Ġreaders": 6140,
      "ĠVideo": 6141,
      "ĠSummer": 6142,
      "Ġpow": 6143,
      "Ġflav": 6144,
      "Ġrap": 6145,
      "Ġder": 6146,
      "aches": 6147,
      "EAD": 6148,
      "ĠTom": 6149,
      "ĠLake": 6150,
      "Ġsugar": 6151,
      "Ġsupplier": 6152,
      "Ġbecoming": 6153,
      "you": 6154,
      "Ġenroll": 6155,
      ">\\": 6156,
      "Ġpaint": 6157,
      "ĠAngel": 6158,
      "Ġpassed": 6159,
      "nMe": 6160,
      "665": 6161,
      "ĠPubl": 6162,
      "ĠPet": 6163,
      "ĠAud": 6164,
      "Ġclearly": 6165,
      "Ġlabor": 6166,
      "230": 6167,
      "ria": 6168,
      "nAcc": 6169,
      "Ġprepared": 6170,
      "400": 6171,
      "ĠMount": 6172,
      "ferences": 6173,
      "Ġforget": 6174,
      "Ġseparate": 6175,
      "ĠTheir": 6176,
      "pre": 6177,
      "Ġreturned": 6178,
      "Ġcontinuing": 6179,
      "night": 6180,
      "Ġ200": 6181,
      "point": 6182,
      "126": 6183,
      "ulations": 6184,
      "ĠStat": 6185,
      "ECT": 6186,
      "ĠâĢ¦\\": 6187,
      "itors": 6188,
      "Ġsmooth": 6189,
      "Ġindex": 6190,
      "Ġfans": 6191,
      "Ġselling": 6192,
      "Ġinitial": 6193,
      "ĠBlue": 6194,
      "ãģ": 6195,
      "Re": 6196,
      "isher": 6197,
      "302": 6198,
      "Ġtypically": 6199,
      "td": 6200,
      "Ġrare": 6201,
      "Ex": 6202,
      "Ġdanger": 6203,
      "ĠArts": 6204,
      "Ġsecret": 6205,
      "057": 6206,
      "ĠWho": 6207,
      "Ġmajority": 6208,
      "Ġparent": 6209,
      "âĢĺ": 6210,
      "ĠDiv": 6211,
      "Ġaccounts": 6212,
      "ĠRiver": 6213,
      "nCopyright": 6214,
      "ĠLu": 6215,
      "hab": 6216,
      "ien": 6217,
      "ĠCommun": 6218,
      "iliar": 6219,
      "ĠEarth": 6220,
      "Ġexcited": 6221,
      "074": 6222,
      "ÙĦ": 6223,
      "ilit": 6224,
      "Ġvary": 6225,
      "Ġinterests": 6226,
      "Ġfocused": 6227,
      "Ġcolors": 6228,
      "Ġcells": 6229,
      "km": 6230,
      "br": 6231,
      "Ġsector": 6232,
      "Ġdirection": 6233,
      "Ġmat": 6234,
      "umm": 6235,
      "Ġconfident": 6236,
      "reprene": 6237,
      "nTags": 6238,
      "Ġtherapy": 6239,
      "nBack": 6240,
      "ĠTuesday": 6241,
      "Ġtoward": 6242,
      "bol": 6243,
      "Ñģ": 6244,
      "craft": 6245,
      "Ġsomew": 6246,
      "Ġpredict": 6247,
      "ĠMichael": 6248,
      "ĠColor": 6249,
      "Ġbonus": 6250,
      "aning": 6251,
      "KS": 6252,
      "948": 6253,
      "ĠJew": 6254,
      "ĠCancel": 6255,
      "Ġglo": 6256,
      "ciences": 6257,
      "Ġapproved": 6258,
      "Ġpayments": 6259,
      "Ġwedding": 6260,
      "nBuy": 6261,
      "ception": 6262,
      "Ġwinter": 6263,
      "HA": 6264,
      "RI": 6265,
      "Ġshape": 6266,
      "750": 6267,
      "icago": 6268,
      "een": 6269,
      "Ar": 6270,
      "Ġstars": 6271,
      "umn": 6272,
      "774": 6273,
      "nBusiness": 6274,
      "Ġlan": 6275,
      "968": 6276,
      "reement": 6277,
      "ĠTour": 6278,
      "Ġnumerous": 6279,
      "ĠEstate": 6280,
      "Ġalternative": 6281,
      "prise": 6282,
      "Ġmaintenance": 6283,
      "UP": 6284,
      "Ġcircumst": 6285,
      "encing": 6286,
      "nDr": 6287,
      "inct": 6288,
      "ua": 6289,
      "Ġformat": 6290,
      "Ġholiday": 6291,
      "Ġgoods": 6292,
      "Ġforg": 6293,
      "958": 6294,
      "char": 6295,
      "rees": 6296,
      "Ġsitu": 6297,
      "omas": 6298,
      "outhern": 6299,
      "ĠRad": 6300,
      "TV": 6301,
      "Ġsounds": 6302,
      "ĠCO": 6303,
      "ĠWednesday": 6304,
      "Ġsets": 6305,
      "Ġmiles": 6306,
      "ĠPC": 6307,
      "Ġlabel": 6308,
      "Ġshot": 6309,
      "Ġhospital": 6310,
      "2014": 6311,
      "Ġcompar": 6312,
      "ĠLong": 6313,
      "077": 6314,
      "onom": 6315,
      "Ġfriendly": 6316,
      "owl": 6317,
      "ĠAppl": 6318,
      "etry": 6319,
      "Ġoperating": 6320,
      "ĠEnd": 6321,
      "565": 6322,
      "240": 6323,
      "ĠBi": 6324,
      "ĠStudents": 6325,
      "Ġglad": 6326,
      "988": 6327,
      "ĠPen": 6328,
      "Ġcommitted": 6329,
      "Ġcatch": 6330,
      "related": 6331,
      "Ġmenu": 6332,
      "uable": 6333,
      "130": 6334,
      "App": 6335,
      "Ġreliable": 6336,
      "cean": 6337,
      "888": 6338,
      "Ġcentral": 6339,
      "road": 6340,
      "ĠMember": 6341,
      "Ġcontinues": 6342,
      "comp": 6343,
      "olate": 6344,
      "Ġphotograph": 6345,
      "ĠNeed": 6346,
      "Ġmanner": 6347,
      "roy": 6348,
      "nFind": 6349,
      "istant": 6350,
      "oration": 6351,
      "eld": 6352,
      "ĠRober": 6353,
      "Ġmeasures": 6354,
      "Ġtroub": 6355,
      "Ġwine": 6356,
      "ĠGen": 6357,
      "ĺħ": 6358,
      "idge": 6359,
      "ĠMass": 6360,
      "po": 6361,
      "bu": 6362,
      "Ġwilling": 6363,
      "Ġadding": 6364,
      "ĠCON": 6365,
      "Ġinstallation": 6366,
      "Ġclub": 6367,
      "ĠPract": 6368,
      "Ġrent": 6369,
      "king": 6370,
      "nell": 6371,
      "ccept": 6372,
      "Ġabuse": 6373,
      "Ġbattery": 6374,
      "nel": 6375,
      "ĠDi": 6376,
      "Ġok": 6377,
      "Ġnegative": 6378,
      "Ġseven": 6379,
      "ĠEngland": 6380,
      "8715": 6381,
      "ĠOverview": 6382,
      "ĠLou": 6383,
      "Ġartist": 6384,
      "Ġacknow": 6385,
      "ĠMaster": 6386,
      "ilosoph": 6387,
      "Ġdebt": 6388,
      "ĠProduct": 6389,
      "Ġenvironmental": 6390,
      "Ġacademic": 6391,
      "918": 6392,
      "MG": 6393,
      "Ġslot": 6394,
      "Ġproud": 6395,
      "Ġcivil": 6396,
      "ÃĹ\\": 6397,
      "ĠSa": 6398,
      "inations": 6399,
      "iveness": 6400,
      "MP": 6401,
      "eah": 6402,
      "Ġcrypto": 6403,
      "Ġthus": 6404,
      "bi": 6405,
      "Ġdepartment": 6406,
      "ĠFeature": 6407,
      "272": 6408,
      "uing": 6409,
      "Ġpresence": 6410,
      "uries": 6411,
      "adian": 6412,
      "ĠKeep": 6413,
      "ĠThursday": 6414,
      "ĠRoofing": 6415,
      "ĠTips": 6416,
      "perty": 6417,
      "otic": 6418,
      "gment": 6419,
      "Ġsurg": 6420,
      "pes": 6421,
      "ĠYouTube": 6422,
      "Ġcat": 6423,
      "SL": 6424,
      "350": 6425,
      "olit": 6426,
      "Ġbrings": 6427,
      "Ġprec": 6428,
      "132": 6429,
      "ĠPass": 6430,
      "Ã¯": 6431,
      "illage": 6432,
      "Ġcamera": 6433,
      "Ġapprox": 6434,
      "Ġonto": 6435,
      "Ġlisten": 6436,
      "Ġasking": 6437,
      "Ġdomain": 6438,
      "ĠDev": 6439,
      "301": 6440,
      "Ġfra": 6441,
      "igan": 6442,
      "ĠAlthough": 6443,
      "ampion": 6444,
      "QU": 6445,
      "SC": 6446,
      "Ġtotally": 6447,
      "Ġdeposit": 6448,
      "ĠArticle": 6449,
      "rastructure": 6450,
      "nUp": 6451,
      "Ġdetailed": 6452,
      "grade": 6453,
      "esh": 6454,
      "ĠBen": 6455,
      "otal": 6456,
      "inst": 6457,
      "ailability": 6458,
      "HL": 6459,
      "Ġwatching": 6460,
      "nJust": 6461,
      "ĠWood": 6462,
      "Ġteacher": 6463,
      "post": 6464,
      "ãĤ": 6465,
      "ĠFlo": 6466,
      "140": 6467,
      "440": 6468,
      "Ġeight": 6469,
      "Ġwriter": 6470,
      "Ġcup": 6471,
      "den": 6472,
      "Ġspending": 6473,
      "Ġmand": 6474,
      "ĠEvents": 6475,
      "Â·": 6476,
      "ĠLive": 6477,
      "Ġfinished": 6478,
      "ĠPinterest": 6479,
      "ĠOper": 6480,
      "uts": 6481,
      "ademy": 6482,
      "ĠALL": 6483,
      "ĠReading": 6484,
      "Ġremains": 6485,
      "Ġelectronic": 6486,
      "reate": 6487,
      "Ġmostly": 6488,
      "Ġrule": 6489,
      "dis": 6490,
      "Ġdish": 6491,
      "ĠUnion": 6492,
      "ovid": 6493,
      "PG": 6494,
      "ĠDate": 6495,
      "Ġanimals": 6496,
      "ĠFind": 6497,
      "Ġleaving": 6498,
      "242": 6499,
      "ĠIts": 6500,
      "oses": 6501,
      "ello": 6502,
      "erts": 6503,
      "raine": 6504,
      "231": 6505,
      "Ġtrial": 6506,
      "Ġ2003": 6507,
      "ĠSociety": 6508,
      "ĠTake": 6509,
      "ĠJun": 6510,
      "rivers": 6511,
      "ĠLast": 6512,
      "ius": 6513,
      "ĠResources": 6514,
      "ĠOnly": 6515,
      "ĠLic": 6516,
      "Ġfunding": 6517,
      "Ġpermission": 6518,
      "Ġmaximum": 6519,
      "pret": 6520,
      "orter": 6521,
      "nLast": 6522,
      "Ġmonthly": 6523,
      "Ġgun": 6524,
      "ĠPhys": 6525,
      "afe": 6526,
      "ĠBeach": 6527,
      "Ġrestaurant": 6528,
      "Ġresidents": 6529,
      "Ġnewsletter": 6530,
      "bar": 6531,
      "\\\".": 6532,
      "Ġcopyright": 6533,
      "043": 6534,
      "Ġcharges": 6535,
      "xiety": 6536,
      "ĠLin": 6537,
      "nFin": 6538,
      "ĠFre": 6539,
      "Ġcombination": 6540,
      "Ġoperation": 6541,
      "Ġcorporate": 6542,
      "alse": 6543,
      "draw": 6544,
      "Ġvirtual": 6545,
      "Ġtheory": 6546,
      "MT": 6547,
      "DR": 6548,
      "141": 6549,
      "ga": 6550,
      "Ġdirector": 6551,
      "igration": 6552,
      "ĠJava": 6553,
      "Ġdied": 6554,
      "ducing": 6555,
      "Ġyes": 6556,
      "quire": 6557,
      "ultural": 6558,
      "ĠAlex": 6559,
      "ĠProducts": 6560,
      "Ġprepare": 6561,
      "Ġelig": 6562,
      "ĠTimes": 6563,
      "Ġappears": 6564,
      "Ġconflict": 6565,
      "Ġfish": 6566,
      "Ġscale": 6567,
      "Ġfacility": 6568,
      "Ġbrands": 6569,
      "Ġgarden": 6570,
      "Ġemployee": 6571,
      "Ġinternal": 6572,
      "Ġexpensive": 6573,
      "ĠÎ": 6574,
      "ĠPri": 6575,
      "nDis": 6576,
      "Ġstores": 6577,
      "ĠFort": 6578,
      "ĠSet": 6579,
      "Ġ500": 6580,
      "Ġbird": 6581,
      "quir": 6582,
      "Ġteachers": 6583,
      "Ġcultural": 6584,
      "336": 6585,
      "Ġenjoyed": 6586,
      "Ġassets": 6587,
      "Ġshowing": 6588,
      "osen": 6589,
      "ĠPack": 6590,
      "160": 6591,
      "Ġconsumers": 6592,
      "Ġanonymous": 6593,
      "ĠCarol": 6594,
      "ĠCommittee": 6595,
      "Ġmulti": 6596,
      "Ġmotiv": 6597,
      "Ġwhom": 6598,
      "ket": 6599,
      "Ð½": 6600,
      "cking": 6601,
      "Ġassum": 6602,
      "ĠMot": 6603,
      "Ġsand": 6604,
      "nAre": 6605,
      "Ġnet": 6606,
      "OX": 6607,
      "UB": 6608,
      "Ġtalent": 6609,
      "nOver": 6610,
      "Ġstated": 6611,
      "ĠHy": 6612,
      "ĠHear": 6613,
      "Ġconversation": 6614,
      "ĠPanel": 6615,
      "763": 6616,
      "ĠVirgin": 6617,
      "fortunately": 6618,
      "nAnonymous": 6619,
      "ĠLimited": 6620,
      "151": 6621,
      "loc": 6622,
      "Ġlocations": 6623,
      "664": 6624,
      "ĠHead": 6625,
      "nDescription": 6626,
      "ounter": 6627,
      "550": 6628,
      "ĠSmith": 6629,
      "Ġplenty": 6630,
      "ĠQue": 6631,
      "ĠHom": 6632,
      "Ġtab": 6633,
      "ools": 6634,
      "\\\":\\\"": 6635,
      "Ġnotes": 6636,
      "AK": 6637,
      "ulated": 6638,
      "ĠCH": 6639,
      "nh": 6640,
      "vents": 6641,
      "nCustom": 6642,
      "nGo": 6643,
      "Ġevening": 6644,
      "Ġnecess": 6645,
      "IZ": 6646,
      "wareness": 6647,
      "063": 6648,
      "Ġsubscri": 6649,
      "cope": 6650,
      "Ġrental": 6651,
      "Ġquarter": 6652,
      "Ġexecut": 6653,
      "Ġconfig": 6654,
      "Ġtransform": 6655,
      "ÑĢ": 6656,
      "067": 6657,
      "Ġbought": 6658,
      "emporary": 6659,
      "ĠHand": 6660,
      "gar": 6661,
      "rical": 6662,
      "MC": 6663,
      "Ġpersonally": 6664,
      "ĠLibrary": 6665,
      "Ġdriver": 6666,
      "oval": 6667,
      "Ġprote": 6668,
      "opular": 6669,
      "Ġsymptoms": 6670,
      "oung": 6671,
      "271": 6672,
      "aters": 6673,
      "Ġourselves": 6674,
      "ĠRussia": 6675,
      "cohol": 6676,
      "rooms": 6677,
      "lements": 6678,
      "ĠManager": 6679,
      "ĠGermany": 6680,
      "OB": 6681,
      "erves": 6682,
      "Ġmanager": 6683,
      "iche": 6684,
      "Ġremoved": 6685,
      "Ġeating": 6686,
      "Ġreference": 6687,
      "alian": 6688,
      "Ġfilter": 6689,
      "ĠFriend": 6690,
      "ĠEnergy": 6691,
      "ĠFrance": 6692,
      "rs": 6693,
      "icians": 6694,
      "ĠKore": 6695,
      "EY": 6696,
      "?âĢĿ": 6697,
      "Ġsmaller": 6698,
      "NC": 6699,
      "ĠWall": 6700,
      "aked": 6701,
      "450": 6702,
      "Ġlogin": 6703,
      "fil": 6704,
      "equ": 6705,
      "see": 6706,
      "ĠEth": 6707,
      "ĠMad": 6708,
      "ĠTor": 6709,
      "Ġleads": 6710,
      "Ġlegis": 6711,
      "ĠCost": 6712,
      "Ġfamous": 6713,
      "IK": 6714,
      "Ġpreviously": 6715,
      "Ġfulf": 6716,
      "Ġidentity": 6717,
      "iquid": 6718,
      "ye": 6719,
      "lash": 6720,
      "ĠTwo": 6721,
      "WS": 6722,
      "753": 6723,
      "folio": 6724,
      "nFeature": 6725,
      "Ġeducational": 6726,
      "ĠWin": 6727,
      "cket": 6728,
      "Ġapps": 6729,
      "ĠPlus": 6730,
      "Ġsoul": 6731,
      "ĠBas": 6732,
      "non": 6733,
      "Ġchoices": 6734,
      "liance": 6735,
      "nDownload": 6736,
      "ĠJoh": 6737,
      "Ġspring": 6738,
      "nMost": 6739,
      "zen": 6740,
      "oga": 6741,
      "808": 6742,
      "Ġinfluence": 6743,
      "Ġrid": 6744,
      "ĠON": 6745,
      "Ġingredients": 6746,
      "ĠCredit": 6747,
      "Ġwaste": 6748,
      "ĠØ": 6749,
      "Ã³": 6750,
      "gers": 6751,
      "Script": 6752,
      "Ġanalytics": 6753,
      "ancis": 6754,
      "Ġgeneration": 6755,
      "Ġconfidence": 6756,
      "phas": 6757,
      "Ġdelete": 6758,
      "8328147": 6759,
      "opped": 6760,
      "131": 6761,
      "agers": 6762,
      "ĠHill": 6763,
      "Ġrout": 6764,
      "ĠAgreement": 6765,
      "Ġkid": 6766,
      "ĠId": 6767,
      "Ġended": 6768,
      "Ġdynam": 6769,
      "Ġlibrary": 6770,
      "Ġfemale": 6771,
      "161": 6772,
      "Ġanywhere": 6773,
      "Ġ{{": 6774,
      "Ġpromote": 6775,
      "Ġdistribut": 6776,
      "208": 6777,
      "Ġwind": 6778,
      "Ġment": 6779,
      "ali": 6780,
      "Ġdie": 6781,
      "Ġaspects": 6782,
      "EU": 6783,
      "!\",\"": 6784,
      "nComment": 6785,
      "340": 6786,
      "Ġrise": 6787,
      "ĠDuring": 6788,
      "nSave": 6789,
      "ĠFollow": 6790,
      "nab": 6791,
      "ĠNon": 6792,
      "vely": 6793,
      "ĠMer": 6794,
      "ĠGrand": 6795,
      "Ġcars": 6796,
      "nNon": 6797,
      "Ġsupported": 6798,
      "Ġagent": 6799,
      "Ġallowing": 6800,
      "351": 6801,
      "inating": 6802,
      "ĠMil": 6803,
      "week": 6804,
      "Ġdisp": 6805,
      "ĠSup": 6806,
      "ĠTer": 6807,
      "Ġmagn": 6808,
      "ĠIll": 6809,
      "Ġice": 6810,
      "ĠCertificate": 6811,
      "itionally": 6812,
      "nVis": 6813,
      "Ġputting": 6814,
      "gov": 6815,
      "Ġcommenting": 6816,
      "Ġsea": 6817,
      "Ġhearing": 6818,
      "Ġcomput": 6819,
      "Ġartists": 6820,
      "ervice": 6821,
      "ĠStrateg": 6822,
      "As": 6823,
      "Ġcompetition": 6824,
      "Ġmanaged": 6825,
      "zed": 6826,
      "Ġawesome": 6827,
      "Ġswe": 6828,
      "men": 6829,
      "ulate": 6830,
      "aro": 6831,
      "ĠFe": 6832,
      "Ġcrow": 6833,
      "Ġmatters": 6834,
      "773": 6835,
      "Ġstarts": 6836,
      "ĠBible": 6837,
      "Ġdistrict": 6838,
      "ĠTim": 6839,
      "Ġtit": 6840,
      "Ġ70": 6841,
      "DT": 6842,
      "ĠRussian": 6843,
      "053": 6844,
      "Ġmedium": 6845,
      "urers": 6846,
      "Ġminute": 6847,
      "onds": 6848,
      "ĠBooks": 6849,
      "Ġknowing": 6850,
      "Ġsurvey": 6851,
      "Ġvote": 6852,
      "host": 6853,
      "nThey": 6854,
      "Ġtracking": 6855,
      "ÃŃ": 6856,
      "567": 6857,
      "Ġimpl": 6858,
      "Ġminor": 6859,
      "ĠRight": 6860,
      "Ġmetal": 6861,
      "ĠCath": 6862,
      "HY": 6863,
      "ipe": 6864,
      "Ġpurchased": 6865,
      "which": 6866,
      "ĠMo": 6867,
      "ĠGerman": 6868,
      "Ġdescription": 6869,
      "ĠEss": 6870,
      "ato": 6871,
      "Ġeditor": 6872,
      "Ġhealthcare": 6873,
      "nFree": 6874,
      "2013": 6875,
      "Ġfacilities": 6876,
      "Ġ01": 6877,
      "Ã¢": 6878,
      "ĠSett": 6879,
      "Ġdim": 6880,
      "outs": 6881,
      "nHealth": 6882,
      "ĠWhere": 6883,
      "Ġbelief": 6884,
      "ĠSy": 6885,
      "Ġrealize": 6886,
      "Ġexpertise": 6887,
      "574": 6888,
      "oosing": 6889,
      "nCheck": 6890,
      "Ġinstru": 6891,
      "261": 6892,
      "Ġmovies": 6893,
      "ĠAfrican": 6894,
      "Ġmissing": 6895,
      "Ġlands": 6896,
      "Ġdatabase": 6897,
      "lace": 6898,
      "989": 6899,
      "criptions": 6900,
      "GR": 6901,
      "Ġstreet": 6902,
      "Ġ2000": 6903,
      "bl": 6904,
      "Ġinstalled": 6905,
      "Ġresource": 6906,
      "url": 6907,
      "products": 6908,
      "Ġfeels": 6909,
      "270": 6910,
      "ĠValley": 6911,
      "979": 6912,
      "Ġperspective": 6913,
      "939": 6914,
      "Ġopened": 6915,
      "Ġclassic": 6916,
      "ĠDen": 6917,
      "Ġclinical": 6918,
      "Ġcheap": 6919,
      "Ġexplor": 6920,
      "Ġchemical": 6921,
      "Ġrecovery": 6922,
      "NN": 6923,
      "Ġdefault": 6924,
      "respond": 6925,
      "osph": 6926,
      "eries": 6927,
      "this": 6928,
      "Ġconsequ": 6929,
      "under": 6930,
      "361": 6931,
      "rum": 6932,
      "ĠGame": 6933,
      "appy": 6934,
      "ĠMult": 6935,
      "Ġbright": 6936,
      "ĠSl": 6937,
      "nComments": 6938,
      "nInter": 6939,
      "Ġreceiving": 6940,
      "109": 6941,
      "Ġboost": 6942,
      "Ġfamiliar": 6943,
      "Ġdesire": 6944,
      "Ġcrim": 6945,
      "oster": 6946,
      "sell": 6947,
      "ĠDoes": 6948,
      "Ġtheme": 6949,
      "Ġimportance": 6950,
      "Ġreasonable": 6951,
      "260": 6952,
      "262": 6953,
      "eases": 6954,
      "654": 6955,
      "essage": 6956,
      "Ġcircumstances": 6957,
      "Ġdoubt": 6958,
      "Ġaid": 6959,
      "Ġthrow": 6960,
      "ype": 6961,
      "ano": 6962,
      "Ġexciting": 6963,
      "ĠStory": 6964,
      "ĠTree": 6965,
      "Ġconference": 6966,
      "Ġdram": 6967,
      "Ġleaves": 6968,
      "reme": 6969,
      "fficient": 6970,
      "209": 6971,
      "ĠLoading": 6972,
      "Ġspecies": 6973,
      "uzz": 6974,
      "Ġadmin": 6975,
      "ÂŃ": 6976,
      "ĠWay": 6977,
      "Ġvehicles": 6978,
      "Ġinvestig": 6979,
      "pected": 6980,
      "ĠBrand": 6981,
      "Ġarrang": 6982,
      "ensions": 6983,
      "gi": 6984,
      "ibilities": 6985,
      "Ġaccessible": 6986,
      "lines": 6987,
      "969": 6988,
      "Ġagents": 6989,
      "ancer": 6990,
      "Ġreturns": 6991,
      "Ġconcent": 6992,
      "quisite": 6993,
      "ogue": 6994,
      "TT": 6995,
      "657": 6996,
      "ĠMedicine": 6997,
      "QL": 6998,
      "onial": 6999,
      "Ġencourage": 7000,
      "nPart": 7001,
      "iden": 7002,
      "Ġsigns": 7003,
      "rier": 7004,
      "nEd": 7005,
      "Ġton": 7006,
      "Ġcop": 7007,
      "VD": 7008,
      "Ġauthority": 7009,
      "nSp": 7010,
      "enders": 7011,
      "Ġroof": 7012,
      "ĠPain": 7013,
      "ĠEU": 7014,
      "ĠAward": 7015,
      "etime": 7016,
      "ĠLearning": 7017,
      "073": 7018,
      "odies": 7019,
      "Ġfuel": 7020,
      "nLet": 7021,
      "âĢ¦.": 7022,
      "Ġdogs": 7023,
      "What": 7024,
      "Ġvictim": 7025,
      "othing": 7026,
      "ĠBit": 7027,
      "751": 7028,
      "Ġauthent": 7029,
      "Ġmarriage": 7030,
      "laimer": 7031,
      "Ġapproval": 7032,
      "iana": 7033,
      "Ġdespite": 7034,
      "rick": 7035,
      "Ġscientific": 7036,
      "bes": 7037,
      "poration": 7038,
      "Ġfantastic": 7039,
      "938": 7040,
      "nColl": 7041,
      "108": 7042,
      "Ġbelong": 7043,
      "rite": 7044,
      "UG": 7045,
      "ĠCEO": 7046,
      "Ġswitch": 7047,
      "282": 7048,
      "ocolate": 7049,
      "Ġtaste": 7050,
      "Ġcreation": 7051,
      "ĠGames": 7052,
      "ĠJud": 7053,
      "Ġscene": 7054,
      "hand": 7055,
      "ĠSoftware": 7056,
      "ĠBefore": 7057,
      "152": 7058,
      "Ġcomponents": 7059,
      "fra": 7060,
      "Ġshowed": 7061,
      "âĺħ": 7062,
      "ĠAuto": 7063,
      "print": 7064,
      "Ġfaster": 7065,
      "Ġbrief": 7066,
      "Ġfreedom": 7067,
      "Ġsnow": 7068,
      "ĠMach": 7069,
      "OY": 7070,
      "udden": 7071,
      "ĠFederal": 7072,
      "\\\",\\\"": 7073,
      "coll": 7074,
      "ãĥ": 7075,
      "ĠGirl": 7076,
      "plan": 7077,
      "upp": 7078,
      "Ġuniversity": 7079,
      "Ġthr": 7080,
      "PN": 7081,
      "ĠĠĠĠĠĠĠĠ": 7082,
      "He": 7083,
      "Ġcauses": 7084,
      "ĠStore": 7085,
      "Ġneighbor": 7086,
      "Ġ.\\": 7087,
      "ĠWriting": 7088,
      "Ġemergency": 7089,
      "674": 7090,
      "ĠFarm": 7091,
      "uled": 7092,
      "olve": 7093,
      "Ġmedicine": 7094,
      "Ġadults": 7095,
      "Ġdistance": 7096,
      "Ġconsumer": 7097,
      "Ġdecre": 7098,
      "Ġmouth": 7099,
      "ĠSal": 7100,
      "FR": 7101,
      "Ġraised": 7102,
      "Ġregulations": 7103,
      "Ġplastic": 7104,
      "ĠVer": 7105,
      "ĠAmericans": 7106,
      "171": 7107,
      "ĠDetails": 7108,
      "email": 7109,
      "002": 7110,
      "Ġtransl": 7111,
      "IX": 7112,
      "mes": 7113,
      "eting": 7114,
      "ossible": 7115,
      "Ġcontents": 7116,
      "Ġwinning": 7117,
      "ĠRev": 7118,
      "Ġaccord": 7119,
      "Ġrisks": 7120,
      "562": 7121,
      "Ġdesigns": 7122,
      "ĠContin": 7123,
      "Ġcomprehensive": 7124,
      "ĠDef": 7125,
      "ĠCup": 7126,
      "\\\\\\\\\\\\\\\\\\\\\\\\\\\\\\\\\\\\\\\\\\\\\\\\\\\\\\\\\\\\\\\\": 7127,
      "iner": 7128,
      "ĠShop": 7129,
      "Ġreached": 7130,
      "142": 7131,
      "Ġjoy": 7132,
      "Ġbless": 7133,
      "ĠAsia": 7134,
      "ĠDog": 7135,
      "anufact": 7136,
      "564": 7137,
      "ĠDownload": 7138,
      "reland": 7139,
      "Ġspect": 7140,
      "Ġvolunte": 7141,
      "Ġapart": 7142,
      "818": 7143,
      "car": 7144,
      "Ġadult": 7145,
      "ĠMen": 7146,
      "Ġinstance": 7147,
      "Ġlit": 7148,
      "Ġaccepted": 7149,
      "ĠAge": 7150,
      "rome": 7151,
      "Ġissued": 7152,
      "Ġaffordable": 7153,
      "ĠChildren": 7154,
      "Ġaccompl": 7155,
      "Ġcrisis": 7156,
      "town": 7157,
      "utter": 7158,
      "Ġegg": 7159,
      "Ġcommunications": 7160,
      "Ġdecor": 7161,
      "ĠCustomer": 7162,
      "ĠGl": 7163,
      "908": 7164,
      "ĠNet": 7165,
      "Ġspl": 7166,
      "ĠBre": 7167,
      "duction": 7168,
      "ĠScholar": 7169,
      "va": 7170,
      "118": 7171,
      "Ġdistribution": 7172,
      "Ġseeking": 7173,
      "Ġfilled": 7174,
      "121": 7175,
      "Ġcities": 7176,
      "ML": 7177,
      "Ġwest": 7178,
      "last": 7179,
      "lied": 7180,
      "unched": 7181,
      "Ġregularly": 7182,
      "ko": 7183,
      "Ġdu": 7184,
      "Ġpregn": 7185,
      "ĠSant": 7186,
      "Ġbull": 7187,
      "HP": 7188,
      "ĠCongress": 7189,
      "Ġpremium": 7190,
      "Ġflat": 7191,
      "Ġpossibly": 7192,
      "âĨ": 7193,
      "world": 7194,
      "Ġillust": 7195,
      "water": 7196,
      "ername": 7197,
      "ĠSpirit": 7198,
      "Ġowned": 7199,
      "Ġ%": 7200,
      "Ġsenior": 7201,
      "Ġsessions": 7202,
      "ĠArticles": 7203,
      "Ġanswers": 7204,
      "ĠKey": 7205,
      "ĠShould": 7206,
      "Ġfootball": 7207,
      "Ġrand": 7208,
      "ĠNav": 7209,
      "667": 7210,
      "Ġsad": 7211,
      "Ġchart": 7212,
      "Ġsquare": 7213,
      "Ġmarried": 7214,
      "ĠCR": 7215,
      "Ġexamples": 7216,
      "Ġelement": 7217,
      "Ġvisiting": 7218,
      "Ġsigned": 7219,
      "Ġexternal": 7220,
      "Ġcream": 7221,
      "Ġhyd": 7222,
      "Ġpaying": 7223,
      "âĢĭ\\": 7224,
      "Ġcoup": 7225,
      "yan": 7226,
      "achel": 7227,
      "ĠTrust": 7228,
      "Ġvolume": 7229,
      "Ġvisits": 7230,
      "evision": 7231,
      "nus": 7232,
      "ĠDeb": 7233,
      "ĠHam": 7234,
      "Ġvaluable": 7235,
      "inar": 7236,
      "nOff": 7237,
      "ikes": 7238,
      "orgia": 7239,
      "Ġrapid": 7240,
      "Ġsteel": 7241,
      "Ġrevenue": 7242,
      "Ġwalking": 7243,
      "ĠUN": 7244,
      "ĠBer": 7245,
      "Ġmur": 7246,
      "away": 7247,
      "orce": 7248,
      "Ġserving": 7249,
      "Ġslightly": 7250,
      "Ġshares": 7251,
      "ĠNumber": 7252,
      "892": 7253,
      "Ġveget": 7254,
      "Ġaccommod": 7255,
      "Ġsending": 7256,
      "ean": 7257,
      "Ġdesigner": 7258,
      "ĠDemocr": 7259,
      "Ġparticipants": 7260,
      "home": 7261,
      "Ġpair": 7262,
      "nRet": 7263,
      "Ġperman": 7264,
      "Ġauthors": 7265,
      "Ġinvent": 7266,
      "909": 7267,
      "Ġtaxes": 7268,
      "Ġyouth": 7269,
      "ĠFrancis": 7270,
      "Ġarm": 7271,
      "rating": 7272,
      "ĠCart": 7273,
      "Ġdetermined": 7274,
      "imb": 7275,
      "bell": 7276,
      "Ġchain": 7277,
      "Ġstrugg": 7278,
      "Ġadministration": 7279,
      "Ġdecades": 7280,
      "Ġanimal": 7281,
      "nÎ": 7282,
      "441": 7283,
      "371": 7284,
      "ĠDom": 7285,
      "Ġmine": 7286,
      "anish": 7287,
      "Ġrain": 7288,
      "ache": 7289,
      "162": 7290,
      "Ġscholar": 7291,
      "ĠStudies": 7292,
      "ĠGeorge": 7293,
      "Ġjump": 7294,
      "ĠSell": 7295,
      "ĠMatt": 7296,
      "Ġsupporting": 7297,
      "ĠMobile": 7298,
      "ĠThrough": 7299,
      "Ð¾Ð": 7300,
      "ĠWestern": 7301,
      "owing": 7302,
      "ears": 7303,
      "greg": 7304,
      "ĠSP": 7305,
      "Ġsin": 7306,
      "Ġepisode": 7307,
      "Ġpills": 7308,
      "Ġperformed": 7309,
      "ĠAug": 7310,
      "acks": 7311,
      "ĠInf": 7312,
      "2012": 7313,
      "Ġelection": 7314,
      "istered": 7315,
      "zh": 7316,
      "Ġfailure": 7317,
      "Ġtech": 7318,
      "451": 7319,
      "Ġtradem": 7320,
      "oor": 7321,
      "ĠReserved": 7322,
      "ĠOil": 7323,
      "Ġmir": 7324,
      "ĠOrder": 7325,
      "Ġcompens": 7326,
      "Ġsport": 7327,
      "461": 7328,
      "riz": 7329,
      "Ġbike": 7330,
      "ĠImp": 7331,
      "UK": 7332,
      "ĠSand": 7333,
      "ĠPolit": 7334,
      "!!\\": 7335,
      "Ġeffectively": 7336,
      "9106": 7337,
      "119": 7338,
      "UC": 7339,
      "331": 7340,
      "lights": 7341,
      "Ġemails": 7342,
      "Ġelim": 7343,
      "Ġgender": 7344,
      "race": 7345,
      "Ġreligious": 7346,
      "isa": 7347,
      "ĠLand": 7348,
      "Ġec": 7349,
      "class": 7350,
      "ospit": 7351,
      "Ã¼": 7352,
      "Ġinnovative": 7353,
      "Ġupload": 7354,
      "ĠTech": 7355,
      "Ġreporting": 7356,
      "ĠCentre": 7357,
      "Ġhistorical": 7358,
      "Ġruns": 7359,
      "UV": 7360,
      "Ġassume": 7361,
      "health": 7362,
      "HE": 7363,
      "Ġdefined": 7364,
      "170": 7365,
      "Ġauto": 7366,
      "Ġtrees": 7367,
      "Ġride": 7368,
      "acific": 7369,
      "Ġdiscre": 7370,
      "HD": 7371,
      "Ġalbum": 7372,
      "Ġequal": 7373,
      "ecurity": 7374,
      "Ġrandom": 7375,
      "Ġviolence": 7376,
      "ĠIr": 7377,
      "Ġradio": 7378,
      "olved": 7379,
      "ĠEnvironment": 7380,
      "Ġpayday": 7381,
      "Ġfold": 7382,
      "ĠBox": 7383,
      "active": 7384,
      "ects": 7385,
      "ART": 7386,
      "ĠChicago": 7387,
      "thlet": 7388,
      "Ġworldwide": 7389,
      "Ġexclusive": 7390,
      "eder": 7391,
      "Ġspeaking": 7392,
      "ords": 7393,
      "Ġsignature": 7394,
      "munity": 7395,
      "471": 7396,
      "Ġcombined": 7397,
      "Ġkinds": 7398,
      "ĠLan": 7399,
      "ractor": 7400,
      "Ġvul": 7401,
      "9307": 7402,
      "Ġengineering": 7403,
      "oil": 7404,
      "ican": 7405,
      "including": 7406,
      "341": 7407,
      "ĠMicrosoft": 7408,
      "Ġbusy": 7409,
      "ĠProcess": 7410,
      "Ġlawyer": 7411,
      "ĠCredits": 7412,
      "192": 7413,
      "Ġmanufacturing": 7414,
      "Ġpublish": 7415,
      "Ġguests": 7416,
      "ĠEngineering": 7417,
      "ias": 7418,
      "ITY": 7419,
      "Ġspons": 7420,
      "Ġsla": 7421,
      "ĠSolutions": 7422,
      "ĠScott": 7423,
      "Ġdiscovered": 7424,
      "Ġemployment": 7425,
      "uxury": 7426,
      "RC": 7427,
      "Ġanal": 7428,
      "Ġeventually": 7429,
      "ĠType": 7430,
      "ĠAS": 7431,
      "406": 7432,
      "........": 7433,
      "Ġseemed": 7434,
      "Ġlived": 7435,
      "Ġcalling": 7436,
      "Ġpanel": 7437,
      "Ġbeat": 7438,
      "oup": 7439,
      "ĠSecret": 7440,
      "949": 7441,
      "Ġinvestors": 7442,
      "Ġdesk": 7443,
      "umer": 7444,
      "Ġsupports": 7445,
      "OJ": 7446,
      "ĠTem": 7447,
      "ora": 7448,
      "plate": 7449,
      "Ġcorner": 7450,
      "Ġcarefully": 7451,
      "bert": 7452,
      "creen": 7453,
      "Ġlicensed": 7454,
      "Ġdial": 7455,
      "249": 7456,
      "iors": 7457,
      "umin": 7458,
      "Ġtests": 7459,
      "nson": 7460,
      "332": 7461,
      "urious": 7462,
      "Ġrenew": 7463,
      "MW": 7464,
      "Ġparticipate": 7465,
      "120": 7466,
      "Ġunits": 7467,
      "Ġframe": 7468,
      "Ġmachines": 7469,
      "nj": 7470,
      "Ġbroken": 7471,
      "ĠPoint": 7472,
      "7523": 7473,
      "352": 7474,
      "Ġmoments": 7475,
      "Con": 7476,
      "919": 7477,
      "Ġgranted": 7478,
      "Ad": 7479,
      "ĠGuid": 7480,
      "ters": 7481,
      "ĠTown": 7482,
      "real": 7483,
      "ĠMexico": 7484,
      "Ġlegit": 7485,
      "ĠPrem": 7486,
      "nWho": 7487,
      "868": 7488,
      "Ġedge": 7489,
      "</": 7490,
      "ĠPal": 7491,
      "ĠPsych": 7492,
      "ĠConnect": 7493,
      "Ġdeals": 7494,
      "ĠEr": 7495,
      "ĠLtd": 7496,
      "370": 7497,
      "Ġmode": 7498,
      "''": 7499,
      "clusive": 7500,
      "Ġthick": 7501,
      "Ġrepla": 7502,
      "Ġcovers": 7503,
      "mb": 7504,
      "orders": 7505,
      "Ġhousing": 7506,
      "Ġcycle": 7507,
      "Ġpractical": 7508,
      "ĠConcrete": 7509,
      "Ġpodcast": 7510,
      "tery": 7511,
      "AW": 7512,
      "ĠArab": 7513,
      "nShe": 7514,
      "9563": 7515,
      "Ġconstruct": 7516,
      "ĠUl": 7517,
      "ws": 7518,
      "Ġprocessed": 7519,
      "Ġspeech": 7520,
      "ĠEvent": 7521,
      "ĠMuseum": 7522,
      "Ġaudio": 7523,
      "Ġfactor": 7524,
      "Ġalleg": 7525,
      "Ġguidance": 7526,
      "Ġsan": 7527,
      "Ġhighlight": 7528,
      "look": 7529,
      "172": 7530,
      "ervices": 7531,
      "Ġreput": 7532,
      "ĠLos": 7533,
      "lee": 7534,
      "Ġsimpl": 7535,
      "}}\\": 7536,
      "rance": 7537,
      "Ġwithdraw": 7538,
      "Ġadvoc": 7539,
      "ĠConsult": 7540,
      "AFC": 7541,
      "Ġweap": 7542,
      "ĠðŁĻĤ\\": 7543,
      "Ġjustice": 7544,
      "Ġthread": 7545,
      "Ġfabric": 7546,
      "ĠCarolina": 7547,
      "Ġpermissions": 7548,
      "ref": 7549,
      "ĠArea": 7550,
      "ĠMembers": 7551,
      "Ø±": 7552,
      "nLoading": 7553,
      "urban": 7554,
      "Ġfuck": 7555,
      "ĠSale": 7556,
      "ctors": 7557,
      "ersey": 7558,
      "ictor": 7559,
      "enefits": 7560,
      "040": 7561,
      "Ġsequ": 7562,
      "Ġ08": 7563,
      "Ġinstitutions": 7564,
      "Ġbrother": 7565,
      "profit": 7566,
      "Ġcampaigns": 7567,
      "Ġjoined": 7568,
      "Un": 7569,
      "Ġassessment": 7570,
      "Is": 7571,
      "OF": 7572,
      "Ġdiss": 7573,
      "Ġworse": 7574,
      "Ġsignificantly": 7575,
      "paper": 7576,
      "Ġstrict": 7577,
      "ĠHa": 7578,
      "Ġdelivering": 7579,
      "+\\": 7580,
      "Ġgrad": 7581,
      "Ġcommission": 7582,
      "nWhere": 7583,
      "nLatest": 7584,
      "Ġdollars": 7585,
      "Ġrom": 7586,
      "edded": 7587,
      "838": 7588,
      "848": 7589,
      "Ġtow": 7590,
      "nQuick": 7591,
      "Ġnoted": 7592,
      "Ġwire": 7593,
      "nn": 7594,
      "idi": 7595,
      "Ġ07": 7596,
      "ĠSales": 7597,
      "Ġpleasure": 7598,
      "460": 7599,
      "Ġinnovation": 7600,
      "ĠForum": 7601,
      "Ġsuitable": 7602,
      "itution": 7603,
      "olidays": 7604,
      "Ġinspired": 7605,
      "lance": 7606,
      "ĠIde": 7607,
      "Ġpure": 7608,
      "ĠAccording": 7609,
      "Ġ09": 7610,
      "PP": 7611,
      "Ġpursu": 7612,
      "Ġhate": 7613,
      "Ġsubscribe": 7614,
      "author": 7615,
      "Ġvan": 7616,
      "IES": 7617,
      "Ġprompt": 7618,
      "Ġholding": 7619,
      "ĠTel": 7620,
      "182": 7621,
      "Ġgreatest": 7622,
      "ĠAcademy": 7623,
      "Cl": 7624,
      "Ġrating": 7625,
      "362": 7626,
      "Ġbringing": 7627,
      "Ġproof": 7628,
      "ĠAdvis": 7629,
      "lle": 7630,
      "erman": 7631,
      "Ġforces": 7632,
      "Ġchosen": 7633,
      "Ġcommitment": 7634,
      "aven": 7635,
      "Ġappointment": 7636,
      "Ġtough": 7637,
      "from": 7638,
      "iest": 7639,
      "050": 7640,
      "Ġcompliance": 7641,
      "ĠTherefore": 7642,
      "Ġteeth": 7643,
      "LD": 7644,
      "Ġunable": 7645,
      "Ġinterpret": 7646,
      "Ġimagine": 7647,
      "Ġtail": 7648,
      "Ġgambling": 7649,
      "phone": 7650,
      "Ġscript": 7651,
      "writ": 7652,
      "Ġprocedures": 7653,
      "UY": 7654,
      "Ġsy": 7655,
      "ĠDaily": 7656,
      "irty": 7657,
      "ocument": 7658,
      "ati": 7659,
      "Ġaffected": 7660,
      "ĠAngeles": 7661,
      "Ġhundreds": 7662,
      "your": 7663,
      "Ġemphas": 7664,
      "hy": 7665,
      "009": 7666,
      "oted": 7667,
      "ĠBrown": 7668,
      "Ġdrugs": 7669,
      "Ġemotional": 7670,
      "uction": 7671,
      "ulous": 7672,
      "Ġdisabled": 7673,
      "she": 7674,
      "flow": 7675,
      "Ġenforce": 7676,
      "858": 7677,
      "Ġconsidering": 7678,
      "athy": 7679,
      "SD": 7680,
      "Ġbeach": 7681,
      "ĠFL": 7682,
      "Ġreb": 7683,
      "books": 7684,
      "ĠAndroid": 7685,
      "ĠProtection": 7686,
      "Ġsurgery": 7687,
      "ura": 7688,
      "ĠGener": 7689,
      "Ġraise": 7690,
      "that": 7691,
      "clear": 7692,
      "ĠLevel": 7693,
      "à¥": 7694,
      "VI": 7695,
      "Ġproc": 7696,
      "nEvery": 7697,
      "ĠSafety": 7698,
      "849": 7699,
      "ĠStudy": 7700,
      "Ġdinner": 7701,
      "aks": 7702,
      "ACT": 7703,
      "ĠMax": 7704,
      "urities": 7705,
      "8027": 7706,
      "Ġ2002": 7707,
      "Ġbattle": 7708,
      "Ġunivers": 7709,
      "rich": 7710,
      "Ġweekly": 7711,
      "ĠSettings": 7712,
      "ĠCurriculum": 7713,
      "Ġconstantly": 7714,
      "nContinue": 7715,
      "Ġfixed": 7716,
      "Ġwealth": 7717,
      "Ġfellow": 7718,
      "weight": 7719,
      "372": 7720,
      "Ġaccordance": 7721,
      "ĠLeague": 7722,
      "OH": 7723,
      "552": 7724,
      "Ġhidden": 7725,
      "342": 7726,
      "ĠPeter": 7727,
      "atre": 7728,
      "Ġcertificate": 7729,
      "index": 7730,
      "ĠConference": 7731,
      "ĠPartners": 7732,
      "nWork": 7733,
      "Ġkilled": 7734,
      "ĠMoney": 7735,
      "guages": 7736,
      "ĠWhether": 7737,
      "Ġessay": 7738,
      "Ġtrends": 7739,
      "Ġfrequently": 7740,
      "229": 7741,
      "Ġsouth": 7742,
      "ĠFact": 7743,
      "Ġtight": 7744,
      "nAlways": 7745,
      "Ġprocedure": 7746,
      "ĠTen": 7747,
      "ĠCanadian": 7748,
      "Ġsupposed": 7749,
      "Ġforth": 7750,
      "Ġindustrial": 7751,
      "Al": 7752,
      "Ġsymbol": 7753,
      "Ġwash": 7754,
      "ĠCross": 7755,
      "Ġodd": 7756,
      "Ġfruit": 7757,
      "819": 7758,
      "MB": 7759,
      "Ġweak": 7760,
      "551": 7761,
      "ergroup": 7762,
      "878": 7763,
      "ĠTreat": 7764,
      "while": 7765,
      "Ġoccup": 7766,
      "663": 7767,
      "oom": 7768,
      "onav": 7769,
      "Ġusage": 7770,
      "Ġlifestyle": 7771,
      "stract": 7772,
      "Ġlinked": 7773,
      "Ġcorrespond": 7774,
      "ĠIreland": 7775,
      "770": 7776,
      "9486": 7777,
      "ĠFrank": 7778,
      "ĠRef": 7779,
      "apes": 7780,
      "Ġengage": 7781,
      "ĠBeaut": 7782,
      "ĠWild": 7783,
      "Ġinfrastructure": 7784,
      "Ġeligible": 7785,
      "nCare": 7786,
      "ĠAI": 7787,
      "ĠMaybe": 7788,
      "ĠPlace": 7789,
      "Ġsuit": 7790,
      "Ġcategorized": 7791,
      "Ġsuccessfully": 7792,
      "ĠProm": 7793,
      "ĠVirginia": 7794,
      "Ġsubscription": 7795,
      "hat": 7796,
      "Ġintroduced": 7797,
      "Ġprofit": 7798,
      "ĠBur": 7799,
      "Ġforums": 7800,
      "Ġlovely": 7801,
      "âĢĿ)": 7802,
      "nHowever": 7803,
      "Ġfacilit": 7804,
      "Ġincredible": 7805,
      "051": 7806,
      "ĵ\\": 7807,
      "Ġliability": 7808,
      "inn": 7809,
      "pack": 7810,
      "cling": 7811,
      "462": 7812,
      "Ġopting": 7813,
      "ĠSecond": 7814,
      "arrow": 7815,
      "228": 7816,
      "online": 7817,
      "Ġtelling": 7818,
      "Ġguidelines": 7819,
      "unting": 7820,
      "No": 7821,
      "Ġappar": 7822,
      "Ġempty": 7823,
      "Phone": 7824,
      "Ġrooms": 7825,
      "CO": 7826,
      "Ġking": 7827,
      "Ġquote": 7828,
      "LY": 7829,
      "259": 7830,
      "Ġtasks": 7831,
      "embly": 7832,
      "ĠJapanese": 7833,
      "ĠBon": 7834,
      "Ġinformed": 7835,
      "kins": 7836,
      "Ġavailability": 7837,
      "yers": 7838,
      "CP": 7839,
      "ĠSEO": 7840,
      "ĠTre": 7841,
      "Ġefficiency": 7842,
      "ĠLeave": 7843,
      "Ġhappening": 7844,
      "apore": 7845,
      "2011": 7846,
      "RP": 7847,
      "Ġfoods": 7848,
      "ĠDown": 7849,
      "Ġshut": 7850,
      "iders": 7851,
      "Ġveter": 7852,
      "ĠSciences": 7853,
      "563": 7854,
      "Ġcounsel": 7855,
      "Ġcolour": 7856,
      "Ġanxiety": 7857,
      "ĠFun": 7858,
      "MD": 7859,
      "ĠSort": 7860,
      "Ġskill": 7861,
      "158": 7862,
      "ipes": 7863,
      "Ġsustainable": 7864,
      "Ġconcerned": 7865,
      "128": 7866,
      "ĠHaw": 7867,
      "erequisite": 7868,
      "Ġbreast": 7869,
      "Ġentered": 7870,
      "Ġ32": 7871,
      "ĠCategory": 7872,
      "Ġapproximately": 7873,
      "Ġprinciples": 7874,
      "nPinterest": 7875,
      "Ġkill": 7876,
      "ĠBoth": 7877,
      "ĠSystems": 7878,
      "Ġentirely": 7879,
      "Ġloves": 7880,
      "Ġcoach": 7881,
      "ionally": 7882,
      "nAuthor": 7883,
      "Ġ36": 7884,
      "TER": 7885,
      "Ġmut": 7886,
      "illy": 7887,
      "ĠLouis": 7888,
      "Ġfacts": 7889,
      "Ġguest": 7890,
      "Ġoutdoor": 7891,
      "Ġopinions": 7892,
      "uris": 7893,
      "Ġsudden": 7894,
      "Ġprohib": 7895,
      "Ġflowers": 7896,
      "Ġkeeps": 7897,
      "Ġcrowd": 7898,
      "Ġvit": 7899,
      "Ġsituations": 7900,
      "Ġextent": 7901,
      "809": 7902,
      "Ġcoord": 7903,
      "ĠEV": 7904,
      "alled": 7905,
      "Ġreject": 7906,
      "Ġstret": 7907,
      "452": 7908,
      "pin": 7909,
      "ICA": 7910,
      "Ġhousehold": 7911,
      "dated": 7912,
      "Ġflight": 7913,
      "vi": 7914,
      "Ġtreated": 7915,
      "Ġpump": 7916,
      "Ġdelay": 7917,
      "Ġpharm": 7918,
      "Ġidentified": 7919,
      "Ġdelicious": 7920,
      "plete": 7921,
      "Ġnorth": 7922,
      "Ġbigger": 7923,
      "Ġsaved": 7924,
      "Ġoblig": 7925,
      "ĠAnalytics": 7926,
      "nOnline": 7927,
      "month": 7928,
      "Ġreduced": 7929,
      "aper": 7930,
      "Ġcarried": 7931,
      "Ġbroker": 7932,
      "ait": 7933,
      "Ġspiritual": 7934,
      "nPhone": 7935,
      "lla": 7936,
      "Ġmask": 7937,
      "ansas": 7938,
      "etary": 7939,
      "Ġnetworks": 7940,
      "219": 7941,
      "Ġcooking": 7942,
      "elry": 7943,
      "Ġfolks": 7944,
      "icer": 7945,
      "Ġpun": 7946,
      "case": 7947,
      "Ġappearance": 7948,
      "ĠUncategorized": 7949,
      "Ġlaugh": 7950,
      "ĠPrint": 7951,
      "Ġsitting": 7952,
      "Ġgrade": 7953,
      "238": 7954,
      "ographic": 7955,
      "nin": 7956,
      "Ġseat": 7957,
      "Ġcompetitive": 7958,
      "iser": 7959,
      "Ġcoast": 7960,
      "web": 7961,
      "ady": 7962,
      "Ġjoint": 7963,
      "ĠSpring": 7964,
      "Ġrecognize": 7965,
      "abetes": 7966,
      "Ġpolitics": 7967,
      "839": 7968,
      "ĠLiving": 7969,
      "Ġpatterns": 7970,
      "ĠKingdom": 7971,
      "ectual": 7972,
      "ingu": 7973,
      "Ġtaught": 7974,
      "Ġrequests": 7975,
      "Ġrot": 7976,
      "Ġcategories": 7977,
      "tocol": 7978,
      "Ġstone": 7979,
      "TML": 7980,
      "nBook": 7981,
      "Ġtut": 7982,
      "ĠCla": 7983,
      "nAnalytics": 7984,
      "nHello": 7985,
      "ĠSar": 7986,
      "Ġpoly": 7987,
      "FS": 7988,
      "ĠWil": 7989,
      "prom": 7990,
      "ĠStories": 7991,
      "oston": 7992,
      "Ġdealer": 7993,
      "tles": 7994,
      "Ġchannel": 7995,
      "899": 7996,
      "BN": 7997,
      "nGreat": 7998,
      "onavirus": 7999,
      "Ġgod": 8000,
      "nPrint": 8001,
      "On": 8002,
      "Ġtea": 8003,
      "FP": 8004,
      "650": 8005,
      "cs": 8006,
      "Ġperfectly": 8007,
      "ĠEff": 8008,
      "RT": 8009,
      "Ġcommand": 8010,
      "esterday": 8011,
      "Ġrequested": 8012,
      "Ġjew": 8013,
      "ĠSqu": 8014,
      "ĠHim": 8015,
      "nic": 8016,
      "ĠFoot": 8017,
      "igr": 8018,
      "Ġensures": 8019,
      "Ġsac": 8020,
      "nÎĶ": 8021,
      "ANT": 8022,
      "Ġsongs": 8023,
      "Ġguard": 8024,
      "ĠFeb": 8025,
      "nCons": 8026,
      "rapher": 8027,
      "Ġlogo": 8028,
      "LA": 8029,
      "].": 8030,
      "Ġpriv": 8031,
      "isters": 8032,
      "IVE": 8033,
      "ĠâĨĵ\\": 8034,
      "BI": 8035,
      "139": 8036,
      "Ġinput": 8037,
      "ĠHard": 8038,
      "ERE": 8039,
      "ĠHotel": 8040,
      "âĢĿ.\\": 8041,
      "ĠKar": 8042,
      "Ġremod": 8043,
      "Ġremote": 8044,
      "ifer": 8045,
      "irmed": 8046,
      "ĠMS": 8047,
      "nWell": 8048,
      "9947523": 8049,
      "ĠHel": 8050,
      "442": 8051,
      "Ġcharged": 8052,
      "Ġtrouble": 8053,
      "Ġfurniture": 8054,
      "Ġfollows": 8055,
      "ilosophy": 8056,
      "front": 8057,
      "Ġhosting": 8058,
      "ĠBell": 8059,
      "ĠLocal": 8060,
      "Ġsolar": 8061,
      "470": 8062,
      "cor": 8063,
      "Ġeveryday": 8064,
      "Ġentreprene": 8065,
      "Ġconvenient": 8066,
      "Ġdiverse": 8067,
      "Ġur": 8068,
      "ĠThomas": 8069,
      "And": 8070,
      "Ġframework": 8071,
      "Ġbegins": 8072,
      "Ġagencies": 8073,
      "ĠEnt": 8074,
      "ĠAdministration": 8075,
      "orough": 8076,
      "Ġdur": 8077,
      "Ġsubmitted": 8078,
      "8715653": 8079,
      "Ġexpectations": 8080,
      "ĠChief": 8081,
      "ĠFac": 8082,
      "Ġcutting": 8083,
      "Ġentertainment": 8084,
      "ĠOwn": 8085,
      "ermal": 8086,
      "ĠLar": 8087,
      "Ã¤": 8088,
      "600": 8089,
      "129": 8090,
      "what": 8091,
      "ĠAgain": 8092,
      "760": 8093,
      "aturally": 8094,
      "gs": 8095,
      "ĠSeason": 8096,
      "ĠExt": 8097,
      "Ġ06": 8098,
      "ographer": 8099,
      "Ġmechanism": 8100,
      "MM": 8101,
      "Ġ03": 8102,
      "ĠSemester": 8103,
      "New": 8104,
      "ĠPhoto": 8105,
      "zing": 8106,
      "ĠEX": 8107,
      "nEng": 8108,
      "best": 8109,
      "Ġunf": 8110,
      "Ġstanding": 8111,
      "chain": 8112,
      "Ġwriters": 8113,
      "ĠPhone": 8114,
      "bour": 8115,
      "Ġcontained": 8116,
      "Ùħ": 8117,
      "Ġschem": 8118,
      "ĠItalian": 8119,
      "Ġportion": 8120,
      "ĠCir": 8121,
      "Ġwhenever": 8122,
      "Ġtells": 8123,
      "level": 8124,
      "Ġlaunched": 8125,
      "ĠRobert": 8126,
      "igned": 8127,
      "utch": 8128,
      "Ġexpenses": 8129,
      "itar": 8130,
      "usher": 8131,
      "Ġholds": 8132,
      "Ġtrig": 8133,
      "Ġstatements": 8134,
      "Ġfailed": 8135,
      "Ġsorry": 8136,
      "Ġfavour": 8137,
      "Ġkick": 8138,
      "akistan": 8139,
      "nPosts": 8140,
      "Ġchallenging": 8141,
      "ĠFREE": 8142,
      "ologist": 8143,
      "Ġfoundation": 8144,
      "ĠUkraine": 8145,
      "Ġexcess": 8146,
      "Ġshift": 8147,
      "218": 8148,
      "ĠItaly": 8149,
      "For": 8150,
      "gor": 8151,
      "ras": 8152,
      "Ġmanufacturer": 8153,
      "879": 8154,
      "All": 8155,
      "JV": 8156,
      "ĠCasino": 8157,
      "Ġsupplement": 8158,
      "Ġwindows": 8159,
      "Ġplays": 8160,
      "being": 8161,
      "149": 8162,
      "Accept": 8163,
      "emed": 8164,
      "ĠConf": 8165,
      "ĠSmall": 8166,
      "573": 8167,
      "urns": 8168,
      "ĠMiddle": 8169,
      "ĠRepair": 8170,
      "ĠLow": 8171,
      "BR": 8172,
      "268": 8173,
      "Ġcannab": 8174,
      "mary": 8175,
      "Ġrecorded": 8176,
      "ĠBath": 8177,
      "ĠFair": 8178,
      "words": 8179,
      "Ġshock": 8180,
      "star": 8181,
      "082": 8182,
      "ĠWalk": 8183,
      "ĠComponent": 8184,
      "âĢĻ\\": 8185,
      "Ġimproved": 8186,
      "Ġseconds": 8187,
      "itage": 8188,
      "Ġchair": 8189,
      "ĠUsing": 8190,
      "Ġofficials": 8191,
      "Ġencounter": 8192,
      "ĠLock": 8193,
      "ĠGrow": 8194,
      "Ġcred": 8195,
      "OI": 8196,
      "stone": 8197,
      "tainment": 8198,
      "Ġiron": 8199,
      "Ġturns": 8200,
      "esth": 8201,
      "Ġsample": 8202,
      "Ġdraft": 8203,
      "ĠAtlant": 8204,
      "640": 8205,
      "nSc": 8206,
      "Ġgro": 8207,
      "oti": 8208,
      "Ġappeared": 8209,
      "person": 8210,
      "Ġexpressed": 8211,
      "asters": 8212,
      "PU": 8213,
      "ĠWH": 8214,
      "embers": 8215,
      "ĠJavaScript": 8216,
      "Ġgaming": 8217,
      "lection": 8218,
      "ï¿": 8219,
      "brid": 8220,
      "Ġlunch": 8221,
      "Ġrecipes": 8222,
      "WW": 8223,
      "Ġcancel": 8224,
      "nGoogle": 8225,
      "nOpen": 8226,
      "Ġreligion": 8227,
      "DV": 8228,
      "Ġ02": 8229,
      "Ġfinance": 8230,
      "Ġhers": 8231,
      "nDisc": 8232,
      "ĠThose": 8233,
      "Ġcriminal": 8234,
      "092": 8235,
      "ourse": 8236,
      "Ġaffiliate": 8237,
      "Ġdisplayed": 8238,
      "ĠParis": 8239,
      "racy": 8240,
      "Ġextensive": 8241,
      "Ġ300": 8242,
      "ĠProfessional": 8243,
      "Ġawareness": 8244,
      "avor": 8245,
      "keep": 8246,
      "Ġforest": 8247,
      "Ġstopped": 8248,
      "ĠPDF": 8249,
      "ushing": 8250,
      "nX": 8251,
      "869": 8252,
      "oral": 8253,
      "Ġoperate": 8254,
      "arp": 8255,
      "Ġalter": 8256,
      "ĠOk": 8257,
      "eling": 8258,
      "Ġisland": 8259,
      "Ġdepart": 8260,
      "929": 8261,
      "ĠInfo": 8262,
      "Ġspam": 8263,
      "nSm": 8264,
      "Ġtrend": 8265,
      "ĠMinister": 8266,
      "Ġdra": 8267,
      "9987": 8268,
      "á½": 8269,
      "Ġimprovement": 8270,
      "Ġincident": 8271,
      "ighter": 8272,
      "Ġ2001": 8273,
      "Ġpositions": 8274,
      "278": 8275,
      "ĠStock": 8276,
      "673": 8277,
      "('": 8278,
      "Ġmassive": 8279,
      "nRem": 8280,
      "Qu": 8281,
      "nStudents": 8282,
      "Ġbelieved": 8283,
      "248": 8284,
      "Ġjack": 8285,
      "cia": 8286,
      "nHave": 8287,
      "hus": 8288,
      "Ġrub": 8289,
      "Ġobtained": 8290,
      "eding": 8291,
      "lot": 8292,
      "ani": 8293,
      "Ġfalse": 8294,
      "Ġ05": 8295,
      "Ġsick": 8296,
      "others": 8297,
      "ZZ": 8298,
      "472": 8299,
      "Ġoutput": 8300,
      "ĠUr": 8301,
      "Ġlessons": 8302,
      "Ġpersons": 8303,
      "Ġenabled": 8304,
      "Ġcrime": 8305,
      "ĠKitchen": 8306,
      "KY": 8307,
      "ĠSep": 8308,
      "Ġdepends": 8309,
      "ĠTri": 8310,
      "ĠCry": 8311,
      "obby": 8312,
      "Ġcarbon": 8313,
      "ĠAnother": 8314,
      "Ġcro": 8315,
      "atar": 8316,
      "ĠMel": 8317,
      "168": 8318,
      "Ġfort": 8319,
      "ĠSpace": 8320,
      "nNotify": 8321,
      "Ġpublication": 8322,
      "ĠStudent": 8323,
      "ĠBuilding": 8324,
      "Ġretain": 8325,
      "Ġstudio": 8326,
      "Ġmilk": 8327,
      "rig": 8328,
      "!!!": 8329,
      "ench": 8330,
      "faction": 8331,
      "Ġclar": 8332,
      "Ġcer": 8333,
      "Ġreplacement": 8334,
      "Ġliked": 8335,
      "Ġmeal": 8336,
      "Ġtast": 8337,
      "279": 8338,
      "ĠFurther": 8339,
      "1119": 8340,
      "Ġliquid": 8341,
      "âĢ¦âĢ¦": 8342,
      "ĠTR": 8343,
      "Ġorganic": 8344,
      "azz": 8345,
      "nDec": 8346,
      "osite": 8347,
      "Ġforced": 8348,
      "ĠSH": 8349,
      "umps": 8350,
      "Ġinvolve": 8351,
      "ĠThings": 8352,
      "noon": 8353,
      "Ġtransactions": 8354,
      "uma": 8355,
      "Ġwitness": 8356,
      "Ġbutter": 8357,
      "Ġongoing": 8358,
      "outube": 8359,
      "ĠEs": 8360,
      "ĠCloud": 8361,
      "ĠIslam": 8362,
      "nConnect": 8363,
      "Ġ04": 8364,
      "ĠCOM": 8365,
      "ĠKe": 8366,
      "Ġimplementation": 8367,
      "ĠJoe": 8368,
      "Ġmeat": 8369,
      "ĠPodcast": 8370,
      "Ġquiet": 8371,
      "Ġnom": 8372,
      "ĠPrerequisite": 8373,
      "nSchool": 8374,
      "itter": 8375,
      "Ġboot": 8376,
      "Ġends": 8377,
      "Ġsister": 8378,
      "ĠDam": 8379,
      "Ġconcepts": 8380,
      "Ġdivid": 8381,
      "Ġcompare": 8382,
      "859": 8383,
      "Ġju": 8384,
      "How": 8385,
      "Ġexplained": 8386,
      "DM": 8387,
      "ĠJim": 8388,
      "ĠJones": 8389,
      "Ġfraud": 8390,
      "mun": 8391,
      "Ġpurchasing": 8392,
      "Ġillness": 8393,
      "Ġseriously": 8394,
      "ĠNight": 8395,
      "138": 8396,
      "ĠStaff": 8397,
      "Ġtun": 8398,
      "Ġembedded": 8399,
      "icy": 8400,
      "Ġengagement": 8401,
      "nAlso": 8402,
      "def": 8403,
      "anna": 8404,
      "ILL": 8405,
      "Ġmembership": 8406,
      "Ġprotein": 8407,
      "Ġrecover": 8408,
      "Ġrepeat": 8409,
      "ĠHope": 8410,
      "izer": 8411,
      "Ġintelligence": 8412,
      "Ġtwice": 8413,
      "Ġcollaboration": 8414,
      "ĠâĤ¬": 8415,
      "nSelect": 8416,
      "enda": 8417,
      "ĠMov": 8418,
      "ITH": 8419,
      "ĠClin": 8420,
      "ĠExecutive": 8421,
      "Ġneighborhood": 8422,
      "ĠTalk": 8423,
      "Ġnoticed": 8424,
      "ĠSpanish": 8425,
      "nOthers": 8426,
      "nOnce": 8427,
      "ĠCollection": 8428,
      "AX": 8429,
      "Ġ~": 8430,
      "ĠSection": 8431,
      "nthe": 8432,
      "Ġcontrolled": 8433,
      "aded": 8434,
      "Ġstrategic": 8435,
      "239": 8436,
      "Ġdifferences": 8437,
      "Ġswim": 8438,
      "Ġarrest": 8439,
      "Ġrecommendations": 8440,
      "Ġprepar": 8441,
      "Ġmal": 8442,
      "Ġtruck": 8443,
      "ola": 8444,
      "ĠPot": 8445,
      "Ġremoval": 8446,
      "Ġbul": 8447,
      "about": 8448,
      "Ġreferred": 8449,
      "HG": 8450,
      "ĠLook": 8451,
      "Ġalcohol": 8452,
      "ĠSon": 8453,
      "mond": 8454,
      "Ġslots": 8455,
      "Ġmillions": 8456,
      "9334": 8457,
      "432": 8458,
      "Ġpartnership": 8459,
      "Ġnarr": 8460,
      "nTrans": 8461,
      "Ġsides": 8462,
      "Ġindeed": 8463,
      "IO": 8464,
      "Ġlogged": 8465,
      "ĠTry": 8466,
      "Ġcloser": 8467,
      "inking": 8468,
      "?âĢĿ\\": 8469,
      "Ġsubstant": 8470,
      "Â°": 8471,
      "Ġdefense": 8472,
      "Ġrecognized": 8473,
      "worth": 8474,
      "ture": 8475,
      "Ġatm": 8476,
      "berry": 8477,
      "amental": 8478,
      "abb": 8479,
      "My": 8480,
      "Ġmerch": 8481,
      "inem": 8482,
      "ĠLinks": 8483,
      "ylv": 8484,
      "itting": 8485,
      "function": 8486,
      "Ġimproving": 8487,
      "269": 8488,
      "There": 8489,
      "cm": 8490,
      "Ġtransition": 8491,
      "ĠDu": 8492,
      "Ġproposed": 8493,
      "urisd": 8494,
      "9685": 8495,
      "9995": 8496,
      "neys": 8497,
      "stream": 8498,
      "Ġcustomized": 8499,
      "2010": 8500,
      "ĠJustice": 8501,
      "Ġbuildings": 8502,
      "BM": 8503,
      "Ġaccuracy": 8504,
      "omet": 8505,
      "ĠKen": 8506,
      "Ġthorough": 8507,
      "Ġimpossible": 8508,
      "Ġneck": 8509,
      "nGood": 8510,
      "Ġfaculty": 8511,
      "Ġinsights": 8512,
      "ĠFa": 8513,
      "Ġbehalf": 8514,
      "Ġnutr": 8515,
      "Ġvulner": 8516,
      "Ġinvestigation": 8517,
      "ĠCopyright": 8518,
      "Â»": 8519,
      "Ġclinic": 8520,
      "holders": 8521,
      "nUse": 8522,
      "Ã¶": 8523,
      "ĠRoman": 8524,
      "pot": 8525,
      "nSk": 8526,
      "Ġusername": 8527,
      "Ġtransaction": 8528,
      "ĠFinance": 8529,
      "Ġrelief": 8530,
      "Ġven": 8531,
      "Ġattacks": 8532,
      "148": 8533,
      "zil": 8534,
      "LT": 8535,
      "Ġsole": 8536,
      "Ġdiam": 8537,
      "Ġring": 8538,
      "Ġarrived": 8539,
      "Ġcam": 8540,
      "appoint": 8541,
      "ĠProperty": 8542,
      "Ġretirement": 8543,
      "Ġ33": 8544,
      "nPe": 8545,
      "ĠUSD": 8546,
      "Ġfitness": 8547,
      "wp": 8548,
      "Ġexpression": 8549,
      "Ġphotography": 8550,
      "Ġextended": 8551,
      "made": 8552,
      "ĠMap": 8553,
      "Ġpresentation": 8554,
      "ĠHor": 8555,
      "UX": 8556,
      "Ġreader": 8557,
      "har": 8558,
      "Ġcrucial": 8559,
      "Ġdangerous": 8560,
      "nStart": 8561,
      "nLocation": 8562,
      "ĠGeorgia": 8563,
      "Ġbirthday": 8564,
      "Ġmortgage": 8565,
      "Ġsearching": 8566,
      "Ġnone": 8567,
      "merican": 8568,
      "ipt": 8569,
      "ĠMid": 8570,
      "Ġexceed": 8571,
      "Ġpainting": 8572,
      "ĠðŁĺ": 8573,
      "Ġreward": 8574,
      "Ġped": 8575,
      "roduction": 8576,
      "124": 8577,
      "ansion": 8578,
      "Ġconsistent": 8579,
      "nCredit": 8580,
      "Ġflu": 8581,
      "Ġresearchers": 8582,
      "ution": 8583,
      "258": 8584,
      "ĠYoung": 8585,
      "Ġdestroy": 8586,
      "Ġarts": 8587,
      "oseph": 8588,
      "ĠMartin": 8589,
      "AZ": 8590,
      "Ġcaught": 8591,
      "Ġunc": 8592,
      "hips": 8593,
      "Ġ;": 8594,
      "ï¿½": 8595,
      "Ġchoosing": 8596,
      "ĠLee": 8597,
      "9611": 8598,
      "category": 8599,
      "060": 8600,
      "nJohn": 8601,
      "required": 8602,
      "Ġlistening": 8603,
      "Ġfeelings": 8604,
      "Ġfly": 8605,
      "Ġ48": 8606,
      "ĠRoom": 8607,
      "Ġwearing": 8608,
      "issions": 8609,
      "====": 8610,
      "Ġast": 8611,
      "ĠInstead": 8612,
      "Ġcitizens": 8613,
      "nSupport": 8614,
      "plore": 8615,
      "Ġguaranteed": 8616,
      "159": 8617,
      "Ġamb": 8618,
      "ĠLinkedIn": 8619,
      "Ġcasinos": 8620,
      "ĠCast": 8621,
      "nAnother": 8622,
      "058": 8623,
      "SW": 8624,
      "Ġedition": 8625,
      "Ġsizes": 8626,
      "asant": 8627,
      "ĠSex": 8628,
      "ietnam": 8629,
      "Ġeast": 8630,
      "osphere": 8631,
      "Ġbread": 8632,
      "ĠMagazine": 8633,
      "ĠExperience": 8634,
      "Ġspaces": 8635,
      "OUT": 8636,
      "032": 8637,
      "9243": 8638,
      "Ġshoes": 8639,
      "Ġremaining": 8640,
      "Ġhumans": 8641,
      "Ġconducted": 8642,
      "Ġfunctionality": 8643,
      "Ġlists": 8644,
      "Ġsolve": 8645,
      "uer": 8646,
      "lr": 8647,
      "Ġdescribe": 8648,
      "Â«": 8649,
      "Ġbetting": 8650,
      "vin": 8651,
      "Ġstim": 8652,
      "aped": 8653,
      "Ġyours": 8654,
      "ĠAgency": 8655,
      "Ġtested": 8656,
      "Ġsalt": 8657,
      "ĠSmart": 8658,
      "ĠSelf": 8659,
      "istical": 8660,
      "ĠAwards": 8661,
      "Ġpossibility": 8662,
      "041": 8663,
      "ĠDC": 8664,
      "Ġbear": 8665,
      "Ġtypical": 8666,
      "IONS": 8667,
      "ĠGarden": 8668,
      "ÙĨ": 8669,
      "ĠMichigan": 8670,
      "Ġusergroup": 8671,
      "rible": 8672,
      "appe": 8673,
      "Ġprop": 8674,
      "Ġcooper": 8675,
      "iking": 8676,
      "omy": 8677,
      "Ġexecutive": 8678,
      "bre": 8679,
      "uls": 8680,
      "ĠMike": 8681,
      "aturing": 8682,
      "nInstagram": 8683,
      "mo": 8684,
      "Ġhyp": 8685,
      "title": 8686,
      "prove": 8687,
      "izz": 8688,
      "ĠAutom": 8689,
      "ĠJohnson": 8690,
      "vy": 8691,
      "Ġà¤": 8692,
      "ommend": 8693,
      "pass": 8694,
      "Ġrelatively": 8695,
      "Ġagreed": 8696,
      "long": 8697,
      "Ġincreases": 8698,
      "Ġdrivers": 8699,
      "limited": 8700,
      "ĠSuite": 8701,
      "Ġlights": 8702,
      "nProduct": 8703,
      "Ġinspiration": 8704,
      "ĠOl": 8705,
      "ĠDav": 8706,
      "9747": 8707,
      "Ġdent": 8708,
      "Ġteen": 8709,
      "ĠPA": 8710,
      "ĠCra": 8711,
      "cluded": 8712,
      "Cont": 8713,
      "431": 8714,
      "Ġ75": 8715,
      "Ġsoci": 8716,
      "Ġmuscle": 8717,
      "Ġplanet": 8718,
      "ĠCase": 8719,
      "ĠColumb": 8720,
      "KK": 8721,
      "riculture": 8722,
      "lly": 8723,
      "erning": 8724,
      "eps": 8725,
      "Ġobjects": 8726,
      "Le": 8727,
      "ĠLess": 8728,
      "ĠChalleng": 8729,
      "Ġfif": 8730,
      "ĠChris": 8731,
      "Ġmurder": 8732,
      "ĠRen": 8733,
      "bro": 8734,
      "Ġvital": 8735,
      "ĠHo": 8736,
      "nCar": 8737,
      "ĠAction": 8738,
      "Ġheight": 8739,
      "eddit": 8740,
      "700": 8741,
      "9925": 8742,
      "nShow": 8743,
      "829": 8744,
      "JJ": 8745,
      "Ġchecking": 8746,
      "Ġcommunicate": 8747,
      "ĠIran": 8748,
      "Ġpricing": 8749,
      "Ġgenu": 8750,
      "Ġdental": 8751,
      "Ġclothes": 8752,
      "Ġdance": 8753,
      "GE": 8754,
      "Ġbreath": 8755,
      "TX": 8756,
      "031": 8757,
      "9444": 8758,
      "oos": 8759,
      "Ġnut": 8760,
      "ĠLegal": 8761,
      "hemat": 8762,
      "179": 8763,
      "ĠPlanning": 8764,
      "Ġlosing": 8765,
      "Ġmissed": 8766,
      "BL": 8767,
      "ĠQuestions": 8768,
      "RY": 8769,
      "HW": 8770,
      "Ġcrazy": 8771,
      "ĠRa": 8772,
      "shire": 8773,
      "cers": 8774,
      "ĠAnalysis": 8775,
      "ificial": 8776,
      "Ġhur": 8777,
      "ĠANY": 8778,
      "ban": 8779,
      "elly": 8780,
      "making": 8781,
      "ĠJeff": 8782,
      "ĠWrit": 8783,
      "Ġprogramming": 8784,
      "ĠRequired": 8785,
      "friendly": 8786,
      "lined": 8787,
      "Ġfacing": 8788,
      "Ġmonitoring": 8789,
      "Ġmeetings": 8790,
      "TF": 8791,
      "atalog": 8792,
      "ĠEmer": 8793,
      "Ġusual": 8794,
      "288": 8795,
      "sub": 8796,
      "Ġblan": 8797,
      "CM": 8798,
      "Ġchapter": 8799,
      "chnology": 8800,
      "ĠEst": 8801,
      "Ġrough": 8802,
      "esting": 8803,
      "Ġgenerate": 8804,
      "Ġgrown": 8805,
      "OZ": 8806,
      "ĠTable": 8807,
      "Ġoutcomes": 8808,
      "ĠCD": 8809,
      "Ġrepro": 8810,
      "To": 8811,
      "Ġdomestic": 8812,
      "EED": 8813,
      "Ġlayer": 8814,
      "market": 8815,
      "ternational": 8816,
      "339": 8817,
      "So": 8818,
      "imize": 8819,
      "ignment": 8820,
      "Ġdoors": 8821,
      "ĠVan": 8822,
      "UST": 8823,
      "178": 8824,
      "Ġupcoming": 8825,
      "nCol": 8826,
      "gypt": 8827,
      "antic": 8828,
      "eted": 8829,
      "ĠYOUR": 8830,
      "ĠiPhone": 8831,
      "itz": 8832,
      "Ġpapers": 8833,
      "-\\": 8834,
      "ĠBitcoin": 8835,
      "ĠFestival": 8836,
      "Ġbot": 8837,
      "349": 8838,
      "Ġfilms": 8839,
      "Ġsmile": 8840,
      "Ġsevere": 8841,
      "HV": 8842,
      "ĠBuild": 8843,
      "ĠIslands": 8844,
      "Ġdealing": 8845,
      "cipl": 8846,
      "122": 8847,
      "Ġduration": 8848,
      "enny": 8849,
      "Ġfeatured": 8850,
      "Ġauthorities": 8851,
      "Ġargument": 8852,
      "QY": 8853,
      "dep": 8854,
      "Ġbodies": 8855,
      "bec": 8856,
      "468": 8857,
      "Ġhealing": 8858,
      "Ġqualified": 8859,
      "Ġdiscussed": 8860,
      "Ġnecessarily": 8861,
      "Ġcontribute": 8862,
      "ĠWithout": 8863,
      "Ġherself": 8864,
      "289": 8865,
      "Ġserves": 8866,
      "nPublished": 8867,
      "rizona": 8868,
      "Ġhire": 8869,
      "pat": 8870,
      "ĠTrad": 8871,
      "ĠArmy": 8872,
      "ĠNote": 8873,
      "fac": 8874,
      "Ġgifts": 8875,
      "169": 8876,
      "Ġzero": 8877,
      "Ġassigned": 8878,
      "Ġdegrees": 8879,
      "Ġbanks": 8880,
      "Ġvast": 8881,
      "Ġparking": 8882,
      "ĠLicense": 8883,
      "Ġtickets": 8884,
      "ĠMom": 8885,
      "uality": 8886,
      "Ġcapabilities": 8887,
      "alytical": 8888,
      "Ġpurchases": 8889,
      "Ġ//": 8890,
      "ĠMethod": 8891,
      "Ġdates": 8892,
      "nMake": 8893,
      "Ġbranch": 8894,
      "nVisit": 8895,
      "Ġmagic": 8896,
      "Ġamounts": 8897,
      "Ġinsight": 8898,
      "ephone": 8899,
      "052": 8900,
      "Ġacid": 8901,
      "Ġsusp": 8902,
      "9977": 8903,
      "ensity": 8904,
      "Ġcritic": 8905,
      "752": 8906,
      "Ġsurprise": 8907,
      "annels": 8908,
      "De": 8909,
      "Ġhouses": 8910,
      "Ġancient": 8911,
      "ĠSea": 8912,
      "Ġord": 8913,
      "9536": 8914,
      "cal": 8915,
      "ĠCapital": 8916,
      "Ġsensitive": 8917,
      "ĠAsk": 8918,
      "Ġpill": 8919,
      "469": 8920,
      "Ġdistinct": 8921,
      "ĠLittle": 8922,
      "ĠIndustry": 8923,
      "onto": 8924,
      "Ġrestrictions": 8925,
      "Ġwarranty": 8926,
      "ĠLands": 8927,
      "Ġenthus": 8928,
      "pir": 8929,
      "acher": 8930,
      "ĠFeed": 8931,
      "Ġhell": 8932,
      "JY": 8933,
      "IW": 8934,
      "nMed": 8935,
      "ĠSat": 8936,
      "Ġcontemporary": 8937,
      "nShop": 8938,
      "Ġprison": 8939,
      "QX": 8940,
      "Ġresolution": 8941,
      "aser": 8942,
      "889": 8943,
      "TP": 8944,
      "Ġscr": 8945,
      "Ġphase": 8946,
      "Ġregardless": 8947,
      "Ġmanaging": 8948,
      "ĠIssue": 8949,
      "Ġorganized": 8950,
      "Ġremind": 8951,
      "Ġcreates": 8952,
      "gorith": 8953,
      "ocracy": 8954,
      "ĠVisit": 8955,
      "Ġtechnique": 8956,
      "ĠGR": 8957,
      "ipl": 8958,
      "Ġcake": 8959,
      "proof": 8960,
      "ĠPolice": 8961,
      "Ġpicked": 8962,
      "ĠBall": 8963,
      "gent": 8964,
      "Ġvend": 8965,
      "ĠJersey": 8966,
      "Ġdestination": 8967,
      "ÙĪ": 8968,
      "ĠHospital": 8969,
      "ucky": 8970,
      "rog": 8971,
      "uan": 8972,
      "TE": 8973,
      "ĠRom": 8974,
      "owered": 8975,
      "ĠHon": 8976,
      "QV": 8977,
      "utr": 8978,
      "HK": 8979,
      "NULL": 8980,
      "Ġconvert": 8981,
      "QZ": 8982,
      "Ġimmediate": 8983,
      "heast": 8984,
      "Ġintent": 8985,
      "Ġflash": 8986,
      "Ġofficer": 8987,
      "nCor": 8988,
      "GS": 8989,
      "udi": 8990,
      "evin": 8991,
      "ÏĦ": 8992,
      "nMany": 8993,
      "Ġtables": 8994,
      "Ġdefinition": 8995,
      "Ġchicken": 8996,
      "ione": 8997,
      "Ġsupplies": 8998,
      "cific": 8999,
      "Ġportfolio": 9000,
      "ĠDid": 9001,
      "008": 9002,
      "bad": 9003,
      "Ġresulting": 9004,
      "Ġregional": 9005,
      "Ġinches": 9006,
      "giving": 9007,
      "Ġcabin": 9008,
      "ATE": 9009,
      "ĠVery": 9010,
      "ĠSty": 9011,
      "á»": 9012,
      "NV": 9013,
      "EAR": 9014,
      "Ġfasc": 9015,
      "iginal": 9016,
      "ĠInnov": 9017,
      "ĠJewish": 9018,
      "Ġdelight": 9019,
      "Ġsufficient": 9020,
      "abling": 9021,
      "Ġnative": 9022,
      "ĠHen": 9023,
      "ĠSav": 9024,
      "9725": 9025,
      "ĠProb": 9026,
      "Ġtom": 9027,
      "Ġworst": 9028,
      "ruption": 9029,
      "ĠBang": 9030,
      "Ġplanned": 9031,
      "Ġdepth": 9032,
      "ĠEpisode": 9033,
      "Ġexposure": 9034,
      "igure": 9035,
      "Ġmandatory": 9036,
      "ĠDie": 9037,
      "Ġroute": 9038,
      "Ġlimits": 9039,
      "nSim": 9040,
      "ĠContinue": 9041,
      "Ġbrown": 9042,
      "9211119": 9043,
      "AND": 9044,
      "Ġmainly": 9045,
      "QW": 9046,
      "Ġboat": 9047,
      "Ġcla": 9048,
      "Ġcertified": 9049,
      "Ġexplan": 9050,
      "liers": 9051,
      "ĠPacific": 9052,
      "rat": 9053,
      "Med": 9054,
      "9996": 9055,
      "ested": 9056,
      "isted": 9057,
      "',": 9058,
      "ĠPrin": 9059,
      "Ġvisited": 9060,
      "nMarket": 9061,
      "ĠClean": 9062,
      "Ġintegrated": 9063,
      "Ġindicate": 9064,
      "HC": 9065,
      "nHigh": 9066,
      "ĠRoyal": 9067,
      "nMon": 9068,
      "ĠPL": 9069,
      "ĠCatholic": 9070,
      "660": 9071,
      "Ġcampus": 9072,
      "ĠAustralian": 9073,
      "cker": 9074,
      "ronics": 9075,
      "671": 9076,
      "Ġproven": 9077,
      "559": 9078,
      "379": 9079,
      "740": 9080,
      "ennis": 9081,
      "abeth": 9082,
      "Ġrealized": 9083,
      "Ġcandidates": 9084,
      "Ġsoil": 9085,
      "9707": 9086,
      "When": 9087,
      "Ġinstant": 9088,
      "search": 9089,
      "ĠColorado": 9090,
      "nw": 9091,
      "ĠCoast": 9092,
      "Ġspell": 9093,
      "Ðº": 9094,
      "bet": 9095,
      "Ġstands": 9096,
      "Ġsurrounding": 9097,
      "Ġbat": 9098,
      "stein": 9099,
      "Ġbasically": 9100,
      "Ġ(âĢľ": 9101,
      "Ġrestaurants": 9102,
      "Ġjurisd": 9103,
      "ĠObama": 9104,
      "At": 9105,
      "ĠTherap": 9106,
      "Ġlandscape": 9107,
      "Ġtur": 9108,
      "âĢĻ,": 9109,
      "nSocial": 9110,
      "732": 9111,
      "Ġvirus": 9112,
      "JW": 9113,
      "Ġwheel": 9114,
      "Ġhardware": 9115,
      "Ġfirms": 9116,
      "Ġafternoon": 9117,
      "Ġma": 9118,
      "ĠNEW": 9119,
      "Ġcrash": 9120,
      "UI": 9121,
      "ĠNatural": 9122,
      "Ġcompensation": 9123,
      "185": 9124,
      "Ġbond": 9125,
      "och": 9126,
      "Ġrelating": 9127,
      "ĠHoly": 9128,
      "Ġsuperv": 9129,
      "Ġgrew": 9130,
      "ependent": 9131,
      "ĠMill": 9132,
      "opt": 9133,
      "LP": 9134,
      "FX": 9135,
      "Ġrespective": 9136,
      "nAccess": 9137,
      "ĠEmploy": 9138,
      "ector": 9139,
      "ĠConstruction": 9140,
      "ĠSubs": 9141,
      "born": 9142,
      "ĠWhich": 9143,
      "Ġresistance": 9144,
      "JX": 9145,
      "isdom": 9146,
      "ira": 9147,
      "nHelp": 9148,
      "ĠDays": 9149,
      "otton": 9150,
      "chedule": 9151,
      "ĠDrive": 9152,
      "whel": 9153,
      "Ġapplies": 9154,
      "enger": 9155,
      "Ġboys": 9156,
      "ateful": 9157,
      "Ġprove": 9158,
      "Ġcapable": 9159,
      "âĺħâĺħ": 9160,
      "ador": 9161,
      "ĠFall": 9162,
      "..\\": 9163,
      "ĠMala": 9164,
      "Ġstyles": 9165,
      "DP": 9166,
      "Ġcontrast": 9167,
      "aler": 9168,
      "Ġcomplic": 9169,
      "athan": 9170,
      "GM": 9171,
      "ollywood": 9172,
      "name": 9173,
      "Ġwalls": 9174,
      "042": 9175,
      "ĠFeatures": 9176,
      "Ġintroduction": 9177,
      "uling": 9178,
      "Ġdefend": 9179,
      "Ġaddresses": 9180,
      "Ġvibr": 9181,
      "nLinkedIn": 9182,
      "Ġclothing": 9183,
      "aping": 9184,
      "JS": 9185,
      "Ġgent": 9186,
      "intage": 9187,
      "Fi": 9188,
      "ĠCulture": 9189,
      "item": 9190,
      "Ġforever": 9191,
      "nFAQ": 9192,
      "ĠOhio": 9193,
      "JZ": 9194,
      "IST": 9195,
      "nAss": 9196,
      "IAL": 9197,
      "cuit": 9198,
      "amm": 9199,
      "Ġque": 9200,
      "filter": 9201,
      "stood": 9202,
      "Ġprovision": 9203,
      "GY": 9204,
      "ĠIntell": 9205,
      "nSince": 9206,
      "Ġunus": 9207,
      "JP": 9208,
      "Ġconfirmed": 9209,
      "ilipp": 9210,
      "nNov": 9211,
      "appro": 9212,
      "site": 9213,
      "oking": 9214,
      "HZ": 9215,
      "Ġbookmark": 9216,
      "Ġmotion": 9217,
      "458": 9218,
      "Ġvacation": 9219,
      "Ġfrust": 9220,
      "Ġrevealed": 9221,
      "uce": 9222,
      "Ġstake": 9223,
      "Ġsavings": 9224,
      "umes": 9225,
      "acle": 9226,
      "Ġbasket": 9227,
      "Ġhonor": 9228,
      "127": 9229,
      "Ġoutstanding": 9230,
      "Ġconcerning": 9231,
      "Ġgraduate": 9232,
      "Ġsubsequ": 9233,
      "Ġapartment": 9234,
      "inch": 9235,
      "ĠDa": 9236,
      "Ġvirt": 9237,
      "ĠApr": 9238,
      "Ġturning": 9239,
      "Ġwel": 9240,
      "ĠManufact": 9241,
      "Ġyounger": 9242,
      "Ġillegal": 9243,
      "UE": 9244,
      "Ġages": 9245,
      "Ġri": 9246,
      "âĢ³": 9247,
      "iversary": 9248,
      "Ġmetrics": 9249,
      "ĠAdvert": 9250,
      "Ġerrors": 9251,
      "Ġsuggestions": 9252,
      "560": 9253,
      "Ġran": 9254,
      "By": 9255,
      "ĠPaper": 9256,
      "umblr": 9257,
      "478": 9258,
      "Ġtrail": 9259,
      "Ġentering": 9260,
      "Ġcurrency": 9261,
      "IE": 9262,
      "owned": 9263,
      "HX": 9264,
      "mg": 9265,
      "ĠCreative": 9266,
      "ĠSky": 9267,
      "Ġconstant": 9268,
      "9744": 9269,
      "riving": 9270,
      "Ġinterior": 9271,
      "Ġfighting": 9272,
      "080": 9273,
      "NP": 9274,
      "308": 9275,
      "Ġlikes": 9276,
      "ĠMaterial": 9277,
      "Ġtiss": 9278,
      "Ġease": 9279,
      "Ġclosely": 9280,
      "agraph": 9281,
      "378": 9282,
      "Ġelev": 9283,
      "organ": 9284,
      "Ġmountain": 9285,
      "GA": 9286,
      "nSubmit": 9287,
      "Ġoriginally": 9288,
      "Ġdecade": 9289,
      "una": 9290,
      "ĠPerson": 9291,
      "Ġstorm": 9292,
      "Ġtiny": 9293,
      "ĠDisney": 9294,
      "esides": 9295,
      "UW": 9296,
      "309": 9297,
      "ĠProfile": 9298,
      "Ġurban": 9299,
      "Ġfundamental": 9300,
      "FO": 9301,
      "inois": 9302,
      "ingers": 9303,
      "Ġtrained": 9304,
      "Ã§": 9305,
      "Ġdiscretion": 9306,
      "Ġovers": 9307,
      "Ġupper": 9308,
      "ĠCL": 9309,
      "Ġevil": 9310,
      "nCal": 9311,
      "Ġextract": 9312,
      "Ġadventure": 9313,
      "ĠCro": 9314,
      "VP": 9315,
      "Ġmagazine": 9316,
      "Ġchocolate": 9317,
      "Ġneither": 9318,
      "JK": 9319,
      "MR": 9320,
      "Ġlisting": 9321,
      "nAv": 9322,
      "Ġcorrectly": 9323,
      "ĠJob": 9324,
      "Ġgenerated": 9325,
      "Ġstruggle": 9326,
      "Ġfunny": 9327,
      "ĠVictor": 9328,
      "allow": 9329,
      "ĠOfficer": 9330,
      "iral": 9331,
      "reets": 9332,
      "Ġtelevision": 9333,
      "ĠSouthern": 9334,
      "ĠText": 9335,
      "Ġexclusively": 9336,
      "ĠBoston": 9337,
      "Ġgradu": 9338,
      "nManage": 9339,
      "ĠChair": 9340,
      "ĠExpress": 9341,
      "ĠRichard": 9342,
      "Ġsuffering": 9343,
      "Ġtransportation": 9344,
      "ĠCre": 9345,
      "esy": 9346,
      "ĠNO": 9347,
      "Ġsurprised": 9348,
      "ilot": 9349,
      "Ġlapt": 9350,
      "Ġhurt": 9351,
      "Ġdynamic": 9352,
      "ĠPlatform": 9353,
      "Ġnormally": 9354,
      "Ġlift": 9355,
      "Ġordered": 9356,
      "ĠMORE": 9357,
      "ĠSn": 9358,
      "Read": 9359,
      "Ġ?": 9360,
      "Ġprimarily": 9361,
      "ds": 9362,
      "olving": 9363,
      "ĠSteph": 9364,
      "Ġletters": 9365,
      "ĠJobs": 9366,
      "ĠFrancisco": 9367,
      "ĠHTML": 9368,
      "onder": 9369,
      "Ġconnections": 9370,
      "Ġsuggested": 9371,
      "Ġinterface": 9372,
      "Ġversions": 9373,
      "ĠLabor": 9374,
      "ĠSingapore": 9375,
      "ih": 9376,
      "ĠQuality": 9377,
      "aylor": 9378,
      "TY": 9379,
      "ĠAsian": 9380,
      "761": 9381,
      ".[": 9382,
      "BP": 9383,
      "nAb": 9384,
      "wear": 9385,
      "Ġgear": 9386,
      "Ġrepresentative": 9387,
      "Ġexplo": 9388,
      "Ġofficers": 9389,
      "Ġrepresents": 9390,
      "Ġduty": 9391,
      "Ġcolle": 9392,
      "QK": 9393,
      "Ġsky": 9394,
      "ĠLine": 9395,
      "aul": 9396,
      "rates": 9397,
      "lie": 9398,
      "Ġlanguages": 9399,
      "Ġcandidate": 9400,
      "ãĢ": 9401,
      "acter": 9402,
      "ĠClar": 9403,
      "nFull": 9404,
      "ĠJon": 9405,
      "ĠNever": 9406,
      "189": 9407,
      "Ġcelebrate": 9408,
      "Ġsections": 9409,
      "lymp": 9410,
      "Ġpromise": 9411,
      "oming": 9412,
      "Ġmixed": 9413,
      "Ġabsor": 9414,
      "Ġroles": 9415,
      "ĠQuote": 9416,
      "ĠTrade": 9417,
      "ĠJer": 9418,
      "Per": 9419,
      "Ġcalendar": 9420,
      "180": 9421,
      "FW": 9422,
      "ĠLiber": 9423,
      "ÙĬ": 9424,
      "Ġflexible": 9425,
      "quisition": 9426,
      "Ġexperiment": 9427,
      "trans": 9428,
      "Ġultimately": 9429,
      "Ġpotentially": 9430,
      "Ġindustries": 9431,
      "ĠKids": 9432,
      "INE": 9433,
      "ĠPur": 9434,
      "etails": 9435,
      "NZ": 9436,
      "MY": 9437,
      "usive": 9438,
      "ĠField": 9439,
      "ĠEditor": 9440,
      "UZ": 9441,
      "Ġcos": 9442,
      "Blog": 9443,
      "479": 9444,
      "Ġcentre": 9445,
      "Ġraw": 9446,
      "Ġdisappoint": 9447,
      "itled": 9448,
      "ĠSenior": 9449,
      "9926": 9450,
      "ĠHol": 9451,
      "show": 9452,
      "Ġsuc": 9453,
      "ĠAdvanced": 9454,
      "Ġmemories": 9455,
      "Ġbowl": 9456,
      "Ġconscious": 9457,
      "Ġsolely": 9458,
      "Ġclassified": 9459,
      "ĠCurrent": 9460,
      "Ġwarning": 9461,
      "Ġliterature": 9462,
      "nResearch": 9463,
      "ĠSessions": 9464,
      "iah": 9465,
      "ĠCommon": 9466,
      "99877": 9467,
      "Ġdreams": 9468,
      "inity": 9469,
      "Ġchildhood": 9470,
      "448": 9471,
      "ĠStatement": 9472,
      "Ġprinting": 9473,
[...]
