#version: 0.2
e n
e r
c h
" :
e i
Ġ d
e l
u n
i e
, "
l a
d e
s t
r o
": "
" ,"
i n
{ "
o n
p ro
b el
a n
pro b
la bel
} ,
l l
a r
e s
Ġ S
i ch
a t
ei n
Ã ¼
un g
Ġ a
Ġ un
Ġ s
g e
o r
Ġ w
}, {"
9 9
Ã ¤
n u
i t
t en
s ch
nu ll
t e
Ġ A
Ġ v
Ġd ie
Ġun d
Ġ D
a l
Ġ b
d er
Ġ m
Ġ B
d en
h r
t i
Ġ z
u r
a s
Ġ ein
Ġd er
t er
g en
2 0
u s
Ġ M
e t
e m
Ġ i
Ġ f
u f
Ġ W
Ġ E
Ã ¶
Ġ I
b er
Ġ F
Ġ in
Ġ n
Ġ K
Ġ G
Ġ h
Ġ k
c k
l ich
. \
Ġ P
r a
Ġz u
r e
w ar
u t
i r
i on
s en
ei t
Ã¼ r
, {"
i er
Ġ T
Ġ g
Ġ V
â Ģ
a ch
Ġ H
Ġ (
Ġ 20
u m
i s
el l
m m
war c
Ġ R
u ch
b en
Ġ L
Ġ an
i l
i g
Ġ er
s e
Ġ N
Ġd as
Ġv er
Ġv on
ich t
Ġ o
Ġ ge
o l
Ġ 1
Ġa uf
Ġf Ã¼r
Ġ C
9 8
s er
at ion
Ġd en
o o
l e
er s
n en
a m
Ġm it
i sch
en t
0 0
Ġ Z
Ã Ł
e h
r ei
c on
2 2
ĠI n
ĠS ie
b e
Ġi st
Ġ U
k t
in g
Ġ J
f f
an d
l s
e g
o m
Ġ p
ung en
an n
9 7
n D
ĠS t
Ġ âĢ
ĠV er
e b
d i
Ġw ir
ĠA n
Ġ20 1
at en
e st
9 6
9 5
i d
a hr
f t
ten t
Ġn icht
Ġs o
la n
con tent
Ã¼ ber
Ġi m
Ġo der
Ġa us
Ġd es
ei ch
s p
l o
h e
oo k
f or
ie s
n A
Ġw er
ĠS ch
i c
ut z
u l
Ã¤ n
in d
2 1
i k
9 4
i el
h l
Ġ t
a g
9 3
e u
Ġs ich
Ġ O
a u
Ġein e
Ġ j
1 1
n S
e hr
o ch
ung s
Ġ l
a d
Ġb ei
p e
Ġ Ã¼ber
Ã¶ n
et z
Ġwer den
i en
v er
2 3
or t
ti f
2 5
st ell
er n
i den
99 8
Ġs ch
r i
es ch
k ti
w ei
g t
Ġa uch
2 4
9 1
2 6
Ġ um
Ġ es
st en
o t
iden tif
": {"
h al
0 5
p p
2 7
ĠE in
ĠI hr
h n
o mm
Ġd em
n W
a b
Ġ st
e ch
8 3
ĠE r
en n
un d
Ġs ind
8 6
t z
Ġb e
7 5
8 4
8 5
1 5
0 6
1 3
ĠD aten
h t
0 3
0 4
ei ter
for m
Ġw ie
h a
Ã¤ r
i st
Ġun ser
7 3
7 4
1 6
1 4
Ġh a
ei l
ti g
Ã¼ ck
Ġk Ã¶n
7 6
ĠD ie
w er
a ll
ein e
ĠS p
es s
Ġa ll
Ġn ach
en d
r u
ter n
ur ch
Ġ -
Ġa ls
g er
t y
ur n
m en
n E
ĠU n
ar b
e d
n M
Ã¼ n
a ge
ĠC ook
\ "
u g
0 8
ier en
ĠkÃ¶n nen
n B
s it
ĠâĢ ĵ
i ck
ĠW eb
Ġv or
r Ã¤
1 2
n I
ic ation
sch a
o ll
u id
ĠP ro
Ġdas s
ty pe
ch en
t s
ĠA r
e p
":" <
u uid
identif ication
} ,"
Ġz ur
âĢ ľ
q u
ls h
t lsh
Ġ ich
i v
Ġwir d
99 6
ei ten
Ã¶ r
a uf
isch en
0 7
or d
": [
l in
4 5
s sen
Ġa b
Ġ /
c e
lich en
p f
it t
Ġs ein
i mm
ar k
1 7
3 3
t o
ier t
isch e
w w
Ġ nu
ei te
p s
n N
l ie
Ġh at
> ","
Â Ń
a us
Ġj e
u st
2 8
ation en
ĠâĢ ŀ
sch utz
Ġun ter
Ġ ent
4 6
Ġk ann
kti on
s s
r an
) \
o g
99 7
Ġs ie
5 5
Ġ 3
lich e
ge b
at e
Ġzu m
u b
f Ã¼
n er
Ġha ben
r ie
t ra
n K
Ġein en
er k
Ġd urch
Ġun s
ĠA us
n F
Ġd a
ĠJ ahr
Ġa m
1 8
Ġein er
z en
l en
el t
Ġ Ã
ĠA b
ĠD e
sen ten
z i
4 3
i ll
a hl
scha ft
ei gen
Ã¤ t
ĠCook ies
nD ie
ar t
at eg
an g
/ /
e ben
n t
ĠB e
Ġi hr
: //
. .
z u
1 0
er t
p r
ch e
al it
8 7
i gen
p la
re ch
ĠWeb sit
a der
n G
99 5
us s
h er
Ġan der
ers on
h en
f en
ateg or
i m
0 9
form ationen
Ġ r
ing s
h ar
ie d
20 22
: \
x t
sch en
lan g
ĠM a
he ader
4 4
Ġein em
v ers
3 6
de t
Ã¶ g
n P
l ei
h eit
0 1
Ġw eiter
w en
3 5
h o
te t
n T
ĠWebsit e
t ps
n H
Ġw ar
k eit
Ġm ehr
b t
Ġw ur
n C
de s
ge st
b ar
on t
Ġb is
o s
i ge
e ck
f ahr
n is
a mm
a c
Ġnu r
ĠB er
ĠIhr e
em ber
lo ck
Ġb est
Ġg es
Ġdie s
a h
ge t
8 8
as sen
de u
e w
an z
z eit
der n
Ġ c
eh en
g el
n et
Ã¤ hr
Ġm an
de m
7 7
n V
2 9
Ġdie se
ĠG r
er en
6 6
f e
m f
ĠA uf
st e
Ġ e
3 4
a k
a il
st er
at a
e di
etz t
ff en
d u
Ġn och
ut sch
lan d
m et
ht tps
t ar
o b
k en
1 9
ĠV or
h nen
omm en
ell e
Ġ &
m al
o v
ÃŁ en
re f
} }
te xt
re c
al t
a p
6 5
an t
ĠS o
qu alit
un den
9 0
s ha
ur i
Ġd u
n e
g es
Ġ 4
Ġf in
e f
vers ion
Ġ 5
d ate
n L
g le
Ġs p
as s
Ġn eu
eh men
oo gle
Ġ20 22
c ategor
ĠIn formationen
f ol
il d
ľ ber
b lock
Ġv iel
p er
0 2
Ġso ll
war n
el n
gt h
u age
ĠW ir
Ġb er
len gth
lang uage
rec ord
n Z
tar get
Ã¶g lich
qualit y
pla in
categor ies
Ġl ie
con version
ad ata
] }}
ref ers
met adata
header s
di gest
mf ul
warn ings
senten ce
har mful
identification s
" },"
identif ied
l er
Ġver wen
? \
d r
g r
l Ã¤
Ġdie ser
Ġw enn
l Ã¤r
Ġ 2
n R
ĠM it
6 4
kti v
":[ {"
Ġunser er
ti on
mm er
i z
Ġa ber
o p
Ġd ar
un ktion
m e
w ie
ĠN utz
} ]}}
Ġ |
ĠD as
eit ung
" ]
":[ "
"] ,"
l eich
Ġh ier
5 7
5 4
ÃŁ e
es se
nI n
b st
Ġ la
r Ã¼
Ġ gen
ei g
ach t
Ġh in
te m
99 4
hal ten
g a
er ung
h in
Ġ pro
ĠR ech
m a
o gen
n U
Ġb es
3 7
Ġ 6
ĠH er
w eck
! \
r it
es en
ll e
tra g
s h
ww w
in k
ell en
Ġp er
5 6
3 0
a st
at z
Ã¤ l
am e
Ġv om
8 1
el d
ier ung
Ġ \"
l ick
ĠD er
ook ie
erson en
Ġwur de
o d
a kt
ĠDaten schutz
4 7
Ġ re
nA n
Ġ et
rei ch
h em
al e
ein en
m er
ĠZ eit
ĠF ra
k te
g esch
Ã¤ ch
z ep
ach en
hn e
is sen
rei s
stell ungen
8 0
Ġall e
Ã¤ hl
f er
for der
ĠR eg
ĠN ach
ĠÃ ľber
b ie
i bt
ich tig
d ig
ti k
Ġd e
ĠG es
be z
a ck
f all
fÃ¼ hr
ul t
c om
Ġd ann
o sten
Ġwie der
m itt
v or
rech t
ĠI m
us amm
eit s
e gen
I n
at t
m in
ĠF or
Ġ Â
Ġg el
ol og
Ġge w
b es
Ġb et
D E
Ġg ro
9 2
ĠB et
Ġ20 21
ĠU m
k e
ti gen
ar d
ĠG esch
Ã¶ ff
l ung
o st
6 7
Ġ â
on der
o hn
lÃ¤r ung
uch en
Ġh er
6 3
sp iel
in der
Ġw as
a y
) ,
u ÃŁ
Ã¶ ch
f ach
ge m
5 3
ĠK on
p t
ad t
wei se
99 3
o w
ĠIn hal
el bst
ĠM en
u ro
ĠA l
i de
ĠE nt
stell en
Ġge m
usamm en
Ġunser e
Ġm ir
ei st
gen d
o ber
Ġein es
Ã¼ hr
Ġp assen
Ġ20 20
n ah
e kt
Ã¼ tz
nC ookie
al en
ein er
c es
lin e
ĠDe utsch
ur g
w end
ĠSt Ã¼ck
it z
Ġk eine
Ġfin den
a gen
ĠE n
aten schutz
ge ben
Ġi mmer
w or
ov ember
i a
Ġg ibt
at ur
M ail
iv e
ĠB es
w ort
z eu
eig net
Ġs ehr
ĠUn ter
ro n
. ","
ri ff
in e
om p
- -
o ff
o k
i der
Ġet w
99 9
n J
z eigen
in gen
E R
arb eitung
ĠM edi
Ĥ ¬
erk lÃ¤rung
al ten
Ġso wie
la r
ĠO r
di en
bez ogen
7 1
ĠAr b
ĠB ei
Ġ201 9
Ġander e
w ill
al y
t t
ti eren
an k
Ġg esch
ĠI hnen
sh ort
ch n
4 8
y st
senten ces
tem ber
B B
ĠCook ie
ĠG oogle
ĠE s
stell t
ĠN ovember
ti ge
st Ã¤n
f ra
Ġ le
Ġz wei
Ġ201 8
ar ten
Ġge eignet
Ã¤r z
b r
ier te
A C
Q u
ĠZ u
wer t
ĠPro du
w ick
b l
E N
z ember
nW ir
un i
Ġsch on
ab ei
Ġ eigen
bie ter
ont akt
ĠU hr
un de
ersonen bezogen
8 9
Ã¤ tz
en g
s icht
Ġge gen
ĠW er
ĠE uro
kt ober
ig er
ĠK omm
Ã¤ ÃŁ
f ten
ĠF unktion
at er
Ġw el
uch t
et t
ĠIhr er
i al
Ġw en
yst em
e c
Ġg r
stell ung
E D
in nen
am it
ro w
z ie
4 1
t eil
p h
ig ung
ul i
Ġ201 7
ep tember
ech n
Ġdies em
l uss
nD atenschutz
st ag
ĠW ei
A D
an u
âĢ ¦
er v
al is
3 1
la ge
7 8
ich er
Ġ te
w eg
3 8
ĠT e
Ġ1 0
S t
ĠZ ug
Ġo hne
sp r
o hl
tern ehmen
ew s
am en
Ġm ich
re u
Ġk on
a v
es sen
b ung
pr ess
ĠDe zember
uf en
ĠM on
ĠIn tern
s atz
it te
Ġg er
ĠD ien
kt u
ar e
C C
lo g
Ġ201 6
ĠO ktober
ĠL eben
ra g
ei m
b a
A B
4 9
en utz
ug ust
5 0
pr il
in ter
Ġm Ã¼
ĠMa i
Ġver sch
b s
b urg
ĠSp iel
ĠT eil
ic e
eh t
ĠB est
el s
fahr en
Ġs on
in n
r en
ĠW enn
sch e
Ġwur den
l Ã¼
Ġ 7
Ġje de
ĠS eptember
4 0
ru ck
k zep
g an
z in
anu ar
n O
z eich
.. .\
5 8
Ġan ge
Ġander en
nD er
Ġg anz
s eite
ri v
Ġverwen det
r at
E F
la ub
Ġbei m
nS t
ĠJ uni
eb ru
ebru ar
ĠM Ã¤rz
Ġje der
E C
b au
lich t
Ġha be
u d
) .
D D
k ommen
p eich
ĠGr und
ich ten
ĠJ uli
6 9
5 1
s k
Ġnu tz
Ġk l
Ġd i
tik el
ĠV ers
ha us
nU n
or en
Ġein fach
_ _
ich te
n ung
8 2
sch lie
Ġm Ã¶ch
ĠR e
re chen
Ġt he
ĠT hem
ĠZ weck
r itt
etz en
ĠJahr e
ĠA ugust
nD as
w ir
g ung
ĠH a
ĠB eit
Ġ201 5
ĠA pril
A F
ran k
Ã¤hr end
eb ook
er e
ĠW eiter
f oo
Ġâ Ĥ¬
o u
ĠS eite
ĠH and
la g
ac ebook
E B
Ġs elbst
Ġer fol
l et
ĠJ anuar
o ur
ĠG er
Ġe x
D F
z ahl
is s
Ã¶ff ent
Ġp ersonenbezogen
at ist
t schaft
Ġin s
lich er
m b
m ent
h Ã¶r
Ġb ie
be d
ĠT ra
a f
D C
ĠA ut
Ã¤l t
b ild
3 2
en k
ĠSp eich
ĠBes uch
g ra
ĠD u
ĠF ebruar
Ã¤ ll
z w
ĠR ei
foo ter
eite t
Ġer forder
ĠIn ter
Ġg ut
00 0
lo s
as ser
ĠAr t
est er
Ġd amit
6 0
au er
ĠB o
4 2
nS ch
Ġ Qu
ĠL ie
ra ch
ĠI ch
s am
Ġm achen
Ã¤n g
r icht
Ġm Ã¶glich
ĠMen schen
Ġz w
sch ei
ĠM ark
Ġla ssen
ĠP f
hal b
ion en
Ġda zu
ĠM ar
ĠInhal te
ie den
k eiten
Ġihr e
/ ","
e x
ĠA u
ĠA ll
ĠP la
E E
ol gen
00 00
Ġge ht
ĠIntern et
3 9
wor ten
ĠmÃ¼ ssen
Ġd abei
en s
A dr
imm ung
a de
Ġa l
ĠC o
ĠO n
99 96
ig keit
Ġm uss
ĠT ag
Ġb eg
7 0
Ġ201 4
d ung
Ġ Y
press um
r em
nI m
ĠP erson
A A
ĠR o
Ġj etzt
98 6
ĠVer arbeitung
a um
isch er
Ġz usammen
nE in
7 2
ol it
Ġo b
ob il
nV er
row ser
it Ã¤t
ent r
pp en
ĠF ahr
g lie
ĠU r
ga be
ĠK inder
ĠDatenschutz erklÃ¤rung
ĠM in
Ġ1 6
st and
un des
au pt
Ġw Ã¤hrend
ĠDie se
uch e
f il
ation s
Ġf rei
z ei
Ġneu e
rÃ¤ ge
b o
arb eiten
en den
ĠL and
5 2
Ġetw as
n Ã
Ã¶ s
ĠG eb
h ol
Ġm ein
kzep tieren
eu te
Ġo f
g ang
i an
un ft
k auf
un kt
ge w
a den
C D
Ġ 8
7 9
m an
at s
ĠDeutsch land
c o
Ġte chn
wer k
ĠUn ternehmen
ĠG e
la gen
Ġerforder lich
f rei
ĠNutz er
hal t
6 1
6 8
f te
m us
ck en
Ã¤n der
ĠN eu
99 95
i o
Ġge ben
Ġer st
n te
C B
re kt
ĠAn geb
Ġent sp
Ġ 0
f ern
gr und
I N
Ġdie sen
il fe
ur z
wend ung
ĠJahr en
E A
ĠG ew
Ġbest imm
an der
F F
u te
al d
o te
g leich
bes ser
Ġd an
99 94
t in
Ġh el
e k
zi ell
ĠK unden
Ġ201 3
Ġg leich
u en
Ġverwen den
ann t
et ing
ĠH aus
Ġzur Ã¼ck
ĠK l
oll e
ĠZ ust
98 3
art ner
Ġ ung
st off
ig n
uÃŁ er
ĠE x
ĠF all
f in
Ġ1 5
Ã¤ d
Ġb en
A n
Ã¤hl en
Ġ1 8
Ġm al
Ġsch n
Ġdies es
m Ã¤ÃŁ
ĠÃ ĸ
ĠW elt
D B
an den
ĠM us
Ã¤ h
ra uch
ant wort
99 93
am il
V O
ĠT echn
Ġw ichtig
an st
d it
am t
u er
ĠC h
Ġge st
C H
ĠSt adt
ch er
Ġweiter hin
ĠMedi en
ti gt
h Ã¤lt
ber g
S G
y m
la s
ers Ã¶n
bed ing
ĠB enutz
s o
ĠA d
ĠUn d
ier ten
Ġd och
ĠV ide
oll en
C F
98 4
ĠW ar
ĠU S
a ut
ĠÃ Ħ
ag t
5 9
nah me
nW eiter
ik en
f Ã¼r
m ann
la ss
un ter
Ġer halten
eu er
l ug
Ġk omm
u ten
99 97
C E
ed och
will igung
z ug
ĠEr fahr
s st
st Ã¼tz
r uf
Ġ201 2
B A
Ġhel fen
u be
Ġh o
ĠM o
nN ach
ei le
C A
ur s
at Ã¼r
Ġ on
l i
zie h
ĠSpeich erung
ti ert
or n
Ġ1 2
ĠF Ã¼r
Ġviel e
Ġer m
Ġversch ieden
ook ies
ĠOn line
Ġnutz en
ra ft
B F
Ġt o
Ġd ich
ĠVer b
e e
v on
un der
ro ffen
p en
9 27
ĠNutz ung
.. .
z el
ĠAb s
ver b
at iv
eich t
ĠIhr em
Ã¤ uf
Ġges peich
arb eitet
r Ã¤n
t h
p pe
Ġzw ischen
Ġunser en
ĠS te
Ã¶ l
Ġb esch
Ġj edoch
icher heit
gra mm
6 2
schlie ÃŁ
Ġbe k
st ehen
Ã¤ re
ga ben
mitt el
ro m
Ġf or
rie b
Ġ1 9
k on
lo ssen
alt ung
ĠEin willigung
ĠB rowser
Ġs eine
D A
i f
Ġs eit
en z
Ġ *
ĠW och
ĠD ies
ĠB ild
zeu g
ie der
ĠA m
fall s
un st
l us
ĠAr tikel
99 91
g ie
ĠArb eit
a hn
Ġjeder zeit
ti c
Ġber eits
ist r
Ġden n
i um
Ġa ktu
Ã¤n ger
Ġ 9
ĠKomm ent
Ġwel che
ĠD a
Ġweiter e
Ġk ommen
or f
or e
Ġan d
B E
nA nt
o ten
ĠH ier
ho p
ĠZug riff
ĠF rei
Ġver besser
a a
Ġbes onder
rei ben
Ġall er
t ag
s el
ĠSch w
ĠAn aly
ra m
olog ie
Ġb zw
ĠZ ahl
nis se
b et
ĠRech t
ĠM an
ult ur
ĠL ink
k unft
ĠM itt
d ie
Ġj a
Ġan zeigen
nI ch
ĠS eiten
Ġ [
m el
Ġ1 1
Ġ eben
Ġ1 4
âĢ ĵ
ak ult
Ġa ktiv
Ġhat te
scha ften
Ġb eh
Ġm eine
98 5
nA lle
t re
let ter
Ġall es
Ġer sten
a ff
h and
ĠS on
S ch
c c
99 1
ern e
ĠZust immung
Adr esse
nN ame
j ekt
Ġ +
Ġer k
w ahl
ub l
u le
en de
la uf
ĠF r
ĠB r
w and
m pf
Ġ recht
Ġd ir
ĠB undes
h m
Ġf Ã¼hr
v ent
F A
Ġin ter
Ġson dern
Ġ3 0
k ehr
ĠD urch
s etz
l esen
u p
sch luss
ĠE l
Ã¤ ft
Ġf olgen
g l
p ti
ig it
um en
Ġi hnen
ĠWeb seite
wei s
Ġsoll te
lan ge
Ã¶ ÃŁ
Ġb lei
Ġk ein
Ġ em
lich keit
in de
ra f
ei ÃŁ
lei st
ĠRech ts
nW enn
eh Ã¶r
Ġb in
ĠG en
st r
am p
ei den
ĠI r
ĠL auf
Ġdan eben
Ġf est
issen schaft
p unkt
ach ten
ser e
ch t
ge hen
on e
Ġge hÃ¶r
B D
Ã¼n st
Ġl etz
A E
A N
Ġpersonenbezogen en
em ester
Ġw o
nS ie
ĠEin stellungen
akult Ã¤t
ĠD i
ĠK ontakt
Ġw Ã¼r
is k
ĠG em
i b
il der
Ġver b
Ġge f
st it
Ġneu en
Ġ201 1
ĠL e
el ef
tin y
ĠB esch
ĠBer eich
ĠW asser
Ġo ben
y p
ĠAn t
r in
a in
a x
Ġsich er
ĠB uch
le gen
rie ben
ews letter
c a
ĠFor m
zi al
sch ein
Ġ 25
Ġp ersÃ¶n
Ġh och
Ġals o
Ġw ill
k s
wei l
ra d
Ġ1 3
it ter
mb H
nG oogle
n ehmen
Ġverbesser n
ĠmÃ¶ch ten
dien st
ĠD es
ell er
98 8
d aten
ĠH in
y s
le x
Ġ #
ig ht
F B
Ġn atÃ¼r
erv ice
ĠIhr en
wick lung
ĠMit glie
nA r
di v
ĠB au
Ġ1 7
âĢ Ŀ
i pp
m ar
Ġge b
ĠBesuch er
98 7
om at
nE r
âĢ ŀ
Ġv oll
ĠEin e
ĠR Ã¼ck
d a
ah men
om e
ĠS ti
nM it
Ġlie gen
und heit
ge stellt
ĠDien st
Ġgem ein
ĠVer wendung
st adt
ĠM Ã¶glich
eil en
nAnt worten
alit Ã¤t
Ġver s
a z
ur t
or g
ĠE U
z t
ein stellungen
Ġd ein
Ġ 21
u ter
Ġn ot
enn t
ĠFunktion en
n eh
ĠG mbH
arb eit
n a
ri ft
Ã¶g lichen
ĠW ohn
Ġn un
99 0
Ġs ol
SG VO
Ġk osten
rei se
la ssen
Ġd rei
ĠEuro p
ĠK ar
uf t
g ar
a ktiv
k ten
sch t
99 75
Ġb r
ĠWeiter e
ier e
ĠG ro
ĠAn zeigen
Ġihr er
or den
Ã¤ll t
al s
et ail
Ġgro ÃŁe
rei chen
B C
ĠP h
o sit
div id
isch es
st ra
sch n
F E
ĠB l
O N
ĠBer lin
99 76
99 74
elef on
Ã¤n dern
Ġkann st
f ang
p rÃ¤
z e
ĠThem a
Ġst eht
Ã¶r der
ĠLeben s
divid u
h Ã¶
b b
ĠP rÃ¤
Ġes sen
V er
Ġerfol gt
9 24
ĠF il
âĢľ ,
tern e
lich es
m it
I T
Ġst att
a bel
ĠI P
t es
Ġwen ig
sch ung
In formationen
f r
ĠB eg
ĠSt and
ĠT he
arb eiter
ri st
Ġt ra
ĠT h
us Ã¤tz
D ie
Ġa ut
ĠF acebook
ĠD SGVO
k o
b ei
) .\
imm er
Ġw ider
Ã ©
ĠW inter
ech tig
tt form
d ruck
Ġgespeich ert
ach sen
S T
la u
Ġs ehen
ist e
v e
nK ontakt
z er
it y
nah men
f o
ĠSch ul
Ġ 22
ur e
wei ter
ĠF amil
i x
Ġkomm t
as st
, \
ĠP reis
el e
war e
Ġsein er
ro p
ĠH o
Ġa kzeptieren
ell schaft
ie t
Ġ 24
olit ik
ĠF ot
Ġein mal
ru ppe
Ġs ei
Ġ bel
Ġn ie
25 4
i sten
ĠN ame
ĠErfahr ung
ch iv
ater ial
Ġtechn ische
gem ein
as se
j e
Ġh eute
ĠS omm
nW ie
E in
v en
ĠSp ort
ĠâĢ ľ
ĠÂ »
Ã¤ ten
ĠBeit rag
fÃ¼ ll
r ess
al er
Ġall en
Ġ el
Ġ201 0
ĠE ner
Ġm acht
Ġde ut
an s
us e
nÃ ľber
ĠR ahmen
Ġ1 00
ĠZ usammen
Ġden en
Ġ y
w elt
e der
m ark
Ġm ark
97 3
ĠS er
Ġwar en
ĠGr Ã¼n
di gen
Ġ lang
ie w
ĠReg el
99 73
schlieÃŁ lich
83 5
Ġst ehen
ĠS icherheit
Ġetw a
w eit
97 5
el and
bl em
-- --
for t
nDie se
ber eich
ĠF re
ar f
il t
Ġall em
edi zin
âĢ Ļ
ĠSt u
it ten
on n
Ġt un
f a
Ġs agt
s b
ĠB Ã¼
ĠW ider
or gen
Ġunser em
99 98
ĠD r
le b
Ġs etzen
ĠF in
u gend
U N
nAn bieter
sch ied
ĠH och
> "},"
Ġ x
ĠVer trag
at ive
ĠD ar
Ġi r
Ġh and
ĠW ie
ĠH Ã¤n
Ġd eine
ĠArb eits
Ġd ort
ĠFra gen
ck er
Ġbie ten
ĠL eist
an des
Ġschn ell
on d
h eim
Ġbet roffen
P ro
F D
gan is
s ol
de ut
p lan
ĠVer fÃ¼
Ã¤n ge
Ġmit t
Ã¶r per
b in
spr uch
nM ehr
Ġbie tet
ing er
ĠP ol
o c
ie g
Ġt h
ĠF akultÃ¤t
Ġdi rekt
Ġihr en
Ġwir k
ĠF ach
tig keit
Ġbe w
v oll
ĠA uch
ur en
ĠP ar
i p
m o
iel e
ĠAngeb ot
ĠK ategor
nIm pressum
tic s
k er
Ã¤ u
p ort
ra um
ĠPro z
Ġerm Ã¶glichen
ĠK unst
G B
ĠProdu kt
Ġder en
__ __
nZ weck
Ġw eil
13 4
st Ã¼ck
Ġgr Ã¶ÃŁ
zi elle
Ġgro ÃŁ
le ge
ei ster
an zen
Ġaus ge
Ġsp eich
d f
age ment
97 6
tra gen
di ge
b uch
auf en
ĠT o
te st
ĠPro blem
se hen
Ġ Ã¤
u lar
Ġo pti
h Ã¤ng
ĠL ehr
es e
Ġg erne
ĠS a
k ung
ech t
Ġdar auf
Ġin dem
ha ft
95 05
ĠBenutz er
ac y
A R
re g
ĠSt ra
lick en
l y
etail s
F C
Ġl esen
bild ung
ie f
ind ung
Ġsch Ã¶n
Ġg ilt
nP ro
ĠIr eland
Ġver fÃ¼
Ġn Ã¤ch
iv ers
Ġver arbeitet
E S
ĠT er
ĠEn de
96 33
Ġ or
ol d
ĠBeit rÃ¤ge
Ġc m
z uf
stag ram
a ktion
k osten
âĢ¦ \
Ã¼ hl
Ġem pf
em ent
h eiten
Ġdar Ã¼ber
fÃ¼hr ung
1 00
ĠN atur
Ã¼r ger
en nen
93 20
ĠD rit
ĠâĢ ¦
m l
s y
ist er
st a
ĠM et
ei sten
g lich
Ġs pe
iel en
riv acy
ĠO ber
ĠA pp
ion s
âĢľ \
on s
re ffen
lÃ¼ ss
] \
ĠVer antwort
ti er
rei ber
Ġda fÃ¼r
zieh ungs
mal s
ĠGesch Ã¤ft
Ġeigen en
Ã¼n f
b f
un k
ge ber
ro ll
Ġre g
98 57
ti sch
Ġi hn
94 5
w ohl
Ġ20 09
Ġlie gt
ru ppen
e ter
ĠSt a
ann ten
Ġ 23
Ġin form
Ġk omp
Ġin ner
Ġg ar
et s
fra ge
Ġh t
Ġentsp rechen
at or
d d
ĠBei spiel
j ahr
ĠJ o
ation al
Ġb itte
96 6
gan gen
et te
ol z
ĠW eg
# #
ut ter
ĠVide o
Ġm us
dr Ã¼ck
atist iken
Ã¤hl t
an gen
Ġz usÃ¤tz
ĠGem ein
Ġletz ten
ĠH ilfe
9 26
un ik
ĠUS A
et ten
ick en
sp ort
97 4
nE x
Ġa uÃŁer
9 04
u e
n o
Ġben Ã¶
as e
Ġ X
ĠM od
Ġp erson
ĠP ersonen
imm t
nE ssen
Ġht tps
t lich
b lick
ag er
ĠTe am
olog ien
st ein
ĠK o
mÃ¤ÃŁ ig
ĠM ehr
Ġ us
ach e
L L
ĠProdu kte
b la
hr ist
ĠMus ik
rei fen
91 6
ro tz
ĠA ls
ĠVer ein
n ten
an geb
ĠS ystem
9320 9505
99 55
I D
nDatenschutz erklÃ¤rung
an nen
nU m
bar en
ĠSt r
in o
st att
ĠT age
k a
A T
97 8
onder e
Ġ eh
ing t
r ichten
98 0
anst alt
u la
ess ion
ĠM al
entr um
Ġinter ess
nW as
ut t
Ġhin ter
nB ei
9 23
Ġsein en
Ġje den
ck e
ĠA ber
Ġ ch
Ġson st
Ġun be
w Ã¤hlen
Ġk urz
ĠVerfÃ¼ gung
ĠEin ige
ĠEner gie
a i
ĠWoch en
Ġviel en
Ġw ollen
ĠJahr es
Ġgen au
am er
b d
o ut
ĠG el
Ġbest en
Ġ %
Ã¼ d
O R
ĠH aupt
Ġs el
r ufen
beding ungen
in en
ĠG eld
Ġk einer
a ÃŁ
un t
ĠD ritt
nA uf
ĠK om
tif iz
ð Ł
ĠSch n
nZ ur
deut ung
f lÃ¤
Ġm o
gesch lossen
Ġunter stÃ¼tz
ĠGes undheit
a ar
eh l
95 4
Ġr und
w itter
Â »
ĠMark eting
ĠD em
Ã¤ te
ink s
ĠB ar
pro du
n https
ĠN etz
ĠB ed
st u
ĠwÃ¼r de
Ġir gend
nA us
an te
b c
Ġge hen
Ġges etz
20 21
ĠT r
b all
99 45
c ial
Ġver l
ĠAus wahl
ig es
ho f
Ġfin det
iel t
sen t
Ġer fahren
stit ut
ĠWir tschaft
le ben
ĠFra ge
s w
di o
al ter
y n
Ã¶ffent licht
ĠM ann
Ġl it
ĠRei se
ĠA lle
Ġ ro
nE s
ich tige
ĠB lick
Ġ5 0
ei der
Ġein ge
a e
l es
l Ã¼ck
o ck
ĠSch utz
m erk
ĠBe deutung
ru kt
Ġbes ser
Ġ u
at ung
Ġwer t
ĠG egen
ow n
ĠT ran
Ã¤ m
ĠIm pressum
ĠAu gen
in a
an ce
ĠVers and
ĠThem en
m Ã¶glich
fÃ¼hr t
ich erung
Ġerk lÃ¤r
96 4
ĠV ol
it ed
Ġaut omat
Ã¼ b
I S
Ġk om
nA b
. ,
ster reich
ges etzt
b eh
hr e
bar e
ĠS e
ĠM ill
ubl ik
fol gen
ĠLauf zeit
h aupt
Ġi hm
stell e
ft ware
ĠM Ã¼n
Ġwirk lich
pla tz
bes ondere
Ġsoll ten
998 5
ĠOr t
9857 9633
96 5
s se
Ġ* \
u ck
nF Ã¼r
Ġ rech
ben d
m ehr
95 73
ra gen
m eld
ĠC O
Ġgr und
is e
hal te
n der
Ġo ffen
ĠMÃ¶glich keit
er ien
ĠTechn ologien
T ube
k l
lÃ¤ ss
ĠB eh
99 2
Ã¼n d
Ã¼ l
Ġl Ã¤
95 5
omm ent
ĠW as
Ġst ark
f re
Ġsch w
Ġde utsch
ĠMit arbeiter
9 11
ĠMon at
ar te
ou Tube
la bs
ech s
lie gen
ol f
ĠG ra
d o
ĠB log
ĠIn form
ĠnatÃ¼r lich
Ġnicht s
Ġw Ã¤re
de st
9 00
Ġo ft
ĠS u
Ġver st
f assen
Ġspeich ern
setz ung
83 4
wei sen
ĠW or
Ġerfol g
ĠC on
Ġgemein sam
at ei
ĠK osten
i ell
Ġaus schlieÃŁlich
or labs
Ġfrei will
Ġ .
Ġn eben
Ġb ra
ĠT est
au en
ĠWer bung
stell er
998 8
her ap
Ġ :
pr Ã¼
ĠAnaly tics
rie g
Ã¤ ter
ot t
ĠE igen
97 7
Ġ lange
z ig
Ġda von
ĠZ iel
Ġho he
Ġent wick
rei bung
ein ander
an bieter
ĠEin satz
neh mer
f est
ht ml
ĠFra uen
ĠW erk
ĠP at
ĠN ewsletter
ĠF est
Ġkon nte
m on
p tion
ĠkÃ¶n nte
1 23
85 54
ĠS elbst
stÃ¤n dig
ĠS pe
Ġperson alis
um s
nV or
eh len
s weise
le ch
ĠN amen
ĠF ir
sten s
ĠP artner
ĠÂ §
d ings
Ġ en
Ġbest eht
de ten
gen ommen
ran ken
in s
stÃ¤n d
is mus
ĠJ ugend
Ġh alten
p ol
nWeiter e
ĠHer zen
ĠAn bieter
mel den
v iew
ich tet
ĠL im
Ġ 09
Ġall ein
Ã¤ ts
ĠB el
Ġ stellen
ĠS ervice
s Ã¤tz
ĠS k
I E
eg t
ei gt
p l
ĠMitt el
Ġbesonder s
ĠGesch ichte
ĠK ir
ĠSt re
nM ark
ĠP er
Ġein ige
f ass
U n
Ġgro ÃŁen
m ess
A r
c t
ĠH Ã¶
f eld
ann te
n ungs
imm en
ĠR ep
on nen
Ġz ahl
ĠPla tz
95 6
Ġje weil
Ã¼ t
ar ch
lo se
Ġaus wÃ¤hlen
94 6
ĠK auf
9 06
nS o
le kt
Ġb y
Ġbestimm te
ĠP ost
lo ad
Â ©
o ol
lie ÃŁen
wert ung
ra kti
ĠMa ÃŁ
ĠEr k
05 4
ein t
or b
Ġ ,
ĠmÃ¶ch te
ik a
ĠSch wei
ĠlÃ¤ sst
v est
Ġf unktion
ĠH ot
U S
a ffen
ĠBest ell
ĠPro jekt
c tion
Ġbe d
w e
qu em
ra che
sch ule
ĠB as
Ġ20 08
9 21
r y
nN eu
20 20
um ent
Ã¼ ll
an ken
Ġaus b
ord nung
eb sit
p rivacy
Ġw ohl
ĠPro f
Ġver m
ĠF rank
998 6
Ġst atist
Ġt eil
Ġ Ã¶ffent
Ġer ste
â Ĥ¬
ot he
Ġ 26
j Ã¤hr
ĠK re
s wert
Ġblei ben
b ach
Ġm einer
9573 8554
wir tschaft
it el
69 08
ĠL andes
Ġger ade
Ġ 27
t p
echtig ten
Ã¶ ll
a sch
* *
91 5
s eiten
at h
Ġbei den
ges etz
Ġal t
' s
ĠI de
Ġha st
ĠBer uf
ĠMar kt
Ġz war
Ġin dividu
Ġi s
len den
it er
nDatenschutz einstellungen
schlie ÃŁen
ĠB i
ra x
W ir
Â «
Ġun er
98 1
Ã¤ch lich
927 6908
ĠC hrist
E r
ĠKomment ar
ĠK ultur
nu mmer
nS p
ĠKomm unik
fol g
in ar
\" ,
a la
Ġk aufen
i ff
A L
Ġc a
er st
ĠM ein
96 3
ron a
n ach
leb nis
Ġf ahr
Ġinner halb
95 3
d c
ĠGeschÃ¤ft s
Ã¼hr en
Ġsein em
Ġ 28
Ġunter schied
ĠB itte
ĠD o
ĠEr geb
Ġ at
9 05
ser v
Ġv ier
ie bt
ĠV ort
Ġd Ã¼r
ol ge
Ġm eisten
ĠFra u
Ġer g
nEx terne
it u
A S
schei den
Ġf rÃ¼
z Ã¼
Ġ ...\
Ġn ehmen
Ġm m
ĠO b
Ġessen ziell
m ach
Ġ =
ĠZahl ungs
sy ch
Ġver hin
Ġst and
ĠZu kunft
ich tigen
fra gen
f c
Ġk einen
Ġweiter en
iell eicht
Ġw ahr
Ġf reu
te gr
Ġge t
Ġan on
94 4
Ġbe deu
ĠAut o
z eiten
zie hen
rie bs
an ge
las se
pro gramm
Ã¶ ÃŁe
la den
Ġverschieden en
ĠâĤ¬ \
93 5
ttform en
ht tp
ebsit e
zep t
Ġbe fin
icht s
sp rech
im a
Ġkl eine
Ġ20 23
Ġr ichtig
ef Ã¤llt
ĠC omp
Ġw ei
nD e
ĠB ilder
l ungs
ĠR a
de ck
1 26
Ġher aus
ier ungs
rach t
it zen
s ystem
Ġle ben
n b
en te
st anden
Ġl Ã¶
Ġins besondere
86 4
ĠKomment are
f Ã¤h
Ġauf ge
ĠF ar
Ã¤ tig
ĠH am
ĠP art
Ġ ra
Ġein zel
ch es
al ien
Ġso gar
ĠGro ÃŁ
ĠM e
w ohn
beding t
et ter
a kti
am pf
meld ung
rukt ur
Ġber eit
ie b
Ġlie b
Ġg ute
an ten
Ġon line
Ġ >
Ġgem acht
p ar
Ġe uch
g oogle
ĠM und
96 7
Ġsch wer
ĠK Ã¼
20 5
it e
ern er
Ġg anzen
Ġd igit
E T
tre ten
h ein
Ġ lo
9 03
ĠL Ã¶
ot or
Ġel ekt
nH ier
j a
998 7
ri gen
ĠP lan
un sch
rei che
U R
O S
ft ung
ĠgehÃ¶r en
Ġihr em
ĠN e
9 25
anstalt ungen
Ġs ex
91 23
te chn
edi a
Ġgel ten
93 6
ĠI mm
ĠÃ¼ber haupt
ĠHÃ¤n den
w agen
n d
sch lag
Ġmehr ere
nF acebook
ĠD ank
u tion
wend ig
y r
98 2
z on
ĠMitglie d
sch ul
eh m
d el
9 22
24 5
ist or
ĠM ag
im e
Ġp rÃ¤
ĠEnt schei
ĠW ahl
p assen
Ã¤ us
rÃ¼ f
998 3
ĠK ont
1 05
ĠK Ã¶rper
nA kzeptieren
ĠH ei
Ġda her
Ġh Ã¤t
m iss
13 5
ĠAngeb ote
ĠK raft
c ri
ĠG arten
ĠS itz
94 3
Ġver w
ĠR aum
ĠY ouTube
Ġwider rufen
8 75
Ġt rotz
d b
Ġz ie
au sch
93 4
Ġge k
nS peich
ĠU mf
E L
Ġw issen
lan gen
ĠF uÃŁ
lie ÃŁ
ĠK n
ĠD abei
ĠAn fang
nA ll
ĠIn f
gr Ã¼n
95 7
un kte
lie ben
ĠReg ion
ĠUn ivers
ĠK a
riv at
eh ler
hr en
h eb
b esch
94 7
15 55
Ġw eiÃŁ
sch w
b ark
ĠN acht
ĠÃĦ nder
n ungen
C ookies
er nen
h le
r Ã¼ck
Ã¶s ung
ra u
ik o
je kte
ĠWei hn
Ġ Ã¤ndern
k lus
fÃ¼ hl
ĠInter esse
r et
ik e
83 7
99 134
ĠMon ate
A M
or mal
er r
reich t
is h
Ġgem Ã¤ÃŁ
Ġpersonalis ierte
zeich net
ĠHer r
Ġb itten
stra ÃŁe
al z
ĠAn gaben
Ġin tern
mar kt
96 8
ge gen
f b
in ner
ĠW ert
ien en
lÃ¼ss el
eich en
u ll
ĠÃ¤ hn
be st
93 3
ĠEurop Ã¤
ĠA t
ik er
Ġc ookies
nW er
ĠSo cial
99 46
ĠpersÃ¶n lichen
Ġaus gew
Ġk ont
ad urch
Ġausb lenden
nE ine
h ilfe
Ġ stellt
Ġauf s
ĠIn stitut
e a
m art
c en
ar r
ĠFin anz
ĠTe xt
zei gt
l Ã¶
og raf
ti sche
ĠL i
ĠF rÃ¼
it h
ran z
f el
sch rift
rie den
ĠUr laub
la m
om it
ipp s
d re
99134 25
nWeiter lesen
ĠMin uten
h ei
ech sel
ĠLim ited
ĠInhal ts
ĠPro gramm
k urs
rax is
ĠR icht
r esse
ĠnÃ¤ch sten
ĠP ass
Ġg ab
ĠEin zel
Ġ4 0
ĠSt unden
998 4
Ġl inks
Ġun ten
Ġan geb
ĠProz ent
ĠG eh
schn itt
* \
ĠD enn
ĠK at
ĠDeutsch e
84 5
ĠE v
s or
mess ung
ho ben
ĠL u
ĠVide os
8 85
dit ion
ĠDes ign
nSt atistiken
Ġverschieden e
ĠWoch e
91 3
Ġje dem
s etzen
nUn sere
8 76
herap ie
ar i
Ġhin aus
Ġwen iger
ĠK in
ĠK ap
ĠP o
Ġer stellen
91 4
av ig
Ã¶ nen
P R
fahr t
22 3
k ungen
f eren
ph p
p reis
ĠBo ard
Adr essen
Ġre gel
Ġ qu
Ġdar f
Ġl eicht
8 13
ĠIhr es
âĢľ .
re ten
ĠS h
ĠA ktiv
8 74
s emester
UN G
ie gel
ĠH e
- ,
ĠH olz
or m
ri ften
rÃ¤ fte
ach ts
ĠBet rieb
Ã¤ch st
in ge
ĠâĢ ¢
Ġjeweil igen
ĠEnt wicklung
ti v
ell es
ĠK omp
Ġauf grund
em and
zi p
I G
ktion en
t ur
ĠEn d
9123 1555
a ur
84 6
um e
Ġun ver
Ġ 29
Ġw eit
99 34
ĠDien ste
Ġfolgen den
S p
n ov
) ;
ĠFil m
Ġ20 07
f d
Ġver stehen
Ġer hÃ¤lt
ĠB Ã¼rger
Ġblei bt
be w
997 7
20 19
d ust
ĠFamil ien
Ġh Ã¶
l eitung
ungs ver
ĠM aterial
f asst
laub nis
erv ic
ĠN ieder
Ġkl einen
ĠE mpf
op h
Ġsp Ã¤ter
ĠT agen
sen den
z us
ĠInhal t
pf lich
ĠRech te
Ã ľ
l ungen
s on
nB e
ba hn
z weck
ĠH d
Ġz eigt
ĠHer z
ĠD isk
P la
alen der
ĠVer t
ĠJ e
b Ã¼
Ġaus drÃ¼ck
bark eit
ĠTra in
ĠN ord
ĠS uche
ĠWebsit es
83 6
l u
alis ierung
Ã¼ ler
Ġer sch
Ein stellungen
ĠD an
ĠE lekt
Ã¼n dig
ĠD ub
z ub
rei b
u he
ĠSer ver
8 26
wer b
ĠN icht
91 7
ĠSch la
Ġeigen e
c d
nZ um
Ġp h
93 7
ĠAr chiv
86 6
ĠKategor ien
di um
Ġeben falls
Ġv Ã¶ll
Ġi den
86 5
z immer
Ġf r
l etz
l ing
Ġ ðŁ
Ġunser es
20 6
Ġpro f
ĠSomm ers
og ra
t Ã¼
Ã¤ f
ĠV on
Ġh il
â ĸ
20 4
leist ungen
Ġbe vor
du z
A G
ĠL og
f rist
Ġz eigen
Ġs agen
Ġf ast
ĠverfÃ¼ g
ab il
Ġer z
eh n
Ġper fe
fall en
Ġhin weg
ik an
ĠF lug
ma zon
ĠInter essen
Ġdeut schen
20 0
ung e
ĠWinter semester
Ġb enutz
geben en
ech net
ĠDaten ver
ĠVer gleich
Ã¤n d
Ġgegen Ã¼ber
frei e
99 99
h el
at ten
ĠK Ã¶n
ĠWider ruf
Ġbe kommen
c f
in ne
ĠG ast
o der
is on
Ġp aar
nD u
Ġbest ehen
) :
imm ungen
r es
pe ten
ĠfÃ¼hr en
Ġm einen
ig keiten
ter s
Ġw orden
ar en
ĠL uft
ĠL ei
rei sen
ĠAuf trag
l em
26 71
ĠP ark
8 16
ĠD ann
b i
ĠZeit punkt
t a
I L
Ġhand elt
w alt
97 0
Ġun bedingt
ĠR es
ĠvÃ¶ll ig
ĠW ind
k reis
8 03
ĠL in
ersonenbezogen e
war z
ĠR is
lin ie
Ã¼ gen
och en
zei tig
obil ien
ĠTer min
er weise
8 05
Ġsoll en
ĠG ar
at um
Ġw ww
84 4
ĠT a
Ġent halten
Ġz un
flÃ¤ che
ĠCo rona
11 4
+ +
k ra
Ġw elt
w issenschaft
Ã¤r en
oll te
ĠLie fer
25 5
w Ã¤
ĠSommers emester
84 7
ĠGes ellschaft
ĠÃľber sicht
ĠFahr zeug
z ung
it Ã¤ten
Ġaller dings
ier ter
Ã¤ll en
ĠL es
ts eite
zeich en
ĠP olitik
14 4
eu rop
ĠB ay
z ogen
c b
ab hÃ¤ng
ĠZweck en
r ich
m ail
own load
nMark eting
nEssen ziell
Ġgen utz
ten s
ĠSt elle
835 2671
11 5
ĠGrund lage
ĠF e
ĠEr ziehungs
o x
g ruppe
96 0
Ġhat ten
Ġd einen
ĠM Ã¤n
Ġk lar
ĠAn g
k m
Ġbek annt
ativ en
ĠN ot
ma sch
s ver
Ġ con
.. ..
Ġbei spiel
ĠI s
ĠDub lin
85 5
al k
nL ie
74 3
mitt eln
15 4
Ġbestimm ten
ĠN eben
Ġf re
Ġb ist
ĠBo den
sch er
I I
ĠBe k
Ã¤n de
ter nen
Ġges am
ĠG ed
nA ls
la tion
n etz
Ġv ia
lÃ¤ uf
ĠWei b
ĠR est
ĠVerb rauch
ĠUnter stÃ¼tz
m od
ĠT Ã¼r
ĠEr laubnis
Ġso wohl
ro t
ĠHa ar
24 4
Ġde aktiv
Ġs ag
pf licht
ĠLink s
99 90
ĠSomm er
ĠT elefon
Ġp ass
Ġs uchen
trag ung
Ġ Ã¼b
Ġver arbeiten
ĠVer kehr
h ang
la t
ĠB us
Ġbe achten
ĠFor um
ĠMÃ¼n chen
ĠD ruck
al tet
p ack
fass ung
ĠPf lege
ei ge
Ġaktu ellen
27 5
l iste
ĠP a
Ġ3 1
ĠZug ang
pol ic
E G
Ġ '
ar y
ĠdÃ¼r fen
sp h
ig t
21 5
us st
ĠEl tern
ho w
Ġh Ã¤uf
gel egt
sch riften
86 3
and lung
ĠP ort
ĠF ern
Ġab ge
E U
Ġb uchen
20 18
97 1
996 5
Ġmitt els
ĠS am
pp el
Ġgew Ã¤hr
ĠMitglie der
sch rÃ¤n
ien ten
996 6
rei ten
Ġkosten los
ĠRo ss
ĠEU R
b ack
ĠW ahr
ĠWei se
ĠD ir
Ġopti mal
ĠS an
angeb ot
f luss
ur f
w asser
ĠSch m
ran g
al te
bo x
21 6
a el
Ġeh er
ĠK ind
Ġk am
ĠFamil ie
ĠT ier
f urt
Ġk m
Ġverwen deten
ĠDien sten
ĠD igit
ĠB en
el che
nA m
95 8
ĠMa ps
Ġver Ã¶ffentlicht
b ank
lan zen
nA ktu
! !
Ġ {
Ġeigen tlich
w issen
ĠBet reiber
ĠEr n
em p
83 3
ĠW est
9 29
d orf
ĠgehÃ¶r t
ĠGes etz
ĠGr Ã¼
Ġsol che
forder ungen
ge h
enk orb
w ehr
Ġw egen
11 6
ĠM at
ĠA G
nJ etzt
25 6
ger ufen
au ber
ĠP ersonenbezogene
ĠAut or
Ġâ Ĩ
ĠZ wei
ĠSo ftware
halt ung
ĠUm welt
Ġh eiÃŁ
nB itte
m edizin
0000 3
ig in
Ì Ī
Ġ6 0
ĠAnt worten
richt ung
ang el
Ġan zu
ĠTag es
m eister
ĠÃĸ sterreich
Ġreg istr
ĠW e
22 5
zeu ge
Ġnutz t
H R
Ġso fort
Ġwar d
nB er
lo b
in t
Ġbeispiel sweise
Ġgrund legen
8 04
z ur
it al
ec t
S S
teil ung
Ġmark ieren
Ġent scheiden
ĠhÃ¶ her
8 84
at ik
O L
22 6
ĠMill ionen
ĠL a
serv ice
ei er
Ġso zi
ĠKo pf
zu stellen
statt ung
ber echtigten
ot o
Ġf all
86 7
Ġgel Ã¶
ĠSicherheit s
85 4
bla sen
15 6
la us
85 6
Ã¤ mpf
Ġnot wendig
20 3
ĠV iel
lÃ¤ tz
u h
Ġk ennen
le g
in fo
rÃ¤ gt
22 4
ĠF olgen
ĠF Ã¶rder
cri pt
ach te
ĠT our
Ġiden tifiz
Ġa kzep
1 06
mÃ¶glich keiten
ungs k
Ġfreu en
ĠHam burg
Ġbetroffen e
Ġautomat isch
be g
ĠNach richten
ĠIn nen
ar kt
l im
ĠD och
ele v
ĠW ort
27 4
er ren
ĠGen er
ĠWar en
et a
as h
Ġkom bin
ĠS c
s a
ĠÂ ·
dem ie
wert ungen
ĠA dr
Ġaus geschlossen
ĠT witter
27 6
ĠKl ein
Ġ Ã¶
g ien
mÃ¤ÃŁ igen
Ġzwei te
ĠR at
eit ag
ĠD etails
om ent
ĠSt ar
ĠR ed
d s
ĠZweck e
ĠInternet seite
in den
46 4
Ġ 08
99 33
Ġer n
1 04
l ub
f Ã¤l
n ess
75 5
Ġ arbeiten
99 36
osit ion
nK ategor
ĠL icht
Ġv ielleicht
ĠSo zial
ĠOr ganis
ust er
s ie
k k
Ġgew Ã¼n
T E
75 4
Ġpersonenbezogen e
8 06
1 76
Ġbedeu tet
er in
ĠS il
all o
rit ten
w Ã¤r
form ular
ĠTeil nehmer
Ġh ei
ĠD en
lo ss
Ġmein em
ĠF olge
ĠEr folg
zei ge
um m
it i
Ġbr ingen
Ġung el
nZur Ã¼ck
Ġso fern
qu ick
____ ____
ĠF erien
03 5
Ġver ein
23 6
Ġt Ã¤
ĠAnaly se
Ġ eng
14 5
99 43
min ist
- /
24 6
ĠS Ã¼d
Ġkl ein
de te
ĠSti mm
I M
Ġm eist
ĠF Ã¼hr
ĠQu alitÃ¤t
ne te
ĠS ol
Ġje des
ĠM ich
Ġs or
ut schen
sch au
21 4
O M
st o
ĠD is
8 00
Ġ20 06
mitt lung
Ġp olit
iz ei
Ġander em
lau ben
ĠFr esse
ĠN ews
Ġbis her
ĠD icken
ĠA mazon
Ã¶ hn
ĠW ein
p or
ĠSt rom
hÃ¶r en
ĠKategor ie
lin ik
Ġe ff
ĠVertrag s
8 73
Ġh Ã¶ch
Ġben eiden
Ġw under
ĠB ad
P D
ĠT op
u pp
23 5
ĠAn frage
zeu gt
ĠK ranken
K on
75 6
0 17
Ġbeneiden swert
ĠErziehungs berechtigten
14 6
ĠC har
ig ur
Ġp ar
Ġauf blasen
quick lich
Ã¤ den
ĠEx per
8 94
Ġfreiwill igen
Ġunbe quem
ĠHÃ¶ he
ri ll
ĠB a
91 64
ĠVerb indung
ĠC ar
03 6
I R
v el
ĠM ont
stoff e
ĠF l
ĠE ing
uÃŁer dem
k n
m Ã¶
Ġab sol
Ã¤nder t
ĠG lÃ¼ck
ĠW issen
ĠN Ã¤
ĠZ um
nS uche
Ġ ar
Ġnot wen
ĠInhalts messung
f erung
al es
Ġbetroffen en
/ \
ges amt
Ġer war
ĠTe x
Ġsag te
est e
D er
ĠV oll
20 16
ĠB ank
st eigen
tig ung
ig a
el ten
en ten
Ġdeut lich
tÃ¼ mer
ur ger
ĠG u
Ġung ut
m s
ĠzusÃ¤tz liche
hal ts
ĠH inter
20 7
o ver
Ã¼tz en
e y
Ġ end
h anden
Ã¤ lle
Ã¶ffent lich
Ã¶ pf
ĠH el
ĠN r
ervic es
ĠZ ur
ĠWeb seiten
Ġn e
ap ier
v is
Ġsch Ã¶nen
T S
en zen
Ġstand ard
nZ u
nB eit
se e
ir t
nR e
Ġf ort
Ġwer de
84 3
U M
tig er
Ã¶r ter
ĠVerantwort lichen
ĠSte uer
Ġerm Ã¶glich
Ġuner quicklich
Ġungel iebt
en er
Ġelekt ron
es ser
9 28
Ġk licken
ver ein
a zin
Â ®
sp e
76 5
oo d
D R
ĠS uch
c ast
min ister
ĠKl ima
atist ik
Ġsie ht
E M
t liche
ĠPh il
ĠD om
ĠB la
amm lung
tre ter
pro fil
ennt nis
Ġso lange
ro lle
ub ehÃ¶r
ĠSch Ã¼ler
âĸ º
D as
ĠB on
rei bt
wer te
1 74
ĠHa ut
ĠS en
Ġz eit
minist rat
ĠPro fil
ĠÂ «
w altung
ĠfÃ¼hr t
d auer
99 35
prÃ¤ ch
Ġwel ches
ĠBo x
Ġl Ã¤nger
Ġs pr
Ġ ...
nt ag
ĠG est
Ġkeiner lei
Ġm in
ĠbenÃ¶ tigen
Ġdes sen
or k
Ġdein em
20 17
Ã¶ff net
9 08
Ġt eilen
anst altung
ĠH eil
ĠIn s
a ben
ger Ã¤t
Ġher vor
ges ehen
an al
ĠZ w
z entrum
ĠB ra
zahl en
Ġ 01
wie sen
85 3
z ess
O P
l d
I P
zahl ung
ĠM il
laub t
wei ls
13 6
Ġg Ã¼nst
23 4
Ġbeh alten
ch ten
r t
mitt elt
ĠH eim
8 97
ĠN ur
ber t
ĠP rÃ¼f
ĠÃ ľ
Ġr es
ĠM erk
o de
Ġy our
ĠStand ard
ĠS itu
Ġver folgen
00 4
ĠO st
ak ter
Ġer hÃ¶
ĠK ur
al b
A us
8 83
26 4
ĠA ust
leist ung
ĠUn sere
ĠW ien
ĠZ ahn
Â §
ĠP reise
Ġl eider
ĠSpiel er
i re
ĠausdrÃ¼ck lich
hÃ¤lt nis
ver standen
u ellen
iter atur
1 73
k raft
8 95
sp rÃ¼
ri ck
s recht
ĠDisk uss
---- ----
. :
ĠBer g
ĠWer be
ĠK reis
ab y
ĠIn stagram
ĠMedi a
w achsen
ĠAnt wort
ĠSt art
ĠÃĸ ff
de cken
ĠHot el
avig ation
ĠT isch
u per
ĠhÃ¤t te
uch ten
ist ik
A pp
Ġr ein
Ã¤u de
ĠMaÃŁ nahmen
Ã¤n gen
ĠUnterstÃ¼tz ung
15 5
âĢ ¢
ĠG Ã¤
U T
nB esch
ĠNach richt
ĠW ieder
n Y
omm t
74 5
ĠgelÃ¶ scht
enn ung
21 3
A d
ver stÃ¤nd
ĠK r
s iden
st re
p ark
998 0
Ġnie mals
Ġanon ym
ĠBe weg
ĠWar enkorb
ĠÂ» \
ĠM obil
Ġw ohn
ĠG ruppe
Ġb lock
ĠD ich
ĠermÃ¶glich t
\ ":
Ġp la
ĠR ad
Ġzu g
eck t
26 5
gesch ichte
9 07
ne ut
b log
ĠW ill
Ġempf ehlen
as en
p a
n s
nK omment
996 3
u hr
. âĢľ\
1 25
ĠEurop a
Ġverb unden
ot s
\ \
onn ieren
sp ar
ĠP rivat
il den
ra ge
ho ps
iv en
8 25
ĠG ef
ĠD ok
16 7
ĠunterstÃ¼tz en
rie f
ĠSch wer
ĠS mart
45 6
nW ar
Ġer hoben
s ei
Ġg uten
ĠDatenver arbeitung
Ġo ff
ĠH ar
Ã¶s ungen
ĠReg ie
er ei
Ġ are
ĠH y
06 5
Ġgenutz t
23 3
Ġdar an
ĠI t
ĠGes amt
Ġvor her
Ġan passen
ĠComp uter
ĠS or
Ġje weils
Ġganz e
ĠLie be
Ġvor handen
rei te
f unktion
Ġan aly
ti ere
lo sen
nG esch
45 3
ie ÃŁen
Ġex ternen
polic ies
ĠF el
h ann
ktion s
y er
Ġso gen
per atur
at tet
Ġstatist ischen
ri m
w Ã¼r
Ã¤n dig
reu z
Ġdurch s
1 03
Ġt ats
ak e
ĠAu ge
nH er
Ġw es
teil en
ĠGer Ã¤t
K T
weg s
an a
16 5
04 6
ĠDe utschen
ĠBer atung
Ã ĸ
ma ÃŁ
99 25
996 7
24 3
21 7
76 6
ĠT ipps
h under
ĠInf os
8 86
O T
gel d
Ġsch reiben
ĠVer lag
vers icherung
v ol
ĠD atei
ĠB ran
ide o
I C
998 75
ei ger
spiel e
ĠMen sch
ĠB aum
Ġz uf
ĠO hne
Ġd einer
16 6
ichtig ung
Ġentsprechen den
Ġm ax
ĠUnternehmen s
Ã¤hr ung
Ġges etzt
ĠB and
ĠStre et
05 6
z entr
Ġein verstanden
f ter
Ġgrundlegen de
ĠR om
ĠStu dien
Ġg ing
ĠDies es
rÃ¤ ger
le cht
zi ellen
st euer
26 3
Ġ ur
e um
zi f
ĠA ktu
on g
Ġw Ã¼n
ĠAr ch
omm er
ĠDie ser
k el
ei sen
Ġaus zu
Ġw eite
Ġver kauf
ĠSchwei z
I V
Ġf ol
94 9164
A P
76 7
Ġm el
ĠSt ud
Ġkon nten
Ġj emand
949164 75
er ten
lan z
26 6
ĠW ald
ĠIn dust
n g
ĠBet riebs
iz ien
ĠLeist ungen
14 7
8 15
o se
16 4
ik i
ĠF euer
un ternehmen
el ig
is iert
Ġh ab
rit te
Ġan hand
00 6
Ġber ech
27 3
ĠD amit
ĠWeihn achts
nI hre
h il
11 7
Ã¼nst ler
ĠL age
ĠA bend
Ġ 07
ĠW and
\" \
om as
ĠIn vest
an e
nG es
ĠAl t
nG efÃ¤llt
l ett
ken nen
iss ion
Ġtrotz dem
ĠG ruppen
Ġs omit
99 44
r ik
. )
00 5
Ġander s
Ġ 80
ĠBas is
nA ut
ĠK urz
g ruppen
vent s
Ġer reichen
at ter
Ġn ormal
ĠhÃ¤uf ig
Ġf Ã¼nf
stell te
der t
eck en
Ġy ou
edizin ische
Ġ 03
am in
ĠK Ã¶l
8 93
Ġaktiv ieren
nUn d
ĠF en
97 2
73 4
fÃ¼hr er
man agement
I CH
ungs bedingungen
ĠS au
Ġhoch wer
ein igung
B er
Ġein geb
ĠK rit
ĠH il
ĠlÃ¶ schen
ĠÂ ©
geb ung
85 7
ĠâĢ¦ \
11 3
ĠVor aus
nA uch
aly se
ĠD orf
ĠBestell ung
Ġver antwort
ĠS inne
k ir
ĠT re
or gung
17 7
g o
ti schen
rech te
ĠVer fahren
ro ck
Ġda ÃŁ
ack en
ĠF ort
har d
ime o
un ction
T P
ĠP an
Ġr ichten
nE igen
uch te
ĠW unsch
Ġentwick elt
S L
9 20
od cast
au st
he ber
Ġd adurch
bl i
st ru
ĠFir ma
8 24
Ġpersonenbezogen er
ĠMÃ¶glich keiten
ation ale
Ã¼tz t
fre und
13 7
r Ã¼n
ak te
ie ten
ich ter
ol e
in ess
inde stens
Ġange zeigt
ĠM otor
Ġan gem
ĠKin dern
Ġeinzel nen
ff ff
ĠTran s
ĠInform ation
ĠW o
Ġopti m
am a
M edia
ĠVer kauf
an lage
Ġerfolg reich
ĠO ption
bie tern
8 96
Ġinform ieren
. -
ges sen
Ã¤us er
as ino
eil ung
sch lÃ¤
1 24
04 5
omm un
75 3
Ġp osit
Ġm ag
95 0
ĠP sych
ĠHin sicht
ĠReg istr
st ieg
Ġfunktion iert
Ġin tegr
d as
ieg elt
Ġgef unden
ĠDrit ten
T M
or s
06 6
br ingen
ĠKre dit
ĠA uÃŁerdem
nH allo
04 3
at te
rech end
ĠS hop
ĠheiÃŁ t
forder t
ĠGew inn
Ġein wand
nN ewsletter
stu hl
l ust
ist ische
73 5
nAr tikel
Ġsp ielen
erk unft
ag es
ktiv e
## ##
ĠEuropÃ¤ ischen
ĠD on
zuf Ã¼hren
Ġ 90
ĠSch luss
Ġdes halb
nR eg
it ion
Ġer fÃ¼ll
ab le
ehÃ¶r de
S o
techn ik
73 6
ĠU N
8 27
Ġw ebsite
I ch
05 5
ĠSp aÃŁ
i ver
Ġn a
Ġet c
ĠD ort
Ġverhin dern
sp f
teil t
ĠMedi zin
13 3
ĠW ett
p artner
23 7
zeu gen
z um
ver kehr
Ã¼r f
ĠG old
Ġkombin iert
Ġ 45
ĠW issenschaft
uch s
Ġp orn
ag s
ĠunterstÃ¼tz t
wer den
Ġp riv
ĠC he
Ġge geben
n Qu
in nt
Ġgesch n
verb rauch
pro chen
ĠSch ule
nA l
996 4
neh m
ohl en
Ġfin dest
Ġer neut
c m
1 84
ck ing
nUn ser
Ã Ħ
1 93
oo per
06 4
ĠDa zu
Ġm indestens
ĠAl ter
Ã¤n gt
stell ten
ĠK urs
Ã¼r z
ogra ph
spr ingen
Ġin kl
O G
Ġbes uchen
ĠSt ellen
ĠH um
nV on
i as
Ã¼ ss
h ung
xt rem
ti s
Ġbed arf
ĠFre und
Ġent hÃ¤lt
ĠG leich
ĠP raxis
at us
22 7
ĠF a
ation alen
ĠSp rache
ic s
Ġkon k
ĠSon nen
Ġs etzt
Ġangeb oten
ĠProblem e
76 4
ge f
is se
Ġbet reffen
gem eine
lei dung
8 91
be k
ĠLÃ¶ schung
ĠT itel
Ġeben so
ĠR olle
en ke
sicht lich
s uch
utsch land
8 21
87 7
ti ve
r ig
w ind
ĠL iste
Ġst immen
iden z
w och
M S
Ġw Ã¤hlen
ĠD ein
ann e
Ġf al
Ġ it
ĠP rin
M it
Ġakzep tiert
t ritt
y l
ĠE ssen
all e
ĠI T
ĠErgeb nis
04 4
inde x
43 5
Ġaktu ell
haus en
ran s
Ġso weit
ff er
; \
ge fÃ¼hrt
Ã¤uf er
s ein
Ġ20 05
ĠHo use
Ġh Ã¶r
74 4
Ġw eg
Ġhil ft
ĠStra ÃŁe
ti erung
b y
ĠS ens
lin ien
ger icht
1 85
sp rechen
fin den
ĠT el
Ġbefin det
a be
ĠF la
ĠÃ¼ber tragen
prob lem
ĠJ ob
Ġp rakti
ra chen
ĠMod ell
sch ieden
ar ian
ĠJahr hunder
1 96
ĠR hein
Ġentsp rechend
spr ung
pf er
ic ro
Ġrecht mÃ¤ÃŁigen
ĠEn g
wir kungen
k arte
8 14
08 7
c ookie
ĠKommunik ations
ne ten
Ġer stellt
27 7
g arten
n ern
europ Ã¤
nH ost
20 15
Ġaktu elle
Ġso d
nKategor ien
Ġfolgen de
w ach
ĠFot os
ĠFot o
Ġdazu ge
ĠHer aus
geb iet
ĠverfÃ¼g bar
ĠGemein de
miss ionen
ĠEr st
08 8
ĠA p
au p
ri ge
Ġwel cher
1 94
g lichen
ĠVer treter
w ig
b eit
ĠS icht
ĠJ etzt
00 3
ti l
ĠM utter
Ġa d
ok rat
ĠM w
05 3
nPro du
ĠIn c
983 26
Ġb as
Ġbest e
ĠP eter
74 6
ĠKon kurs
Ġk aum
av a
P S
iz iert
itz e
Ġverw alten
ĠSt ein
1 75
26 7
ĠG ut
Ã¤d ag
ei se
ĠSta ats
ĠR eich
Ġ 06
ĠAd ministrat
pf en
a pp
Ġbel ieb
Ġgen annten
28 7
g ut
ĠZusammen hang
Ġver gleich
ver trag
Ġneu es
ĠU l
03 4
le hnen
ĠK arten
nUn ter
Ġgesetz lichen
995 6
ier ungen
ĠS ach
ĠVer anstaltungen
er tig
zieh ung
ĠprÃ¤ sen
ĠR ef
ge geben
ĠAn meldung
ĠImm obilien
âĢ Ķ
Ġrech ts
n mehr
ĠWider spruch
hem en
f s
ĠKommunik ation
ĠFrÃ¼ h
Ġdenn och
ges ellschaft
nT elefon
ĠT V
ĠS em
um mer
0 91
Ġwar um
st ruktur
8 23
ĠH erkunft
Ġm on
fÃ¼ll ung
Ġl eich
33 6
ĠK rieg
ĠO ut
E W
ĠS onder
ru st
r und
15 3
ĠBl ut
A Q
min istr
ĠS ervices
wer ten
it Ã¤ts
20 14
ĠDrit te
v olle
am s
richt ungen
73 3
ĠI I
S B
nBesch reibung
ĠLeist ung
u sch
Ġ }
Ã¤l ter
8 98
Ġ[ âĢ¦
Ġd o
Ġ los
I K
othe k
nM en
Ġer laubt
reu de
l eit
99 24
ĠO l
ti m
ĠSt Ã¤d
u ell
ĠHaus e
riff t
zen s
Ġk or
25 3
g elt
die weil
Ġge stellt
Ġver pflich
Ġausgew Ã¤hlt
k ur
ver t
ĠEntschei dung
nV ers
ĠD eine
03 3
g n
p el
re en
f igur
ĠWirtschaft s
Ġl ernen
op yr
is ierung
amm er
ir m
Ġf erner
ĠB ahn
Ġzun Ã¤chst
Ã¼r t
8 11
ĠR egen
Ġentsprechen de
Ġdeutsch e
P ress
w egen
at es
ĠAu ÃŁen
ĠGeb urt
sÃ¤tz lich
ĠF rie
S V
st all
99 21
ĠL eute
Ġzwei ten
Ã¶g liche
ĠMw St
opyr ight
ĠerklÃ¤r t
ĠÃ¶ffent lichen
06 3
98326 254
stÃ¤n den
rech ts
alis iert
ehÃ¶r den
14 3
Ġ20 0
Ġer kennen
Ġdi ent
Ġ Ġ
dividu elle
05 7
ĠErgeb nisse
al og
angeb ote
76 3
ĠTechn ik
ĠI st
Ġgespeich erten
Ġg ern
20 1
ĠKon to
93 0
verb and
ei d
Ġsch m
grund lage
ei dig
al if
Ġver z
ĠwÃ¼r den
ver halten
l eiter
ĠBÃ¼ ro
an ger
sch ungs
ĠE i
ĠPat ienten
75 7
99 27
16 3
ĠmÃ¶glich erweise
arb eite
Ġweite m
la st
auf trag
uf e
Ġ Q
h y
di a
Ġeinwand freie
ar m
ĠD ach
Ġmein st
S e
Ġho hen
lÃ¤tz e
1 95
Ġger echnet
ĠBer eit
Ġnach hal
Ġal ten
ĠâĨ Ĵ
ak et
b and
g art
nWir d
eh e
wer ke
ĠS ex
ĠM art
w as
Ġa s
ĠP ay
an de
oo t
ĠG ott
ĠÃĦnder ungen
ten d
umen te
K W
ĠKÃ¶n ig
lin gen
Ġver gangen
18 7
R O
ĠAll tag
der e
ĠBÃ¼ cher
Ġi de
99 23
âĢ ĺ
Ġregel mÃ¤ÃŁig
w esen
Ġwen den
Ġall dieweil
ĠD auer
ĠPla t
geh end
hn t
74 7
or y
g f
ĠErfahr ungen
Ġwer fen
Ġun abhÃ¤ng
ess ary
ĠAn spruch
Ġw ith
nD urch
Ã¼ck s
f lug
or te
B e
Ġfin de
ĠVer halten
ĠSch ritt
ss ystem
Ġein zu
ĠVol ks
ie fer
I A
ic a
Ã¤d chen
ĠEnt wick
ber atung
Ġst Ã¤r
rÃ¤ ch
den t
ĠB rem
ĠSitu ation
nEssen zielle
ĠN ew
ĠE ben
A b
Ġw ollte
ĠFen ster
M W
zep te
ĠAn zahl
u k
ĠMa in
Ġwohn haft
g Ã¤nge
2 84
15 7
ĠPol izei
el te
sch uss
Ġgleich zeitig
8 22
ĠG et
D U
ei en
ĠElekt ro
995 4
20 23
u x
07 7
Ġgesch lossen
V or
it a
Ġf Ã¼hl
. âĢľ
riff e
E missionen
ministr ation
ick t
ow s
94 0
Ġ 04
Ġ <
nD a
ge g
Ġlie be
Ġent fern
Ã¤dag og
ĠD inge
akti eren
form ation
p o
Ġk lass
Ġbr ingt
nIn stagram
ĠEin schrÃ¤n
ac t
amer a
R W
Ġprof ession
oll ten
ĠMen ge
z gl
ek ten
ĠA c
Ġd am
ĠF Ã¤llen
Ġab gerufen
pla t
s burg
T ra
fol ge
21 08
Ġher unter
1 86
Ġbest Ã¤
ĠkÃ¶n nten
ĠStra ÃŁen
03 7
Ġaus gest
ĠF ehler
Ġsch lieÃŁ
ĠDiskuss ion
y mb
gem einen
66 3
wer bung
Ġsch lieÃŁen
d ro
n c
Ġein deu
Ġ5 00
ĠW h
fÃ¼hr en
stÃ¤n digen
lo w
ot tes
ur m
Ġbe ziehungs
ĠF lÃ¼
ĠÃ¼ber n
ĠM oment
ĠMon aten
ĠLie ferung
8 87
ĠBeruf s
ĠAn wendung
sph Ã¤re
utt gart
Ġbeh and
ĠBest and
ord on
Ġ7 0
ten nis
ĠK la
ĠUn ser
Ġbra ucht
edi en
in formationen
Ġver langen
den ken
zweck en
ĠfrÃ¼ her
gr enz
Ġins gesamt
Ġtra gen
nA GB
ĠAuf gaben
ĠbenÃ¶ tigt
ro cken
1 27
99 26
inde st
lei sch
ĠFar ben
ĠZ eiten
ĠMein ung
ĠP lug
en e
ĠIn nov
f an
Ġblock iert
zÃ¼ glich
ant ie
8 17
ĠAus bildung
p ass
A U
Ã¼ ch
H L
nÃ Ħ
ĠMo der
Ġein gesetzt
1 21
Ġbeziehungs weise
995 7
nN utz
om o
ver fahren
ĠAb schluss
k or
co unt
ĠK rÃ¤fte
ĠMÃ¤n ner
Ġges ehen
Ġzu dem
Ġgen ommen
ti pp
0 22
sp ir
zeich nungen
2 86
ĠKÃ¶l n
ĠFr eitag
Ġ 05
wissen schaften
p ft
ĠZ ubehÃ¶r
w ay
ĠU p
24 7
Ã¤ um
Ġd auer
Ġst ets
H F
ĠNetz werk
ri ffen
nD ies
Ġn ied
ĠVer k
73 7
ĠBeg inn
eg al
ĠDatenschutz einstellungen
ĠF eld
Ġt reffen
ĠSu per
m aterial
2 85
nÃ ĸ
mÃ¶ gen
ĠNÃ¤ he
Ġp f
06 7
Ã ĥ
ĠDritt anbieter
nF unktion
n ame
os oph
= =
ĠK aff
Ġth is
ĠÃľber tragung
1 07
ĠW Ã¼n
ĠMet ho
Â °
d ungen
Ã¼ck en
bew ahr
00 7
f l
lech ts
klus ive
r um
em pf
Ġein igen
ĠMich ael
995 123
ĠR ot
f acebook
Ġtechn isch
ĠW olf
ĠK rank
ula tion
ĠGrÃ¼n den
ĠAdr esse
Ġth at
ĠR uss
Ġb em
an ien
ch mal
o f
ĠS eit
25 7
ha ben
T V
ĠT ab
2 94
Ġw ichtige
Ġtats Ã¤chlich
est en
.\ "
o ss
Ġgen er
nIn dividuelle
Ġ3 5
ĠL Ã¤nder
ĠRis iko
ord Press
O K
T R
Ġgeschn iegelt
st al
Ġmo der
995 3
ĠK or
â Ĥ
Ã¤ tigkeit
ĠIde en
s ser
46 5
ha ber
ĠG las
ĠâĢ Ķ
ĠG ordon
ĠR und
ĠBet t
ĠH ig
ĠN or
Ġstandard mÃ¤ÃŁig
Ã¶ bel
Ġfahr enden
Ġ europÃ¤
urn al
it Ã¤r
ĠÃĦ r
ar s
04 7
Ġ ech
Ġk g
D e
pf lege
ĠBeh andlung
br uch
ĠVerbrauch er
ma ck
ie te
mal e
olog ische
ger Ã¤te
Ġer reicht
b urger
m ut
8 07
nT op
an o
la dung
E O
, _
r ing
w a
Ġneu er
st echn
or ien
ĠBar row
44 7
ĠL Ã¶sung
schlieÃŁ end
ĠWir kung
ĠL ager
mon at
ĠDienst leistungen
Ã¤ her
77 7
ĠVers icher
itz t
ĠAl tern
Ġauf springen
ĠP ublik
Ġmus ste
ven tion
lÃ¤uf ig
ĠSch Ã¶n
ĠS atz
27 75
b rechen
Ġus w
Ġein gel
ĠHer bst
ĠSon ntag
tt p
an bietern
DE R
ĠUm gang
n line
kra ine
ĠBild ung
Ġgew orden
w echsel
Ġgest alten
ĠZ oll
ĠT em
G H
âĤ Ĥ
tig es
fer nen
rei be
ĠFrank furt
Ġbe ein
te uer
Ġnach dem
ĠJ a
Ġein zig
ĠV is
schaft s
Ġdazuge hÃ¶ren
in er
1 08
20 2
ĠEin fluss
A uf
Ġ 33
ĠT or
Ġla ufen
it en
ĠIndust rie
ieren de
ight s
ĠN o
36 5
ĠH om
43 7
998 05
ĠFall e
ĠMa il
ien ce
929 2108
ill e
ĠW etter
ĠBe zug
Ġander er
ĠI mmer
k arten
it s
lo ud
ĠMa sch
nEigen tÃ¼mer
ĠVer tra
nI hr
n ab
Ġn immt
i ent
for schung
bla tt
ent lich
T e
Ġein gesch
ĠD re
ĠIm pf
Ġk lick
M edizinische
ĠSchla f
Ġor ganis
sp annen
y le
ĠK oll
na pp
ĠM ess
ĠerklÃ¤r en
ĠK lick
ĠP unkt
it ieren
ĠAr zt
ĠMa x
Ġanaly s
Ġbefin den
Ġh ttp
ĠE ff
Ġre duz
ĠSch rift
Ġm en
H N
43 6
ĠN ational
ĠVersand kosten
R e
ĠGes prÃ¤ch
nIn halte
ĠMark en
99 17
98 9
sit zen
ge ord
10 2
ĠSp rach
ar tige
ĠZ us
ĠAll er
ĠBay ern
a un
T L
ĠHer steller
ĠEin kauf
Ã¶ ÃŁen
glie d
ĠEr d
spr icht
Ġh Ã¤lt
S P
ĠC hin
Ġs enden
b u
v Ã¶l
Ġd ienen
S cript
ĠB ern
ĠAus kunft
en ter
ef in
w eder
45 5
rÃ¤ gen
E I
Ġs orgen
ĠT ri
ĠE m
20 8
setz ungen
43 4
Ġver gessen
Ġberech tigt
zen z
as er
sp la
ap an
ĠSch aden
Ġan melden
ĠSt atistiken
95 93
ranz Ã¶s
ir us
ĠPf lanzen
nSpeich ert
se h
mer zen
rei f
ĠÃ¼ber prÃ¼
bie ten
Ġs amm
Ġs inn
Ġh eu
profil e
ĠGr Ã¶ÃŁe
ĠGed anken
2 93
ĠK an
ĠAn dre
it ekt
ĠMan agement
ĠZusammen arbeit
Ġer f
eh mer
feren zen
n von
hol z
j en
Ġsp annen
ĠK il
ĠB is
Ġ ru
p iel
Ġ20 04
zuf Ã¼gen
le gt
amp ag
ĠSt off
y c
Pla ttformen
b ad
form ance
Ġz ehn
ĠG utsch
ĠLei p
war t
ĠJo hann
sch ie
ĠWir k
X X
Ġer fassen
46 6
Ġ 02
ĠGrÃ¼ ÃŁe
etz te
99875 87
ĠSpeich ern
f ar
ber ger
ĠSch lÃ¼ssel
itz er
âĢ ĭ
w Ã¶rter
s Ã¤
ĠF arb
ĠForm ular
ĠSa ison
Ġh istor
nIn formationen
ĠO ff
11 1
pla ttformen
ĠGÃ¤ ste
ĠA ss
ĠH Ã¶r
at ch
rÃ¤n kt
Ġs uper
nM ein
at is
ĠGer Ã¤te
Ġer le
ĠRicht ung
D etails
Ġ lan
Ġt reiben
ĠDi rekt
to p
ĠAll gemein
ĠpersÃ¶n lich
ber icht
Ġidentifiz ieren
Ġmo dern
ĠK linik
ĠW Ã¤r
ĠFuÃŁ ball
om ie
Ġan sehen
81 98
Ġge plan
ĠVers ion
O LL
wohn er
nB log
peten z
11 0
997 0
ĠG as
ha fte
ĠDeutsch mark
sch Ã¤tz
ĠG i
ach st
auf nahme
ĠSp ann
Ġ 55
h or
Ġpass iert
izien z
Ġr ichtige
ph one
ar tikel
Ġkl einer
wei le
an lagen
am es
Ġf and
ĠLeist ungs
Ġent stehen
Ġver senden
ik ro
Ġsel ber
Ġentfern t
ach r
1 22
ograf ie
s um
ar a
nO pen
out ube
ĠDritt anbietern
Ġer weiter
Ġbe f
i bel
Ġsch affen
ĠPass wort
Ġkomp lett
ĠM er
96 2
stÃ¤n de
gel n
rang ig
P T
Ġwir tschaft
egen heit
Ġmax im
ĠMe er
ĠK enntnis
ist ischen
65 3
Ã Ĺ
n ews
ĠZ entrum
imm el
ĠHin weise
ĠPerson al
sch m
ĠC hem
ro l
eint rÃ¤ch
ner stag
/ ?
b us
ĠRest aur
93 1
pro zess
% \
ĠK enn
Ġ reich
z un
ĠS ek
ĠR ein
st Ã¤t
ĠL iteratur
ver lÃ¤ss
Ġver tra
ĠH ol
hn ung
ĠA mer
24 1
8 28
flÃ¤ chen
ĠH unde
Ġb ein
99 15
Ġsozi alen
ĠAugen merk
Ã¤hl ten
ĠM el
ĠFir men
ig ten
nS tar
Ġvor bei
Ġman uellen
88 86
Ġum fassen
ag azin
fÃ¤h igkeit
ĠB orlabs
Ġab zu
Ġ[âĢ¦ ]\
Ġ Ã¤h
all en
nWar um
U L
Ġdeaktiv ieren
kti en
igin al
ĠUnivers itÃ¤t
97 9
Ġb Ã¼nd
ĠZ immer
sp rache
ĠEn gl
G efÃ¤llt
ĠB ack
Ġhier zu
ei ls
ĠSo zi
nN ur
nE nt
reu ung
91 0
il det
alis mus
ĠGesundheit s
en a
Ġbra uchen
Ġsp iel
z iel
ad a
sp rach
il i
ĠE t
Ġm obil
ĠGeb Ã¤ude
ĠGr and
Ġend lich
ond s
ĠBet roffen
I ON
Ġbesonder en
993 74
21 1
schein lich
letz ung
ĠBereit stellung
Ġher z
ieren den
Ġver t
ĠL ang
ava Script
ĠM Ã¼ll
em al
ĠRei sen
lo t
ĠOr d
ĠgroÃŁ er
nu tz
ĠProz ess
ob ei
ĠL o
91 2
20 13
lei sten
Ġn Ã¶
ĠAn zeige
ĠKir che
fra gt
z ust
ĠSpiel e
Ġerg ibt
Ġverpflich tet
ĠT on
Ã¶ff nen
ĠBe wertungen
ĠSam stag
Ġgemein s
ĠEv idenz
ĠM eter
g ro
ĠD ownload
Ġwelt weit
le gung
11 8
Ġgr Ã¼n
Ġ20 00
h an
Ġzu vor
ĠFar be
ĠB io
stit ution
nVer Ã¶ffentlicht
aler ie
5 00
Ġg gf
ĠBr and
R L
Ġsel ten
un n
Ġinform iert
usamm ent
Ġder zeit
nN ot
In nen
aktion en
ĠHer ren
bli othek
ĠTh omas
ĠIde e
ĠP resse
Ġz entr
2 83
alit Ã¤ts
Ġ )
ĠAn ti
el det
ĠAls o
ru he
Ġbeg l
Ġle gen
sam keit
S ystem
n eu
V P
Ġhin zu
ĠAn trag
A l
ĠVort eile
Ġdein es
Ã¤m lich
la ger
s etzt
Ġges agt
g te
ing ungen
ĠzusÃ¤tz lich
ĠSta at
ĠGer man
Ġoff i
Ã¤ dig
Ġlie fen
ĠZ eichen
ĠE uch
ĠW ander
Ġr ichtigen
Ġr elev
Ġ 75
Ġst imm
Ġer reich
at oren
Ġges p
Ġentsp erren
ĠG anz
1 83
ter t
Ġwichtig sten
har e
zeich nung
an ke
9 01
nKomment ar
Ġvoll stÃ¤ndig
di k
w ald
aus o
so ft
fahr ung
nW ider
s et
ber eitung
zw ischen
ym p
12 8
ch te
Ã¼ st
ru g
k om
ĠK unde
ĠZu dem
n i
ĠBe wertung
d urch
ĠVideo plattformen
ĠVol k
nD eine
glie der
stÃ¤n dige
ĠE is
heb ung
Ġanon y
sÃ¤tz e
ĠSt ell
ĠSt uttgart
9934 2775
* :
Ġk rit
ĠS and
Ġverantwort lich
t eile
Ã¤ng lich
nB orlabs
re dit
ĠI N
il e
â Ĩ
ĠPla ttform
gang s
nK on
on ym
Ã¶ st
ĠDienst es
Ã¤uf t
ĠAdministrat or
d acht
den burg
ĠKÃ¼ che
ĠUn ion
wend ungen
Ġer heb
Ġgen ug
997 254
en det
ĠC amp
v enz
am ent
ĠbÃ¼nd eln
ĠB al
33 5
O W
45 4
93 8
h Ã¤user
k omp
he ben
ĠG raf
ĠW il
nC ookies
ĠJ an
99 16
Ġz usamment
Ġan ges
qu e
ĠVer anstaltung
99 11
Ġbeg innt
wei te
ĠS alz
ĠS ub
45 7
Ġd ank
ĠIt alien
wer be
nW o
L C
00 1
Ġdar in
74 2
ĠRei he
Ġihr es
997254 97
Ġein zi
b as
heit s
f alt
Ġbest ellen
ĠÃľ b
w o
e ff
hal tigkeit
ĠBe arbeitung
ĠschÃ¶n e
15 0
Ġin stall
O V
Ġfre und
10 1
H E
ot el
ĠGesch enk
feren z
Ġperfe kt
Ġbesch Ã¤f
Ġdi re
ra ucht
ĠG eige
ech ts
997 8
d ungs
99 13
ĠEr wachsen
st eht
atÃ¼r lich
44 4
a ro
cc ess
ĠOn lin
Ġgesam ten
inter est
P h
v iel
ĠBes onder
H T
ĠT ante
pf el
Ġgesch rieben
0 76
nLie be
ro h
Ġo ber
ir k
ide os
Ġgew esen
Ġ( âĢŀ
ĠWohn ung
Ġsod ass
ĠauÃŁer dem
ĠWer den
Ã¼r en
91 8
Ġmitt ler
best immungen
ĠVerkehr s
f lÃ¼
ĠAn gel
hol en
nN ews
35 6
ĠFrei zeit
Ġzahl reiche
18 1
Ġh e
Ġgesam te
20 9
arbeit ungs
ol en
sol venz
ĠO der
nK osten
An aly
ĠUmf ang
nb orlabs
Ã ľber
nSpeich ern
Â ²
ĠL ive
ateg ie
2 95
8198 054
Ġz er
is er
Ġ $
ĠV imeo
Ġoptim ieren
z Ã¤hl
ĠpersÃ¶n liche
E x
fil m
nT el
Ġbew achen
nM an
ĠAuf gabe
in ing
33 4
des ign
nT witter
ĠSte u
Ġab onnieren
k ont
Ġander es
Ġzusammen schlieÃŁen
lei ster
ĠB unde
Ġmus st
masch inen
Ġb ald
r ise
ĠH or
Ġzusamment un
99 37
94 8
s Ã¤chlich
ĠS Ã¼
ĠFre unde
Ġander n
Ġsor gt
g ern
ĠPro jekte
Ġlie ber
ĠHin weis
O C
Ġbei de
Ġs echs
Ġgesch lechts
g i
ech an
96 1
Ã ¡
ĠmÃ¶glich st
/ "},"
Ġbe zeichnet
ĠDar stellung
ĠAng st
18 0
Ġn Ã¤mlich
Ġsp ielt
ĠStand ort
ĠUr heber
ĠP unkte
nJ a
pla y
Ġent fernen
ĠMart in
ĠP al
ĠVer Ã¤nder
Ġsol chen
ĠK alender
ĠA lex
ĠTra um
m esser
Ġsp rechen
Ġmehr eren
Ġzusammen spannen
amil ien
Ġ @
Ġnotwen dige
aff t
ĠUm gebung
l Ã¶sung
jÃ¤hr ige
ĠAuf sicht
ĠÃĦnder ung
55 5
gesch rieben
27 8
yn am
Ġd efin
Ġdi ver
Ã¤l te
ĠJ ohn
âĢľ )
S C
u elle
Ġa u
Ġbesonder e
ome ter
nAn melden
l iga
28 0
Ġin fo
aus e
ĠVer pflicht
\" .
C h
ĠRegistr ierung
onn ement
99 06
om aten
ĠS im
uch er
em pla
94 1
p olitik
P al
z y
46 3
Ġmel den
haus e
nSt atistik
ĠEr lebnis
IN G
99 05
z ent
Ġgel esen
ĠGrÃ¼n de
st immung
rÃ¤ f
ĠAn forderungen
il la
28 1
mm ern
ĠIn t
nH in
ĠauÃŁer halb
99 22
H A
nB ild
ĠH ann
ĠL Ã¤ndern
Ġvergangen en
masch ine
ĠEr fÃ¼llung
ein stellung
Ġsch eint
on en
N ach
Ġporn o
Ġunterschied lichen
ar n
m lich
an c
Ġgar an
46 7
ĠF reude
ĠUr sprung
l ern
ĠF Ã¤h
Ġentwick eln
for um
alit Ã¤ten
Ġle dig
ĠD amen
beh alten
stell ungs
deck t
55 6
ĠLehr stuhl
le ger
pro jekt
St re
e ed
r is
ĠFahr rad
k Ã¼n
bet rieb
ĠS ache
yp to
ĠInform ations
994 7
wor tet
s hop
ĠN et
ĠBed Ã¼rf
ĠM ot
Ġla ut
at ing
âĢľ -
och ter
ell igen
ĠW ohl
Ġneben sÃ¤chlich
nB est
i at
iv al
ĠTo ol
ĠP ubl
bild ungs
ĠK reuz
Ġschw ier
ĠInter view
Ġteil weise
Ġletz te
Ġange geben
ĠProdu ktion
99 04
nBeit rag
z ut
ĠAus gabe
ĠAr ten
Ġbei lÃ¤ufig
Ġnach rangig
Ġ Ð
ri min
ĠK ol
V ers
Ġledig lich
Ġbesch rieben
tern ehmer
Ġstatist ische
ĠB aby
ĠVertreter in
Ġfor m
ĠA ktion
ĠN ov
iel d
Ad ministration
ĠC om
ul en
sp lan
M G
R eg
ĠZ er
ĠE p
Ġzu erst
te d
Ġal te
sit z
ier end
55 7
ĠKir chen
ĠP C
nP reis
tif ik
ch em
icro soft
E uro
ĠS inn
ĠTem peratur
ĠMet all
ĠÃ¼b rigen
ĠB lock
zun ehmen
Ġ 000
onnen ten
z ert
Ġbenutz en
ĠOrganis ation
sk i
0 23
ĠF ass
ĠArb eiten
Ġs Ã¤m
T A
Ġmir GefÃ¤llt
86 58
I m
f angen
ĠAus land
ĠExper ten
ĠO pti
o la
lin ge
r isch
stal lation
ag ieren
ĠV iele
ĠG ottes
ĠP rem
ĠFor en
bar er
ĠU kraine
Ġzu st
ĠS ing
for dern
ers eits
Ġsein es
spr Ã¼n
ĠWei bs
t or
Ġdurch gefÃ¼hrt
ĠA k
n p
ĠProf ess
10 9
Ã¼hr t
Ġgen annt
ar tet
tier te
ĠÃľber blick
ix el
Ġaktiv iert
on es
S ie
z te
Ġbek ommt
ĠEin stellung
0 26
ĠGe fÃ¼hl
U F
ĠWeibs stÃ¼ck
k ultur
siden t
ĠgewÃ¼n sch
0 14
Ġeh emal
3 92
W S
la b
M P
ĠVerantwort ung
33 7
ĠBus iness
ĠJ u
ĠÃ¼ber mittelt
Ġdurch zufÃ¼hren
ĠEinschrÃ¤n kung
n weiter
utt on
ĠI D
ĠM Ã¤r
99 14
nah m
ro s
Ġp rÃ¼
Ã¼ se
an alyse
o ssen
ĠC or
ĠUr s
Ġr el
99374 74
Ġber aten
m and
Ġfahr en
Ã¤ ck
ei ert
k la
35 4
ĠP ersÃ¶n
nS ervice
ie ÃŁ
K E
ĠUnter such
ĠL eit
Ġein schlieÃŁlich
Ġst amm
36 6
ĠM y
dien en
997 73
33 3
ig ungs
66 4
Ġw issenschaft
ĠWir d
st Ã¤r
forder ung
mach erei
ĠIn solvenz
ĠPf licht
ĠWeib sen
Ġbe eintrÃ¤ch
A lle
73 1
Ġent weder
ĠEr satz
dr ich
ĠStar tseite
ĠDes halb
0 24
Ã¶r t
ers pe
ktiv en
93 2
+ \
Ã¼ss eld
Ġt oll
verb ind
ĠBed ingungen
Ar t
ĠHoch zeit
D S
ber eit
ĠÃ¼ber nehmen
ĠProdu kten
ein s
ĠM ul
sp artner
ĠThe ater
a ir
ĠW L
OLL OLL
> \
T ER
Ã¼ hle
ĠSch lag
11 9
35 3
produ kte
ĠK Ã¼nstler
Ġp asst
ĠBed arf
Ġsch Ã¼tzen
stand s
ĠO ffen
Ġdan ach
un e
ĠLeip zig
la ube
P f
ĠD S
ak ten
pp chen
Ġzie hen
A V
ĠK ampf
{ {
ĠSens ations
ĠnÃ¤ch ste
nT eilen
olog ischen
nU r
Ġk la
95 2
Ġtechn ischen
ik on
nP ost
ĠR Ã¤
Ġk n
Ġbe quem
I Y
ot os
ĠLes er
nM o
em itt
i ar
ĠBeg riff
Ġgen auso
nAr chiv
99 28
1 20
Ġunter wegs
Ġl Ã¤uft
t rÃ¤ge
66 5
ard s
ĠAb satz
Ġ ehr
rÃ¤ ume
ar zt
Ġaus geb
Ġ20 03
Ġlo k
8886 924
Ġw eder
ĠSchwei zer
8 08
L og
Ġessen zielle
0 15
Ġph p
echs eln
Ġab geschlossen
ĠSensations macherei
11 2
ĠW ild
ĠH und
ĠÃ¤hn lichen
jÃ¤hr igen
h s
ĠS ign
âĢĶ âĢĶ
0 94
St and
de ssen
ĠDo ppel
ĠgewÃ¤hr leisten
4 15
ob s
Ġfall s
Ġvor aus
ennt nisse
ĠGew alt
Ġn ah
Ġver treten
aa aa
m ie
ĠDrit ter
ĠK er
Ġbe ant
nStar tseite
8 20
ĠBek annt
ĠgewÃ¼n scht
a w
ĠP odcast
8 18
nVers and
min e
B S
ic al
ĠÃĸ l
i us
ba ut
95 1
r aten
r and
k unde
lich ten
ir n
Ġab w
Ġna he
le y
Ã¤ st
ĠR ab
hal ter
ba um
ĠFor schungs
ĠUnter richt
p age
a schen
v in
Ã¤n e
P L
Ġandern falls
il dern
ĠKom bin
I F
ĠH u
65 4
Ġkont aktieren
ĠK ooper
ĠJ avaScript
Ġgrund sÃ¤tzlich
ĠUm stÃ¤nden
ĠFor schung
n ers
z a
Ġerg Ã¤n
f ung
w urf
Ġd isk
sprÃ¼ che
l ies
ĠA ben
ĠB all
W er
ĠGew Ã¤hr
s es
Ġent gegen
en der
Ġabsol ut
ĠAus s
66 6
In halte
ĠL Ã¶sungen
wer ben
ĠCh ance
f Ã¤lle
** **
0 75
n w
ĠW ordPress
R E
ro r
ive au
P A
rank ungen
Ġeff e
Ġt yp
Ġzum indest
ĠNutzer er
Ġs ucht
nJ e
Ġh al
p unkte
sp ann
ĠL ern
Ġer h
verstÃ¤nd lich
la ufen
ĠAb onnenten
0 25
nN ovember
83 2
ĠChrist ian
t her
ĠH Ã¼
ĠtÃ¤ glich
Ġ3 00
ĠÃ¼ber wie
Ġf Ã¤llt
ĠK ern
83 60
f unk
94 2
ĠS qu
Ġin tens
ĠBild ungs
ra uen
au ern
Ġa g
X L
Ġw obei
âĢľ .\
Ġunter s
ĠD av
nW elche
Ġ3 6
Ġsch rift
ĠM as
m und
Ġbestimm t
9593 44
V G
Ġbet rÃ¤gt
K L
ĠE del
Ġber echtigten
ĠEnd gerÃ¤t
n k
um in
12 9
al i
ĠgrÃ¶ÃŁ ten
ĠMit te
Ġj unge
lich keiten
= \"
Ġsei en
ĠTr end
Ġzu k
ĠnatÃ¼r liche
21 2
ĠLebens mittel
Ġzuf rieden
nW ebsite
d atum
nM eine
it ness
Ġerfol gen
v i
gr ess
Ġber uf
zeich nis
ĠV it
ĠReg ierung
walt ungs
ĠIntern ational
ĠAll es
ĠM acht
P N
wer tet
ĠSch Ã¤den
ĠD rei
bÃ¼ cher
Ġs e
00 2
D ien
ĠT eile
qualit Ã¤t
ĠDa her
ar tig
Ġan bieten
36 4
atei en
mer z
V D
Ġver lin
ach tet
03 0
ĠSch warz
M an
lei ben
a ce
Ġge h
vÃ¶l k
8658 916
nR echt
ĠTran sport
46 1
Ã¤ mm
schlÃ¤ ge
sch lÃ¼ssel
k oll
on to
ĠBenutz ern
ĠSp am
M arkt
Ġer ster
ĠW are
ĠVor lieben
no se
og el
ĠâĨĴ \
k i
98 86
ĠF ran
ĠM iss
Ġe xtrem
rie be
ll en
nT he
do or
ĠG o
ĠV ater
nE n
ĠfrÃ¼ h
ĠAus wirkungen
Ġk Ã¼
it em
in i
ĠA kk
se qu
ec essary
Ġent decken
tipp s
ĠA ir
wend ungs
S hop
an ter
Ã¤hl te
s f
Ġ3 2
Ġ egal
che ck
ĠO per
ĠF ol
Ġange gebenen
bar ung
w id
G es
nNeu este
b rauch
24 2
Ġgleich en
Ã¼ bung
ĠAn schluss
ĠWe ge
ĠP ress
ĠMan ager
Ġ Ã¤lter
ĠH ans
Ġp sych
ĠB ro
Ġ 65
ĠDurch fÃ¼hrung
ĠAktiv itÃ¤ten
20 12
am ing
96 9
ĠS w
ĠRechts an
ĠBei m
o us
n m
Ġdigit alen
Ġt ot
g reifen
' '
ĠmÃ¶ch test
Ġpro duz
a at
t r
Ġ20 02
Ġverl oren
Ġt ran
ĠTrain ing
minister ium
ĠC lub
R icht
sp eich
ort s
d om
986 34
oo m
A Z
ĠPrÃ¤ ferenzen
ĠÃĸff ent
rie d
ĠwÃ¼n schen
H K
Ġ 44
Ġer geben
E s
Ġ rei
sta at
o wer
ĠF lÃ¤
0 16
ĠDok ument
ĠHa ftung
Ã¼ ter
ĠTex te
Ġwen igen
ĠPrÃ¼f ung
v al
ĠM orgen
93 9
8 09
Ġ reicht
ĠBereich en
ĠP ri
Ġsollte st
ĠHum an
C o
99 92
Ġvers uchen
lass ung
hÃ¤ng ig
ĠKontakt formular
14 03
nSch lieÃŁen
ĠZw ischen
us ion
ĠNutz ungs
lie gt
ti me
ommer ce
ĠNeu e
06 8
ĠIn tegr
n die
T he
j o
der s
u z
ĠDeutschland s
S E
834 13
nD etails
ĠW el
ĠSch loss
Ġsch warz
ĠM Ã¤dchen
ĠC ont
Ġsamm eln
Pro du
l Ã¤nd
ĠRom an
iv il
93 73
ĠEr schein
ĠUm setzung
99 03
re ff
ĠFel der
Ġgen ieÃŁen
ĠGeb rauch
n icht
Ġd ra
ĠK lasse
Ġvor behalten
F unktion
end ung
Ġein ger
m achen
Ġver lassen
on line
erk en
r Ã¶
Ġge Ã¶ffnet
s g
ĠD ep
ĠAl b
nM eta
Ġt olle
k lasse
8360 984
ĠT od
Ġs icht
26 8
Ġmitt el
Ġh off
ĠD ro
au b
k unden
Ġfin an
S er
Ã¤hr t
- \
nH ome
ĠverfÃ¼ gt
ĠAuf ent
ĠS al
Ġsonst ige
gew icht
Ġanzu zeigen
vÃ¶lk erung
Ġ4 9
55 4
ĠHeim at
ĠP fer
men s
Ġ/ /
nB es
ĠC anal
14 1
Ġanony men
ĠBest immungen
Ġman chmal
ĠM iet
ĠKraft stoff
Ã¼ndig ung
ĠB aden
ha fen
f la
ft ungs
21 8
Ġbetreffen den
91 9
reg ierung
ĠðŁ ĺ
br id
ĠLie bl
924 83413
p ublik
ok us
l Ã¤nder
sch uhe
25 0
a uch
ommun ity
13 2
ĠP ap
ĠRuss land
ĠS P
kn Ã¼
ĠM eister
98 15
Ġf ehl
Ġdam als
Ġdar um
hand el
Ã¼sseld orf
ber n
36 3
nProdu kt
Ġausgest attet
Z E
anz eigen
ed In
N G
roll en
ĠMaterial ien
x x
ĠA gen
de utsch
Ã¤ ss
Ġla den
K G
Ġher r
ie gen
Ġspe ziell
ĠM ass
D I
ink l
Z W
b indung
pp t
ĠS achsen
Ġphp BB
ĠW Ã¤hrend
ĠG eist
Ġf e
Ġt ief
nDie ser
Ġer leben
ĠEi sen
ĠS ee
Ġt elefon
ĠAn ge
Ġz zgl
ro nt
om en
ĠMont ag
ĠGeburt stag
uf f
ig ungen
ehl ungen
nT h
nMen Ã¼
25 1
Ġindividu ell
ĠâĢ ļ
84 1
tember g
osoph ie
in ken
ĠT Ã¤tigkeit
ĠAb lauf
20 11
isten z
ĠRep ublik
ĠD adurch
ĠH ein
ĠK och
ĠFall s
co de
15 1
S A
nW eb
n l
Ġzuk Ã¼nf
M od
bed arf
ern t
ep age
ĠC asino
Ġk napp
U P
ent wicklung
B L
ĠWind ows
ber ichte
83 8
Ġge grÃ¼n
on ts
Ġan gen
og a
ym pt
nB et
ĠZahl ung
g liche
nP er
Ġgef Ã¤hr
99 20
ĠC am
ĠT ro
ĠGes icht
Ġunterschied liche
ĠAn lage
65 6
zus etzen
ĠVer besser
24 9
Ġgeb racht
Ġbe an
rei g
ĠGel egenheit
ĠK op
ĠS Ã¤
Ġber Ã¼cks
ĠFrank reich
ĠB rief
ober t
Ġzie mlich
Ġbet rach
gr Ã¶ÃŁe
ĠR elig
weiter gabe
kt or
ĠE ind
ĠBe z
Ġ 00
Ġin t
ĠSpe zial
22 1
ĠF C
h Ã¤nge
Ġdurch aus
ĠschlieÃŁ lich
ĠKar te
v ollen
Ã¶ se
ĠU ser
ĠM eine
ĠB ade
ĠB Ã¤
vers orgung
tion en
F or
ĠLu x
Ġfreiwill ige
g Ã¤n
Ġj Ã¤hr
ĠC ha
ĠP apier
Ã¼l tig
85 0
22 2
ĠTeil nahme
Ġeinzel ne
ĠT iere
D P
ĠAuf zeichnungen
13 9
87 0
se x
nZ ahl
Ġb i
k lÃ¤rung
Ã¤ ppchen
ĠGew icht
ĠSo Se
ĠPa ul
84 73
ĠPh ys
ĠH off
ĠHinter grund
Ġ Ã¼
98634 017
29 2
W R
34 7
Ġgew innen
Ġra us
itekt ur
Ġso zial
f achen
ymb ol
ĠS amm
ĠSem inar
form s
86 2
Ġf ehlen
H S
ĠRechts grundlage
Ġfall en
Ġbet eil
ĠRech nung
ĠIn fe
ĠKont rolle
har ma
ver kauf
ĠUhr zeit
ĠFolgen den
ĠB it
Ġher gestellt
ab et
wen den
Ġn ieder
ĠTechn ologie
um p
Ġ1 50
Ġspr icht
b rowser
Ġsch lech
n ei
ĠEr de
03 1
ĠOpti m
nO nline
ut h
Ã¤tig ung
Ġf rem
ĠSt ad
v o
lie b
Ġab brechen
ĠAn gabe
83 1
21 9
ach ing
ĠSqu are
Ġhin zufÃ¼gen
ber ater
ĠGr enz
sor ge
18 2
ĠWett be
ĠErn Ã¤hrung
ĠverfÃ¼ gen
ĠL ED
t um
H M
nA d
ĠApp le
Ġbenutz t
ĠW echsel
at ed
ĠkÃ¶n nt
wen de
pp er
af Ã¼r
ĠM or
maÃŁ nahmen
nL ink
ĠDar Ã¼ber
il ien
z ul
Ġwel chen
ĠSch ne
k at
22 8
Ġlie ben
3 00
sch irm
ĠW elche
Ġf unction
nT er
ĠBe w
94 67
ur laub
ĠAn fragen
24 36
ĠOr ts
g at
ĠZust and
ĠReg eln
ost et
ĠQu alitÃ¤ts
bo den
st eiger
Ġun mittel
ĠEnt stehen
Ġab gel
b ald
M ap
an cen
Ġverm eiden
eh lung
85 2
ĠEr inner
ĠR oll
03 2
Ã¶r ungen
nungs zeiten
ĠF akt
U m
n www
sprech partner
ĠL Ã¼
nS uchen
det ail
Ð °
Ġbeg eist
24 0
ĠK ra
d is
ĠMa ster
ĠM Ã¶bel
Ġ Ã¶ffnen
nT echn
ĠIn sel
r al
Ġwir kt
84 8
ĠSchn itt
Ġf ach
ĠGeh eim
ĠL ese
G VO
28 8
Ġfol gt
ĠChin a
F akultÃ¤t
dien ste
h Ã¤nger
ĠBeweg ung
Ġw or
f li
ĠGr enzen
ĠDaten weitergabe
ĠD el
ÃĹ \
p asst
84 2
Ġbe ob
Ġ 43
nT e
ĠA s
ĠD enk
in es
F S
ah nen
13 1
nWider ruf
weis ung
23 1
d atenschutz
Ġsp aren
ĠgrÃ¶ÃŁ te
iti ative
t he
f Ã¶rder
o ben
ĠT herapie
Ġd unk
anbieter s
ĠhÃ¶r en
U G
ĠGe fahr
Ġf il
em ente
wind igkeit
iert es
R T
nDe zember
g al
Z T
isch em
ĠRed aktion
fÃ¼hr ten
Ġum fang
Ġent standen
86 1
ĠZ entr
g y
el en
22 9
is ierte
l etzt
s m
lin k
frei en
ar atur
4 00
Ġge kommen
Ġs org
nS eit
eg el
Ġzu lassen
16 9
Ġpassen den
Ġschn eller
ĠSt unde
15 2
14 9
Ġanalys ieren
ĠN a
Ã¶r ung
Ġsol cher
ĠGesch mack
S h
Ġwen ige
fahr er
ĠV i
ĠSch iff
Ġum fasst
ĠunabhÃ¤ng ig
Ã¶rder t
eren z
ĠR Ã¶
re ck
Ã¼ck e
ach el
ĠSpeich er
Ġf ertig
ĠArbeit geber
Ġm ass
Ġ ed
ĠA ktien
ĠVer gangen
b ilder
b ett
O r
F L
ack e
ord nungs
ĠWar um
ĠR ec
kon to
eil t
73 2
R D
16 0
Ġden ken
ra h
sch auen
ĠTra cking
Ġg lÃ¼ck
ĠSt Ã¤r
nSch lag
ĠM ikro
Ġp ol
Ġn Ã¤her
ri b
14 0
A K
iz ieren
Ġst arten
z ern
Ġnotwen digen
ik al
ĠH ome
ï ¿
ĠP il
ĠerhÃ¤lt lich
gem Ã¤ÃŁ
25 2
form en
nK inder
O B
ĠBesch wer
ĠGro up
sch Ã¶n
Ġl Ã¤ng
spla tz
lim inar
Ġklick e
Ġh alt
den k
C ookie
to ff
nBeit rÃ¤ge
ĠG Ã¶
Ġintern ationalen
ha lle
90 2
Ġbis schen
ĠerfÃ¼ll t
ĠMedi k
Analy sen
ĠPo wer
Ġin klusive
ĠPrÃ¤ liminar
Ġmittler weile
m at
ver waltung
Ã¼ cher
Ġdigit ale
Ġspeich ert
Ġw ichtigen
fil ter
Ġgesch Ã¼tzt
Ġ 94
ĠMus eum
all er
c el
eu ten
ĠInnov ation
eist ungs
Â ´
ink el
Ġ 46
ĠBet eil
Ġviel fÃ¤l
Ġer wÃ¤
ĠE reig
M ark
fra struktur
________ ________
ĠPart ei
ĠWor ks
ĠM i
Ġg lob
ib il
p art
nC opyright
z wei
ĠSu pp
ĠBesch Ã¤f
ad s
L S
sch la
ĠInter ess
Ġsch reibt
r ate
23 9
st eh
acht ung
nP resse
ĠBla ck
I X
Ġdeaktiv iert
Ġbis lang
Ġst r
nM ai
926 5
nD r
ĠV arian
Ġabgerufen en
ĠAuf bewahr
hn liche
Ġv is
ĠS PD
ĠMasch inen
ĠF ranz
ti al
U V
h och
ĠHo f
ic o
un kten
Ġ3 4
Ġs ub
h u
ĠHand werk
E IN
Ġreg ion
im p
Ġn eg
ĠMark e
rÃ¼ st
ĠRechts ver
ko hol
ĠO pen
p on
ĠÃ¼ber w
ĠHei z
L e
A X
Ġj ung
83 0
schei det
23 8
nis sen
ĠWochen ende
ĠBoard s
ĠJ es
ĠSchwer punkt
Stre et
nAktu elle
at o
and id
ĠHand els
13 8
hol ung
ĠMarketing zwecken
met ho
16 1
T echn
Ġange fordert
ĠgÃ¼nst ig
16 2
ĠF rieden
Ġall gemeinen
ĠA ch
Ġzu verlÃ¤ss
ĠMin dest
ĠRe zept
Ġp ost
ĠG rad
folgen den
hol t
lei der
ĠN un
e en
stra hl
Ã¶r dern
nu r
K S
sch rank
nJ uli
r hein
nO ktober
om in
ĠHand el
Ġlie f
e be
Ġ arbeitet
Ġt reten
Ġk re
Ġw ann
ess our
ĠK G
Ġin nov
or ie
- )
Ġ ;
ĠðŁ Ļ
ĠT ochter
ĠhÃ¤t ten
in stagram
ĠR uhe
Ġregistr ieren
w Ã¼n
Ġf lex
Ġvers ucht
ĠH istor
Ġver Ã¶ffentlich
Ġeigen er
i oren
nS te
nS eptember
Ġein iger
ĠWeiter lesen
25 8
ats App
w al
w p
Ġent spricht
Ġden k
14 2
99 07
Ġindividu elle
15 9
u ls
ĠKomp on
nNutz ungsbedingungen
st i
ĠW al
27 2
ĠL aden
Ġur sprÃ¼n
ucht ung
Ġat tra
Ġso bald
itz ung
88 0
ĠR ob
ĠF o
co in
aff el
Ġangem essen
nK eine
u gen
ĠL ab
iert el
ei s
ĠSp r
21 0
ag n
Ã¤dagog ik
ĠVer waltung
k rieg
Ġbew usst
ĠB ot
n am
ĠWeihn achten
28 2
Ġd rin
95 9
Ġkosten lose
nDe utsch
hel m
schul en
ffff ffff
ro ss
ĠR em
w ord
ĠT yp
ï¿ ½
ĠAuf bau
ar if
wen dige
Ġsch lecht
98 96
N S
drÃ¼ck en
wir ken
85 1
sp ekt
ĠC ol
ĠRÃ¼ck en
ĠDom ain
O X
ĠT im
Ġges amm
98 464
D M
st ahl
nA ber
Ġan k
ĠL ust
Ġein steigen
Ġverkauf en
rÃ¤ um
Ġfal sch
Ġb l
A ut
36 7
E X
spiel en
97 23
it le
o pf
ang s
bo ten
9945 743
ĠP rakti
ra el
it or
sta aten
N L
Ġfunktion ieren
rech nung
o ge
ĠNutzer profile
97 27
ĠVer Ã¶ffentlich
w ander
ĠAus stellung
Ġmen sch
w eb
ĠFÃ¶rder ung
Ġsogen annte
Ġst Ã¤ndig
04 2
ĠWei ÃŁ
ind ust
Ġg uter
nG e
Ġpriv aten
15 8
fol gt
V B
ĠS achen
Ġin vest
ĠÃľber mittlung
Ġj ur
W L
am pe
ĠKontakt daten
la ck
di ent
Ġlang sam
atz e
Ġk ur
under t
ĠprÃ¼ fen
Ġwei sen
Ġan t
19 2
P C
ud wig
23 2
ĠT her
ĠBe ziehung
14 8
nM ar
nJ uni
77 1
ti ment
86 8
Ġge fallen
Ġelektron isches
Ġpassen de
ĠS urf
ĠK ant
Ġaus fÃ¼hr
Ġtra dition
18 8
ĠBon us
Ġt rÃ¤gt
Ġru h
Ġst eigen
Ġ( *
sprech end
zen e
nN icht
nIn ter
ĠAus Ã¼bung
Ã¤n n
86 0
Ġbest ell
F orm
85 8
ĠHÃ¤n d
ĠD Ã¼sseldorf
G esch
ĠPar ty
Ġirgend einer
N r
ĠNach haltigkeit
ĠGra b
I ER
ant as
be auftrag
ĠZus atz
ain er
ĠAm ts
nK unden
ĠZ uf
nA ugust
te sten
umin ium
ter e
ĠJ ung
ĠNach bar
26 1
s c
Ġerwar ten
schein t
Ġallein igen
Ġr uss
g as
ĠZ iele
nA pril
E nt
be ck
ĠA ug
produ kt
Ġbeg ren
Street Map
Ġzu letzt
S ervice
ĠKom petenz
ĠAd vent
88 2
ĠChar akter
ĠStu dium
ĠA v
Ġver trag
O F
age gen
ĠKaff ee
d y
hl t
ĠFrei heit
Ġver urs
nF or
Ġaus gel
Ġun ber
ĠE vent
n X
ĠAnbieter s
ĠZahl en
ĠAust ausch
Ã¶ sen
n f
Ġl i
Ã¤ll ig
ri p
ĠPlat forms
erk onto
ĠHand y
lÃ¤ uter
Ġ1 000
ĠsÃ¤m tliche
Ġj em
Ġkomp let
ief ert
ĠFrie drich
Ġab hÃ¤ngig
07 1
ĠAus stattung
ord in
s an
ĠM uster
88 8
17 8
ob by
z eh
ĠDr es
Ġsch l
re te
Ġerwar tet
ograph ie
17 1
g id
I Z
sen dung
An geb
war d
ĠF er
ĠD atum
ĠS ur
ĠSch reib
Ġsogen annten
ĠFe ed
ĠM ig
t lichen
ĠDon nerstag
Ġverl ieren
Ġex terne
ĠKl im
18 9
nDies es
A Y
76 8
te te
ĠM att
atter ie
09 2
Ġe vent
la ment
Ġindividu ellen
ĠOr iginal
87 1
ĠFeuer wehr
ĠSte fan
ĠDaten Ã¼ber
h i
Ġ20 01
ĠUm satz
ĠSil ber
ĠStud ie
ĠT urn
N T
01 9
ĠInternet dienst
ĠF ein
ĠZ eu
y a
ĠTermin e
08 0
Ġh Ã¤ngt
k ei
ĠSo fern
ĠR ang
ĠB rÃ¼
ĠK abel
Ġst abil
Ġbe arbeiten
ĠSer ie
upp ort
nR echts
U B
Ġheu tigen
999 05
k rÃ¤fte
nG ew
Ġsozi ale
sb ehÃ¶rde
ĠVerein s
letz ungen
ĠK eine
Ġbeg innen
27 1
Ġern st
ĠMod elle
ES S
Ġer fasst
lÃ¼ sse
nVor lieben
ĠZeit raum
ĠDigit al
Ġda hin
an dern
Ġauf genommen
Ġ25 0
ĠSon ne
ĠP et
ĠA GB
Ġm aÃŁ
00 8
ĠPlan ung
nP f
ĠP osition
ĠW ell
98464 245
ĠmÃ¼ s
Ġeinfach e
un s
ĠAb hÃ¤ng
H G
ĠS emester
omm unik
06 1
995 126
13 0
nJ anuar
Ġver d
nAktu elles
ĠEigen schaften
80 76
ĠK lass
ĠFunktion alitÃ¤t
alis ieren
Ġwahr scheinlich
ĠZ it
nT ra
B et
ol lar
ĠAut oren
ĠLehr er
Ġk Ã¶rper
ĠInternetdienst anbieters
Ġj ungen
Ġeng l
ĠZ Ã¼r
Ġt ut
Ġent schieden
ĠWiderruf s
Ġt rifft
av e
Ġver k
ĠKommunikations netz
nM Ã¤rz
98 94
r ein
ĠSch ei
s i
ĠJo urnal
nS chn
ĠP op
ĠP re
Ġ ?
ĠRegion al
ĠH ard
ĠSon st
okrat ie
ĠAr m
ar chiv
ĠAuf ruf
84 75
C L
Ġl eisten
ĠStr and
ĠVer mÃ¶gen
R G
h eil
ĠN ummer
ĠV ER
ĠEin richtung
ĠAb onnement
r ation
17 9
ra b
35 7
vers ammlung
g ten
24 8
ĠSch l
Ã¼rt temberg
ĠC re
at isch
Ġlie fern
20 10
ĠRo ck
wei ÃŁ
ĠT at
R M
Ġeinzi ge
ĠSchn Ã¤ppchen
ĠP DF
ĠKÃ¼ chen
ĠS T
ym n
ur er
Ġd ep
rÃ¤ umen
H P
Ġunterschied lich
b ran
ĠAndre as
ĠC ity
ĠSt raf
ĠR u
ov e
D L
log gen
98 75
rÃ¼ck en
nF ebruar
Ġdar aus
prÃ¼ fung
ler nen
Ġwel chem
Ġzahl reichen
scha ffen
ĠAl ten
gest altung
Ġbew egen
wir k
ĠKar l
nS port
tig ten
R F
k ampf
Ġer scheint
ie fe
p ost
Ġd re
aus piel
ĠP riv
en ken
87 8
ĠSo hn
Ġregistr iert
D aten
ĠK u
nL og
Ġ1 20
unt ain
76 1
ĠK lar
Ġgel aden
99805 135
Ġf ragen
ĠKar r
Ġus er
un a
ĠFÃ¼hr ung
ĠSp rachen
b is
ĠAller dings
03 8
Ġinteress ant
ĠNutz ers
ĠnÃ¶ tig
nReg istr
k ap
17 2
ĠeuropÃ¤ ischen
d ing
H W
nS on
C O
16 8
m ond
29 0
S M
i zi
ill er
Ã¤tz e
R K
ag d
ĠT al
Ġwes ent
98 34
Ġverhin der
99 998
Ġan erk
ĠC hr
uri sten
Ð ¸
ist isch
98 65
ĠðŁĻ Ĥ
ib le
geb aut
l ein
ĠÃ¼ber gehen
76 2
98 85
ĠSmart phone
ĠAl ters
Ġent steht
56 7
Ġbes itzen
87 2
ĠEr forder
sp iegel
05 8
TM L
98 95
ab l
f uer
o den
995126 25
gesch n
ĠS et
Ġbes ucht
ich ert
ĠS el
Ġa chten
ĠBer echtig
25 9
Ġk Ã¼nf
88 1
ĠÃ¼ber all
! ","
ĠÃ¼ber ra
ĠF okus
rit ts
ĠW Ã¼r
nAr ch
kir chen
Ġtra ur
Ġger ing
Ã¼ re
ĠR et
Ġwir ken
g s
Ġf rom
ĠMill iar
0 11
ĠZahlungs einstellung
ĠB u
lo ser
p ert
m il
wor k
ron ik
Ã¤r m
ĠprÃ¤sen tiert
ei ern
ichtig keit
ies o
st anz
ĠAp othe
Ã¤ft s
ĠC ent
ĠK lassen
Ġb ilden
D PR
.... ....
55 3
p lÃ¤tze
h am
Ã¤l fte
Ġge eig
G oogle
nR ep
ĠKombin ation
mus ik
nG er
Ð ¾
a bend
ĠIn halten
zahl t
ĠKonkurs fall
Kon to
ĠH on
âĢĿ \
Ġt Ã¤tig
05 1
fra u
Ġwichtig er
ĠMin i
Ġ _
Ġwar ten
ĠA ff
Ġsie ben
Ġwir st
Z ust
Ġob wohl
on a
ĠIn ner
Ġspe zif
ĠRegel ungen
nAll gemein
Ġmark iert
11 35
tag s
em ein
ĠF rem
s icherheit
Ph one
nO r
her e
ĠGesch ichten
ĠP or
all s
os me
Ġweiter lesen
tier ten
ĠF leisch
ĠSt ahl
9955 392
à ¸
reg ion
ĠH alb
ĠSchul en
or ganis
06 9
Ġk amen
G er
nFunktion al
ol den
Ġperfe kte
ach er
07 2
plat te
ul d
ĠC loud
U K
n vor
. )\
ĠJahrhunder t
lÃ¶ tz
ruck en
99 00
f lus
ĠB or
gemein schaft
ĠBe vÃ¶lkerung
Ġw echseln
port al
s em
s achsen
y e
ĠAbhÃ¤ng igkeit
07 9
iz e
Ġm orgen
H er
ĠUn fall
ĠnatÃ¼r lichen
ĠUmf rage
ĠMÃ¼ll er
ĠG lob
Ġsp ort
b ook
ir d
beg inn
A ll
Ġr Ã¼ck
Ġal tern
reich end
M M
26 2
ĠM icrosoft
Ã¼r n
es er
F il
98 93
indust rie
fÃ¤h ig
Ġm il
ĠMitt woch
ĠBeh inder
at ungs
Ġvor gesehen
ĠC as
I B
\": \"
Ġ4 8
u al
ĠD eb
ĠVor ladung
Ġbeg ann
b le
Ġbehand elt
ĠK Ã¼hl
s inn
N E
bez ie
nutz ung
Ġherunter laden
wir kung
c al
98 91
stu dium
n in
lei d
Ã¶ff nung
ĠJ ul
T C
ĠH an
rit z
k ar
Ġj etz
fer tigt
Ã¤t ter
94 9
84 0
sch reiben
ĠPay Pal
ĠM ed
nD i
Ġst ra
ĠS ei
mach ung
Ġvor ge
Ġweiter es
64 7
ĠDatenschutz bestimmungen
8473 453
ĠP lus
ĠKa sten
ĠKrit ik
land s
ug el
Ġgel egen
Ġvoll er
Ġbe weg
17 0
Ã¶r se
l ik
08 1
F G
nV iele
73 8
Ġz Ã¤hlen
eta ill
essour cen
st es
w est
ing ung
ĠRa dio
ĠKomm un
nF r
Ġmoder nen
ichte te
ok al
ĠN ahr
Ġex per
Ġaus ger
ĠAus druck
ĠY ork
46 8
Ġweiter er
vol ution
Ġirgend wie
87 95
ĠÃ¼ber zeugt
ĠMin ister
ĠH al
996 0
c i
27 9
ĠAn k
97 47
ĠKon zept
frist ig
Ġbe ziehen
w ein
Ġpolit ische
ĠA ktionen
98 22
ge d
Ġsch war
E l
be weg
ma ÃŁen
ĠL eiter
v ier
Ġm ed
66 7
ĠÃ¶ffent lich
Ġer leich
ĠR el
ri sten
ĠUnter schied
ĠSta aten
ĠM and
Ġ use
Ġer teil
Ġgut es
nP ass
R A
ĠF Ã¼
ĠBetroffen en
fel der
nI st
ĠS ein
04 8
Ġst euer
Ġbek omm
Ġzahl en
ĠL esen
ĠD afÃ¼r
ess el
bau en
nIn tern
dro id
ĠGesch enke
84 9
au ert
st he
st ation
ĠB ur
nF il
Ġbes sere
nT hemen
ĠP erspe
ĠGest altung
ĠMetho den
9996 3
ĠW achst
ĠVort eil
\", \"
75 2
9995 091
Ġz eich
Q L
r ingen
ĠO p
Ġdauer haft
ĠWer te
j ekten
S pe
ĠBer icht
P G
br em
ab rik
Ġge z
ef rei
Z G
mod ell
06 2
( '
ð Ŀ
Ġent f
wÃ¤r ts
ĠUrlaub s
ĠL Ã¤nge
ĠM eld
ond on
ĠLiebl ings
ĠStÃ¤d te
Ġg l
W M
z nei
geb nisse
H O
ĠVoraus setzungen
ar tigen
nNeu e
ĠTab let
ĠL eiden
Ġk ultur
I O
rach te
ro chen
98 83
ĠK ro
nSt and
gest immt
nO b
Ġi f
Ġkomm un
ĠKooper ation
Ġden ke
m as
ĠW ol
Ġan schlieÃŁend
enn e
ĠDan iel
A c
an y
ĠVer lauf
W G
Ġhinweg gehen
rech er
04 1
Ġinteress ante
Ġinform ation
arbeiten de
Ġ{ {
ĠEin fach
-------- --------
ĠÃ¼berprÃ¼ fen
Ġge fÃ¼hrt
ĠTeam s
Ġersch einen
zens ion
9988 837
ĠRo h
ĠÃ¤hn lich
b eits
ĠH eute
s daten
90 17
nDe utschland
05 9
vis ion
ĠVert eidig
n http
nD en
Ġent nehmen
f alen
Ġg ra
Ġm Ã¶gliche
ha ften
v a
ĠHann over
der ung
997 223
nT isch
ĠG ru
Ġd ur
Ġge be
de x
ir es
ĠLin ie
ĠB ier
20 09
++ +
Ġj Ã¼n
tig te
Ġd agegen
Ġm y
ĠForm at
ĠE d
os k
st ern
bo ard
Ġeindeu tige
gr Ã¶ÃŁ
Ġk auf
Ġall gemein
ĠFlÃ¼ cht
Ġmit einander
b Ã¼rger
98 76
S CH
ĠL aut
43 8
ĠBerlin er
DE N
or ben
ĠFil ter
t on
83 9
H Y
Ġm e
K V
ĠVerpflicht ung
ĠGe org
ĠBunde stag
etz ung
nAn geb
Ġs c
ikan ischen
98 97
ĠMo tiv
nF oto
98 74
Ġ4 00
nOpen StreetMap
Ġver n
ner gie
ĠPersÃ¶n lichkeit
ĠAn liegen
lÃ¤ss lich
ir urg
St r
ich tigt
ann er
form at
ĠRei fen
y pen
ĠEr zeugt
Ġver Ã¤ndert
Ġex ist
Z X
ĠI dent
Ġz eig
ĠBrowser s
ĠK laus
bereich e
son sten
Ġneu esten
sto ffen
Richt linie
M L
dig t
ĠgrÃ¶ÃŁ er
ĠGet rÃ¤n
we ge
ay s
nF olgen
N eu
I Q
iz ed
6 34
85 9
U X
Ġdisk u
45 2
ĠMil ch
ool s
kti ver
ĠGener al
N D
Ġkommen den
m ung
9373 9265
j ect
Ġus ed
Ġges ellschaft
is ierten
Ġirgend w
S port
bet reiber
Ġph ys
ak a
ĠLand kreis
d lich
Ġj ahr
05 2
ĠSitz ung
ĠC A
P O
ie ur
Ġbeein flus
43 0
ĠVergangen heit
ĠAn lagen
J J
Ġr en
w in
le hre
ĠVerantwort liche
ĠE mail
98 35
ĠW asch
Ġw achsen
Ã ³
07 0
Ġber u
ech te
\" .\
h es
ĠA f
ĠMilliar den
ĠWÃ¼n sche
sen z
Ġr ies
ur a
Ġein gestellt
ge wiesen
Ġ problem
ĠB urg
ĠT ats
ĠgroÃŁ es
usst sein
19 0
ĠTisch tennis
Ġm achte
99 18
ĠWor ld
ĠKrank heit
ĠR ie
945 25
ver gleich
abel le
Ġher ab
p rechen
26 9
ĠT ick
74 1
ty p
Ġwider sprechen
umen ten
Ġjeweil ige
ig te
ri a
99 983
ĠAl uminium
ĠT rotz
ĠSch alt
Ã¤mpf en
pp ing
Ã¤te stens
wer bs
Ġauf treten
nÃĦ hnliche
te x
arr iere
C he
nS e
az it
o sen
rÃ¼st ung
od y
, -
Ġgew onnen
Ġs an
08 2
ĠerhÃ¶ ht
zÃ¼ ge
Ð µ
Ġcon sent
nH and
nÃĸ ff
ĠSo lar
ĠK rÃ¤
ĠBenutz ung
Ġge Ã¤ndert
Ġpolit ischen
Ġgek enn
43 1
0 12
ĠBer ichtigung
ĠPol y
E V
j emand
Ã¼ll en
ĠIn str
s uche
ĠfÃ¼hr te
Ġges ucht
Y X
ĠL ernen
25 25
it ar
Ġposit iv
ĠNutz ungsbedingungen
.\" \
c y
S U
eu erung
B ook
D G
zeich nen
hem a
Ġmon at
04 0
77 2
H C
ĠSch reiben
Ġall eine
fass ungs
Y L
Ġher um
an ts
ĠK amera
Ġc ookie
ĠFerien haus
Ġnie mand
arb on
k inder
an er
Ġge gebenen
Un ter
Ã¤ch er
ĠEr fassung
den ten
ĠB ud
k um
mitt ag
ĠZ eitung
65 7
ĠSti l
07 8
ren nen
99 30
ĠDan ke
eu ert
ĠDres den
ĠF itness
r einigung
ĠBedÃ¼rf nisse
ĠIn stitution
ĠFahr er
ĠÃĸffent lichkeit
id s
hl en
E K
Ġst aat
ĠAufsicht sbehÃ¶rde
m t
ĠgegrÃ¼n det
d ra
ĠP oten
ĠP l
ĠTool s
nM itt
ĠBuch sta
ĠM ie
ĠEng agement
H V
m obil
Ġ4 2
nUn ternehmen
de d
Ġd is
Ġwas ser
N A
9467 2436
ver ordnung
Ġk ennt
rÃ¤ der
nG rund
ĠSp err
98 73
ier st
ĠVer pack
steigen d
M F
ĠHeraus forderungen
ĠGutsch ein
ĠHÃ¤n de
sp art
04 9
ĠRep aratur
Ġwill st
b reiten
ĠS how
ĠD IE
ĠErk lÃ¤rung
Ġvor liegen
funktion en
p apier
mo sphÃ¤re
nBeitrag s
sie he
ĠDigit alisierung
ĠE hren
wer ken
56 3
eg a
00 9
y pe
ĠSch war
n info
ĠTrain ings
stÃ¤nd nis
us ik
Ġspe zielle
ich e
ĠVer waltungs
Ġ :\
B ild
D V
ĠVersicher ungs
ĠVerfÃ¼ g
Ġ3 7
ap t
98 66
ĠG ran
aup ts
nD es
ĠÃ¤ uÃŁer
ĠIn stallation
ĠGr Ã¶ÃŁen
997 94525
z one
em in
Ġbest m
k ern
nC o
ĠHot els
ĠWor te
re gel
ĠÃľber wach
k le
alif iz
Ġberechtigt es
ĠP ack
ĠGer icht
ĠCo de
Ġinteress ieren
ĠN RW
ĠMann schaft
ĠT i
re gen
ier efrei
Ġk rank
nLie fer
Ġirgend jemand
in os
98 84
Ġin zwischen
stÃ¼ck e
ĠS ession
ĠÃ¼bern immt
05 0
ĠbestÃ¤ tigen
ĠRo sen
W est
Ġg laube
nG eb
ĠS tern
eck er
ĠStimm e
rukt uren
ĠJ eder
86 9
ĠE vents
ĠPrem ium
45 9
08 9
ge ht
ĠHig hl
06 0
ĠVor sitzen
nL e
Ġkurz e
lan de
ĠT anz
omment s
gel assen
ĠPhil osophie
ĠFahr zeuge
gew Ã¶hn
Ġ3 8
}} \
ĠK ing
ge fÃ¼
23 0
ĠMag azin
Ġein z
ĠD ass
verstÃ¤nd nis
ĠM isch
ĠSp anien
Ġerst mal
Ġge prÃ¼
95 1403
is ieren
nHin weis
Ġ langen
ĠVer lust
T est
Ġtraur ig
951403 74
sha us
Ġl etzt
ĠDien stag
Ġab lehnen
ĠN atÃ¼rlich
97 16
ĠW art
ĠKoll egen
ĠSt ress
Ġhier fÃ¼r
ĠK Ã¶r
l ings
Ġf ranzÃ¶s
hÃ¶ he
Z B
ĠGu K
ĠHom epage
Ġsinn voll
76 9
ĠG rill
Ġber ichtet
N N
in anz
se ud
ĠfÃ¼hl en
Ġbe zahlen
ĠVor der
ĠP harma
ĠTeil en
Ġgen Ã¼
rie chen
ĠK licken
or a
Y W
ĠBereich e
T F
ĠR os
ĠRestaur ant
b ra
T B
usÃ¤tz lich
Ġrel ativ
ĠerfÃ¼ll en
au schen
ĠL ast
Ġgew Ã¤hlten
S O
S eite
ĠLe der
ĠB Ã¶
sch alten
ĠF isch
Ã¼r zt
nSch reibe
or ten
Ġc o
nEin stellungen
ĠS at
sp olitik
ĠMerk male
L ink
Ġl eiden
Ġsich ere
S K
, \"
wohn ung
aktiv ieren
4 03
Ġ 64
d am
ĠerhÃ¶ hen
ĠVor schriften
nAnt wort
ĠRo ad
Ġz Ã¤hlt
st ark
Ġge kauf
Ġkomp lex
oll ow
n n
93 65
Ġ 99
S tra
Ġd ata
ĠB ehÃ¶rden
arb eits
Ġ- -
ĠOnlin es
Ġsor tiert
Ġsich ern
ter min
A W
ge fÃ¼hl
J ahr
ast ian
ĠBl u
ont ag
Ã¤n ner
Ġt rocken
ot herapie
ab druck
Ġo ption
wer ber
Ġs itzen
ĠSt ruktur
Ġs Ã¼d
ĠMitt eilung
75 1
ĠSt or
98 55
26 0
Ġsch auen
ĠOr ien
73 9
AN D
Ġer inner
Ñ ģ
74 8
ĠFahr t
ko pf
Ġs er
ehr ung
gemein de
zug s
nD ownload
ĠKil ometer
jen igen
Ġl ive
ow eit
or gt
ĠR obert
k an
mÃ¤ÃŁ ige
Ã¼ hm
Ġprof itieren
M o
75 8
S D
ĠSt ock
Ġm ore
ĠTer r
E ff
ĠL ade
ber eitet
Ġw Ã¤ren
ĺ ħ
45 1
B ER
ĠAr tik
Ġst or
f i
Ã¤nd ler
ĠEmpf Ã¤nger
Ã¤n den
nKomment are
ĠSt amm
ĠBetrieb ssystem
Ġs k
ĠKunst stoff
x y
ĠNutzerer lebnis
Ġp reis
leist ungs
ĠZÃ¼r ich
ĠGar antie
ĠGem Ã¼se
ĠFunktion al
ikan ische
ig ner
ĠSch ritte
ĠB lÃ¼
nB eim
Ġhier bei
Ã¤ch ster
Ġfehl t
Ġ1 999
28 9
Ġ echt
ĠSti ftung
D atenschutz
gen er
Ġgemeins amen
qu ar
sei tig
Ġgesetz liche
ĠBl umen
ĠWer kt
ĠH art
Ġv irt
ĠTrain er
ĠWÃ¤r me
bar es
Ġlie ÃŁ
to koll
atur es
Ġge zeigt
r as
Ġun verbind
ĠEngl isch
K K
ĠSchw anger
spe kte
Ġgelten den
spiel er
54 7
isch t
Ġkont roll
ĠEuro pe
wei ten
k Ã¼
st art
ann ter
ĠVer m
Ġw h
ay er
F R
Ġbet rieben
ĠfÃ¼r s
Die se
43 2
Z L
ĠEin richtungen
ĠT emp
ĠMa c
ĠWeiter gabe
la d
ĠEr stellung
system e
ĠViel zahl
Ġb eit
h Ã¤ngen
and a
p g
w i
ad d
Mail s
o ÃŁen
ĠZu cker
ĠF rist
nS ehr
Ġdar unter
1 97
ĠAut om
ĠP e
ĠWo hnen
ĠVer g
amil ie
Ġs a
kÃ¼n fte
Ġex tra
r ic
nB en
Ġex empla
ver anstaltungen
ĠV en
nY ouTube
Ã Ń
41 94
ĠGeb iet
09 0
nB enutz
ĠSch auspiel
H B
U C
ĠHaupt stadt
is a
98 45
Ġn ack
Ġzie ht
ĠBrem en
980 23
ĠRes erv
Ġe v
hin weise
ĠBestell ungen
87 9
ĠE ss
Ġauf zu
Ġerz Ã¤hlt
ĠSpiel en
ĠF Ã¤lle
Ġha ve
ĠSupp ort
Ġverkauf t
p reise
i or
ĠgrÃ¶ÃŁ ere
ĠM io
est o
H J
erk ennung
ĠM ir
ak er
ĠB ildern
ĠSo und
P ar
ĠRicht linien
em en
ĠPrin zip
ĠlÃ¤ng st
Ġkosten losen
wirtschaft s
ĠRab att
sprÃ¼ chen
ĠBet reuung
fol gend
ĠÃ¶ sterreich
H and
Ġge halten
ab t
H D
U E
ay ern
rin ken
nIn halt
Ġd ritten
ĠD ra
ĠUn ited
ĠK lo
ĠBel ast
Ġer heben
Ġla g
Zust immung
get eilt
ĠBesch werden
Ġein st
73 0
Ġhand eln
Ġintern ationale
ĠgewÃ¼nsch ten
Ġangem eldet
h te
46 2
el la
ĠVer br
e den
ĠzusÃ¤tz lichen
66 8
mÃ¶glich keit
Ġbeant worten
Ġunber Ã¼hrt
ĠB und
Ġum gehend
ett be
ie ht
W Ã¼rttemberg
ĠÃ¼ber mitteln
Ġdar gestellt
ĠL udwig
p al
ĠÃ¼brigen s
ĠMon ats
k unst
Ġp oten
ĠA g
achel or
ĠKom fort
n es
t d
fre d
ĠK art
S ti
ĠEuropÃ¤ ische
ust om
27 0
ĠKr ypto
ĠSen ioren
tifiz ierung
se arch
ĠL ondon
75 9
ĠJo se
rank ung
K M
ar l
t Ã¤
Ġvergleich en
Ġbek annte
Ġmodern e
dr esse
ĠF le
ĠL eg
nK licken
Ġp lan
ĠSchm uck
ĠSie g
ĠÃ¶ffent liche
stechn ik
Ġh eim
998 84
N C
Ġge fragt
ĠStr eit
ĠM esse
ĠH immel
4 13
nC hrist
ord nen
en kt
Ġf ein
ĠV ielleicht
Ã¤hr ungs
ĠMo de
#### ####
z ellen
? ?
ĠUn ternehmer
ĠW a
rei tet
P ort
ĠZu hause
ĠGener ation
ĠOptim ierung
Ġprakti sch
03 9
Ġgaran tiert
ĠVerbesser ung
W E
eil ungen
if est
ĠH Ã¤lfte
eist ungen
77 8
ĠG R
Ġhochwer tige
ĠJ unge
Ġs auber
Ġn atur
nV ielen
77 0
Ġschn elle
on us
ne c
ICH T
wei st
Ġ 978
H Q
ĠP S
ĠNutz en
ĠHuman medizin
ĠEntschei dungen
( \"
ig uren
f os
Ġmus sten
99 996
ĠS ympt
Ġverst Ã¤r
V C
schein lichkeit
Ġo ut
ĠB rust
Ġinteress iert
Ġzu gleich
74 9
ĠNutz ern
Ġgesetz lich
ĠSpiel ers
ĠA fr
} \
ĠIn fo
Ġexempla risch
Ġkor rekt
W h
Ã¼r gen
zip lin
ch a
sch iff
p ul
r ische
Ġfreu e
Ã¼hl en
Ġnoch mal
ĠD E
ur ity
frei heit
Ġf Ã¶rdern
Ġa cht
ĠSch on
ĠMo untain
nAll es
ba den
icht ung
ub il
ra y
98 33
Ġ 95
mus eum
ĠBran chen
ĠAltern ative
nD aten
Ġle er
ĠVor stand
re ut
ĠHerr n
Ġvor stellen
nNot wendige
mel de
it ionen
4 21
98 46
nF ahr
Ġst ud
Ġbestehen de
98 88
Ġ lock
Ġleich ter
ĠbestÃ¤ tigt
998 91
1 91
ĠVer stÃ¤ndnis
ĠVertra uen
76 0
Ġpriv ate
ĠMin ute
Ġstark en
as zin
ĠSp itzen
Ã¤ch s
ĠD etail
ĠDar m
nF rei
on ie
k rit
980 8475
n ot
ac c
ir men
Ġmaxim al
Y G
Ġaus reichend
99 08
/ -
agen tur
Ġth ese
ungsver fahren
on y
Ġbes itzt
ĠP aket
ĠBr enn
ĠE he
omm ission
ĠAn f
spann ung
ha i
ĠH TML
nArch ive
ĠKat zen
p ers
ĠF ehl
Ġrecht lichen
ĠBeh and
en se
oo th
U p
ĠC enter
M B
Ġempf ohlen
ut in
nD anke
unter richt
nH a
europ a
ĠJ apan
8076 1135
ohn t
ĠBe f
nAn zeige
ĠInternet seiten
98 25
Ġgef Ã¤llt
ick e
Ġreduz ieren
ren z
âĤ¬ \
Â ¤
Ġ3 9
ĠFor men
Ġs ah
Ġle bt
prob ieren
Ġp lÃ¶tz
W F
anstalt ungs
ĠJ ust
I J
Ġ stellte
P P
in u
A DE
Ġer lauben
Ġam er
ĠSp enden
ĠHoch schule
Z Q
O ut
ich ael
ĠUr teil
ĠR en
ĠJahrhunder ts
wen det
Ġverhin dert
ĠR unde
ĠTa schen
ĠO pfer
B est
Ġviel es
ĠbeschÃ¤f tigt
Ġver Ã¤ndern
ĠFrÃ¼h stÃ¼ck
ĠLi zenz
eh me
Ġverein baren
it ation
ĠPan demie
ĠDein em
Ġpla tz
item ap
b art
Ġd ro
ĠQu elle
F inger
98 06
Ġg lauben
ĠBay er
ĠV o
pro z
A m
ĠAr znei
us h
Ġherz lich
20 08
ie fen
Ġget roffen
ĠWell ness
Ġ !
u c
Ġerst mals
S te
l ist
angebot es
sp or
geb iete
ĠG lauben
ĠNeu es
ĠEl ement
ĠAn sprechpartner
ĠGe werbe
Ġselbst verstÃ¤ndlich
ĠOrd nung
w iki
97 00
bi bliothek
ĠW under
sch l
ĠMedik amen
eu ern
Ġe ure
C on
ĠErwachsen e
ĠEin fÃ¼hrung
spf licht
ĠVerÃ¶ffentlich ung
Ġvertra u
Ġj eg
ro nen
Ġ up
B l
35 45
Ġk ostet
ĠDe ck
sch lÃ¼sse
65 2
ĠW all
ĠHier zu
ĠEntwick lungs
nTisch tennis
Ã¶r sen
te ste
Ġgegebenen falls
ĠN Ã¼rn
ar ben
leit ungen
ĠAn dere
44 2
v ider
li ver
44 1
ver zeichnis
ĠVer letzung
ĠMin er
ĠM Ã¼
âĢĵ âĢĵ
nD igit
ro st
Ġeigen es
ĠJugend liche
ĠJahr zeh
Ġnied rig
45 8
ĠProfess ur
So ftware
nK raft
Ġgew Ã¤hlt
roll er
Ġerhoben en
Ġauf weisen
nAut or
alt h
Ġn o
Z J
Te am
ĠS n
bel n
K omp
b rit
Ġm ont
schei dung
M C
Ġ 66
ĠKomm ission
sch te
ĠSystem e
r end
ĠC an
nC h
Ġein s
ĠZ ut
m acht
ĠSp iegel
ĠK ri
Ġab ges
ĠCo ron
kir che
ĠDre h
leg al
emp le
ĠS ehen
ĠL iter
Ġver wand
nH och
Ġnah m
bez Ã¼
ĠAb stimmung
af Ã©
d ar
ĠArch itektur
u tet
war en
ĠV ier
L aden
gesch Ã¤ft
Ġger aten
R P
ĠS icher
Ġgeb oren
Ġlo hnt
ĵ \
f ur
d ateien
ab ine
ĠVerk Ã¤ufer
ĠV iew
nHer steller
zug reifen
Ġsicht bar
sch ritt
ĠChe ck
Ġf rag
ĠUS B
ĠV al
ĠVor gaben
fern ung
ĠB oo
Ã ¨
O Y
ungs f
rem e
nSchlag wÃ¶rter
ĠUN D
her r
ĠA ka
con t
ĠWohn ungs
ĠzurÃ¼ck ziehen
Ġex emple
ei hn
g las
15 34
ĠVer hÃ¤ltnis
an walt
er gie
nP artner
id t
57 84
ĠY outube
H X
k Ã¶rper
ĠSek unden
plan ung
ĠP interest
Ġhab t
oc ument
ĠlÃ¶ sen
sch merzen
-- -
U J
Ã¶ffent lichen
ĠDav id
ĠK ein
fol io
ag el
900 98023
Ġzu lÃ¤ss
ĠMÃ¼n ster
46 9
ĠKarr iere
D u
nB el
ir en
Ġau ÃŁen
fÃ¼ll t
ĠR ou
Ġi Phone
st rom
Ġklein es
Ġle gt
N ews
Ġ 85
M A
ĠbeeintrÃ¤ch tigt
m ap
75 0
Ġc ategor
I con
ĠEn gel
ĠAben teuer
Ġerreich bar
Ġhin ten
Ġsch la
K B
ill en
998 36
los igkeit
Ġa pp
aff e
U Q
ĠCon tent
ĠW eil
bet ten
ĠPar is
ĠN ormal
' ,
998 06
z o
Ġg eist
ĠSchn ell
ili ate
6 00
Ġkonk rete
nweiter lesen
nL and
ett el
ĠG olf
ĠPer formance
N F
Ġein setzen
Ġkon zentr
N X
ĠÃ¤ uÃŁ
98 56
Ġin spir
AC H
W enn
ĠR essourcen
ĠG DPR
scha ff
ĠFÃ¤h igkeit
D es
hÃ¶ rigen
er o
produ ktion
ĠS hops
ĠEr hebung
ampag ne
Ġein geben
Ġst e
nV ideo
Ġintern ational
Ġehemal igen
Ġstark e
0 20
ĠS yn
ĠEr weiter
ul iert
pro jekte
te am
Ġfin anz
904 11
ĠM ut
ĠP ixel
Ġbr eit
geb nis
I W
ĠZ ivil
Ġ4 7
k w
sit u
pe dia
Ġein fachen
zie ht
nPass wort
Ġ eignet
4 16
wissenschaft liche
Ġs ystem
bet rag
fÃ¶rder ung
E n
Ġb auen
0 21
an en
etz werk
998 2
ĠF lex
Ġw e
ĠK Ã¤
Z V
B log
ĠC a
88 9
n ich
osme tik
Ġgr atis
em ark
ĠKon zert
c er
S R
nK ann
ĠM ad
ag iert
ĠEin blick
p erson
oc ial
Ġm Ã¶glichen
ĠBa uch
ĠStell ung
up load
ĠD at
Ã¤ use
Ã¼ndig t
ĠRis iken
Ġw eich
rah men
ĠBeschwer de
u a
ĠVerÃ¤nder ungen
nE mail
sch reibung
od ell
ĠSpieler bild
w ahr
95 64
plat ten
997 86
ĠFlug hafen
Ã¼ tt
Ġzu stÃ¤ndigen
EN T
ĠUn i
ĠT ur
lan gt
schÃ¤tz ung
Ġhin ein
ĠRo hr
figur ieren
ist an
Ġbegeist ert
rÃ¼f ung
ĠB rot
ĠH essen
ĠAn lass
ĠI ll
S c
98 16
ĠF ans
U CH
nN eben
ĠBe dien
off er
ent al
ĠC DU
ut lich
ĠOr gan
Ġsp Ã¤testens
Ġsch rieb
L and
ĠschÃ¶n sten
Ã¤ sser
ĠKrit erien
L i
Ġm uÃŁ
ĠÃ¼bern ommen
Ġso g
T X
beg riff
as k
k ter
all y
ĠK al
ĠHer stellung
ic y
ĠP R
st ufe
Ġbe zÃ¼glich
Ġho her
ĠAn droid
Ġintegr iert
ĠGrund lagen
ha ut
wor te
ĠBesonder s
as i
ed a
Pro gramm
nVer arbeitende
9017 088
Ġte st
ĠErforder liche
Ġauf nehmen
90411 663
Ġfrei e
Ġm et
998 86
ĠEin kommen
it is
ĠFeed back
Ġmein es
Ġa ust
ĠK olle
sch ech
ĠKranken haus
c ol
b und
98 64
nF AQ
ĠAn teil
s eller
h ungen
nR eise
K R
ĠMont age
ĠS eine
ĠH aust
ĠR ub
ĠAut omat
O D
Ġv s
ĠG l
a ster
Ġunver zÃ¼glich
g u
Ġhier mit
und ation
ho pping
ĠVer st
T o
Ġaus schlieÃŁen
77 9
nAll gemeine
to ur
sto ÃŁ
anst alter
Ġgeplan t
la ch
ĠHÃ¤nd ler
men ge
Ġoptimal es
Y Q
st ar
ĠBeitrag s
H aus
inn ern
Ġr et
ov id
G E
ron omie
wor ben
Ġb rauch
( )
p i
Ġj en
N B
ei tig
lich em
beh andlung
f tet
nS itzung
998 83
984 8795
Ġd atenschutz
ĠApp s
k lÃ¤r
44 8
ï ¸
nW h
Ġpla nen
ĠCh ancen
\" )
Ġbeein druck
bild ungen
Ġ arbeite
ĠViel falt
d own
ĠW in
Ã¤r t
Ġt a
48 2
wÃ¤ sche
ĠTo des
nA u
ĠT reffen
ik es
ĠR ing
k asse
fÃ¼ g
Ġer lÃ¤uter
wor fen
ĠKar ls
ĠVer d
ick er
deck ung
ĠR enn
recht lichen
di rekt
ĠG ute
ĠÃĦr zte
obil ie
ĠRe zepte
r ichtet
P an
Ġneu em
ĠOption en
Y J
Ġerh ielt
Ġhil f
994 75
ĠMar ia
Ġgel ungen
98 36
98 39
ĠSt atistik
ĠL am
Ġh ol
lie ferung
Ġa k
83 78
ĠI den
ĠWerk e
ĠBe werb
Ġunter liegen
re e
M T
Ġver geben
ĠSurf verhalten
ĠInternet browser
ĠInform atik
ĠBestand teil
eb astian
ĠS ollten
merk sam
t x
98 21
L G
s ung
br ingung
Sp iel
ep ar
Ġk Ã¼rz
4 20
ĠGeschÃ¤fts bedingungen
ĠPsych ologie
ĠSach ver
s ack
Ġgen annte
N utz
aut y
richt linie
ĠPart eien
Ġbeg rÃ¼
de cke
Ã¤d t
el be
o ires
34 8
ist ent
ĠSt o
ĠIn frastruktur
la ut
le hr
35 9
ĠAus nahme
ĠAlex ander
ĠChem ie
ann ien
Ġhin gegen
pp elt
ĠMa k
Ġbek annten
ul ieren
Ġp lus
Ġk inder
Ġ )\
ĠTh is
ĠÃ¼ber mittel
nV erk
ut el
43 9
s al
f as
ĠAuf nahme
ĠTra dition
stÃ¤t ten
rÃ¤ uchen
stehen den
pf lanzen
bÃ¼ ro
AD D
G e
ĠS um
ik ation
it ch
45 0
Â ¼
ĠEind ruck
ĠAn leitung
Ġwill kommen
qu elle
Ġge d
Ġzer tifiz
ĠV ogel
ĠY oga
ĠKap ital
ĠÃ¼ber zeugen
nG r
fli kt
Ġ1 998
iv es
ial og
Ġersch ienen
sch lei
ĠC ommunity
Ġoffen en
Ġz erst
ĠHig h
ne y
Ġ .\
ĠA st
ĠAn der
at ische
ĠN ein
ata st
ĠPublik um
C ommerce
ĠZu ge
9945 4194
Ġaus ges
l uft
och e
ĠWolf gang
ĠN erv
T H
hal tet
ĠI II
in ten
Ġm edizin
P I
c am
Ġgesamm elt
ĠIntegr ation
ĠF inger
S W
ver k
ĠTour ismus
ĠHa fen
ĠSch lieÃŁ
ĠK ann
id ar
Ġvor geschrieben
Ġb ildet
fahr ten
besch reibung
av irus
Ġvor genommen
Ã¼ sse
gehen de
ĠðŁĻĤ \
ĠL LC
antwort ung
Ġt op
Ġl ei
stÃ¤t te
Ġn ennen
Ġletz ter
ĠSt affel
ĠJohann es
om et
Z Z
ĠO bst
ampag nen
g ru
ĠBesch luss
Ġgleich e
Ġfrei en
m es
Ġzug Ã¤nglich
97 55
ĠAu dio
ĠO ster
f amilien
ĠErschein ungs
eben s
ĠĠ ĠĠ
ĠHier bei
ĠO s
ĠGemein den
74 0
um fang
far be
ge stellten
ĠVer z
ber lin
ĠM inder
nB uch
ĠR ester
ĠKontakt aufnahme
detail s
ĠGrab bel
Ġherab gesetzt
an aly
99 995
ĠDem okratie
ĠVerb ind
Ġt ollen
k ammer
Ġkur zen
ir r
Ġf ehler
ĠB auer
ĠFre unden
ige m
ĠGrabbel tisch
nE mpf
brit annien
2 20
ĠSch merzen
ĠFrÃ¼ hl
an ti
ĠRester ampe
ĠGemein schaft
998 33
Ġw est
Ġ1 990
ĠSe ele
nAb onnieren
nG en
bau er
ĠWahr heit
Ġverlin kten
3 16
n v
Ġent lang
Ġs et
8 01
Ġer Ã¶ffnet
Ġeingesch rÃ¤nkt
tem peratur
56 2
ĠR ett
ĠO ne
uch tigkeit
ĠEdel stahl
ĠDort mund
E ST
ĠR and
ĠF und
ungs mittel
V V
nB is
Ġg Ã¤ng
ĠS terne
ĠprÃ¤sen tieren
nN e
spe zif
P U
nN ecessary
it at
ĠW Ã¶rter
osit ionen
997 16
ĠC D
meld ungen
Ġan gesehen
Ã¤us ern
t itle
ĠGrÃ¼ nen
ommunik ation
99773 77
ho ff
g ier
Ã¤tz en
ĠH all
echn ung
Un ivers
ĠBen achr
ĠE IN
1 98
Ġzug reifen
Ġver g
Ġtot al
4 33
Ġm ach
ĠK Ã¤ufer
ot h
geb Ã¤ude
ĠAt mosphÃ¤re
m Ã¤r
999 23
fol gung
ĠGen ehm
i i
ĠO t
Ġg u
ĠWebsit eb
ĠFahrzeug s
eck e
gel eg
ĠA tem
Ġlief ert
schlÃ¼ssel ung
ĠLink edIn
ent wick
n h
st ik
O J
ĠF eder
ĠC HF
c ts
Ġgesch ieht
Ġgest attet
o tion
ĠS ehr
ĠKre ativ
Ġteil nehmen
ec urity
ĠAr g
ĠCamp ing
k ontakt
rat s
ĠMatt h
ĠG Ã¼ter
abil itÃ¤t
ĠK Ã¼r
ĠBesuch ern
ĠF akten
998 46
ĠAl p
97 57
Ġget r
n amen
98 14
N avigation
i la
4 11
sprech er
Ġeingel og
999 24
ĠSpann breiten
Ġd el
upload s
ĠEx press
Ġ4 1
licher weise
ĠW ies
2 91
Ġge dacht
ĠB MW
is st
N Y
me ter
Ġzw eit
ĠW affen
ec tion
nS a
mm obilien
per rt
36 8
verb rÃ¤uchen
ĠW en
Ġc om
er schein
ĠFakt oren
ĠJes us
ĠF ischer
ĠDatei en
ĠD ER
ĠB ir
Ġs Ã¼
ĠMod ul
Ġver dienen
eh nt
reu en
ĠH ost
atast rop
ad y
f Ã¤llen
F Z
Ġf u
98 18
ho se
ĠDaten bank
Ġbereit gestellt
Ġein stellen
ĠGrÃ¼n der
lÃ¤ ser
Ġeinfach er
Ġoptimal e
ĠOrien tierung
B ei
ĠSo ft
ĠQu ellen
Ġ6 00
i ps
k ind
54 1
9991 5
Ġklass ischen
P rÃ¤
ĠFunktion alitÃ¤ten
V ID
Ġsich eren
merk samkeit
98 26
Ġinteress anter
46 0
Ġs ehe
te c
nK urz
ĠBenutz ers
el a
Ġl ink
ĠWachst um
us ste
âĢĿ ,
nAn dere
ĠAl kohol
les wig
ĠB ru
ĠBesch reibung
fin anz
nKraft stoff
Ġn Ã¼tz
995 0
ĠAll gemeinen
ĠG eg
ĠM assen
o y
ĠAn wendungen
T W
Ã¼ber sicht
ĠBit coin
ab s
8 29
ĠHaus halt
Ġg Ã¼l
Ġunter scheiden
36 1
nA ktiv
9994 5784
Ġf ot
is ion
irurg ie
ibil itÃ¤t
65 1
ĠGer ade
ĠE le
Ġges undheit
ĠK le
ĠR um
Ã¼t ung
Ġl ust
ĠPol en
nS hare
Ġverm utlich
ĠBer atungs
W i
47 0
ĠAus gang
ers atz
an hÃ¤nge
ĠW es
f euer
ĠPla y
anz lei
wir t
ĠOut door
P artner
T G
ĠSt atus
ĠC opyright
E IT
Ġsicher lich
ĠSk i
ĠVers icherung
nD o
Ġgemeins ame
m agazin
nF ach
ĠGer ichts
far ben
ĠStr ategie
enk er
re publik
ĠD einen
ĠCon sent
le un
T ag
il ber
lar m
ĠPlug in
Ġgesch affen
Q Q
ur ts
hei mer
s v
Ġb Ã¼rger
her iger
ĠIr land
Ġbedeu ten
T h
Ġan s
M on
ĠMot to
nQu elle
ell schaften
ĠWL TP
Ġstatt finden
nSt ellen
ĠFil me
Ã¶ gen
ĠAn sicht
ÃŁ t
rei ter
ĠâĨ ĵ\
Ġh ar
f unction
ret ung
AR T
R B
2 97
Ġbeh aup
997 96
im ano
Ġmeisten s
Ġbegl eiten
nF ax
ĠG reen
Ġc an
ĠAut os
in det
nK ommen
U W
ce des
Ġsp rach
ĠðŁĺ ī
K J
ent s
Ġh olen
ĠG ep
Ġr ichtet
Ġerforder lichen
3 15
999 04
el y
ĠVerb and
ob ald
az ier
87 15
36 0
it ts
Ġbestm Ã¶gliche
n z
ĠAn pass
2 96
ph an
ehr t
ĠKaff e
ĠEr gÃ¤n
kauf en
Ġpro du
ir ma
ĠRech ner
ĠGeb Ã¤u
Ġst artet
nD ar
ĠBal kon
ĠFor ums
ber eiten
ĠVer f
998 85
ab schluss
Ġ[ ...
nH eute
Ġc omp
ĠFl or
ĠC ap
97 94
Ġdra uf
n r
Ñ Ģ
Ġweiter gegeben
geord net
ĠKÃ¶n nen
ĠLauf e
wand el
Ġsel b
lÃ¤ ger
EF Z
36 2
Ġi ll
ĠVer arbeitungs
Finger abdruck
Ġun ent
Ġm l
ĠC y
ĠRe de
ĠAr me
j pg
ichte ten
Ġung laub
nG ro
Ġin halt
gest alten
ĠLand schaft
Ġsch afft
Ġb undes
ĠAl pen
ĠSch ok
ï¸ ı
ĠL eider
ĠL eitung
998 76
Ð ½
D i
ark asse
ost Ã¼
op tion
orn o
nD ien
Ġdigit al
998 77
813 64
ĠverfÃ¼g baren
gn or
ĠSchul d
ĠF ertig
t al
Ġhin sichtlich
w olle
Ġer setzt
lÃ¶ sen
V J
d ay
ĠgrÃ¶ÃŁ eren
cht ung
ĠWil helm
olog y
ĠB ele
ĠB onn
ĠRat geber
ĠP r
7 17
Ġw eb
br and
ag o
m ak
nHer z
ĠF R
zieh ungen
Ã¶pf e
ichtig ungen
nH aus
dit ionen
ĠAgen tur
z iele
Ġver ab
ĠJahres zeit
ĠT ief
Ġgest ern
t ritts
un ken
ĠTh ese
ĠMul ti
be wertung
an spruch
ver anstaltung
ĠKa iser
Ġgekauf t
ĠHaus halts
k re
l ers
Ġ| \
ier er
utz ut
ĠLeiden schaft
l or
ĠInstitution en
ĠEin haltung
ĠAus wertung
Ġvor ne
sch Ã¤den
Ġb lo
Ġspe ziellen
lÃ¤ sst
l Ã¤nger
utzut age
Ġgekenn zeichnet
M D
aus end
Ġwieder um
ĠBr un
k ategor
ĠN orden
98 67
be f
ĠSch lei
zeit ung
ĠLand wirtschaft
35 2
ic an
ĠâĢ º
Ġte sten
ĠR ollen
Ġh art
fÃ¼hr ungen
ĠM r
98 44
ĠVer ordnung
ymn as
ĠT ipp
nK at
h orn
ar be
ĠFo undation
ĠLog in
. .\
ad rat
ĠIs rael
63 8
ĠGrund stÃ¼ck
Q J
er kt
ĠV om
Ã¼r k
Ġbe werten
ĠBest en
98 87
org ungs
ub le
ĠF onts
de utschland
ĠP ir
OLLOLL OLLOLL
ein formationen
Ġgest altet
p df
lan k
weis ungen
96 69
99 984
nWer bung
ĠOrganis ationen
ĠS y
ĠSpiel tag
AD C
ĠA spekte
vers icher
nMark e
Ġb lieb
jahr es
agn ost
ell ung
miss ions
de aktivieren
ver lust
ĠOr te
Ã¶ he
ĠEigen tum
34 1
ĠReg ionen
Ġd esto
sp reis
stÃ¤ndig keit
ĠEmpf ehlungen
u ps
nAn aly
Ġver knÃ¼
ĠgeprÃ¼ ft
ĠBundes regierung
ĠVers orgung
o be
Ġst ruktur
im al
ĠBeweg ungs
Ġ log
abel len
ĠFrem d
998 94
sel ben
BB B
Ġp ubl
ĠD DR
Ġauf merksam
fe kt
923 81364
997 1
ĠKlima schutz
24 57
N J
ĠIs lam
du le
rÃ¤ g
999 06
999 03
ĠT arif
999 21
Ġbehand eln
34 9
98 53
ĠBest e
nKraftstoff verbrauch
ur y
98 03
ĠPrivat sphÃ¤re
ĠPf arr
ĠInnen stadt
ĠB anken
Ġviel mehr
per ten
Ġb rit
zweck e
nE l
vor schriften
rei he
ĠFlÃ¤ chen
ĠVort rag
Ã¶ t
ĠAngeb oten
ĠplÃ¶tz lich
g Ã¤nger
Ġleben s
nP la
gar n
lug in
ar g
Ġh y
di os
ĠAkk u
8 12
ĠArbeit nehmer
ĠN och
3 11
Ñ Ĥ
Ã §
ĠL ohn
ĠAll gemeine
ĠVerein barung
37 2
ĠSchw eden
Ġha us
Ġtelefon isch
ĠT om
9 09
G L
8 10
Ġhistor ischen
Ġt rans
nD auer
Ġ rec
end orf
ĠBerechtig ungen
T O
Ġber Ã¼hm
Ġk o
In stitut
ĠMetho de
AC C
nVer anstaltungen
Ġw id
20 07
< /
Ġide al
ol er
ĠAufent halt
Ġer teilt
c lub
on str
nF Ã¶rder
gien e
uch st
ach ter
ĠS CH
Z Y
it iv
ĠK eller
Ġsie he
ĠUntersuch ung
nGes undheit
Ġv ar
AD A
M X
Ã¶ ger
stell ers
ĠB re
Ã¤ fte
W C
Ġne un
J Ã¤hr
Ġb rowser
Ġschwier ig
G rund
gra d
wÃ¼r dig
998 73
998 1
af el
Ġman che
ĠBau ern
ĠS ind
rie ch
b an
Ġv olle
nZ eit
999 00
ig h
ĠMil itÃ¤r
Ġd auert
Ġp ur
il er
V I
Ġaus einander
leist et
ĠMehr wert
ĠF an
ĠServer n
asch inen
ass el
ic es
n y
in gend
zep tion
ĠA ccess
ĠK Ã¼ndigung
ges prÃ¤ch
999 26
gesch altet
imm st
0 13
Ġwei b
7 27
t ein
ĠR uf
Q X
W elt
Ġein heit
Â ·
ill usion
V R
Ã¤h le
AT EN
nM edi
Ã¤ ger
ĠTh Ã¼r
ĠStimm en
m ein
wei z
Ġk at
beit rag
nJ o
nZahl ungs
ĠSer ien
cen ter
ĠGegen satz
Wir tschaft
ed t
rim ieren
io us
ĠAuf merksamkeit
zeich nete
ĠE ch
ĠNach dem
Z R
ser t
ĠZeu g
prÃ¤ che
20 06
4 14
Ġst ore
ĠOber flÃ¤che
ue ber
ĠEv angel
ie hlt
Ãľ R
etz e
er te
ese arch
ĠStu denten
Ġhoff e
Ġein iges
ĠMark us
ĠAn sprÃ¼che
ĠY ou
st ock
olog isch
nK l
Ġdire kte
Ġit alien
hem atik
ĠZu sch
tre ffen
ĠSystem s
sent ation
t l
Ġinstall ieren
rick s
ĠBahn hof
Ġverb inden
ĠDi ag
W ie
ĠW M
Ġung ew
re geln
ĠLog istik
ĠPat ient
ER S
la tt
sp rÃ¤
ĠW ichtig
E P
U Y
ĠÃ¶ k
nehm ung
K O
r unde
ĠPriv ate
F P
ĠArbeit splatz
ĠWerk zeug
Ġj ener
Dien st
d or
ian ce
lÃ¤tz en
CH A
98 63
98 54
999 22
ĠKir ch
Ġd amen
siden ten
98 05
f it
ĠTr ink
uÃŁ ball
Ġsorg fÃ¤l
pf ung
ĠVit amin
ĠIntern ationale
ur st
Ã¤r ten
sw Ã¼r
ĠZ eich
ĠVerkauf s
ĠVerteidig ung
n inkl
n zur
5 11
ĠAuftrag sver
ĠUmf eld
ĠGerman y
ĠHil fs
37 1
Ġange passt
nM obil
s icher
Ġbeob achten
Ġp re
F T
ĠglÃ¼ck lich
ĠGlÃ¼ck s
in formation
eg an
998 55
ĠStÃ¤d ten
ĠO hr
ĠEr b
ĠstÃ¤r ker
Ġd r
ĠUm zug
n und
> >
ĠDan ach
ĠBes itz
ĠK e
ĠInt elligen
ĠEben e
997 75
ateg ien
0 27
Ġk ap
Ġent scheidet
Ġum gesetzt
ĠS ollte
stru ktion
ĠGe fÃ¼
ĠVert rieb
Ġbegl eitet
ĠD ist
Ġer innern
y ch
Ġa c
M ar
or ge
6 24
j ob
Ġp rivat
u ppen
Ġhervor ragen
Ġgener ell
ĠPar lament
ĠL ot
st eine
98 24
N W
n itz
Ġab s
ĠImm un
nH ilfe
com p
st unden
Ġnachhal tig
r id
ĠL ande
ĠgewÃ¤hr leistet
â ľ
az z
98 43
Ġbet ten
ĠAb teilung
ap er
ĠAnaly sen
w uchs
Ġbesch lossen
998 93
ĠK ino
ĠZur Ã¼ck
ĠDok umente
ĠHand eln
ir ks
3 08
ĠEing abe
ĠAm t
rach ten
Ġent deckt
schie de
ĠB reite
Ġge prÃ¤
rau ÃŁen
Ġ5 6
Ġsonst igen
ĠdÃ¼r fte
m edi
be stand
ĠF al
ĠAut ob
Ġ ref
lin ks
Ġges und
st atus
ĠBe ob
nM ontag
998 96
ĠS ter
ett ings
33 8
ĠFÃ¤h igkeiten
Ġschm uck
99 994
ĠA mb
Ġdes illusion
nSt adt
ĠV ielen
H ol
anz ler
ad ing
g it
ï »
ver hÃ¤ltnis
geb racht
ul ti
Ġ orden
ĠMitglie dern
ĠE ck
Ġb lau
ĠJugend lichen
ĠFinanz ierung
ĠU RL
F ahr
ĠF lie
us er
W eb
8 90
ĠHoff nung
ĠM ore
ĠKin des
ï» ¿
nL inks
rieg elt
Ġwunder schÃ¶n
ĠÃ¼berwie gend
Ġ5 2
nR ef
ĠverÃ¶ffentlich ten
ir l
Q G
ie ben
reib ungen
ang aben
ula re
Ġkom fort
ĠNÃ¼rn berg
Ġspe zi
mach er
in sel
Ġ ti
22 25
3 17
ĠSchw ier
ĠTest s
k lar
ĠMitglied staaten
Ġbe drÃ¼cken
Ġon ly
ĠVoraus setzung
ĠNacht ruhe
ĠEin wohner
um pe
eng l
at iver
B M
ĠDaten er
ÃŁ er
nSo fern
K X
il de
ĠG ala
Ġwes entlich
ĠW iki
93 51
pe kt
zÃ¼ g
998 74
Ġ5 4
nR Ã¼ck
ĠR einigung
ĠAll ein
Ġbestehen den
Ġ 77
c s
Ġkomplet te
Ġw ollten
AF A
998 21
ĠB utton
fil es
999 27
) ","
Ġgel angen
ĠÃĸ k
ro hr
utsch ein
Ġfr isch
44 9
986 73
ĠAn nahme
nV imeo
ĠM c
35 0
Ġbe geg
Ġre al
S a
sk alender
ĠBest Ã¤tigung
z ehn
Ġbestimm en
grÃ¼n den
ĠH ack
nLog in
nUr laub
999 25
Ġdep rimieren
ĠF lo
ĠFa vor
Ġdesillusion ieren
ĠB y
47 2
iel ten
ĠR ichtigkeit
Ġverz ichten
ĠPlug ins
aus schuss
7 74
Ġd Ã¼n
ĠDe z
ash ion
N P
Ġgen auer
nSp iel
ĠAb wicklung
ĠAus fÃ¼hrung
ĠKap it
Ġge pf
Ġl es
ĠDienst leister
Ġdies bezÃ¼
jen ige
ĠUp date
Ġposit ive
ĠWahr scheinlichkeit
ĠMittel punkt
k u
98 27
Ġzusammen ge
nAr t
geb ir
Ġbem Ã¼
ĠBe ziehungen
sie ht
ĠBe werbung
98 13
ĠschlieÃŁ t
Ġ1 80
33 2
Ġexper ience
el den
Ġmo tiv
E BB
3 05
schei d
ĠerlÃ¤uter t
ĠBÃ¼ hne
ĠAn s
Ġm ache
97 84
ĠEin en
str asse
ĠWand el
nD ann
ĠZ iff
am b
ĠBeit rÃ¤gen
Ġgel egt
gesetz es
w eich
Ġex klus
m i
ĠBran denburg
ech er
fen ster
ĠhÃ¶ch ste
ĠK amer
ĠR ich
ĠIdent itÃ¤t
ĠÃ¼ber sch
Ġange k
Ġange fangen
um b
Ġn ew
Ġg rÃ¼
Ġst eigt
st ate
W eiter
7 00
ĠCO VID
bau ten
rau ben
ĠBe geg
... .\
997 06
Ġfest gelegt
Ġin c
Ã¼ gelt
nÃľber sicht
8 02
ĠB ast
Ġgew Ã¶hn
Ġbestell t
ag ue
k lass
nec essary
nN och
7 13
ĠRelig ion
ĠKompon enten
p re
ĠWeiter en
k eln
7 23
b ogen
Ġunmittel bar
ĠG riff
k rÃ¤f
aut o
ĠL au
ĠÃ¼berwie gen
ĠAc count
le hnung
Ġt ritt
nPro f
4 22
swÃ¼r dig
Ġzu zugreifen
ĠPh ot
ĠD einer
stu dien
33 1
brid ge
R S
sh ip
Ġfre ut
enn is
Ġch ar
ĠRech nungs
nF olge
lick t
fer ien
ĠH alle
ĠS IE
Ã¼t te
A ED
am stag
ĠB ab
ĠHeraus forderung
h st
st eil
ĠCon version
ĠBran che
ĠB ill
ĠhÃ¶her e
f u
ĠV Ã¶l
ĠFern seh
flÃ¼ ge
Ġbeg rÃ¼n
alis ierte
ĠJob s
nW ohn
Ġkommen tiere
97 86
bl Ã¼
ok ument
li sten
ĠProdu ktions
ier bar
F Ã¼r
98 00
8378 1534
ĠÃ¼berprÃ¼ ft
ĠMen Ã¼
ĠkÃ¶n ne
Ġdurch schnitt
arbeite ten
Ġkosten frei
Y Y
ĠhÃ¶ch sten
37 8
ation aler
Ġeingelog gt
Ġbet reiben
metho den
Ġbestimm ter
re de
Ã¤ch te
ĠSor timent
ĠR Ã¼st
lan ze
unk el
nA pp
st ige
Ġ 89
b rief
b orn
fahr zeuge
Ġproduz iert
Ġdurch fÃ¼hren
98 38
Ã¼n dung
ĠMotor rad
ĠAb stand
ĠIns besondere
Ġp o
nS eite
akt or
ativ es
37 9
Ġfor dert
Ġ8 00
view s
Pro jekt
Ġund er
W as
f ot
ck t
ug h
Ġvor gestellt
ĠModer ator
ĠRhein land
ep t
ĠPort ug
Ã¶ mm
ord s
Ġver Ã¶ffentlichen
3 09
ha be
ĠN EFZ
amen s
Ġsch icken
ĠUrs ache
ĠVerbrauch s
97 73
ĠH Ã¶ch
ĠText dateien
ĠS V
leb nisse
f iz
programm e
apt cha
ĠZ usÃ¤tzlich
Ġauf gebaut
Ġbein haltet
Ġ5 3
ĠC ons
ĠKrieg s
ĠBet rag
5 76
ĠRe k
f utter
F O
ĠL at
eig nen
ud ie
Ġerle bt
rei ft
be gl
ka sten
Ġempf iehlt
Ġdeutsch sprach
Ã¼ ben
Ġg laub
ĠIn itiative
ĠOb jekt
Ġvor nehmen
Ġge he
ĠM aler
ro log
nS ocial
ef Ã¤hr
Tra cking
ĠSch merz
ien te
ĠWer b
B CB
Ġtra in
33 9
Ġeinge tragen
ĠQu ar
Ġjur istische
B G
Ġf air
Ġerk enn
nKategor ie
n iveau
998 66
Z C
sch wer
ber uf
ĠSÃ¼ den
on ia
Ġin nen
t age
ur r
ĠerhÃ¤lt st
ĠGra mm
Ġzeig te
ĠÃ¤hn liche
ĠhÃ¶ch st
Ġreduz iert
âĢ¦ âĢ¦
Ġgel eckt
Ġ reichen
St adt
Ġeffe ktiv
im er
Ġgeb Ã¼gelt
qu ellen
Ġver an
m isch
ĠF ett
ein satz
K reis
ĠW urz
44 0
98 23
ĠWeiter bildung
Ġ 96
ro tt
ĠKur se
p ersonen
ĠEl emente
spf lichten
ru e
ĠK leidung
ĠSo weit
6 77
ad el
V L
D J
4 06
nE lekt
eist ung
inu ier
ĠAng riff
ĠMiss brauch
ĠEx tra
li p
Ġeingeb unden
Ġdiver se
U r
nE uro
s id
999 11
998 95
3 04
ekt or
ti gem
998 26
ĠKon kur
ab r
55 2
Ġren omm
komp l
ĠL td
Z eit
99 10
ĠAuf wand
R C
p at
ĠProz esse
Ġ5 1
ĠFass ung
ĠEing ang
Ġ land
Ġverst anden
p osition
ĠGeb Ã¼hren
ĠNieder sachsen
in fe
r ischen
ĠTe e
ĠAu di
EF A
Ġgleich er
nR ed
Ġgel ernt
9997 6
au g
F AB
56 8
k as
Ġro t
Ġprofession elle
Ġstamm t
gleich en
f onds
ĠjÃ¤hr lich
or der
Ġhochwer tigen
Ġinstall iert
ĠC ann
Ġl Ã¤dt
35 1
ĠWL AN
ie ber
nRep ly
eb t
nArtikel nummer
ĠBeispiel e
rÃ¤ t
ĠP ause
36 9
Ġhinter lassen
zens ionen
nRe ad
20 05
sch lagen
emitt eilung
973 43
Ġ content
mÃ¶ bel
Ġkonk reten
sh eim
Ġver lei
3 06
Ġangen ehm
Ã¼ch tig
Ġh eil
âĢĭ \
riechen land
Ġs eiten
and t
Ð º
anz eige
Ġech te
ĠLab or
ĠCent re
P M
ĠModer atoren
ĠJ ack
Ã¤ng ern
ĠEr wart
es p
Ġv ollen
ĠGraf ik
ĠSteu ern
qu enz
Ġ ter
St rom
nD amit
5 14
ĠVor lage
del berg
w unsch
i am
ĠWor k
in sen
ĠSperr ung
vers and
Ġet abl
Ġgest riegelt
f z
998 28
ĠA ction
97 83
ĠS ammlung
ath ie
nS pe
Ac count
eig ern
ĠK ul
Ġan schlieÃŁen
ĠErk rankungen
47 1
998 13
ĠVor bereitung
th is
Z M
spruch s
ĠH ell
ĠWest en
ĠL isten
Ġc ool
35 8
ĠZ Ã¤
L E
ĠÂ °
ff erenz
b Ã¤
34 0
ĠMus kel
ĠRicht linie
CC C
die se
ĠErn st
998 45
N M
gem Ã¤
ir st
ĠEin heit
om an
Ġerz ielen
Ġgel iefert
nS elbst
ĠS oll
D o
Ġh alb
In ter
ĠChe f
Ġn avig
Ġhei ÃŁen
Ġfor dern
ĠerwÃ¤ hnt
Ġnahe zu
OR T
9978 982
G eb
ĠauÃŁer gewÃ¶hn
ist in
SB N
nAr beits
Z u
ĠBild schirm
in are
S I
ĠNach frage
ĠC al
ĠEurop as
64 2
ĠVers uch
Ġerweiter t
98 77
ĠGen au
nK arriere
ch ester
ĠR ost
Ġent stand
ĠKon tra
nD an
Ġo ur
Ġf ern
nt eilen
ĠBer ater
ĠS lo
K Y
ga st
Ġauf gel
an frage
ens ion
ĠB achelor
Ġnach voll
k g
Ġ ordnungs
v ar
ĠEr z
Ġan ti
par ty
ur es
k linik
ĠFest ival
Ġum welt
A J
ĠAus bildungs
Ġmus ikal
55 1
ĠTelefon nummer
ein richtungen
99 993
ĠG re
i ft
Ġsicher zustellen
ĠBer Ã¼cks
tra ining
ĠFrÃ¼h jahr
Ġm ay
g ing
ĠSchne e
ĠAka demie
ĠSh imano
Ġge gangen
ĠI V
ĠH ab
Ġnachhal tige
Ġge baut
Ġkein em
st imm
ĠHand lungs
ĠSch atten
ĠTex til
nM ichael
r elev
in tern
geschn itten
ĠNewsletter s
Ġbeg onnen
ĠImm obilie
issen schaften
!! !
kti eren
Ġw ind
sp unkt
ĠZentr al
em ail
dern e
47 8
Ġunbe k
Ġf eiern
ĠMat omo
ĠAb schnitt
ĠV an
Ġzu geordnet
4 76
ĠK andid
ĠMitarbeiter n
Ġhei a
nWir tschaft
Ġjeden falls
4 26
ĠK und
ment s
pp ich
F BB
ĠH yp
kon zept
er y
nÃĸff nungszeiten
Ã¤uf ig
sp erren
as ing
zub ehÃ¶r
ĠPfer de
wei g
ĠGeschÃ¤fts fÃ¼hrer
V M
ĠGesetz es
Ġerz Ã¤hlen
C ode
96 95
p raxis
F EB
ĠSchÃ¼ler innen
ad aten
zus ehen
ĠOnline angebotes
a ul
Ġviel er
Ġsch ul
sw issenschaft
Ġvor an
Ġjetz igen
ck s
Ġget an
Ġt hem
A nt
Ġb rachte
schn itts
Ġdenk bar
ĠberÃ¼cks ichtigt
ir itu
ro man
ĠKr ise
Ġf arb
97 46
se k
ger ichts
ĠLese zeichen
ĠAlb um
sp er
ĠAus gaben
Ġver lie
oll t
st Ã¤d
mo de
n acht
6 11
ĠP aar
z iger
33 0
ĠR eh
ĠGel tend
Ġst ill
Ġerinner t
Ser ver
Ġk r
id a
998 23
Ġgeb lieben
Ġgro b
St u
ĠAutom obil
64 1
ĠPort al
L Z
Ġdam al
ran sport
ĠUnter lagen
gew inn
Ġges onder
Ġintens iv
67 8
Mark eting
ĠhÃ¶her en
Ġversch w
nN Ã¤chster
E AB
Ġan zub
Ġz us
all el
ĠBe wohner
ĠGeltend machung
Â« \
ĠDenn och
B R
Ġbisher igen
Ġoffi ziellen
ĠC ow
hand lungen
Ã¶l f
m edia
â Ħ
nPost ed
Ġkomm er
ĠB ord
ĠKar toff
Ġvor zu
Ġb au
Ġd etaill
ĠAn na
F r
Ġâ ľ
af r
34 2
Ġ ei
Ġel eg
Ġbelieb testen
ĠSc ience
! âĢľ
ĠStu dio
ĠPrÃ¤ sident
ruf e
97 66
s ub
ĠSp itze
ĠC arbon
a sten
ĠAuf t
ĠMie ter
ges undheit
ĠSteu erung
ĠSchwanger schaft
ĠSp ar
a sche
nT eil
hand lung
ĠAuf lage
Ġend g
ĠAuss agen
ĠJ ubil
nK ultur
Ġkurz er
ĠIn gen
as y
998 24
Ġevent uell
ĠKant on
Ġwirk sam
sp rÃ¼fung
hÃ¶ rige
vor gÃ¤nge
ĠB ook
ktiv itÃ¤t
eren zen
beweg ung
em ann
ĠG ang
Ġelektron ischen
994 0
3 03
Eff izienz
spar enz
P reis
Ġunbe grenz
fÃ¼ll en
ĠAn wendungs
bran che
nL esen
ĠKap itel
Ġschl imm
ver tis
Ġhe utzutage
ruf bar
f indung
Ġspannen de
4 18
re d
f Ã¶r
nAls o
4 25
ĠR enten
gesch lagen
Ã¼t ter
Ġges perrt
aus bildung
e get
aut omaten
ĠS us
ĠD ialog
nJ obs
nJ ahr
ĠE missions
recht lich
nO rt
ĠCh at
ĠF ront
ĠPubl ish
gen t
egen heiten
p os
ĠB arb
d ata
Ġerst es
ĠZ auber
ĠO pt
ĠVerÃ¤nder ung
ĠBenutz erkonto
Ġv ari
S H
wirtschafts lehre
ĠTrend s
7 16
ĠF antas
ĠSt ich
Ġaktu alisiert
Ġbet rifft
ĠHein rich
N Q
z ettel
Ġmein t
zahl ungen
L inks
p ut
Ġgew isse
nSt art
stit ute
lie be
ĠKing dom
stre et
U D
Ġf aszin
Ġd ritte
ĠS omit
ant ast
ĠWohn ungen
ĠVarian te
ĠStre cke
ĠergÃ¤n zen
Ġre den
ĠSp ur
Ġl eistungs
eg er
ĠBer ichte
â ĺħ
K Q
94 04
Ã¤n emark
le hen
nM at
78 2
9996 415
ĠK lin
et ooth
m p
ĠE N
we et
ĠWorks hop
nM on
an isch
ĠmÃ¼s ste
Y C
4 24
4 27
4 23
ĠFrei burg
mens ion
B uch
sen s
Ġk lÃ¤r
63 1
ĠFern sehen
S X
Ġirgendw ann
Ġer b
3 27
97 96
ĠfÃ¼hl t
. [
3 23
ĠspÃ¤ter en
Ġo per
E Z
att el
g reif
ĠRe aktion
9993 5
B es
M et
Ã¶r en
ĠGesch lecht
f leisch
55 0
Ġst immt
998 14
Ġbereit zustellen
ĠErwachsen en
Ã¤hr ungen
Â» \
hÃ¶r er
tra um
k Ã¤
58 2
ab wicklung
983 9669
j s
3 14
scha den
ĠC omm
Ġausge zeichnet
l Ã¶sungen
W J
tisch er
Ġb la
bel ehrung
ĠN ie
Ġbe endet
998 04
Ġgel ang
Ġch ron
fÃ¼hr te
od urch
um pen
ifest yle
ĠS zen
J ugend
n zum
nS hop
Ġch rist
Ġschwer en
T T
99 997
ĠG la
categor y
Ġpass ieren
Ġb un
ho st
3 13
Ġer teilen
Ġs epar
ĠG alerie
3 25
ymnas ium
ahr en
97 45
k lassen
p il
Ġs h
20 04
Ġdeutsch land
yc ling
Ġp ri
ĠergÃ¤n zt
ĠVor stellung
Ġverl Ã¤nger
9997 5
Ġaus sehen
Ġabsol v
V X
Ġst eckt
ĠLie b
ĠSympt ome
Ġh undert
geb Ã¼hren
ar get
Ġs ens
Ġstimm e
ĠStimm ung
nB au
ĠS eg
998 56
mit glied
d ach
Ġzu ge
ĠSitu ationen
ĠB atterie
Ġc asino
Ġber ichten
Ã¤tig keiten
ĠF erner
nB undes
nN ein
in stitut
K A
K P
Ġidentifiz iert
ĠEner gien
ĠFrie d
Ġverb ind
d ann
F M
ĠB em
Ġoffi ziell
ĠPro p
ĠBerÃ¼cks ichtigung
test et
ir che
ĠS endung
ĠB Ã¼r
nTer mine
scha fter
stehen de
Ġnormal erweise
Ġver sehen
Ġgesp ielt
nAn dre
Ġver f
st rÃ¤ger
ĠHÃ¶ hen
tz eit
4 75
ĠAn satz
ĠP assen
ĠF utter
uss ball
ĠK rie
77 28
nP olitik
Ã¤mpf ung
ĠB Ã¼nd
998 27
Ġvor ab
Ġerheb lich
ĠGest alt
Ġorganis iert
nT ags
ĠErinner ung
ĠDe kor
g st
3 26
geb lich
64 0
Ãľber sicht
ĠAngebot s
ĠK lang
Ġan st
au ben
nSt u
vel op
63 9
ĠSonst iges
Ġ qualit
ĠAb o
in form
ĠberÃ¼cks ichtigen
ĠTri p
Ã¶ schen
81 97343
lo hn
Ġkom peten
akti k
ĠNamen s
Ġgel ingt
ĠEff ekt
Ġmont hs
gesetz ten
998 97
ber echtig
ch ern
N ewsletter
ha gen
Ġer w
Ġzu gelassen
98 911
nF rage
nL etzte
men te
Ġwirtschaft lichen
ent sprechend
ĠAuf grund
Ġm essen
ĠAff iliate
ĠG umm
. ),
st Ã¶rungen
Ġverbesser t
53 1
âĢĶâĢĶ âĢĶâĢĶ
r sg
ĠG B
U Z
Ġkont inuier
ok er
8 92
54 2
Ġk Ã¼nst
ri lle
ĠC lass
Ġverurs acht
Ġm iss
Ġrech ten
get reten
ĠH als
98 98
ĠCo ach
Ġhilf reich
hÃ¶ hung
7 06
recht liche
ĠGemein sam
ĠDatei anhÃ¤nge
uss ion
swÃ¼rdig keiten
rec t
ĠAuss age
Ġver dient
em m
ĠSchm idt
47 9
A AB
AC D
F H
Ð ĵ
ĠRei hen
ĠEinzel fall
998 25
3 19
4 05
ĠSign atur
ĠGesch windigkeit
ĠBundes liga
fÃ¼ gen
G G
8 19
Ġf rauen
c la
Ġâ ĸ
ĠSte ck
ĠM os
sp aren
pr esse
ĠCam bridge
b rÃ¼
nS itemap
ĠPost s
ha f
998 22
as sten
ĠN ote
ook iel
Ġbe arbeitet
ĠNeu igkeiten
O Q
ower ed
] .
ank ing
elig i
Ġd rauÃŁen
ĠVor gehen
Ġge zogen
dienst leister
Ġan fordern
ĠAmer ika
Ġf er
reib ungs
âĨ ĳ
Ã¼ ro
ĠBÃ¼rger meister
91 85
it iert
Ġfest gestellt
greifen de
auf bau
Ġreich lich
nS icherheit
fol ger
ĠWiderruf srecht
ĠWill kommen
Ġerleich tern
gr enzen
Ġsod ann
ant el
ĠWien er
aktiv itÃ¤t
ĠK iel
aus stattung
ĠEin trag
arn ing
aaaa aaaa
ĠR ichter
4 74
âĦ ¢
Ġbe zahlt
Ġwunder bar
ĠH at
ĠEin trÃ¤ge
ĠbeeintrÃ¤ch tigen
Ġger inger
ĠT u
plan t
nEn gl
P ol
pro f
ĠUnivers itÃ¤ts
ĠMa gen
Ġdurchs uchen
Ã¤n dige
ĠRe al
Ġp art
998 00
T D
ma x
ĠTour en
97 14
7 73
Ġbesser en
w el
ĠEntwick lungen
Ġgelten d
Ġdie jenigen
polic y
Ġverst eht
Ġverschieden er
ser ie
98 37
Ġi gnor
ĠWh atsApp
ĠP ool
456 74
ser ver
Ġw odurch
nW eihn
97 95
ĠJu den
97 36
ĠTÃ¼r kei
S tar
ĠF onds
ĠC ovid
ĠEn tz
nSe arch
at ien
Ġbean tragen
EF B
Ġerfolg reichen
nN un
Ġfreiwill ig
Ġzust immen
nB ilder
Ġverl etzt
utt ons
ĠÃľber ra
ĠKont roll
ul Ã¤r
ĠAktiv ierung
Ġbas iert
nF alls
S chn
s u
em on
ĠL ok
ĠJ er
Ġcategor y
ĠstÃ¤r ken
ĠVer sch
it ekten
K I
t el
nBer lin
Ġb ill
Ġzw ingend
ĠEnt fernung
K N
Ġer zeug
ĠH alt
Ar tikel
sy l
) :\
K C
ĠÃľb rigen
ĠSch au
schn itte
ĠwÃ¼n sche
ĠkÃ¼nf tig
ookiel aw
on nerstag
ake te
ĠK Ã¶
ĠN avigation
ĠF unk
55 8
b anken
c ard
h ls
V W
ĠH ub
bet reuung
proz esse
Ġf ra
ef eld
F eed
66 1
R ei
P X
Ġbetrach tet
E LL
k rÃ¤
A EC
ĠGel Ã¤nde
nW Ã¤hrend
Ġausgew Ã¤hlte
ĠD ollar
ĠE hr
em a
ookielaw info
ĠGe fahren
nI mmer
da ktion
lam pe
nE nergie
ut r
ĠBest ehen
ĠB ehÃ¶rde
at ers
Ġauf gerufen
4 04
ĠC B
fahr zeug
sch altung
ĠEin verstÃ¤ndnis
7 26
tra gt
nG emein
9365 2457
a pe
ĠfrÃ¼ hen
ĠSing le
rill en
ĠF eiert
ĠDis play
Ġwar m
97 75
F X
973 45674
zeu gung
m u
ĠL ock
rÃ¤ glich
98673 105
Ġun kompl
ier s
ĠF luss
o ter
Ġtats Ã¤ch
ĠSch uhe
Ġdrin gend
peten zen
Ã¤n digen
Ġbel iebt
echs elt
ĠB ig
dit ions
ĠP reisen
ĠS orgen
et tet
ĠIn g
p ool
pl emen
nc ookielawinfo
ag ra
93 16
West falen
la f
97 74
Ġqu alifiz
lÃ¤uf e
N ame
it tern
ĠSch leswig
998 43
Ġger echt
ĠAt om
ĠAus flug
Ġges prochen
l eiten
ert al
ĠM ach
b it
998 65
at ischen
ĠTra uer
ĠEuro von
ĠGen uss
Ġ1 996
7 75
et reiber
sp unkte
0 74
lÃ¤ ub
st il
ĠStÃ¤r ke
ĠGutsch eine
Ġdire kten
ĠSon g
z elt
h otel
nAut o
bet eil
ffffffff ffffffff
5 16
m ber
kra in
Ġ+ ++
ĠPf lichten
ĠH D
ĠDen ken
ĠEr halt
ĠGetrÃ¤n ke
Ġall gemeine
us iness
ĠS ebastian
at ar
Ġte uer
Ġor ien
ĠRa uch
fÃ¼hr ende
ĠN iveau
ĠKont akte
ĠTemperatur en
Ġver bringen
ĠEin heiten
st age
it ur
Ġ( Â§
Ġmit ten
Ġdem entsprechend
98 04
Ġrelev ante
ĠRech er
ĠT ank
p olit
ĠSch Ã¤
Ã¶r g
6 22
998 03
ĠPharma zie
Ġfolgen der
Ġer worben
el f
Ġung efÃ¤hr
is ierter
Ã¶n nen
nH inter
zi ale
ide en
CA PT
AA A
Ġersch ien
nH aben
o fen
B AB
I EN
organis ation
Ġm g
ĠTel ek
9996 14
Ġ 76
6 75
el ekt
ĠEr ste
Ġem otion
3 45
ĠtÃ¤ glichen
ĠkÃ¼ mmern
B ED
998 16
4 73
b aus
3 84
Pan demie
nP ress
Ġrech tz
ord net
se kten
ĠH obby
Ġz og
ĠAd s
ĠE ich
ĠE gal
Ġ 73
AC E
Ġdar stellen
ĠKon s
ĠWÃ¤r m
97 87
nW ill
R Y
Ġper man
BE IT
Ġh ell
on i
97 65
ĠBar r
ĠKri sen
kon om
bed Ã¼rf
nD ein
ĠMa y
4 45
CAPT CHA
ĠO ver
ĠZ y
izi ent
Ġmobil e
P ad
d l
F J
Pf alz
ph ones
ĠÃľb ungen
ĠBuch ung
ĠIn dividu
Ġlie fer
ĠH Ã¤
orn ame
nF rank
ant eil
Ġan f
DE A
ĠE u
7 86
ĠEin k
Ġver mitteln
ĠWettbe werb
ad ies
o hne
ĠDe c
ĠOl ymp
m edien
M en
b reite
ei z
ĠBet racht
c ed
am burg
a j
Ġt r
ĠVerfÃ¼g barkeit
eh le
Ġinvest ieren
Ġum s
Ã¶ m
ĠBeg rÃ¼n
ĠRestaur ants
Ġmit hilfe
hei zung
997 93
Ġer setzen
Ġm Ã¤nn
Ġ6 3
ĠOff ice
ĠBas el
ĠProf ession
l Ã¤ndern
zen ten
Ġgem Ã¼t
ĠK lÃ¤ger
ĠDi pl
Ġschn ellen
Ġerfolg reiche
Ġan sprechen
96 04
Ġo k
tern ehm
gesch ichten
Ġver boten
Ã¤ le
un en
5 21
woch e
ĠE mo
V Z
rin ge
ĠPla ttformen
n Ã¶
mÃ¤ÃŁ igkeit
Ġd ato
rich ter
Ġsch au
0 73
wen der
an gt
reich er
Ġnormal en
ne ter
98 20
r alien
Ġdeutsch er
ĠUrheber recht
nG ast
ĠS m
ĠEben so
AF F
Ġunent gelt
Ġm ar
997 24
nd as
deutsch e
O Z
nM einen
ĠKalender jahr
n ein
our en
an ischen
Ã¶n e
ĠEntschei dungs
03 72
Ġ1 60
3 73
sp ot
ĠF lÃ¼ss
n j
Ġbe zogen
Ã¶ sterreich
m uster
âĢ ī
Ġan gest
T J
ĠPhil ipp
ĠCh amp
.. .","
7 21
997 94
oo s
ĠÃ¤uÃŁer st
mit glieder
ver lag
W B
Ġm edi
7 05
ĠCo aching
Ġ5 9
ts am
ĠD os
7 15
Ġs ign
E EB
96 26
ĠI sb
Ġs etzte
ĠGeg ner
53 8
ĠK uchen
56 1
tens iv
nEin fach
ri x
st ab
b io
stÃ¤r ke
997 74
Ġf anden
or ial
Ġver stÃ¤nd
Ã¤ch t
p an
ĠWies baden
ĠEin stieg
d t
ĠVarian ten
Ġf icken
Ġ1 997
check box
Ġint elligen
ĠJ ungen
nJe de
lau dia
ĠHam burger
nN ID
Ġz iel
ĠGeb urts
ĠZ en
arr ierefrei
13 87
ĠKrank heiten
ĠUl tra
ĠMat hematik
lo ch
ĠgenÃ¼ gend
Ġber echnet
97 85
Ġsel ben
ĠGer Ã¤ten
ĠErk enntnis
Ġla utet
nProdu kte
ĠâĤ¬ *\
k abel
tifik at
aktiv itÃ¤ten
ĠerklÃ¤r te
ro me
ĠV in
il ian
ro se
ĠAus sicht
Ġle cker
Ġj apan
Ġbegren zt
ĠBe am
ĠschÃ¶n er
Ġstimm st
p rakti
ĠB am
Ġrech nen
Ġerk ennt
pl or
ĠT um
5 36
988 14
Ġre agieren
Ġrecht liche
67 9
C M
Ġver langt
ad o
au ger
nK ont
91 960
der ungen
F i
Ġnach t
ĠMar c
5 15
ĠReg ierungs
f al
d ates
Ġ 74
ĠErfahr ungs
wohn ungen
6 33
ĠArznei mittel
Ġwes halb
Ġkl ingt
Ġro b
998 11
w etten
ĠGrÃ¼n dung
ĠB ull
ĠFin anzen
ehm end
B EB
3 21
ĠJ Ã¼rgen
ĠUnter kunft
C DC
R X
ĠB art
aÃŁ nahmen
nP rivacy
ĠAl te
ĠRÃ¤ ume
997 76
a is
3 76
ĠLie bes
97 35
n dern
nA bo
av as
3 55
4 17
974 9839
ĠNe um
63 2
Pro fil
reg ister
5 22
ĠV iertel
ĠAus einander
nL auf
Ġkein es
ĠWebsiteb etreiber
Ã¤ b
v ort
6 37
ĠVer anstaltungs
H e
othe ken
T Y
hÃ¤lt nisse
zust and
verb indung
P J
Ġ 88
Ġk op
\" -
ã Ģ
Ber eich
Ġ5 8
ĠChrist oph
ĠzuverlÃ¤ss ig
ir ts
0 84
E HR
Ġ- \
ĠT ax
ĠWerkt age
ĠK Ã¼nst
Ġab geb
ĠKre bs
be cken
ĠZusch auer
eb st
ĠTÃ¼r en
dr ess
7 28
Ġeingel aden
Ġverein bart
ein heit
96 44
W erk
83 11
65 8
ĠM B
ĠZahn medizin
v gl
Ġausge fÃ¼hrt
W X
ĠC r
Ġso w
Ã¶g el
ĠAb lehnung
rÃ¼ h
hil fen
97 22
Ġbe werben
3 24
Ġklass ische
98 11
997 84
ĠMedikamen te
998 15
ĠCoron avirus
Ġw eist
A BB
ol i
rieden heit
ĠKoll eg
ĠDatenschutz beauftrag
Ġsch lÃ¤
Ġverb indet
ĠVerein igten
an leitung
AD B
ĠPerspe ktive
Ġres erv
Ġvor bereitet
ĠRegional wissenschaften
âĢ İ
nD och
s icherung
5 06
ĠNord rhein
ĠT rocken
Ġgesetz licher
ĠA tt
l ight
n Q
mod us
7 25
ĠL oc
Ġan genommen
ĠHin blick
ĠRe alitÃ¤t
Ġentwick elte
ĠP en
bl ut
ĠD IN
998 35
ĠNeu bau
ĠBla tt
B ox
fur ter
t v
Ġaus s
ĠG Ã¼
99 01
m ag
ĠB och
ĠB lau
6 16
ĠD ata
ĠT ob
Ġa ch
ĠA kt
er er
Ġm oment
ĠErk rankung
h Ã¤ndler
998 20
Komp on
Ã¼n digen
ĠWerk statt
20 00
S J
91960 144
Ã¤hl er
ĠGÃ¶ tt
alit y
ĠAuftrag geber
ke y
6 73
lÃ¤nger ung
programm en
ĠSchw imm
Ġleich te
us en
56 9
Ã¼l tigkeit
ĠZut aten
ĠNot fall
will igen
Ġberu ht
Ġge tragen
Ã¶s ser
p Ã¤dagogik
ĠS ha
akti ere
nM odell
ĠGroÃŁ britannien
lei ste
ĠBlÃ¼ ten
im ent
mie ter
Stra ÃŁe
ĠH as
ĠR ass
c amp
ĠOber flÃ¤chen
s how
5 13
6 36
ĠQu er
Ġver folgt
ĠUrs achen
6 21
ĠW agen
O nline
H H
Ġbekomm e
997 83
nT ag
6 05
ĠDirekt werbung
7 04
aus stellung
ĠSport back
R I
ra gend
ein gang
Ġmehr fach
Ġan y
land schaft
G V
98 08
Hol stein
Ġv ideo
st unde
ĠVertrags schluss
ur se
Ī Ĵ
6 55
o hr
ĠJe de
aupts Ã¤chlich
ĠBenutzern amen
ĠSt att
kehr t
ĠWahr nehmung
ĠAktu ell
ĠF ranken
ĠD J
IN E
ĠT rÃ¤ger
90 27
nS k
geb Ã¼hr
Ġbeteil igt
nV orname
nR SS
ĠT un
Ġ5 7
Ġoffen e
wer fen
ĠBew usstsein
sch icken
aff ung
g au
ĠNetz werke
R J
material ien
zub auen
ĠPrin t
ĠWelt krieg
ĠMitt ag
ĠGrenz e
mach ungen
pflich tig
ĠF akult
ĠKon flikt
ĠZ un
ĠF ord
ĠBi bel
5 66
ĠIn haber
Ġge testet
ĠSchalt flÃ¤che
ĠRat haus
ĠS SL
ĠH en
G ew
3 75
ĠD id
est ern
ff e
53 2
problem e
ĠBei de
Ġgeb raucht
ĠProfil ing
D AB
Ġf iel
u elles
sam t
Ġbest ens
Ġspr ingen
sk on
ĠE ier
ĠSo Wi
97 25
ĠlÃ¤nger e
atter ien
Ġproblem los
kur se
12 86
seud onym
r iger
Ġflex ibel
ĠB GB
999 20
7 76
b ehÃ¶rde
ungs recht
ĠAn n
V ideo
ĠH altung
j i
ĠSchlaf zimmer
ĠIn spir
ĠKrÃ¤ uter
9996 9727
ĠKÃ¶nig reich
ain t
gel eitet
6 76
ĠPro be
ĠAufbewahr ung
ausch al
Ġver mittelt
Ġj Ã¼d
ĠHa ft
nC on
em burg
ĠC ou
ĠGeh irn
Ã¼ ge
di z
5 35
gefÃ¼ gt
7 24
hy th
M in
6 74
Ġlok alen
Ġanzub ieten
Ã¼tz e
7 83
) {
hard t
Ġausgew Ã¤hlten
etz ten
ĠBest immung
freund lich
Ġum ge
3 83
A EA
ĠS auer
as on
ĠJ agd
Ġex p
**** ****
ĠR uhr
ver antwort
ĠF ÃľR
m ass
ĠzulÃ¤ss ig
ĠF ax
ĠThe orie
ĠL ag
verb ot
Ġangeboten en
e ten
ĠSt au
ĠT it
Ã¤dig ung
4 84
s ing
ges p
ĠGewinn spiel
in al
ĠHe ad
ger echt
ĠSch u
ĠBez irk
Ġander wei
997 91
Ġi mm
Ġer mittelt
5 01
Ġinter agieren
Ġch ines
Ġh um
o per
gew and
tent wicklung
! )
ro om
ĠD uft
Ġk rÃ¤f
pack t
ver arbeitung
998 64
ĠDe fin
az itÃ¤t
haupt stadt
Ġho ffen
tra ger
Ġv ol
ĠL iv
h Ã¼
Ġfre e
st edt
ĠKon zer
ĠÃľber ein
Ġ7 2
ĠAus sehen
ĠBeg riffe
ĠLi fe
ĠW i
ĠBuchsta ben
nRegistr ieren
ĠUnivers ity
ĠNahr ung
Ġen det
0 28
nach richten
am ik
Ġf Ã¤hrt
len det
Ġd auern
ĠVer eine
R ep
ĠEmissions werte
97 76
nVor heriger
Ġaus reichen
ĠAus bau
Ġa bend
lan des
atur en
99963 754
ĠP rei
kle ber
ti st
Ġ !\
w etter
ĠAm ph
te ten
ĠK ey
Ġn ord
Ġautomat ische
Ġge werb
Ġeinz eln
ĠProblem en
W W
V Q
d at
ĠgewÃ¼nsch te
em inar
G ruppe
Ġoffen bar
nD em
rech ner
ĠM aus
ĠJ ungs
h Ã¤
E ine
ĠKl eine
nBe wertung
ĠAf D
98 28
ĠKon sequ
ger t
Ġf la
ĠKunden service
lÃ¤ uft
an ische
97 93
El ement
M ehr
Ġverhinder te
g ibt
ĠK as
DE B
st el
999 08
B undes
F rei
897 7728
ĠS ervic
95 55
eck len
ĠHa ftungs
Ġnach folgenden
S F
Ġstamm en
ĠMatth ias
ĠAn leger
ĠPart nern
Ġk Ã¼nstler
for d
Ġ6 9
nu mmern
al f
ĠAn hÃ¤nger
ĠBehinder ung
Ġvoll kommen
6 28
Ġauszu gestalten
amer ika
ĠVerbr eitung
fÃ¶r m
ĠAn melde
ĠPhys ik
E Y
ĠPh ase
ĠCy ber
fre unde
ĠID s
st ant
Ġunters ucht
Ġl inken
ĠM om
ĠS in
Ġr ufen
6 03
A EB
ola de
wir kt
tic le
ĠBi bliothek
echtig keit
5 05
Ġgaran tieren
6 23
g riffen
AT ION
Ġbetrach ten
ak en
ĠEmpf ehlung
je ktiv
Ġzun ehmend
ĠFreund in
re v
Ġman chen
ĠH ir
f Ã¤ll
ĠEigen tÃ¼mer
7 11
e ar
A AD
ĠA kte
ĠFlÃ¤ che
brem se
H Z
ĠC oll
Ġer mitteln
3 93
Ġz weck
E J
n mit
c le
reg ungen
Ġall zu
Ġj ene
atur e
ver schluss
Ġt Ã¶
Ġc omment
3 91
ĠKrypto w
ĠerklÃ¤r st
3 22
0 95
Ver schlÃ¼sselung
Ġnack t
p ng
ĠG erne
ĠEreig nis
96 85
5 75
Ġbesch reibt
53 9
ps ych
96 66
ĠR ud
ĠT iefe
Ġ 86
ian o
Ġgesch afft
ap ter
io de
Ġst arte
Ġ1 945
Ġ tem
ĠNach weis
57 1
m or
speich er
vor sitzen
B AC
in dern
0 86
lan ce
Ġmil itÃ¤r
Ġspiel te
Ġn ennt
P er
ol ta
In halten
werk statt
K D
Ġeindeu tig
ĠF i
Ġverein bar
g alerie
ĠL ap
ĠSch icht
ĠBer eits
T Q
aus wahl
0 93
k Ã¼hl
K inder
lies sen
B ahn
Ġ ul
b ro
6 25
ĠG Ã¼n
nMit glied
{ \"
k olle
ĠSchul ter
Ġ 93
Ġvor s
ĠTats ache
nZ itat
w echs
ent in
4 43
wei tern
ĠK ohlen
w inkel
ĠWorks hops
Ġst re
Ġan spruchs
ĠSchei ben
ĠE dition
be utel
Ġsch lagen
ber gen
lech ter
ĠK ult
Ġre st
Ġd ok
tag es
ĠGraf iken
qu ote
ĠV irus
48 9
ĠgÃ¤ng igen
w all
Vers ion
ĠKarls ruhe
ĠBesuch s
ĠF u
L P
sch icht
ĠArb eiter
âĨ Ĳ
l Ã¤nge
4 01
57 8
mal en
J o
Ġ6 1
97 26
Ġ1 980
ĠAufent halts
gesch windigkeit
T er
ĠBehand lungs
ĠMusik er
Ġder artige
street map
5 74
Ġentscheiden d
N O
f aser
ĠF ranzÃ¶s
ĠSt ory
ĠBet on
ĠL ou
ĠNeu er
zeich neten
Ġge arbeitet
Ġehr en
6 83
gesch oss
Ġsei d
f ried
eb ung
Ġer werben
D BB
n immt
99475 23
fil me
T Z
sch Ã¶pf
5 33
Ġbe dienen
Ã¤uf e
7 22
Ġberech nen
ĠH Ã¤user
ne ct
4 28
ehr en
ĠO kt
Ġal ter
ĠT rag
am i
K Z
Ġvor Ã¼ber
98 78
ĠS ep
ĠWerbe anzeigen
ĠWor ten
998 54
Ġ1 40
rech ten
sb esch
954 9723
5 25
so ftware
6 27
k ommt
k al
ĠZeit schrift
ĠO ft
ĠSie ger
nM aterial
wert ungs
ĠW alter
ĠGewÃ¤hr leistung
Ġab senden
ĠKon zentr
f eier
grund lagen
975 04
abet h
ĠMobil itÃ¤t
ed el
Ġdes wegen
ĠVerpflicht ungen
Ġzentr ale
7 03
I ST
bel e
Ar chiv
Ġ ?\
h ot
nTe am
ab is
lie fer
ĠFot ografie
D AC
erk ennen
ĠeuropÃ¤ ische
Ġst anden
et to
ĠK anal
67 2
ĠK it
stell bar
Ġ Ã¤ndert
n Î
nWiderruf srecht
ĠS zene
3 46
v an
ĠM ahl
ist et
abhÃ¤ng ig
4 46
Ġspannen d
B utton
Ġh ow
ĠL eich
nS eiten
38 2
4 77
5 73
P DF
. /
Ġdan ke
Ġpassen d
v ideo
ĠDenk mal
Ġverbunden en
nG anz
ĠHa are
h art
98 48
w ood
Ġw Ã¤chst
97 05
voll er
ĠE L
n ver
Ġre CAPTCHA
zei le
gel aden
enn er
ener gie
0 10
Ġd ran
ĠP lÃ¤tze
ĠW esen
ĠPolitik er
Y M
p ir
4 10
Ġzeich net
ĠK leider
ĠP i
66 2
Ġgef Ã¶rdert
ĠPart ie
Ġ 84
ĠP RO
A AC
op tim
ĠKredit karte
4 07
ĠKn ochen
ĠB ach
ĠP rivacy
ĠT abellen
ĠA achen
Ġw and
or in
il s
N U
op tionen
ĠK i
ing u
man ager
ĠVor les
sk y
Un ternehmen
lÃ¤nd ischen
ĠHand lung
Ġkomm e
6 35
ho fen
9351 2225
Ġ eignen
ĠUnter schiede
os m
D is
con s
ĠR as
mod elle
an fragen
AN G
ĠW erner
Ġh Ã¤ngen
imm ern
mitt ler
un ch
ĠSa ar
Ġerfolg te
5 26
Ġm erken
for n
ĠO sten
hin weis
AF B
K F
ĠErk enntnisse
Ġbek am
om Ã¶glich
t ot
Â ¶
ĠMÃ¤r chen
Wir d
fÃ¼hl t
j acke
nM edien
ĠS ternen
ge halt
Ġch em
a he
ĠOt to
nS icher
DD B
ĠgeprÃ¤ gt
nRechts grundlage
nehm ern
Ġ 91
997 85
ĠK ab
ĠMain z
ik ationen
ĠFot ograf
5 23
beh alt
ĠSchul den
Ġbeeinflus sen
3 07
ĠK no
u eller
ĠSalz burg
5 03
7 97
Ġ1 995
Ġzu gestimmt
7 96
c ar
rop ole
rie fe
80 13
88 25
Angeb ote
ul gar
Ġsch Ã¼tzt
A u
ĠL ook
Â« ,
Ser ie
ĠSch uh
Ġver fassen
ĠI M
Ġsp Ã¤t
ĠR S
ĠOnlines hop
ver se
Ġprakti sche
mb h
nP interest
se her
ĠD I
996 8
B i
Ġd achte
our ce
0 18
reu e
20 03
ĠHon ig
nV ort
nP ol
T EN
5 24
ĠQu adrat
Ġg ingen
Ġdur fte
f ac
3 29
ĠSehen swÃ¼rdigkeiten
V A
at re
Ġsp ont
ali forn
ĠA N
Ã¼n den
997 25
4 96
iet ung
F DB
ĠVÃ¶l ker
ĠM ol
Ġh erk
Ġzun ehmen
6 13
4 91
997 22
Ġeinzig artige
Ã¼r zen
nD atum
Ġstr ateg
or ks
Ġ Ã¤lte
M itt
w Ã¤lte
W O
me er
Ġverhinder ter
p aket
ĠMehr heit
Ġd rucken
98 47
ĠFrÃ¼hl ing
k reuz
ĠM em
k omm
he d
pr et
bl Ã¤tter
akte ur
996 27
h ab
ĠSt at
ĠS eh
Ġ 97
p x
nM erken
nB l
ĠP olit
Ġun besch
ĠJ ak
ĠLe ague
Ġm edizinische
ĠRep ort
g ers
ien s
U I
Ġhistor ische
in str
Ġs itzt
Ġkla re
h Ã¤usern
ĠLog o
nW asser
Ġgew innt
0 97
r el
ol ogen
Ġg o
D atei
ĠEnt wurf
98 154
ĠLehr e
ĠDienst leistung
ecklen burg
3 87
ĠBe weis
ĠKon text
Q B
ĠD ing
864 0372
grÃ¼n de
Ġeinger ichtet
grenz e
ĠTe ut
m otor
ĠAn schrift
Ġerkenn bar
p lus
ĠBez irks
Ġ6 2
ĠWohn zimmer
aus ende
ĠM esser
4 08
ĠgÃ¼nst igen
w atch
c is
ĠEreig nisse
az on
ĠGerÃ¤t einformationen
ĠVer lin
ol or
B EE
Ġech ten
Ġver arbeiteten
4 94
pr int
ĠCor por
ĠLux us
] ,
nT im
ĠðŁĺī \
ĠC le
Ġd ynam
Ġ7 00
reich ung
et ts
ĠB oot
67 1
nPro jekt
6 15
avas cript
nS ti
dra ul
Ġfest e
ĠVor stellungen
ĠL ied
ĠstÃ¤r k
g old
Ġm erk
An bieter
ettbe werb
ph ase
ser klÃ¤rung
S eiten
Ġh ielt
Ġposit iven
ĠBlog s
Ã¶n t
90 75
ĠS etzen
P V
97 97
Ġkleiner e
gebir ge
Ġgenutz ten
4 95
alit ies
nÃ ľ
e o
ra k
voll stÃ¤ndig
Ġ ew
Ġeinge gebenen
Ġnoch mals
5 12
Ġle b
ĠGew inner
eist et
Ã¶r d
Ġs ech
6 06
ĠM essen
ĠEin will
Ġh auptsÃ¤chlich
ed ig
Ġwissenschaft lichen
Ġnach zu
ĠS EO
ĠO m
Ã¤mpf er
ĠPubl ic
ĠFor st
Ġaufge fordert
Ã¶ h
G M
ĠIn dien
999 28
Ã¼nd lich
Ġselb ige
1 99
3 77
ĠUn s
aus wÃ¤hlen
!! !\
verkehr s
ĠSte phan
ĠNach folgenden
k uchen
Pla ttform
Ġeinzi gen
ĠT ricks
riv e
ĠInstr ument
m esse
b ein
f aden
ĠGenehm igung
gef Ã¤hr
5 65
57 9
ĠHei delberg
m ont
speich erung
ein heiten
ĠLe on
ĠS ar
A EE
5 77
Ġdauer hafte
D X
ieb te
64 8
ĠEx istenz
Ġlang frist
Ġberuf lichen
mark e
p ons
ov olta
Ġun zÃ¤hl
ĠSt ore
55 9
ĠL eicht
ai re
D CC
ig ar
Ġkl im
ĠP unkten
Ġ Ã¶ffnet
nK unst
ĠfrÃ¼her en
akter ien
Ġ1 970
Ġan geben
engl isch
off ice
N V
ti z
Ġg Ã¼ltig
T TP
sen de
? âĢľ
Ġgeh abt
ĠÃĸff nungszeiten
ĠSt rukturen
Ġbesonder es
7 93
Ġruh ig
Ġzu zu
ĠB in
fahr ungen
4 85
96 45
Ġprofession ellen
875 1
57 2
H rsg
ĠL ind
ut ure
Ġ 71
Ġdok umen
3 44
ĠÃĦ ndern
le ute
her steller
ĠMeld ung
Ġ[... ]\
g riff
997 15
gem acht
T eil
ĠTerr asse
alte te
Ġor igin
nGew icht
996 94
Ġg reifen
7 19
ĠGefÃ¼ hle
Ġperson al
nG arten
De utschland
Ġs Ã¼chtig
situ ation
nLiefer zeit
ĠhÃ¶her er
Ġ1 994
96 56
ĠAfr ika
ĠF abrik
E ED
ĠInternet auf
ĠGes etzen
ĠSÃ¼ ÃŁ
ĠRegel ung
E AD
rans fer
rei bst
ech ten
Ġerforder t
nC ont
ĠhÃ¶r t
ĠDokument ation
93 45
ĠSchÃ¶n heit
6 14
ĠL iga
Ġbe zieht
Ġr unter
ĠMer cedes
Ġlan ger
99 19
e vent
ĠNatur schutz
Ġst er
lab or
Ã¶n ig
Univers itÃ¤t
ĠAbonnement s
97 13
ĠAdministrat oren
nLink edIn
ĠBe auty
97 33
ot a
b ahnen
ĠMerk el
ĠRein igungs
Ġbeh Ã¤lt
ĠD ATEN
ĠbeschÃ¤f tigen
0 85
di ums
ĠD ampf
Ġb o
Q Y
nH err
Ġver ring
ĠM asse
la te
uz z
Ġw ork
Ġste tig
Ġeff izien
ĠÃľber prÃ¼fung
nZ ust
Ġgez ielt
ch ner
ĠEin bau
plan ation
ĠF eier
de b
Ġnu mber
ĠschÃ¶n es
str ich
Ġa ss
Ġqu asi
urt stag
ĠD or
Ġf ix
ĠE cke
nH aupt
ĠN ic
P o
ĠAb st
ĠW ag
ĠPro jekten
ĠMeld ungen
ĠF ritz
0000 4
UNG EN
ĠA ro
fl ik
Ġf und
ĠGegen teil
98 17
18 84
Ã ±
p le
ĠL os
nP erson
Ġum gehen
ad resse
ĠM ix
ĠB isch
Ġ16 00
nV om
r ung
ĠB L
id ay
ĠFe uchtigkeit
Ġ1 989
Ð »
Ġperfe kten
ĠCow ley
Ġerk annt
C aptcha
vor sorge
3 28
ĠPla stik
den s
Ġgesp annt
B DB
ĠJust iz
997 26
nD rucken
Ġeben diese
N Z
Ġehr lich
ĠKo ordin
998 63
ĠK ommen
wei ler
Ġges unde
- )\
sent wicklung
ah me
Ġzw Ã¶lf
ĠEnt sperren
wand te
99 986
T I
P Y
bezie hung
as ste
ĠPol icy
her z
94 26
Ġals dann
Ġro man
6 04
Des ign
ĠWeb f
Ġer zeugt
ĠF ac
fin det
g Ã¼nst
0 83
ication s
Ġst eigern
sch all
Ġlaufen den
Ġhel p
Ġzentr alen
3 85
bez ug
5 27
ĠThem e
y al
ĠMisch ung
Ġerweiter ten
ĠE th
ĠKinder garten
prob e
b eile
ĠAnf Ã¤nger
3 43
ief el
b lau
Ġmit teilen
b ayern
97 43
ĠWissenschaft ler
5 37
Ġpersonalis ieren
gesch enke
ĠverknÃ¼ pft
ĠA ward
ĠEn ts
Â» ,
use um
nOpen streetmap
Che ck
997 95
ĠT ot
ĠAdr ess
ĠNeben wirkungen
Q C
ich ern
nFr eitag
f inder
ĠMen gen
ĠKn ow
Ġ reibungs
G O
zus agen
A ls
ĠhÃ¤ufig sten
96 75
ab let
ĠJose f
Ġun zur
Ġb ook
ĠR uck
ger Ã¤ten
ĠIntelligen z
Ã¤rt ner
Ġeinmal ig
ĠS C
urn alismus
ex planation
ĠBel iebt
Ġw omÃ¶glich
ĠJ azz
or ama
ĠD ingen
ĠProf i
Ġver teilt
2 98
ĠErfolg s
Ġschrift lich
elef ax
Ġn ecessary
ution s
ĠVerg Ã¼tung
n fÃ¼r
nN atur
ĠLin ien
rat zen
ĠIn n
ĠN orm
nP odcast
ĠSch ild
ĠFor derungen
dust rie
ĠK rimin
tisch es
Ġh om
ges ellschaften
ĠS ymbol
zentr ale
Ġbesch rÃ¤nkt
ĠF AQ
ĠG riechenland
P E
unsch weig
97 15
nSch w
Ġanalys iert
ĠRe volution
t u
ĠDownload s
or ca
og n
Ġ 83
nD abei
nAb lauf
nF erien
Ġ1 10
sph ase
Ġ- >
Ġrelev ant
ĠG ames
ĠNutz ungsver
9917 742
Ġzu hause
c ing
97 03
ĠMe tern
Ġw usste
Ġide ale
ĠHÃ¶ch st
wander ung
ĠO ran
nR ei
ĠBe werber
nBen achr
on om
ahn sinn
ĠG ri
66 9
ĠRett ungs
b ot
Ġhin weisen
sch uh
Ã¤ be
Ġgest artet
kehr en
ier tem
3 18
ar antie
ĠWahr ung
k rise
O b
ĠbÃ¼rger liches
rist all
schei ben
ĠC H
uch tet
Ġ 78
rÃ¼ck e
De utsch
ĠK offer
at ibel
ĠÃľberwach ungs
fra uen
t Ã¤u
ĠBr as
Ġauf rufen
ĠB ein
ver tra
ĠKÃ¶r pers
nF ragen
ĠC afÃ©
Ġo ther
ĠM uss
Ġr eligi
3 20
am ts
nB eg
nP ort
ĠBeteil igung
Ġ 81
Ġver sen
ĠEin tritt
ĠZwei fel
ĠBe antwortung
ur teilung
ĠSol daten
6 26
empf ehlung
ĠjÃ¼n ger
Ġung e
ĠN iko
97 56
Ã¶ ss
el emente
Ġfunction alities
ran t
X J
ĠU s
Ġn ebst
997 13
O O
nAngeb ot
Ã¤ch tig
ei dung
st ers
ĠVer ordnungs
Ġ6 8
C AB
4 83
DD A
C AC
Ġmobil en
Ġ( \"
99 29
h istor
996 43
jÃ¤hr iger
Ġverwen dete
Ġ 98
ame ter
96 86
ĠBi lanz
Ġerzeug ten
kont rolle
Ġbeweg t
ĠPublish ern
ĠH it
AA E
ĠB iel
ĠN Ã¤hr
ĠErschein ung
Pro jekte
nM Ã¶ch
Ġge fertigt
nSp enden
a ft
994 336
at i
ĠWider stand
nS amstag
ir chen
4 86
hand els
ĠF igur
ĠAn regungen
ĠK osmetik
ĠWiderspruch s
ĠEr Ã¶ffnung
ĠMa ÃŁe
stell ern
G ro
995 8
nK om
ĠBru der
au scht
Ġo pt
ĠKon ferenz
Ġan schauen
at he
98 58
ul ierung
Ġvis it
3 74
mann schaft
ul etzt
999 07
Ġdunk el
ĠD ay
ĠFr ucht
S Y
ĠStud ierenden
nJ eder
98911 13
Ġla sse
ĠA pr
mark en
ĠT schech
5 04
Ġein gest
k och
ĠWissen s
ĠsorgfÃ¤l tig
4 02
fer tig
Q M
ern d
Ã¶ hnen
deut schen
ĠMobil e
Ġstor ed
ĠFl ucht
Ġ3 60
k issen
ĠursprÃ¼n glich
nD is
ĠMittel alter
Ġunter en
2 99
ĠMus ic
ĠIs land
BF A
az ine
ĠDro gen
994 94
N R
sÃ¤tz en
nK lick
ĠB rit
mm en
nB i
Ġruss ischen
a fe
ĠNach mittag
Ġnach ge
G R
d ner
Ġs ach
B W
0 96
ĠZahl ungen
ĠSam sung
ĠEff izienz
Ġoft mals
ĠInteress es
ĠJe des
m ir
90 26
ĠProgramm e
ĠEr zÃ¤hl
ĠC la
nAktu ell
ĠâĢ ĺ
k und
ĠEinschrÃ¤n kungen
F AC
folgen de
g nose
ĠTr ump
utsch eine
lin der
kunft s
Ġrein igen
gehen den
ĠPrÃ¤ senz
ĠGep Ã¤ck
ĠSpe zi
7 07
Ġinnov ative
auf gaben
Ġseiten s
nWh atsApp
ĠHei zung
d icht
ĠB utter
Ã¼n ger
it o
hr t
DE D
ĠPublik ationen
Ġoffen sichtlich
nT yp
ĠL ein
Ġres ul
if iz
Ġbem erk
Ġfrem den
Ġan geschlossen
ick el
la de
ĠR aten
ĠK am
998 44
Ġgetr ennt
bin den
Ġab gelegt
it he
le uchten
Ġle ck
5 34
97 999614
ĠS Ã¤nger
ĠD am
ĠD iv
aktiv ierung
ĠKlo ster
996 55
AF E
ĠDi am
5 20
AR BEIT
ĠGÃ¤ sten
Ġleich ten
ĠBundes republik
Ġdurch ge
ĠHard ware
Ã¤mm ung
Ġ }}
Ġins bes
ĠB aut
Ġgew ann
ger echnet
ĠSitz ungs
ĠMein ungs
Ġkon zip
Sch utz
996 83
nW el
z ten
ĠEng land
Ġf Ã¶rdert
ap pe
Ã¤ uÃŁ
Ã¤m pft
ĠG itar
Ġk alt
7 14
ĠOb wohl
ĠNutzerer fahrung
ĠStoff e
Ġv an
ĠUn ternehm
M ai
ĠIns eln
druck t
eu ro
Ġf Ã¼llen
R echt
swissenschaft liche
Ġwahr en
Ġbe auf
b Ã¼r
ĠGro ÃŁe
ĠL ack
Ġgew issen
ach im
Ġres pe
Ġ1 30
herap eu
ĠSor ge
ots dam
Ġmit geteilt
Ġerle digt
ĠPark platz
schm uck
Ġdisku tiert
ĠErwart ungen
ĠBet reu
nÎ Ķ
it ies
zi ge
ungs kosten
ĠMÃ¤n nern
aus schluss
nW Ã¤hlen
f akultÃ¤t
Ġfest stellen
Ġst olz
Ġan sonsten
vor gang
ĠSp uren
di c
Ġkor re
Ġbe wertet
ac tion
afr ika
Ġfinan zielle
oo ter
Q U
ĠÃ¼ber t
Ġange kommen
Ġt rat
ut s
ĠL aser
Ġakzep tiere
97 63
ĠC omments
ĠDiag nose
ĠFrei e
Ġbeit ragen
un det
Ġf roh
997 2
ĠJ ens
Ġr um
ĠRef er
3 89
ĠVert riebs
isk ussion
997 27
w ider
ĠS obald
Ġanzu passen
Ġb ar
ĠNach wuchs
Ġunter liegt
z z
Ã¤nder ungen
wei len
Ġn ein
996 66
k ette
ĠQu alif
Ġabw echs
DD D
Ġwo hnen
ĠSozi ologie
ĠGleich zeitig
nM ax
nNach dem
Ġgek Ã¼rzt
ĠFÃ¼hr ungsk
ĠMas ken
s berg
f Ã¤nglich
96 46
f ield
Ġst il
n Ã¼tz
Ġer weitern
Ġch at
br ig
Ġcon t
ingt on
Ġrob ust
ĠSchn eider
ĠMasch ine
fol ie
998 87
996 1
ĠverstÃ¤r kt
nM usik
ein richtung
ĠF ast
i ale
ĠB Ã¶rsen
ĠSt ri
908 75
bei spiel
7 85
j u
Ã¼n de
ĠÃ¤h m
har ina
4 12
un sten
Mit glied
eite te
ĠVis ion
nBer uf
ĠVers ionen
nI mmobilien
ĠL ight
97 91
ĠW egen
oo p
ĠBe zeichnung
lo ve
Ø §
ĠA M
Er lebnis
ĠF as
b Ã¶rse
ĠMotiv ation
k y
geleg ten
ĠW ehr
ir ch
Ġdefin itiv
ĠL it
Ġzeit lich
z ell
âĢľ :
p Ã¤
system s
96 23
lin es
Ã¶s ungs
wor ks
Ġwert volle
H U
i os
q uid
ĠSch ick
For um
Ġbesch reiben
Strom verbrÃ¤uchen
ĠK ugel
w es
ogra mm
ĠgÃ¼nst iger
ĠCas inos
4 93
ĠO liver
e ums
947 98154
ĠRechtsver letzungen
C EB
ĠP in
Ġf liegen
de en
nBenutz er
ĠFunktion ieren
ĠA L
994336 96
Ġ6 7
nS oweit
arget ing
B O
nW ann
6 43
ĠMeer es
co ver
ĠE ure
âĢĿ .
bek leidung
et h
B CF
996 76
a aten
997 23
Ã¤ ste
ĠIns gesamt
at geber
B DC
ver lauf
997 11
nA mazon
Ġm Ã¶gen
Ġanerk annt
Ġan hin
3 80
ro ne
oll y
ult ing
ĠI HR
k ul
ar ische
ĠUnterricht s
k et
Ġwissenschaft liche
ĠD Ã¤nemark
Ġerforder liche
ĠC li
97 44
ĠW att
ĠFavor iten
Ġent sch
l iance
J uristen
Ġk ul
82 966
z ahn
ĠEp is
Ġrechtz eitig
Ġdiver sen
Ġtran spar
nTh is
Ġab schlieÃŁen
ĠAn d
Ġabwechs lungs
ĠErweiter ung
Ġ1 993
97 54
5 46
C EC
utz en
Ġk Ã¤mpfen
aust ausch
ĠHer mann
k rat
mb and
ĠVerordnungs geber
8715 653
M U
iz ont
Ã¼t ten
3 01
Ġverb leiben
ĠÃľber setzung
abet es
nVer antwort
ĠGe eignet
Ġk W
ige on
ĠF iguren
7 29
lock en
ĠAb t
98 01
dig ung
unter such
64 9
ĠBe zahlung
Ġ rÃ¤um
geord neten
Ġst Ã¤d
ĠÃ ł
Te xt
ent z
Ġst o
ĠK atze
ĠMon d
P HA
11 19
Ġn ationalen
3 86
Ġunter scheidet
ĠDeutsch er
sit zung
ĠFrei heiten
ĠB eine
ĠN ase
ĠN at
ĠfranzÃ¶s ischen
Ġger eg
F ra
ĠJahr gang
last ung
ot her
ĠprÃ¤ z
nKommen tiere
âĢ ¯
ĠpersÃ¶n licher
Ver lag
st eck
schn eiden
nN atÃ¼rlich
Ber lin
V ideos
Ġverbunden e
ĠUmf ragen
omm ern
end el
In tern
Ġexist iert
Juristen fakultÃ¤t
ant wortet
Ã¤tz t
ĠHighl ight
M obil
Ġdahin ter
Man agement
ab a
Ġvorhanden en
wÃ¼r fe
aus gabe
Ġhier von
ho fer
Ġf eier
Ġgleich falls
ĠPro vider
Ġaus genommen
ĠRechtsan sprÃ¼chen
ate ur
rei de
AF D
C T
998 88
ĠB ron
ac a
Ġbekomm st
R ed
4 92
n avigation
ĠHighl ights
P lan
Ġkonk ret
ymb ole
v ia
Ġsch wei
6 45
best immung
h ten
p rech
ystem e
AB A
9564 1387
o ung
H och
Ġw Ã¶ch
np igeon
3 94
ĠH TTP
ĠVer anstalter
Ġbel e
Ġs im
ĠB ube
ĠgÃ¼nst ige
97 24
Ġd ick
( );
Ã¼tz te
nNot wendig
Ġenthalten en
998 67
con om
ĠRich ard
95 83
ab teilung
S icherheit
M J
Ġs ur
e er
K unden
d in
7 18
ĠBra un
Ġunverbind lich
Ġsie hst
sch ungen
Ġsch reibe
ĠAnpass ung
Ġverb reitet
G u
ĠThÃ¼r ingen
c to
Ġver anst
m Ã¤nn
Ġd rÃ¼cken
ol oge
Ġzu stÃ¤ndig
Ġbesch rÃ¤n
4 99
Ġbe achte
ĠA LL
ĠAutor in
Ġh as
nT est
ĠHy giene
ĠmÃ¼s sten
ĠZ weit
ĠKor rekt
Q W
Ġt Ã¼rk
ĠT ennis
AS S
ĠCh or
à ¤
F W
97 64
urn ier
st at
95 54
nGesch Ã¤fts
I mpf
ĠBeliebt heit
an dem
V Y
90875 036
Ġorganis ator
ĠB R
ĠTra u
ĠB indung
ĠH eb
nUn bedingt
viel fÃ¤l
Ġab out
la uch
Ġ7 9
nB Ã¼cher
g asse
nSpeich er
ĠverlÃ¤nger t
nZ wei
bereich en
D urch
pr in
Ġgeeig nete
zeit raum
er ch
Ġentsp annt
au gen
Ġbe ur
ĠVorder grund
DD C
Ġbas ic
g eist
ste te
Ġmensch lichen
Ġerreich te
3 95
ĠAnt on
ĠAn ruf
Ã¤ ure
Ġ1 992
l ig
ĠSch Ã¶pf
merk male
ĠTre ppen
art in
ĠWeb analyse
t rÃ¤ger
ac tur
ien e
ĠB BC
nN avigation
ar ia
Ġessen tial
werk s
ĠMet a
Ġden kt
ĠDid aktik
| \
nUnter stÃ¼tz
g Ã¤ngen
ĠKommentar en
e v
Ġab gestimmt
ut her
ĠM angel
ĠL egen
Ġab geben
90 85
ĠHil f
ĠD VD
7 01
ĠV ari
ĠPir aten
ic t
categor ized
Ġerfolg ten
4 97
ĠÃ¼ber geben
C G
be wertungen
96 94
ĠÃ¼b lichen
unter lagen
82966 447
alte ten
EC H
Ġthe ore
O ber
Ġdefin iert
Ġkat hol
f ind
ĠHaus es
Ġho hem
ĠIn sekten
ĠSim on
ver treter
f reude
6 17
O ff
gef unden
ĠV illa
G en
97 04
p ot
c ess
Ġlie st
ĠTa sche
ĠS af
ĠLei b
97 06
es senten
ED A
ĠJ on
ore a
u tern
reich es
nP ar
Ġo hn
Ġg eil
an sicht
ĠBundes ministerium
ĠIn iti
ĠEff e
ĠJahrzeh nten
g Ã¤ng
Ġtran spor
ĠKan ada
ĠGast ronomie
kon ferenz
Ġ( +
le ase
dust ri
nH o
Techn ologie
ĠAmph ithe
ĠursprÃ¼n glichen
Ã¤ der
998 34
ĠBetroffen e
T ools
ĠProfess or
ti ven
ĠSt urm
Ġgeplan te
nK ar
ĠM auer
ĠM ang
nV iel
âĢ¦ .
Ġelektron ische
emitt eilungen
ĠWÃ¼n scher
ĠAltern ativen
bahn hof
95 75
Ġkon sequ
IS CH
stu dio
ĠRÃ¼st zeug
Ġlang fristig
nW issen
B DF
ĠF ood
5 45
v iertel
ĠBekannt machungen
pla ce
w n
b ike
B J
4 81
ĠVerpack ung
produ ct
i que
R R
ĠAn schlieÃŁend
D W
s upport
Ġer o
Ġab gest
nEr st
904 8751
ĠKlima wandel
Ġhervor ragend
hÃ¶r t
k op
Ġober en
ell o
ĠEinwill igungen
6 46
ĠV W
Ġr etten
aum en
S et
Ġvoll stÃ¤ndige
ĠBoch um
ge ts
metho de
ĠL ine
Ġm or
nF eed
ĠEnt spannung
Ġst ren
k rank
nW ordPress
ĠDatenÃ¼ber trag
Ġm ieten
aut omat
ĠSti ll
Ġumfassen de
B CC
ĠMax im
Ġausge wertet
ĠAn bietern
Ġk enne
k alender
ri an
ĠM ission
nBe wertungen
996 85
54 8
us sen
B EC
B eit
65 9
ĠTick ets
809 06
4 29
emp el
ĠA syl
nEin en
schei be
ĠVertra ges
ĠW id
ĠF inn
Ġdo ppel
Ġrechts wid
Ġem ail
m y
4 19
Ġherk Ã¶mm
m ed
b ehÃ¶rden
94 36
Ġ94 043
stre cke
ĠW Ã¤
gar antie
ĠS E
Ã¤nder ung
nG ut
sk op
ĠGes prÃ¤che
ĠBer echnung
ĠDes igner
g g
997 04
ĠMobil funk
ab o
anz ig
Ġh alte
uf actur
ĠE st
ben e
ĠSchw anz
ĠSan ierung
strahl ung
sen der
Ġdies mal
n auf
\\ /
Ġha ftet
ĠArch itekten
ĠAktu elle
st isch
as is
ra ub
Ġex tern
ĠM Ã¶n
ĠV iren
Ġank licken
ine er
nVersand kosten
ĠOb jekte
ĠMiner al
Ã¼hr ung
Ġaut hen
ĠBÃ¼ hnen
to ol
nIn s
ĠReich weite
997 21
ĠSp rech
ĠzukÃ¼nf tige
Ġschwer e
ĠDurch schnitt
Ġbe fest
Ġte en
ĠOr ten
ĠBÃ¤ ume
ĠErn Ã¤hrungs
re al
Ġabge geben
ĠS end
nTh omas
ĠVor stands
ĠBade zimmer
ĠTran sparenz
ĠMehrwert steuer
w ischen
usch el
Ġunglaub lich
ĠAktu alisierung
ĠLiefer zeit
tier st
Ġvoll um
ĠG aming
Ġer richtet
eck ar
los es
ab out
ĠAltern ativ
ĠAn erkennung
ĠFormular s
gen au
Ġpassen der
ver letzung
tif y
ĠGe werk
agnost ik
fÃ¤h ige
ĠInvest ition
4 87
f ehler
ĠK ob
gel esen
Ġsch merz
6 94
ĠUntersuch ungen
ĠGlob al
98 07
995 48
Ġmaxim ale
Ġn am
ĠAb sch
Ġaktiv en
ĠSchw ester
ĠVerf asser
Produ kte
ĠT rust
ĠM IT
Ġc oll
lik ationen
ĠKon sum
ĠU V
Ġvoll stÃ¤ndigen
em it
ĠArtik eln
nAngeb ote
Ġ% \
90 76
ĠA pfel
997 05
ĠNutzer verhalten
it sch
ret Ã¤r
is burg
ĠÃ¤lter en
nG rÃ¼n
997 14
ig hl
Ġbeant wortet
998 18
ied elt
EE A
an trag
nL Ã¤nge
ĠKonkur renz
96 11
ĠÂ§ Â§
c u
80906 767
Ġm a
Ġk rie
Ã¤ch ste
ĠBelast ung
iden t
3 88
Ġehemal ige
ĠHel fer
ĠhÃ¤uf iger
97 77
ĠPart ners
ĠÃ¼ber legen
ĠVers orgungs
Ġg eld
ĠÃľber nahme
22 74
uf el
Ġauf bewahr
ei de
Ġschwar ze
ĠBewerb ungs
nS er
ĠMÃ¤n gel
Ġfot ograf
Ġp op
Ġbein halten
nT ipps
ĠAlt stadt
ss el
Ġweiter geleitet
ĠBet rug
Ġbes uchte
ĠVor feld
ab b
996 74
A I
Ġprakti schen
ver mÃ¶gen
Ġum so
hin k
Ã¼rt el
ĠK rim
Ġwei ss
ĠVor gang
G S
AB E
ĠverÃ¶ffentlich te
n nach
sch on
ium s
nR und
ĠAust ralien
65 0
ĠInvest ment
it ions
Ġtra um
ĠAuftragsver arbeiter
ĠD ynam
Ġgesch m
nG em
ĠOper ation
ro ugh
Ġbrauch st
Ġm od
ĠH agen
4 98
ĠSp ende
Ġf rau
nNach richt
Ġfest en
b rech
wal ts
nab rÃ¼ck
Ġun mÃ¶glich
nZ ubehÃ¶r
ĠNieder lande
re cken
ĠWar enk
Ġkon stru
Ġb reite
ain ment
nN euer
Ġmedizin ischen
ul ver
ĠNacht eile
Ġ stell
ĠP ast
ĠR ennen
g or
Ġw inter
ĠStandard s
Ġs u
Ġgenau e
ent liche
ar io
ĠBlu etooth
C K
ĠAuftrag s
ĠÃ¤lter e
nP rÃ¤
Ġbet rieb
ĠTrotz dem
ĠH ex
ĠGesetz e
ĠH ung
eh end
Ġwar tet
Ġ 87
ĠR Ã¤um
\" ;
ok umente
ĠMann heim
nS uch
ein bar
ĠAb wehr
Ġan nehmen
ster min
B enutz
ĠKon figur
93 97
and ra
nEin betten
nB r
hol fen
Ġser i
7 91
ĠPartner schaft
F re
Ġehren amt
akt oren
e ge
Ġn ehme
ĠUnter haltung
Ġkennen lernen
3 81
B EA
Ã¤t tern
arian te
err er
Ã¶ ck
ing st
ĠfÃ¼hr enden
ger echte
Ġverl iert
ĠTrans formation
nReg ion
mess ungen
Ġdem okrat
Ġd omin
ehr te
ĠLie der
nIn fo
ĠIn dex
forder lich
mark eting
Ġab gesch
il en
b al
7 87
ĠPrÃ¤ sentation
ĠKreativ itÃ¤t
Ġvor liegt
ĠDu sche
Ġein sehen
ĠSuch maschinen
998 53
B en
ĠmÃ¼ sse
Ã¶ bern
ĠArbeit sp
ha ar
and o
nCo rona
ĠMitglied schaft
Ġkomp l
Ġaufge fÃ¼hrten
Ġstatt dessen
g han
othe ke
98 81
ĠSchlieÃŁ lich
6 81
ĠK assen
Ġsch licht
ĠBekannt werden
ĠApothe ke
ĠBes itzer
lam pen
har ing
96 73
Ġzw ingen
Ġen er
Ġfra gt
ĠTre ffer
wie der
99 990
sw esen
Ġrelev anten
ĠAktu elles
ĠGro ÃŁen
nIntern et
j et
ĠArch Ã¤
ĠW ellen
Ġbesonder er
v ideos
Ġbedeu tend
6 01
âĺħ âĺħ
o zi
ĠM eist
Ġgem essen
H y
st immen
54 9
Wirtschaft swissenschaftliche
ut to
ĠL ange
A kzeptieren
F oto
94 75
mit ten
ĠG Ã¼ltigkeit
97 67
Ġt iefer
ĠP L
rin t
Ġirgend wo
ĠL och
m echan
freund lichkeit
j ugend
ĠEmpf ang
ĠFrei en
u el
Kompon ente
ca dem
ĠSpe kt
ĠArtik els
lÃ¼ h
ĠInvest itionen
iz za
leben s
ÃŁ ig
Ġgeplan ten
94 3545
ĠNetz werken
AF C
miss ion
ĠBe ck
Ã¶ der
D ruck
Ã¼ck t
ĠDurch schnitts
Ġkla ppt
lot te
ĠBen zin
Ġglob alen
ĠSk y
FF A
Ġvor n
DC A
ĠTo il
S PR
mm el
ĠzukÃ¼nf tig
P W
Ġber uh
ĠK ok
ĠEx p
Ġabgel ehnt
men Ã¼
ĠK alk
unn el
ĠSmart phones
943545 16
le der
5 85
Ġk enn
Ġvers and
C S
ĠT hai
ĠSt ation
97 17
Ġk Ã¼hl
Ġf Ã¼n
Ġprofession ell
Ġan legen
ti ce
94 15
Ã¤hr st
âĢľ ).
Ã¼n chen
zw ungen
Ġwo hin
Ġeinge geben
ĠJ avascript
lad bach
94 85
Ġan fragen
Ġre agiert
nGesch rieben
nNeu es
Ġvers orgt
5 17
ĠRecht mÃ¤ÃŁigkeit
ĠDiskuss ionen
ĠIn d
ĠPro tokoll
St G
be dien
Ġbeeinflus st
3 10
nO ber
Ġ1 25
produ kten
ĠW ach
r ice
Ġst u
Ġspezi alisiert
ĠEisen bahn
Ġbevor zu
J X
Ġungew Ã¶hn
ĠEngl ish
zie her
Ġmin im
an ie
ĠBra ut
97 11
ed in
99 987
auf wand
Ġwor auf
p k
803 7
96 74
geord nete
nTer min
Ġlieb sten
B Q
ĠAmphithe atre
f ein
Ġver passen
ĠVermÃ¶gen s
95 11
Ġein erseits
erk rankungen
int age
ĠH em
ĠgrÃ¼ nen
ief erung
Ġkon tra
ST R
W iki
= &
96 65
BB A
B esch
kommen s
nZ usammen
Ġ time
ĠM anu
eig ung
ĠEin ladung
Ġb ayer
5 88
Ġda vor
ĠklÃ¤r en
c ation
meister schaft
N K
ĠF Ã¼ll
bez eich
op le
Ġhar mon
haus es
Ġdi ffer
k enntnisse
low ak
ams ung
97 08
96 25
ĠDatenÃ¼ber tragung
cke y
schaff ung
mÃ¤r kte
is ser
ĠSon gs
ĠBele uchtung
em enten
hal tige
995 36
BF B
rein iger
d oc
te ch
Ġ3 65
ĠzurÃ¼ck zu
ru ÃŁ
997 00
Ġletzt lich
Ġ reisen
99 12
ĠAdr essen
ĠSti ft
ack s
ĠWÃ¼n schen
schrÃ¤n ken
fin ale
k assen
ĠGanz e
Ġm achten
ĠjÃ¼n g
ĠGener ationen
7 84
5 64
ĠK ub
ĠM icro
ra dio
fe ffer
ĠBaum wolle
998 07
ĠW Ã¼rz
Ġb ild
7 20
p ap
ĠSchwier igkeiten
Ã¼ ste
K ontakt
Ġpf legen
rock nen
Ġun ternehmen
pp y
Ġunter halb
O U
el ing
Ġm at
R AM
Ġ1 991
un fall
u i
c ookies
98814 43
elev anz
Ġb innen
ad or
Ġro ten
nK omp
K ommission
ĠZwei ten
Ġ> >\
Ġfol gte
our s
Ġfreund lich
P F
H I
37 0
Ġent z
nz zgl
beit rÃ¤ge
996 64
ungsf risten
ĠmaÃŁ geblich
ĠR am
war ds
ĠN oten
wie gend
Ġsch Ã¤tzen
Ġschwar zen
ĠOp tik
ĠKenn e
C omp
ĠSo fort
ĠRech ten
ĠHa ben
nP owered
ĠCar l
Ġerheb t
23 06
ĠH i
ĠQu art
ĠAuf lÃ¶sung
it es
B rowser
5 43
UT Z
nWiderruf s
swert es
Ġv al
ĠFlÃ¼cht linge
ĠSchw ein
F est
ĠRe zension
ĠKat alog
ĠWart ung
ĠSamm el
ĠIm age
99 985
drÃ¼ck t
ho s
V S
Ġn ational
ĠBuchsta be
Ġver mehr
C X
anti en
Ġan al
Ã¼r fen
Ġges endet
98 31
ĠSch Ã¼tzen
in halt
Ġt rinken
Ġerteil st
tz entrum
ĠMon itor
ĠVer mieter
ak u
ĠD unkel
er fahrung
ĠGew inne
ĠMein ungen
z eig
! âĢľ\
zent ren
aus en
A ktu
Ġb reiten
Ġinner en
4 88
ĠP ra
Ġm ang
ran ten
u der
ĠBel gien
fer tigung
ĠWeiter entwicklung
sch ild
ĠM echan
ath on
eh in
Ġbegeg nen
I d
ĠJ un
ot ter
an fang
W ert
hel fen
Ġjen es
Ġtradition ellen
8 99
ĠPlat ten
ĠSch al
kre bs
Ġm ut
ĠC ur
P Q
ahl en
Ġor gan
h Ã¤ngt
ĠDies el
ĠChrist us
ĠIll ust
liegen den
996 84
I s
G F
ĠU ran
H z
sch ritte
6 07
96 55
Ġblock ieren
sch Ã¶nen
ĠBo hr
4 09
Ġg ib
kt op
ĠK ostÃ¼
nM ail
vÃ¶l ker
E DE
an sprÃ¼che
geb oren
ĠVoll stÃ¤ndigkeit
997 17
ĠLÃ¶ schen
ĠK ammer
an i
ĠUn garn
ĠS L
ĠBau en
Ġan gelegt
zut eilen
s ive
Ġwichtig ste
Ġl eiten
Ã¤rz te
lÃ¤nd ische
ĠSp azier
ĠT ut
ĠDep ress
ĠBot schaft
B DE
5 83
ent lichen
Ġst ation
di re
bezogen e
beteil igung
ĠgroÃŁ zÃ¼g
M Y
R o
i alen
ĠschlÃ¤ gt
Ġwirtschaft liche
Ġfal sche
nMat omo
vol umen
Ġaus gesetzt
ĠK etten
AC A
pe tent
ĠFre e
ĠWirk lichkeit
94 25
Ġver ur
ĠAutob ahn
H ier
nSch on
ĠK iefer
ĠZ wie
ĠHe alth
ĠF Ã¤hr
geb ieten
996 26
& &
ĠR Ã¼
Ġfahr lÃ¤ss
Ġ 92
CD A
la v
ĠZ elt
ĠCann abis
5 81
ĠWirk samkeit
nS uper
ĠR uh
Ġwei ÃŁen
ta sche
Ġm u
An halt
Ã¤ len
ĠAb fall
Ġgl Ã¤n
sp w
h ome
sp l
Ġa go
ha fter
nS ind
998 78
F ach
ĠZ ell
ganis ation
Ð¾ Ð
nG ib
gesch ritten
ĠHein z
Spe zial
V erk
Ġwei ÃŁe
3 12
g rill
6 91
c at
Ġbeschrieben en
ĠM ex
Angeb ot
ĠSch ub
Ġbeh err
996 86
n immer
98 90
ĠGr as
rÃ¼ ger
gen tin
7 95
Ġgesch ickt
Ġbegeist ern
C DE
II I
box en
ĠPortug al
Z F
ĠJ ac
nA uÃŁerdem
ĠC ast
Ã¤ hen
ĠC ross
nDien stag
ĠF eb
B r
B DD
ĠPro vin
Ġautomat isiert
ruf s
ym ph
lÃ¼ck en
ĠT Ã¤tigkeiten
ĠPro test
Ġvollum fÃ¤nglich
ĠAd ministration
wahl en
ĠStra hl
Ġbetreffen de
Ġspezif ischen
ĠHo hen
nEngl ish
nIn halts
arb urg
ossen schaft
ĠK assel
M V
C EA
her m
ĠSch lieÃŁen
ar ischen
ĠIm p
Ġn erv
ĠEin nahme
ĠR asen
ĠAugen blick
lieÃŁ t
ĠAug sburg
ĠB ou
ĠÃ¶ fter
ĠWe ber
996 2
ex ikon
ĠStadt teil
95 16
997 03
Ġr as
nLauf zeit
w enn
Form ular
Ã¤ tigen
a det
sch loss
ĠSchlÃ¼ssel dienst
m angel
ĠD et
nL eider
ĠThe ologie
k es
ĠStu hl
nNach richten
um pf
ĠInfe ktion
Ġn at
Ġer zeugen
p ubl
ĠT ieren
ĠAuf stieg
teil ungen
st iges
B Y
Ġer bringen
nu m
au ten
or gan
Ġregel mÃ¤ÃŁige
K U
nS tra
f els
ĠN ICHT
c ommerce
Z D
F CB
ĠEnt steh
ĠBon trager
O n
ĠausfÃ¼hr lich
Ã¶ff el
ĠKn ie
Ã¤mpf e
s cri
nAn meldung
art h
rit ter
fahr ts
ĠC ommun
ĠGr unde
Pro f
6 20
96 34
Ġberu hen
ED B
97 21
di f
ĠWei s
nH Ã¶he
ĠAuf tritt
ĠKo hle
pl iz
D igit
be arbeitung
enn y
nP h
Ã¶glich keit
ĠLe ber
nPer formance
________________ ________________
ĠStud ierende
u ver
ov a
l ook
96 16
ĠBo sch
Ġjem anden
ĠA rab
96 83
ĠNor wegen
\" >
ank auf
996 93
eff izienz
ĠEinkauf s
bes uch
ĠSozial es
Ġnormal e
i men
ĠStre cken
ĠW elten
b ab
p unkten
s elbst
nP ersÃ¶n
ogra fen
Ġc re
ahr t
ĠAus sch
best Ã¤tigung
6 44
ĠSol idar
ĠVerhalten s
ĠD Ã¶r
ĠF ashion
B ehÃ¶rden
ĠO hren
an hÃ¤nger
ak s
ĠDatenschutz richtlinie
ĠIde al
nL G
vert retung
ĠB an
nN o
K ategor
ĠP ala
5 28
ĠDurch messer
eb o
Ġeff izient
B V
wer en
f on
nJ ugend
ĠVor haben
ĠBegrÃ¼n dung
Ġon e
qu est
ann a
ĠPrÃ¼f ungs
ti elle
998 47
ĠRub rik
Ġeinzig artigen
ĠM ik
ph y
t ums
ĠRa di
ĠAutor s
ĠBra unschweig
Ġsicher er
Ġb aut
ĠLiefer anten
ĠVorsitzen der
Ġempf angen
ĠFunktion s
in kt
eg ung
ĠTo uristen
ĠFrei gabe
P olitik
ption en
Ġs erv
5 18
ĠFor scher
Ġer wÃ¼n
B X
ĠB ut
ĠAn sonsten
ph ys
ĠSp ons
96 14
Ã¤ch eln
ĠAn melden
sk a
bel ast
schÃ¤tz en
ĠVerlin kung
ĠG elt
ĠGegen wart
Ġben annt
Ġl ern
0 98
996 75
gn Ã¼gen
Ġn amens
ĠKlass iker
ĠBr Ã¼cke
an schluss
s ucht
ĠAmts gericht
nN on
Ġfinan ziellen
........ ........
w an
H in
ord nungen
ĠÃ¼b rige
onder s
ĠSch atz
br Ã¼cke
ĠP ositionen
ĠNe bel
Ġsp Ã¼r
Ġangemessen e
voll es
Ġamer ikanischen
ĠG olden
Ġwesent lichen
nAn alyse
ĠErinner ungen
Ġfr ische
Ġsp Ã¼ren
ris iko
ĠD AS
Ġthe y
996 04
Ġh ef
ĠB ER
' ).
ĠN ation
ĠD ol
be eren
P H
Ġp m
Ġfinan ziell
ĠSch ad
re k
ist ischer
ĠTrans aktion
ĠIngen ieur
Ġdes ign
ĠL euten
Ġlok ale
ĠJ ames
nA bst
ĠSt abilitÃ¤t
J L
ĠEu GH
ĠB ike
Ġgeb unden
raucht wagen
5 44
ĠKat hol
ĠR eiter
Ġfest legen
Ġ arch
ĠZugriff s
ĠI SBN
ĠE cht
H o
n st
ĠT Ã¤ter
dis ziplin
6 84
Ġdamal igen
ĠFla schen
ĠE xtrem
v ester
45 15
ĠBer ge
ĠI ran
ĠDe ko
p aar
hn te
Ã¤r chen
Ġi Pad
rÃ¼ck t
i j
ON TA
Ġf assen
C DD
Ã¤cht nis
Ġoptimal en
54 0
B AD
Ġt rag
Z ur
ĠPri or
wach ung
ĠAuseinander setzung
S ense
ĠL assen
el ine
ĠDe v
ĠUhr en
ĠSozi ale
be e
ĠBÃ¼nd nis
Ġmoment an
7 09
ĠHost ing
ĠPerspe ktiven
IE G
ĠM ama
Ġg eile
ra mm
5 91
gangen en
E CC
20 02
y o
96 48
ende te
ĠK atastrop
Ġaut o
95 31
nIn form
Ġen orm
Ġb log
ĠEch tzeit
ĠWettbe werbs
Ġge ziel
is abeth
ir ls
nK ein
6 93
6 85
Ġn on
Ġuner lÃ¤sslich
nH ei
AC B
C AD
5 96
ĠG ame
Ġgeeig neten
s dorf
29 25
ĠDe cken
ĠZu ordnung
Ġzertifiz iert
ĠBesuch e
p ommern
nDie sen
nV ol
halt ungs
imm obilien
ch ar
ĠF ell
Ġfr ischen
spiel zeug
unkt ur
T U
f otos
ĠStÃ¼ck e
ĠAus gleich
all i
ĠSch uss
gr Ã¶ÃŁen
P hil
nM et
Ġ stelle
ĠFlor ian
ĠZu verlÃ¤ss
876 634
998 37
ind el
ĠT ast
ĠAuf klÃ¤rung
D ollar
âĢĵâĢĵ âĢĵâĢĵ
f Ã¤llt
d rom
rÃ¤n k
Ġbe zahl
ED D
Ġumfang reiche
ĠFlex ibilitÃ¤t
ĠD Ã¼
ĠAn weisungen
D ateien
ob b
ĠSt ufe
Ġbel egt
ĠGr Ã¶ÃŁ
ĠBeg leitung
Ġaufge hoben
Ġeng ag
ĠKÃ¤ se
auf nahmen
Ġc lass
ĠS org
k Ã¶r
ĠE X
Stand ard
66 0
nF re
Ġgew ohnt
ĠI SO
k enn
Ġoffi zielle
ĠG T
ĠA UF
fÃ¤h igen
Ġver br
Ġen or
ĠP orno
Ġk Ã¼ndigen
nWar enkorb
ĠNeu en
Ġum setzen
Ġdas jenige
5 86
Ġanges ichts
grenz ung
nNach name
ĠGesch Ã¤fte
996 46
Ġmass iv
ĠKom petenzen
ĠS yl
de fin
ĠBenachr ichtigungen
S on
ĠzurÃ¼ck zufÃ¼hren
word press
ĠB ienen
ĠF DP
rÃ¤n kungen
ĠMaÃŁ gabe
ĠDom in
nD onnerstag
Ġk Wh
Ġin terne
ĠB ogen
Ġgesonder t
nP eter
ĠBek lag
ĠArme e
ĠFa ir
heil kunde
ort h
nEin ige
Ġd ating
nAr beit
Ġerteil te
druck en
6 86
Ġj o
Ġpro v
kl ein
Ġs ing
y nt
nB reite
ĠAn bau
art ment
ly er
Ġange p
stand ards
R Z
arian ten
tik a
ĠMag net
Ġg riech
B ay
ĠLie ben
ĠVer fassungs
ĠHe ft
ĠP rit
os a
Ġregion alen
ĠSt Ã¶rungen
R N
ĠPfer d
test s
96 35
ĠQu ell
la y
ĠVert rÃ¤ge
K om
Ġerz ielt
v es
Ġhinzu gefÃ¼gt
Ġm ann
i sen
Ġger ingen
ĠRecher che
Ã¼ tlich
mel der
Ġdisku tieren
S yn
JÃ¤hr ige
ach se
verein barung
Ġ rie
98 057
5 95
ĠEr lebnisse
cc a
arbeit ungen
un dern
ĠAn wender
e de
nF ollow
k orb
Ġi OS
reck t
ĠMaÃŁ nahme
all orca
ĠPress emitteilung
h ers
f abrik
ĠFunktion sweise
ĠGr atis
c l
g yp
sp rachen
EE E
ĠJul ia
ĠTick et
m ungs
998 17
Ġm echan
ĠE ro
Ġkurz fristig
S ymbol
Ġnied riger
Å ¡
Ã¤ng nis
nM el
kla ppen
st ufen
M ein
lie der
Ã¤l de
Ġ| --
Ġ q
k redit
93 26
mm ert
ĠBenutzer gruppen
Ġl ike
ĠEr folge
) )
ĠHeil igen
ĠH itze
nAndre as
ab len
6 95
B au
ĠGeheim nis
nRecht liches
ĠChr isten
re den
st est
ĠP y
t ron
neu e
ĠPlan eten
lug ins
Ġgen ehm
ĠPhys i
Ġge fahren
es h
Ġproduz ieren
3 02
0 29
3 96
Ġaktiv e
K unst
ĠPark way
ĠC ru
Ġkor rig
Ġber Ã¼hrt
ichter stattung
Ġangegeben e
Ġerleich tert
ies sen
Ġs ome
nSpeicher dauer
ĠUnter kÃ¼nfte
G rÃ¼n
Ġwenig stens
aus weis
Ġbes ei
inform atik
C J
993 8
M agazin
ĠPl Ã¤ne
geb unden
ĠProf is
ĠB akterien
it as
ĠSem inare
Ġregel mÃ¤ÃŁigen
Ġerle digen
k r
ðĿ Ĳ
996 07
nM erk
L Y
Ġsex y
G emein
DF A
ĠWar te
n im
Ġâ Ŀ
Ġdar stellt
996 13
ĠO fen
ĠKla vier
ĠElekt ronik
hn er
Ġb uch
ĠV ul
us sten
ers p
ĠEin bindung
ĠBud get
nTe xt
7 08
sti ftung
Ġgest iegen
ĠT hr
Ġt rennen
ĠOs nabrÃ¼ck
sch end
ĠKunden konto
] ]
Ñ ĥ
Ġunkompl iziert
iz z
ĠMass age
5 07
Ġer halte
ement s
4 80
geschn eider
bew usstsein
b undes
nIn fos
997 77
c ss
5 10
ĠSign al
ri um
ber ge
w elten
Ġaus sieht
ĠgÃ¼l tigen
nS or
Ã ¢
oc us
AN N
ĠBl Ã¤tter
tec ted
ĠSpann ung
Sch alt
Ġbe achtet
d ocument
ĠSur fer
aktiv e
op en
ĠÃ¼bermittel ten
Ã¶ tt
st euerung
ĠI so
ĠBlog ger
ar tiges
tÃ¤ g
hil e
An alyse
mitt lungs
ĠHoch schul
nSch ul
ĠBern d
ĠA gr
se y
Ġohn ehin
A t
ĠA sp
ĠAbs ol
Ġautomat isierten
93 01
96 76
ĠGala xy
ĠTechn ische
c or
P ost
ĠK ampagne
lauf zeit
ĠT R
N o
996 45
dig ital
ĠÃĦ l
Ġvor vertrag
nF inanz
ĠUN S
zieh st
Ġrech te
Ġ 82
ĠAn tik
Ġan gesch
Ã¤dig t
ĠT onnen
96 05
ul Ã¤ren
ĠKon zern
1 000
Ġeinzel ner
Ġzwei mal
Ġbet reten
nS ollten
ĠEx plor
nPf lege
G X
har m
7 94
B EF
ĠnÃ¼tz lich
bele uchtung
hop Ã¤d
olog ischer
en ster
ĠTrans fer
98 71
akt uelles
N etzwerk
ĠVor schlÃ¤ge
\" );
Ġk ar
ĠH alte
Ġger icht
Ġnutz bar
ver sch
ĠSp rit
B ran
ĠE M
nA bb
Ġge boten
sw issenschaften
Ġzu geschnitten
ĠSch le
Ġre daktion
nH el
nMitt woch
hem e
T age
bs auger
ĠDarm stadt
ĠÃ¼ber ein
87 16
ĠAus rÃ¼stung
nF azit
nI s
ĠKommun en
rolog ie
ra in
Ġi sol
mo tion
ĠInter pret
il dete
Ġjung er
nAb lehnen
ĠAd obe
5 94
56 0
f rÃ¼
Ġer wachsen
ĠWarenk or
ĠC C
Stand ards
ĠSch ool
nH otel
Ġro te
ĠBundestag s
Ġpolit isch
ĠP rÃ¼
c re
Ġre prÃ¤
Ġc ar
Ġh d
gem essen
ĠLauf enden
ĠKraftstoff verbrauch
nD ass
or fer
ĠGra v
Ġh or
Ġ( =
ĠV eg
Ġsol ches
ĠJournal isten
ĠKÃ¶l ner
mitt lungen
ĠT abelle
96 15
ĠDe k
C BB
ĠL etz
ĠgefÃ¤hr lich
ĠG ol
al ts
Ġben ach
ĠverstÃ¤nd lich
at in
de burg
T ipps
Ġf eiert
g in
ĠStad tzentrum
Ġentf Ã¤llt
3 99
Ġheu tige
ĠGegen stÃ¤nde
ĠSpiel zeug
a ste
Ġerk unden
Ġin d
bie tet
87 83
c us
nF arbe
ref ox
I U
ĠAb gabe
ĠS ecurity
ter mine
ĠInfe ktions
dig er
Mod ell
ĠS ig
nA dresse
ĠÃľberwach ung
ĠC aro
ĠDar lehen
fli x
ĠR ap
ĠInf lation
996 33
iz er
Ġan ger
Ġ3 50
br ett
ĠLi ppen
ĠEner gy
str ategie
nKontakt formular
ĠL ob
Ġre par
ĠBedien ung
ĠWeb browser
96 54
R Q
nDownload s
ĠNational park
ech en
nF ot
ri o
an ia
Ã¤ss ig
ĠK ids
~ ~
prob iert
men gen
Ġ Î
ĠN ik
994 8
Ġant worten
Ġra dik
ĠGast geber
D Y
le bt
ĠMig ration
Ġzust immst
ĠM ord
bet riebe
ĠSt rei
St atus
Ã¤st chen
ĠAktiv itÃ¤t
93 43
CD B
97 34
Ġher an
dre ht
ĠErk lÃ¤r
ha ll
ĠBundes k
ĠpersÃ¶n liches
ĠS hopping
ĠEr m
ĠC l
Ã¼ che
Ġm ater
ĠT eig
ONTA KT
J W
w Ã¤l
C AA
ver mittlung
Ġbra uche
bl r
ĠJ Ã¶rg
ĠVertra u
ĠZiff er
K urs
Ġm Ã¤dchen
nÃĸ sterreich
Un sere
Ġvors ichtig
nW inter
ĠSum me
Ġo p
sei tige
analy tics
CC A
Ġgel angt
91 36
nA lex
s ich
ĠZÃ¤ hne
Ġab steigend
b lenden
aff ee
6 18
imm te
G ener
Ġaufge fÃ¼hrt
R V
97 07
Ġern euer
Ġgegen seitig
Ġunder stand
== ==
K rise
997 88
nAn fahrt
fa ce
90 14
D O
ĠTr ennung
gel enk
Ġf it
f amilie
ĠWill en
Ġinspir ieren
ĠAlltag s
ĠUmsatz steuer
Ġglob ale
Ġa v
ungs bereich
ĠA US
927 35
part ei
ĠAn walt
b ron
ĠA uÃŁer
Ġerweiter te
ymp ath
ĠL abel
ĠWerk zeuge
85 74
96 64
au ung
Ġschn eiden
Ġkonzentr ieren
ĠBeteil igten
ĠDe cke
Ġan halten
ĠOst ern
ĠAn lauf
ĠBlock ieren
Ġl Ã¼cken
ĠRie sen
M O
Ġvisit ors
ĠPoten zial
Ġinner e
Ġtoll es
w ochen
lan t
ol ution
Ã³ n
03 26
sch es
ĠO f
Z ug
au te
Z N
E Q
fÃ¼hr ungs
ĠK enntnisse
ĠK issen
ĠInter essenten
nBer atung
11 95
Ġ[âĢ¦ ]
ĠVerfahren s
ĠTurn ier
ĠW IR
Ġschla fen
Ġc am
5 84
Ġw Ã¤r
Ã¶ÃŁ t
98 80
Ġbesch leun
j ar
Ġg olden
Ġt at
Sti ftung
ef a
ĠWiki pedia
ĠS AP
ĠgroÃŁ em
um a
ĠLe asing
Ġstr eng
ti ck
ĠK lage
ĠTag s
Ġt eils
: :
ei r
IV E
nP ay
ĠH orn
ĠBe fest
ĠÃ¼berra scht
Ġspont an
AG E
ĠPrakti kum
u ppe
pack ung
ĠJ ur
ĠB ol
ĠEntwick ler
aut or
techn ologie
Ġdo ppelt
99905 03
ĠDigit ale
ho use
ĠLu c
ĠSch Ã¼l
97 53
hin weisen
Ġsch alten
ĠI l
BA E
nL ebens
ĠSt aub
996 36
ED C
ĠC up
do se
Ġ tier
nV oll
ĠP Ã¤dagogik
X S
Ġf amil
b ig
ĠBi bli
ĠL ifestyle
Ġfrei lich
Ã ł
ĠAn halt
ĠR h
5 93
p hen
ĠSchok olade
nD enn
f arb
Ġsow ieso
or i
Ġauf einander
on ald
96 24
so zial
ĠIn tensiv
n an
Ġst ecken
m utter
ĠAus schuss
86 93
r us
AC K
6 82
ĠNerv en
B AF
z auber
ret urn
ober flÃ¤che
and al
ĠP otsdam
ver folgung
7 81
Ġgleicher maÃŁen
P ass
{{ /
Ġindividu eller
Ã¼n kt
G A
ĠBes ser
ĠzurÃ¼ck ge
Ġan gel
wer tige
EB A
z end
ĠMus eums
5 08
Ġher ren
ĠzurÃ¼ck finden
her ren
ĠDe aktivierung
ĠBras ilien
ĠRost ock
V ER
84 35
Ġaus ser
ĠDatenÃ¼bertrag barkeit
nW elt
bes itzer
trag s
ĠRis ik
99 09
nGr Ã¶ÃŁe
ĠZ war
bl ue
ĠZw ang
K l
k amera
Ġauf bauen
Ã¼nd ungen
bas ierte
ĠSch Ã¤d
ĠSie d
ĠHum or
ĠÃĦ uÃŁer
ala t
ĠHer stellers
ĠMan chmal
Ġbest er
EF F
ĠC at
Ġab kommen
9700 991
met all
Ġfrem de
ĠGes ell
. âĢĿ\
6 12
way s
lass ungs
Ã¼tz ten
996 65
a dio
Ġtem por
ti se
Ġbe fÃ¼r
w Ã¤nde
Ġzu kommen
upp ertal
ĠN Ã¤chte
Ġzust ande
bach er
DB A
D ies
ose x
Ġin dustri
' );
ĠS yr
ĠVer letzungen
ĠD IY
T op
ref eren
Ġvorgesehen en
ĠHar ry
Ġklein eren
ĠGer ichte
Ġge hei
nH ot
FF B
kategor ie
Ġh Ã¼b
ĠN ull
6 87
ian a
ot ten
l ese
ĠTre ff
ĠT ore
95 65
zub ilden
t ter
ĠL aur
ant es
men schen
her stellung
Pla tz
Ġ1 70
sch reiten
ĠCamp us
k ula
w ittern
ĠB lei
n ow
998 08
Ġges ichert
R es
z usammen
Ġvirt uellen
ĠF ull
E EC
998 57
ĠSozial wissenschaften
sta ats
Z S
Ġbelieb ten
ĠD ating
91 76
fra ktion
ĠNet work
Ġg reift
ĠN agel
Ġange wendet
ĠInterview s
un ion
oler anz
K o
OR M
Ã¤t te
ag ten
ĠMom ente
ĠW inkel
C ont
ĠPhot ovolta
I DER
00003 92
D a
Ġporn os
Ġs ite
Ġ Ã¤rz
ĠL ith
Ġqualit ativ
ĠTe ppich
995 83
ĠJubil Ã¤um
ĠSol che
ĠJ edoch
aus fall
ĠK letter
ha llen
r iss
20 01
W V
ĠAmer ikan
sch u
produ cts
ast et
F V
997 28
Ã¤l tigen
Ġb it
c reme
nH e
ĠDesign s
Ġun nÃ¶
ĠT MG
ĠN ichts
st ad
ĠM alt
Ġmonat lich
Ġattra ktiv
sit Ã¤t
ĠN ieren
ĠEuropÃ¤ er
nChrist ian
in halte
ĠAb weg
cla imer
ĠT omaten
nS c
nF orm
nZ iel
jahr e
Ġer Ã¶ffnen
ĠÃ¶sterreich ischen
ĠEm p
men sch
Ġein gesetzten
ĠS icherung
ĠM ur
Ġle gte
ĠV ON
ĠOl iven
k rie
N ER
D DE
vor stand
ĠM S
ĠVER ARBEIT
Ġ9 00
richt linien
ĠEin zahlung
DF C
B I
ĠEurope an
m Ã¼ll
i kt
Ã¤r te
Ġgem eldet
ĠAt tra
lei den
usÃ¤tz liche
Ġan fangen
Ġkomplet ten
Ġver Ã¤nder
ĠFrank furter
ĠV el
ĠNor men
ĠAccess oires
ĠM Ã¶ch
93 56
w ell
Ġzusammenge fasst
hand elt
or ing
al em
optim ierung
ĠSt ro
s amen
ge fahr
ist a
Ġho hes
ild ing
ĠBeweg ungen
ĠKandid aten
07 16
ĠKartoff eln
ei ben
ĠBeg leiter
ustom er
95 86
H ilfe
ĠKind heit
D K
ĠTer ror
ĠW ann
ĠR eit
tem pel
95 08
ĠInter aktion
Ġge stellte
ay out
t alien
alis ierten
nL o
Un d
wohn ern
ĠHin zu
lie d
996 35
nP rivat
Ġer fordern
ĠAdvent skalender
fe ktion
gen Ã¶ss
prob en
E AA
Ġlie bt
nGesch ichte
gemÃ¤ ÃŁe
ĠGef Ã¤hr
a ber
ĠM ater
995 1
Ġth ird
Ġklick st
ĠB aus
ari at
57 0
Ġneg ativ
Ġst ieg
rock ner
G J
ĠLand schafts
gesch ehen
asch ine
ĠE qu
ed y
ic tor
Ġs age
ĠLux emburg
W Y
Ġkon f
nWeihn achts
sp a
13 05
Ġwahr e
o ffen
gem eldet
ĠK ochen
nP reise
Ġregion ale
ĠM u
ĠNachbar n
sch i
Ġentsp annen
ĠKro atien
Ġnachhal tigen
Ġimmer hin
Ġu krain
d an
ĠGesch w
Ġhei ÃŁe
ĠS G
9716 847
6 08
ehr er
94 34
ĠAktiv ieren
ĠTo pf
n un
AD F
3 97
beh inder
ĠZ ellen
ĠKu pfer
Ġf l
ĠAn ne
ei ste
96 84
âĢ Ĥ
DF B
ĠP ok
sta ur
ar at
be finden
nG el
ĠDritt el
ĠFe atures
ĠA quar
sti ft
C enter
ĠMensch heit
ĠH eu
Ġsch aut
nP rev
ĠBe fra
Ġso for
Ġschlech ter
F Y
ĠW Ã¤l
921 1119
ĠGrund schule
Ġkommun izieren
25 55
Ġbet reut
ch ange
ĠB Ã¶rse
Ġgesch ehen
Ã¼ss el
Ġim pro
ĠM ecklenburg
ĠErgÃ¤n zung
ĠEle ct
L oc
ĠVerbind ungen
S peich
ĠGesetz geber
ĠInvest oren
ĠK I
ĠGel enk
ĠErscheinungs bild
nJ ob
on ien
sb ach
nu ss
Ġspannen den
ĠTechn iken
Ġdank bar
ĠBest Ã¤tig
ĠÃ¼berw achen
Ġ ..
schrÃ¤n ke
B o
ĠSch all
Ġnach weisen
88 84
ĠR esearch
Ġ ep
ĠAr men
Ġk lin
98 50
ĠAus nahm
ht m
ĠR ights
Ġgesellschaft lichen
Ġmein te
Ġan lÃ¤sslich
Ġ1 960
k Ã¼r
7 12
Ġwar me
ĠRe form
ĠGroÃŁ teil
Ġbin den
ĠWirtschafts raum
96 06
ĠWir bel
Ġruss ische
rei z
nDar Ã¼ber
ĠBegeg nung
Ġorganis ieren
x id
95 36
ĠVer vielfÃ¤l
C ED
ĠStand orte
ry l
Ġâ ĺ
Ġschrift lichen
ow ski
Ġganz heit
97 37
ĠPlan ungs
E H
ĠKl einen
Ġanges prochen
Ġk ochen
96 93
ĠFerien wohnung
ein igt
lo gen
ĠAb sicht
ĠFran cis
ei digen
m g
v as
ĠSen der
ĠO pp
F EA
Ġnavig ieren
B AA
nF rau
ĠG ibt
ĠPoly ester
ĠAndre a
ĠBl ue
ĠMod el
ost a
Ġgest atten
zuf inden
Ġ20 24
l eren
9815 731
ch irurgie
ĠN Ã¤h
ĠUl rich
let tern
kon omie
ĠHerr schaft
er lebnis
F EC
akt uell
b isch
ĠBab ys
7 88
ĠPf und
nWill kommen
v ed
ĠÃ¼bermittel te
Ġk raft
96 36
ĠvielfÃ¤l tigen
Ġwunder schÃ¶nen
nN a
ĠRes pekt
ox id
W ohn
Ġ: )\
Ġintegr ierten
Ġver wei
Z er
w il
98 70
nV ert
OLLOLLOLLOLL OLLOLLOLLOLL
n atur
Ġein kaufen
ver treten
ec ts
Ġgebe ten
Ġkonzip iert
di an
Ġster ben
ĠPf lanze
end igung
ĠO k
Ġv ierten
kl ima
ĠPro b
Ġk rei
ĠMod us
998 58
Ġaber mals
Ã¶ cke
ĠL uf
Ġeinge fÃ¼hrt
Ġversen det
Ã¶ff nete
n de
nD ritt
ĠHy brid
Ġselbst Ã¤ndig
ĠFÃ¼ ÃŁe
4 90
ĠkÃ¼rz lich
rÃ¤n ke
L A
ĠzurÃ¼ck ziehst
re form
nRed aktion
igkeit s
ĠAuf fassung
W asser
ĠOl denburg
ĠÃ¼ brig
g ess
ent scheidung
ĠTher m
rÃ¤ ts
ĠS ucht
E nergie
98 40
W ar
System e
6 19
ler weile
ĠWohn mobil
ĠAmer ican
ĠB om
ĠS ant
Ġlit er
nT itel
20 24
A EF
ĠV f
nFor um
fe der
BF E
Ġalles amt
Ġvoll em
ĠSe en
96 88
ĠFer tigung
ĠK Ã¤lte
Ġbelieb te
r ies
dienst leistungen
Ġl ese
UN D
Ã¤ts el
ĠSt ark
B DA
S Ã¼d
entr al
p utz
ieÃŁ t
BF D
ĠEink lang
Ġill eg
nL iteratur
ĠStor age
der echt
996 14
ĠS amen
Ġstehen den
Ġjahr el
Ġg laubt
ad min
ĠPort folio
BB F
ĠFel ix
Ġkultur ellen
ĠT oten
ĠBÃ¼ chern
ĠZ insen
996 05
ĠF un
ĠRelig ions
ĠW Ã¤hlen
m uen
ĠPrÃ¤ vention
inten do
gend a
W Z
996 21
ĠErfahr e
v ater
ar tiger
ĠA spekt
ĠEx empla
Ġgro ss
ĠIn stitute
95 06
91 25
verantwort lich
ĠDritt land
nW ichtig
Ġbereit gestellten
01 75
ĠL as
ET ZT
Ġge fÃ¼hlt
Ġ ~
ĠNutzer daten
Ġf antast
Ġw it
A AF
Ġzug Ã¤ng
ĠFlÃ¼cht lings
996 24
ĠS hare
per te
Ġgr Ã¼ndlich
ĠFrieden s
Ġge holfen
Ġex klusive
rem ium
Ġrech erch
nGro ÃŁ
per ia
ru pp
Ã¶ch er
ĠRei s
F AF
Ġunterschied licher
E nd
Ã© e
Ã¼ s
druck s
Ġbe ge
er z
Ġab ger
gra de
f erk
ĠB os
ĠÃ¼ber nahm
ĠDis ziplin
y outube
al p
AB C
sha fen
ern ame
E AC
nB ek
97 51
Ġkontinuier lich
ĠK fz
len z
Ġstatt findet
de e
Ġs uche
Ã¤n ien
Ġab melden
U A
ser satz
if ic
ĠZuverlÃ¤ss igkeit
la w
Ġauf steigend
95 13
ST ER
Ġbew ahren
/ .\
ĠSti ck
st reifen
t ung
ĠE ber
W ords
nM a
co des
Ġ \\
gesch enk
freund liche
Ã¤n omen
Ġvertra uen
Ã¼ chen
umm ern
ĠA R
m ien
Ġaus fÃ¼hren
ĠKon flik
Ġschlech te
P at
Ġ1 950
ĠLiefer ungen
enn ungs
ĠEr werb
Ġorden tlich
M usik
Ver fahren
ĠSch ritten
ĠDienste anbieter
W Q
ier bare
0000 211
ĠSpe cial
ell i
ĠMedizin ische
st rukturen
ĠVor sorge
Ġein her
\" ).
ĠFlug zeug
W ER
il fen
iz ierte
ĠStr ategien
ĠFla ch
98057 765
996 25
D Q
ischer weise
U H
Ġv i
ĠMus een
Ġde kor
ĠZiel gruppe
el ect
ok uss
J uni
isch end
nF ehler
be ugen
ĠPrit love
Ġausges prochen
ĠMo derne
91 65
. ).
K lasse
Ġumfang reichen
st andes
Ġsicher stellen
Ġbundes weit
oo commerce
ĠPrÃ¤ sidenten
ĠAnge hÃ¶rigen
L X
Ġv iew
medizin ische
vert eidig
ĠOnlines hops
ĠHier fÃ¼r
ser lebnis
bas is
ĠKer amik
nH i
zub ringen
nE nd
In s
gen ehm
teil er
Ã¶pf en
ĠF lag
Ġnach folgende
lich st
Er ziehungs
ĠW andern
lies s
nZ itieren
verb andes
Ã¼r ze
wei hn
ĠV irt
w itz
6 02
mann s
u es
Ġf Ã¼
Ġg alt
ĠRegen sburg
ĠN ah
Ġintegr ieren
ĠSicherheits grÃ¼nden
log o
Ġauszu werten
in haber
nO der
998 52
tik er
ie ts
feuer wehr
95 24
ĠDefin ition
re b
Ġvier zehn
Ã¤um t
ĠBiel efeld
ĠSch ein
ĠC BD
schlag wortet
t licher
Ġvorliegen den
nL eistungen
Ġmorgen s
91 06
se c
AB D
j obs
ĠH undert
ĠverfÃ¼g bare
K arte
ĠAn stieg
80 26
in ation
Ġplan t
Ġk ontakt
ĠN ehmen
ĠAust ria
ro sch
Ġun angen
ĠGra z
Ġange wiesen
splan ung
Ġan statt
5 30
om i
ĠâĢĵ \
N e
ĠO ri
Ġgel assen
aka demie
ĠThem as
B el
nT o
ps eln
ĠWunsch liste
Ġ euer
Ġangeb lich
Ġmen schen
ĠGru ÃŁ
997 20
ĠRechtsan walt
6 29
ĠPro vision
Ġzwei ter
84 34
k leid
ĠL ib
996 73
ĠMar ien
Ã¤ uren
Ġges unden
l Ã¶s
Ġz auber
ĠAt lan
mal ink
0 99
Log o
ĠK B
C R
ĠZeit schriften
ala us
Ġsch einen
IL D
nW erk
ĠD utz
P Z
âĨ Ĵ
f Ã¤llig
ĠIn fra
op athie
ĠWasser stoff
ĠAufbewahr ungsfristen
ĠbegrÃ¼ ÃŁen
ob i
al so
res erv
ĠAb melden
995 07
seh bar
Ġaus probieren
Ġverlin ken
sen tiert
Ġent h
97 88
ĠSuch er
S hops
leich en
sprech ung
b re
nL i
ĠBBC ode
ĠDatenschutzbeauftrag ten
richt ungs
ĠGesch irr
Ġkom petent
Ġerst aun
Ġfe atures
beh ebung
tre ff
ĠT herap
Ġzusammen gestellt
ĠÃ Ĺ
ic ense
M I
ĠR ichtige
Ġkre ative
Ġverst oÃŁen
995 76
ĠE ll
996 16
r n
et he
Ġvers uche
K H
CC D
tis emit
Ġangek Ã¼ndigt
ie be
_ .
nW ichtige
s uchen
ĠA hnung
nSte fan
eil er
ĠZ o
F Q
ow een
arbeite te
ĠErsatz teile
f le
ĠImpf ung
ĠIden tifik
atz ung
er stattung
3 90
ĠSa una
ĠN AT
pul se
G el
nAn frage
Ġpar allel
ĠIn ten
S ession
be stellen
il f
Ġum zusetzen
ĠSt yle
ĠHoch schulen
ĠVer w
ĠSe elen
lauf end
Ġbet ont
Ġein gehen
Ġzeich nen
ĠKÃ¼hl schrank
Ġsch lank
f lÃ¼ss
he ad
ĠgewÃ¤hr t
996 23
5 02
ã ĥ
ĠEx pert
ĠK ohl
ag a
93 86
ĠunabhÃ¤ng ige
ĠB d
04 79
ĠSp eise
ĠRek ord
ĠL ad
person al
ĠGer hard
kom fort
L Ã¶schen
oot ing
n bei
ĠN ar
ĠMenschen rechte
m eier
ĠVer wand
Ġbet reibt
ĠVersicher ungen
all tag
Ġgemein t
ĠSchauspiel er
ĠGrÃ¼n e
N ot
ss icherheit
ru it
ĠEx port
Ġschwer er
Ġverab schie
Fil m
ĠG rÃ¤
ĠMÃ¼n chner
B itte
Ġsch eiter
ĠGer Ã¤u
ĠA cht
ĠAuf nahmen
ĠHar mon
ĠAn im
ĠEr teilung
ĠO ld
ĠAd Sense
F in
996 57
ĠArg ument
ĠLandes hauptstadt
B CA
Ġlang leb
nJ ul
ĠLe er
Ġein tragen
97 78
Ã¶r n
ĠRund funk
ĠwÃ¼n scht
Ġ arbeits
ma in
ĠVoll zeit
ĠZen time
eck te
ip ulation
93 33
p ly
######## ########
Ġteil t
Ġf f
nM ag
fest e
ĠlÃ¤nger en
96 27
ĠâĤ¬ /
ĠFÃ¼hr erschein
eh o
ĠS ven
h men
Ġsp erren
ĠGi pfel
Ġ Å
ĠKo alit
ĠEinblick e
Ġver sp
ĠBeschÃ¤f tigung
Ġbes uchten
K at
lÃ¶ ser
zei tige
Ġhal be
Ġref le
ho sen
ĠBeschÃ¤f tigten
r atze
ĠEn tert
996 03
Ġge g
Be arbeiten
437 84
EG EN
Ġvor kommen
ĠLÃ¶ wen
ran ke
Ġth rough
ĠSuch begriff
F ED
ĠAn wesen
Ġw echsel
ĠVer mittlung
A O
924 92735
96 77
ĠX L
pla ttform
ĠvielfÃ¤l tige
ĠSw iss
ĠFr isch
ĠRÃ¼ck kehr
in Ã¤r
ĠSchlag wÃ¶rter
g reg
Sch lag
sp itze
mil ch
ĠTi rol
Ġa ccess
a o
pe d
ĠVor schlag
94 86
zust immen
esch Ã¶n
Ġd icht
ĠM eg
nÃľber nehmen
ĠnÃ¤ch stes
996 91
Ġf rage
DE E
Ã¤m tliche
nBer eits
996 461
qu is
Ġkomp akt
93 74
h h
kt ak
ul Ã¤re
ĠDatener hebung
67 0
ĠK ampagnen
Ã¤ndig keit
Ġ> \
96 21
G T
Ġanonym isiert
W ebsite
Ġbed anken
Ä ±
ĠGef lÃ¼
ĠS MS
S k
is her
ĠTob ias
Ġverurs achen
Ãľ V
Ġdro ht
bl umen
in itiative
Ġge antwortet
sch ub
00 000
ĠT rinken
Ġendg Ã¼ltig
nO hne
ĠC all
ĠSc reen
ĠVer knÃ¼
Ã¼nst ige
w elle
ĠUS D
y t
ĠEinzel nen
verb Ã¤nde
nT ipp
nI T
Ġd ram
unn ing
ĠUm stÃ¤nde
ĠkÃ¶rper liche
eister ung
B UNG
Ġverantwort ungs
Ġ[ [
ineer ing
stag s
ĠMiet wagen
nW es
ĠBest seller
Ġeinge gangen
et ra
f ront
Ġeingeb ette
ab lauf
ĠP feffer
Ġaltern ativen
A ktiv
996 15
ĠgrÃ¼n e
Ġen ger
au x
Ġzuf olge
Ġfal schen
eh er
ĠA z
ull over
996 56
ĠM P
ĠDo uble
ĠVertrag sver
nAn sprechpartner
M edien
Ġdre hen
nR o
ĠWebf onts
Ġgro sser
ĠFakult Ã¤ten
998 68
ĠFor mel
ã ģ
Ġh ieÃŁ
athe k
ĠU K
ĠHel mut
Ġkommer ziellen
u sche
affen heit
EB E
C lub
ĠUnivers al
e ce
Ġp ort
ĠtÃ¤ gliche
Ġvor wiegend
isse ur
DE C
Ġzu ges
ol o
946 43784
ĠLe vel
ĠTemp o
Ġpro gramm
Ġeingesch altet
im it
Ġausge fallen
ch ain
ĠGew Ã¤sser
G P
Ġbein ahe
ĠZu lassung
96 17
95 74
ĠSurfer lebnis
Ġur heber
nI N
sch wei
setz er
rim Ã¤r
Ġm ulti
5 29
ĠMe yer
ĠGÃ¶tt ingen
Ġbe enden
Ġst raf
ĠS i
ff ic
ĠBet riebe
wechs lung
Ġfil m
programm s
ĠT LS
s werte
Ġn ett
beg riffe
he ft
Ġs amt
ro k
bew usst
st amm
ĠLou is
ĠausdrÃ¼ck liche
ĠDem onstr
jo urnal
ĠBe cken
f irma
ĠB ist
Ġgro sse
nT rotz
Ļ ¥
Ġm inder
il deten
Ġb ut
om a
91 75
6 10
Ġlie ÃŁen
ĠSorg falt
Ġs ervice
le uchte
ĠMan che
ĠAn ders
sch ir
DE F
ĠAn dern
Ġdre ht
Ġr eine
Ġzu t
ĠWÃ¼rz burg
ĠO P
nach folgend
ĠFreund schaft
ov o
Erziehungs wissenschaftliche
ack t
EC D
un ternehmer
ĠE g
ĠB ag
Ġnachvoll ziehen
95 26
In fo
dienst es
w oll
mer kt
ĠF ab
ĠSch ach
Ġverschieden sten
ĠAus blick
ĠGew issen
Ġab gesehen
Ġab rufbar
ĠB il
ĠSch aum
Ġblo ÃŁ
laus eln
ĠRo se
Ġunter halten
Ġdur ften
st anzen
96 22
ack er
ĠBundes land
ib len
Ġfrag te
ie ger
ĠCo ver
Ġw ieso
lehr er
nDeutsch e
ĠG al
ĠE w
ĠR end
Ġnach lesen
ic tion
L I
Par ty
ĠBetreiber s
do sen
on te
schlieÃŁ t
G Y
Ġkontroll iert
ĠJ ud
zahl ungs
ĠFÃ¼hr ungs
is ation
Ġausger ichtet
nPro fil
gesetz e
ĠPsych otherapie
Ġ Ã¤r
verein s
ĠL ong
95 85
Ġbrit ischen
Ġso was
ĠKop ien
ĠKomp lex
Ġp lugin
str eit
ieg ler
Ġe uren
Ġeindeu tigen
nTechn ische
h Ã¤n
ĠSoft war
997 87
re am
im pressum
Ġzu ordnen
TS CH
ĠK ai
be er
995 84
ĠWohl befinden
eg ram
ĠWurz eln
s ame
ĠGesch ehen
ĠAktu alitÃ¤t
Ġver grÃ¶ÃŁ
Ġabend s
mod ul
Ġt raf
ĠwunderschÃ¶n e
ĠBe achten
Ġbevor zug
Ġumfassen d
gel Ã¤nde
ad c
ol um
Ġla uf
Ġgrundlegen den
Ġn ahmen
Ġfreund lichen
J a
Ã¼ ssen
ĠK ita
ĠUn abhÃ¤ng
gen annten
996 06
stÃ¤ndig er
Ġ ]\
Ġdarauf hin
ĠZ oo
7 10
to ut
Ġinteress anten
ĠEin schÃ¤tzung
Ġarbeite te
ĠG am
ĠRe aktionen
IS S
la dresse
K ultur
ĠK Ã¼n
urr ent
Ġander erseits
we den
C EE
h ier
Ã¤uf ers
ĠZ erst
Ġok ay
cadem y
ĠP utin
no sen
nL eben
N ord
nM i
T our
Ġn ix
Wer bung
Ġv eg
Ġabsol ute
ĠBarb ara
ĠSpezial isten
ĠTo uch
998 48
ĠAb weich
ĠBe ach
nVer ein
fe e
ĠN ationen
o tify
ĠBern hard
hand werk
b rot
Ġsc rollen
ĠDu isburg
J Y
D Z
98 41
ĠInspir ation
Ġ1 988
B FF
CB A
N et
ĠS un
an meldung
ĠP res
riv ate
B ike
M ax
R Ã¤der
97 48
sie ger
r ier
ti rol
wie gen
98 51
Ġunters uchen
nu s
ĠÃ¼berra schen
ðĿ Ĺ
un ing
ac o
ĠKauf preis
ĠH eck
Ġ ]
ĠMarkt platz
ĠFrÃ¼ chte
X Y
Ġgem Ã¼tlich
N etz
Ġerfahren en
F ern
ben teuer
ĠA x
ĠLand tags
ĠÃ¼ber setzt
ĠFlie sen
C N
ĠSp eisen
Ã¼st et
Sch ule
ĠGegen stand
o ftware
BB D
ĠE du
ĠÃľ bung
ab schnitt
ĠZuf all
Ġtyp ischen
E mpf
Ġumfassen den
Ġbesser es
ĠSonst ige
Port al
ĠvielfÃ¤l tig
sen dungen
re at
kk u
nF amilien
ĠBarr ierefrei
ĠC laudia
zu legen
Ġletzten dlich
wÃ¼r dige
86 79
lei hen
zei tigen
gl Ã¼ck
iv als
V ert
in vest
90 83
Ġge fordert
995 15
ĠRechtsver letzung
Ġinvest iert
Ġ} );
nJ an
ur b
m eist
ĠL G
Ġunzur eichen
M Q
Ġmensch liche
sa ison
ĠRÃ¤ umen
84 15
ĠRe zensionen
Ġer l
6 88
nC he
nGes etz
Ġev tl
b or
Ġl eitet
995 85
kat alog
Ġst euern
U O
ĠCha llen
nK auf
mm e
ĠMitt eln
Ġsp iele
ron ic
kom bin
ĠR ay
Ġabge zogen
ĠHel den
nUm welt
st ationen
Ġbew Ã¤hr
hyth mus
g itter
Ġ1 05
no de
ĠMel de
nF in
ĠMet al
ĠDeb atte
nU p
ĠBuch ungs
ĠLand tag
DC D
Sch w
Ġverwen de
98 79
od a
ĠKop ie
Ãľ N
B Z
ĠFin ale
ĠL Ã¶sungs
Ġs ho
uf akt
ĠDie sen
Ġmit zuteilen
C Y
Ġweit gehend
Ġheraus ragen
ul ette
gyp ten
ĠSt ufen
ĠWie sen
et ti
W ider
ĠEin nahmen
viel falt
92 84
ĠN S
ĠG lÃ¤ub
ĠL ove
ge stellte
nF est
9834 1286
ĠAus stellungen
leg te
ch or
Ġso mmer
ĠBetriebs wirtschaftslehre
z ungen
EC A
CF B
Ġabzu lehnen
Ġbeob achtet
p lÃ¤tzen
Ġzu stÃ¤ndige
nV ideos
int l
nAn zahl
nAntworten LÃ¶schen
ĠKer zen
ĠÃ¶ st
D T
nN ieder
ph il
f ell
Ġins oweit
94 74
Ġan zusehen
ĠSt reifen
Ġev angel
Ġchar akter
Ġl Ã¤nd
ĠDie ter
ĠVer zeichnis
el tern
ĠS cript
ĠlÃ¶ st
ĠR SS
ĠSachver halt
EN N
Ġdro hen
ĠV I
ĠWeb design
ĠWar m
ĠMitt els
ĠPat rick
Ġuner wÃ¼n
ĠVer stoÃŁ
ch i
ti mer
amm lungen
ĠEnt sch
velop ment
nD E
nM ir
ĠFla sche
vÃ¶lker ungs
{ }\
ĠF Ã¼nf
he ater
av i
Ġkrit isch
ĠGro ss
94 905
lei h
ĠBr Ã¼cken
ĠVer lÃ¤ngerung
} )
997 08
Ġmoder ner
Ġl ernt
9027 1884
anz er
nweiter e
00 85
Ġger inge
98 60
ĠVervielfÃ¤l tigung
Man ager
sb ruck
Ġempf ind
alis ierungs
M R
ĠHu wi
nSchn ell
I H
ĠL IN
her ige
is met
lÃ¤ chen
Ġ2 20
ĠF ire
ĠPro te
ĠDu sch
be c
nNe xt
un ts
wend igkeit
Ġp at
91 54
ausch ale
ĠW C
ĠG ehÃ¶r
Ġc le
981 85
er a
se hr
ĠE mm
nSon ntag
if y
B CD
f aktor
ĠFantas y
998 40
nKosten lose
ĠDeck el
M ain
ĠgehÃ¶r te
Ġbean tragt
mit arbeiter
ĠS ec
is hed
ĠS uchen
ĠSt y
plan er
ĠOr igin
ĠInner e
ĠK rei
ĠJo urnalismus
ĠLap top
ĠG abr
Ġunver gess
rÃ¤ u
Ġsozial er
94 76
stand ort
sa al
Ġuns icher
93 36
nD ank
ĠTra ge
ĠBe vor
Ġsp enden
ĠCh rome
Ġhervorragen de
ĠS ales
s l
Ġl ine
ĠEr ziehung
g Ã¤rten
k leidung
ĠDatenver arbeitungs
ĠM ov
ĠU we
996 95
c ent
ĠVerlag s
993 11
ab ol
ie h
ĠW ord
ĠgehÃ¶r ende
Ġg rau
ĠS ho
90 74
Ġk ategor
Ġwieder hol
k art
nB ack
Ġgereg elt
ĠDon au
ĠLe ucht
ĠGeh alt
D SGVO
7 02
Ġhin gewiesen
Ġinformation stechn
Ġkombin ieren
Ġvertrau ens
Ġd ist
sp arkasse
ĠK Ã¼ndig
ion e
no der
chten stein
996 77
iv a
ĠT enden
F K
y en
ĠSp arkasse
ĠSeiten betreiber
995 86
unction al
Ã¶ den
ĠBe at
BB C
Ġsch utz
Ã¤chs ischen
ĠGeb Ã¼hr
cel ona
pl Ã¤ne
Ġauf gestellt
ĠWahl en
âĢľ ),
ĠDruck er
ĠAs ien
Ġv ideos
nS onder
ous ine
wÃ¤ gung
flÃ¤ ch
ĠLebens dauer
nP hil
Ġvers us
ill s
un nen
ĠClass ic
la ster
ĠH allen
Ġges amt
996 54
Ġgeb rauch
nAll er
ĠAus fÃ¼hrungen
ĠEr bringung
hy dr
ĠLi ber
P ark
Ġneg ativen
ta schen
h ut
ĠL ungen
P aper
so fern
Ġtradition elle
C P
E UR
ufactur er
sek retÃ¤r
ĠMit hilfe
zw ald
ein gesch
ĠE R
ĠgewÃ¤hr te
ĠKryptow Ã¤hrungen
W o
ĠHand lungen
nT hema
ĠÃ¼ber arbeitet
87 21
93 13
b ots
ĠMÃ¤r kte
94 35
ĠÃĦ hn
J Q
96 43
ĠEinzel heiten
S Q
is men
it us
ĠSa al
ĠVolks wagen
ĠMess ung
ĠbenÃ¶ tigten
nB ran
Ġra sch
Ġnutz er
ĠLam pen
BB E
sb urger
Ġgepf legt
nIn formation
gew ebe
ver m
995 65
ĠC ash
ĠIn dem
Ġdigit aler
lat te
ĠT Ã¤
ĠApothe ker
V ol
ĠbemÃ¼ ht
ĠEr hÃ¶hung
ĠArchÃ¤ ologie
stra ÃŁen
ĠSp ir
nE vents
Ġk unst
Techn ik
com e
f oto
ĠKon struktion
ĠGut achten
ebsit es
nW ind
Ġ1 01
stand ard
V U
ĠSchrift arten
ĠReise ziel
Ġgemein nÃ¼tz
t witter
Ġfinanz ieren
ire d
Vers and
f uhr
O ST
ĠSystem en
Ġempfehlen swert
ĠW eine
ĠMill ion
Ġge teilt
t anz
Ġbe zeichnen
nC ar
ĠEr sten
DC B
EG O
ĠFir st
m Ã¼hle
sport al
r eit
ĠRe ad
ĠS GB
Ġ1 986
ĠDi abetes
Ġ- ---
b rochen
setz bar
ra ÃŁe
ĠG n
Ġm erkt
k lo
CF A
ĠBayer ischen
94 55
ĠEin mal
nach weis
rau ber
Ġtechn ischer
Ġpol n
Ġqualifiz ierten
klus iv
17 73
Ġvers orgen
nV ielleicht
ĠGer echtigkeit
Ġd umm
st ritten
ĠM osk
ĠBundes wehr
ĠP ier
95 76
* ,
Ġfr Ã¶h
Ġkurz em
Ġschm eckt
ĠP osit
Ġam azon
ĠW atch
Ġwirtschaft lich
ĠA kten
Ġgesamm elten
Ġlang jÃ¤hrige
ĠHistor isches
nÃĦ nder
nU l
u hren
nP at
sk raft
Ġkrit isiert
ĠFle ck
nZ ug
ĠGemein der
ĠRef erenz
bedien ung
Ã¼ sen
ĠE dit
ĠL en
Ġz Ã¼
ĠS abine
ver y
Ġstarte te
ĠTrink wasser
Ã¤ he
ĠÃ¼ber s
ĠQuart al
97 28
Ġwh ich
etaill ierte
g b
nWiderrufs belehrung
ĠKÃ¶nig s
ĠzurÃ¼ck setzen
Ã ¸
B T
Ġzahl t
nSch ritt
M a
Ġange ht
Ġzum ut
Ġk unden
ĠM ent
Ġo ver
ĠWohn raum
c ore
Ġm achst
nTechn isch
Ġabw eichen
Ġattra ktive
nB ad
ĠGes ichts
ĠUp dates
Ġjeg licher
Ġstaat liche
sp an
Ġwichtig es
Ã ª
fr eit
lÃ¼ss elt
Ġsch einbar
wach s
nHin weise
ĠDist anz
Ġbeteil igen
Ġspe ktak
ĠE ur
Ġvertra ut
95 17
foo d
ul pt
Ġeinzig artig
ĠNutzer aktivitÃ¤t
6 96
iat rie
ĠEr nte
Ġver weisen
ron g
ĠKa is
ĠMod ellen
ĠJ og
u ern
Ġverz ichtet
Ã¼n ster
x e
vor haben
996 00
ĠNeu ro
ĠZeit zone
ĠArbeits markt
angeb oten
Ġjeg liche
mar sch
Dien ste
ĠzukÃ¼nf tigen
98 10
ĠDekor ation
Ġge p
ĠEmo tionen
G r
nNach haltigkeit
ĠH ER
Ġbesch weren
D AF
le d
nFunktion ale
ĠAd Words
ula tor
ghan istan
hel p
ĠTeil nehmern
isten ten
M E
eter inÃ¤r
Ġoptim iert
P lugin
ĠNach folger
ĠKontra st
ĠBenutzern ame
F EE
rend s
oren z
ungs frist
ĠGrund funktionen
ĠMo z
ĠKÃ¼r ze
ĠKon zepte
der te
Ġvorher igen
EW S
Ġum zu
nAuf grund
sol e
F I
ĠBrem er
hÃ¼ lle
to uren
D em
beh and
ĠP au
5 19
Ġnach gewiesen
eig ht
995 46
ungsver hÃ¤ltnis
uss land
Ä į
war tet
ĠStand orten
ĠM Ã¶
ĠH amm
ĠIntern ationalen
Ġkommen tierst
ĠRef lex
n ommen
wir d
93 11
ĠUmwelt schutz
ĠUm bau
rÃ¤ uch
ag ung
p ause
ĠAn kauf
Produ kt
ir gend
eier mark
ĠTex ten
6 80
u it
Ġdarf st
ĠM ust
ĠDem o
t rue
ĠGegen d
el ement
ĠEntsteh ung
Reg ion
Ġf lÃ¼ss
ĠDaten speicherung
Ġwesent licher
h essen
Ġus es
ĠBeruf e
S N
Ġvoraus sichtlich
C AF
ĠGu ide
V on
81 27
Ġinter nen
ĠmaÃŁ geschneider
S how
h end
ĠKonsequ enzen
ĠWiderspruch srecht
ĠC ard
nDes ign
ĠAuf trÃ¤ge
nApp le
b w
S Z
ĠBro sch
nMit glieder
Ġgro ssen
ĠEr furt
nDi rekt
ĠStadt kern
ĠSor ten
ĠSpe ed
Ġfrei geben
95 46
ĠSprachen zentrum
996 53
V K
gra u
95 84
ĠM is
ĠFakt or
stre cken
ĠSch riften
nM eist
994 24
nFil ter
a al
ĠSeiten auf
hre ad
Ġbehaup ten
r iken
est aur
EC HT
n ew
ĠN ad
n ieder
Ġre publik
Ġla ss
in us
ĠH aupts
gra f
X Q
97 61
nDritt anbieter
F acebook
995 37
995 11
ĠStrom verbrauch
h au
D AA
st yle
el ier
ĠH ass
ĠZ DF
995 66
pul ver
orien tierte
Ġzerst Ã¶rt
Ġschw ach
leg ungen
ĠHack er
ĠD est
ra ut
be kommen
ĠGebÃ¤u den
dre hen
fot ografie
9818 114
M otor
Ġsch ier
ĠL ar
rat es
Ġun ivers
Ġnach folgend
ele ase
sp rit
5 97
nB eh
Ġgen e
ĠK asse
95 56
91 84
se xtrem
Ġbet riebs
95 66
Ġt our
ĠP ers
ĠForm ulare
nFil m
ĠT rÃ¤
am ine
ĠE h
ĠB ody
CC B
95 44
Ġplatz iert
ĠMar io
nH y
nG egen
ĠA qu
Ã© s
nVerk auf
bar ungen
ĠKredit karten
Ġpf lanz
olle ge
ell ungen
Ġzug unsten
ĠAl bert
nG et
99 988
Ġeinzu legen
ĠFinanz ierungs
ĠT ime
81 75
5 87
ĠU St
ake ten
ĠWÃ¼r de
Ġanges iedelt
ĠS H
de cker
d ies
ĠFranzÃ¶s isch
ĠK Ã¤r
Ġerst klass
Ġbef ind
93 46
prÃ¤ senz
91 27
998 38
B enz
EN EN
ĠKno pf
96 87
Ġbas ieren
sicht s
ĠB lan
ĠK anzlei
DF D
om epage
995 06
ommunik ations
u alitÃ¤t
94 46
e vents
nb y
ĠSpr ung
ĠgenÃ¼ gt
nR es
nBel iebte
ĠLith ium
ahr ung
Ġb lÃ¼
ĠV Ã¶gel
7 99
W K
ĠtatsÃ¤ch lichen
ĠComp liance
p ern
schlÃ¤ gen
C ard
ĠP KW
nH at
W P
ra it
eich e
Ġr at
sch alter
sch ten
Ġmin i
B ar
93 06
ĠWei mar
ĠBe achtung
Ġb arrierefrei
ĠZugriff e
Ġ1 987
nA ch
2525 2525
Ġvorher ige
Ġbel egen
ĠB ert
pack en
Ġs yn
ma ster
ĠSchÃ¼l ern
N ieder
Grund verordnung
ĠH irn
vertis ing
Ġpro tected
b ilden
Ġf ett
ĠDie t
Ġsch enken
F DD
nZahlungs arten
ĠL enk
ĠI S
pr es
F EF
Ġle git
A H
Ġwo fÃ¼r
Ġbas ierend
t uren
ĠMas ke
ĠT SV
c art
995 75
att ung
Ã¼ bt
ĠBeg eisterung
6 30
ĠT U
93 75
ĠNot wendigkeit
Ġver halten
lei dungs
ĠÃľber greifende
ĠGe wer
row n
ĠOrd nungs
Ġtranspar ent
ick et
w affen
ph ie
kÃ¼ che
ĠDes wegen
ĠJ Ã¤nner
och t
Ġfort laufend
5 80
ĠAb schied
Ġaus gesch
ĠDatener fassung
spekt rum
z eln
ĠSan itÃ¤r
ro b
ĠSpiel s
bet reiben
ĠWol ken
ĠVer schw
war ten
ell ing
T K
ĠdiesbezÃ¼ glich
ĠH alter
Ã¤ hn
ar ticle
ari fe
Z ubehÃ¶r
ĠerhÃ¶ hte
ĠR itter
ĠTa uch
f lie
nG ruÃŁ
ĠDok umenten
bezogen en
Ġsol ch
Ġweiter entwick
ti en
lus ive
ĠPlan et
Ġwind ow
96 63
Ġkontroll ieren
ĠS mil
spf lich
Ġdeutschsprach ige
ĠSp er
weiter te
96 13
ĠVer stÃ¤r
ĠJuni or
nV iew
r ichtig
la sten
Ġte urer
92 98
Ġs ilber
nO ut
rib ute
G o
ĠDatenschutz hinweisen
oll er
94 65
ti le
pf te
76 76
bel l
nL ive
ĠAusnahm ef
ick ets
| |
fla sche
leg ten
kra ut
Ã¤dagog ische
996 44
Ġprov ide
nF otos
Analy tics
f low
Ġeffe ktiver
lat ten
ĠAk ismet
s dauer
Ġver spricht
Aut o
ĠT ruppen
fÃ¼g barkeit
ĠT ech
D N
l iteratur
ĠNet to
Ġvon einander
O I
Ġunzureichen dem
iz ierten
finanz ierung
L auf
ĠLang zeit
ĠCh i
ĠUnter seite
ĠMann schaften
996 67
ĠGe orge
95 14
Ġ1 972
Ġverlei hen
st yp
nS h
ĠB anner
ĠElekt rom
ĠAv ant
Ġ3 000
ĠW O
ta uchen
ĠEr holung
83 56
Ġauf w
Ġbeh inder
ĠKomp lett
Ġso zusagen
ĠFor derung
auf lÃ¶sung
er es
j amin
Ġneg ative
Ġver eint
nAu di
E KT
88 04
84 25
zep ten
mak ler
Ġp r
B ew
Ġent tÃ¤u
T ool
ĠSp recher
ss eite
Ġkre ativ
dig keit
Ġkop ieren
ĠFranz isk
ĠAn dr
ĠVer netz
ĠKonzer te
om ain
991 27
ĠP kw
Ġeinheit lichen
Ġvers uchte
Ġv ierte
M Z
ĠGeist es
904 5
rin zip
S uche
ĠAus nahmen
ĠÃ¼ber lassen
empf ehlen
nzur Ã¼ck
6 09
so zi
G eh
kir ch
ĠLein wand
E vent
um er
Ġbe auftrag
ĠVer dacht
ĠRe view
F DC
ĠTra gen
ĠM un
ro nis
l itz
ĠL angen
Ġs m
rat et
bes ucher
Ġcoll ect
Ġf ried
b oot
n ist
Ġb ack
lÃ¤r t
St Bl
k ino
P lus
ĠInfe ktionen
ur ce
r asse
nC omp
verkauf t
Ġwesent liche
v it
93 25
ĠfÃ¼hr end
greif end
af a
ĠMÃ¼ he
94 45
ĠSp ark
ĠAr sch
96 97
996 08
ĠVor bild
3 98
ĠBestÃ¤tig ungs
sch warz
Ġverwen dest
for e
W N
ĠL etzte
nM artin
ĠDis c
po wer
ĠBundes amt
minister in
994 16
sum me
Ġinhalt liche
ĠProdu ct
Ġverst orben
5 09
ĠL enz
Ġwieder holt
Ġver teilen
ĠWander ung
olog ies
Ġb ilder
d os
ĠA th
ĠVertrag spartner
Ġausge prÃ¤
C Q
sch alt
bo hr
95 04
R Ã¼ck
zi gen
bezeich nung
nG eld
or ger
AR S
99877 23
? !
995 73
995 2
re gung
ĠAndern falls
weil ig
â ĪĴ
Ġverschieden artig
996 11
Ġk rieg
ĠReg ister
ĠMr d
ath le
eb urg
ĠMag deburg
ĠJak ob
ĠVorsitzen de
Ġer stellten
im age
hn ten
itz el
ĠC are
ĠRei ÃŁ
O H
ĠIr r
re port
ĠTe en
ĠMed itation
CC E
tig st
eld ungen
Ġex pliz
ĠGem Ã¤lde
krÃ¤ ften
Ġgegen wÃ¤r
ĠT an
96 47
ĠJo achim
ĠV R
Un ser
C hrist
94 73
rech nen
ĠSing les
situ ationen
ak es
acc ess
Ġbed Ã¼rfen
k in
l ess
nW e
ĠSon y
Ġwest lichen
wÃ¤ sser
ĠÃľberra schung
FS I
ĠB auf
tag on
ĠT OP
gesetz te
* .
ĠB uttons
ast eln
99983 04
W A
ĠL Ã¤rm
Ġgew achsen
Ġen ergie
993 85
ĠG lanz
94 23
ĠZuf riedenheit
ĠB ass
ĠL ichter
Ġz ivil
get rieben
ĠGes ang
ent ra
zu cker
nS mart
ro und
ðŁ ĩ
Ġex akt
at hl
Ġk an
Ġ }}\
Ġrecht lich
ĠMa j
fil e
ĠGesch lechts
Ġfest zustellen
Ġaus wirken
merk ungen
ĠDar auf
ĠLeip ziger
ĠP ick
ĠKon gress
Ġein ander
IG E
ĠEl isabeth
nM arkt
t ten
bron n
ĠK amin
ru h
ĠWen iger
end ar
AB F
Ġgeschlossen en
ĠMark et
ulgar ien
ĠEben en
bÃ¼rger meister
95 15
Ġt ausend
ĠCorpor ate
k ost
hin ter
lich ter
ock t
Ġ1 985
ĠKommun al
91 45
Ġa ds
ĠA er
ĠBedÃ¼rf nissen
ĠP rax
ĠLiefer umfang
ĠRo land
eigen en
sch ef
ĠVerantwort licher
ep rÃ¤
ĠK aufen
95 35
Ġopti sch
wer fer
Sch ul
amer as
ĠEr mittlung
k ant
in f
ĠRes ult
nGes amt
H ot
ĠSchwei ÃŁ
Ġschlech ten
ĠFahr zeugen
t ab
IDER SPR
spla ttform
ĠF azit
ĠMar ie
h as
lÃ¤uf er
al o
Ġ1 984
t hemen
ĠKranken kassen
Ġech ter
ĠSauer stoff
ĠAmb iente
ĠVer fassung
eiger t
Ġnacht rÃ¤glich
ĠEin er
Ġ> >
tifik ate
ĠComp any
Ġw aschen
ne x
ĠApothe ken
steiger ung
91 34
94905 263
and in
Ġk ind
Ġsch arf
L iste
ser fahrung
Ġwei hn
ch o
ock et
N icht
Ġp osition
nEin zel
M ag
Ġausgeb ildet
Ġausb leiben
Ġver dien
eld ung
Ġteil zunehmen
m itte
i des
ĠW ER
Ġun end
omet rie
ĠJe an
ĠLat ein
nDan iel
ĠhÃ¶ch stens
L a
re uth
ĠMo tive
M ann
Ġunbegrenz ten
aller y
spart ei
in ie
CA E
wie se
Ġwar men
ĠAr mut
Ġgef eiert
nB ew
T ags
ĠRo te
z iert
Ġd or
es la
Ġwahr genommen
or ies
ĠStÃ¤r ken
ĠDir k
Ġph il
n Ã¤h
Ġeigen tlichen
hÃ¶r igkeit
n och
wen ien
ĠLin ux
ĠM Ã¼hl
aut hor
ĠH ammer
ĠSchm utz
ĠIden tifizierung
ĠPublik ation
Ġstaat lichen
ĠN EU
ĠRass ismus
995 00
E lekt
uver Ã¤n
Sch eiben
Ġdiver gent
anz ahl
li fe
Ġnied rigen
94 03
nW etter
ur l
ĠF it
ĠGegen Ã¼ber
schn eider
ard inal
H ash
ĠBe endigung
ut es
Ġer leb
ĠR ainer
99 02
ĠAus gangs
V N
ĠRo ten
ank ungen
ĠWag ner
nP ublik
Ġzuf Ã¤llig
Ġliefer bar
ĠTerr assen
Ã¶ tet
ĠGew ebe
nKon figurieren
ĠAb holung
nKont aktieren
ĠTelek om
A bo
oo Commerce
h und
m pel
nEr n
B CE
ĠHeraus geber
ĠSa lat
997 18
J G
Ġher stellen
ra uchen
nH olz
nD ruck
95 45
P K
Ġengl isch
be a
ĠBe urteilung
Ġeingeb ettet
L ebens
ĠBel eg
T N
over n
96 03
ĠVol umen
ĠR Ã¤tsel
Ġeigen em
be stellung
Ġeinfach es
ĠKart on
anspruch nahme
ĠInstr umente
96 53
95 94
rakti kum
nSch Ã¶n
Ġsch Ã¤d
91 46
Ġschrift liche
ĠDienst leistungs
ĠR ena
85 84
997 78
ĠTh or
oc i
Ġd ingen
994 73
ser fÃ¼llung
E AF
14 55
Ġdass elbe
Ġletzt es
ĠSpeicher dauer
Ġdiffer ierend
93 55
p ose
Vor pommern
ĠFerien wohnungen
ĠVerbraucher schutz
Ġaktu alisieren
ĠB atterien
nG eben
Mit glieder
Ġf lieÃŁen
Ġjetz o
Ġsch aff
Ġar g
k etten
Ġinnov ativen
Ġverlei ht
un es
ĠBe an
Ã¤uf ige
98 30
ĠR y
ĠVor jahr
ĠL ow
ER N
ader born
89 11
Ġkrit ische
ĠKlin iken
nInter ess
gra ben
ĠBestand s
l t
ĠRahmen bedingungen
nB aby
93 23
995 74
ip ment
ast ik
ĠVerein igung
nS teuer
fa q
R ef
ĠEt hn
ĠVorles ung
ĠNeu stadt
krit ik
ĠLin z
lot ten
ĠHa be
94 66
Ġklar en
Ġein richten
Ġw hile
ab d
ĠEl ite
t elefon
ge halten
nG ibt
8 254
Ġgesch Ã¤ft
ark eting
pf ten
ste am
F e
p zig
liess lich
ĠW ik
94 28
ĠIn dik
z icht
ĠBet ten
Ġange zeig
ĠM allorca
97 20
ĠAngel egenheit
96 954
Ġj ust
ne val
994 26
Ġuns icht
996 63
nUr heber
al m
ĠGar antien
ĠRuck sack
ĠF ing
nKl ima
ĠA ktions
bereit schaft
Ġan wenden
90 23
kon zert
P B
nR atgeber
ĠRud olf
be b
Ġhal ben
Ġgew al
nW ein
k rankungen
ter ms
ers dorf
Ġelektron isch
ĠWei le
cri ption
L D
Ġre alisiert
ser gÃ¤n
Ġin mitten
ĠGeb iete
ĠGesundheit swesen
vor stellung
ĠUrheber rechts
br ingt
ĠRob oter
z idenz
Ġent nommen
T hemen
Ġh olz
Sh irt
b onus
Ã¤ ften
Ġfinanz iert
Ġgegeben er
uzz le
v m
n zu
Ġvereinbar ten
ĠF asch
fÃ¼hl en
Ġgeschn itten
ĠTra vel
nen t
nB Ã¼rger
998 10
ĠEr sch
ĠGut es
ket ball
I AL
U U
nZ uletzt
nHa ftungs
p b
us el
ĠÃľber gang
ĠDra ht
ĠA B
7 89
nP ubl
Ġger ufen
ĠL KW
ĠH ut
ĠSer ies
ĠgelÃ¶ st
ĠÃľber weisung
ĠG PS
ĠMak ler
ĠO S
ĠZ iegler
Ġp e
Ġw a
Ġst ehe
ĠLie ferk
i anz
F BA
W D
n ing
gen tur
ĠRec ycling
ge tragen
ĠAd vents
ĠS erv
ĠH ess
F DA
Ġauf zubauen
ĠFra ktion
Ġhoch laden
App s
Ġf ind
A ss
ab c
Ġm otor
â Ŀ
ĠKat harina
ĠVerm eidung
Ġentsprechen der
ĠSchreib tisch
? âĢľ\
ot oren
hl er
Ã¼n der
86 84
81 25
eigen schaften
steh end
ĠK rist
Form at
S ign
Y Z
Ġzur echt
Ġder selben
Ġexklus iv
ĠNÃ¤ here
sp olit
ide e
995 45
ĠMa la
Ġst uft
ĠMinister prÃ¤
ĠM ehl
ĠBes uchen
Ġa p
Ġgespeich erte
nL ang
Ġle gend
Ġf ick
res pon
ĠTeil nehmen
ch tet
ĠT afel
Ġun recht
c an
ill on
Ġha ut
Ġitalien ischen
ĠA cker
996 17
Ġdeutschsprach igen
y k
he bel
ĠS egel
ren ch
nA t
fer tigen
nEr stellt
i ra
Ã¼ber wachung
O st
ĠK leid
ĠKonzentr ation
y d
ĠLi quid
ĠGed uld
ĠRechts grundlagen
ĠP aten
Ġge fÃ¼llt
ĠZentr ale
Ã¤ch tigen
ĠSchw Ã¤
ĠLaut sprecher
ĠD HL
995 21
nAus bildung
L eistungs
tra iner
ĠGesamt heit
ĠAn kunft
Ġwunder bare
ech ter
hel fer
ogen e
Ġn ationale
nO ff
SCH UTZ
ĠZ oom
Ġ licht
ĠT uch
Ġver schaffen
az is
ĠSchrift steller
993 1
ĠLock down
ĠK urt
ĠsÃ¼ ÃŁ
b licken
sch ale
996 22
96 37
ĠStre aming
alen te
ar isch
Ġeigen verantwortlich
ag anda
s r
Ġ| |
nKosten pflichtig
Ġvorvertrag licher
a ef
ĠR ente
lo h
tool s
h unde
k anal
ĠB ie
91 63
\": {\"
ĠprÃ¤z ise
995 26
h j
r ike
Ġver kÃ¼n
spezif ische
ĠMar co
ĠSt atist
Ġf eine
Ġhand els
ĠInnov ations
ĠF ollow
reff end
Ġum geben
ĠKon ditionen
ĠEn sem
Ġherr scht
995 25
Ġtrain ieren
ĠP ic
nG erne
94 94
Ġ23 0
ĠHel m
b zw
nT ier
ĠR E
lan sicht
84 24
Ġwir ks
ĠKultur en
nO ffen
ufakt ur
ĠJe den
hil f
k amp
ĠZ igar
Ġmin us
vor gangs
im g
anz ug
ĠWer bez
sei tigen
m orgen
Qu elle
u ber
Ġbe dient
ĠT FSI
Ġall tÃ¤
fla schen
ĠKa ro
6 97
nVerk ehr
Ġaus w
utz ung
erk la
Ã¶nt gen
freund licher
Ġliebe voll
Ġge stellten
ĠSt rick
ĠJose ph
reg al
af d
ats app
ĠZiel gruppen
ĠZit ronen
un er
ĠT w
Ġa ka
964 0479
ĠWiderrufs frist
ĠMa ke
ĠbegrÃ¼n det
---------------- ----------------
996 34
Ġm b
Ġn et
ĠF reu
k ranken
ĠBr uch
ĠReihen folge
Ġerf assten
arbeiten den
ĠÃ¼ ben
BA N
ĠSP AM
sk ont
97 18
Ġf uhr
Ġmehr mals
Ġgef ickt
ei fen
bst ahl
ĠÃ¶ konom
orien tiert
Ġneu gier
rat is
nGesch enk
a ed
Ġun auf
f isch
Ġfolgen des
ĠB A
G mbH
bl es
ĠSie ben
roll ing
itt le
nN ord
95 63
9747 84
ĠMedikamen ten
27 74
ĠT sch
buch nummer
in ent
927 7
vis or
t ro
nW ieder
n ote
ĠAb ma
ĠWh ite
ĠSicherheits lÃ¼cken
il y
EF C
ĠL okal
ĠPhil osoph
ĠÃ¶ffent licher
ei tigung
ĠP ho
Ġnie man
nR ec
Ġschwier igen
ĠSein ige
ĠDis ney
schieden e
ĠSt raft
ĠR TL
ĠInnov ationen
Ã¼ll t
nVer wandte
EIN E
998 69
95 23
ĠJ Ã¤ger
Ġf lÃ¼
Effizienz klasse
ĠR i
ĠR ent
ĠUn ions
Ġgu tem
Ġ art
t herapie
wor ld
in stallation
ĠF Ã¤r
ĠSp iritu
ty pen
Ġauf ger
Ù Ħ
Ġkul inar
Ġm edia
Ã «
nAn onym
urch t
94 44
ĠT reu
6 99
ĠAr n
ĠAb rechnung
usch i
nGes ellschaft
ĠG uten
ĠO DER
97 68
ĠMich el
ĠRo yal
nEin satz
ĠgrÃ¶ÃŁ t
kula tur
ĠMedik ament
994 1
ĠSt eiger
96 57
lan den
ĠIr gend
Ã¤ tigt
use eland
ĠAb senden
iet nam
ĠKon zeption
Ġliegen den
ĠSpekt rum
ĠPf le
Ġvertrau lich
Ġgeb ildet
st eig
ĠK en
Ġsch ar
ĠCom ic
zwei fel
ar ien
Ġber eitet
ĠRÃ¼ck zahlung
Ġv o
ĠFrancis co
ĠL ayout
gem Ã¶glichkeit
Ġp ra
. ):
Ġm aschinen
Ġle uchten
nZu dem
f ro
g ladbach
90 974784
ĠWeihnachts markt
c lick
ĠMo dule
ĠReserv ed
ĠBesonder heiten
94 14
lie ÃŁe
bes itz
996 87
ĠT eller
nC lose
zon en
Ġanaly ze
lo k
j Ã¤ger
84 46
nSo fort
ĠFlÃ¼ gel
b em
st em
ĠWirtschafts informatik
94 06
ĠL an
ĠKat ar
book s
ig i
91 66
ĠD og
ffffffffffffffff ffffffffffffffff
Ġr uft
ĠRei sel
uck t
ĠTemp el
Ġbest Ã¤tig
ĠEr fahren
le v
amer ikanischen
ĠSus anne
K ar
rat geber
ĠP auschal
ĠSport s
ĠÃ¼b lich
M K
Ġberuf liche
ĠZukunft s
hor st
90 16
ĠGemein schafts
), \
ĠAns ichten
gr unde
ĠM eilen
Ġelekt rische
Ġnach ts
A ktien
isk y
97 58
Ġausgel Ã¶st
Ar beits
ĠÃľb ungs
in ings
G Q
95 67
ĠPolitik wissenschaft
Ġdan ken
ĠRÃ¼ck gabe
Ġunentgelt lich
nAl tern
95 25
ĠEnergie wende
Ġ(* )
Ġengl ischen
a lan
ĠW uppertal
Ġunterschiedlich sten
96 96
Ġv eget
ĠSport ler
ĠDes ktop
D AD
ĠChem nitz
ĠPor sche
ĠE S
wei ger
ĠZeu gen
Ġzu kunfts
Ġspezif ische
94 83
zeug nis
FF E
Ġhoff entlich
Ġber eiten
ĠMin im
Ġaus gelegt
5 92
Ġentwick elten
996 48
ri pt
Ġqu er
L T
ĠHo sp
g ab
ĠZer tifikat
Ġ45 0
ĠZ U
Ġâ ĺħ
Ġversch oben
i ro
lÃ¤ sse
EF D
998 80
Ġg old
on ial
ĠLÃ¼ beck
ver d
uch ter
ĠFrei staat
ied s
Ġeng agiert
aa a
om b
ighl ights
ĠTeil zeit
nS an
s og
regel ung
ĠD own
ĠCon nect
ĠS eil
ĠWerbez weck
Ġmitt leren
at her
Ġm arkt
Ġsan ft
Ġschw anger
e ars
ckt ail
ĠGeh Ã¤use
Ġseit dem
ĠCons ulting
ĠArbeits zeit
ĠW Ã¤nde
ĠR alf
dor fer
as a
93 76
pr ise
beile gung
ĠJe ans
995 03
Ġvern Ã¼nf
nWider spruch
Ġausgeb aut
r ett
Ġauf zunehmen
K arten
ĠG lÃ¼h
ĠAn sprÃ¼chen
ĠMan fred
ĠIn anspruchnahme
ĠSchaden sersatz
ĠPrÃ¼f ungen
Ġa ff
Ġerf Ã¤hrst
AC F
ut ral
af eln
93 35
ERS ON
L o
ĠChr is
auf e
C I
Ġkonsequ ent
s ign
al tern
ĠBesch affenheit
nO n
Ġries igen
M edi
Ġweiter zu
ĠLauf en
Z K
Ġ Ã¶rt
prÃ¼ f
c eb
lex ikon
Ġ75 0
ĠÃĦ ng
ĠBau stein
ĠHy per
ĠAus stellungs
Ġzweck s
ĠRÃ¼ck seite
gor ith
nAus wahl
9185 668
Ġaut or
95 27
p oten
Ġvari ieren
ĠTr ier
St ation
Ġdi ff
Ġg oogle
kont roll
beginn s
Z um
Ġdem nach
ĠStellung nahme
ĠImmun system
nStand ort
Ġd own
Ġbeteil igten
st Ã¶ÃŁe
ei ss
ĠA S
F AA
ĠProjekt s
ti qu
ĠEn ter
belast ung
the ater
Ġmel det
nL ese
ang abe
g Ã¤u
nB io
nW issenschaft
Ġr ichter
prÃ¤ chen
K EN
ĠPol ster
di das
Loc al
nAbb rechen
nWer den
Ġv ort
8311 167
ĠFinn land
91 26
ĠBuch es
9995 3
de kor
ĠC ro
Ġp age
zin s
ĠPro ben
nF lug
sp oten
Ġber eich
ĠX ing
or ter
90 24
st uf
95 21
nP an
empf ehlungen
nC HF
rÃ¤n de
ĠgrÃ¶ÃŁ ter
Ġr Ã¶m
L J
X V
Ġintegr ierte
Ġkomplex e
Y R
h us
sp ace
ie de
ĠBeschÃ¤f tig
ĠG il
aus gaben
ĠA y
p us
ach s
kategor ien
ĠN ight
ĠGeb rauchtwagen
âĢ ³
ĠPal ette
ĠN eg
nHa ftung
ĠMus keln
Ġeinge halten
ĠHochzeit s
pflich ten
Ġausge wiesen
Ġaust auschen
ĠM id
ĠUnter grund
ĠBer ichterstattung
Ġeng agieren
ĠIn stand
9985 2306
nK ONTAKT
ĠH au
ĠP rie
ag te
ĠE C
ĠKolle ktion
ĠbemÃ¼ hen
ag ing
Met ho
nDa zu
Ġein loggen
ein g
ĠFi refox
c ia
ab i
an forderungen
Ġauf geb
Ġtyp ische
ĠE hem
L O
ĠT iefen
âĢ º
kti k
96 67
Ġkomp atibel
997 07
Ġbed ingt
ĠWeiter hin
ĠD rag
che f
R ad
tra ges
au ÃŁer
eg te
ĠIm pulse
Ġge heim
w ettbewerb
Ġb oden
s is
ĠVers uche
nPrev ious
Ġdies jÃ¤hrigen
ĠEv a
ĠW it
85 85
nE UR
spf lege
nDien st
park s
ĠA RT
ĠH inder
nAnaly tische
mo dule
AN T
ĠWe ek
Ġber echtig
ĠR av
Ġverst ehe
M e
ĠR n
ĠKom pro
n alle
nAbo ut
999 01
Ġer for
ĠJ os
U l
ĠSu ite
Ġangeb racht
ĠBeam ten
rem en
schaft lich
ĠUntersuch ungs
f uÃŁ
ĠAkt ie
Ġw ollt
96 91
ĠThai land
E igen
nH ans
ĠK ick
F CC
ĠSyr ien
ĠIsb n
ĠCo unt
ra ct
ha ven
ĠK ie
ĠBa lance
K anal
Ġanderwei tig
Ġst ar
setz ungs
Ġstandard buchnummer
95 34
h at
ĠVort rÃ¤ge
es a
ĠAus zeichnung
ĠHo se
Ġverring ern
ĠAntrag s
995 14
ĠnÃ¶ tigen
ĠBar celona
93 54
ĠLandes regierung
995 23
Ã¼b ungen
Ġaus get
ĠBÃ¤ cker
ĠCh ron
fach e
Ġabge fragt
ĠC ho
Ġfer tigen
uff et
ĠSchick sal
i elle
Ġstark er
n oten
nach lÃ¤ss
Ġgesellschaft liche
20 64
frei ung
ĠKlick s
Ġw echselt
ĠHandwerk er
Ar ch
ss on
Ġbeh er
ĠTest ament
Ġas iat
ĠU fer
Ġresul tieren
nK lar
ĠBy tes
ĠG ust
Ġad min
ĠPro tein
Ġelekt rischen
nT V
Ġwelt weiten
Ã¤u schen
iz ation
n den
ĠRÃ¼ck sendung
C DF
Ġber ichtete
nBest seller
lowak ei
nVort eile
Ġv egan
al in
' \
Ġeinzu halten
sh ilfe
ĠAuf treten
Ġs enken
Ġurheber rechtlich
00003 96
ĠAgr ar
st udie
ĠfÃ¼hr ten
ĠVen edig
ĠChamp ions
ĠSch Ã¤tz
ĠVer wertung
ĠAnhalt spunkte
ĠKreis lauf
S to
Ġ# ##
5 98
I CA
995 35
I LL
ĠAut hen
st ro
ard aten
Ġw ild
Ġaltern ative
L M
lei s
Ġordnungs gemÃ¤ÃŁ
m asse
ĠPo ster
one y
a eb
ĠKon serv
Ġf Ã¼hle
uss ia
93 85
Ġzumut bar
daten bank
z ucht
Ġmach bar
Ġsoll e
log in
nInhalts verzeichnis
Ã¼nd ungs
Ġd ocument
Y S
je ktive
ĠJahrzeh nte
nU mf
l ive
r ations
ĠBarrierefrei heit
Ġe Bay
chen gladbach
ei f
ĠBer gen
ĠKÃ¼ sten
ĠR elevanz
FF D
Ġ roll
ĠB ob
ff ekt
ĠKunst geschichte
Ġzu grunde
ĠBek leidung
Ġb spw
B K
ĠGar n
ĠDutz end
Ġ+++ \
k un
ont age
ĠH under
Ġoffen gelegt
ĠKla gemÃ¶glichkeit
âĢ¦ .\
wÃ¼n sche
ĠFern seher
V T
sch Ã¼tz
untersuch ung
press ion
Ġjem als
Ġb ot
nH amburg
Ġvorhanden e
b ien
con d
Ġsamm elt
ĠL isa
will ige
nW ert
F rank
9977 087
un fÃ¤higkeit
w anne
ĠH enn
Ġver legt
ĠB Ã¤ren
nK alender
bo te
g ig
Ġw omit
Ã¶r dlich
ĠDi mension
Ġerh ielten
94 84
ĠÃĸff nen
j an
ĠAuf stellung
ich en
ĠSt d
st au
abil ity
ĠLebens mitteln
ĠFest stellung
Ġabw eich
ĠRou te
Ġ20 30
Ġbe freit
Ġent s
b ind
gut achten
Ġgewerb lichen
ĠD ivers
99 991
ĠKranken versicherung
C har
998 30
V F
9747 8825
um me
ĠÃľberwachungs programmen
nS P
Ġsicher gestellt
ĠStar s
B a
ĠF liegen
ĠAus schluss
imm els
ĠInn sbruck
nW or
n x
ĠL eh
Ġlock er
ĠSolidar itÃ¤t
ĠB un
deck te
Ġsch ick
6 89
ĠD FB
Ar beit
v om
ĠBr ett
ĠJournal ist
Ġbet ragen
N ur
ĠD rachen
id o
Ġjem andem
ann el
: ","
ĠAb ruf
Ġamer ikanische
se g
w esten
995 27
nJahr es
! !\
verbind ungen
ĠSpiel ern
nN ew
row sing
ik at
Ġkorre kte
ĠSar ah
a vor
ver teilung
ĠG ig
at ic
ĠN ass
ĠJes u
ĠFried hof
vert rÃ¤ge
K ur
Ġ19 20
994 03
L Ã¶sungen
ĠAr ne
Ġdunk len
Ġkultur elle
ĠMex iko
ĠGlÃ¼cks spiel
94 33
ĠRot h
ĠAn reise
ĠT Ã¼b
ĠGen e
ĠArt h
ĠÃľberein stimmung
stre am
Ġim plemen
jÃ¤hr ig
nEuro pa
87 86
b iz
ĠProdukt s
ĠWill i
Ġeingeb aut
ĠVertrag serfÃ¼llung
Ġgenau en
bek annt
ĠN u
Ġ1 933
d h
ĠVer mut
B lock
o ster
warn ung
nK lein
schei dungen
nS T
n Ã¤chst
Ġverb reiten
mo der
ĠS etzung
ied lung
ĠH av
A LL
ĠP el
str Ã¶
nG leich
b ac
R ahmen
haf tigkeit
auf t
Che f
ig tes
Ġher bei
Ġd ruck
Ġl eid
ĠbenÃ¶ tigst
C loud
Ġ text
Ġerf Ã¤hrt
EA E
ĠAnk Ã¼ndigung
ĠBrowser einstellungen
99548 02
95 03
ĠAus maÃŁ
ĠStad ion
Ġk alten
Ġlegit im
tik eln
ent ren
ĠAus lÃ¤nder
nW olf
Ġb lieben
re zension
Ġbe denken
ĠHer stellern
ĠTa sten
nWer be
ĠReh abil
ĠSek und
B N
83 55
ĠKomment ardaten
ĠLu kas
ĠZahn arzt
ĠDe al
ger ichte
Fra ktion
ĠWohn sitz
ul f
ES CH
Ġerz iel
Ġanst ren
90 84
ĠKlÃ¤ger in
Ã¤ ge
nVer wendung
ĠP as
ĠN asen
Ġd ien
Ġstell vertreten
Ġre alisieren
ingen ieur
12 84
Ġkosten gÃ¼nst
Ġnutz e
ĠWett kampf
vertis ement
ie hen
ĠberÃ¼hm ten
de c
ĠPri mar
Ġversch lÃ¼ssel
ĠP M
ĠGlauben s
ĠDem okrat
ĠK el
ĠP orn
Ġbekannte sten
ĠLebens jahr
Ġries ige
Ġkap utt
ĠKl einer
âĢĭ âĢĭ
sk unden
Ġfrei er
ĠHil fen
referen ces
ĠProvin z
In g
stÃ¤n der
nH istor
ĠInner en
EC B
ĠL y
nB y
br eitung
Ġech tes
ĠSch immel
ĠCont ainer
DA E
nKontakt daten
Ġwieder zu
Ġzeig ten
EC E
Ã¼ sten
ĠVor gÃ¤nger
ĠPodcast s
po int
ĠBur gen
ĠS ich
ĠSchla cht
Ġbed ro
Ġein ges
995 16
Ġbe wirkt
ĠÃĸ le
ch at
G W
ĠUnivers itÃ¤ten
A tt
ai lab
ĠProfil e
wer ter
Ã¼nkt lich
Ġ1 982
h ub
Ġm ul
995 33
ĠE tik
ch ronis
ĠT rÃ¤ume
Ġbei der
nN ov
Ġbe en
iz ienten
nPay Pal
ĠKÃ¼ ste
t eils
em an
a ac
ĠCou p
he ute
Ġspe c
ĠGra u
grÃ¼n dung
N ummer
ĠPh asen
96 28
wei ss
ĠG Ã¤rtner
ot to
nJo hann
nM in
re a
5 99
Ġimpro ve
pr ice
di mension
ĠKok os
fe ed
ĠE conom
Ã ¥
ĠSil vester
8013 982
schen ken
rimin ierung
p ad
ĠEr stellen
zul ernen
schein end
kap ital
ien ds
Ġpro per
ĠAnder en
ĠHung er
ĠVerknÃ¼ pfung
Ġunter einander
ĠM Ã¤d
Ġpsych ischen
ĠAn hand
995 77
ĠBl itz
Ð¸ Ð
ĠVer handlungen
av id
ĠAd am
Ġbes prechen
ĠSch rauben
ĠP utz
nPro gramm
ĠP ie
fÃ¼ gung
ĠHon or
ĠLa w
Richt linien
ĠWurz el
ĠFot ografen
ĠFin an
ĠBe vÃ¶lkerungs
C amp
ĠW etten
Ġt iefen
97 38
nG ener
Ġgener ieren
system en
ad b
ĠEing riff
nMedi adaten
ĠAus fÃ¼hr
or es
ĠExper te
sch reiber
Str eit
95 33
Ġr unden
Ġkon s
91 05
Ã¶l n
old t
ĠMet rop
lich ung
ĠBrem s
v ogel
ĠBehinder ten
Ġgest orben
F AD
ĠEntscheidungs findung
ĠBi ologie
nI r
att oo
ĠDar um
orn el
ĠBoo ts
ĠH R
anwalt schaft
Ġdetaill ierte
Ġleistungs stark
ĠHor ror
ĠLa sten
f ast
ĠD M
nB o
ĠJ ena
Ġvergleich bar
Ġqu alif
) -
Ġbehaup tet
Ġlan des
familien haus
sÃ¤ ule
ymn astik
R eise
ĠW ur
sp ur
ab wehr
ĠF ix
bez irk
on ach
Ġendg Ã¼l
ap el
Ġkauf t
rat h
os se
por tieren
ĠK im
ĠAn fahrt
83 26
ob lauch
los ung
93 84
Ġlust ig
har mon
nSt rom
nP R
Mod us
Ġanonym isierte
re y
ĠChallen ge
ĠD ES
ĠC our
ĠAb meldung
ĠFass aden
ĠN on
K rieg
ĠA RD
ag on
word s
ĠLebens qualitÃ¤t
ĠSie he
klus ion
ĠSat ell
Ġhal bes
ĠInterpret ation
nY outube
ĠGelt ung
ĠG ymnasium
ĠGew ichts
gro und
al ia
nR eisen
ĠAuft akt
ĠF ron
ĠHar n
Book s
ĠExplor er
ish ing
ĠSuper markt
ĠSelbst verstÃ¤ndlich
nBei spiel
ĠRen ov
EF E
prakti ker
nWeb seite
nS ub
IN D
96 00
ĠVerz Ã¶ger
B and
a ign
n so
ux e
998 60
Ġheraus gegeben
k lin
ĠFÃ¼hrungsk rÃ¤fte
Ġ24 0
Ġf acebook
ĠW Ã¤hler
Sport wissenschaftliche
a ats
ĠSport wetten
ĠT urm
995 04
ĠG ur
ĠVor bereit
ĠC ra
g ov
Ġangeboten e
ĠHeiz ungs
gewand te
94 16
91 43
993 73
994 21
omp lex
nB Ã¼ro
ĠLie gen
ĠPat ent
ĠZit at
Ġaus gehen
ĠS ir
IER EN
ĠSp a
84 05
ĠGi ft
ĠTra ck
K auf
ĠIm plemen
f aktoren
ĠK ell
ĠT alk
Ġ1 974
Ġver lÃ¤uft
el er
94 24
ĠUrlaubs ziel
serv ices
ĠA PI
ĠSchÃ¶n e
96954 745
eck s
Ġ stellten
Ġaus Ã¼ben
nF ern
Ġneu este
ĠAben dessen
zÃ¼ gen
Ġ ):
Ġbun ten
wirtschaft lichen
ĠH eiÃŁ
zw ingen
ĠEin es
ĠMan ipulation
schla f
tim edia
ĠSo uth
ĠB uchen
973 9822
kont akte
ĠFÃ¼hr er
ĠÃ ĺ
B y
nB este
met ropole
ĠKranken kasse
ĠVernetz ung
W eiÃŁ
995 43
ĠRÃ¤um lichkeiten
ĠHeil ung
Ġkonzentr iert
ungs vor
Ġb unt
b ur
Ġsch ien
b ba
Y N
nL aut
991 74
ĠW Ã¶r
ĠMar i
Ġs mart
Ġh Ã¼
Ġverur teilt
Ġbrit ische
br unn
ograph y
ession id
Ġgr enz
durch schnitt
kom petenz
ĠVer schlagwortet
ĠEhren amt
Ġrespe ktieren
. ;
V E
Ġverschw inden
7 92
Ġson n
de ko
ï ¼
z lich
G Z
ent um
Ġd ecken
ha mmer
F CA
Ġver raten
nI P
Ġverl or
Ġexklus iven
98 59
sch ieÃŁen
ĠVERARBEIT UNG
ĠRegistr ieren
Ġw in
ĠgroÃŁ artige
Ġk abel
den z
nZ er
erk lÃ¤r
93 19
direkt or
ĠLa une
Ã¤ch ern
ĠD ark
ĠAn th
94 56
ĠLehr veranstaltungen
91 95
okument ation
u y
ĠA larm
ub a
ĠBenutzer erfahrung
96 07
ĠW onn
93 04
ĠKraftstoff verbrÃ¤uchen
9995 6
Ġa ktiver
Ġt itten
j ust
Ġgeb ucht
Ã¼ber weisung
nIntern ational
nS il
ĠgÃ¼l tige
or r
z ieren
ce a
ĠSch rÃ¶
ĠfrÃ¼her e
hol d
93 66
ĠVerb rechen
ĠFahr ten
IN T
ĠW oll
nS en
nInter view
ĠHei de
ss atz
ĠHeb amm
94 27
. âĢĿ
prozess es
ĠRem arketing
ĠAb wasser
will igt
ĠD ate
nM iet
ĠWas h
ĠR eu
ĠNutzungs daten
p umpe
ou ver
olly wood
ĠPet ra
Ġman uell
Ġr utsch
Ġs ymbol
S elbst
O rt
Ã§ ais
ĠD ame
orn stein
ĠEntert ainment
t chen
unter laden
ge gangen
ko hle
ĠG lÃ¤ser
p ay
ĠIndust ri
Ġerstmal ig
tif unktion
L W
fÃ¼ll ungs
ĠSzen en
ĠSchaden s
p ixel
ĠA cademy
nEr fahren
ch rist
ĠPf ar
fr isch
nAn zeigen
94 13
p ra
hoch schule
am as
C om
merk en
ĠSp itz
Effizienz klassen
Ġselbst stÃ¤ndig
Ġversch ieben
AL E
z erne
Ġverb reite
ĠW elle
Ġj ugend
a er
ĠK ron
RÃ¤der satz
Ġun eingesch
Ġversch ickt
Ver ein
ĠGottes dienst
ĠTax i
f Ã¤nger
ag u
nN or
ĠA C
Ġzentr al
Ġ1 983
98 89
Ġinformationstechn ologischen
98 047
ĠfrÃ¼h zeitig
F ans
gen e
Ġfolgen dem
erst in
et ch
Ġli zenz
95 95
92 83
auf ent
j agd
ZE IT
Ġb acken
ĠSpe zif
ĠAus richtung
ĠZusammen fassung
W ind
ĠW eich
ĠP ERSON
ĠB acken
Ġ1 981
w urz
ĠMo dern
ĠHan se
Ġspiel er
ak i
Ġein laden
wendungs zweck
mas ke
nB as
Y P
ĠTast atur
ĠVertragsver hÃ¤ltnis
ĠH Ã¤ufig
ĠMit einander
sst aaten
93 24
ĠGef Ã¤ngnis
Ġd ritter
Ġw em
Ġvor genannten
br Ã¼ck
ĠMar x
Qu ery
H ome
ĠGesch icht
Ã¶t chen
Ġhum an
Ã¤ch ter
b ff
ĠR ate
ĠHil fest
nb is
nWes halb
ĠPro gnose
nE ben
ĠH allo
andin av
Ġe urer
ĠY oung
92 96
ver g
ster ben
! ,
83 06
ĠSn ow
ol t
zy klus
F N
7 90
kÃ¼ ste
aus gleich
ĠBrÃ¼ der
nRegistr iert
Ã¶ die
Ġinter pre
995 13
nG ute
ĠKamer as
Ġ1 979
alb um
IDERSPR UCH
emitt el
aus s
ĠBest eller
h Ã¼tte
ĠBundes ver
9316 4515
sch licht
r ypto
S PD
Ġz ahn
ĠZ ins
ĠAnge hÃ¶rige
ungs mÃ¶glichkeiten
76 15
75 64
ĠO ze
EB F
Ġautomat isierter
ĠTechn ology
ĠBl um
ess a
177 11
Ġvertrag lichen
ĠZentime ter
nHerz lich
nEr folg
ĠStatt dessen
s arbeit
las st
ĠBe cker
ĠZ wer
to kolle
ĠEd ge
ĠSt ationen
ĠkÃ¶rper lichen
ĠRum Ã¤nien
P aket
ministrat or
ĠK anzler
ro d
Ġein zur
Ġverst eckt
Ġder er
uf er
Ġmit machen
aus bau
ã Ĥ
ĠBehand lungen
auf sicht
995 22
tig keiten
lat or
83 64
G N
lan ten
ĠFort schritt
ĠEffe kte
qu ery
ĠVor sicht
n Ð
Ġf Ã¤llig
Ġphys ischen
ĠFach krÃ¤fte
900 8679
ge p
et in
ir gt
Ġs ays
Ġunter halts
P erson
nPro jekte
chte te
ĠBast el
ator y
ĠweiÃŁ t
ĠAngel a
nT our
ĠEnts orgung
ĠBenachr ichtigung
Sp iele
od or
ĠDi fferenz
ug eln
ĠmÃ¼ sst
nD rei
Ġvor bereiten
ĠSch lÃ¤
ategor ies
ĠTra m
ĠFest platte
ĠBeschwer derecht
L B
ĠF lu
ĠZus endung
ĠStÃ¤r kung
lÃ¤ nen
be cher
ti ellen
âĢ ĳ
aus kunft
Ġr ights
nS ollte
91 35
ti a
on omie
Ġange fÃ¼hrten
b oo
Ġrenomm iert
ĠNeum ann
ĠKon figurieren
roffen e
Ġrest lichen
ĠAus zahlung
sa ft
Ġen gen
ge werbe
Ġvor der
nL es
leich t
onnement s
ps el
L ED
ĠReich s
erei en
ĠDank eschÃ¶n
Ġver wiesen
Ġb lu
d ichte
ar tem
Ġern euten
k leider
93 14
rie drich
co unts
ĠSp ass
ĠSp Ã¼l
Ġein zusetzen
Ġg latt
ĠL eu
98 42
for en
ĠGerman istik
Ġzusammen gefÃ¼hrt
ĠLin den
ad f
Ġtra fen
nH ar
Ġal tes
frei er
sch atz
Ġst arb
ĠH unden
P art
d pa
alog ie
ark en
t rans
PR ESS
Ã¼ndig te
Ġeigen tliche
ĠG ard
ĠExper tise
Ġ1 35
ĠNachbar schaft
for ce
ĠEigen tums
a ec
nL andes
rech nungs
Ġaufgel istet
tz e
n aus
nL eser
ĠBÃ¼rger innen
nF e
on anz
ĠC L
DB F
nM otor
Ã¼ len
tsam keit
Ġi d
ĠKob lenz
ĠDatenschutz niveau
stÃ¼ck en
ĠunabhÃ¤ng igen
En gl
996 47
Ã¤n zer
nMark en
Ġlangfrist ige
l uen
lÃ¤ re
licht feld
Fil ter
pf ad
nGemein sam
ĠL eb
Ġbe weisen
993 26
Ġsp art
ĠZw angs
Ġbes etzt
Ã¤ ums
be am
ĠFlÃ¼ ge
B ilder
An schluss
sÃ¤ ss
Ã ´
ĠWinter monat
as p
Ġp raxis
ĠKap elle
nL ieferung
Ġf lei
Z H
ĠB at
ul in
ĠMy t
Ø ±
de p
Ġjur istischen
ĠL or
995 24
Ã¶g ern
zeu ger
sÃ¤ ure
tex te
Ã¤ng st
ĠPlatz ierung
ĠKenn zeichen
Ġar ab
Ġs uchst
ĠMat ch
ĠL Ã¤cheln
ĠZugang sdaten
ĠPro motion
to w
ab in
B anking
ĠK alt
ĠGesch lechter
L Ã¶sung
Ġf ickt
kon form
ĠHerzen s
Ġb uche
Ġge folgt
od o
por te
ĠPrÃ¤ sent
97 41
nS CH
ĠP ur
Ġaus geschaltet
998 70
998 51
ĠD Ã¼n
Ġaufbewahr t
Ġjen en
p ix
ins eln
e bel
y ball
98 92
Ã¶rder ung
Ġ= =
Ġsie b
met ter
95 87
ĠRÃ¤ der
ĠOr chester
97 81
ĠV iz
ĠGeb et
995 05
ĠE G
20 83
nSon stiges
ab f
Ġverbind lich
ssystem e
b be
84 74
nAl ter
Ã¼ber greifend
nY ou
91 24
93 15
ti zip
nMit arbeiter
sÃ¤ cke
rei fe
Ġver wirk
ĠUnabhÃ¤ng igkeit
Ġkon serv
Ġ ens
schl uÃŁ
ĠB uÃŁ
ĠMa st
m ord
Ġfehlen de
27 76
Ġfol gten
js essionid
ĠFrÃ¼hl ings
tin a
Ges ellschaft
Ġaltern ativ
Ġgesch w
ten au
Ġent schied
ir bt
ĠEigen tlich
sp ende
Ġk irch
Ġwahr nehmen
pf alz
ah m
ĠErn euer
E EF
ĠSt eine
ĠY og
ĠDomain s
op ol
ĠausfÃ¼hr liche
ĠSteuer berater
Ġ1 975
teil te
ĠBeg leit
91 55
ĠAb lehnen
, ...\
90 15
ĠkÃ¶n ig
ĠSens or
Ġgek lÃ¤rt
ĠF lat
ĠFlÃ¼ss igkeit
eh el
ĠSo fa
Ġb aby
6 92
91 56
Ġstud ierte
ĠWeiter bildungs
Ã¶ ser
ho ckey
ĠN intendo
markt ung
az itÃ¤ten
qu es
n est
onym isierung
Ġmut maÃŁ
ĠZ eilen
Ġange forder
S mart
g ungs
ĠGe ographie
ĠL av
Ġoption al
lag ern
994 85
wend bar
H a
w andern
ĠLink e
w asch
ĠB aur
ĠV intage
ĠS aint
pp iche
ĠRoh stoff
82 84
Ġan bietet
Ã¤chs ische
nStu dien
nRef erenzen
ĠV PN
ĠErscheinungs jahr
97 71
Ġank ommt
ĠInstitut s
ham burg
Ġl ux
Ġauss age
g ungen
Ġan zum
X T
ĠNet flix
ĠKon rad
et it
Ġ est
Ã¼ te
wissenschaft ler
? ","
Ġlaufen de
ula t
ĠFla sh
T ech
994 74
ĠGebÃ¤u des
nS enden
f ranken
ĠBam berg
BE Z
IEG EL
nM er
S eit
ei ÃŁen
ĠR eb
ĠAn leitungen
995 34
fang s
Ġr isk
ĠS ets
olog isches
Ġanony me
994 33
BF C
M aterial
nM od
nL a
Ñ ı
St art
Gesch Ã¤fts
813 6
ĠVer teilung
ĠVerpack ungs
us k
Ġbest mÃ¶glich
ok o
Ġat ember
ĠD orn
ĠerhÃ¶ hten
ein em
D r
n ick
zieh bar
flÃ¼ sse
Ġmonat lichen
Ñģ Ðº
ÂŃ ÂŃ
ĠDipl om
nDigit ale
ĠFÃ¼r sten
Ġt ages
amer ikanische
ĠR ats
ĠGrund satz
ĠF ocus
ĠNiko laus
ĠA ct
aus flÃ¼ge
izi sten
US S
Ġ1 968
91 74
ĠZ in
Ġw asch
ĠAr gentin
ĠSpam bots
ĠMedi um
ĠfranzÃ¶s ische
Ġge zwungen
r d
ĠUl m
Ġaus fÃ¼llen
975 9301
ĠVertrags abschluss
ĠFr is
ĠB Ã¤r
ĠAd d
7 98
rech ter
nP DF
Ġwieder holen
ĠR au
Ġp l
Ġs ympath
Ġfair en
ĠE id
ĠMitglieder versammlung
ĠOst see
itt el
Ġausgest atte
ĠSen ior
93 95
nS ex
Ġleben dig
ĠEin steiger
Ġver hei
u ge
glie dern
G C
w ien
Ġchines ischen
n xx
lei hung
ĠSo wohl
ĠVor rat
Ġweiter geben
ĠA T
b lech
ĠBe wertungs
ĠRecht sprechung
84 17711
nLie ber
ĠT ypen
ĠUr ban
Ġem p
sel f
vent skalender
ĠEt was
ĠBundesk anzler
Ġm ail
ER E
Ġt ag
nF irmen
9757 8037
nFÃ¶rder struktur
ĠAufsicht s
st ipps
ĠM Ã¼tter
Ġunser einer
to pf
Ġs endet
b ody
ĠT en
98 52
Ġt reu
84 26
98185 915
F DE
Ġbr and
merk ung
nBes onders
ru p
Ġ1 978
beweg ungen
ay a
Ã¼t tern
sen sor
att le
de f
nT ages
ĠPa are
nSo zial
ag ert
ĠSk la
ĠV eget
ĠSo w
Ġs amsung
ĠP ension
ĠAuf forderung
Ġnach weis
att h
F BD
ĠFahr en
Z P
ĠSol utions
ĠTrÃ¤ nen
ĠHo sen
5 89
beauftrag te
ĠEr lÃ¤uter
brÃ¼ che
ĠBr eit
al isch
ĠVor lagen
Ġkonf ron
Ġf ac
Ã¤n ke
werk zeuge
an kt
kti ert
ĠL ass
ĠKl ub
vers prechen
ĠL icense
ĠAn bindung
Ġs inken
Ġinc lu
996 28
end s
ei det
07 15
g m
Ges etz
Ġin f
k ol
ĠH aken
Ġne utr
Ġmehr erer
nSp rache
Ġganz es
T UNG
Nach richten
Ġlo hnen
ĠF uchs
Ġg aben
Ġkommen de
ĠÃ¤lte sten
aus rÃ¼stung
ĠZ ul
f ix
ĠRei z
ie ty
deck el
w d
Ġ1 11
ĠHalb zeit
sch liessen
ti zen
versicher ungen
i ppe
G ast
85 22
mo tiv
Ġrec yc
lo ÃŁ
k ologie
hol ungs
Ġinter essen
Th is
Ġperman ente
ĠÃľber leben
Ġattra ktiven
ĠauÃŁer orden
ĠW ay
nG est
Ġk ooper
Ġf amilien
hl ung
nM agazin
ĠKan Ã¤le
ĠBeob acht
ĠVerb und
ĠVer n
Ġindividu elles
Ġintens ive
Ġin iti
ĠR unden
fre quenz
ster dam
col or
weck t
995 20
entz Ã¼ndung
ti ell
Ġzu zustimmen
Ġun klar
Ġexist ieren
ĠRep orts
Le arning
ĠSch rott
nE U
ĠSchok o
ĠK y
schn ell
ĠPap st
ĠHinter grÃ¼nde
siden tin
Ġst art
ok u
ĠPfarr er
ĠUrheber rechte
Ġf ing
ĠLei d
Ġwork ing
ĠD SL
C ar
r ischer
v anc
ĠP izza
ĠTro pfen
ĠMerk liste
X R
alis ierungen
k reise
ĠTra il
ilder t
Ġregistr ierten
nAbst ract
ĠGed Ã¤chtnis
Ġn ame
eln de
Ġle gal
ĠKopf hÃ¶rer
74 55
94 05
Ġdokumen tiert
nSch reiben
f ers
sk osten
Ġk Ã¶st
Ġbreit es
k eine
th ers
Ã¤ ht
ĠHand ball
ĠĠĠĠ ĠĠĠĠ
Ġs ecurity
998 81
ĠHaupt studium
ĠVerarbeitungs vorgÃ¤nge
C lass
nR el
ĠIm plant
sch Ã¼ler
ander s
994 93
sb ehÃ¶rden
vor aus
Ġw andern
5 90
op tout
D ownload
ĠVer gabe
EB D
Ġver nachlÃ¤ss
Ġhei sst
_ \
K an
9974 278
ĠAbs icherung
af c
nElekt ro
ĠG Ã¤rten
Ġor iginal
sp err
ĠW ende
R echts
schn itten
ĠAusnahmef Ã¤llen
Ġfil tern
Ġbest anden
Ġret urn
ĠP rag
Ġener ge
Ġein gelegt
IT Z
ĠStoff wechsel
G I
nF rauen
ĠDe te
tent eils
nZ wischen
t uch
Ġber lin
ĠM ale
for scher
ĠEin s
900 0716
kon struktion
ĠEpis ode
t ausch
ĠSh ield
sp aÃŁ
wirtschaft liche
m ix
Ġ probieren
DC E
len sburg
emin are
Ġspr ich
94 11
v d
ĠT eich
berechtig ung
Ã¼ ÃŁ
Ġkre ativen
pf legung
mitt ags
n Ã¼ber
ĠÃ¼berra schend
ĠW eit
nBild ung
besch werden
ĠS M
ĠGar age
ied rig
ĠTrust ed
fe kte
ĠMand anten
ĠB urger
T ex
ĠWachst ums
c up
nC har
T ipp
ĠbegrÃ¼ ÃŁt
84 84
ĠGen der
6 90
gew al
Ġs w
86 76
Ġ ran
ï¿½ ï¿½
Ġsch ief
s eit
ĠHy gien
Ġein drucks
Ġkon vention
ĠEin zug
ĠC EO
aktiv en
s ur
acht el
Ġsch ade
ĠMitt lerweile
schung el
Ġrechtswid rige
ĠCha os
s achen
Ġeingeb lendet
95 43
Reg el
ĠK os
ĠNAT O
R ock
ĠSpr eng
Z ahl
Ġvirt uelle
996 20
ĠDep ot
ĠA wards
bo ter
Ġ1 28
Ġ1 15
l ement
Ġfort schritt
ĠEth ik
dem okrat
Ġkompeten te
dr ing
Ġis lam
gewinn ung
g Ã¤ste
Ġerb racht
ĠH Ã¼r
ĠWar n
Ġhochwer tig
ĠDI ES
ĠT reib
!! !!
ĠÃľber zeugung
nM y
ĠN ow
Ġm ess
ff ler
ger echten
L AN
ĠB ell
Ġh arten
ĠHar z
ĠN ick
M N
ĠS O
n ormal
och em
mitt els
Ġm ega
Ġun vollstÃ¤ndig
eisen bahn
ĠStr Ã¶
ĠD aumen
st abil
ĠkÃ¼ mmert
99 9994
ĠA chtung
ĠIn k
arl berg
r er
ĠTages ordnung
Ġunser eins
ĠBes ondere
ĠBelast ungen
b cc
ec a
ĠSport arten
Ġk alte
ĠP ed
Ġst Ã¶r
95 22
wick elt
ĠSil ikon
Ġher zustellen
w rit
ĠN ico
us ser
nL eistungs
Ġlink e
Ġab gew
verb und
echn ik
ĠAusland s
ĠB ug
nE ink
ol ia
ĠPf lanz
str and
schutz es
v ille
ungs stelle
0000 21
Ġl eistet
ĠD oc
ĠTenden z
Ġwir ft
ĠÃĦr zt
ischend urch
schen den
DC F
ĠtÃ¤ tigen
s ort
ĠCol or
f W
Ġd ate
ron ische
EN D
ĠErgebnis sen
998 435
L ab
ĠModer nis
ĠReg isseur
ĠNieder lage
ĠE cken
19 05
ĠC it
Ġfrei geschaltet
998 50
zen zen
Ġ1 973
Ġ# >
Ġk lasse
ĠC osta
gro up
ĠGe denk
ĠAro ma
ĠCo cktail
Ġ Ã¤nder
Ġs en
ĠV ictor
ĠAnk licken
ĠKn oten
ĠL etzt
onn iert
Ġmit nehmen
n or
ooper ation
ĠChar les
ĠAlp ha
ĠZer tifizierung
Datenschutz erklÃ¤rung
rauch er
ĠVolks wirtschaftslehre
nF uÃŁball
ĠKlar heit
ĠTeil habe
nB usiness
147 74
ĠW itt
996 88
ĠWÃ¤rm ep
ĠFre undes
nPro be
ĠTeut onia
c z
nAnaly tics
Ġgek Ã¼ndigt
d isk
ĠVerb ot
Ġbei des
ĠvorÃ¼ber gehend
z heim
ehr ter
ĠNetzwerk s
ap h
Ġmon tiert
Ġgr Ã¶s
] [
ĠLÃ¶ sch
schie ben
F CF
ĠRe v
ĠBau stelle
press ionen
rib ution
ĠIm per
Ġein nehmen
nO h
ĠJ ury
ap otheke
ĠLand rat
is es
ĠNahr ungsmittel
ĠC ott
is ierungs
ohn heiten
ĠSaar land
peich ert
ass o
est and
or p
19 03
ĠW Ã¤hrung
Ġan kommen
Ġbe abs
ĠÃ¶sterreich ische
X N
zug ang
B ank
T argeting
Ġzeit weise
ĠPil ot
inter ess
c lass
91 04
f reu
Ġin direkt
c ort
ome tern
F DF
ĠArbeits recht
Im pressum
Ġgel b
Ġdefin ieren
Ġst ri
lan te
ĠSch enk
Ġmaschinen les
V irus
ah ls
Ġkennen zulernen
zeug nisse
94 54
ĠAb schnitte
Ġheim ischen
u alisierung
d atei
ĠPh Ã¤nomen
ĠPhotovolta ik
CB C
ĠV ar
ĠLiefer zeiten
bed ded
spe ktion
Ġun Ã¼ber
Ġhil frei
Ń Ĳ
N atur
ĠBisch of
W or
Ġkeines wegs
ĠReisen de
we ets
23 15
b rille
Ġt rug
ĠF els
R U
eb uch
ĠWirk ungs
a lar
nFrei zeit
is iko
Ġein schlÃ¤
ron om
Ġbeur teilen
ĠR od
ĠEr g
B StBl
Ġunter richtet
7 80
ĠS he
ing o
lÃ¼ ssen
ru der
ĠEng ineering
nStand ard
J etzt
05 04
ĠC ir
ĠT ok
wer tigkeit
Ġintern ationaler
ĠAc ryl
Ġp artner
prÃ¤ gung
ath an
ĠN am
K abel
955 0326
ge kommen
ĠChrist ine
ĠDat ent
ĠKart usche
ĠGerichts hof
Ġbest and
dien sten
sk ultur
ĠÃĦ gypten
ĠOrd ner
ĠNe xt
p m
lim it
ort al
Ġangem el
ver eine
ĠEben falls
6 98
re ad
bet rieben
Ġan sÃ¤ss
ĠT ÃľV
996 68
ĠVol ker
Pro zess
ĠKrie ges
b uer
nDigit al
ĠPrÃ¤ z
gew achsen
ĠRou ten
Ġweib liche
stre ck
ex tra
W inter
ĠÃ¶rt lichen
ĠzuverlÃ¤ss ige
pro p
gem einer
85 11
Ġauf geben
ru ption
ĠL I
Rei he
ĠBas ketball
Q Z
f m
Ġirgendw elche
ĠgewÃ¤hr en
f iguren
Ġpri or
aliforn ia
k amen
ĠD C
id den
sp ol
84 56
ĠR Ã¶ntgen
l inger
ĠSo lange
Ġl eise
tic al
st an
85 44
ĠÃ¼bersch ritten
edi kt
D H
Ġpersonalis ierter
86 45
man y
ĠInhalts stoffe
Ġbisher ige
nK ap
son st
stÃ¼tz ung
ĠN Ã¶
l on
is m
mit h
ĠH ast
ĠM iete
dig it
sen kirchen
af b
M ess
sit e
Ġgel eitet
98 49
ĠTal ent
994 2
Ġag gress
996 37
Ġget Ã¶tet
aler ien
z h
993 46
nN EU
geb nissen
Ġam bu
ĠN ud
Ġgel ingen
br unnen
ĠVertrau ens
ĠM A
AU F
85 13
Ġverm ieden
L es
ĠK ennen
91 07
ĠSamm eln
f acht
ĠPan ik
ĠP ak
ĠRech nungen
ĠG laube
ĠParlament s
ĠGesch ichts
ĠSchul jahr
ĠP for
frei es
H otel
ĠAf ghanistan
ĠP aderborn
DD F
96 58
998 61
Ġp ers
ĠÃ¤uÃŁ ern
w s
ri f
Y T
ĠA kzep
Ġun tern
f eln
sor ten
9927 81
996 58
Ġf einen
Ġro sa
ĠSpeich ert
ĠQualif ikation
pla yer
hl ings
h auer
ĠSan kt
wÃ¤r me
Ġd icke
ĠC er
z eilen
Ġwor ld
Ġn ette
Ġsp iritu
it amin
ikan ischer
k orn
UR L
ĠB ald
Q V
ĠÃ¼ber springen
du lar
w ich
DB D
ĠE last
el ess
ep er
rÃ¤ te
ha ken
tier ungs
ro ad
athl on
Ã¤ ÃŁe
ĠK L
97 31
Ġg i
Ġentscheiden de
ew ork
EB EN
ĠLim ousine
ĠM achen
83 83
re zept
ĠHy draul
A ust
nM EHR
ĠI f
T yp
ĠVer gessen
ĠD icht
ĠLoc ation
ĠRab atte
Ð° Ð
steil nehmer
ĠVerÃ¶ffentlich ungen
ĠGrÃ¼n dungs
pro jekten
ĠE TF
ig an
Ġstor age
ra hlt
Ġges orgt
nT elefax
ĠHer bert
Ġbra un
ĠTab ak
ĠT y
ol der
Ġg eim
li ft
28 06
ĠStre am
n ik
erkla erung
N ET
ĠÃĸsterreich s
Å Ĥ
Ã¶rd lichen
X P
ĠEr fÃ¼llungs
ak rise
ĠDiskuss ions
ĠKunden dienst
ar me
arb rÃ¼cken
93 96
bus iness
ĠSt reich
93 805
Ġbereit stellen
80 96
ĠMon ika
t ran
Ġr ass
ĠS ab
Â ³
er ium
ĠHor st
I hr
Ä ĩ
ĠFort bildung
Ġn avigation
ĠLog ik
se bene
s il
ĠMit arbeitenden
ĠAb sprache
ĠHÃ¶he punkt
ĠBeruf ung
Ġsp iegel
Ġempf ehle
gerichts hof
p orn
ark e
et ings
Ġbed ing
nAus gabe
ĠT ar
ĠRÃ¶ mer
at al
Ġc ir
b ul
nG ra
v ari
W T
n achtung
H g
Ġbeh oben
ĠK ek
ĠEin stellungs
43 26
em ond
86 78
Ġen ge
ĠF ro
C EF
ĠjÃ¼ng sten
ĠSchl Ã¶sser
ĠN acken
ĠW ut
ĠH old
ĠHoch wasser
blÃ¼ ten
ĠH ang
Ġschw ed
nTechn ik
ĠPERSON EN
A uch
nMen schen
US A
R aum
Ġgesetz ten
nW en
nM icrosoft
ĠdÃ¼r ften
fest ival
ĠAkk us
Ã¼ ten
b leiben
relev ant
ĠD B
gemÃ¤ ÃŁen
Ġ null
ein kommen
ĠZun Ã¤chst
ĠTra ding
Ġer arbeitet
Ġzwei er
Ġdem onstr
. Â«\
i ologie
ant worten
ĠCh rom
if ik
ĠT H
Ġdurchschnitt lich
ent wurf
wach st
il ch
FA E
Ĺ ı
Ġr em
ca pe
eich te
ĠS tempel
rÃ¤n kung
lager ung
ĠAus lieferung
nH Ã¤ufig
Ġhinter her
op her
ank a
nGer ade
ĠArg umente
hin a
ĠP uls
ĠCon c
Ġin folge
nEr ste
ĠEx cel
Ġveranst altet
Ġbef and
DB E
993 21
ĠBr ig
b riefe
nP lan
ĠSpazier gang
ĠBesch eid
Ġstatist isch
auf lage
Ġver glichen
R H
Ġversch icken
F BF
X G
Ġgel eistet
vanc ed
ĠGlÃ¼ck wunsch
ĠVer gnÃ¼gen
ĠjÃ¼d ischen
nH ol
ĠDirekt or
Ġ1 977
p reisen
Ġengl ische
ĠSek unde
nDe z
95 68
ĠF Ã¤cher
Ġr er
ĠInternetauf tritts
am o
ĠLeistungs fÃ¤higkeit
o ÃŁ
ĠS lot
ĠEnt gelt
Funktion sdauer
ĠWart ungs
Ġver ank
ĠMinister ium
S ervices
Ġle d
ĠGr em
ĠPla yer
ech tigt
Ġn Ã¤h
Ġschl immer
B ots
rÃ¼ mpel
bek Ã¤mpfung
ĠMeister schaft
93 05
J C
ĠD R
b on
[ âĢ¦
Ġan rufen
ĠVer grÃ¶ÃŁ
zen te
nG uten
Ġflex ible
port folio
994 27
IC K
ĠAn st
ĠSel f
ĠB lech
Ġerfolgreich er
sch war
ĠNacht eil
Ġg arten
Ġein satz
ĠWei ss
Ġbeh eben
W eihn
ĠSp rÃ¼
w Ã¶r
Ġverabschie det
ĠM ind
Ġviel seitig
Ġab rufen
ĠTot al
nBe vor
st Ã¶rung
ĠGra ph
ĠAnt rieb
r iert
g uss
Ġth eir
ĠkÃ¼nf tige
33 51
99836 52
s ammlung
ĠSch am
ĠP ief
ĠMag azine
nH il
'' '
. ).\
Ġh enker
Ġs ek
ĠDatenverarbeitungs vorgÃ¤nge
in fos
ĠRoh stoffe
Ġ: )
pf leger
orks hop
de a
em men
ag ne
ĠTÃ¼b ingen
B eh
ĠVerbrauch ern
ĠTier schutz
Ġschwier iger
ĠM etz
Ġfamil i
g ard
z ed
ĠP age
n ie
Ġle g
Ġteil te
ĠZ im
ĠF aust
nFahr rad
Ġâ ĪĴ
ĠÃ¤ sthe
B H
L V
ĠgefÃ¤hr det
99884 456
Z U
ti o
F BE
Ġver lÃ¤sst
ĠVerbesser ungen
U ser
weiter lesen
j ack
lob al
Ġgelegen tlich
ĠT HE
st atistik
lik ation
ĠAkte ure
Ġbesch Ã¤digt
top ic
cto ber
Ġvers ichert
994 14
Ġal p
nMÃ¶ch ten
eben e
ĠH aup
97 80
nR S
Ġschnell st
ĠS Ã¤mtliche
ĠRet ro
nBenutz ername
ĠB innen
ĠNo tiz
994 83
ĠhÃ¶ch ster
ĠS RAM
pr em
nGesetz liche
Ã¼ch tern
ĠB eb
ĠgrÃ¼n dete
8 256
ant on
b m
ro ler
ĠGut haben
ĠKinder tages
Ġbenutz er
ĠBlock chain
Ġkomplex en
ĠRa ce
9993 915
ĠSch olz
ĠBek Ã¤mpfung
nG ep
93 83
Ġm ak
eb d
tegr ation
Ġerk lÃ¤re
Ġab nehmen
b eiten
Ġlang jÃ¤hrigen
Ġeh e
ĠStu dent
ziell er
B P
Ġheraus zufinden
ĠF ussball
ens ystem
Ġsorg te
b df
ĠD etaillierte
Ġb aum
comp uter
nS ommer
sch rauber
ĠA BS
Ã¶ hne
Ġhol t
Ã¶ tigt
Ġn Ã¶rdlich
ing back
f ul
ĠDi ff
Ġerziel te
rich en
ĠfÃ¼hr ende
ĠSta ates
Ġmel de
ĠW itter
nÃľ b
Z A
ĠK ette
an on
nG eh
94 17
n pro
b ce
Ġ1 969
ĠZ e
ĠC ob
97 70
anc el
nVer brauch
Ġ1 971
ĠOver view
Â ł
nPersÃ¶n liche
nZahl ung
utz t
EB C
ĠherkÃ¶mm lichen
Ġerst reckt
s onnen
Ġr aten
ĠMindest lohn
ĠPief kei
ĠKon stru
Ġnack te
An lage
nR ad
ĠBrun nen
s ache
âĢ ¹
L eit
ba e
âĢ¦ ","
Ben achr
den kt
Ġgleich nam
ĠVerbind ungs
ĠInf luen
ĠMitarbeiter innen
EC T
Ġ15 00
al on
F inanz
ĠB Y
spa Ã±
ĠLiebl ing
A ktion
ĠSto ÃŁ
Ġr einen
w h
ĠgrÃ¶ÃŁ tenteils
ĠWes entlichen
ver hÃ¤ltnisse
eb a
Ġd ritt
ĠR ac
as ke
b fe
CC F
Z O
Ġher e
bl ig
zu halten
ĠRechtsan wÃ¤lte
ĠK emp
nH unde
bet riebs
Ġerg reifen
HE IT
Ġb rowsing
nF ort
St udie
nt wittern
ER T
ĠFilm s
as c
ĠVergleich s
Ġ che
instr umente
95 96
ĠTer ro
ein schlieÃŁlich
ĠPro tagon
ĠnatÃ¼r licher
ĠDan eben
Ġw eichen
Ġs at
ĠA K
Ġangen ehme
nGen au
ĠSchÃ¤ fer
ver letzungen
ĠDav on
bel t
leich ter
ĠGet reide
Ġerheb liche
ber s
816 1
sp orte
nE t
ĠArbeitsp lÃ¤tze
998 934
ĠG ot
Ġbes prochen
gel der
ĠGru pp
hopÃ¤d ie
ĠCre ative
ĠC ollege
89 25
Ã¤r kt
Ġeingesch rÃ¤n
on enten
ĠTrans aktionen
93 27
nSon stige
str eng
ĠM ath
ĠHit ler
ĠZ aun
Ġwissenschaft lich
kk ing
03 34
hÃ¶ fe
Ġf ung
ĠHilfs mittel
b ir
Ġ5 000
91 67
Ġhier durch
93 94
ĠT T
ĠSp Ã¤t
ĠVor gÃ¤nge
? )
Ã¤hr en
pol ster
ĠC reme
Ġz it
997 10
Ã¤ ler
994 86
ĠNutzerverhalten s
os ystem
ĠImpf stoff
osm os
B ad
kosten frei
Ġvor geschlagen
lei det
let ten
ĠPrem iere
ĠAusgang spunkt
fÃ¼hr erin
php BB
' )
Ġzeit genÃ¶ss
ĠO ma
ĠX XL
CB D
ĠMot oren
R ec
b dd
ĠKlar na
994 45
bb c
Ġlok al
ĠHo he
Aus wahl
ĠSor te
Ġmittler e
FF C
ĠQu ant
M aÃŁnahmen
ĠV ir
ab zug
[...]
