#version: 0.2
r t
r a
s s
m e
h t
w e
e t
Ġ A
Ġ v
i g
h r
Ġ D
c ht
Ġ b
z u
c h
Ġ B
Ġ g
s i
r i
d a
n n
e m
Ġ m
Ġ M
Ġ n
r s
l a
w i
Ġ zu
l t
Ġ f
Ġ W
Ġ E
u s
z e
e b
u f
u t
Ã ¶
r d
n d
nd e
Ġ I
t a
h a
Ġ da
Ġ F
Ġ K
k e
Ġb e
r o
2 0
g e
ge n
Ġ G
Ġ P
i l
Ġv o
k t
Ġg e
i o
r u
r n
e rs
Ġ k
i m
o l
Ġ T
Ġ we
Ġ V
¼ r
Ã ¼r
ss e
â Ģ
io n
Ġ H
Ġ wi
Ġ (
Ġ si
u r
Ġ 20
e d
f e
a uf
Ġ R
ig e
Ġ L
hr e
n i
i cht
Ġm i
me n
r b
Ġ o
rd e
n a
m a
Ġ N
e rt
Ġvo n
t t
u ch
S i
u m
Ġ auf
Ġ 1
w a
Ġ C
Ġf Ã¼r
ĠB e
n gen
s o
c k
Ġ Si
r Ã
p e
a ch
o o
f t
a m
Ġ Ã
Ġ Z
Ġmi t
Ã Ł
Ġ h
g s
e rn
a b
o m
t ion
l s
v e
e h
Ġv e
ĠSi e
r k
ĠD a
nde n
Ġ U
l u
Ġ J
Ġ ha
t s
n f
Ġ p
nn e
a us
Ġda s
sse n
lt e
Ġ im
S t
u e
Ġ âĢ
eb e
r f
rde n
g l
¼ b
n gs
Ġ20 1
ĠD i
Ġ l
n ge
S ch
Ġn icht
rb e
z i
ĠG e
ĠV e
k i
ige n
Ġ t
Ġo d
Ġod e
Ġode r
tt e
Ġ so
Ġ St
s ta
e s
es e
d es
Ġ des
ĠM a
h n
o s
i d
¼b e
Ġ aus
S e
o rt
ed e
Ġsi ch
r l
nne n
Ġ Sch
Ġ O
Ġ j
ĠR e
¼be r
n k
ru n
s p
o ch
m i
Ġwe rden
nde r
d em
ĠI n
oo ki
ĠW e
ĠE i
ebe n
r e
e re
re i
ere n
a uch
o t
ke i
a s
ch a
r g
run g
n b
t Ã
Ġ auch
Ġ um
ze n
re n
h l
ĠD e
fe n
i ese
Ġ Se
d u
we i
ke n
et e
Ġ me
ĠÃ ¼ber
¤ t
t u
Ġ dem
ĠA n
ĠDa t
Ġ ab
l Ã
a nn
Ġ es
ĠDat e
rÃ ¼
g t
l o
Ġbe i
rbe i
Ġsi nd
r ma
Ġ 2
z t
s t
i st
st e
Ġ ist
ĠDate n
ĠEi n
b a
Ġve r
d iese
ÃŁ e
Ġ diese
Ġm a
ze i
i r
Ġk Ã¶
0 0
ĠJ a
i b
p t
u ngen
cht e
Ġb i
ĠDi e
rÃ ¤
Ġ wa
a ls
s a
rt e
w Ã
gl i
ste l
ra n
lte n
Ġn ach
p a
Ġ -
nf o
ur ch
Ġha b
a nd
ĠI hre
u b
ĠM i
me r
ĠC ooki
Ġhab e
g i
ĠkÃ¶ nnen
si t
ĠâĢ ĵ
u l
Ġwi r
id e
ĠW eb
eh e
Ġ z
. .
ni s
ers t
S ta
p i
ĠP ro
Ġda ss
u ss
tion e
s cha
âĢ ľ
lÃ ¤
Ġ als
ĠT e
n e
i ne
e ine
Ġ eine
ne n
u ngs
g a
Ġwi rd
ri e
f f
S o
r h
l b
tione n
hn e
ĠA b
Ġ20 2
l d
f a
em b
ert e
ol l
i v
s ere
k a
n em
Ġ /
n sere
Ġwi e
f Ã
e rf
t ern
n st
ĠF a
Ġwe i
emb e
Ġh i
d urch
lu n
o b
lun g
i nem
D i
Â Ń
gli ch
embe r
n kt
wÃ ¤
kei t
n z
ĠâĢ ŀ
ch ut
Ġ 3
Ġh e
Ġk ann
i eren
nfo rma
es t
r m
t z
ĠM e
hre n
c e
i a
Ġhabe n
us t
gl e
Ġeine n
Ġ durch
e inem
u nsere
n l
Ġ unsere
ĠH e
Ġeine r
Ġzu m
Ġzu r
ĠB a
ers o
o d
Ġsi e
et zt
Ġge s
nder e
ut e
Ġ am
s chut
ĠCooki es
ĠP a
ede r
rbei t
M a
tu n
Ġwei t
Ġ So
Di e
i es
i nd
c hr
o p
f fen
om men
zei t
et t
w u
ĠK a
sit e
c ke
Ġ Sta
u nkt
u g
e ue
ra t
tun g
w o
uch e
Ġl i
ehe n
ch i
ĠVe r
u a
ve r
rl i
ĠW a
g eb
we nd
Ġvo r
nforma tionen
ut s
ch l
Ġv i
Ġ wu
h i
ĠW i
c ken
Ġ la
ĠH a
Ġ einem
e rung
ge s
pe r
Ġ re
ĠU n
Ġ erf
t l
Ġha t
f i
ĠA us
ĠK o
f o
ĠN a
ed i
os t
n ts
t ra
ĠWeb site
uts ch
ĠV o
la nd
Ġ c
scha ft
n et
¼ ck
ab e
ig t
e x
n ta
Ġ 4
Ġvi e
rei ch
Ġn ur
im m
ru nd
ĠGe s
e rh
ĠL i
kt e
Ã ¤t
d ies
tÃ ¤
na l
ĠZ e
Ġ kei
pe i
Ġbi s
ste n
a d
ĠL e
Ã¶ glich
Ġ dies
ri cht
k u
il e
ĠT a
nis ch
l n
ne r
Ġma n
pei ch
v i
ĠA uf
v a
t o
ri n
i k
Ġp a
Ġ 0
a ndere
Ġ andere
r z
n ze
hl e
Ġn och
v o
pi e
W e
zi e
w ort
erst e
wei s
ľ b
i ert
Ġ du
chte n
ete n
Ġme hr
Ġ 5
ue l
a h
lu ngen
Ġ &
n es
Ġvie l
zu n
rei s
il d
nn t
e g
t h
u d
Ġ1 9
tÃ ¤t
m p
hne n
uel l
Ġ st
ĠK u
fÃ ¼
ĠM o
Ġf i
Ġ sta
oo gle
re ch
nb e
ĠM Ã
w s
zun g
Ġ202 2
men t
ĠI nformationen
S p
ri s
D a
rte n
ĠBe i
S a
t ere
r ha
ÃŁe n
Ã ¼ck
eh men
t ers
e u
p p
r la
od e
ig u
tl i
ĠT h
ist e
e nd
ĠN o
ge r
ĠA l
Ġdiese r
chl i
Ġwe nn
f fe
Ġ 6
e hr
l ls
s am
ach e
Ġv ers
B e
ib t
ĠZe i
z o
s ol
tli ch
D e
a kt
Ġunsere r
Ġab e
ot e
sp i
ĠN ut
ste r
t wort
n o
unkt ion
I n
Ġabe r
ĠWe i
g ra
ĠDa s
ĠF ra
Ġ |
oll e
Ġp ro
u nde
igu n
igun g
i nes
k o
la n
ĠF o
il i
nisch e
Ġ20 0
Ġhi e
wi e
Ġg a
ge l
i na
ĠSe i
i ve
nde rn
rk lÃ¤
icht e
C ooki
u ni
ett e
ft e
w w
ob e
a nge
ol i
Ġn eue
f l
e nts
em a
gi e
b e
weis e
Ġ Sp
ig keit
rs t
ĠU m
ch Ã
ha lt
r uf
re ss
ĠÃ ľb
hle n
spi e
d t
ĠSei t
ost e
ĠL a
Ġ Sa
chr i
ss t
.. .
i si
Ġvo m
ut o
tte n
i ni
Ġwa r
Ġ "
o u
e ines
Ġhie r
r Ã¶
e gen
ĠA rt
wei t
Ġt e
ru m
p pe
h o
Ġwu rde
ete r
Ġk o
n u
ese n
Ġ ents
ĠBe s
ĠDaten schut
ĠH i
Ġ per
A n
Ġ et
ĠDe r
rf a
ige r
fÃ ¤
i ck
Ã¶ s
ol o
i ke
Ġ ange
zie l
ze r
si cht
ch o
b l
me i
ĠSeit e
e kt
p s
rli ch
ĠC o
p ri
om m
re cht
we rt
ĠK i
¼ t
i nge
p ro
Ġ wÃ¤
ur e
mi t
as t
ue n
uell e
s eine
Ġda nn
Ġkei ne
Ġ seine
i hre
Ġ wo
h Ã
ĠDe utsch
) .
Ġ ihre
ert ra
stel lungen
r ke
ba r
gen e
l es
e ig
Ġ sol
nb i
Ġ Â
ĠMÃ ¤
l ch
Ġ erste
Ġ 9
Da t
Ġ 7
Ġg ro
c a
ĠZei t
ĠI hr
i nf
us e
ul i
ch s
Ġ202 1
Ġ sa
ĠP erso
¼ n
1 0
hr u
m m
Ġl e
Ġ â
hru n
hrun g
ĠMi t
Cooki e
) ,
Ġj ede
il l
rie n
c hre
rbeit e
2 2
ris ch
Dat e
ide n
n ut
Ġwa s
Ġ 8
R e
ta l
pie l
kt ion
g u
ĠZ u
ra d
nu n
Ġk l
u ro
rklÃ¤ rung
ĠJa hre
Ġmi r
os e
Ġf Ã
Ġ sp
Ġ eines
hÃ ¤
uche n
Ma il
Ġhi n
et a
e rl
ĠK l
Ġp erso
chli e
ib e
Ġ20 20
n schut
ĠB o
ha lte
ĠE r
Ġwi eder
ziel l
et z
re sse
E R
Ġfi nden
s cho
s ehr
om p
n ters
h Ã¶
ma l
e lb
Ġim mer
Ġg ibt
1 9
e rg
v ember
rÃ¼ ck
Ġ sehr
Ġb et
c o
ern e
nun g
n ke
eig net
stel l
Ġ1 0
ĠRe i
Ġso wie
ha lten
ub e
ĠW ir
g abe
ĠE n
r em
Ġver wend
e inf
Ġet wa
e nden
ache n
Ġ akt
E i
nnt e
oo k
ol ge
ĠSt Ã¼ck
Ĥ ¬
rbei tung
be n
zo gene
A l
r vi
1 1
wi l
nta kt
e igen
ĠT i
ze pt
o rde
erte n
Ġm Ã
Ġ201 9
ĠN e
ze rklÃ¤rung
ĠI hnen
ri a
s elb
wil l
Ġbe s
ĠMa i
ĠW o
ĠG oogle
chÃ ¤
Ġ scho
S peich
h rt
ĠCooki e
ĠE s
Ġbe st
e fe
ĠR a
i hr
e ge
ĠJa hr
- -
ĠNo vember
Ġ ihr
ru ngen
De r
A d
ri t
f u
i tÃ¤t
rf Ã
da t
E N
rs ch
Ġ201 8
s tu
r mi
ĠRe cht
ĠB et
ne nbe
im a
W i
1 2
ĠV i
nl ine
na h
Ġge eignet
ĠPro du
Ġt h
W ir
et i
Date nschut
V e
obe r
ĠMe n
z ember
ue r
c om
nal y
nenbe zogene
gu n
Ġ selb
sse r
ĠG a
na t
Ġ eigen
imm t
Ġscho n
Ġge gen
a tion
ĠF unktion
D as
t eg
ch ni
ĠE uro
kt ober
Ġ einf
lch e
Ġm uss
ĠIhre r
Ġme ine
s et
ĠU hr
st i
ĠF e
ld e
rfÃ ¼
gun g
tÃ¤ nd
ur g
¤ ÃŁ
be i
Ġ201 7
Ġj ed
r ge
ĠN ach
pt ember
Ã ¤ÃŁ
Ġdies em
nf a
G e
la ge
zei ch
/ /
du n
âĢ ¦
M i
ĠTh e
mei n
dun g
stell e
ĠSt e
Ġo hne
ra rbeitung
lu ss
gt e
Ġpa ssen
Ġviel e
ht t
rei t
ann t
Ġmi ch
ist i
tern ehmen
ĠmÃ ¼
ĠM edi
ĠIn tern
ĠfÃ ¼
ere i
: //
ĠDe zember
N a
t wi
ĠMen s
ĠÃ ¤
r ch
ĠD o
g eben
l lt
n da
e nen
spie l
r y
e inge
reich e
Ġ201 6
r es
ĠO ktober
we ck
T e
lÃ ¼
ĠMens ch
ug ust
nl i
ĠA u
pri l
ĠL eben
gle i
Ġth e
Ġ Q
Ei n
Ġ einge
Ġ ex
ĠWe nn
n ua
Ġwu rden
ĠC a
Ġn a
ua l
e rha
ĠSe ptember
l lung
Ġm Ã¶
rg a
Ġandere n
Ġm Ã¶glich
ma t
ĠDi ese
hre nd
Ġverwend et
a k
nua r
stel lt
tion s
S piel
re u
Ġbe im
och e
tlich e
Ġ ste
Ġn ut
ru a
eb rua
ĠMÃ¤ rz
Ġaus ge
ri ff
ot o
K o
zi a
nbi eter
est e
rst e
Ġj eder
ĠB i
ge nd
ĠAl l
Ġ1 8
rn e
ĠH o
v ers
ebrua r
ĠTe il
orde rlich
wi s
ĠR o
eb ook
ĠT o
be r
ĠJ uli
Ġj e
sam men
ili e
uf e
ĠG rund
tte l
n Ã
Ġwe n
u si
t rÃ¤
nli ch
u nters
ĠJ uni
i ts
p la
ni e
Al l
ĠA ugust
ĠA pril
Ġ201 5
c kt
ĠI m
S y
ĠAb s
Ġâ Ĥ¬
e gt
e e
igt e
cha ft
dat e
c ebook
_ _
ĠÃ ¼b
rat e
ĠÃľb e
Ġerf ol
Ġzu sammen
risch e
wis ch
Ġ1 6
e id
Ġperso nenbezogene
a rt
Ġwi cht
Ġg ut
ion e
ĠP la
ile n
Ġ erh
Ġo b
ga n
lo g
3 0
rech e
ĠJa nuar
ub l
rt schaft
si o
Ġ unters
Ġ Speich
iste n
ul e
Ġ ze
ĠH Ã
wisch e
la s
imm u
Ġ1 5
Ġf a
We i
ĠF Ã
r kt
s oll
Ġda mit
immu n
nde s
ike l
Ġweit e
ĠF ebruar
immun g
ĠI ch
ĠD u
Ġh o
Ġda zu
u cht
n ken
m b
rÃ ¤t
Ġm achen
ute n
ĠV ers
chi ede
ĠLe i
Ġ soll
ĠMensch e
u p
ru ppe
Ġla ssen
e nn
1 5
il s
etzt e
Ġ Spiel
olo gie
P ro
ĠIn halte
ri eb
ig i
sta lt
Ġl Ã
b o
ra us
ss i
ww w
ĠA d
F a
ĠMensche n
ne l
ĠB ro
Ġerf orderlich
¤ ch
ĠZ us
1 8
Ġge ht
olle n
ĠK Ã
Ġwe lche
lu ngs
j a
q u
oste n
wische n
Ġselb st
¤ h
ĠGes ch
ĠT ra
ve n
Ġ ind
i nk
ĠmÃ¼ ssen
Ġbe k
rei n
s ehen
twort e
stelle n
Ġda bei
tra g
rei ts
d eine
teg o
htt ps
ĠKo n
Ġeinf ach
s k
u nden
Ġ deine
e its
Ġh Ã
ss a
ĠZ ug
zia l
e ssen
n zu
tworte n
C H
st em
ommen ta
ĠIntern et
ide r
Ġ Y
Ġ201 4
Ġge na
Ġver we
K a
¤ lt
Ġj etzt
mp ress
edi n
Ġ1 2
ĠVe rarbeitung
s chlie
t ur
ĠK Ã¶
Ã¶glich keit
eb t
sa tz
i re
tte r
ĠDatenschut zerklÃ¤rung
ibe n
Ġhe l
rbeite n
s b
¤ nge
mpress um
Ġga nz
ĠWeb s
ĠwÃ¤ hrend
n ft
nb a
ĠG eb
si ch
c t
z a
Ġetwa s
ges ch
nde rs
e rm
zept ieren
Ġge l
ebe r
e ra
Ġo f
ch n
lte r
z l
1 6
il fe
st o
ĠL and
ra ch
s y
Ġg l
n geb
ch es
ssen schaft
ĠDeutsch land
1 4
chÃ¤ ft
ĠWebs e
ra ge
20 22
00 0
oli t
ÃŁ t
Ã¶ ffen
ĠUn ternehmen
Ġb l
n y
Ġz wei
eti n
d o
ĠE rfa
ĠUn t
ĠH aus
fa l
h op
1 7
Ġre cht
ĠZ i
ĠWebse i
ĠWebsei t
r p
g o
ĠHe r
e me
ĠE x
Ġt o
Ġj a
ĠF i
ĠVe ran
ĠWebseit e
Ġg eben
rg i
ĠAn geb
ru ngs
am t
Ġve ra
I ch
Ġ ak
ĠB ild
ro l
nel l
ichte n
ĠL o
ĠB l
wend u
wendu n
wendun g
Ġdiese n
Ġn i
ĠJa hren
erh i
s pe
me l
ch u
Ġ1 4
rla ub
Ġgl e
gan g
zen t
1 3
¼ l
etin g
rvi ce
S A
la g
tÃ ¼t
ra l
reis e
Ġgle i
ĠVe rb
ra gen
ch Ã¶
ra tion
e a
ze u
Ġte ch
erhi n
Ã¶ l
ĠA uto
i lt
ĠWe lt
vo r
ch we
Ġn Ã
Ġ201 3
Ġverwe nden
All e
p fl
m o
Ġma l
t isti
Ġ wÃ
ĠMedi e
rd i
ĠMo nat
zi eh
I N
i fi
Ġ erha
la r
V o
nze igen
Ġeigen e
t Ã¼r
rbe sse
chs e
Ġglei ch
e rb
ss u
ĠÃ ĸ
set zen
Ġdies es
ione n
Ġzu rÃ¼ck
Ġve rb
zl i
e il
ĠB Ã
em p
ĠH and
Ġf rei
a uss
ffen e
2 1
kte n
Ġents p
ers Ã¶
fte n
Ġweit erhin
ku lt
t ive
ssu n
fo rm
s chÃ¶
ĠU nd
ĠBe nut
ersÃ¶ nlich
ssun g
d och
e utsch
n ce
we rk
s Ã¤t
ĠV ide
ĠKu nden
d eutsch
ĠF rei
Ġ doch
ĠHÃ ¤
Ã ¤lt
Ġ Sy
u nge
S G
glei ch
P a
l ette
Ġbest immt
ĠB unde
M e
Ġweit ere
m Ã¤ÃŁ
ĠÃ Ħ
Ġ erst
uche r
rk eting
ĠO nline
N ach
Ã¶ t
Ġerha lten
nd l
5 0
Ġ1 7
ri ngen
trÃ¤ ge
Ã¶ rde
Ġb a
l les
n eh
zli ch
Ã¶ h
tern e
ĠEin will
ve rb
omm t
ha us
ws e
u lt
ĠMedie n
Ġ201 2
ĠG rÃ¼
o rd
ĠSta dt
ĠSpeich erung
j ekt
Ġ erm
gra m
weit e
si s
ru ck
Ġvers chiede
sio n
ta g
Ġhel fen
Ġg eb
Ġnut zen
s eren
z w
nd i
ust immung
S pa
l ekt
c y
Ġweite r
ha nd
wse r
D iese
pe n
¼ ch
tÃ¼r l
tÃ¼rl i
ÃŁ l
a nzeigen
ĠKi nder
auf e
im i
ĠIhr em
rbeit et
a lt
V O
rbei ts
s be
ĠhÃ ¤
n seren
Ġbe reits
ĠNut zung
Ġges peich
Ġ1 3
ĠFa l
ĠP o
l ig
fe rn
ch luss
ud e
u nseren
nst l
f Ã¼r
Ġ unseren
ĠG ra
we g
ĠW Ã
rt s
Ġjed och
tÃ¼rli ch
Ġz wischen
ĠHi n
Ġbe so
ĠPerso n
wa lt
S Ã
H a
ad e
ure n
Be i
l so
u pt
ĠC ha
n sta
ziell e
Ġ3 0
ia l
lo ssen
ĠSt ra
ra uf
Ġ *
b i
date n
d enn
ni sse
Na me
ĠAn ze
c s
j e
vo n
ĠW oche
Ġjeder zeit
Mi t
la gen
ĠEinwill igung
Ġbe a
Ġ denn
p Ã
i zi
ÃŁl i
ud i
ĠFa hr
ĠNut zer
nah me
f ri
We nn
ĠK ommenta
ĠDatenschut z
b s
Ad resse
am ilie
Ġgro ÃŁe
fe r
Ġ schÃ¶
ÃŁli ch
N e
Si e
ĠArt ikel
rÃ ¼ber
G oogle
a g
s Ã
twi ck
I nformationen
ra ft
Ġve rbesse
n ste
r ken
ĠA naly
Ġ [
Ġkl eine
ĠFal l
ĠF Ã¼r
Ġwicht ig
Ġ and
Ġerf a
ote n
Ġb zw
ĠlÃ ¤
Ã ľb
a lles
uf t
B a
Ġ anzeigen
ĠL Ã
âĢ ĵ
ri va
rk l
ch nell
ĠIn tere
ind et
ge h
ĠDi es
ĠEin e
rÃ¼ h
gabe n
fal l
chli ch
s chnell
Ġ auss
a lso
ra nk
¤ hr
Ġ alles
¼n s
Ġha tte
ut t
Ġerste n
uelle n
Ġbe d
d ire
ĠZ ustimmung
Ġ +
Ġtech nische
th e
u ÃŁ
ige s
l em
ĠZug riff
n eben
Ġf o
L i
m us
ĠWi e
Ġho h
S pe
chl e
Ġ1 1
r men
Ġ richt
d ir
Ġbl e
igte n
ĠK e
Ġk a
Ġso ndern
gi s
ĠHi e
Ġ ta
la uf
Ġ schnell
la d
Ġbestimmt e
p unkt
Ġ dir
rb u
ol e
ĠTa g
rli n
Ã ¤h
ĠVo r
i hnen
Ġ ihnen
Ġ deutsch
ĠD urch
em i
ch erh
Ġsol lte
cke r
ĠÃľbe r
rf ol
ruf e
ah men
f rei
ĠV ertra
ort e
¼ch e
ĠA uss
ĠPa rt
ff i
ĠD ri
ĠRei s
lde n
omm uni
r ig
kult Ã¤t
k ommen
Ġge hÃ¶
g rund
ĠE nts
ĠJ u
kt iv
il dung
nk s
g ungen
k l
pÃ ¤
Ġc a
x t
mi ni
r gen
Ġ ers
Ġ Spa
reiche n
rbu n
r re
Ġpersonenbezogene n
rbun g
ine n
Ã¶glich e
ĠEin stellungen
igi tal
ma nn
ĠA rbeit
Ġ dire
Ġda neben
ation a
2 3
rk u
ot wend
H e
ubl i
wa hl
aufe n
H i
2 4
Ġneue n
ĠRe g
Ġ201 1
Ã ¤hr
Ġk om
S om
Wi e
ne rgi
b urg
S T
Ġme i
Ġ also
stel lung
A N
reche n
Ġwi d
Ġp ersÃ¶nlich
mb H
ĠwÃ ¼
i nfo
s u
Ġ #
la ssen
ro ffene
s h
ĠmÃ¶ chten
ka l
Ġverbesse rn
nd h
Ġge h
r we
Ġo ben
p o
âĢ Ŀ
ta nd
chn ologie
s tÃ¤
Ġakt iv
Ġn u
u ÃŁe
t y
ĠIhre n
ĠMit gli
âĢ ŀ
i h
nstl e
Ġ SÃ
Ġh och
Ġn e
Ġk ommen
ĠB uch
hi n
Ġbi n
Ġhoh e
S u
rol l
ra uch
Ko ntakt
we il
U n
ĠVer wendung
ĠO b
as e
ĠVi e
ro m
Ġna tÃ¼rlich
ze ug
gis ch
An tworten
ĠA m
ĠE U
sÃ¤t zlich
ĠNe ws
ria l
ment e
ĠA rbeits
ĠG ro
ĠBro wser
ĠFunktion e
u ndh
ran t
ĠZ weck
ĠG mbH
ĠUn ters
ĠFunktione n
am men
e fo
ationa l
ine r
ĠUnt e
sta nd
ĠTh ema
Ġnu n
n h
Ġl etzte
us ch
k Ã
g Ã
nge r
ol d
n zen
W a
ru ch
wa r
ĠSeite n
SG VO
e lls
s tung
twort l
twortl i
ĠWei tere
hn l
twortli ch
et s
Ġ Som
l efo
Ġihre r
wa nd
ĠKo ntakt
ĠAnze igen
ĠM Ã¶glichkeit
ku nft
iv id
la tt
n stellungen
p f
U m
ra u
rbe n
d rei
ode l
me t
zt e
annt e
Ġkann st
ĠD es
9 9
Ġm o
ĠBes ucher
ch eid
hnl i
Ġste ht
ut z
ĠN i
Ġge mein
Ġf re
zu g
c i
p h
ĠAll e
âĢľ ,
a uto
Ġ essen
ĠIn halt
Ġerfol gt
s peich
Ġsta tt
ĠP rÃ¤
E x
Ġko nnte
ĠHie r
chr Ã
rad e
Ġf olge
e ut
ĠI P
erl esen
ba u
o ren
Ġwen ig
Ġbe ste
Ġli egen
Ġkei n
e f
A uf
et et
Ġ drei
ĠSch Ã
lette r
ĠBunde s
f ort
ĠFa cebook
Ġve rl
e nk
ĠL auf
chre ib
2 5
r me
l lem
stu ngen
ĠD SGVO
Ġgespeich ert
oste nl
n mal
S uche
Ġ sehen
Ġwi l
e rem
re r
r ed
chri ft
ig n
ba l
nda rd
Ġ ...
re a
i nmal
Ġk ommt
¼ nd
Ġt u
A nbieter
Ġ scha
rach e
e inmal
ed ia
ĠZ we
p l
Ġseine r
chrÃ ¤
chi ed
ss ion
fu n
wa re
Ġak zeptieren
ur z
p ort
lÃ¤ ch
Ġ einmal
kt i
Ġwil l
ĠSp ort
ma s
ĠAb e
ĠLeben s
Ġ2 4
ĠNa me
ĠErfa hrung
edin gungen
ke r
ol z
i cs
cht s
ĠZ a
ĠâĢ ľ
i nnen
ĠÂ »
Ġhe ute
ĠV a
Ġp o
Ġg rÃ¶
I m
d ort
n tere
ĠWo hn
ma n
M ehr
Ġma cht
rha lb
wÃ¤ h
Ġ201 0
i ere
r eten
eh l
Ġ y
0 9
ĠG Ã
rufe n
G es
d enen
ĠZi e
Ġ dort
ĠR ahmen
Ġ2 5
hnli ch
Ġ1 00
Ġ denen
ĠSi cherh
ĠL Ã¶s
sp a
ĠZus ammen
Ãľb e
Ġwa ren
fa n
ĠP e
A us
¤ l
rkl i
Ã¶gliche n
chu n
eme ster
e im
ĠMa l
ĠF amilie
Ġo pt
tliche n
glich e
ĠP i
Ġsich e
ĠZ ah
eta ils
mi ttel
hÃ¤ n
lÃ¤ch e
ga l
E s
ĠkÃ¶ nnte
J a
zu ngs
ĠEn t
rb a
âĢ Ļ
omp l
ĠDeutsch e
Ġsa gt
ĠF l
t ri
chun g
Datenschut z
ĠIn t
ĠP reis
s erem
a llem
ĠN eu
Ġ allem
ko n
spiel e
ri eren
lt ern
n serem
u nserem
eb nis
I T
Ġ unserem
Ġ setzen
-- --
lekt ro
ĠC hr
ĠI d
lu g
t ut
I mpressum
t ed
ufe n
i cken
ĠJ o
Ã ¼ber
gra mm
Ã¶h e
ĠM usi
pp s
pfl icht
ia n
ĠVe rfÃ¼
Ġ spe
hr l
x i
ĠFra gen
ndl i
Ġk Ã
odel l
t iv
ĠFa kultÃ¤t
Ġtu n
Ġhe r
ke hr
Ġbi eten
b erei
Ġdire kt
Ġ x
e rial
ĠMi n
erste l
wi ssenschaft
hi s
ĠWei t
Ġgeh e
mi tte
ells chaft
a nder
so n
ĠSte l
W as
rga ni
ri ch
V i
Ġbi etet
Ġma rk
i hren
rch iv
Ġvo l
Ġ ihren
rkli ch
Ġ Spe
am i
y e
ĠA uch
O N
n ige
ĠU ni
erne n
ĠK la
0 4
zei nstellungen
nge l
um mer
we lt
ĠH och
B i
ode n
S S
ĠKa tego
ifi zi
ĠFo rm
ĠC h
ze l
Ġ ir
d eren
Ġ2 2
S am
Ġf est
zi n
ĠBe rlin
nische n
Ãľbe r
Ġerm Ã¶glichen
i nne
Ġ deren
Ġ emp
Ġwe il
ĠR Ã
Ġve rfÃ¼
Ġ auto
s chwe
im mer
gisch e
nah men
p rÃ¼
ut u
m u
hre r
w Ã¶
gi n
Ġ ke
Z weck
i ebt
ĠG o
Ġ speich
ĠPro bl
ast e
nfa lls
ĠTe chnologie
4 9
lad e
Ġ erl
a rd
0 6
nde rt
Ġhin t
__ __
Ġsol ch
ĠF ach
ĠStel l
t eil
nn i
reit e
twick lung
Ġ2 1
Ġda rauf
Ã¶ r
Ġge rne
ĠReis e
ĠE l
A b
Ġind em
ĠW as
rÃ¤t e
tÃ ¼
t ics
0 8
ĠBet rieb
c ial
nergi e
0 7
chni k
re land
Ġst ehen
fun g
erstel l
a ngeb
n Ã¶t
ind u
ndli ch
Ġdeutsch e
0 1
ĠH ilfe
Ġg em
rh e
ĠI reland
i nz
ĠSch a
ĠE nde
ĠF re
Ġg ilt
e icht
Ġvera rbeitet
Ġl esen
nde l
Ġauss chlie
S hop
r et
ĠProdu kt
C o
il m
utu n
nne r
ĠBei trÃ¤ge
mat i
i ntere
indu n
indun g
na ch
Ġ info
Ġ unge
e nst
ĠâĢ ¦
ĠR u
Ġc m
s chre
rn a
ĠR Ã¼ck
hÃ¤n g
Ġda rÃ¼ber
Ġ erg
zieh ungs
ual itÃ¤t
utun g
ĠTa ge
iste r
Ġn otwend
ĠTe xt
0 3
ini e
Ġc o
ĠSt o
a uÃŁe
lÃ¼ sse
ĠSt udi
z Ã
wo hl
w n
n ungs
u nbe
ette n
e ck
Ġbe sten
Ġab ge
0 5
T h
Ġbi tte
ĠGes chÃ¤ft
U N
riva t
ĠnÃ ¤ch
tt l
e ri
Ġda fÃ¼r
A R
Ġeigene n
M o
rte r
Ġbet roffene
Ġvol l
Ġ inne
Ġn eu
op f
ĠZie l
fe ld
Ġ Su
Ġges ch
Datenschut zerklÃ¤rung
Ġme hre
i hn
Ġ200 9
Ġ :
ra um
E ssen
rfa hren
ĠP fl
l iebt
ill e
Ġ ihn
ĠRecht s
L e
Ġ unbe
ĠVie l
Ġ intere
¼ d
ĠpersÃ¶nlich e
i erung
Ġli egt
gte n
ro n
ĠGe wi
pÃ¤ i
ĠV ol
ima l
Wei t
ĠK om
ĠMa t
na ge
Ġb ra
pÃ¤i s
Z ur
ĠBe reich
isi erte
ss o
ĠMonat e
ngs t
fÃ¤ llt
h na
Ġmei n
ĠWÃ ¤
ute r
Ġla n
Ġ alt
rbeite r
ĠU SA
Ġl o
ĠBei trag
chte r
Ġsolch e
zi ehen
nde lt
tisti ken
me d
nde st
Ġko n
olit ik
ĠB ede
este n
Ġ https
rin g
ĠNa chr
I D
ĠP h
Ġbe nÃ¶t
hn t
rl e
ĠD r
ĠProdu kte
chri eben
Ġ auÃŁe
im men
fe ren
ild e
F Ã¼r
n ig
so ndere
g rÃ¼
Ġ X
ĠTe am
pÃ¤is ch
ĠE rg
ĠMi ta
y s
ro na
ha lb
u nb
ha n
ommuni ka
rische n
ĠAngeb ot
k la
u rs
m Ã
w ollen
e rklÃ¤
Ġt ro
a ut
ĠF ri
ĠFÃ ¼
ha ft
akt iv
pÃ¤isch e
ĠStell e
t ze
ĠLi efe
Ġzu sÃ¤tzlich
mati s
Ġ unb
Ġ .
ch ule
Ġseine n
sÃ ¤
etz l
ĠEin ige
Ġg Ã
Ġso nst
ĠA nf
wÃ¤ hlen
Cooki es
Ġviele n
r igen
ĠT re
Ġ wollen
ĠVerfÃ¼ gung
twi cke
0 2
ĠWe g
ĠAbe r
Ġz weite
e rla
Ġ %
Ġ rund
ĠBa u
ð Ł
Ġsiche r
Ġwe r
pe l
o ut
Ġwi rklich
pa rt
ĠGes undh
Ġ erklÃ¤
Ġk ostenl
A rt
ri ert
vi e
ĠR i
fo rde
na n
ru kt
ĠO rt
n c
S P
sst e
ĠBa d
o rma
p lan
Ġunters tÃ¼t
Ġ Ã¶
ose n
lb e
abe l
Ġperso nal
Ġ2 3
geh e
g et
Â »
lo ck
Ġ ander
Ġletzte n
matis ch
Ġh Ã¶
G B
om i
ĠA r
ĠMe hr
2 6
tl icht
a nzu
ĠwÃ¼ rde
mÃ¤ÃŁ ig
tion a
ĠC O
Ġz a
Ġf indet
r wa
ĠWi rtschaft
Ġv erst
Ġhe i
rk auf
em and
Ġgehe n
ĠFra ge
ĠÃ ¼be
ĠPerso nen
ĠAus wahl
Ġ ro
ĠThe men
n sten
pla tz
etzl i
ĠMa n
Ġwe rt
Ġwid e
ot h
ĠSt Ã
Ne ws
ĠLauf zeit
¤ d
um s
ĠMa rketing
Ġ anzu
Ġ19 9
I E
Ġ5 0
ĠIn sti
ĠT ran
et zung
ĠI mpressum
nÃ ¼
fo rmen
ĠSch we
. ,
T i
ĠBede utung
s tÃ¤nd
em o
T a
i erte
etzli ch
Ġ ih
Ġsp Ã¤t
2 8
na b
ĠJahre s
twortlich e
Ġli t
n gt
hi e
rate n
ge fÃ¼
A T
ĠG ruppe
ĠAu gen
D o
ha upt
Ġlan g
Ã ¤nge
ĠSta a
nze l
s ex
igkeit e
s chi
ĠGe ld
Ġih m
igkeite n
no ny
ft ware
nk o
e ina
T ube
2 7
sis ch
ĠN etz
âĢľ .
Ġsol lten
n tra
e llung
ĠBes uch
l ick
ĠBl ick
ĠVers and
Ġwide r
ra cht
ĠV ert
ne ss
sbe sondere
Ġg rund
ĠSch wei
A k
be l
Ġla nge
Ġfo r
ĠTechnologie n
ade n
tÃ ¼ck
da rf
ĠInt e
eue r
u la
ge me
Ġ0 9
ou Tube
n twicke
Ġausschlie ÃŁlich
i nige
ĠSe rvice
ĠR icht
r weise
n to
na us
l os
2 9
ĠSe lb
si d
tiona l
me rs
ĠKu lt
L o
R E
e res
uf ig
Ġ schwe
x e
ra tung
e inige
ve rl
Ġnicht s
Ġg et
n tern
me rk
Ġo ft
m l
ĠRe gel
i ngen
e ntwicke
Wei tere
ĠwÃ¤ re
me lden
Ġspeich ern
ssi s
i nde
mini st
Ġ Sam
ĠM ill
rla bs
zÃ ¼
Ġver Ã¶ffen
l lo
Ġfrei will
ĠM u
ĠWe rbung
ĠAnaly tics
ĠSch utz
Ġge n
chut z
t roll
rat ur
¼l l
ede n
stalt u
lan g
staltu n
ĠMa nn
staltun g
ri chten
ib l
rs e
Ġ einige
ol f
wi tter
si e
tte ls
nbi et
i efe
ĠF ina
Ġda von
Ġjede n
Ġre g
l inie
Ġn eben
Ġ entwicke
S E
ĠI nf
ta nden
g eber
g ruppe
ĠCo n
ĠLÃ ¤
Ġ eben
nde ln
chÃ ¼t
ga r
ider ruf
rch e
t es
nforma tion
ĠNa men
ven t
q ua
sto ff
g ut
ĠEi nf
hnlich e
S ol
ĠMe i
Ġbeste ht
ĠA pp
Ġentsp rech
nh e
sta gram
ĠB ra
me s
ĠGesch ichte
co n
c es
ational e
ĠBe a
Ġc ooki
rat i
Ġ schre
ĠÂ §
ĠWa sser
k osten
ĠKu nst
ĠGe gen
z ah
nde rung
fan g
u rt
s etzt
ex t
rdi ngs
utt e
Ġha lten
ĠBei spiel
ĠEin satz
ĠE nergie
e men
Ġg ema
Ġ stellen
B es
ĠHer zen
gesch lossen
tra gs
v oll
me ri
we rb
ir ch
¤ n
ĠMitgli ed
L E
rei ber
re ssen
rd em
ĠBenut zer
gehe n
l y
fe st
nd o
Ġbeso nders
Ġk la
S chri
Ġgro ÃŁen
schlie ÃŁen
nage ment
tisti s
¤l l
Ġ2 8
tu ngs
pri va
Ã¶s e
ĠMÃ ¼n
y l
we s
Ġje weil
ĠWa re
tistis ch
s wert
B o
ĠNut ze
t ellung
L a
to r
ĠE igen
ĠH am
Ġgemein sam
ers ch
ĠWe rk
ĠK auf
Â ©
Ġaus wÃ¤hlen
. âĢľ
Ġb y
t re
st ra
ĠNa tur
lade n
ĠPro jekt
sta g
ig ht
chreib u
chreibu n
ust e
W o
ĠFra uen
zu ngen
ĠmÃ¶ chte
ĠlÃ¤ sst
ma ch
rgani sa
chreibun g
4 5
Ġf unktion
Ġerfa hren
ĠWe ib
a tz
zial e
s chrÃ¤
p rÃ¤
Ġweit eren
ge mein
ma ls
ĠMa ÃŁ
n th
Ġge rade
Ġ200 8
Ġgro ÃŁ
ive n
ktion e
Ġgena u
il o
e rke
ĠMusi k
wi rtschaft
ma rk
wert u
wertu n
ĠF olge
Ġ Ã¶ffen
Ġ ,
wertun g
Ġges etzlich
e rweise
# #
Se i
priva cy
ru h
be rg
ul d
ĠP ra
fe l
â Ĥ¬
nd s
h eim
Ġ2 6
e rwe
ĠSt re
ĠFra nk
za hl
q ue
ĠInsti tut
rsch e
erstell e
r edi
ehe r
f ft
¼ns ch
abe i
Ġbe sser
' s
" ,
lo ad
ĠJu gend
sich erung
rste l
Ġha st
b es
Ġbe iden
o ur
ĠSch wa
ÃŁt e
n igen
ĠLi nk
Ġind ivid
Ġmeine r
ĠBÃ ¼
t ik
n si
¼ nst
Datenschut zeinstellungen
s ts
Ġ2 7
Ġz war
chied l
chiedl i
isi erung
Ein stellungen
Ġsp a
ĠMa rk
rat o
Â «
geben e
hr ungen
Ġo n
chiedli ch
ĠK ommunika
* *
ĠIntere sse
ĠBi tte
ĠKÃ ¼
f il
ra b
r ro
Ġk aufen
Ak zeptieren
Ex terne
Ġble iben
em Ã
sta tt
neh mer
ĠBenut ze
a nony
l eicht
ĠSpiel e
i ngs
Ġ us
Ġinne rhalb
Ve r
Ġsta tistisch
ers p
lÃ ¼ck
Hi e
s einem
ĠSta nd
d Ã¼r
Ġ seinem
nfa n
j Ã¤hr
zeich net
¼nsch e
a re
Fa cebook
ĠVe rein
e nder
ĠI nd
Ġme isten
ĠU S
ppe n
Ġwo hl
Ã ¼b
ra s
hr ungs
Ġmuss t
run t
ĠAn sp
n sbesondere
i nsbesondere
Ġ dÃ¼r
20 21
u lar
me hr
E ine
fi nden
ĠWeb sit
weise n
Ġ202 3
Ġinfo rmi
b ildung
r ver
Ġerste l
zo n
Ġunters chiedlich
ho f
as ch
ist ik
ĠA lt
n ungen
Ġ =
et h
Ġessen ziell
G a
ĠZu kunft
Ġver hi
Ġkei nen
ĠH u
ĠFra u
D u
¼che r
Ġn ehmen
4 0
i um
ĠB log
ol gen
rei fen
fÃ¼ hrung
sp ort
we r
ere cht
a rbeiten
Ġ sex
Ġ anony
¤ll e
ĠMa rkt
g bar
i nzel
Ġm m
ube n
ĠL u
ist o
Hie r
zeit e
Ġverschiede nen
olit i
nfan g
nn o
r ri
mi n
ĠPa t
amt e
e inzel
ĠZah lungs
ĠEx p
mel dung
E L
i stungen
d igital
ĠPla tz
ĠBe ruf
e inz
edin gt
ja hr
A L
sa n
ĠUnte r
ĠW u
ĠKommenta re
Ġo nline
O R
ssis ch
il du
rit ta
Ġli eb
e uch
Ge fÃ¤llt
Ġso gar
Ġaus bl
Ġ insbesondere
ĠCo rona
zeite n
Ġ einzel
use r
Ġstatistisch e
ĠSy stem
ssa n
Ġ Schri
la t
bal l
Ġg ute
ĠR ad
F o
sti s
Ġgema cht
e nde
ĠT ri
S pi
wa ch
Ġ2 9
ver si
Ġt ra
ĠK osten
sta dt
i nzu
l egen
ole n
ktione n
erne r
nie n
berei ch
ĠVeran twortliche
Sei t
Ġ euch
C a
U nsere
frei e
lefo n
Ġbe reit
Ġaus zu
S pie
ĠVide o
Ġ einz
Ġf rÃ¼h
Ġga nzen
Ġpersonal isierte
g oogle
s uchen
! !
e nke
qu em
nde rungen
Ġihr em
ĠA ls
Ġbe f
w uss
ĠB Ã¼r
oliti s
H o
rÃ¶ ÃŁe
wes e
ĠF oto
b Ã
ĠNews letter
ĠA t
ĠInternet s
k s
ĠgehÃ¶ ren
ft u
eine n
ĠSch l
S c
ĠÃ¼ber haupt
i ntern
Ġda h
Ġmehre re
si n
Ġge wi
S ach
Ġdah e
ftu n
ĠVo rs
a naly
e inzu
Ġ ebe
ftun g
ĠHÃ¤ nden
Ġp rÃ¤
stu ngs
wa gen
ĠLa ndes
Ġ >
Ġricht ig
Ġve ran
t ieren
utte r
me rn
6 0
v ert
ĠY ouTube
Ġt i
Ġhint e
rku n
ĠSch la
e rungs
N o
Ġhe raus
Ġir gend
ob ilie
ĠKommenta r
3 3
ĠAngeb ote
) :
Ã ĸ
rsch u
Ġaus d
rkun g
ĠW ert
Ġdahe r
b edingungen
ĠReg ion
Ġ einzu
Ġwider rufen
ote l
ĠÃ¼b ern
e aktiv
d eaktiv
Weit erlesen
ĠG l
stis ch
K l
Ġle icht
s l
ĠD abei
ĠVide os
ta tt
t d
ĠFo rum
9 0
rd nung
ĠL imi
Ġauf ge
i nsta
Ġwe lch
lde r
nut zt
t zen
i stung
sp rÃ¤
ba re
Ġwi ssen
Ġ Suche
rad i
ĠzusÃ¤tzlich e
Ġex terne
Ġga r
ĠGeb Ã
n ehmen
Ġ rei
Ma rketing
ĠP unkt
Ġ digital
Ġtro tz
ĠMu nd
ĠStÃ ¤
irch e
eb nisse
.. ..
ĠN icht
ĠSelb st
nen t
men s
e rk
ri l
ĠF uÃŁ
rste llung
s mus
itÃ¤t e
Ġte il
r ige
i tung
ĠDie nst
ĠWei hna
ĠAn t
l ege
Ã Ħ
e rwa
rg u
ĠMi tte
nhe i
ĠBild e
ran ken
d eut
ĠInternets e
i f
pa ssen
Ġ r
ĠBe st
b et
ĠAn gaben
la nge
ca l
sid e
ĠInternetse i
ĠInternetsei t
ĠInternetseit e
itÃ¤te n
ste i
S chre
las e
stalt ungen
ĠWoche n
ĠÃ¤ ndern
ĠE mp
v ig
ster reich
ĠK raft
Ġvie r
ig ungen
ra g
Ġgem Ã¤ÃŁ
si ert
E n
olitis ch
fÃ¼ hren
ĠKo nze
20 20
ĠI mm
d ruck
Ġbi tten
m t
ind l
W eb
w ol
y stem
Ġ ink
a a
s chule
rschu n
ĠVertra gs
Ġauf s
rschun g
Ġ stellt
spie ls
tÃ¤ ts
Ġcooki es
¼ll e
Ġausbl enden
ĠpersÃ¶nliche n
ĠSo cial
ĠU rlaub
f olge
Sta tistiken
rlich e
ge lt
ĠKÃ¶ r
je kte
ma zon
Ġerstel l
Ġk urz
ĠChr ist
wÃ ¼ns
r ete
l m
Ġli nks
ls e
ĠMita rbeiter
me ssung
ts Ã
Ġerstell e
ĠD Ã
sisch e
ust rie
Ġm od
y p
ĠLimi ted
gen ommen
ĠBilde r
Ġauto matisch
obe n
ge ln
Z um
Ġ intern
rk s
il u
ĠVe rl
3 5
fi s
M edi
ĠnÃ¤ch sten
ĠMin uten
A m
Ġge wo
Ad ressen
Vi e
ĠIntere ssen
u ner
Ġ angeb
ne iden
tsÃ ¤
schut z
z we
ĠEnts cheid
ĠWi nters
i et
ĠWi n
Ġents ch
T o
a rbeit
ĠSt unden
p oli
mei nde
e nken
Z u
ma rt
Ġg ab
Ġverschiede ne
ssan t
ĠE d
ze igt
ĠDa nk
A kt
m Ã¶glichkeit
ĠI mp
1 00
Ġjed em
O L
ha use
pi n
Ġwen iger
t iert
iden t
Ġbeso ndere
Ġ4 0
zeit ig
ĠD ritta
d ri
ĠPro zent
ra uss
Ġda rf
ris e
ran z
Ġhi naus
Ġpa sse
ba ren
ls t
ssisch e
ot os
Ġgesetzlich e
ilu n
b erecht
Ġ Sol
ĠT est
ĠIhre s
d essen
e c
rÃ¤ fte
Ġerstelle n
ilun g
ĠBo ard
- ,
rt i
ĠB u
Ġf u
Ġjeweil igen
Ġf l
ĠPart ner
ĠKult ur
ĠAnaly s
Ġerfol g
Ġ end
ĠRe chte
ĠA nfang
ĠMÃ¼n ch
Ġauf grund
wese n
v ol
n us
Ġ deut
I S
ĠDie nste
) ;
ĠDie nstle
ha l
sp ro
Ġzu ge
ĠWa hl
ĠHe i
ĠRa um
ĠAu ÃŁe
isi ert
ĠId ee
usch e
Ġ Shop
Ġble ibt
Ġfolge nden
fÃ¤ h
redi t
8 0
ĠâĢ ¢
Ġverst ehen
ĠP f
rg t
fÃ¤ l
ĠAb o
e va
re e
Ġ200 7
Ġerh Ã¤lt
ĠHa a
Ġv Ã¶l
ĠA nbieter
a cht
ri pt
rech net
ck s
tal i
ĠE rn
Ġkleine n
ĠDes ign
ĠEn twicklung
pÃ¤ische n
ĠB io
rato r
e iden
Ġze igt
ĠSe n
rlaub nis
Ã¶s ch
F i
Ġ uner
ge gen
sten s
e ne
ĠO p
s chle
ul l
rmi n
ĠP ort
mi s
ĠTa gen
ĠW id
ĠSt i
la ss
b uch
e ÃŁen
3 1
Ġ Spie
ĠSp rache
lu si
ĠDe nn
ĠK omp
ĠWebsit es
rÃ¼ck l
nno va
ubl ik
Ġbe recht
UN G
â ĸ
Ġ Spi
kt o
ĠIn s
ĠH d
xi s
schaft e
ĠLe hr
Pro du
l la
pro du
e na
Ġ ðŁ
hand lung
fa hr
Ġwei ÃŁ
rÃ¼ckl i
ĠG i
Ġbek annt
. )
y a
ĠF ilm
ĠN eue
¤ mp
rÃ¼ckli ch
n schlie
ere r
rte i
ĠSch u
latt formen
im me
rl ebnis
eu ro
stei n
spiels weise
fe ss
ĠWei s
ld i
ĠSch ule
Ġ ident
schafte n
u me
Ġbe we
nko rb
ĠKatego rien
Ġebe nfalls
¤ r
ĠA ktiv
rivat e
s eres
Ġsa gen
u men
R a
ĠM odell
ĠSicherh e
ĠSicherhe i
ĠEi nk
Ġh il
ĠSicherhei t
ĠA nd
ĠAnalys e
n seres
u nseres
Ġf ast
ĠH Ã¶he
N eue
3 6
Ġ unseres
ch ine
Z e
Ġper fe
Bi tte
ĠF est
ria n
Ġ Sach
ĠGro ÃŁ
Ġmi ttels
nd u
t halten
Ġze igen
Ġre gel
eina nder
imm ungen
htt p
ĠVo n
Ġdeutsche n
tsÃ¤ chlich
Ġ erke
chi s
ou n
ĠZeit punkt
n ver
es ts
Ġso fort
ha t
chse l
reu ndlich
zi ert
rn i
e rie
indl i
ĠU rs
ĠHe rz
Ġbek ommen
ĠW iderruf
Ġpa a
ĠH olz
ab l
rt et
ma rkt
to n
Ġdeut l
Ã¶sch e
Ġdeutl i
zeich e
ĠGÃ ¤
ĠKl e
eh Ã¶r
Ġve rfol
meri ka
Ġ do
ĠMi ttel
ĠSicherh eits
met e
ĠA rchiv
annte n
ĠSom mers
f ra
Ġausd rÃ¼cklich
e cken
ĠGes ellschaft
D E
s ollen
spiele n
Ġwe lt
Ġwo rden
Ġha ndelt
W Ã
Ġunb edingt
ĠP reise
v ertra
ve rarbeitung
Ġmeine n
e rz
Ġausge wÃ¤h
9 5
ĠvÃ¶l lig
am pf
isti s
Ġ sollen
t et
kei ts
Ġme d
Ġdeutli ch
ĠWin t
Ġg i
7 8
n thalten
e nthalten
oo d
ĠStudi e
Ġg la
ĠHa upt
Ġge sta
ĠSe e
Ġ erwa
e rre
zeiche n
Ġ www
ĠWinters emester
ĠMat erial
ĠNa cht
ĠDa nn
zent rum
Ka tego
g ri
rga ngen
e rdings
l erdings
ehl e
l lerdings
a llerdings
nk u
ĠE nd
ĠÃľber sicht
Ġve rk
ini ert
J etzt
ĠP lan
ĠInhalt s
ss ch
Ġ enthalten
s chluss
A M
ffi zie
ĠBe l
men ts
ĠZwe cken
sprÃ¤ ch
Ġl eben
ubli n
Ġpaa r
ri nnen
ĠC e
p reis
chni tt
fri st
Ġ allerdings
Essen ziell
ye r
Ġv ia
ĠP ost
¼t e
ĠQ ualitÃ¤t
ĠDi sk
S h
ode r
Ġhin weg
3 4
olitisch e
eb l
Ġdeine n
Ġha tten
lase n
ĠLi nks
Ġb ist
ĠEr ziehungs
ete il
ĠGrund lage
ese r
nni s
c ooki
et ze
fu nden
Ġbestimmte n
Ġt re
Ġgegen Ã¼ber
F unktion
In halte
la ngen
hrl e
ig ungs
ze ss
vers tÃ¤nd
ĠT ro
E U
ĠD ublin
ĠLi ebe
¤ ss
ĠProbl em
k ra
r zeit
rei nba
ĠWeis e
e lektro
ĠC omp
rÃ¼ cken
zeu ge
ĠRe ch
Ġbet re
h ilfe
ĠLa ge
rit i
zi eren
ĠNo rd
ĠRa t
De utsch
ildu ngs
chÃ¤ d
ĠP oli
ĠRe gie
Ġvers ch
Ġso wohl
Ġ deaktiv
u ri
ĠL uft
em als
S ha
ĠfÃ¼ hren
ĠUnters tÃ¼t
ĠRÃ ¼
ami t
ni a
+ +
Ġgrund lege
ĠSommers emester
wn load
n sp
Ġk ompl
Re i
f ach
rts e
ĠE rlaubnis
Ġre a
ce n
Ã¶sche n
Ġbed eut
istis ch
Ġbe vor
Ġf e
Ġunterschiedlich e
ĠEin zel
stisch e
Ġges amte
¼l e
ĠMÃ¼nch e
Ġv ert
rle i
Ġ wol
3 8
M Ã
ĠGa rten
ĠÃ¼ber mitte
ĠSch o
Ġwe b
Ġb uchen
Ġakt uellen
rÃ¼ ch
nst i
k ta
hÃ¤ng ig
rtse i
et zen
Ġbea chten
e itung
Ġso ziale
ĠMa s
ĠgrÃ¶ ÃŁte
ike r
Ġp h
ta dt
¼ lt
ĠR isi
ĠdÃ¼r fen
Ġza hl
ĠM edia
Ġkostenl os
fe hlen
S mart
ĠKÃ¶r per
ĠVer kehr
Ġ suchen
ĠK irche
ĠT Ã¼r
ĠE ltern
Ġ '
rm o
Ġk am
rtsei t
ĠR h
ĠF ern
rtseit e
olo gische
ĠEU R
richt et
nal e
Ġauf b
Ġverwend eten
gi nn
rku nft
hr s
erstelle r
chri ften
nn u
n ga
ho ne
a ge
indli ch
ĠH Ã¶
Ġvera rbeiten
Ġeigen tlich
i nigen
n gut
g riff
tive n
ĠF lug
Ġ su
ĠDie nsten
ĠSch i
ĠW ind
n ers
ĠMa ps
r ra
F e
Ġhin zu
Ġ eher
A naly
S il
ĠVer gleich
ĠSo ftware
ĠUm welt
rÃ¼ch e
fa lls
ĠF u
5 5
Ġk m
ĠPfl ege
ĠA c
v ide
re chte
Ġ3 1
Ġ {
ma il
Ġ dri
D etails
ĠGe ne
ĠgehÃ¶ rt
ĠLi t
Ġintere ssant
Ġreg ist
gliche n
z immer
3 9
Ġum fa
e inigen
ĠverÃ¶ffen tlicht
ĠPerso nenbezogene
chis ch
3 7
Ġwe gen
nnu n
Ġhinte r
mete r
ĠL icht
nnun g
Zur Ã¼ck
reite n
Ġn ah
ĠMÃ¼nche n
ĠP rÃ¼
nd et
ĠkÃ ¼
ĠI s
Ġnut zt
Ġâ Ĩ
ĠE rfol
ĠKÃ ¤
ob il
ĠAn l
ki n
Ġbei spielsweise
pa t
ch la
rh Ã¤lt
Ì Ī
fe rt
ini k
M edia
Ġkom b
ĠAn tworten
ĠWe r
20 19
Ġ0 8
bl e
ts e
Ġ }
i cke
Ġni e
ĠRo ss
Ġwe rde
Ġ6 0
lÃ ¤t
U S
ĠC hi
ick l
ers e
¤ch st
ĠZwe cke
ges etzt
Ġgena nnte
Ġmark ieren
i ka
St e
i ches
ĠGesundh e
ĠGesundhe i
ran ch
Ġnotwend ig
Ġwa rd
ĠEuro pa
oo t
ĠÂ ·
A ls
ina r
Ã ¼nd
rei ben
Ġ spie
gli s
ĠA nge
e k
sy ch
nfo rde
ĠA p
Ġ elektro
ĠF reu
lt u
wÃ¤ hrle
Ġ19 8
ĠWe rbe
ĠGesundhei t
rvi ces
eu cht
nn a
ĠA G
e ln
ĠMill ionen
o rg
ĠMitgli eder
versi tÃ¤t
ĠG u
ĠKo nk
ĠW ort
pt o
A uto
Ġga nze
Ġpa ss
Ġfre uen
si tion
berecht igten
richt u
ĠWare nkorb
richtu n
richtun g
ĠT op
4 4
han g
Ġver wa
fis ch
ĠWa ren
ĠD och
mi ssion
tatt u
tattu n
tattun g
ĠD etails
ur f
wert ungen
Ġv ertra
ve rfahren
mi ss
ĠK ind
¼n ft
rstel l
ĠF Ã¶rde
Ġaus geschlossen
em pe
ĠB re
fe h
E T
Vie l
ĠJ e
ĠspÃ¤t e
Ġviel leicht
mÃ¤ÃŁ igen
ĠN ot
ĠK opf
emi e
tali e
ik o
P o
ve nts
si eren
ge stellt
ck i
glis ch
ĠFunktion a
kti s
Ġman ch
ĠA kt
ĠFunktiona l
Ã¶ gl
ĠI I
T ra
ĠN eben
ndu n
Ġ schi
rn o
hrl i
Ġdigital e
ĠT witter
g ren
ndun g
Ġge wÃ¼ns
ĠKa l
Ġbedeut et
me o
c l
S uch
ĠE rs
l igen
rukt ur
I nd
Ġme ist
fall e
ltu n
abe n
ste me
ĠSch ul
ĠFÃ ¤lle
ril l
u ne
Ġme inem
rri ere
cht l
cha e
ltun g
Ġb ringen
Ã¶s cht
ĠC am
Ġso fern
ĠPa rk
ĠAnf rage
et zungen
l z
l eva
Ġak zept
tri tt
hrli ch
zen tra
ni t
4 8
t zung
zo gen
Ġ schle
wi rk
ickl i
News letter
ĠHam burg
S CH
Ġjed es
ini n
hre nden
ĠKl ima
Ġbis h
ĠBe we
gi erung
Ġents t
i ty
Ġbish e
ff net
ĠNut zungs
ranch e
ickli ch
ĠDi cken
ĠStra ÃŁe
Ġ zi
tt lung
ri o
tu ngen
Ġander em
- /
rin gt
A pp
Ġ200 6
n vers
i ver
ĠM oto
wuss t
ĠKatego rie
ĠGebÃ ¤
E D
rig ht
ri es
lÃ¤ ss
da uer
K i
ĠF resse
Ġ erne
Ġge st
ĠVerb indung
mÃ¶glichkeit e
____ ____
hÃ¶ ren
mÃ¶glichkeite n
ĠD igital
. :
e ment
l eh
uss ion
ge richt
Ġbe neiden
K ommenta
up ts
Ġsta rk
ĠErziehungs berechtigten
ro s
ĠPa ss
aste n
ĠTi s
f rage
ĠSom mer
ĠPat i
ri chte
Ġbe gi
rati s
Ġfreiwill igen
Ġke nnen
ud io
Ġbetroffene n
erf a
pi s
vig ation
Ġli e
ĠSÃ ¼d
tu ation
Ġvo rbe
Ġbeneiden swert
4 6
Ġg rÃ¼
qu icklich
n ete
Ġve rli
t ch
Ġk ur
U nd
Ġaufb lasen
Ġ arbeiten
Ġab sol
ĠInhalts messung
da s
ĠG lÃ¼ck
zeu gt
ĠQ ua
ri d
r c
ĠImm obilie
eb u
Ġgleich e
Ġt Ã
ig a
rma t
nÃ ¤chst
p hie
Ġab zu
7 0
ni n
ude n
ch wa
troll e
ĠVerantwortliche n
A G
Ġunbe quem
ĠTe l
Ġ ad
D F
s enden
rÃ¤ gt
ĠA mazon
o rf
ĠM eta
ĠU nsere
ktis ch
ĠGl e
nhei t
ĠVertra g
ĠschÃ¶ nen
e nz
ran g
Ġunge liebt
u ngut
ĠPati e
Ġ ungut
Ġsta ndard
lan zen
ĠlÃ ¤nge
Ã¶gl icht
ĠHin t
ĠSa u
ren t
d Ã
ĠPatie n
ĠKÃ ¼che
s ges
ili tÃ¤t
Ã¤h e
Ġv a
ĠPatien t
nk a
Ġkl icken
cooki e
ch lag
âĸ º
walt u
Ġsie ht
waltu n
Ġsa gte
waltun g
emÃ ¼
ĠK rie
Ġj emand
Ġf ort
n wand
Ã ¤ss
Ġuner quicklich
fi e
ĠG ast
Â ®
ĠGeschÃ¤ft s
T E
Ġp ra
ta ge
Ġmusst e
Ġwelch es
s chrift
e ht
ĠBa l
rhe r
Ġco n
a nders
Ġso lange
i nb
nde ls
fa hrt
ĠGe rÃ¤te
chr icht
ha s
d einem
wach e
we d
ĠfÃ¼ hrt
side n
Ġ deinem
i nlich
Ġst o
ĠbenÃ¶t igen
hrs ch
rne n
eb a
ĠN r
Ġ dessen
ĠhÃ¤ tte
we rke
r zt
ĠN Ã
i erten
ĠHa ut
oun t
ĠgÃ ¼nst
rgu n
eti s
Ġte ilen
ĠG old
Ġ ra
rge stellt
ral l
inin g
Ġvo lls
i enst
Ġkei ner
ĠM ode
N ut
Ġkeine rlei
t istik
c ro
v olle
rgun g
¤d e
ol s
" :
ĠA ut
m lung
set zung
Ġdurch s
ri nge
i smus
A S
ĠZ um
wo hn
ĠA k
7 5
r chi
ĠÂ «
zu stellen
ffe r
ĠnatÃ¼rlich e
we ils
Ġbe halten
e inlich
per ren
ĠD em
siden t
Ġbe e
Ġ erre
ĠZ ur
b ild
c ies
n ve
ette r
k reis
ĠN ur
falle n
sse l
men ta
piel e
ĠNachr icht
I L
6 5
Ġverfol gen
i z
L ink
med izi
erte r
Un s
oche n
lt ag
3 2
i son
O S
ĠTeil nehmer
ilde r
Ġident ifizi
A uch
ri um
e nsi
e w
E igen
il Ã
ĠE lektro
rche n
I G
Ġle ider
Ġ SP
ab y
ertra gung
rank h
nk l
ĠÃĸ sterreich
Â §
ĠZ Ã
ĠIn stagram
ĠspÃ¤te r
---- ----
Ġschnell e
ĠtÃ ¤
eid u
ge wi
eidu n
ĠUnterstÃ¼t zung
ts ch
Ġerf Ã
runt e
I hre
eidun g
ĠSt rom
Ġgel Ã¶scht
pt e
ĠAn twort
Ġ zeit
Se rvice
ha nden
y ern
h unde
ĠMaÃŁ nahmen
nst ru
nn ieren
ĠE rf
ĠZu gang
I C
zieh u
a gen
ziehu n
recht l
" .
ziehun g
ĠFe rien
ĠAd minist
ren z
ĠM Ã¶
hrsch einlich
s tÃ¼ck
Ġ sam
chae l
h lt
Ġwi ede
la y
ĠB lu
Ġni emals
ĠO rganisa
ufe r
ba ck
ilÃ ¤
ĠB oden
fte r
Ġemp fehlen
l ose
t us
Ġerm Ã¶glicht
ĠEi s
rk a
rem d
ĠNachr ichten
n ster
Ġy our
k m
Ġers ch
Vo n
ĠSt eue
ĠBet reiber
ur ger
Ġverb unden
wÃ ¼
4 3
Ġbe l
fÃ¼ hrt
ĠP olitik
rit e
sta u
20 18
pin g
nke l
Ġge nutzt
e nth
ĠIn ve
nÃ ¤
ĠhÃ¶ ch
lu b
ri k
ve ran
Ġg uten
Ġ Smart
V ers
ĠDaten verarbeitung
ĠH otel
f lÃ¤che
Ġ Sil
tÃ¼ mer
ĠunterstÃ¼t zen
P ress
nent e
Wi rd
form ular
Ġda ran
Ġ0 7
n passen
ĠZe n
ĠSta ndard
wissenschaft e
c kte
Ġwe s
chisch e
ĠSta rt
t ro
ĠI nnen
ĠDi r
ĠWi ssen
end et
a npassen
ĠO pt
erg abe
Ġ stÃ¤
etis ch
u nver
Ġ anpassen
Ġvor handen
Ġ analy
wissenschafte n
Ġ Sh
orma l
C h
Ġje weils
Ġexterne n
Ġb lock
Ġvolls tÃ¤nd
R O
Hi n
nde stens
reise n
Ġ ern
poli cies
da nken
Ġso gen
part ner
fi ni
Ġkl e
s chwa
Ġstatistische n
Ġ sÃ
ĠI nformation
Ġ anders
rli eben
ĠWi ssenschaft
zte n
h rten
Ha llo
i p
ss ta
n teg
Ġentsp reche
Ġ unver
nku n
Ã¶ d
i nvers
ĠAu ge
ut a
ĠBe reits
use um
âĢ ¢
S em
ub ehÃ¶r
Ã¶se n
ĠTi pps
a tt
ra m
nkun g
Ġ are
ĠDeutsche n
Ġgi n
s chl
Seit e
4 7
ebu n
lu gin
cki n
Ġy ou
Ġ0 1
pis ch
ĠBe ratung
ĠDo ku
gefÃ¼ hrt
Ġdeine r
ĠO hne
ebun g
ĠH y
Ġentsprech enden
fÃ¤ lt
stu d
ĠSi nne
lo ss
i ta
Ġschre iben
ĠR olle
ka rte
pe kt
rstell e
ĠLit e
ĠTi t
i nteg
ĠGle i
ĠInf os
ĠSch Ã¶
nfa l
zielle n
ĠB la
e invers
einvers tanden
sy stem
ch Ã¤t
sa gt
Ġgin g
Ġgrundlege nde
ĠfÃ ¤
ĠStre et
Ġ einverstanden
ĠHaa r
ĠDies es
zi erung
Ġges etzt
n hand
rk Ã
r est
ĠSchwei z
R eg
Ġta tsÃ¤chlich
Uns e
ĠWa ld
i ngeb
Ġ )
ĠSe rver
Unse r
ge rÃ¤t
D urch
ĠDiese r
b u
We r
ĠBe richt
Ġge wÃ¤h
s chu
R o
ga ngen
rechtl i
Th e
p ress
Ġ enth
nbiet ers
ĠY o
rechtli ch
ĠLei stungen
Ġkonnte n
Ġli efe
ch keit
dt e
ĠAb end
fu rt
ĠF rÃ¼h
d ienst
r reichen
Ġve rÃ¤
Ġma x
a nhand
ĠPro gramm
ĠWu n
ĠF il
Ġge k
unde s
ĠBo x
i enen
Ġ anhand
ckin g
rie f
ĠV ort
Ġakt uelle
ĠUn s
h ol
bi s
ĠD amit
v id
e nb
Ġbe ge
Ġtrotz dem
s recht
S V
e ingeb
sicht l
ĠhÃ¤ ufig
nta g
Ġk lar
u nab
me ssen
Ġso mit
ĠHe l
mis ch
¼le r
ĠGe meinde
lusi ve
Ġt ri
ĠReg ist
âĢ¦ ]
F A
i eb
Katego rien
ĠStaa t
wa s
l us
o ba
e rreichen
utsch e
Ġ ru
Ġ eingeb
ĠBa nk
nfal l
ĠBe stellung
rie rung
Ġ erreichen
ĠGesundh eits
Ġ euro
e ch
kto r
Ġhoch wert
sichtl i
Ġl Ã¶schen
Ġaktiv ieren
Ġo ffen
ĠÃ¼b ers
I CH
Ġkle i
Ġselb e
i nwand
e y
als ch
ĠD ruck
fa hren
ĠF lÃ¼
ĠF ort
n td
imal e
s chla
gli ed
ĠSch luss
sichtli ch
ĠSo zial
ou rna
Ġange zeigt
ho w
ione l
ĠTa ges
Ġpersonenbezogene r
ĠFi rma
p ublik
b est
ĠÂ ©
Ġda ÃŁ
U R
sta n
ifi ka
ĠVe rfahren
Ġ erte
ĠMÃ¶glichkeit e
rien t
pro gramm
Ġ richten
s chÃ¼t
ĠMÃ¶glichkeite n
ruh e
e ckt
f ile
e ntd
ba hn
l f
ĠB and
Ġda durch
era pie
ĠFahr zeug
Ġ q
ĠÃ¼b ertra
Ġ8 0
Ġkomb iniert
ĠHe il
Ġf ol
Ġeinzel nen
Ġentwicke lt
sit ze
Ã¼r e
ĠT u
ĠDi ch
¤ hlen
nbiet ern
ri eben
Ġinformi eren
c tion
Ve ran
ĠKi ndern
B B
k raft
ir men
Ġ schlie
ĠDri tten
ĠprÃ¤ s
lt a
gebene n
ĠprÃ¤s e
geb u
Ġintern ationale
Ġhe ut
si l
od c
rlaub t
rÃ¤ ge
zi nische
Ġfunktion iert
S k
ionel l
A bo
s ee
Ġb Ã
rste n
miss ionen
P art
Ġ integ
Ġhei ÃŁt
ourna l
ĠAuÃŁe rdem
ĠFina nz
ve l
Ġ entd
ga zin
ĠprÃ¤se n
iv a
ut ion
ichte r
Ġge funden
e ls
Ġwu nde
rant i
ĠDo rf
V ide
leva n
uell es
r igi
ut h
ĠKle i
has e
me ra
4 1
ĠBad e
na u
Ġdes halb
me ld
S icht
ro h
Sch l
Ġk omp
Ġ spielen
Ġ red
e ide
i eÃŁen
Ġpo sit
e gal
Ã ©
nf rei
op y
ĠLei stung
H ost
y si
e inwand
. -
B log
ĠBa sis
net z
ĠP ubli
Ġweb site
si no
ĠK reis
ĠEuro pÃ¤ischen
ĠSpa ÃŁ
fisch e
ĠFamilie n
istisch e
ĠU N
wache n
nnt nis
nz l
ro t
rs chaft
ĠWint e
Ġverhi ndern
ĠT Ã¤t
Ġet c
n ch
ge ssen
om o
ile r
Ġerne ut
E S
Ġ Such
fÃ¤l l
ĠKa pi
ĠunterstÃ¼t zt
m me
we rte
ĠD ort
ĠCha nce
gesch ichte
n so
ver halten
levan t
Ġ einwand
ĠHin sicht
ĠL iste
Ġ3 5
ĠPla tt
za hlen
zÃ¼ glich
mal e
Ġni ed
f Ã¶rde
Ġfi ndest
ĠI T
ĠDa zu
riti s
tz l
gebu n
gebun g
e rlaubt
medizi n
Ġn ormal
ĠEr wa
ma i
T op
f unktion
ĠK olle
tt o
op pe
ĠKu rs
ĠDi re
ĠO be
ĠfÃ¼ nf
Ġ Schre
ku nden
Ġ erz
i chkeit
z ig
Ġ pe
ĠWe l
Ġ erlaubt
ge nde
du l
ult i
oth e
ĠMi ni
ĠF otos
Ġmi ndestens
uste r
ĠUnternehmen s
Ġ9 0
ĠI nforma
s chri
ĠProbl eme
ibl io
ĠBÃ¼r ger
Ġbe darf
Ġwo hn
Ġbes uchen
Ġvoll e
ldi e
ĠRh e
ktion s
ĠWebseite n
ĠÃ¤ hnliche
Ġko nk
Ġ setzt
lo gie
b y
usi ness
Ġentsprech end
Ġbe liebt
Ġbes tÃ¤t
i egen
Ġeben so
ĠP fe
g d
ĠSch ne
ĠTit e
stel lte
¼ sse
Ġenth Ã¤lt
sges amt
reu z
ĠVe rkauf
I M
ga rt
rk o
geme ine
p fe
g f
feren zen
ltern a
twort u
ĠHo use
twortu n
ĠE ssen
twortun g
Ã¤h lt
Ġst immen
hnt e
wed e
Ġso weit
Ġakzept iert
ĠGeb urt
ĠGe sprÃ¤ch
Ġp olitische
Un t
ĠLÃ¶s chung
tte s
ĠKu nde
ĠMÃ ¼
ĠwÃ¤ hlen
ĠschÃ¶ n
ĠRei h
ĠHe rb
pp ort
a nsp
ĠZen t
ube r
Ġ200 5
6 6
Ġges chni
Ġla ut
zentra l
ĠJahr hunde
ĠHaus e
B et
Ġhil ft
st ik
Ġbef indet
rmi ne
Ġ unab
ĠR ob
} }
ver kehr
ndl e
bo x
p hÃ¤
Ġso da
ss ystem
ĠBe rg
we rbe
ĠW ett
Ã¶ gen
t fern
ĠGewi nn
Ġrecht mÃ¤ÃŁigen
Ġschwe r
Ġge lten
ĠH unde
Ġdazu ge
n sehen
auf tra
rma nn
b t
ĠWid ersp
ĠD emo
ĠDisk ussion
Ġp rivate
R A
ĠKommunika tion
ĠM w
sse s
Me i
ĠJ etzt
ĠGe mein
wirk ungen
ĠViel e
isi eren
Ġerste llt
ĠGe fÃ¼
Ġ rein
Ġwelche r
ma ÃŁ
rro w
hle r
Ġ Sicht
ĠReih e
rate gie
Ġfolge nde
da go
Ġbe ha
Ġka um
do rf
ĠHe raus
lÃ¤ ge
Ġzweite n
Ġ eh
lo bal
Sc ript
asch e
Ġverwa lten
Di es
Ġink l
ah me
I P
nn tag
20 17
rp unkt
r weit
Art ikel
nkt e
ĠTh o
ĠT V
ĠErfol g
re g
ĠStaa ts
este r
Bes chreibung
la tion
statt et
Ġ Ġ
ĠKonk urs
Ġgenannte n
ima t
k et
mat e
tl e
ĠKommunika tions
pa rk
Ġgesetzliche n
ĠAn meldung
ran s
oo pe
a lten
ĠverfÃ¼ gbar
n eten
verb rauch
mach e
l Ã¶s
ĠWa sse
Ġneue s
Ġli ebe
ĠIn c
ro rdnung
gel egt
ĠDri tte
ĠEi nb
ranti e
Ġwi th
runte r
forde rt
Ġbetre ffe
a rbeitet
k ro
yl e
ĠTite l
âĢ Ķ
Ġge wÃ¤hrle
Ġdenn och
Ġwa rum
ĠZusammen hang
o ni
ritis ch
ĠSo nnen
Ġbe nut
stÃ¤nd ig
ĠRe zept
nisch es
ch inen
Ġn o
ĠTa n
na ger
ĠHa n
ehe nden
fess ionell
e rvice
ffe l
ĠHe rkunft
ĠM us
ĠHo me
ĠJ ob
E uro
S ig
ion a
kin g
ĠSe rvices
ver sicherung
Ġ schÃ¼t
kal e
rÃ¶ ffen
Ġ0 6
Ve rÃ¶ffen
A GB
ĠZ wei
me ln
ĠVeran staltungen
w ig
p fen
ĠO ut
ed Ã¼r
Ġl os
B ild
zah lung
ami n
ĠRhe i
ĠErg ebnisse
In stagram
5 8
rti n
An geb
ma nagement
Ġeinwand freie
Ġerfolg reich
orte ile
ĠZei ch
Ġ[ âĢ¦]
pie r
ru chs
ĠMw St
ĠLe ute
ĠausgewÃ¤h lt
ra kt
zeu gen
nf Ã
Ma i
Ġpro du
ga ngs
ĠWeihna chts
ÃŁe nd
ĠSta d
d enken
ba d
Ġge stellt
7 7
P i
Ġl ernen
B E
Ġko ntakt
ĠBes chwe
ĠRÃ ¤
ĠerklÃ¤ rt
erso rgung
ĠÃ¶ffen tlichen
ĠGe rÃ¤t
zwe cken
ivid uelle
ff nung
Ġfi nan
Ġentspreche nde
Ġzu nÃ¤chst
st l
ot iv
ĠK ranken
opy right
ĠDe ine
la m
ĠDi a
ina tion
geb Ã
Viel e
Ġve rg
rian t
ldie weil
Ġwe g
ĠP sych
D R
E missionen
fa ngen
wissenschaft l
5 9
n ummer
Ġf erner
lt et
ĠHÃ ¼
ĠâĨ Ĵ
glei t
ni ssen
erei ch
Ġgespeich erten
âĢ ĺ
Ġge rn
ĠSch e
grund lage
Ġwol lte
ĠId e
sit z
ĠmÃ¶glich erweise
Ġerke nnen
Sp ort
ĠwÃ¼ rden
lo w
h rte
rma l
me ister
a ngen
stel lten
s chÃ¤t
ĠG as
t reten
il f
ml i
c m
A P
r ust
Ġ alten
Ġp la
e rzeit
ĠK redit
ĠB ett
rankh e
rankhe i
rankhei t
Ġweit em
lÃ¤t ze
ĠP ol
Ġmei nst
ĠN Ã¤he
ĠWie n
Ġnach halt
ĠBe k
e lten
ĠÃĦ nderungen
nschut z
ĠEntscheid u
20 16
ĠEntscheidu n
Ġakt uell
ht e
ĠEntscheidun g
Ġhohe n
o ff
Ġge rechnet
Ġopt im
ra nd
ce ssa
ed ig
Te l
ĠFe ld
5 6
Ġfi nde
4 2
ĠG la
Ġwe nden
ĠPunkt e
nbe rg
ĠPro f
kti e
ĠPra xis
ĠSi tuation
a lte
Ġda r
ach s
I hr
t ensi
ĠSchri tt
ĠGo tt
zu fÃ¼hren
S im
ĠTe chnik
gleich e
hause n
ĠP ri
Ġve rgangen
ege lt
ĠPa y
iblio the
l Ã¶
Analy s
ĠUni versitÃ¤t
ĠbÃ ¼
ĠZeit e
ut ton
rÃ¼ck sicht
k om
ĠAr chi
Ġwer fen
ĠBÃ ¤
gra fie
cessa ry
ĠZa hn
wÃ¼ rd
richt ungen
ĠErfa hrungen
ĠG las
ĠG ren
n tfern
Ã ľ
Ġ schwa
Ġ ide
l ldieweil
a lldieweil
Ġ alldieweil
mli ch
ĠWun s
zeich nungen
ut i
ĠAuf trag
ĠVo rla
ĠKÃ¶ nig
e ntfern
ĠDi nge
ĠAbs chluss
ĠRisi ko
Essen zielle
am p
m ut
gi eren
Ġ cha
ro wser
Ġ SE
wi d
Analys e
ĠMe nge
ĠAn wendung
ĠVer halten
ĠAn zahl
Ġwohn haft
wi esen
riant e
Ġklei n
ehe nde
ta gs
ĠHa upts
rÃ¼ cke
d erzeit
vo rs
ĠPatient e
z gl
ia t
plan t
ĠK n
pa ck
Ġregel mÃ¤ÃŁig
P reis
Ġgesch lossen
ĠC l
sta a
ges etz
aus e
na chricht
e inde
ĠEn twick
ĠL ese
ke l
Ġgemein sa
ĠNe w
ehle r
n sgesamt
i nsgesamt
ff nen
rei fe
Ġab ger
mu n
ĠPla t
ĠCe n
e rungen
Ġb ringt
ĠSÃ ¼
verb and
ba ld
ĠM eth
ern a
Ġ einde
ĠmÃ¶glich e
ĠSe x
ĠEin schrÃ¤
i tÃ¤ts
Ġ entfern
pa ge
nn ers
nba u
c c
w Ã¼r
ve rein
ĠSi tz
ra ÃŁe
ĠFi s
Medi zinische
y m
chlich e
ĠkÃ¶nnte n
ern t
ĠFÃ¤lle n
â Ĥ
u ert
geme inen
ĠVer lag
Ġf alsch
ĠLiefe rung
7 9
ĠI st
ĠSch lÃ¼sse
ĠÃľb ers
rk rank
N ur
sio nen
feren z
Ã¶l ke
n ern
ĠKÃ¶ ln
Ġ derzeit
vie l
ziehungs weise
ord o
rga n
Ġeinde ut
eh n
Ġher vor
ĠBl ut
cha ften
Ġbra ucht
Ġbishe r
ĠKon to
ĠBa hn
6 8
Ġgleich zeitig
ĠG eh
D P
Ġ <
ĠMei nung
Ġ insgesamt
aus t
Ġ as
F rei
ĠP rin
Ġ schlieÃŁen
ĠW olf
uch s
ĠQ ual
ĠO d
Ġ7 0
S ub
n ternehmen
ĠGlei ch
I I
mu ck
r v
geb iet
ĠMonate n
ĠÃ¼bertra gen
ĠBe stand
ĠFall e
ĠbenÃ¶t igt
erg rund
ĠPa rtei
ache r
ĠDe n
Ġbe sit
Ġver langen
fÃ¼ hrer
Ind ividuelle
ebl i
b ach
ordo n
ĠE rh
ĠDi s
Ġo ffi
bar keit
neh me
Ġblock iert
âĤ Ĥ
sp ringen
Ġbe ziehungsweise
ĠGruppe n
tu d
ĠZeite n
ĠI nnova
the r
Ġeinge setzt
Â °
Ġwicht ige
Ġentfern t
ĠwÃ ¼nsche
wa ld
tzl i
nforde rungen
e ffe
ĠAus bildung
ilo so
Ã ¤r
mente n
Ġzu dem
ĠK rÃ¤fte
n land
ĠKo nf
ibe l
Ġj unge
O b
Ġgen ommen
ĠHer r
wi ck
ĠU p
sb urg
Te lefon
ĠG rÃ¶ÃŁe
ĠDatenschut zeinstellungen
tu a
Ġst ets
misch e
Ġge geben
lo n
Ġ5 00
t ekt
e ct
halt u
be wa
haltu n
zeich nung
haltun g
Li ebe
Ġt his
ra h
k us
ĠPoli zei
rz l
wa sser
Ġn ot
Ġrea l
ĠRe gen
rm Ã¶gen
ĠErg ebnis
U T
geh end
Ġso rgt
fÃ¼ gen
ĠAd resse
stu hl
ch lÃ¼sse
pa g
ĠAnsp ruch
ĠBe ginn
ĠComp uter
ra tionen
ĠÃľb ertragung
E G
tzli ch
Ġ insta
da ktion
Ġtech nisch
inge r
Ġ0 2
ĠFa rben
Ġkom me
phÃ¤ re
A rchiv
Mei n
Ġt hat
t fe
Ġ einigen
ge rÃ¤te
ĠUn ion
n gl
ĠGrÃ¼ nden
Ġ Sem
f ragen
VerÃ¶ffen tlicht
mat erial
m tliche
ki s
erf lÃ¤che
ĠWinte r
Ġred u
lls t
linie n
ĠWi ede
Ġ Sk
ĠB ildung
hne r
Ġpra ktisch
ndi s
ĠKa rte
Ġk g
Ġbes ch
tione l
re et
U M
e rli
rate r
ĠLÃ¶s u
ĠâĢ Ķ
ĠLÃ¶su n
ĠG ordon
d ru
Ġab o
ĠG et
ta usch
ĠW est
ĠWuns ch
tionel l
ko nze
nische r
Ġrecht l
ĠSte i
Ġges ehen
ĠLÃ¶sun g
ĠFrank furt
Ġstandard mÃ¤ÃŁig
Rei s
Ġentsch eiden
chte nnis
Ġgeschni egelt
Ġmi ttl
ga t
fa cebook
ĠKa ffe
F oto
ĠnÃ ¤
N eu
ue rha
utt gart
u ern
ĠE rl
t iere
r eb
ĠP resse
erste llung
Ġ0 5
ĠPatiente n
J u
Ġge lte
gel e
ĠDienstle istungen
Ġf ra
Ġh Ã¶h
erg a
Ġfa hrenden
ĠLi ve
ĠU s
Ġfrei e
n trÃ¤
O nline
Vo r
Ġtre ffen
iona l
ĠWÃ ¼nsche
Wa rum
ĠQ u
ĠBa rrow
ĠM ob
ĠVol ks
Ġerre icht
n lage
l im
n sts
ĠWi rkung
p tion
Ġinteressant e
rke r
ĠK ur
¤ cht
Ġus w
Ġver pflicht
= =
, _
eg u
Ġge scha
Ġauf zu
Ġrechtl i
halt s
ĠInd ustrie
Ġrechtli ch
ree n
orte n
ck l
Ġ http
Ġ sÃ¤
ĠKo nta
Eigen tÃ¼mer
mun g
Ġ sy
Ġauf springen
ĠSchla f
n melden
a nmelden
Ġ0 3
Ġge nie
ĠRu nd
ĠÃ¤ h
Ġ4 5
O P
b rechen
Ġvor ges
rstelle n
Ġeinz ig
sische n
Ġgewo rden
ĠIdee n
i stungs
ĠAr zt
la st
Ad minist
ĠGÃ¤ ste
ĠWa l
Ġgesta lten
mas chine
6 9
Ġintere ss
A C
i ngt
ĠDritta nbieter
ĠRe a
ĠBe handlung
S and
rsch ungs
Ġdazuge hÃ¶ren
sam keit
Ġ angen
erh e
nke d
rge h
odc ast
ĠIm mer
ĠWirtschaft s
kra ine
da cht
Ġnach dem
sta l
ĠTi e
Ges ch
Ġt ragen
Ġandere r
ĠV oll
ĠF lo
xe l
ĠBÃ¼ ro
Ġn immt
ĠRe ge
sto ffe
wi n
ĠFis ch
Ġ alte
p rung
am me
ĠGe o
ĠR uss
ĠK ri
nl e
ndle r
ĠMo ment
ĠEinf luss
be werb
ĠerklÃ¤ ren
Ġvergangen e
i sk
ĠVo rauss
ĠSchÃ ¼ler
chiede n
ĠE rfÃ¼
rei tung
ĠVerb rauch
we chsel
Ġver me
ĠBa yern
Ġberecht igt
ne nde
d ienen
mer zen
Ġbe finden
ĠAuto r
âĢ ĭ
roll e
ĠMeta l
lo ud
ĠA lter
zentral e
Ġwa hr
nsti tut
fÃ¤ll e
Ho me
Ġ dienen
ĠKlei n
r r
rzl i
Speich ert
ĠVer sion
ĠGes amt
ĠgrÃ¶ ÃŁ
ĠDate i
Ġrecht s
ĠO st
ĠC om
rkÃ ¤
ĠMi chael
ĠH ig
ĠhÃ ¤lt
ĠA lterna
Ġwes e
egu n
ĠE rd
wede r
ĠGe n
i nschlie
ur m
e inschlie
rzli ch
Ġ anmelden
egun g
A B
ĠVe rg
ir m
ĠNetz werk
Ġver gessen
ĠT ou
ge ld
ĠP fa
ĠSÃ ¤
ta n
A D
Ġ senden
Ġk na
erte id
em pla
ĠSta tistiken
Ġkompl ett
ig keits
hal l
P lattformen
nze ige
S ki
ĠWel l
spro ch
ĠJo ha
l ine
Ġda t
ĠÃ¼ber prÃ¼
usi k
f lÃ¼
Ġwese n
ĠAuf gaben
ĠZ ubehÃ¶r
ngst e
ĠUns e
y na
ĠJu n
Ġnah e
ĠIde n
Ã¶ rse
ĠNi eder
ema t
. "
wi nd
Ġso rgen
ĠApp l
n iger
O M
stÃ¤ nden
ĠRei ch
rechtlich e
ĠLei p
oo r
ĠVide op
* :
ĠfrÃ¼h e
ranz Ã¶
ĠM od
ĠUnse r
B Ã
e rÃ¶
rhe i
ĠText e
o ne
Ġbe sse
ĠZusammen arbeit
ta r
ĠFri ed
rh eber
5 7
t ext
ĠIns e
ĠSpeich ern
ĠIden t
s ervice
C hr
ĠPerso nal
ĠHa l
du ngen
Ġh isto
o ts
ĠKl inik
Ġwi rtschaft
n halt
S C
I nnen
pisch e
ĠK urz
Ġerfa ssen
f ol
Ġsi nn
Ġend l
a nsehen
T witter
rl d
ĠHerb st
ndern falls
Ġ200 4
ku nde
zie ht
reundlich e
ges ellschaft
ĠAus kunft
p olitik
ĠRicht u
ĠRichtu n
ĠBetrieb s
ĠRichtun g
ert ig
la u
8 8
Ġve rdi
orma nce
ĠBa um
ĠFrei tag
Ġidentifizi eren
d ra
etzte n
ĠLei t
r land
teil u
Ã ¤hlen
teilu n
ĠFrei h
chle chts
i ntrÃ¤
T P
Ġzahl reiche
s ucht
teilun g
¼ rt
ĠOd e
ĠSp ann
ist et
gleiche n
g y
ĠF ran
chse n
ĠVersand kosten
na me
nta ge
## ##
Ġg gf
M eta
S ort
¤de n
Ġ res
ĠE h
i P
Ġricht ige
e cht
v Ã¶lke
c u
Ġpass iert
ebe l
e rweit
ÃŁe r
ĠP eter
a chten
sÃ¤t ze
ĠWo rd
Ġ Sha
ĠGrÃ¼ ÃŁe
wÃ¶ rter
Ġ ansehen
e ro
ĠUm gang
5 1
as h
Ġneue r
ĠE rst
t um
Web site
Ġpro fessionell
ĠMe rk
o ws
ĠMÃ¤ nner
s ches
ĠPe r
rhÃ¤lt nis
ĠDritta nbietern
ĠPass wort
nit ia
Ġf and
ĠRu h
ĠAuf gabe
kal i
ĠVe rÃ¤
g n
ĠThe ra
we l
N i
erf Ã
ir us
D eine
ĠFa rb
Ġbe g
rks hop
ro ffen
sste l
Ġselbe r
ĠAnze ige
Ġerh Ã¶
ĠDeutsch mark
Ġspa nne
ze s
r wÃ¤
n tfe
Ġvers enden
ĠRe stau
ĠW ill
ĠD ach
rbei tungs
Ã Ĺ
mai n
eh Ã¶rde
out ube
ĠK am
tern eh
ĠVer sich
6 7
rvi ew
si erung
ĠWa hr
Ġscha ffen
ert a
ih e
rang ig
s um
il ch
e nta
ĠHin weise
cke l
H R
auf t
Ġge plant
cht u
ĠZent rum
ĠZ oll
his ch
o nente
ĠLÃ¤ nder
S M
fa lt
Ġendl i
e ntfe
Ġendli ch
Ġ erla
stl i
ĠZeich e
Ã ¤n
intrÃ¤ cht
verl Ã¤ss
p pi
5 4
ĠFa rbe
vide nz
ĠGe danken
ĠP riva
eh lt
ru nde
ĠLei stungs
ĠFre unde
re as
Ġman uellen
E M
ĠAugen merk
sstel l
sie n
D es
zu gs
ĠSch aden
Ġbe h
meld et
ĠBo rlabs
einschlie ÃŁlich
Ġsoziale n
Kommenta r
i tet
wand t
Ġt reiben
neh m
Ġ Sig
Ġhier zu
Speich ern
ka rten
e rmi
Ġdeaktiv ieren
ĠBÃ ¼cher
¤ hrung
obe i
ĠGe richt
h ls
a nbi
ĠThe a
ttl i
pfl ege
ĠMa nagement
e rest
ĠGa l
omm u
ssische n
t est
ĠFe nster
Ġze hn
Ġpo rno
ĠM eter
O T
ff nungs
ĠC la
Ġda uerha
ĠTe lefon
Ġ anbi
chr o
D U
I V
Ġbra uchen
ed es
Ġ0 4
s elten
va Script
mm t
mini ste
ĠJugend l
ka n
edig l
edigl i
Ġ4 9
edigli ch
Ġ schl
izi ert
ĠT empe
ĠZa hl
erl e
ilde n
ch ne
etisch e
l k
ĠProdu ktion
20 23
ĠTe rmin
Ġwelt weit
ĠGes etz
ziel e
ĠF ehler
ĠBe wertungen
sstell e
ĠgroÃŁe r
las ch
Ġbesondere n
stli ch
d iv
ĠStudie n
ĠBereits tellung
e lt
20 15
ĠAl so
ĠFo ren
ĠnÃ ¤h
Â ²
nne s
chtu n
- )
ndis ch
ĠMa rken
H Ã
ĠW and
Vers and
Ġverpflicht et
rigi nal
chtun g
to ff
pro file
t erest
ĠEnts t
g as
e iben
We lche
K T
ĠE videnz
ral e
ritisch e
ĠA lb
Ġerh oben
ĠGrÃ¼ nde
ha rma
ete nz
ĠMa x
ĠDo wnload
ffen tlich
ĠR et
ci e
vertra g
ĠHeraus forde
omi e
¼ hrung
u nternehmen
ĠLo g
ba nd
e chnik
u nk
Ġerg ibt
ĠM et
M eine
Ġ20 00
Ġge fÃ¤
Ġide a
Ġ selten
e chs
ĠGe sicht
ssenschaft l
Ġmi n
t era
ĠTan t
Ġma g
tt ern
Ġinformi ert
edÃ¼r f
ĠSa lz
ch wie
tt i
il la
Ġn Ã¶t
Ġ erweit
ĠTran s
staa t
nnen t
E l
ĠGra nd
ĠDa uer
d eines
ĠJugendl i
ĠNa tional
ĠGe rma
Ġricht igen
Ġ deines
hÃ¤ nge
reu u
ĠFina n
a nschlie
âĢľ )
reuu n
ĠÃ¤ uÃŁ
Ġl egen
gÃ ¤n
Ġges chÃ¼t
Ġvo rbei
ĠE uch
reuun g
Z i
5 3
ĠÃĸ l
ttli ch
ĠV orteile
fri ka
Ġge sagt
ze igen
ĠTho mas
d isk
Ã ¤hrung
¼ hren
rische r
MÃ ¤
uli ch
gruppe n
Ġ anschlie
Ġents perren
R icht
s ha
stra ÃŁe
r ry
Ġwichtig sten
verstÃ¤nd l
Ġf orde
Ġ entfe
ĠD S
Ġ eri
G rund
ffizie nz
ĠZu dem
Ma rkt
Ġ ?
Ġba ld
Ġlie fen
ĠKl ick
ist ers
ild et
ĠFl e
ĠVideop lattformen
so ft
ruf l
Bo rlabs
ra ucher
Ġ effe
ĠgrÃ¶ÃŁte n
ĠMa g
ĠVeran staltung
w och
â Ĩ
Sta tistik
rkauf t
Ġj Ã
20 14
6 4
N icht
ve ra
ĠH ersteller
iva l
pa n
ste uer
rech nung
ĠE ri
P e
us o
ĠDienst es
rsche i
ĠAdminist rator
ĠI N
ĠStÃ¤ dte
bl ick
u gen
Ġveran twortlich
ndi n
Ġ une
K Ã
ĠBe wertung
ĠM utter
ĠHan s
Ġperfe kt
Ġzu g
su n
indlich e
lan t
Ġgen ug
ĠF irmen
Ġ SA
ĠbÃ¼ ndeln
leh nen
ĠSo nntag
ĠÃľbe rb
ss tÃ¼ck
ĠG rÃ¶
wissenschaftl i
ĠN u
ĠSt uttgart
5 2
a hl
wissenschaftli ch
ĠschÃ¶ ne
cht est
tt woch
ĠRea l
ka dem
I ON
nn ern
20 0
E r
oste nfrei
ĠJugendli ch
ĠVo rg
end u
ĠMÃ¤ d
ĠPlatt form
ĠFre ude
ĠTant e
wend ungen
ĠBea rbeitung
ha rd
ĠBe n
ste ige
ĠVol k
rte il
Ġbegi nnt
Ġwirtschaft l
ĠB aby
Ġbe stellen
Ġfa l
Ġihre s
ĠKe nntnis
Ġda rin
ĠStelle n
ĠJugendlich e
Ġinsta l
ĠGe l
ra ucht
lt i
zen e
Ġbest ehen
bo rlabs
ĠBÃ¼r ge
S uchen
ss l
ĠWÃ¤ rme
ĠGe ige
ĠI talie
Ġzu vor
ĠBet roffene
spa nnen
ĠK ilo
An melden
ĠFreih e
Ġ dÃ
i nst
e ure
Ġo r
y o
P la
rba r
Ġinstal l
Ġro t
ĠBe so
ab o
hn u
ĠPro jekte
s chwie
Ġsoda ss
s echs
Ġre levant
Ġges chrieben
erwe ile
Ġbes chÃ¤ft
ĠProdu kten
Ġ( âĢŀ
ve nz
Ġ erb
ĠSch ni
zei ts
S chrift
e ute
Sta rtseite
Ġgesamte n
Ã¤t zlich
ĠauÃŁe rdem
kte r
I A
rre kt
ĠFÃ ¤h
ĠErfÃ¼ llung
ĠTis ch
endu n
Ġ erk
sa tions
utsche i
endun g
Ġge wesen
ĠZÃ ¼
ĠEink auf
Te am
Ġq ual
Ġve ru
ri tt
Ma t
8 9
ph e
ĠModell e
Ġoptim ieren
ĠKa rten
rd nungs
ĠSchwa rz
ĠÃĦ nderung
Ġabo nnieren
nb urg
ĠZeiche n
Ġander es
L and
ĠWohn u
Ġwirtschaftl i
lig a
Ġda nk
Ġwirtschaftli ch
Ġsu per
ĠWohnu n
ĠnÃ¤ mlich
hnu n
nners tag
n tensi
e fini
Ġgrund sÃ¤tzlich
ĠWohnun g
Pa l
ĠHer ren
d efini
ha ts
ĠWe rden
ĠMa rke
si a
ĠVi meo
T M
ĠBeruf s
Ġzusammen schlieÃŁen
Ġbe wachen
ta s
ĠBe zug
ĠPf lanzen
n igung
B l
Ġ @
ĠStand ort
bÃ ¼
ĠDa rstellung
Ġanony m
Ze i
erwe gs
No vember
Ġbe ide
ĠmÃ¶glich st
we hr
Ġzusammen tun
ĠAl ex
Ġspie lt
Ġ erÃ¶
ĠÃ¤ lte
rÃ¤ um
ĠEin h
Ġ Sub
e rwÃ¤
hnun g
sol venz
Ġ $
V a
ĠVer pflicht
ĠE rke
Ġfal l
hÃ¤ user
Z us
s chlag
Ġbe zeichnet
xe n
Ġt olle
Ġnotwend ige
ĠRegist rierung
Ġ sechs
n terest
sÃ¤ chlich
i ntensi
Ġsolche n
kÃ ¼
Ġli eber
ch uss
ĠVert rete
ĠP C
Ġmehre ren
Ġentfe rnen
sproch e
Ġzusammen spannen
ĠW il
Ġla d
ĠLite ratur
wissenschaftlich e
S ache
ni k
ssch e
ĠMa r
angeb ot
ĠAus gabe
Ġir gende
S et
e ilen
ssenschaftl i
ĠSpiele r
ssenschaftli ch
Ġindivid uelle
a rch
ĠOde r
Ġrechtlich e
k rÃ¤fte
ere nde
rt o
p ha
ĠAuf sicht
G E
q uen
Administ ration
ĠLÃ¤ ndern
Ġv erste
Ġ schwie
ah rt
so rt
ĠA nforderungen
hl i
pe ri
ss chutz
edi e
ĠFreihe i
reche r
rliche n
ĠauÃŁe rhalb
lasch e
ilÃ¤ ufig
g la
Re cht
Ġ 000
Ġ Sim
Ġf olgen
ĠHin weis
im mel
t echnik
ĠTe lefo
usche n
Ġme lden
ibliothe k
e hre
ĠVo rbe
Ġteil weise
ĠSa ison
Ġ Sache
ĠVer mi
Ġ mens
ĠB usiness
b eg
Ġunterschiedliche n
ĠL es
ĠA rm
ĠWei n
st h
ĠUm gebung
Funktion a
ĠA ktion
ku rs
ĠSam stag
Ġvergangene n
Ġf Ã¶rde
sproche n
jÃ¤hr ige
ĠUrs prung
Funktiona l
Ġidea l
ĠVa t
ta tion
we gen
ĠPro fil
ĠBi s
Ġ Sand
J o
p erso
ĠFreihei t
ĠMedi zin
ĠSmart p
port a
âĢľ -
Ġp rÃ¼
ĠO l
ĠBe hÃ¶
7 6
ca tion
undh e
Sch lag
t weder
Ġvo rher
zel l
Ġo ffene
Ġga rant
ĠG ut
Ġ ansp
re ig
ĠAl ltag
ure l
rit ik
Ġl ediglich
Te ilen
ro p
n stellung
Ġges chlechts
gi k
mitte ln
Ġneben sÃ¤chlich
Ġbes chrieben
verstÃ¤ndl i
gÃ ¤
verstÃ¤ndli ch
Ġver z
wick lung
H aus
ĠUm fang
undhe i
Ġf ehl
i x
ĠVertrete rin
ĠHu nd
ĠPfl icht
i nste
Diese r
Ġaktiv iert
ab i
qua re
Ġbe ilÃ¤ufig
r ger
ĠMa rtin
ĠB ranche
gÃ ¤nge
g ro
ĠDa men
ĠA gen
Ġ3 6
ion s
si erte
Ġge wa
wo hner
Ġt Ã¤t
Ġ ST
ĠSta rtseite
rat oren
Ġnach rangig
ĠA rten
t ig
e ger
hall e
l ligen
i mer
Ġsp rechen
Deutsch land
Ġentwicke ln
m os
ĠPrÃ¤ s
ĠI D
I R
u chte
kadem i
Ġzu erst
c ce
mate n
em l
nnent e
p BB
Ġbenut zen
Ġmir GefÃ¤llt
ĠU kraine
Ġ defini
ĠF eue
Ġdurch gefÃ¼hrt
d re
ĠÃ¼b rigen
remd e
Ġgena nnt
abl e
ĠMe l
Ġ ch
ĠFreu nd
S U
gbar keit
Ġge Ã¶
ss ungs
ĠE m
ĠKi nde
ras ch
s eines
mi ndest
chÃ ¼
ĠlÃ¤nge r
ĠAus land
fra gt
ĠSa a
nnente n
ĠH ol
t erha
e nkt
IN G
Ġ seines
ĠA rbeiten
ĠE be
g em
Ġl etzt
ĠK ra
Ġwe d
gs t
ĠSi ch
gra d
ĠA ngst
la us
D r
Ġentst ehen
K u
P resse
n tweder
e ntweder
recht s
ĠSa tz
ffizie n
OL L
walt ungs
ĠBa ck
wi cht
Ġ Ð
ĠW L
ver sion
ĠFa n
ĠÃľberb lick
e ur
mÃ ¤
ĠMi cro
cha l
ĠÃ¼bermitte lt
s ub
s eh
nge s
ĠSpe zial
T V
ĠWeib sstÃ¼ck
ĠA ust
Un ternehmen
Ġeinzig art
ht ml
reich end
ĠSchwe rpunkt
S B
legen h
ebli ch
ĠImmobilie n
ĠRegion a
Ġ 00
ld orf
ĠEin stellung
ĠP rem
am mlung
rufl i
ĠschÃ¼t zen
Ġbek ommt
rufli ch
Ġt y
nge nd
Ġbe grÃ¼
ĠHa lb
K unden
rÃ¤ ft
t embe
ĠMoto r
Ġdurch zufÃ¼hren
ight s
ĠMi et
Ġeh ema
ĠJ ournal
and emie
s chnitt
ĠWeib s
ĠUnters uch
ĠEinschrÃ¤ nkung
co i
va l
ra st
ĠWeibs e
ĠWeibse n
ann o
Ġsta nd
a nk
ka t
ĠWi rd
ĠB edÃ¼rf
l ichkeit
ĠA ktie
Me nÃ¼
ĠP rivat
Produ kt
ĠVeran twortung
W E
Ġ entweder
ĠB lock
ike ln
Ġgel esen
ĠA nn
os ts
ĠP ersÃ¶nlich
t erwegs
imi erung
rÃ¤ ume
ĠOrganisa tion
ĠDes halb
wa y
ma ck
ĠKla sse
zen z
Ġ einschlieÃŁlich
n terwegs
u nterwegs
ĠB edingungen
Ġbee intrÃ¤cht
Ġfa hren
ry pto
Ġpa sst
n glisch
{ {
p ft
ĠtÃ¤ glich
ĠKom b
ĠLeip zig
Ġda nach
tionell e
ke nn
kt oren
ĠLehr stuhl
p rech
Ġvo rli
ĠG Ã¶
ĠFa lls
ĠBe ste
G eb
w obei
rau n
mach erei
Ġ3 00
ĠÃ¼bern ehmen
Ġgena uso
ot i
rÃ¼ hrt
e nglisch
pp ch
rt h
ĠnÃ¤ch ste
ĠBe darf
N Ã
d enk
mo nat
rb o
sh e
ĠWi rk
ach st
Ġg ra
r fen
i nformationen
Ġ3 8
nnt nisse
Ġtechnische n
Ġfa lls
ĠJo hn
zi fische
emi s
cht et
a ndernfalls
ĠKa i
Ġwed e
ĠlÃ¤ uft
oli s
Ġessen zielle
la ufen
ab a
ĠIn solvenz
legenh e
legenhe i
legenhei t
F Ã
ppch e
ĠGo ttes
Co n
ĠGe walt
In tern
Ġbea n
Ġ unterwegs
U ni
zun ehmen
ĠSen sations
ĠVe rfa
Ġbege ist
rd s
Ġ200 3
ĠDa h
ere nden
ri erte
ĠFo rschungs
ĠgewÃ¼ns cht
ĠNi ed
Ġaus fÃ¼
ĠStra ÃŁen
S O
ppche n
Ã¼r ge
Ġ ziehen
ĠL ern
u na
Ġangeb oten
os a
Li efe
ha ber
Ġwede r
nk ungen
lu e
ĠvollstÃ¤nd ig
ĠHal l
ĠBe griff
ord nung
Ġ schla
o g
ĠFo rschung
ta t
erfÃ ¼
= "
Ġb u
Nut zungs
W iderruf
ĠÃ¤hnliche n
ĠWe lche
ĠgewÃ¤hrle isten
ĠFuÃŁ ball
coi n
e nsta
âĢĶ âĢĶ
jÃ¤hr igen
rmi ttlung
nba nk
b rid
dat um
ĠDire kt
rÃ¤ ger
na ts
Ġab geschlossen
rna me
ĠDri tter
Ġ4 8
ĠM y
oli e
rill e
Ġ iP
ĠP lugin
Ġ andernfalls
ili tÃ¤
ĠUnter richt
ĠB M
ĠJa vaScript
ĠAll gemein
ĠExp erten
ĠI nfo
ffi ce
ra nge
ĠSensations macherei
r da
Ġwe chse
k am
op h
Bei trÃ¤ge
rie g
ĠMa il
ĠG ehe
ebt e
Ġha nd
kl e
O pen
¼ llt
N otwend
best immungen
ssa ge
urel l
K e
ba nk
ĠK oope
u sse
Ġschle cht
ĠOp tion
ga rten
Ġmanch e
Ġlad e
' '
ĠUm stÃ¤nden
fÃ¤ nger
p lÃ¤tze
ini ngs
Ġzu mindest
sti eg
ĠTe ile
ris mus
Ġb o
C ha
Ġ sucht
a merika
ntra l
Ġkontakt ieren
Ġve reinba
ea t
no w
ĠFahr rad
ĠNutze re
runt erla
Ġv ern
gram me
Ġ Schrift
eml i
hÃ¤ng igkeit
i eben
Ã¶ st
sin g
g ress
achs e
Ġo rgani
ra tions
ĠkÃ¶ nnt
t eilen
ĠTran sport
erf ormance
ni eren
Ã¼re n
Ġers chi
sp art
gi ert
ma r
ĠU rheber
ĠGebÃ¤ ude
ĠLÃ¶s ungen
ĠSach s
K om
sste n
weite n
ere nd
¼lle r
Ġ div
P h
Vide o
ĠWord Press
ĠK enn
W S
ĠfÃ¤ llt
eh m
In t
op pel
ille n
ĠMi kro
Ġ schrift
Ko n
ri ebe
P ort
ĠEl e
ĠReise n
7 2
Ġhi nge
Ġaus geb
ersch e
ĠKon trolle
ĠAbo nnenten
ĠVer Ã¶ffen
ĠÃ¼ber wie
emli ch
ĠPro zess
Ġbet rÃ¤gt
Akt uelle
stÃ¤ nde
erf Ã¼r
ĠsÃ ¼
T ER
ĠLa ger
Ġzu fri
Ġwei s
Ġ wobei
ha fen
K E
eh Ã¶
WÃ ¤
ote ls
ĠMa cht
ffizien t
Ve rb
ĠKÃ¼ nstle
ĠSp rach
P ost
ĠEnd gerÃ¤t
ĠSi nn
Schl ieÃŁen
ĠUn terneh
ĠVe rkÃ¤
Ġ3 2
runterla d
** **
Ġ intensi
ĠLÃ ¼
Ġberecht igten
risch es
H E
o k
ĠM eine
¼lle n
ea n
ĠEinh e
t gegen
Ġ disk
Ma n
ĠI nne
ĠSp am
ĠZah lung
ĠChi na
q ualitÃ¤t
Ġ erwÃ¤
chse ne
ĠP u
ĠAus b
nde rte
e rin
sta t
ral i
ĠSchÃ ¤den
ĠDah e
6 1
Neue ste
a pp
Ġwi ssenschaftlich
ĠImp f
wert et
ĠDahe r
ĠVe ra
ĠB ildungs
Ġge fÃ¼
tse l
A U
ĠDe i
Ġanbi eten
ĠWe ge
prÃ¼ n
erb a
ruppe n
schu h
hrlich e
Ġ egal
a ne
w urf
runterlad e
ĠNach halt
Ġumfa sse
b urger
A uss
kÃ ¼nft
ĠAl les
runterlade n
ndisch e
ĠE rlebnis
ĠVo rlieben
Ġkostenl ose
fo rschung
ĠJ Ã
aa aa
7 4
ĠW ild
ĠK reuz
ĠAus wirkungen
ĠO pe
ĠGesch enk
ĠBro ws
ĠZiel e
i nden
m odell
ĠCon t
ĠAn schluss
Ġauto mat
Sta nd
9 8
t ness
ĠR es
vÃ¶lke rung
zi s
i nve
ĠE nergi
rgan g
m men
l iefe
man t
ĠInforma tions
hisch e
Ġange gebenen
n tgegen
ĠRuh e
ĠKa t
Ġ !
Ġerfol gen
e ntgegen
o f
utschei n
Ġst ra
A ber
ĠF C
ce l
ĠR ed
Th emen
ĠRegiona l
Ġgleiche n
ĠAktiv itÃ¤ten
st immt
ri tÃ¤t
De zember
Ġdigitale n
Ġge Ã
ĠAb satz
ĠRecht san
wei ch
ĠMÃ¤d ch
ĠDurch fÃ¼hrung
ĠAuf trags
7 1
Ġentd ecken
Wi rtschaft
ĠIn teg
reit et
olis ch
ĠMei n
ssche n
res d
f re
Ġt ran
n geben
nsta g
ĠmÃ¶ chtest
Ġschrift l
ĠR Ã¶
x x
ft ungs
N E
frei h
ĠI ndi
Ġre icht
ĠP Ã
ĠKi n
ĠPrÃ¼ fung
K eine
Ġve rei
ĠKal ender
n scha
ĠKraft stoff
Ġ200 2
si nn
Ġvers uchen
rem s
Ġ entgegen
Ġwen igen
ĠBe im
ĠPrÃ¤ ferenzen
ĠD rei
ĠGefÃ¼ hl
ĠK ampf
Ġpro fi
nta l
ĠGe legenheit
ĠwÃ¼nsche n
w p
Ġsollte st
ĠDri tt
ĠSch uld
icht u
ĠBe reichen
Ġm ob
la ub
con t
nked In
ĠMo rgen
H and
i tion
tra ÃŁe
ĠRad io
Z ah
ĠMi ss
Ġprofessionell e
ch lÃ¤
ĠHa ndels
ĠF olgen
ĠgeÃ¶ ffnet
ĠgeÃ ¤
i nstellung
P S
kt ik
ĠFe lder
ze sse
ĠPh iloso
ĠStra f
ig em
r eter
ĠHa ftung
ĠA spe
ls tÃ¤nd
Ġerste r
¤ dago
ĠUm setzung
Ġzi emlich
rÃ¼ ckt
O ktober
ĠF lu
ĠWidersp ruch
Ġ/ /
ĠAu ÃŁen
Ġh Ã¶he
ĠZ immer
Ġvorbe halten
Ġbe raten
ichtu n
eben s
S lo
ĠDeutschland s
G ro
ff ff
ĠSch m
ost et
ĠSch lag
ĠT radi
ĠE rschei
ĠEmp feh
ĠLa n
S hi
rsch Ã¶
sta gs
ichtun g
Ġ Ski
Ġverl oren
Ġ raus
Ġsam meln
st ro
Ġgenie ÃŁen
pei s
qu i
Ġvert reten
Ġver lassen
ĠBest immungen
Ġz wi
e lm
Ġfe i
ĠSo Se
ba uen
i nder
etze s
j o
punkt e
ĠMÃ¤dch e
ĠverfÃ¼ gt
ĠerhÃ¤lt l
Ġmanch mal
ĠSchl i
Ġste ige
sp lay
ĠðŁ ĺ
Be nut
da m
e inste
ĠE va
tliche r
Reg ist
ĠRuss land
mer z
Part ner
Ġanony men
e ÃŁ
ĠCa nal
lÃ¶s u
Ġweis e
lÃ¶su n
Ġz zgl
mer ce
ĠerhÃ¤ltl i
t erli
lÃ¶sun g
ĠerhÃ¤ltli ch
e ss
ach i
y d
ĠE rde
P erso
ĠTeil nahme
ca n
Ġbetreffe nden
ĠThera pie
zu b
ĠMaterial i
Ġda rum
ĠMa nager
fÃ¤h igkeit
ru g
e lekt
Fa kultÃ¤t
ro id
ĠGe wÃ¤
wandt e
ĠK ern
abel l
D ER
Ġanzu zeigen
Ġge grÃ¼
ĠVors tand
ret u
A ugust
t rem
Unt e
ĠFrei zeit
ĠFo rmat
Ġmed izi
ĠRe n
lo r
ĠWÃ¤ hrend
ĠIntern ational
Ġbe wusst
Se ptember
b ili
ĠMateriali e
ĠâĢ ļ
ĠK rankheit
Ġda mals
ĠauÃŁe r
ĠMaterialie n
vi sion
porta l
gleit e
tra um
n get
we nde
ĠTra um
u i
ri na
emat i
re gierung
Ġvor ge
io ren
Ġsonst ige
¼sse ldorf
ĠTi ere
e istung
ĠCon s
ĠAlt ers
Dies es
imm st
Ġausge stattet
re am
wend ungs
ĠSch loss
ĠAb st
Ġerl eben
Ġschriftl i
ĠSt Ã¶
ĠF rÃ¼
Ġschriftli ch
A rchi
Ġfall e
i nformation
ĠsÃ¤ mtliche
Ġph pBB
n terli
ĠLebens mittel
ĠSe rie
ĠKu nsts
ĠAuf e
20 13
ro ck
Ġlade n
ĠL Ã¶
r us
J uli
la ch
Ã¼b u
Ġt radi
ĠDa durch
Ã¼bu n
Ġindivid uell
u nterli
kla sse
oo m
ink l
Ã¼bun g
stÃ¤nd igen
ĠMetal l
ĠAb lauf
ob s
ĠSi t
r ren
t em
Ġ unterli
p ra
ĠMÃ¤dche n
ĠMo n
ĠTa l
gri ffe
ru d
nf rage
sp rach
Link s
g ungs
ĠHe im
ĠAn lage
gri ffen
O G
Ġzu kÃ¼nft
ĠWind ows
freih e
Ġ echt
Ma p
wo rk
ĠAufe n
ase n
R u
Sy stem
ĠB us
me th
ĠFrank reich
Ġo ffe
ĠBade n
ĠRech nung
ĠGe ist
ĠAufen t
uf enen
ĠDa nke
o ck
B este
freihe i
Ġre la
r richt
eh me
à ¸
Ġschlie ÃŁlich
ĠGra fi
ĠKaffe e
k lÃ¤
Ġeinzel ne
ĠVe rbesse
freihei t
Ġdurch aus
fe i
l icht
ers atz
S quare
emÃ¼ s
Ġgeb racht
ch uld
ĠT Ã
ĠEi nd
tse i
weit ergabe
ĠGeb rauch
Ġla ngs
ĠD ra
era rt
Ġsogen annte
n mittel
Ġbe rÃ¼cksicht
ommuni ty
lst e
ĠSachs e
ĠAuf zeichnungen
ĠW etter
r pe
A pril
nke r
ĠL ED
Ġges chi
Ġerg eben
ĠVat e
Pa ss
ĠAppl e
ĠC H
ert i
ĠD ro
¼lt ig
Ġfreiwill ige
ĠUhr zeit
ĠCa sino
amin g
ĠV erst
l iches
6 3
ĠIn fe
ĠHint ergrund
ha ndel
ĠRechts grundlage
ĠOb erflÃ¤che
Ġvo rn
ri b
ĠThea t
C opyright
ĠSchu h
Ġj Ã¤hr
ĠBra nd
Ġb eteil
Ġsp richt
ĠAn gabe
Date n
Na vigation
HÃ ¤
ĠMo ntag
mt e
d r
H och
ĠBek annt
urell e
cha u
ĠT od
ĠLu x
Ġ Square
Ġbe nutzt
Ġsi cht
v ersorgung
ĠE rb
ĠIn sta
Ġnach folge
Ġerforderlich e
ĠSee l
maÃŁ nahmen
C om
a rten
ĠFolge nden
Ġab brechen
Ġ urs
Ġfu nc
u nmittel
Ġ att
ĠChrist ian
Ġ einste
Ġfalle n
zeich nis
Ġhinzu fÃ¼gen
rl Ã
o rge
Ġhe rgestellt
ĠPrÃ¼ f
Ġwelche n
ran ke
ĠverfÃ¼ gen
ud o
Ġgewi nnen
Ġkl icke
O K
T re
e v
ver waltung
Ġve rfa
form s
N r
ch st
Ġ15 0
t coin
D I
Ġ Sort
Ġschwa rz
h elm
e vent
ĠDa rÃ¼ber
Ġj u
Ġha lt
OLL OLL
i lte
R W
ĠM useum
ch war
ĠD eta
uden t
ratis ch
rea tiv
l et
ĠFle i
emÃ ¤
ĠhÃ¶ ren
ru cht
ri nger
C O
6 2
ehn t
hre nde
Ġ unmittel
ĠStei n
vol ution
Ġ3 9
ĠE rkrank
ĠAnf ragen
prÃ¤ s
ĠZus tand
ri erten
ba rer
7 3
to k
i me
5 00
bl em
ĠBe rn
fl icht
ri f
ĠRe geln
rei b
ĠSt unde
Ġverme iden
ch irm
ĠSachse n
s ki
Te ch
zi t
na d
ĠGewi cht
ĠAnt i
ne i
rati e
me sser
ĠGren zen
Ġwir kt
K la
Nutzungs bedingungen
l etzt
ĠK os
ege nden
mache n
ers pekt
nkte n
ĠB rief
s chwar
ete ilt
Ġzu st
ĠEntst ehen
ts chaft
Ġ zentrale
geb i
pa sst
ĠE ffe
F l
ĠTra ining
ĠTa t
S wi
ndlich e
Analyse n
Ġopt imale
ra e
ĠD E
Ġspa ren
Ġfol gt
mu nd
ĠTe rra
ologische n
ĠKa ta
wel l
iese n
Ġbe oba
date i
ex e
ĠDaten weitergabe
MÃ¤ rz
ĠInnova tion
zu m
ĠRa n
ĠgeschÃ¼t zt
t ial
St reet
ĠGehe im
chle cht
nba r
B uch
ĠRe lig
cheid et
uf a
m mer
reb s
ĠHoch schule
ĠErn Ã¤hrung
ffnungs zeiten
gische n
Ġ ermi
Ġumfa sst
Ġdat e
the i
rl iner
ĠVe rgangen
ĠJ ul
Ġschre ibt
zell e
G VO
Ġerh i
Ġunab hÃ¤ngig
Ġents tanden
Ġink lusive
ĠN E
mas chinen
rn t
ster rei
Ġge kommen
Ġgeb Ã
M odell
ĠKrie g
Ġpasse nden
e inst
ĠE t
da y
ĠBoard s
Ġdiv erse
Â ´
Ġzu lassen
vie w
Ġum fang
Ð °
Ġbi sschen
Ġkna pp
rt u
Ãľber sicht
ĠPa ul
Ġanaly sieren
Ġ ane
rÃ¤ d
pa ss
i nnova
ĠR est
Ġf ach
ĠRe publik
and i
Ġwen ige
ĠItalie n
e nste
Sta dt
Ġcon s
ï ¿
iko n
weis u
weisu n
ĠVer waltung
Ġnotwend igen
Ki nder
ĠCen t
weisun g
ĠP et
ĠBewe gung
nie l
ĠSchni tt
mi e
ĠRe gierung
pl e
Reis e
i tz
ule n
Ġmittl erweile
lbe n
ĠEri nne
J uni
Ġge gebene
Ko nto
lÃ¤ nder
b latt
na m
ĠGe fahr
ĠWa rum
ĠE reig
U p
n terha
ĠD IE
ĠerfÃ ¼llt
i ensta
Ġbest m
ĠSo nne
Ġ3 4
ĠPro t
Ġinternationale n
ĠH isto
lla tion
v ollen
bis ch
ĠBe weg
ĠGro up
ĠÃ¶ffen tlich
zeich nen
b us
k os
Ġviel fÃ¤lt
gli eder
Ġspeich ert
Ġabsol ut
ĠSe me
ibl e
ĠF lÃ¤che
ĠJ es
ĠK eine
ĠJa n
Ġst i
ĠVate r
ult ur
ĠÃ¶ ffnen
lim inar
u ÃŁen
ĠB eteil
Ġdeaktiv iert
tur es
ze d
s chne
ive s
Ġwi rk
cont e
Ġg lÃ¼ck
f lug
t erb
ĠBes chÃ¤ft
et reiber
Ġwicht igen
stalt ungs
ĠW Ã¶
chische n
ĠPrÃ¤ liminar
y pe
ĠKontakt formular
ĠRe chn
tekt ur
ĠLa nde
ĠVerb raucher
ĠHo f
p pt
gliche r
ĠP op
T A
cen t
Ã¶d e
Ġermi tte
sun g
ĠAus nahme
ĠGra b
conte n
n lagen
d iensta
conten t
F ra
Akt uelles
ĠK rise
P rÃ¤
fu nk
ĠðŁ Ļ
ĠAuf bewa
Ġabger ufenen
erg i
T ag
ĠSch wi
l gemeinen
lÃ ¼te
reinba rung
Ġ ;
l lgemeinen
a llgemeinen
ĠVi ta
K W
Ġwa hrscheinlich
ĠCa l
r ett
ĠNa tu
Ġbis lang
Ġzufri eden
ĠK ro
Ja nuar
Ġ SS
ĠSto ff
we rten
ĠSa n
G o
esten s
rne r
ĠZahlungs e
ĠP ress
ĠEinhe i
ĠMedi ka
ĠVert rieb
ĠT asche
Ġre ch
kademi e
ĠWoche nende
ron t
Ġ allgemeinen
ĠMarketing zwecken
Ġange fordert
rlÃ ¤
ĠSo u
S per
rit y
ss ers
S urf
Ġzu verlÃ¤ss
S ur
pro jekt
la nz
E mp
Ġvers ucht
we rbung
i tig
e p
n twicklung
lobal e
Ġwa nn
resd e
Ġregist rieren
ĠVa riante
ĠTra cking
Ġt oll
H A
? ?
Ġ7 5
ĠAuss tellung
i ce
erhe i
sp rache
S achen
Ġ acht
Do wnload
I nfo
Ġeigene r
Ġsta rten
Ġ arbeitet
ĠRÃ¼ cken
kali s
ni erung
ĠO s
Ġschnelle r
________ ________
l ink
u chten
ri ffe
ĠhÃ¤ tten
ĠVerkehr s
e no
Ġfo rm
Ġange messen
ĠRen t
sso ur
Ġfl ex
ch lu
hats App
ere l
hÃ¶ h
ob i
st ru
Ġso bald
ĠHu man
g ebe
ĠWeit erlesen
Ġ denk
Ġ denken
s uche
ttl e
achi n
ĠGa rantie
Ġ sub
eri nnen
O ut
h olz
Ġentsp richt
ï¿ ½
ĠK och
Ġentsch eide
oste r
ĠFÃ¶rde rung
ĠSP D
ĠBi e
ĠWeihna chten
Ġwirtschaftlich e
Ġurs prÃ¼n
produ kte
Ġ9 4
Ġ innova
ĠDei n
I st
wÃ¶ hnliche
pl y
Ġ ruh
Ġti ef
kalis ch
Ġve rkauft
Ġt reten
Ġl ebe
Pro jekt
ifizi erung
ĠÃ¼b l
Ġ1 20
ĠLe hre
Ġf ertig
ĠL am
S how
pro zess
ĠFe l
Hin weis
ĠÃľbe rmittlung
ĠDat um
Ġ9 9
chtl i
Ġeinste igen
ĠNu n
ob by
B ER
insta gram
ĠFe i
Ġprivate n
ra ts
ĠP harma
os ch
Ġ inve
8 5
ĠBe zi
Ġ Sachen
Ġregist riert
Ġverk aufen
tÃ¤t igung
ĠZei ts
ĠA ndere
Ti s
Ġerh eblich
r reich
ĠK G
ĠHe imat
ĠNutzer profile
ĠÃ¼be rl
d enke
Ġb la
ĠFeue rwe
¼n fte
lan gt
Ġte lefo
um ini
ĠEinhei t
fl ege
o gen
ĠUs e
rite rien
ĠHand y
ehÃ¶ rden
Ġ5 5
resde n
ĠBeschwe rde
ĠVerÃ¶ffen tlich
ĠSchÃ ¼l
da l
ĠRe daktion
Ġg uter
Ġli eben
20 12
kl eidung
ke rn
sta lten
ĠInse l
Ġhe rzlich
use n
lo gs
Ġpasse nde
u nterha
ĠFri eden
A nd
F Z
ĠAuss tattung
ĠStudi um
rÃ¤ umen
nitia tive
t zt
fl e
Ġges amme
Ġkleine r
Ġt rÃ¤gt
ĠDemo k
rech partner
ĠPh ysi
Ġelektro nisches
Ġweise n
n tera
achin g
ĠG rad
ĠSch alt
nÃ¤ ppchen
ĠDÃ ¤
G rÃ¼
um o
ĠWo hl
emati s
Ã ¼hrung
Ġ stud
las tung
y t
pi tal
ĠEis e
nto n
ĠAus Ã¼bung
kÃ ¤mp
io s
t euer
l eine
Ġ Surf
Ġzu letzt
ĠKontakt daten
je kten
ĠMa tt
Ġveru rs
ĠP il
ĠverÃ¶ffen tl
Ġirgende iner
F ebruar
Ġbe gren
ĠTÃ¤t igkeit
ĠWo rkshop
Ġ1 000
Ġ3 3
tte rie
olisch e
erel l
Ġst Ã¶
l einigen
l leinigen
a lleinigen
Ġ alleinigen
ional e
l ey
Street Map
ĠK ompl
s chlÃ¤
Ġzu gÃ¤n
ĠA nk
hi p
Ġnormal e
ve rordnung
St udi
zah lt
ĠDÃ ¼sseldorf
erte l
I ER
erhei t
ĠprÃ¼ fen
ha i
gra phie
kult ur
ĠD om
Ġ qua
ĠPlat forms
ch eiden
Ġab hÃ¤ngig
Ġle i
thei t
ĠBla ck
ĠG ed
ĠKe l
ka tionen
ĠMo dul
Ġwid ersp
ĠMe ss
, -
ĠPlan u
ĠWeit eren
ĠM ig
ĠPlanu n
L C
kal ender
ĠA nbieters
Ġsogen annten
ĠEn glisch
Fa hr
g id
u nda
um me
kÃ ¤
ĠBei trags
rast ruktur
Ġ eure
lÃ¤ nde
ĠBe recht
stlich e
ĠInve sti
Ġindivid uellen
Ġwissenschaftlich e
Ġerwa rtet
ĠTo ur
ĠL ust
ĠInte rview
ĠPlanun g
ro ch
ch wi
D igital
Ġ2 50
l esen
ĠP odcast
il fen
ĠA GB
Ġ schwar
ir es
ĠTe ch
ĠTe rmine
S R
emi tte
ĠSeel e
ĠhÃ¤ ngt
ĠRhei n
ĠE rz
ĠBe ziehung
rae l
ga ge
ĠGa nz
ĠverfÃ¼ g
¤l e
kis ch
ĠK ol
s werte
ematis ch
matisch e
Ġverl ieren
A CH
isi erten
ĠP DF
ĠO pen
ĠLi nie
ĠBo nus
e nga
ĠEin richtung
Ġhil f
AN D
rde r
nf igu
ĠZa hlen
e nstle
Ġ200 1
ord net
ĠMill ia
Ġerfa sst
ĠgÃ¼nst ig
ĠFe ed
fo rma
ĠKonta kta
e ile
hÃ¤ lt
Vo rlieben
tz Ã¼nd
Ġge nÃ¼
Ġeinf ache
hÃ¤ nger
ĠRe pa
ĠPol y
ĠVertra uen
ĠSo fern
Mit glied
Ġtri fft
ĠC lub
ĠN et
ĠPo sition
ĠTe e
pla tte
des ign
achse n
G H
ĠSo nde
I K
ĠFlei s
ĠBe ge
la ssung
ĠO riginal
hre s
ĠAm ts
emp o
ĠÃĸ ffentlich
y steme
erstelle n
stalt et
Ġj ungen
ĠPa ra
ĠMai n
ne y
Ġ schri
abell e
ĠInternet diensta
ĠAp othe
ĠIntern ationale
ĠÃ¼bl i
Ġf rom
ĠEigen schaften
F ach
ĠFunktional itÃ¤t
Ġk osten
Ġge ne
d erart
Te il
G Ã
ff u
nzl e
r ce
A ktiv
S H
ĠSo nst
ĠInternetdiensta nbieters
ĠVe rmÃ¶gen
Ġersch e
ĠÃ¼bli ch
Ġsp ort
ĠAuss t
nn ummer
ss ig
Ġersche i
to ren
ĠF ol
Ġfunktion ieren
Ġ derart
rant e
Ġbea rbeiten
ĠAbo nne
scha ltet
Ġge fallen
anno ver
ed l
Ġ( *
sb ehÃ¶rde
Ã¼r ger
ĠKa rl
e ffizient
C ode
ĠLand schaft
ĠForm ular
Ġauf genommen
ĠR ot
Ġk Ã¼r
ĠWeit e
Ġange geben
Ġern st
ĠSt il
l iste
Ġheut igen
ĠI l
ri st
i ntera
ĠMo u
ĠKommunikations netz
De n
Ġsa h
Al les
ĠDo main
Ġ Sc
ĠO nl
stische n
F olge
ĠSchwei zer
tsei n
rsche n
ĠKon s
ĠSo hn
ĠðŁĻ Ĥ
ĠWe rb
A nzeige
ĠA R
kon to
Ste l
Ġeinz ige
Ġ4 4
Ġspe zielle
ĠBe vÃ¶lkerung
Q uelle
Ġso rt
ĠH ilf
Ġeuro pÃ¤ischen
ure r
ri si
We lt
ad i
Ġda raus
g ner
ase r
Ġwelch em
ĠÃĦ r
Ġerschei n
Ġliefe rn
Ġ Sper
k Ã¶
umini um
I nf
ĠMerk male
eucht u
Ġum ge
st ern
ĠV ER
zi p
euchtu n
Ġf ragen
Ġakt ual
ud wig
gewi cht
lette n
s chirm
In halt
Ġcons e
Ġerschein t
euchtun g
z z
e cke
ni c
ĠAlle rdings
St i
Ġmi tte
cherh e
ĠTheat e
d f
isi o
ĠSmartp hone
cherhe i
nin g
ĠVerein s
ĠO rts
cl e
Ġma ÃŁ
cherhei t
Ġzahl reichen
H ilfe
ĠKa r
zeu gs
rie r
ĠPart ners
ĠW erte
ĠA ss
ĠNutze rs
prech end
ĠC ity
So ftware
ĠnÃ¶t ig
¼ hr
ĠDe ko
T ext
wu n
rgeh e
g rÃ¶ÃŁe
rfa hrung
ĠE vent
Ve ra
ch eck
ĠAnd reas
n ki
ĠprÃ¤sen tiert
ĠSch nÃ¤ppchen
m od
Ġsolche r
Ġ _
vi n
ffu n
ĠB ur
S chreib
ĠW icht
ĠnÃ¤h e
Ġ stÃ¤ndig
ĠÃ¼be rall
ffun g
ĠKon t
Ġb lo
S ehen
sich erheit
sb edingungen
Ġwi rst
tra gen
l eistung
rall e
Ġsta a
ĠÃ¼ber gehen
T est
ĠKomb ination
Ġbes ucht
ibl i
rÃ¼che n
ĠLan g
m s
pa zi
Ġ intera
r nd
ĠIn halten
Ġ user
eten t
ĠKa mera
ĠPrÃ¤ sident
w olle
Schre ibe
ers tand
l fte
ĠFo kus
ĠSt rategie
l lungen
Ġpraktisch e
ke s
Ġ achten
Ġentst eht
zie lt
o rie
ssi n
ĠAb hÃ¤ngigkeit
Ġni emand
Ġver mi
Ġents chieden
ĠfrÃ¼he r
B ook
ĠLÃ ¤nge
e rreich
Ġ event
g ema
g igen
ven tion
iat e
d ur
d eck
ĠR E
Ġbesit zen
Schlag wÃ¶rter
peis e
rbeite nde
rgehe n
mÃ ¼
ĠNÃ ¼
ĠSy m
ĠA L
ru cken
oo rd
Ġtra ur
ĠB rÃ¼
Ġmark iert
ĠJahrhunde rt
T S
c kten
U nters
nis mus
ĠjÃ¤hr l
I d
mi k
ĠKÃ ¼nd
Ġlo kale
ĠKoope ration
ĠVort eil
ĠFleis ch
Ġle isten
s ur
, "
Ð ¸
Chr ist
Ġbea ntra
geb aut
spie lt
hÃ¶h e
tembe rg
Ġrelevant e
Ġ use
ĠkÃ ¼nft
! âĢľ
vers ammlung
ĠWei ÃŁ
ĠC loud
Ġirgend wie
Y ouTube
Ġ unterha
Ġ denke
fi n
d ro
ĠZahlungse instellung
Ġwicht iger
Ġt ut
eta n
Ġbes chre
ĠDo nnerstag
pa l
ĠSeme ster
ĠjÃ¤hrl i
fa hrer
chtli ch
ĠjÃ¤hrli ch
We rbung
¼te r
Stel l
mi eren
Ġmo rgen
Ġne ga
fa ssung
ĠWeit erb
Ġob wohl
Ġperfe kte
ĠKomp etenz
ĠKai s
i enstle
ĠUm satz
ĠMÃ ¼ller
n verb
ĠTra inings
wa n
N etz
Ġex k
schrÃ¤ nkt
ĠDe nk
ĠMann schaft
ĠHa rd
steige nd
ĠGemein schaft
Ġve rd
ĠKonkurs fall
emÃ¼s e
ĠRege lungen
IN E
p ann
tÃ¼ cke
ĠkÃ¶ rpe
e inb
Ġka men
ĠN ummer
ĠNa tÃ¼rlich
ĠP re
ĠUm frage
h u
ĠSchule n
Ġanschlie ÃŁend
k ampf
Ã ¤cht
ĠnatÃ¼rliche n
eine r
ĠAus tausch
Ġsi eben
weit erlesen
gli sh
ĠGesch enke
ngeb ot
rat uren
fert igt
ĠVers tÃ¤nd
ĠRe akt
ĠMicro soft
ĠK asten
ri ta
!! !
iefe rt
Ġwunde rschÃ¶
ĠUnt erha
T L
Ġweit erlesen
Ġ Set
Ġge eig
ĠC A
Ġ elekt
ĠPay Pal
Ġopt imal
R Ã
no ra
nd em
ĠRo h
ĠBlu men
ngel i
ĠA N
ĠVorla dung
TM L
ĠAn trag
ne rg
fe lder
Richt linie
i ffe
b ieren
Ġbe quem
ra chten
Ġbeg ann
Ġbeha ndelt
ĠSa l
ĠKonze pt
Ġgel egen
ĠRob ert
einf lu
twort et
ĠStra nd
rea tive
uf nahme
Ġzu zu
chr ichten
Ġha lb
ĠIn stru
ĠG ru
pl i
ĠDatenschutz bestimmungen
eu ern
Ġge fÃ¼hrt
Ġsta rke
w h
gem Ã¤ÃŁ
mb ol
Ġweite res
ĠHall e
ol lar
Ġwa rten
rient ierung
hi t
ĠMe e
rni e
P A
Ġ if
Ġhe runterladen
Ġconse n
Int e
sta nz
Ã¶ rd
ĠGe staltung
we ge
kan t
ĠA merika
im as
ĠGe werbe
rtu n
Ġvolle r
All gemein
rea t
schuh e
u ra
pie n
Ġbe ruflich
l leine
c to
e rricht
Ġerwa rten
io logie
ĠHa ndel
a lleine
vo rg
e ink
ĠZus atz
Ġgla ub
utsch eine
": "
ial e
ĠÃ¼ber zeugt
ĠStaat e
ĠE rha
ĠP lus
ĠRo ad
ĠL eser
rtun g
Ġbe ziehen
ĠSt udent
Ġ4 00
8 6
hand lungen
ĠZei traum
M S
ĠForm ula
ym na
ĠGesch ichten
Ġmod ernen
DP R
ci n
nf ragen
++ +
t erla
mi ttlung
ĠMi ttwoch
ind ungen
Ġmein t
¤ re
ĠVa l
Sch a
F F
med ia
Ġdauerha ft
ch lagen
Fe ed
ĠTie r
ĠhÃ¶he r
ĠA ktionen
ĠKl i
8 7
Ã¶r per
Lo g
nell e
Ġm y
iste nz
trÃ¤ gen
Se hr
Da nke
ĠSe ssion
ille r
ĠglÃ¼ck l
ĠDa fÃ¼r
ĠSprache n
ĠW achst
n gle
", "
be auftra
ers eits
ch ul
ests t
Sta ndard
ĠT ab
tze s
imi s
Ġgem Ã
ĠglÃ¼ckl i
chni ttlich
Ġz Ã¤hlen
ĠWÃ ¼
Ġspe ziell
Ġgut es
ngeb ote
wi ssen
Ġ alleine
tal e
Ã¶he n
Ġ dur
Ġge laden
ĠglÃ¼ckli ch
ĠKa rto
ĠWo rld
Ġ ann
ĠA udio
n terb
rems e
Ġbesse re
ĠBetroffene n
ĠtÃ¤t ig
l eben
k as
Zei t
ĠerhÃ¶ ht
istische n
Ð ¾
mo nd
amilie n
ĠWett bewerb
ag n
Ġza hlen
Ġ effizient
wi rken
ĠM ulti
ĠverÃ¤ ndert
ines hop
i niger
s ig
Ġj uri
Ġ{ {
ĠTeam s
ĠErwa chsene
f ilm
ri tz
ĠRo ck
hnte n
ĠLe a
Ġla ufen
W est
-------- --------
ma chung
S cie
ĠSchlÃ¼sse l
onente n
Ġkur ze
ommen t
fal z
rt a
fÃ¤ hr
C K
ĠV erteid
ĠÃ¤ hnlich
ĠVorauss etzungen
rko nto
Ġhinweg gehen
ebl ings
Ġerl Ã
sit zer
ĠÃ¼berprÃ¼ fen
rgi e
mei nden
re l
we nden
Ġerl eicht
Kommenta re
ĠBe hi
ĠerlÃ ¤
Ġmod ern
ĠUse r
c am
( '
ct ive
ĠSt reit
t nehmen
Open StreetMap
zen sion
l osen
ĠHe ute
od o
Ã¶ ge
ĠÃľb ern
son sten
n tnehmen
e ntnehmen
ĠAuto ren
ĠLe iden
ersche i
unkt e
Produ kte
ĠMi s
Ġ entnehmen
ema il
ĠC B
ĠYo rk
ĠSchl e
.... ....
ini eren
ĠK rÃ¤
Ġ information
wind igkeit
Ã ¤re
Ġbe einflu
Ġverbunden e
Ġ Sur
Z ustimmung
ĠWe chsel
lÃ¶ tzlich
ĠFÃ¼ hrung
Ġda gegen
Ġ enga
Ġeindeut ige
Ġk ult
Ġ ank
ĠAbe n
ĠBe rliner
Be im
S zene
d ienstle
ĠjÃ ¼
bereich e
Ġmit einander
d oor
Ġbewe gen
Ġf remde
ministe rium
ĠTheate r
H L
nch e
d ia
be richt
Ġinteg riert
ĠVergangen h
ÃĦ hnliche
sil i
l ett
ĠTo chter
ch wei
ð Ŀ
9 7
fa d
nta i
ab att
K raft
Bei trags
ĠAuf bau
ĠEr zeugt
rein igung
Ġ erreich
bÃ ¤
ĠLand kreis
chÃ¤d e
Ġinve st
rei h
Ġv erte
Re chts
re me
staat e
io lo
eh nen
Ġ3 7
Ġneue sten
ĠGet rÃ¤
Ġges ellschaft
r eta
e istungen
u ma
Ã¶ bel
ĠVo rsch
rie ch
¤ hl
ĠFi tness
ĠNach ba
ĠBrows ers
emen ts
ĠUrlaub s
ĠC ro
prÃ¼ fung
Ġwiede rh
wi rkung
keit e
ĠB utton
F ina
sich ert
¼rt temberg
Ġkomme nden
ĠSi tzung
Ġ unk
Ġ ren
Si t
frist ig
Ġdisk ut
S l
s hop
ĠMe sse
ĠL esen
keite n
ĠAnl iegen
ema tik
n satz
ĠZ ert
va n
Ġ9 78
Ġli ve
staate n
Ġweite rge
x y
rin t
Weit e
Ġo p
undhei t
Ġfl i
Ġ4 2
ka tion
e iniger
ĠVer lauf
obe nen
Ġ set
Ġver mut
ĠmÃ ¤
gage ment
nstl i
nni e
ĠVergangenh e
ĠVergangenhe i
ĠVergangenhei t
ĠStaate n
Ġ dre
n um
to ffe
Ġma chte
ĠStÃ ¼
ĠgroÃŁ es
stÃ¤nd ige
Ġus ed
ĠVerpflicht u
ĠVerpflichtu n
Ġp ri
ĠVerpflichtun g
rhei n
ĠMillia rden
ĠNo v
j emand
ĠMi ne
wusst e
ndo n
ĠZe l
Ã¤t ze
l gemein
f la
ostenl ose
ĠKÃ¼nstle r
ĠGeb iet
M A
ĠGes am
9 6
l lgemein
ru cke
An twort
K omp
ĠK ritik
Ġeinge stellt
Ġ- -
A rbeits
we gs
ĠgeÃ¤ ndert
Ġwei ch
rganisa tion
n spi
c ount
Ġex trem
ĠFrei e
s ehe
ĠSpeich e
Ġzu nehme
ĠgebÃ ¼
ĠMeth oden
e pa
ĠAn lagen
ĠTis chtennis
h eits
ĠBenut zung
Ġ4 6
ihe n
Archi ve
ĠDe l
Ġconsen t
eb Ã
imis ch
ĠRÃ¼ck s
ĠQual itÃ¤ts
ĠDa rm
nstli ch
Ġge kenn
ĠC ou
u nverb
eat e
ĠM otiv
l egt
Ġweitere r
ĠRech e
ade r
rech nen
chÃ¤de n
ĠH annover
wohn u
Ġpolitische n
wohnu n
ĠErf orderlich
Ġjeweil ige
wohnun g
lÃ¤ tter
ĠBedÃ¼rf nisse
ĠBe ra
Ju gend
l ieben
la b
fal e
ĠBericht igung
Ġpa rt
ĠFa hrt
Ġ ag
NÃ ¤ch
w oche
Ġver gleich
ĠTro tz
ĠerlÃ¤ ut
Ġ ries
ĠSie g
P riva
oto r
i nget
I mp
An t
ur laub
ĠVersich erungs
wa rd
Ġges ucht
i nheit
ĠFerien haus
20 11
ĠSt ress
Ġges u
ĠErfa ssung
ĠDigital isierung
ĠfÃ¼ hrte
wuss tsein
ĠUnters chied
Ġda hin
Ġlangs am
ĠEuro pÃ¤ische
ĠZ wischen
ĠSta hl
gÃ ¼nst
S D
Ġcooki e
ĠMee r
S us
ĠTo ols
ĠQ uelle
ĠL aden
ĠK ommu
Ġ Swi
i nu
ĠEl i
nkl e
ktiv itÃ¤t
ĠBuch sta
ĠE rklÃ¤rung
Ġalt erna
rka sse
B A
9 4
zieh ungen
FA Q
ĠH otels
inz wischen
tua tionen
rb i
e nge
ĠP ublik
ĠSem inar
i nstellungen
aus chal
Ġwi llst
Ġgewo nnen
ĠgegrÃ¼ ndet
Ġhe rab
reih e
ĠF ig
u rte
A bs
mos phÃ¤re
ĠZei tung
wÃ¤ rt
Ġv ide
ĠNutzungs bedingungen
Ġb ilden
Ġwidersp rechen
rdi s
ĠD oppel
ĠArbeit geber
Ġpa r
K Ã¶
e inget
ĠSchi ff
S K
oto gra
u nterb
Ġh unde
Ġ Slo
ĠA lte
ĠSu per
ĠAufsicht sbehÃ¶rde
ĠHerausforde rungen
W ord
ĠE vents
Ġhe rum
uf f
ĠVer waltungs
re icht
ĠSt u
ĠA ff
Ġ> >
Ġirgend jemand
tional e
F T
Ġma ss
a llgemein
id s
ĠW orte
rl es
Ġc om
V ID
ĠP erspekt
ĠJ unge
Ġsich ere
Ġ englisch
ĠSt imme
fale n
gin g
Ġda ta
ĠC ode
et o
Ġbegi nnen
rante n
Angeb ote
hÃ ¼
ĠPro fe
Ġgla ube
ĠDr eh
Ges chÃ¤ft
rÃ¤d e
R i
E inf
Ã¤nge r
Ġ unverb
j u
S I
nd ig
Ġberechtigt es
ĠSt ri
nden burg
pfl ichten
ĠSchre iben
Ġsta b
lÃ¤ ne
ndo rf
ĠgewÃ¤h lten
ta hl
rÃ¤de r
ĠWas ch
ch muck
lti s
si ehe
ĠPhiloso phie
cc ount
Ġeinge s
ĠM obil
Ġ einiger
Ġ inzwischen
rt l
ĠGesch mack
H ersteller
Ġinteress ieren
ĠFahr zeuge
ĠA rz
... ]
Ð µ
ĠKons e
ĠSpa nien
ĠKa rriere
Ġ einget
ĠVor sitze
ĠA f
Ġk ostenfrei
na tion
ĠPart y
Sha re
Fo rm
rukt uren
ĠBe stell
Pass wort
ĠRe ssour
L aden
pe rien
ee n
ĠHÃ¤ nde
ĠMo nats
Ġge prÃ¼
s ab
ĠW ol
ĠHe ide
i sches
ĠÃ¼bern immt
ĠNÃ ¤
ĠPh ili
Ġbu n
ĠHig hl
Ġerst mal
menta tion
p hase
ĠD resden
vi s
ĠKl icken
ha fte
d ecken
ĠN RW
rolle n
Ġbes chrÃ¤
g reife
ĠGeburt stag
fÃ¤ n
ĠK lassen
ĠBe reiche
rma n
ĠTe ilen
Ġane rk
Ġb reit
rt ifizi
rent e
ĠRo man
ĠgemÃ ¼
od y
y pen
sicht s
Date i
Ex p
datei e
aust e
ĠPro fess
omi s
sta lter
dateie n
Auto r
ĠEin ze
Ġbe zahlen
ĠAktie n
p fel
ĠM ut
ltis ch
o rn
i nhalt
Ġge ha
S L
Ġhi erfÃ¼r
ommen ts
Ġba si
e rp
p as
b ruch
Ġbe richtet
Ġf ranzÃ¶
log gen
ck u
a usse
ĠHome page
Ġtraur ig
ĠMa ria
ĠfÃ¼ rs
ĠAl uminium
Viele n
eate r
Ġla ngen
Ġ6 5
ĠE rste
ber ger
ratisch e
Ġrot e
ĠFeuerwe hr
ĠKolle gen
Ġ aut
ĠA ngel
ste men
Ġbeh e
verstÃ¤nd nis
ĠE mail
hr o
Ġwir ken
riech e
erei n
ĠfÃ¼ hlen
fa sst
hin g
kalisch e
8 4
que nz
ve rfol
Se lb
eu chten
Ġrela tiv
analy s
rÃ¼ fung
ĠSte fan
rba re
emp l
Ġke nnt
ĠScha l
nl eitung
l ernen
sa me
ha m
sa u
ĠRezept e
Ġab ges
mische n
Weite r
Ġerh Ã¶hen
ĠOb jekt
mit tag
Ġm usi
ĠBi tcoin
a nscha
chliche n
ĠU nfall
ĠC ho
ĠVors chriften
ili n
ers chutz
egen h
ĠU l
ĠF la
rstel lungen
Ġmo re
ĠW esen
nne l
ĠSu pport
ĠMa ster
ĠerfÃ ¼llen
we chs
ĠRei fen
la nde
ĠFÃ¼ hrungs
Ġz Ã¤hlt
plan u
mini ster
n m
planu n
Ġgek auft
ĠZÃ¼ rich
planun g
Ġerl ed
u x
wa l
u nzu
i kt
egenh e
ĠO ber
ĠKe i
ĠEntwick lungs
EN T
deutsch e
pische n
we b
ĠSo n
ehle n
ĠMi ttels
ĠSch aus
ĠSt ern
rp o
uti n
b rowser
egenhe i
m mern
egenhei t
lb erg
ĠPrem ium
ĠB E
a nlage
Ġbeliebt e
Â ¤
rei e
Ġ ri
ĠZe ntral
Ġsort iert
L Ã
je nigen
ĠRestau rant
ick et
ĠAusst e
Ġvers chi
b reiten
l eistungen
Ġdri tten
im p
rÃ¼ stung
E mail
ĠSti ftung
Z E
Ġerf orde
i tungen
ĠwÃ¤ ren
ĠP l
Ġ inf
c ia
K ann
ĠFo rde
Ġ allgemein
ĠMitte ilung
chn olo
Ġfi e
na s
Ġsich ern
Ġscha uen
nut zung
gte r
nge rschaft
ĺ ħ
ĠSpiel ers
/ -
Ġcon t
ch rank
ĠUnte rla
Ġf ehlt
ĠEuro pe
ĠAuf ruf
ĠVer pack
ĠLi eblings
Ġge zeigt
Ã¶l l
ĠA U
9 3
cht ig
Ġkon troll
ge staltung
Ġprofi tieren
dt i
ĠSt erne
r ede
E d
Ġgemeinsa men
omis ch
K urs
Si tzung
ĠSchri tte
i nspi
Ġtro cken
g ig
il y
r iger
Ra t
i ckt
Mail s
Ġgelte nden
gebÃ ¤
i nn
Ġ up
ĠM ilch
ta u
Ġerz Ã¤hlt
ĠE rstellung
ĠdÃ ¼
ngen i
Ma rke
ICH T
ĠV ern
ĠQ ue
Ġhie rbei
ĠkÃ ¼nd
rn berg
Ġab lehnen
Ġ unzu
ĠBehÃ¶ rden
Ġbet rieben
ĠA s
Ta gs
ĠPro fi
ĠWeit ergabe
zelle n
ĠNutzere rlebnis
D A
ssl i
Ġgeplant e
Ġp reis
ĠM io
ru mp
Ġle iden
ĠKel l
ĠK abel
Ġlie ÃŁ
we rken
ĠBild ern
as ts
8 1
Ġge fragt
z y
Ġbe na
M E
ĠJ ose
bet rieb
V ol
ĠSu pe
om me
R Ã¼ck
em ann
Ġo ut
b ro
ĠG ri
Ġex tra
l egung
ĠViel zahl
ĠFlÃ¼ chtl
G ra
20 10
Ġha ve
ĠT yp
Ã¤t e
Ġ zieht
Ñ ģ
Ġkomp etent
Ġ19 99
N eben
ĠlÃ¤ ngst
c ode
ge ord
Ġex empla
ĠYo ga
ĠbestÃ¤t igen
ĠKonf l
ĠAus druck
e chten
ĠBe werb
v ed
halte r
He ute
Ġunbe rÃ¼hrt
b rauch
ĠMin ute
P L
ĠSpiele n
da n
sso r
ĠSt udio
zÃ¼ ge
i erungs
St rom
Kl icken
e ko
hi as
ĠA lten
ĠgrÃ¶ÃŁ ere
Ġanony mi
( "
Ġn ationale
nba hn
Ġmo na
Ġum gehend
nder h
ema p
Ġ Schreib
ĠHaupts tadt
Ġt est
gal e
rma rkt
ĠHaus halt
En t
Ġge halten
ge ls
Ġhochwert ige
Ġkostenl osen
ick ets
Ġda rgestellt
b ern
ĠErs atz
we rden
ĠWe rke
Ġange meldet
si um
Ġp oten
ĠzusÃ¤tzliche n
Ġko rrekt
ĠWo hnen
me isters
ĠKom fort
ĠgewÃ¼ns chten
ĠLa ut
ck a
ĠPort a
Ġmod erne
we red
ast ian
kt ive
Tis chtennis
e ntwicklung
ĠAuf nahme
Notwend ige
ve rhÃ¤ltnis
imisch e
Ġaus reichend
ĠEin richtungen
eu chte
ĠBeschwe rden
ĠUni ted
ne imi
ĠR este
Ġp lat
ĠF ehl
ziele n
s weise
ĠMa gazin
ĠBe stellungen
sa l
ĠAlterna tive
ĠMas chine
no n
ĠF ab
ĠL udwig
ĠZu hause
¤ ren
Ġg lobale
Ġver gleichen
perien ce
ĠÃ¶ffen tliche
Ġla g
ĠÃ¼brigen s
ĠÃ¼bermitte ln
Ġge so
n gla
Ġ lu
fl i
ĠRicht linien
cl i
Ġ SV
R L
ĠHer rn
Ġbean tworten
ges chÃ¤ft
oot e
ĠHuman medizin
c ts
ĠG ute
Ġsicht bar
ĠTo r
ĠNachhalt igkeit
funktion e
e udo
ĠHÃ¤ lfte
Ġerh eben
H ol
lt ra
Ġselbst verstÃ¤ndlich
Ġinteress iert
Ġvers tÃ¤
ifika t
ĠEn gagement
empl e
n terne
ĠViel leicht
s ho
Lo gin
r fe
ĠJ eder
erb ild
Ġfre ue
et es
na rt
B undes
Ġ schne
ĠBre men
n ur
p fer
" )
Ġersch einen
oth erapie
sa gen
tas ch
ĠRo ma
Ġemp fo
Ġge sp
l egal
ĠDaten Ã¼b
ĠOnl ineshop
na da
St o
ĠNut zen
st r
tego ri
me lde
berei t
Ġ Scie
Ġgarant iert
ĠFried rich
Ġvi rt
gene n
ĠGu K
Ġnoch mal
h olen
ĠGrÃ¶ ÃŁen
log gt
Ġk u
e rd
t ech
re ge
ĠBal l
use e
fri ed
R ad
ĠJahr ze
wi r
Ġda runter
ĠEntscheid ungen
ĠA rme
Ġ unterb
stal l
L Ã¶s
Ġfalsch e
ve s
Ġ ausse
ĠSto ck
ĠbestÃ¤t igt
Ġbest ehende
All gemeine
em pel
as zi
Ġp i
ĠDa ss
Ġmusste n
Ġexempla risch
ĠZu ge
Ġzu gleich
ĠOpt imierung
8 3
ĠH immel
ĠFil me
ĠR auch
ĠBet reuung
rb t
rin ken
mÃ¤ÃŁ ige
b este
e ase
i ment
s eudo
ro ma
ĠWi ki
Ġvo rstellen
Ġrechtliche n
Angeb ot
Ġvers p
hand lungs
ĠPa ket
p um
ilin g
ĠGa rte
ĠT Ã¶
ĠVe rei
C E
wei ÃŁ
ĠGene ration
ĠA B
Ġreg ionale
I con
tasch e
pa pier
piele r
r ut
n setzen
ĠO rdnung
r mel
Ġth ese
F inge
Ã¼r zt
ĠEmp fÃ¤nger
Ġ inspi
wei st
ĠU rteil
ch lossen
ba um
ĠNach folge
ĠgewÃ¤h lt
Ġge fÃ¤llt
p ot
Ġredu zieren
ĠK rypto
fÃ ©
S eb
Ġk W
im o
l erie
s chlagen
ĠH TML
Ġgen erell
Ġsta rken
ĠMÃ¶ bel
mel dungen
ra i
ĠVerbesse rung
Ġp sy
9 2
ĠPro gram
Ġbesit zt
ĠInternetseite n
ha ben
h lung
funktione n
ĠVer sicherung
Ġvereinba ren
ĠZi n
Medi e
Ġerla uben
S W
Ġbe wa
ĠNeue s
ĠKunsts toff
ĠnÃ ¼
d eta
well e
zwe cke
ĠP oten
pag ne
Ġgla uben
Ġ dra
Ã¼r gen
il iate
ĠDie nstag
d yna
ĠD I
ĠKom mission
X X
Ġangeb ote
D EN
Ġleben s
ĠP rivate
ss tÃ¤
hin weise
tal l
Ġvo raus
Ġl ebt
ĠJahrhunde rts
Ġk ostet
ĠbeschÃ¤ft igt
ts phÃ¤re
ĠDa vid
Ġviel es
B u
ta b
A ndere
Ġverhi ndert
Ġ stellte
wei n
Ġopt ima
t erricht
ko hol
ina re
ĠMan ch
v irus
ĠWohn ungs
ĠDe inem
Veran staltungen
ĠKÃ¶ rp
Be rlin
Ġ4 3
ĠHand werk
lÃ¼ h
Ġerh obenen
Ġla uf
ĠR unde
sam t
ĠNe i
ĠMas chinen
ĠFahr zeugs
ge sprÃ¤ch
Ġsi tzen
O rt
ĠEh e
ĠKrie gs
ĠKilo meter
am s
gan t
V D
ĠHier zu
roch e
ĠWell ness
ĠFri st
l ige
ĠP rei
cku n
ĠR abatt
Ġgegebene nfalls
ea l
ĠChance n
ĠZ iv
e rlich
ĠHa rt
ĠE lekt
la ger
Ġmax imal
et rieb
u u
fÃ¶rde rung
ĠB as
lte s
emis ch
Ġerst mals
WÃ ¼rttemberg
ĠSol lte
ĠSpiel erbild
Ġopt i
ĠP andemie
Ġ4 7
olit iker
Ġp lÃ¶tzlich
ckun g
nderh e
Ġeigen es
ni ert
i nterne
ĠSy steme
rÃ ©
Ġ reich
8 2
isio n
V P
oo n
r wo
ĠCha ra
h m
freie n
wa rt
ram pe
men ge
n ot
Ġwechse ln
ĠTa nz
Ġbed eute
bu n
cheid u
ĠC y
s wÃ¼rd
sa ck
sb es
cheidu n
ege nde
cheidun g
ĠGla uben
ĠF ranz
re chten
ĠF A
nze r
ĠVerstÃ¤nd nis
ub ilÃ¤
Ġauf weisen
ĠMo ni
bad e
rechtliche n
Fo rum
ildu ngen
ĠKu rse
nder es
ĠRan g
ĠG olf
rst Ã¶
i ngeben
rma ÃŁen
ĠFrÃ¼h stÃ¼ck
ĠVerÃ¶ffentlich u
lse i
ĠVerÃ¶ffentlichu n
ĠL ade
ĠVerÃ¶ffentlichun g
F u
Ġbun t
lÃ¤ ren
ĠB ud
gle r
bi e
ĠJ ust
Ne i
rhÃ¤lt nisse
K reis
o rs
Ġberuflich e
Ġlo hnt
n stellen
Ġverl Ã¤nge
ĠAufbewa hrungs
ĠfÃ¶rde rn
ĠM uster
K ultur
ĠSe rv
ĠO ste
Ġqual ifizi
ĠEinf ach
Â ¼
rie l
ĠKl eidung
I s
r ven
Ġnah m
F olgen
ost i
ers achsen
um mi
sa tion
ĠnÃ¤he r
Ġha ndeln
Benut ze
ĠUS B
i nc
Ġhel l
Ġverl e
Ġkon s
ĠW Ã¼r
i da
ĠEinf Ã¼hrung
Ġge ist
Ġ ehr
Ġ Sehen
ĠFo rmen
ĠLe o
chtlich e
Ne cessary
ppe l
Ġerreich bar
ni cht
ĠFisch e
ĠVorg aben
F rank
ĠPi nterest
Ġ wh
Ko nze
U rlaub
l eitung
ĠVe rk
ĠUN D
ĠF euer
ĠKla us
zent e
lo p
e rwo
e ingeben
tok oll
nf l
chni tte
uta t
ĠWil helm
ĠP ause
ku la
reiche r
els tahl
ab ine
t ies
ĠNutze rn
ĠiP hone
ngeli s
ĠVerl etzung
¤mp fen
Ġex emple
ĠL ernen
Ġhab t
pto me
Ã ¼be
Co rona
Ġzu lÃ¤ss
ĠKonze rt
ĠT abelle
ĠE N
ibli ch
Wei hna
Ġf estst
kÃ ¼nd
c ript
Ġ eingeben
land s
Ġ ur
nl y
eb o
Ġkonk rete
ĠsÃ ¼d
ĠFl i
ĠR ose
nat ur
Ġposit iv
wÃ¤ rts
w uchs
ĠSchwe d
ĠVerkÃ¤ ufer
zu setzen
Ġkl eines
wa nn
Ġverg eben
nz Ã
ĠC D
ĠPa pier
ri c
ĠCh eck
lÃ¤ ndische
Ġl Ã¶sen
uste n
ngelis ch
rin gung
ĠY outube
ĠbeeintrÃ¤cht igt
AR T
Ġgeb oren
Ġ eno
nd ete
ch icht
Sch o
ĠSe kunden
ĠFl ex
rni n
ĠP S
Ġle gt
we gung
ĠCent e
ĠPorta l
Sta rt
ĠCh ef
ĠSo nder
n gang
ĠSch merzen
ĠG lo
per rt
s chul
ĠK Ã¼r
ĠPo wer
ĠP erformance
Ġto tal
Mo ntag
rÃ¤ uchen
Katego rie
pel l
s chmuck
p ut
ĠH D
ĠzurÃ¼ck ziehen
Ġsinn voll
ĠĠ ĠĠ
ho lt
ed d
a na
Ġ amerika
st re
ĠTo n
J e
( )
Ve rla
ĠG emÃ¼se
e chte
Ġv erso
richt linie
ppi ch
ĠRisi ken
Ġbegeist ert
id t
v ia
rbei tern
Ġh ine
Ġk rank
ĠWahr h
wÃ¤ s
ĠWahrh e
ĠWahrhe i
ĠWahrhei t
ĠCont e
Ġba uen
zu r
L ea
L auf
ĠA ir
Ġg ratis
i pps
r va
âĢĵ âĢĵ
gie ne
ĠC DU
Ġkon zent
ĠDa niel
wa chung
Ġ eignet
I B
ĠK ranke
ad s
pÃ¤ dago
ĠPa l
ĠmÃ¶gliche n
fa rbe
hrscheinlich keit
Ti pps
ĠVerÃ¤ nderungen
ĠG DPR
aste r
I mm
ĠB rust
fÃ¤h ig
ĠErh ebung
Unte r
i no
erst off
Ġeinf achen
sili e
ri mi
Nei n
ĠPf la
B ra
ssli ch
wÃ¤s ch
Ġgesellschaft l
Ġzu stÃ¤ndigen
ĠCente r
Abo nnieren
e ve
ĠT abl
ĠErforderlich e
ĠFÃ¤h igkeit
a nfÃ
Ġgesellschaftl i
Z a
Ġehema ligen
Ġgesellschaftli ch
L A
ĠProfess ur
ĠHe ssen
Ġ9 5
Ġtradi tionelle
b log
n sicht
v as
ĠSch wie
s chwi
ĠAnd roid
ĠF ert
ĠEink ommen
ĠÃ¼bern ommen
e ibe
ĠVe n
' ,
Ġschri eb
¼ ro
ett o
mit glied
Ġaus gel
op p
ĠWidersp ruchs
ĠB auch
ĠHei z
ĠSte llung
ĠH erstellung
Se n
ki rche
ĠFlug hafen
i erst
Ġge ringe
ĠErschei nungs
Vide os
¼t zen
sta tion
ĠspÃ¤t estens
Kraft stoff
ĠHig h
ĠSt ruktur
ĠschÃ¶ nsten
il ungen
Ġunver zÃ¼glich
ĠDi agn
d l
ĠP hase
nat e
ĠB B
ĠVera rbeitungs
tud i
p per
gemein schaft
ĠNo rmal
Ã ¤ren
k omp
rud e
ntai n
20 09
ĠGrund lagen
Ġhinte n
ta us
date nschutz
ĠAufent halt
ĠverÃ¤ ndern
Ġso g
L G
rei f
wort e
ĠAn teil
ĠPi xel
be ratung
io r
ĠKi e
spart ner
ĠNei n
tsel l
Ġhohe r
ĠBeso nders
d et
Ġbe zÃ¼glich
ĠSpi tze
Vera rbeitende
st Ã¶
9 1
ĠMi ndest
ĠAn lass
ch me
ĠKl imas
Ġhier mit
ĠFÃ ¤
la dung
nz ahl
iv i
la ck
sts tÃ¤nd
rnin g
a uÃŁen
Ġnied rig
ĠRechts verl
rab druck
ĠA pps
Ġ erwe
ĠArchi tektur
M P
B io
ĠE cht
Ġoptima les
ĠT ests
ĠDurch schnitt
Ã¶t e
ĠMa c
ĠBu nd
d oppe
S oli
ĠR ub
pte n
ĠConte n
nderhe i
tua l
ĠViel falt
ĠZel l
ĠAus fÃ¼
ĠSe ine
ĠSpann breiten
pi eren
ĠSta ffel
re nnt
nderhei t
ĠAnsp rechpartner
ĠCh emie
Ġle e
w Ã¶l
kisch e
Ġausschlie ÃŁen
ĠConten t
verb rÃ¤uchen
rk i
ni tz
M ob
C e
d rin
ĠLand wirtschaft
gie n
Zah lungs
nh eim
nn y
ĠLo ndon
ĠSen ioren
ĠBetrieb ssystem
ĠSou nd
Ġ6 00
ĠKar ls
R S
Ġv s
Ġge lungen
Ġme ines
ifika tion
ĠBÃ¼ hne
ĠSpie ltag
ĠBa r
Ġauf nehmen
So cial
up load
Ġschriftlich e
la gs
Ġunab hÃ¤ng
ĠSa t
Ġbee ind
Ġge raten
Ġle ichter
ĠP olen
Ġvorhanden e
ĠTra iner
ĠgroÃŁ art
nde x
V ER
ĠC ommunity
Ġ SG
ub ert
ĠPart i
ĠOp tionen
ĠPa ris
ette l
Ġ interne
ĠRent e
h och
chni ken
ĠBestand teil
ĠGeschÃ¤ft sbedingungen
ĠFan s
ĠB urg
ĠLi zenz
sse rn
ĠO ffen
ĠSt r
c ri
ï ¸
Ġzusammen ge
ĠK riterien
ĠDeta il
rtl i
um m
T ro
nn l
ĠEx tra
ĠHo h
ergi e
ĠOnline angebot
ĠSurf verhalten
ive a
ma p
ma cht
ommunika tion
p hische
Ġpla nen
mache r
Ġdate nschutz
ĠCons e
bisch e
schlie ÃŁend
V ersch
ĠSol lten
sp rech
rat ive
i nsetzen
Ġhinge gen
a nst
ĠKei n
? âĢľ
Ġ anscha
art ikel
sa men
ĠB Ã¶rse
ĠAnl eitung
ĠAd vents
Ġ SM
gl Ã
z weck
ĠBe grÃ¼
ĠTre ffen
ĠAbst immung
ikeln ummer
Ġauf treten
e insetzen
p reise
Ġ spi
Fa x
ur ze
ĠE p
i enste
ĠPartei e
ĠSt euer
Ġerhi elt
fÃ¤lle n
ssta a
Ġ Szene
ĠL aufe
ĠInsta llation
ĠAut os
ĠEi nn
N A
hÃ¶ rigen
Si ch
ĠPublik um
Com merce
Ġauf merk
ĠKapi tal
nb lick
Ġbek annten
Ġneu em
ĠRe port
ri sten
Ġ199 8
ĠO ne
Ġ einst
d eko
Ġoffene n
e fa
ĠB raun
ĠzugÃ¤n glich
Ġ einsetzen
Li t
Ġwill kommen
l ehr
âĢ¦ .
Tra cking
la uto
ĠEind ruck
Des ign
q uelle
pla tten
Ġ auÃŁen
ger ufen
asch ine
pazi tÃ¤t
i talie
Ġ deta
3 00
Ġt iefe
ĠA i
ĠSta tistik
ute l
B M
p u
si tionen
ĠPla y
lsei t
ĠBe nachricht
kon trolle
c tor
rtli ch
ĠBes uche
ĠGe rade
Ġze rtifizi
wa ren
ĠGe meinden
konze pt
c us
rache n
wÃ¤sch e
nda l
j Ã
nstlich e
e ratur
ĠT his
ĠScho n
We rk
ubli ch
Ġ Show
vers e
alt h
Ġb ildet
ĠSpeiche r
ĠB edie
ĠLeit e
rÃ¤ glich
we n
roche n
ve a
ĠRelig ion
Ġvor genommen
Ġeinge schrÃ¤nkt
obilie n
ulich e
C D
Ġ anfÃ
zug reifen
ĠGrab be
ĠL LC
ĠHie rbei
ĠKontakta ufnahme
ĠKÃ¼nd igung
ĠDemok ratie
ĠBeweg ungs
Ġvo rs
wÃ¤ lt
eg ren
Ġfreie n
s chwei
Ġp lus
ĠgÃ ¤n
ĠKranken haus
ĠUnterneh mer
ĠWachst um
Ġvorges chrieben
g eteilt
Ġma t
Ġvo rhe
us ern
ĠG E
nnie n
Ġverli nkten
oo s
ĠAt mosphÃ¤re
Ġt ollen
S ho
ĠMÃ¤ r
tego ry
pro bl
Ġmi ttel
Ġne nnen
ĠK ann
wÃ¤ ch
Ġunterli egen
ĠT s
Spiel e
Ġkur zen
y th
s co
ĠFreu nden
Ġg old
Ġ199 0
cin g
o pt
Ġgesamme lt
rita nnien
Te chnologie
ĠH erstell
ĠMa th
Ġlee r
k auf
) )
t zte
ĠprÃ¤sen tieren
eina nders
ĠZus Ã¤tzlich
D ann
ĠInforma tik
ĠAut om
utat e
Ġf risch
ĠVe ro
i fe
ver zeichnis
Ġ sehe
ĠWL TP
ĠSpe nden
ĠShop s
ĠII I
do wn
ĠV ersorgung
Ġfa hr
ĠG utschein
gefÃ¼ hl
ĠLi nkedIn
d rÃ¼cken
rali e
Seb astian
Ġemp fi
Medie n
ĠauÃŁe rge
i nhei
ĠSo zia
ĠO rte
Ġliefe rt
s ka
] .
Ġherab gesetzt
p ol
ĠZÃ ¤
Ġabger ufen
zeich nete
âĢĿ ,
as a
ĠWissenschaft l
ĠAlex ander
ĠÃĦr zte
ĠExp ress
ha ften
ch merzen
ĠAk ku
Se arch
t lang
Kraftstoff verbrauch
Ġ una
ĠReste rampe
mi tt
h eil
ĠAb stand
n tlang
ĠL ou
Ġge stattet
e ntlang
ku ment
N u
Ġ era
ĠGrabbe ltisch
ĠDoku mente
st es
ĠInteg ration
Ġst immt
ĠHei n
sse i
Ġ Sl
dru cken
ĠParteie n
ĠerÃ¶ ffnet
W icht
Ġgel ernt
ver gleich
ita t
Ġ inhalt
ĠSe hr
ĠMeth ode
F il
Ġ entlang
sit y
F re
ĠSo la
veran staltungen
Ġbe rÃ¼h
ĠGrÃ¼ nen
ĠJun g
M einen
Ġge dacht
ho rn
bo ard
ĠBM W
ch ra
ĠArz neimi
ĠGe nehm
glei tet
ĠWe il
Ġ4 1
d iffe
g emÃ¤
¼d i
rsche r
ĠBesuch ern
Ġge d
Ġgeschi eht
ĠFunktional itÃ¤ten
ru e
ve rkauf
ĠMita rbeite
ĠD DR
sso ires
ĠWolf gang
ĠCH F
j i
Ġm ach
Priva cy
Ġ uni
ĠE R
a nbieter
ut ze
ĠB oo
ĠD ER
ĠAu sse
ĠAuf merk
Ġ doppe
ĠAben teuer
Ġvermut l
ĠJes us
s chme
O pe
ĠDort mund
ĠAll gemeinen
ĠÃĸffentlich keit
ne ws
i nstellen
ve rg
p g
Ġvermutl i
Ġgemeinsa me
rbe r
ĠI ma
Ġvermutli ch
ĠSche i
mÃ ¤r
ĠI rland
ĠInf rastruktur
ĠAngeb ots
ĠTou rismus
latt form
S m
ĠOp fer
Ġ anst
ĠRessour cen
rste llt
chr ist
ge geben
Ġkon t
Re ad
b ritannien
ĠFa ktoren
ĠSe l
Ġeri nn
Ġkla ssischen
ĠWeite r
e instellen
rnie r
ĠDatei e
Ġha rt
Ġautomatisch e
Ġl ust
Ġp ost
p fung
L etzte
ĠKi no
upload s
ĠJoha nnes
e itig
ĠFa kten
th olische
ian hÃ¤nge
ĠBa uer
P olitik
vol lstÃ¤nd
u ngla
ĠA g
Ġ8 5
Ġ einstellen
ĠB reite
ĠâĤ¬ *
unda tion
Ġsich eren
zie rungs
¤ nde
Ġneu n
R U
Ġvers tÃ¤nd
ĠC opyright
d rauf
Pro jekte
ĠWiderruf srecht
i rn
Ġbet rieb
¼ tung
a rk
nb ach
a i
sp la
Ã ¼tung
si erten
i la
Ka rriere
ĠAn wendungen
ĠDateie n
Ġverdi enen
ĠEd e
ĠLeite r
Ġunters cheiden
zi erte
ote r
rei ft
ĠConse n
V erfa
ĠSil ber
ĠKa nton
I nstitut
M usik
ĠTempe ratur
Ġverdi e
Ġbestm Ã¶gliche
ĠR um
Mat erial
ffe ln
p lo
et u
pi ert
Ġsiche rlich
Ġmeisten s
ul iert
rei bt
Ġ app
Ġerg Ã
ĠLo gin
ĠGes chlecht
nÃ ¤le
ĠAc ce
ĠY ou
Ġf reundliche
Ġeinf acher
pte r
ndi enst
rna men
Ġverdie n
Seite n
ĠM ilitÃ¤
E nergie
N och
Ġp ol
nce n
ca rd
ĠergÃ ¤
ĠVerb and
Ġbereit gestellt
ĠðŁĺ ī
cent e
ĠDe inen
B utton
ima no
Ġbe haupt
ĠStre cke
Ġideal e
Ġbet o
Ġb Ã¼rge
ran ts
scha l
Ba u
naly s
Ġh olen
ĠGe org
no men
eb urg
Ġ drauf
ĠgÃ ¼lt
i men
u nve
Ġbevor zu
ph p
P DF
e inhei
ĠNa chte
Ġsta mmt
ru rgie
ĠÃ¶ sterrei
ĠSta tus
ĠWiderruf s
t eile
ĠConsen t
rha ben
Ma x
Ġso zial
prÃ¤ sident
Pro gramm
ĠBes chreibung
ĠInstitut ionen
Ġsta rtet
L O
J Ã¤hr
Ġ ungla
olo r
Ġgel e
ĠW ies
n halten
ĠHÃ¤ ndler
lasche n
schÃ¤t zung
ĠTa ts
Ġspe zifische
AT EN
ĠInve st
ĠL y
St raÃŁe
tsch e
b ilitÃ¤t
ual isierung
¤ch e
Ġricht et
s m
mi ert
S chr
Ġzeit l
seudo ny
Ġvo rne
isten t
rher iger
flÃ¤che n
ĠKÃ¶ nnen
J obs
ĠSei n
ĠEd elstahl
ehe nd
f lo
oo th
! )
nalys e
rb uch
da ta
ĠHoch zeit
tudi e
ĠF ests
ĠZus cha
fo rmat
S IE
Finge rabdruck
ru i
ĠW M
ĠMo ntage
wo rd
nale n
G l
pag nen
Ġ8 9
lÃ¤ nge
ri ed
ĠTre nd
Ġweiterge geben
F Ã¶rde
¤d ch
et ik
Ġverdien t
D amit
ĠGe wÃ¤hrle
ĠLa t
ĠRe gi
geb l
emp feh
e ft
ts t
i so
ĠLeiden schaft
ĠverfÃ¼g baren
empe ratur
ĠPa rla
ngste n
Ġsta rt
Ġj etz
Ġscha fft
ĠH ot
v ider
Ġhin sichtlich
Z ubehÃ¶r
Ġ6 4
ea r
Ġspe ziellen
ralie n
ett i
Ġers etzt
ĠSchwa ngerschaft
ĠDate nbank
ï¸ ı
Ġro b
mer ken
l lungs
rg ungs
p ost
utate n
ĠO rientierung
pa kt
Ġgekenn zeichnet
Vo rs
I F
Ġ schÃ¤t
Ġgest ern
od i
ĠR ede
P ra
net i
ivea u
re publik
Ġgesellschaftlich e
ĠEmpfeh lungen
ĠTh ese
ĠAgen tur
Ġ unve
ĠSp o
ĠG lÃ¤
Ġerfa hre
Ġm l
rme d
ina nder
gen t
hli ch
ĠgeprÃ¼ ft
rg fÃ¤lt
Ġ[ ...]
ĠgrÃ¶ÃŁ eren
ur ce
ĠZ uf
Ġinteressante r
Ġwiede rum
k rise
o nline
ĠMo tto
ĠPersÃ¶nlich keit
p edia
fl ex
ps e
ĠAspe kte
ĠBundes regierung
e ws
ĠFo undation
ĠOrganisa tionen
ĠSchÃ ¤
icht l
zu tage
ĠLe ider
retu n
ig ner
mer kt
rite n
ĠRegie rungs
ĠBro t
retun g
ĠKapi t
Be nachricht
Ġbed i
ĠK reativ
ron omie
me id
ĠMÃ¼n ster
ĠÃľb erl
e pri
Ġkons e
bade n
Ġm ut
ĠFo nts
ĠB auste
wend et
Ġzeitl i
Ġzeitli ch
ĠR and
deaktiv ieren
Ġt esten
i sse
ĠLei tung
Ġge staltet
ch ild
chni tten
ĠAus wertung
weis ungen
S co
ĠHoch zeits
ĠFoto grafie
NÃ¤ch ster
ĠL abo
Ġverk nÃ¼
ĠPsych ologie
t ure
ĠâĨ ĵ
ĠE mission
ĠRech ner
ĠReg ionen
n iges
Ġerforderliche n
ĠJ ede
erte ilung
Ġum s
ha be
i ca
nig ungs
K ommen
E rg
ĠJahres zeit
ĠGene ral
ne e
Ġb undes
ĠSt immen
ĠEin haltung
ĠPfe rde
ĠNa vigation
I ST
ĠN och
ĠTh Ã
ĠChrist oph
Ġdes to
Ġerte ilt
ĠMehr wert
ill ierte
Ei nb
ĠAm t
ĠF r
lse n
Ġst re
C l
ĠAll gemeine
ro b
Ġbe auftra
Q u
Ã¤ss l
Ñ Ģ
fol io
Ġwesen tlich
chl eu
Ġtelefo nisch
Ġviel mehr
ĠVe reinbarung
g eta
d ienste
Ġget roffen
Ġbl ieb
Ð ½
K osten
us h
Ġange s
ki rchen
bÃ ¼cher
be richte
¤dch e
ĠIs rael
ku rse
cente r
r fer
u hr
Â ·
ĠBerecht igungen
gebl i
ĠNo rden
wa ndel
p df
Ġbewe rten
Ã¤ssl i
v io
nb es
i niges
T his
lu sio
ĠV om
ĠLite r
Studi e
Ġex ist
ho n
ĠBenutze rs
¼di s
Ã¤ssli ch
ĠAngeb oten
ĠKa tzen
nda n
ĠZ wi
Ġsi ehe
W id
ĠLe hrer
adi n
be a
gebli ch
ra y
g ab
Ġschwie rig
Ġ italie
Ġhisto rischen
ĠSchne e
ells chaften
ĠLÃ¶s ch
ĠAusb ildungs
ve rÃ¤
ĠâĢ º
rah men
Ġinhalt l
aus ch
Ġinhaltl i
Ġinhaltli ch
ĠAufmerk samkeit
silie n
ĠF ot
ĠLe icht
Ġge ring
rÃ¤um t
D S
vors chriften
Ch eck
ĠSta t
nkl icken
ĠAn sicht
Ġ ]
¼dis ch
ge d
ĠInnen stadt
ĠServ ern
Bi s
m pe
ula tion
Ġ5 2
e iniges
werb l
ĠE nerg
Ġda uert
ĠBau ern
Ver sion
P C
ug h
Re ply
ĠForum s
ĠGeb i
e la
ĠSystem s
Ġ eink
ĠFa hrer
gebi ete
Ġ5 6
ase l
stat e
ch neiden
So fern
t zer
a nlagen
ĠQua d
A uÃŁe
ĠMark us
ĠSchwed e
Mi chael
Ġ SCH
nah e
ĠBo nn
ri fft
ĠH ab
ĠBes chluss
ĠVe rordnung
ĠVo rde
Ġc l
e rklÃ¤rung
e ind
ĠPriva tsphÃ¤re
ĠInt era
Ġl es
Ġt rans
ĠRi n
ĠKirche n
glei chs
ĠC i
Ġschi e
Se rver
ĠJa pan
hÃ¤ ngen
ĠAnsp rÃ¼che
Ġmax imale
Ġst rukt
¤dche n
ĠNach dem
Ġinstall ieren
po n
Sch Ã¶
Deutsch e
rro r
Ġ einhei
tsell e
Ġentsp rechen
Ġ einb
Selb st
nb art
ĠO ff
ĠnÃ¼ tzlich
Ġt op
Ġ5 4
je ct
forma tion
ĠGegen satz
tselle r
ĠB lÃ¼te
d epri
pa rtei
Ġbei nhalt
ĠSchuh e
Ġdire kte
ĠFeed back
be darf
Ġbet racht
Ge n
fo n
Ġ depri
ĠTi ef
W ert
prÃ¤ gt
Ġkult urelle
ph y
o gra
ĠHa up
ĠAnn ahme
Ġ einiges
ĠVita min
Ġg o
fi t
mat ik
Ã ¤nde
Ñ Ĥ
ĠEin gabe
end l
Ġangemessen e
ichtl i
ĠR uf
uth e
Ġsto re
Ġange passt
ĠG R
Ġm ache
Ġ8 00
t ierte
nstru ktion
nnl i
Ġ rÃ¼ck
t ta
omm st
L S
ĠNa hrungs
rke l
lÃ¤t zen
rage nde
Ġso rgfÃ¤lt
ĠEinkauf s
ver sich
Ġkla ssische
ĠKonf igu
Te rmine
ĠJÃ ¤
inu i
tre ffen
ĠGerma ny
ĠE ben
rau ÃŁen
ĠUm feld
enta tion
ĠDe z
ĠL ast
So nst
G ast
Ġho ffe
ĠHa fen
lat e
ĠVe rhÃ¤ltnis
e uten
Ġverst o
ĠMal e
Ġaufmerk sam
chu h
Ġje ner
ĠMo re
ku nst
ĠAt em
â ľ
adin g
aut y
Ġum gesetzt
Ġents cheidet
ĠVerteid igung
ĠEbe ne
met ik
weite r
ichtli ch
Ġbe gleitet
g ige
ĠausdrÃ¼cklich e
F uÃŁ
ĠEnt fern
Ġspe zial
ĠThÃ ¼
OR T
ĠMon t
Fa lls
ĠInte lligen
Me n
ĠDa nach
ĠU RL
Ġab s
ia nce
ĠEine n
Ġentd eckt
nd t
veran staltung
Vi meo
Ġ7 7
p ert
nde rten
auf tritt
ĠBe oba
Ġp Ã
ĠFa nta
ĠH als
hli n
sil lusio
Ġze rstÃ¶
ĠBahn hof
g rÃ¶
ĠN Ã¤h
Ġpro blem
pla tt
Ġbe gleite
Ġo rden
Ġ diffe
mo n
M G
s uch
nnli ch
rie gelt
Ġste ue
Ġsonst igen
i nsatz
ĠStÃ¤dte n
am o
ĠBa nken
Ġabge stimmt
Ġda men
F r
ĠUni vers
ibe r
ĠErfol gs
ĠSo ft
ĠAb teilung
sin os
nl egen
ĠTs ch
W ill
P O
F rage
um b
ĠTran sa
s chuld
verl ust
ĠViele n
ĠFern seh
ĠDi n
Ġsp o
P re
ĠJugendliche n
Ġgesu nd
O pt
ralle l
vea u
Ġo nly
ĠgewÃ¤hrle istet
ngelisch e
Al so
ĠKri mi
Ġerweit ert
we be
Wo hn
ĠUntersuch u
ostenl os
nde rter
pro gram
ĠUntersuchu n
Le i
phe n
ĠUntersuchun g
Ġsport l
W ER
ĠMitglied ern
ss ungen
ĠdÃ¼r fte
ĠBes tÃ¤tigung
Ġge fÃ¶rde
r richtet
e rrichtet
rÃ¶ ffnung
rbo n
ï »
A ccount
ĠhÃ¤ uf
ĠR ollen
rÃ¼ st
re w
Ġbesch lossen
A nge
quen zen
Ġju n
Ġfre ige
ad y
Art ikelnummer
des t
ĠKlimas chutz
ver sity
ha ut
e sillusio
d esillusio
ĠFÃ¤h igkeiten
ĠNE FZ
Ġ desillusio
she r
Ġ schmuck
ĠUp date
Ġb etten
Ka rte
ĠverÃ¶ffentl ichten
ï» ¿
ĠTi pp
S ER
Ġintern ational
ĠOb st
ĠAb wicklung
Ġ5 8
ett ings
Ġungla ublich
ĠMi ch
kti ver
ĠÃ¼berwie gend
ta rbeiter
ĠVorauss etzung
nzle i
Ġposit ive
Ġjuri stische
Be l
Ġgewi sse
ge stalten
ĠAnalyse n
a c
rn u
Ġdies be
elb e
CH A
ĠZur Ã¼ck
ĠZu cker
sl ehre
M Ã¶
ve rmÃ¶gen
la wi
sto ffen
ĠWelt k
s ec
ĠEin tritt
Ġbest ehenden
pa ket
ĠUrs ache
C AP
Ġkom fort
Ġerke nn
F ilm
L ebens
ĠRo hr
ĠA kademie
Ġprodu ziert
ĠF remd
Ġgena ue
Ġwol lten
Ġab gel
Ã ¼cher
ne rin
Ġeuro pÃ¤ische
ĠKÃ¤ ufer
Ġfest gelegt
ssi erte
rl o
ĠgrÃ¶ ÃŁer
ilie n
EL L
ĠZe ug
G ruppe
Ġbest immen
Ġver mitte
Ġhint erla
ĠLog istik
s chlÃ¼sse
omisch e
Ġbege g
sp reis
ĠFa vo
ĠB ode
rille n
Ġkomp lette
L esen
ĠWo rk
erta l
ĠBera tungs
ĠSchwede n
ets ch
Ġbed rÃ¼cken
M od
Ġ5 9
Ġgel egt
Ġsportl i
Ġbeoba chten
ĠNetz werke
Ġsportli ch
Ġbek annte
Ġkommen tiere
re geln
ĠPerso na
E lektro
Ġredu ziert
ĠDÃ ¼
ritische n
mm l
Ġfunc tion
si ede
ro d
rc edes
ĠBege g
ĠMitglied staaten
tÃ¤ nde
ĠerhÃ¶ hte
ĠHo ffnung
rl y
ĠRicht igkeit
ĠO rga
neh mung
Ġvertra uen
Ġ Sus
Ġb emÃ¼
je nige
Ġge nut
zi d
ĠA mb
A A
ĠPlugin s
E ffizienz
ĠStudent e
ĠBewe rbung
wun s
Ġdesillusio nieren
Ġ SIE
Ġdepri mieren
rs chutz
iblich e
Ġtri tt
i ed
k lassen
Ġex perience
Ġerg Ã¤n
ĠhÃ¶ch ste
eth e
sk y
ĠInd ivid
ĠMa ssen
ĠRei nigung
ĠFi lter
ĠWa ffen
ĠL eh
ĠBe ziehungen
Ġg ebe
ss piel
us ta
ĠNacht ruhe
ĠA tt
eh st
ge nden
Im mer
ĠNÃ¼ rnberg
ĠMittel punkt
lett ers
cke rs
j pg
ĠerlÃ¤ut ert
ĠSpi tzen
ko ntakt
ĠhÃ¶h ere
¼ gen
rÃ¤ gen
Ġste igt
inde x
Ġge langen
T H
ĠMen Ã
ĠWell e
Ġverz ichten
i ÃŁ
Ġb rowser
Ġschlie ÃŁt
nni n
ĠO ffice
ĠA rgu
fÃ¤l lig
ĠR eser
ss tand
ĠEr werb
S peise
ĠFinan zierung
s chmerzen
p hi
ut l
Ġaus ges
ĠBei trÃ¤gen
Di re
beg riff
Ġunmittel bar
Ġge wÃ¤
rieche nland
ĠCO VID
Ġkompl exe
ĠA mp
indliche n
ĠFoto gra
ĠRepa ratur
Ġp ur
ĠVie w
ya l
ĠAbs chnitt
ĠHa ndeln
f lu
Ã¶ rm
J ede
chÃ¤ fte
ĠDienstle ister
Ġeri nnern
Ġange fangen
Ġm otiv
ĠG re
ĠM c
ĠMe ister
ĠRe nn
< /
erst Ã¶
Ġbe stellt
ĠNa tion
ĠHerausforde rung
Ġzu zugreifen
ĠTa rif
ĠCam p
ĠR ese
stliche n
Ġ18 0
ĠVers uch
ĠOut door
Ġatt rakt
Ġher vo
ĠI nitiative
ĠCon version
ĠDe iner
ros e
Ġbet roffen
Ġnachhalt ige
ĠkÃ¶ nne
Ġb ild
ĠScho ko
m useum
Ġehr l
F B
r ve
Ġ} }
les wig
rd urch
ĠBÃ ¼ch
Wi n
Ġehrl i
Ġnach ge
ĠSÃ¼d e
Pro f
wuns ch
ĠSo ziale
Ġverb inden
ĠÃ¼berprÃ¼ ft
Ġehrli ch
ĠSch muck
Ġca n
scha u
De i
mm u
Bei trag
a nfa
ĠBranche n
lte nd
Ġeinge loggt
Ġdurch fÃ¼hren
erga n
rnu n
Ã¤te r
Ġempfo hlen
a tzte
reie n
ĠWa ndel
meth oden
âĢĿ .
ĠCam ping
Ġbet reiben
i nze
T ho
gele itet
Ġ Soli
Ã¤hr ungs
Ġva ri
sse nd
ĠInsti t
Ġ5 1
ĠGÃ ¼
Ġbestimmte r
Ġpo rn
ĠText dateien
p ta
ĠVerbrauch s
ĠIn sbesondere
werbl i
Ġne w
ĠSt euern
ĠE hre
werbli ch
¼disch e
k annt
ran sport
Ġmit zu
Ġvor gestellt
Ġange sehen
ĠParti e
wa ngs
Ġ art
ĠWL AN
Ġschi cken
ĠBre nn
mmu n
ĠI V
Sch Ã
Ġg etan
Ġauf gebaut
ĠSpie gel
ĠQ uellen
ĠE pi
B est
Ġbeinhalt et
ĠBa ye
e lligen
rha rd
eb st
Sch wei
ind ustrie
Ġforde rt
ĠSo weit
Ġp rivat
ĠWeiterb ildung
ĠhÃ¶ch sten
p ubli
Ġerl ebt
ĠP osts
Ġzwi ngend
flÃ¼ ge
ĠKomp onenten
ĠGewÃ¤ hr
ĠB y
i i
Ġdeutsch sprach
pt cha
e fen
ne cessary
ria t
Ġfre ut
Ġnachhalt ig
ĠGeh irn
Ġempfi ehlt
v ern
nz ig
da nn
brid ge
ĠVerl ust
l ender
Ġgel eckt
era pe
Ġzu ges
ze hn
ĠSta r
T u
C T
ĠB aus
Ġum so
rnun g
Ãĸ ffnungszeiten
so d
s ach
go n
ul ver
U L
uu n
med i
Ġze igte
schaft l
rlich es
s chlu
Ġvorn ehmen
cce ss
Ba hn
ĠSÃ¼de n
WÃ¤ hrend
ĠL td
icht et
rha lten
rf o
ĠTÃ¼r e
eben e
ĠRhei nland
In s
ĠGa la
a p
ĠEle mente
versi tÃ¤ts
l ement
re ff
sp ruch
Ġ anfa
bun g
we st
ĠSam mlung
nnin g
uun g
pell e
f luss
Z itat
ĠJob s
Ġre l
eh Ã
ĠNach frage
ĠVe rli
ĠgebÃ¼ gelt
KÃ ¼
ĠAc count
Ġ6 9
am m
ergan g
ĠRechn ungs
H aben
Ġst il
rat es
Nu n
pt op
Ġinstall iert
ĠTri nk
gefÃ¼ hrten
Ġeingeb unden
ĠTradi tion
ĠA udi
ľ R
ta gen
ĠGetrÃ¤ nke
ĠAus fÃ¼hrung
ĠH om
Zi e
¤de r
Sch utz
erm o
s etzte
Re zept
K urz
ĠPro zesse
ĠRat geber
Ġhunde rt
l ust
pf lanzen
e imer
ĠAl pen
Ġgescha ffen
ĠWerk zeug
Ġren om
ĠerhÃ¤lt st
Ġ innen
wi ki
ot ive
-- -
ĠAuf wand
ĠNews letters
Ġ6 6
ĠverÃ¶ffen tlichen
re nn
ffff ffff
produ ktion
go nnen
rea l
ĠMiss brauch
ĠHe lm
Con t
Ġhochwert igen
ĠSper rung
io t
ĠKÃ¼che n
Post ed
ĠPh oto
ĠEuro pas
Ã ¡
Ġkonk reten
Ġmo nth
ga rn
Ġverbesse rt
re na
ta log
Ġvers tanden
ĠÂ °
ĠAd s
ĠG reen
Ġgena uer
pat hie
ĠIdent itÃ¤t
Ġ echte
eh u
schaftl i
B erei
ĠEn g
wirtschaft l
so r
n walt
. âĢĿ
si sten
ĠKi ndes
schaftli ch
Ġhinterla ssen
ĠBundes liga
ĠErinne rung
Ġeingeb ett
nia l
sp recher
e mente
zogene n
ĠlÃ¤ dt
ni veau
auf nahme
mmun g
ĠPa a
rs cht
Ku nst
Ġet abl
n tiert
ĠKla ss
Sch wa
Ġdurchs chnittlich
nd igen
ndan t
T CHA
ho nes
rk ommen
Ġenglisch e
N ot
Ġo ur
ĠK irch
ĠL eder
erle i
Ġum welt
B L
ĠFa ssung
ĠG riff
ndin g
ĠA P
ue s
ĠBei spiele
ĠF eucht
n richtungen
ĠK andi
ĠErkrank ungen
ĠBild schirm
Ġo rdnungs
ĠMenÃ ¼
V G
Ġ chro
Da uer
ĠstÃ¤ rker
ĠCen tre
Ġfie l
ĠMa ss
Ġvo ran
ĠSi nd
pann u
ĠB ru
tegori zed
Ġget est
pannu n
Dat um
ge rn
ult a
pannun g
Ma rk
wÃ¶ ch
Nach halt
ĠGro ÃŁe
E IN
ĠerwÃ¤ hnt
ĠD re
Ġ wusste
ĠAn griff
Ġfre e
wohn ungen
ĠFe a
etu n
chreib ungen
R SS
Ġnahe zu
ĠÃ¼ber zeugen
ĠVerfÃ¼ gbarkeit
Ġ arbeit
ĠEntscheid ungs
ke ln
âĢ¦ âĢ¦
ĠÃ¶ k
Ð º
C C
ĠSchÃ¼l erinnen
ĠErn st
da kte
r zielen
U s
ĠKa tze
ĠPÃ ¤dago
erba r
gebÃ¤ ude
ĠE u
Ġgest riegelt
hlin g
ĠVert reter
Ġhei ÃŁen
ĠÃľbe rp
ĠW esten
ĠMotor rad
Ġ Schr
e rzielen
ĠF as
ĠKon tra
a nforde
ur y
Ġ erzielen
Be wertung
b ringen
rba ren
rb ild
Ġgel iefert
q uellen
ĠKo hle
ĠTelefo nnummer
u k
s epa
ĠFrÃ¼h jahr
P ubli
sti egen
Ġf ehlen
20 08
Ġle cke
d om
bl i
Ġsicher zustellen
Ġnach voll
He rzlich
ĠA nna
Ġ reichen
ĠRicht linie
ni p
Ġf ern
vie r
wirtschaftl i
ĠKonk ur
Ġkei nem
ig no
ĠE IN
ĠImm u
enb urg
fest yle
stelle r
we et
Dei n
chs enen
ĠGesprÃ¤ch e
lbe r
rm s
Ġ id
ĠPe n
E nts
Ru nd
gd om
ĠVorla ge
uelle r
Ġnach zu
wirtschaftli ch
v ieren
Ġge gangen
ĠKa n
O p
Ġzuge ordnet
b ert
Ġents tand
ĠSe ndung
ĠWa hrscheinlichkeit
rh ers
la ut
ema nden
bel l
fei e
âĢľ ).
zei tung
sta b
Ġ5 3
nzl i
Ġ inc
po sition
las h
Ġjede nfalls
pflicht ig
fun ction
u nent
ĠGrÃ¼ n
ĠNied ersachsen
ĠMat omo
ĠSta mm
a llt
a lter
perso nen
ki nder
ĠChara kter
umo r
ltend machung
Ġver h
ĠBe scha
k rÃ¤
glei tung
ĠA meri
ĠBe rÃ¼cksicht
a nne
Ġbeha ndeln
¤ us
ĠSta ub
ili ty
Ġgeb aut
B ereich
cha rd
ĠVorbe reitung
um ber
ĠSch ra
Ġausge zeichnet
f ig
ĠÃ¼blich e
y ch
ft et
ĠB ache
ĠMita rbeitern
Ġbe gonnen
ĠBet rag
ash ion
He l
Ġkom mer
z wei
CAP TCHA
ĠEi ch
Pro fil
ĠAlb um
ĠLese zeichen
st ehen
Ġz weit
ĠMou ntain
Ġdenk bar
Na chrichten
Ġhe ia
ĠSh imano
ĠAff iliate
Ġerz Ã¤hlen
z za
ĠStad tte
Ġtran spa
t elligen
ĠVo gel
Ma gazin
ĠEr weit
Ġjetz igen
ro w
Ti t
ĠMode ratoren
hol u
A K
ĠA na
we tt
Ġ unent
l gemeine
O l
ha gen
ĠBet racht
ĠZ o
feie r
nde rungs
Ġm uÃŁ
r igkeiten
bet rag
ĠA kte
l lgemeine
part y
pa ssung
ĠFrei burg
ĠGrund stÃ¼ck
Ġbishe rigen
lÃ¤ st
ĠL E
ul ga
ssei t
Sit emap
ĠGa n
Ġbeliebt esten
holu n
Wirtschaft s
ste ue
Ġoffi ziellen
G ese
g las
Ġ schwi
holun g
ĠFest ival
ĠWu nder
ĠK lÃ¤
H am
zen sionen
fo rum
ĠAuss agen
Ġda mal
vorg Ã¤nge
H Ã¶
A V
kÃ¼nd igt
st ri
Ġerinn ert
F amilie
Ġst et
Ġk ommuni
ĠGe ltendmachung
e gant
eb nissen
sstaa t
Ġgeb lieben
Ġgegen s
ĠKe y
a llgemeine
eh i
ko rd
rad io
la rm
ĠTre nds
ĠKarls ruhe
ĠTasche n
ĠDenn och
Ġausse h
ĠTe x
k w
Ġverb l
uli s
ĠKredit karte
ldi enst
ĠM os
gi t
m usik
ĠberÃ¼cksicht igt
Ġre chten
FÃ ¼
Ġ SC
ĠUnterla gen
sich e
Ġbeantra gen
Ġke nne
ĠVerÃ¤ nderung
c la
ebte n
ĠZin s
ut ral
â Ħ
a ny
ĠG B
wach ungs
ĠHand lung
s eri
ĠA nb
Le istungs
Ġelektro nischen
ĠSteue rung
Ġca sino
ĠPro be
OLLOLL OLLOLL
ĠKapit e
Ġunb egren
emisch e
ĠhÃ¶h eren
Ġ schme
rbeit eten
Ġfei ern
b ra
Ges undheit
Ġbra chte
ĠAuf lage
Ġgro b
reu nd
bar es
e rma
a nwalt
Ġna vig
ĠWal l
Ġexk lusi
Ġbegleite n
Ġges perrt
eten zen
Ġge recht
ĠSt immung
H N
ĠE ngel
Ġeinf Ã
Ġâ ľ
om b
Ġaktual isiert
chi n
ĠGeschÃ¤fts fÃ¼hrer
Ġlei t
ĠSch mi
sp o
Ġbet rifft
Ġend gÃ
rm Ã
lan ce
e gs
Ġevent uell
ĠGrÃ¼ nder
Ġorgani siert
pa ny
ĠScie nce
ĠBal kon
etische n
ĠG rill
Ġf aszi
ĠOnlineangebot es
Ġvers ehen
Ġheut zutage
ull e
ĠBe richte
stel lungs
r zen
ĠAb t
ex ikon
Ġletzte r
ĠFern sehen
Ġspanne nde
Ġdri tte
ĠLi ed
Ġfa rb
ĠWohn ungen
rei be
Bet rieb
Ġma y
ĠKin gdom
ĠGal erie
ĠKell e
ĠAl kohol
ĠBra ndenburg
Ġerst es
ĠO hr
s tÃ¼
ssi ch
Ġ anforde
ĠSom i
Ġbe ru
Ġwa sse
Ġ Shi
ĠSomi t
fe ktion
Se rie
ĠGrafi k
ir ge
neti s
ma d
ĠC olle
ruf bar
Ġ9 6
Ġdu nkle
ord nen
ĠJ uden
Ġla nd
emitte ilung
fa hrten
ĠTi efe
g h
ĠWill i
Ġopti s
reg ion
ĠFa ss
Ġoptis ch
wÃ¤ch e
â ĺħ
ĠWid erstand
ĠUrheber recht
rdis ch
Ġirgend wann
gren ze
Ġâ ĸ
Ġo pe
la f
T C
netis ch
Ġ dro
ĠfÃ¼ hlt
ĠKapite l
Ġpass ieren
ĠR ost
Ġr eden
wa sse
n telligen
ĠWicht ig
ĠAlle i
n sa
. [
ssin g
ĠSym ptome
Speich e
d rauÃŁen
da nke
nal l
D Ã
r zeu
tch e
Ġge sto
ĠmÃ¼ sste
st immen
A rbeit
Ġbereit zustellen
ĠSi tuationen
ĠM ir
ĠG runde
rgi s
ĠSort iment
ĠEigen tum
ĠzurÃ¼ck ge
Ġerte ilen
#### ####
ĠRei t
Ġ6 8
ĠTo des
zin s
i ntelligen
Ge mein
ĠGebÃ ¼hren
Ġ sepa
ĠDi splay
Ġst imme
F est
lt o
ĠspÃ¤t eren
lu men
¼ cken
ĠStudente n
ĠSch war
u ntern
erke nnung
ĠNa h
Wi ssen
An meldung
d icht
ĠInte nsi
ĠJoha nn
ĠergÃ¤n zt
re levant
Ġbe endet
ĠArbeit nehmer
ib ilitÃ¤t
ĠF erner
cu ment
ĠJ ungs
Ġidentifizi ert
H O
Ġko r
bei trag
ĠVo rstellung
Ġschwe ren
ĠgÃ¼nst ige
ĠE hren
ĠPrin zip
Ġste ckt
vi ert
ĠBa si
f rau
Ġdeutsch land
ĠJ ubilÃ¤
Ġeffizient e
la i
ĠIndi e
. ).
h eimer
pro fil
sod e
trÃ¤ ger
Ġnormal erweise
ĠStÃ¤ rke
Ġ drin
Ġ spiele
ĠI ngeni
Uni versitÃ¤t
ÃŁ es
ah lung
Ġz Ã
P andemie
ra gend
ĠInd ust
ls ch
ren g
e rzeu
ro u
ĠL isten
ol u
zub ehÃ¶r
analys e
ĠKÃ¶rp ers
F ol
lta gs
s tÃ¼t
ktisch e
Ġab weich
b ilder
b ibliothek
ĠF ront
k rÃ¤ft
Ġverurs acht
ĠzurÃ¼ck zu
ĠA frika
Ġk rit
uti s
angeb ote
tat e
cli n
ĠB ill
Ġ Speise
ĠAuss age
ĠCha t
ĠN ase
ĠPubli sh
ĠSch merz
pro bieren
B ike
ige rung
ĠBezi rk
Ġkont inui
Ġbe richten
i nrichtungen
St ra
fad e
V om
Ġ5 7
Ġvo rab
Ġf lÃ¼
rs g
Ġ drauÃŁen
ĠWi eder
ly m
ĠDate ianhÃ¤nge
ĠVeran staltungs
ĠSonst iges
Ġwirtschaftliche n
ĠD oppe
ĠBerÃ¼cksicht igung
ĠSti ch
ehu n
ĠAus gaben
ĠB ike
ĠWa ssers
lant e
ĠT ur
kt iven
ĠBehÃ¶ rde
b oden
nem ark
r igkeit
V erein
ĠChr o
Ġ erwo
ĠAuf grund
. ),
P N
T ri
âĢĶâĢĶ âĢĶâĢĶ
ĠExp lo
hie ld
Ġ7 9
the n
Ġ Sm
Ã¶h u
ne u
Pi nterest
Ã¶hu n
ĠVers ch
Ġoffen sichtlich
Ġbea rbeitet
eue rung
ehun g
Ã¶hun g
âĨ ĳ
ĠCl i
Ġbe zahlt
eb i
ĠHa t
Ġzuge lassen
ĠF ire
Ġb ill
ĠEffe kt
nz a
Ġfra uen
Ġbeto n
nb ereich
nd ungs
rk Ã¶
B O
ru cker
ri fi
ĠHa lt
ĠAd vent
schre iben
ĠCam bridge
roh e
Ġeffe ktiv
Ġ emo
Si cherheit
fen ster
S na
Regist rieren
Ġgel ingt
z ettel
BÃ ¼cher
Ġ igno
ni tÃ¤
ĠNeu igkeiten
H P
stu nden
ĠCo vid
Ġhe il
lig ht
Ġforde rn
e kten
Ġge spielt
ĠHoh e
sbe rg
Ġerschi enen
ĠR ol
D och
ĠTe rmi
P ri
ematisch e
ĠA M
ĠÃ¼ber rasch
ĠDa ta
Ġh y
wÃ¼r fe
Ġk i
Gese lls
ze rn
ĠWill kommen
vers and
Ġerf re
wert ungs
oti s
ĠDe aktiv
Ġrei chlich
e inheit
spa renz
ca tions
ĠVo rgehen
Ð ĵ
F C
ĠKÃ¶r pe
ĠPfla nze
ĠPa ck
scha lten
ĠE cke
zo ne
ĠAn trags
H y
ĠL im
H otel
Ġb rauch
Ġ: )
West falen
ĠEntwick lungen
G O
Ġerschi e
Ġmonth s
ĠSch nell
Ġerfolg reichen
ĠfÃ¼ l
pro gramme
gen tur
f ta
ĠAn re
Ġgelte nd
swÃ¼rd igkeiten
ĠA D
quen t
et ooth
ul ieren
Na tÃ¼rlich
Ġr est
B ad
ĠEinheit e
Ġverste ht
Ġpro t
Ġba siert
e jenigen
Ġnut ze
ruhe n
i ejenigen
d iejenigen
ĠErha lt
q ual
ĠSchm idt
Ġanforde rn
ro st
hÃ¶ rige
ĠSto ry
d ements
nora ma
We rbe
rl ehen
âĦ ¢
ruf s
Rechts grundlage
ĠPharma zie
Ġteil nehmen
zu stand
ĠEin trÃ¤ge
ĠEinheite n
Ge wicht
Ġfest gestellt
ĠPreise n
undh eits
n terla
Ġ dements
rgis ch
ĠFe iert
Pa y
Ġna cht
Ġstatt finden
omi t
ĠRin g
hit e
rte l
sl e
vo rsch
poli cy
nta ct
ĠJa ck
ĠMedika mente
Intern et
e o
S ON
t his
ĠGe lÃ¤nde
Ġbesse ren
Ge ne
Ġsoda nn
Ġ diejenigen
T yp
ĠVort rag
Ġ8 8
Ġunk ompl
utis ch
re nnen
d y
upts tadt
zeug u
Frei tag
Ġva r
ve rhÃ¤ltnisse
i tlich
Ġwo durch
g reifen
F ern
ud ia
k Ã¶rper
ĠTÃ¼r kei
igi ta
n king
ĠausgewÃ¤h lte
ĠW hatsApp
hl o
wan g
Ġbeschrieben e
L ese
Ġverl etzt
bi n
ĠC ann
ĠComp ut
Ġzust immen
ik um
ĠP R
Ġbetracht et
me cha
ni stik
ĠPat e
ĠMa ri
zi fi
Ġca tegory
tud ium
Verla g
ĠPro jekten
Ġfreiwill ig
Ġerleicht ern
F ragen
Ġ eig
ĠbeeintrÃ¤cht igen
kon ferenz
Ġfestst e
ĠÃľb rigen
ulis ch
e itlich
Ġme ssen
ĠZiv il
zeugu n
Ġkompetent e
ĠP RO
ĠI t
Ġve rein
ĠG lobal
Ġdri ngend
ĠArt ike
rfa l
l egant
ed t
fe uer
dr ehen
reite r
ĠBewerb ungs
re nde
ĠkÃ¼nft ig
nf ahrt
ili ch
modell e
rvi ews
fÃ¼ l
Ġz we
Unters tÃ¼t
ĠBe r
ĠK re
na ld
e legant
ĠMa gen
ĠfrÃ¼he n
ĠberÃ¼cksicht igen
u gal
lÃ¤ss l
Ġmob ile
ĠmaÃŁ geblich
Ġha up
B ilder
si chten
sa rt
Ġverschiede ner
Ġ schlÃ¤
ĠEinzel fall
ĠK rebs
ĠGen uss
Ġ allgemeine
um mern
ĠHa ftungs
ki nd
ĠBo rd
pro jekte
K auf
ges cho
Ti pp
rt ungen
so rdnung
ss ysteme
aaaa aaaa
ĠB ig
tt u
Ġhilf reich
p han
Ġ erzeu
Ġhine i
ĠKie l
ĠSo rgen
ĠB am
sisten t
s chÃ¤
ĠE gal
zeugun g
He rr
Ġ christ
wirtschaft slehre
Sch u
ĠAb leh
e inze
ĠTempe raturen
Be wertungen
Ġm u
pa d
Ġpe rma
Ġ( Â§
Ġvers and
pra xis
gericht s
pt i
werblich e
ĠWÃ¶ rter
ĠKonta kte
ĠSport back
rdi n
me ist
re nd
s eid
P ersÃ¶nlich
W hatsApp
Ġbegren zt
âĢ ī
ĠPa d
Vo rheriger
ĠRestau rants
gn ose
Ġfolge nder
material i
ust o
lawi nfo
Ġg lÃ¤
Z ert
ĠK f
ĠPlatt formen
ĠN iveau
a ss
ĠkÃ¼ mmern
Ġdire kten
N ID
ĠAktiv ierung
A t
Ġwunde rbar
materiali e
chre i
ĠRegional wissenschaften
rude r
Ġverb ringen
Ġph y
materialie n
Ġbeton t
ubl e
ĠGes etze
ĠEntfern u
ĠHein rich
ĠEntfernu n
ĠEin verstÃ¤ndnis
ĠH obby
ĠEntfernun g
Ġwert volle
ĠPa ssa
W u
ĠCo w
zi erten
ĠG utscheine
ust i
wo rfen
ĠGe rÃ¤
ĠstÃ¤ rken
Ã¶ll e
Ġt Ã¼r
cha ffen
mml i
ĠAn satz
J eder
imm ungs
ĠT om
ĠI M
ua n
cookie lawinfo
ĠPo ol
spie gel
ĠO ffe
Zie l
ĠÃľb ungen
as y
Ġunb es
ĠGÃ ¼ter
k asten
rankh eits
ĠCo ach
i ners
St Ã
ĠPa tri
Ġerschie n
Akt uell
glÃ ¤
Ġdements prechend
vo rbe
Ġ eind
ĠM aus
ĠDia log
Versch lÃ¼sse
rg ruppen
tte rien
la tions
wÃ¶l f
ĠKa me
ĠtÃ¤ glichen
ĠAbonne ment
i nso
P falz
orma t
Ġerfolg reiche
Ġmit hilfe
Ġenthalten e
ĠtatsÃ¤chlich e
P erformance
ĠPfl ichten
Ġvide o
ĠF rucht
Vo rname
ah m
ĠDe nken
deck u
Ġ ib
lÃ¤ ndern
decku n
ĠE mo
ĠKranke nka
wi tz
Ġvor zu
fu nd
Ġ199 7
deckun g
dat es
Ġfinan zielle
otis ch
ĠLi eb
O d
Ġ199 6
cke ln
Ã¶rd l
Ġ seid
Ġbunt e
Ġz og
ĠT rump
15 0
ĠN otwend
ĠInve sto
Ġeinge h
ĠVo raus
P eter
Ġfi cken
ĠL ange
ĠÃ¼be ra
nd ungen
S etzen
ĠWa nder
ĠJ ean
ĠF ett
kle r
ĠC ol
rfal l
Ġdeutsche r
ĠSch leswig
ĠEben so
Ġge richt
E rs
sbe lehr
ss chluss
ĠB R
¼ tz
ĠBest immung
ĠSo z
\ /
Ġangeb l
ĠWie ner
Ġ+ ++
ĠScha tten
N ord
ĠHe ad
o x
mit glieder
Ġna ckt
Die nstle
BE IT
ĠDatenschutz beauftra
ĠDigital e
ja hres
bi eten
n eter
Ġver wi
Ã¶ rg
ul ina
rich e
Ġ Sebastian
stan t
ĠL iga
icht s
z iger
Ġ intelligen
sp Ã
G rÃ¶ÃŁe
Be ratung
ke hrt
liefe rung
ĠStelle na
Ġangebl i
v il
pi a
ĠBa tterie
ĠWerk tage
ĠR oll
grÃ¼ nden
id i
l ect
Ġangebli ch
si ve
ĠFina nzen
Ġda to
Ġschnelle n
fil es
ĠA sy
fo nds
ĠErn t
Ġbe rechnet
K ostenlose
Ã¼nd igung
twort ungs
Ġunent gelt
ĠschÃ¶ ner
ĠÃľb erg
ĠBuch u
Ġinvest ieren
Ġ1 10
zi pli
lo ge
Ġ setzte
ĠBuchu n
ĠLi n
ĠFÃ¶rde r
Ġfa nden
ĠÃ¤uÃŁ erst
Ġ elegant
ĠBuchun g
Wi ki
kam mer
Ġnormale n
a ts
Men s
da ch
ĠHe n
Wa re
ĠF luss
clin g
retu rn
ĠBa y
wÃ¶ hnlich
ĠRÃ¤ ume
ĠerklÃ¤ rte
ĠverstÃ¤nd l
Ġkl ingt
ĠverstÃ¤ndl i
Ġver langt
Ġselbe n
ĠverstÃ¤ndli ch
Ġ einze
ĠEin trag
ĠCha mp
Ġmi ss
Ġers etzen
ĠKrankheit e
ka y
ĠgenÃ¼ gend
ĠY a
ĠU ltra
ĠI sb
ĠMode rator
ĠH ub
e ils
ĠKrankheite n
rwe gen
rdi enst
ssion a
Ġ1 30
na men
Ġ7 2
ĠTats ache
v gl
w ood
Ġwes halb
Ġst immst
Gesch ichte
Ġabsol ute
Ġdurch suchen
Ġrech nen
ĠGerÃ¤te n
p il
ĠAn wendungs
Ġ any
E rst
Te chnik
Ġausge fÃ¼hrt
Ġausseh e
ĠEmission swerte
ĠGe nau
Ã¶de n
ĠT im
l zu
s ma
ĠFo nds
Ġverei nbart
abe ls
A lt
e rbe
Ġlaut et
ĠBe griffe
Li nkedIn
ĠBe wohner
ĠSpie ls
K O
Ġle ichte
ĠSch ild
ĠJe n
Ga nz
eb etreiber
nne ct
B ro
atzte ile
ĠTel ek
ĠW ette
ĠIn spi
osti n
ee l
mÃ¤ÃŁ igkeit
pa ckt
nf i
Ġ16 0
Ġrea gieren
Ã¤nge rung
sbelehr u
sbelehru n
sbelehrun g
ĠUnte rkunft
Ġm g
m Ã¶bel
Ja hr
ĠLi fe
ch lÃ¤ge
d ecke
Ġvorbe reitet
l Ã¶sen
G u
ĠH yp
ĠF inge
ĠLo hn
Ġinnova tive
ĠBe handlungs
Ġselten e
Ġp re
ĠGren ze
ĠD ollar
ĠD IN
G ut
aste l
ĠMa sse
Analy tics
ĠM ach
ne id
ĠVer lags
ĠMa d
ĠVariante n
ĠSp ur
ĠK rei
Ġgesetzliche r
ĠTo uren
s chÃ¤d
s es
Speiche r
Ġkei nes
Fa n
ĠJ Ã¼rgen
Ã §
Ġkur zer
eba tte
siche r
ĠInternet browser
scha uen
d eckt
ge recht
Ġvorges ehen
ruf t
" -
ĠBe sitz
ĠBl e
GeschÃ¤ft s
ĠAbleh nung
k g
ĠPro ze
Ã¶se r
ĠB latt
ĠNi ede
ĠZell e
ĠErkrank u
pp o
ĠHaus halts
ĠErkranku n
i tem
u ps
Ġwas ch
ĠJa gd
ab wicklung
Ġentwicke lte
ĠB och
ĠBet o
ss ige
ĠNord rhein
ĠErkrankun g
Ġwe ist
yl i
p r
ĠgÃ ¤
hi rd
ĠAn walt
erso rgungs
ĠU nge
ĠVerein igten
ĠHa ltung
Kl ima
L u
P lattform
Ġbek omme
rie fe
ĠPerspekt ive
pp y
sp rechen
e ÃŁlich
ĠB ed
ĠHa lte
K A
P lugin
ĠHi nblick
obi as
Ġberu ht
ĠzuverlÃ¤ss ig
> >
endl i
ĠWahr nehmung
Ġste igen
W ind
ĠHy giene
Ġab geb
ri ums
we nn
ĠI nk
rien tiert
i nhe
Ġver ringe
ĠD J
ĠGeb u
U nb
ĠCorona virus
Ġverb indet
ĠTÃ¼re n
ĠM B
isi erungs
/ .
ĠSS L
u nterla
g old
Ġscha d
Ġhinei n
Gesells chaft
Ġda nke
zeich neten
ĠA ug
ĠEin gang
ĠE ck
M O
ges etzes
ĠKÃ¶nig reich
Ġ SO
ede nheit
ĠBea n
Ġbeteil igt
ĠSi ngle
ĠWebsit ebetreiber
L Ã¶schen
feren t
ĠRei nigungs
Ka t
nfigu rieren
ĠHel l
ĠRat haus
was ch
vertra gs
Ġres pekt
tt et
ehÃ ¤
ĠSchalt flÃ¤che
bes chreibung
ĠFo rd
Z wei
ĠB ook
nche n
scho f
rie gs
ĠProf iling
ĠKa nal
wi ese
F rau
ga zi
olu n
s end
ÃŁ nahmen
ĠKalender jahr
Ġverfol gt
Ġaus get
Ġ9 8
Ġ sig
ĠEnergie n
ĠDirekt werbung
Tit e
ge ist
nd ige
Ġbewe rben
hÃ¶ rer
schule n
Ġaussehe n
ĠImp u
ĠReal itÃ¤t
Ġ6 3
ĠBest ehen
âĢ İ
isti n
verb indung
A mazon
hr i
Ġda rstellen
check box
ĠSt ro
ĠHam burger
ĠCo aching
ĠVa n
ĠJ ungen
G EN
mach ungen
ĠFre e
Pa t
n halte
C hi
ĠR om
Ã ¤us
Ġangen ommen
ha uptstadt
po ol
Ġ see
l ease
ĠH T
Ġfestste l
sol e
ã Ģ
ĠBenutze rnamen
ini t
k ur
ĠGroÃŁ britannien
Ġbesten s
ĠSta tt
ĠTu rn
ĠBe ide
sse rt
ĠKon text
wirtschaftlich e
F R
ĠGrÃ¼ ndung
ĠAkt uell
Ġsi t
k ette
olun g
ge meinde
Neue s
nnis ch
nzli ch
ulisch e
ĠUnterricht s
zente n
Ġgeschlossen e
hÃ¤ ndler
ĠGericht s
ĠlÃ¤nge re
Ġjun g
ĠmÃ¤ nnlich
ĠI H
i nig
endli ch
A nony
zah lungen
ĠB GB
j ob
Ġander weit
ĠSe a
o lt
Netz werk
ers tattung
V ert
20 07
Ġgeb raucht
Ġlokale n
ĠSchlaf zimmer
th ea
00 00
A bl
Ġgetest et
ĠWa ss
Ġermitte lt
zent ren
nzÃ ¤hl
ĠGa me
AT ION
Ġver mitteln
ver lauf
ĠI nn
Ġvermitte lt
g g
Widerruf srecht
Ġschl imm
y n
l lzu
los igkeit
rm u
ĠzulÃ¤ss ig
ĠL ib
Ġ6 2
ĠZugriff s
Ġho ffen
ĠVerb reitung
a llzu
ĠAus einanders
ndo w
ĠKl eine
ĠV Ã¶l
Ġproblem los
Zus ammen
ĠgefÃ¶rde rt
ĠAuss icht
T EN
To ols
Ġ19 45
ĠWeihna cht
t ums
ĠArchi t
ĠTo ol
ĠSon g
sseit e
ra ld
Ġangebote nen
ran e
ĠHi nzu
fl ekt
Ġverl Ã
lÃ¶s ungen
ĠKonfl ikt
D abei
ĠWi rklich
orte r
ĠIn g
ĠausgewÃ¤h lten
Ġintensi v
T R
ĠB asel
ĠÃľb erei
Ġ allzu
Ġwe ibliche
ĠB ab
Nach dem
ĠUni versitÃ¤ts
ĠDe a
) {
ostin g
ĠSpe nde
Ġk rÃ¤ft
ĠÃ¼b ert
ĠSchaden s
ĠNamen s
ĠM il
Ġ alter
Ġunters ucht
omi c
ĠEreig nisse
ĠFÃ ľR
ĠBe wusstsein
Ġeinge laden
t os
s hi
Ga rten
l ern
ĠBesuch s
W L
a go
Ġeinze ln
ĠAusse h
P flege
M ode
ĠgewÃ¼ns chte
st ers
Ġintera gieren
Sam stag
Ġanzu bieten
program men
ĠPart nern
R h
n re
ĠverlÃ ¤
ĠfÃ¼l l
ĠTabl et
ĠkÃ¼ nstle
4 00
ĠVerei ne
ĠAusseh e
ĠWa gen
e inhe
ĠAussehe n
ndliche n
Ġmanche n
ĠFort schri
ĠArzneimi ttel
VerschlÃ¼sse lung
ĠZeits chrift
ĠUm zug
Ġverhi nderte
Ġdeutlich e
ĠSe rien
Ġerke nnt
me sse
i ties
b ungs
ĠProbl emen
will igung
ki ssen
ĠEmpfeh lung
Ġja hre
ĠfÃ¤ hrt
Ġli nken
Ġend et
Schl i
¼t ze
Ġge zogen
Ġsta mmen
Ġ6 1
Ġvoll kommen
dti s
dtis ch
Web s
ĠK uchen
bell e
ĠKunden service
ĠG renz
Se ssion
we chse
sp lan
b b
ĠAus gangs
ĠSch icht
Ġzunehme nd
Mit glieder
ĠCe l
Ġgescha fft
Ma nagement
ĠID s
Ġnachfolge nden
ttle r
ĠNach weis
edl e
rd o
be handlung
H Ã¶he
ĠGal l
ĠTerra sse
ĠEd ition
omp uter
ĠUrs achen
He i
ĠLo go
S oll
Na tur
Ġwa rm
ĠMath ematik
ĠKi efe
ĠKelle r
Ġf ert
ĠBi n
Ġauszu gestalten
sst Ã¶
Ġgarant ieren
f oto
ĠhÃ¶ch st
Ã¶ gel
Mens ch
ĠFreu ndin
I O
ĠMatt hias
k ete
Ġwa chsen
ĠArbeits platz
rte ilung
ĠAf D
p n
Ġ SR
Ġsp ringen
G old
ĠZahn medizin
Ġflex ibel
ĠBenutze rkonto
qu ote
Ġvo rauss
sy steme
P odcast
Ī Ĵ
J uri
e ver
rient ierte
ĠR ud
ĠGrafi ken
Â ¶
sp unkte
Ġne nnt
In halten
ind ungs
ĠF ranken
Ġna tur
nst reet
ĠHand lungs
ĠThe orie
ĠK na
ge rs
Ġ rufen
ĠT y
klÃ¤ rung
ĠW E
vers chluss
Ġje ne
En glish
Ġkla re
ĠEx peri
Bo x
Ġ19 80
**** ****
Ju n
ĠSi ngl
Ġ7 6
tzÃ¼nd u
tzÃ¼ndu n
rf reundlich
rÃ¶ ÃŁ
ĠWerbe anzeigen
ka r
ĠO ft
ĠSa nkt
Ġbeschre ibt
ĠU nbe
Ġ rÃ¶
nta iner
tzÃ¼ndun g
Ġg ib
utisch e
ĠSo rge
Ġweich e
Ġ chine
kat e
Ġeindeut ig
ĠApothe ke
E inen
Ġge arbeitet
ru p
ee r
ri ke
ĠWorkshop s
ĠEin wohner
Fe rien
Ġ Sho
ĠCh e
Ġspie lte
con s
Ġ einhe
Ã¶rdl i
Ġderart ige
Webs e
Ġc am
Ġ7 00
ĠMini ster
kl eid
hl ings
ĠFlÃ¤che n
Ġvi sit
t eren
Ġ6 7
lo gen
ĠGe gner
Ġversch lÃ¼sse
Ġge walt
ĠÃľber wachungs
Ã¶rdli ch
k ret
pÃ¤ ck
Ġ7 8
K enn
d pa
X L
Ġm ilitÃ¤
Ġbet rachten
I EN
la sse
ffe e
ĠgÃ¤n gigen
ĠerklÃ¤ rst
{ "
ĠBel ieb
ĠWerk statt
ĠKl eid
ĠUni versity
ĠKrypto wÃ¤
ĠR S
âĨ Ĳ
p olitische
ĠZ utaten
wi nden
ob l
âĢľ :
ĠA ra
Ad d
F O
Ġansp ruchs
Od e
ab schluss
nstreet map
ĠTe chnolo
e ld
ĠMa rc
Ġermitte ln
ĠBe rater
ĠInfe ktion
ĠMitte la
ĠSig natur
ĠNa d
A nzahl
m obil
ĠErfa hrungs
Tite l
UN D
ĠFa x
Sch we
lu d
ĠMotiv ation
i fo
ĠWies baden
ĠHa are
ĠDe fini
Ġbe rechnen
lu bs
g gen
Ġfunc tional
erste n
Ġentscheide nd
ĠCh em
ĠGes etzes
kra i
Ġdes wegen
ĠL uf
ĠFische r
Tho mas
ve rk
fa hre
Ġhaup tsÃ¤chlich
ĠwÃ¤ chst
ckl i
verb ot
Ġerwe rben
ĠfÃ¼ll e
Ġkonk ret
P ol
ĠCa rbon
menta n
fahr zeuge
Ġl ernt
ĠRu hr
ĠG erne
Sta tus
Ġg u
ĠVerpflicht ungen
ĠÃ¤ ndert
gebÃ ¼hren
p rechen
a nfragen
Aus wahl
fe hler
Ge wi
ĠSo nn
sti n
o w
l ner
ĠMob ilitÃ¤t
erschei n
ĠId eal
rtlich e
va t
lichkeit e
E rn
Ġbe richt
wechs lungs
Ġad d
lichkeite n
Ġres ult
Ġf ri
Ġsta nden
ĠBe amte
ah e
ĠG riechenland
sia t
Ġle id
Ġvo rÃ¼ber
ta uschen
ĠUnters chiede
ĠF ranzÃ¶
b ook
ag ue
ĠAngel egenheit
Ġab senden
ĠSo fort
Ġte e
Ã¶te n
nf Ã¤h
fe ls
ĠZu gangs
ĠW orten
i ntra
tte ln
Ġ drucken
u nn
Ġ inso
Ġge prÃ¤gt
EU R
Ġ dyna
Me rken
Ġschne llst
ĠHi tze
Ġverbundene n
cy cling
f indung
Ġspanne nd
F L
¤l lig
ro hr
? !
so rgung
Ġfeststel l
ttu n
kant e
ub t
Ġge sprochen
ĠErke nntnisse
nf olge
ĠSE O
nb etreiber
ĠPriva cy
ĠFu nk
i ngang
Ġda chte
Ġ schlagen
pi t
ĠB logs
rem ium
pe rn
Ġ zeichnet
ha a
ĠPrin t
rb urg
ĠHilf s
Pla tz
Ġ199 5
Ġ que
t igen
ĠBehi nderung
B y
Ġbek am
ĠPhysi k
ĠLiefe r
Ã ¤d
Ġeig nen
ĠGewi nne
n twortet
efe ld
Webse i
ĠausfÃ¼ hrliche
Ġverfa ssen
Websei t
rb ach
ĠAl ltags
ĠAutom obil
Ġbed ienen
ĠMehr h
Ca ptcha
ĠD yna
A ut
Ġmi tten
W ann
ĠGewÃ¤hrle istung
ĠSto re
Ġre CAPTCHA
dtisch e
Ġerheblich e
Ġerfol gte
netisch e
Ġf lach
Liefe rzeit
Ġge eh
i nforma
M I
Ġsp Ã
e lf
m uster
ĠBÃ ¼nd
neh mern
om Ã¶glich
a ntwortet
if y
meisters chaft
ig h
ri ffen
i tle
Ġ ana
ĠBie r
h lte
gi erte
ĠP lÃ¤tze
ĠSto ffe
Ġpasse nd
ĠTal e
r mer
hÃ¤ usern
Ġsp rach
L Ã¤nge
ĠSchÃ¶ nheit
P lan
ĠAn melde
WÃ ¤hlen
em as
d ers
t op
Re daktion
gesch ichten
s la
ĠR osen
Ġ14 0
Ġmedizi nische
H S
Ġme rken
ĠSteue rbe
ĠSo Wi
ĠO tto
V ertra
T im
Gro ÃŁ
ĠChr isten
Ġnut z
ĠSehen swÃ¼rdigkeiten
Ġzuge stimmt
ĠMai nz
ĠB Ã¶
fe rien
Â« ,
Ġm us
ru ss
ĠW erner
Fi lter
kte ri
Ġspo nta
Ġc omment
gebÃ ¼hr
s chÃ¼
olo gisch
Hol stein
Ġ seri
ĠMehrh e
Ġebe nd
ĠBe f
ĠDienstle istung
ĠVer z
rt ungs
S ven
Ġf este
ĠSalz burg
D rucken
E vent
glich keit
Ġvera bs
z wischen
Ġwirk sam
In tere
gangen e
ĠschÃ¼t zt
Ã¤n zung
ĠBe weis
ĠDoku mentation
Ġverh e
ĠLo ck
produ kt
Ġg ingen
ĠHa llo
Ġeinzigart ige
ka mera
Notwend ig
. /
erta i
Na chricht
¤ nzu
ĠPo rno
Ã ¤nzu
D ruck
ĠAn schrift
ĠMehrhe i
we e
ĠO lym
Ġni eder
cu rity
ĠEuro von
Ġf il
ĠHo nig
wÃ¶hnliche n
Ġbeeinflu ssen
ĠMehrhei t
Ġqua si
ĠG ede
Ġsi tzt
E rlebnis
Ġverhi nderter
ĠCa sinos
vas cript
ĠA cht
wei tern
ĠNeu bau
Spe nden
ĠInte r
ĠO sts
I nformation
ĠVi ertel
Ġz weck
E vents
ĠSÃ ¤nge
ta kt
nle i
o hne
ja cke
oote r
App l
omm o
Ġho w
ĠAbonne ments
ĠgÃ¼nst igen
end s
Ġerkenn bar
Ġeinge richtet
Ã¼be n
H rsg
ĠF R
rkrank ungen
Ġgewi nnt
Zus Ã¤tzlich
II I
c lub
L ive
zie lte
ĠW illen
b r
a nda
rech ner
Ġtran sport
Ġoffe nbar
ĠVerst o
ma x
MÃ ¼n
pro ze
Ġ Sco
Ġposit iven
sicht ig
Ġhisto rische
grund lagen
Ġ echten
Be liebt
Ġwid ers
ĠJose f
Funktion e
ĠTÃ ¤
Stell ena
land schaft
wÃ¤ lte
Ġangen ehm
Ġvera rbeiteten
hnli ches
Ġbe ruh
Ġwissenschaftliche n
ĠF ood
imische n
cherh eits
zis e
k y
ĠUnt erb
ĠG ymna
tÃ ©
rzt l
erl ebnis
Ġ Setzen
1 20
platt form
gleite r
ĠB A
ĠVertrag sschluss
g ha
ika tionen
Mi n
ĠThe me
ĠÃĸ ffnungszeiten
Ġnoch mals
ĠVo rstellungen
ĠCo rpo
ĠTri cks
mb ole
ĠAn scha
Fa rbe
ĠV irus
h ilfen
F lo
ĠMel dung
ĠAus gang
lÃ¤ssl i
Do ku
ĠGerÃ¤te informationen
lÃ¤ssli ch
Ġqual ita
Euro pa
ĠAu gs
Ġgenut zten
ssi c
k Ã¼r
ĠEl ement
Ġhie lt
ĠMa y
Ġeinge gebenen
Ġdo kument
s ensi
ĠJen s
ntra ger
Ġ198 9
ĠIndie n
ss p
Ġ ult
Ġselb ige
Ġko rre
ttun g
rat h
CH T
ĠO rd
Ġdur fte
Ġklein ere
dienstle ister
V A
ĠFra ue
f olie
ĠWa tt
me e
gesch enke
Ġp fl
merk male
Ha upt
ĠSt rukturen
CH E
gefÃ¼ gt
Hin t
rztl i
u nzÃ¤hl
Di s
Ġberufliche n
Ġbel ieb
ĠMei nungs
Port a
lÃ¤ ufe
aus wÃ¤hlen
AR BEIT
rztli ch
ĠReakt ion
ill i
Ġaufge fordert
Ġge zielt
s ea
k abel
ĠHeide lberg
Ġ19 70
ĠP lug
ges amt
ĠFri tz
ĠMa ÃŁe
s ech
Inf os
uch u
Ġgeha bt
Ġ unzÃ¤hl
ĠÃľberp rÃ¼fung
rnt e
abe r
a ngeben
ĠEx istenz
ĠJa zz
inie n
Ġkl ick
Ġeinz igen
ze na
b ur
ĠSchwi mm
L iste
lo hn
Ġ em
Ke i
] ,
ĠAuftrags vera
Ġausge h
ĠVe rd
ĠB ibliothek
kÃ¤mp fung
vor sitze
F otos
ĠO sten
ĠPunkte n
t itle
Ġ- >
Ġges undhei
wa tch
r zeugt
ĠÃ¶ ffnet
Ġprofessionelle n
isi n
ehe nen
E C
ĠBo ni
acht et
ĠfrÃ¼h eren
ĠM uss
nad e
Ġ angeben
ĠD uft
ĠMe ssen
ĠSim o
ĠVero rdnungs
e rzeugt
k opf
ĠGa nze
rg rund
Ġatt ra
s chneiden
Ġdauerha fte
P D
ĠÃĦ ndern
Ġbe zieht
ertai n
s emb
ĠDownload s
vo lta
oli zei
ĠgÃ ¼ltig
pro ch
nnte n
fri sten
Ġ199 4
pÃ¤dago gik
ĠGes etzen
K G
ĠBuchsta ben
Ġunentgelt l
et y
Ġunentgeltl i
fade n
Ġunentgeltli ch
ĠAdminist ratoren
ps ych
ĠEreig nis
ĠAus bau
Ã ±
n teren
etun g
ĠO n
E rf
b ildungen
id o
ĠsÃ¼d l
ĠPe ri
Ġm ode
ĠV W
Ġerforde rt
ĠhÃ¶ rt
J ob
ĠCa rl
ĠGenehm igung
ty pe
l ia
ĠEnt wurf
Ġauf gel
a ndes
uss ionen
Ġ erzeugt
ĠG uta
ma rke
ĠB ach
gen o
ĠDi da
ĠProdu ktions
Ġbeso nderes
ĠNe rven
Ġakt ive
ĠÃ¤h m
ĠsÃ¼ chtig
l endet
ĠHÃ¤ user
Ġge pfl
ra ut
ĠF inger
Ġst rate
ĠBe h
chre iben
fa rben
Ġlang frist
ene rg
ĠG T
euro pa
ĠZuscha uer
th o
Ġhel p
nderheit e
d ran
we tten
ĠberÃ¼h mte
ĠNachfolge nden
P reise
mi ne
s cht
LÃ ¤
Ġget ragen
ok ratische
ĠhÃ¶h erer
Ġebend iese
ĠT auch
uchu n
rlin g
ub i
pla nation
Um welt
re ffen
s child
ĠsÃ¼dl i
Ġhei ÃŁ
uchun g
Ġhint erl
ini ken
Ab lauf
Ġintelligen t
Ġ unn
Ġaus einander
Ġbe hÃ¤lt
Ġz wÃ¶lf
Ġgesp annt
n tworten
ĠSte ck
Ġ16 00
L eben
Ġ ew
Ġerk annt
Ġflex ible
ft ig
ĠLe ague
S ca
ĠImmu n
ĠR ichter
ĠsÃ¼dli ch
ĠU nab
Ġ dia
K lick
s chra
C la
ĠschÃ¶ nes
Ġstet ig
ĠMel dungen
ĠGegen teil
ĠB V
Al ex
ĠWa lter
Ġk inder
ĠN ebe
ĠNeben wirkungen
ĠPfa r
Ġbewe gt
ĠTi rol
es ch
ĠAd ress
AN G
Ġp sych
Ġzug reifen
Ġpersonal isieren
use ums
ĠVerg Ã¼tung
We l
mmli ch
ĠPubli c
Ġoffi zielle
ĠCow ley
link s
Ġperfe kten
rganisa to
ĠP olitiker
W M
pn g
ĠbeschÃ¤ft igen
rem i
ĠL ook
nk auf
ĠN iko
ĠMa rt
fe ln
ĠPi n
" ;
ĠO kt
Ġcont e
Ġja pa
Ġbeeind rucke
igte r
ssiona l
lt h
ĠLe ib
chri tte
ĠEnts perren
Ġlauf enden
chi e
ĠverknÃ¼ pft
sb ereich
Ġzentrale n
ĠMis chung
ĠK lang
mod us
ĠLux us
Perso nal
ĠMe rkel
Ġsportlich e
ĠbeschrÃ¤ nkt
S ka
rba ra
va r
Ġ qu
ĠP L
ĠLux emb
a ntworten
Te rmin
ĠM E
Ġmitte ilen
Ġerweit erten
ĠGefÃ¼ hle
Sch ule
ĠFA Q
lt ungs
Ġglaub t
ĠursprÃ¼n glich
w omÃ¶glich
b ers
ina n
ĠMe cha
ĠEise n
uf ige
d enkt
sÃ¤t zen
ĠWiede rh
ĠKais e
Ġ8 6
Ġruh ig
Ope nstreetmap
ĠZwei fel
ĠDi ngen
u nteren
ĠBe auty
Î Ķ
Ta ge
ĠSchÃ ¼
Ġals dann
ĠRet tungs
ĠForde rungen
ĠPoli cy
ĠD ATEN
be ile
e iners
ĠCa fÃ©
Ġinhaltlich e
Ġ sech
nta kte
ĠGemein sam
ĠhÃ¤ufig sten
ĠPla stik
ĠB rÃ¼cke
LE D
sion s
kl us
Ne w
ĠBenutze rn
Ġschwe re
Di sk
P HA
Strom verbrÃ¤uchen
Ġrei bungs
04 3
lo ve
Ma l
ĠA da
A ktie
ĠgefÃ¤ hr
Ġeinmal ig
S abine
ex planation
nfa kultÃ¤t
ĠRege lung
ĠA qua
ast i
Ġmob ilen
¤lle n
Ġz ah
chuh e
Ġum gehen
ĠEigen tÃ¼mer
Ġges unde
Ġ dran
Ġverte ilt
ed s
Ġ womÃ¶glich
Porta l
Ġaus lÃ¤ndische
pla t
ran geb
abe nd
mant i
Ġanaly siert
ĠHard ware
ede l
ĠL as
Berei ts
ĠRei n
ĠWa hrung
la bo
ĠDe c
ĠKan t
ĠHa ft
sp rÃ¼chen
Ġ9 00
ĠAnl eger
Ġthe o
S ets
ĠMet ern
ĠFrÃ¼ hling
usee n
d etails
ĠMini ste
Ġ unteren
fÃ¤n glich
rla ge
ĠMe rcedes
ĠSÃ¼ da
e ider
ho r
nart ig
Ġne cessary
wÃ¶ch e
ĠDe cke
Ġb iolo
ffe kt
n sonsten
G i
Ġabgeschlossen e
B unde
k n
R ob
a nsonsten
Ġ9 7
ĠPro gramme
wÃ¶che n
ĠA ward
ĠMe ngen
ĠL os
Abl ehnen
i nstitut
S Ã¶
M EN
sÃ¤ ure
efa x
rz a
l p
ĠAl pha
Win t
hn sinn
Ġgesta rtet
Ġzu hause
uli erung
kl eber
ĠKÃ¤ s
u nm
Kei n
Th ema
UNG EN
O n
ĠIs land
m ode
u nen
Ġ7 4
Ġ Sna
ĠWohn zimmer
T O
ibt i
Ġhin weisen
Ġk alt
Ġla sse
ĠPro vi
F E
ck et
ut ure
ĠKon zentra
Ġrel igi
am mer
nsti t
n wa
Word Press
Ġge fertigt
P U
Ġerzeu gten
ĠNot fall
a rzt
risi ko
Ġf reundlich
ĠSe r
Do nnerstag
Ġ sha
einers eits
Â» ,
ĠI so
ĠKon troll
rdisch e
t end
Ġ( "
ĠFlu cht
Ġg reifen
Ġne i
K ur
bi t
ĠverstÃ¤ rkt
Ġk auft
F ormat
Ġ dom
g ne
immt e
ĠZah lungen
Ġbereit ge
n tz
r gel
e ner
ĠC ra
Ġha lte
Ãĸ sterreich
ĠSp Ã
werk statt
ĠjÃ ¼dische
dul e
abi s
Ġ rum
ĠMob ile
pi c
ĠIns eln
Ð »
vors orge
t ipps
ĠPublish ern
ĠVo rles
medi e
ste il
Ġ eva
ĠMÃ¤ nnern
ul etzt
n fe
Ġ( +
na nz
Ġviele r
ĠâĢ ĺ
ĠTe uto
ss tra
ĠSom me
Ġanscha uen
nderheite n
Ġ ille
So weit
fu rter
gis ches
Ġfunctional ities
ub erei
ĠMod ern
Ġfach l
Ġverb i
lche n
ĠAnre gungen
lte xt
Ġanges chlossen
wort et
ste nfakultÃ¤t
G ib
ze ile
Veran twortliche
Ġverwend ete
Ġmusi kalische
stro phe
Ġp op
ĠBean twortung
rÃ¼ s
¼lt igkeit
piele n
Ġ unde
fi lter
Ce n
Ġfachl i
ĠScha u
Ġfeststell e
ĠGÃ¤ sten
ĠBundes republik
ĠGra mm
Ġsto red
ĠIntelligen z
ĠBes ch
Juri stenfakultÃ¤t
Ġ SU
ĠsorgfÃ¤lt ig
ĠbÃ¼rge rliches
ĠE rÃ¶ffnung
âĢ ¯
Ġfachli ch
w oo
ga nda
Ġ ev
pti s
Ġn ebst
etzlich e
ĠE ffizienz
ĠBÃ¼rger meister
nn Ã
ĠUnte rkÃ
Ġconte n
Ãľb ern
nko n
Ġvolle n
N D
b reite
CH EN
ĠverlÃ¤nge rt
F G
ad o
Z T
no r
ĠErn Ã¤hrungs
Ġmehr fach
aste ln
ĠB ibel
Ġ rasch
ĠMi eter
M ann
Mi ttwoch
Ġoft mals
rbe reich
w j
be ln
ma gazin
ifi zie
ĠEinschrÃ¤ nkungen
Ġget rennt
pl us
ĠMa rio
ssi cherheit
Ba ck
ĠJ edes
n hin
jÃ¤hr iger
Ġo ther
van t
hls chrank
emi t
w d
Ġ unm
ĠGa mes
yl l
ĠE ure
Ġab gelegt
Ġha us
Ġha s
Ġerled igt
sta tus
Ġ ansonsten
ĠÃ¼be rf
ĠSam sung
k ostenfrei
M T
ĠG ab
ĠK now
ĠSh e
ĠK oord
tti n
ĠB run
ĠGe fÃ¤
ĠWa r
Ġt euer
f indet
reich u
reichu n
bereit e
Ġakzept iere
Ġru ssischen
ra ktivitÃ¤t
reichun g
Ġange kommen
ĠInteresse s
ĠSe p
Ġansp rech
Ġdiskut iert
rale n
KÃ ¼che
rga ngs
ha ndels
ros ch
Ġmit geteilt
ĠNutzere rfahrung
pat ibel
ĠN Ã¤hr
Ġschre ibe
m ungs
s eher
probl eme
ĠDemo nst
h eben
Die nstag
ĠOb wohl
H D
mens ch
ĠfÃ¶rde rt
da r
ĠRu ck
Ġge werbliche
ba hnen
Ġk rie
iere nde
ehi n
ĠBeteil igung
ĠDaten vera
ro k
Ġconten t
sp flicht
ĠEinb lick
Ġ sach
ĠZei ta
l fen
ĠRÃ¼ st
i sol
i OS
ga u
schÃ¶ n
Ġge ringer
ĠFig uren
Ġn umber
ĠErwa rtungen
i ef
Ġ3 60
ĠRechtsan walt
Ġkon zi
Si nd
ĠTrans formation
ĠPubli kationen
du ngs
ĠBe lastung
edi tion
ĠZ weiten
Ġla nger
ĠfÃ¼lle n
Ve rke
ĠL ight
ke hren
Ġgek Ã¼rzt
ĠH eb
Ġfeststelle n
ĠHei zung
be ginn
20 06
rle ih
ĠFÃ¼ hr
Ġle ichten
Ġva n
Ġhe runter
Ġgewi ssen
ptis ch
Ġanerk annt
J ul
fo nts
ĠBie l
a rbeits
Ġ men
Ġwa hren
ĠM A
ĠVer sionen
ĠPartners chaft
ĠHighl ight
ĠSo bald
ĠGleich zeitig
ĠWo h
Will kommen
ĠMusi ker
. Â«
kte rien
Ġunterli egt
ĠBestand s
fÃ¤ nge
ĠQuad rat
UT Z
Scho n
Ġanzu passen
Ġb uch
ĠDin g
6 00
ĠJust iz
Ġbei tragen
eteil igung
ĠBe zeichnung
ĠU V
z zgl
ĠSt urm
rg eting
ĠC omments
ĠAnt rieb
rÃ¼h e
rdin g
ĠKo r
ĠMe isters
ĠGan g
Le istungen
Re ch
p ause
ru ÃŁ
a nsta
ĠB lo
Ġchrist l
pro be
ĠThe o
mann schaft
Ġnei n
e inig
ĠNatu rschutz
Ġzu kunft
rte ile
ĠE L
ĠJul ia
et ra
ommo n
Ġverb oten
ĠInte rp
tlich es
il des
a rchiv
ort s
ĠDeutsche r
Ġdefini tiv
ĠRechtsverl etzungen
id d
f as
ĠLe ucht
re rke
stud ium
ĠVerordnungs geber
ĠR os
win g
ĠRe volution
Ġ199 3
Ġty pisch
nge nde
n ja
Ø §
gesch windigkeit
pum pe
F S
e inrichtungen
B reite
scha ltung
ra k
ĠJa k
ĠFunktion ieren
ĠBe zahlung
ĠF uss
¤che r
Ġchristl i
ĠDa y
ĠMi ssion
Ġchristli ch
Ġverso rgt
zl e
Le ider
ige o
Ġab wechslungs
ĠTale n
ĠSit zungs
r weitern
Unb edingt
g ni
isin g
nd rom
ĠIns gesamt
Ġbe wertet
kt rum
Ġentsp annt
e rweitern
ĠÃľbers etzung
Ġ schwei
ĠTa nk
ĠBo ts
tl y
sso n
Ġdefini ert
ĠAn passung
Ã Ń
Pa rk
wi nkel
a nhin
Ġ anhin
Ġ ziel
Ja hre
ann a
ĠEng land
rot i
ĠVi ren
gen da
ia no
gema cht
ĠGÃ ¼n
hÃ¤n gt
Ġf roh
n richtung
ĠPa p
ĠGebu rts
ste iger
Ġgewa nn
ĠO rch
oli n
ĠNach mittag
Webseit e
geme ines
Ġme ld
i nbe
ĠMusi c
Ġn Ã¶rdlich
; ;
ĠD VD
k annte
g nis
ĠVol lstÃ¤nd
Ġge lang
Lauf zeit
Ġ erweitern
Ġrecht zeitig
ĠUnterha ltung
t fa
ba n
C A
verl etzung
tu ra
ĠReich weite
ch ef
Ġb ook
ĠFreiheit e
ch merz
volle r
th erapie
ĠC E
igeo n
Ġ sur
Ode r
ĠmÃ¶ gen
i lten
odc asts
ĠBa uen
ĠFreiheite n
t ron
lauto maten
o fen
Ġdiverse n
ĠInternet auftritt
grad e
e inn
Ġexist iert
Ġautomat isierte
Ġver m
ĠE rm
ert h
als e
ĠPra ktik
ke rs
Sa a
me tern
ĠHighl ights
nden z
ĠB ube
B S
wal l
ĠkÃ ¤mpfen
Ġsi ehst
Ġhier von
Ġt rat
ĠPark platz
ca dem
wi rkt
Ġverb reitet
Lei t
ĠhÃ¤ ngen
ha rina
ĠHT TP
ĠÃ ł
em d
Ġhervor ragend
Ġoffi ziell
ĠF ast
ĠBe ine
speich erung
rliche r
ed o
ĠOb jekte
ĠVerpack u
ĠVerpacku n
ĠHe rmann
Ġfremde n
ĠDi ab
ĠKaise r
Ġbenut ze
rfol g
ĠVerpackun g
Ġab out
Gl e
nku nft
B aby
ĠCa r
ĠH abe
ĠG ummi
Ġunters cheidet
ĠKa nada
ea tures
K rise
ige nd
ĠSol daten
rma ls
ĠSch ick
ĠW es
Ġunverb indlich
ĠTalen t
P ak
ide e
ĠKinder garten
ĠGesch windigkeit
ĠL ine
ĠIs lam
sa t
lose r
ĠBuchsta be
Ġmens chlichen
ĠK rankheits
Ġaus genommen
ĠRechtsan sprÃ¼chen
Ġfa nta
rat ze
ĠErweit erung
rg o
sau ger
Ġn ehme
folge nd
pa ra
Ġvorhandene n
ÃŁte n
ĠL etzt
Ġgleich falls
ĠKon ferenz
a ra
Ġge fe
ĠUm fragen
Ġru ssische
p igeon
Geb Ã
f reundliche
ĠPo ts
verfol gung
ĠOl iver
rh Ã
ol um
ol fen
ĠfranzÃ¶ sischen
ĠAuto rin
ompl iance
ĠStudi erenden
Ġgeeig nete
Ġauf gerufen
igen e
Ġwi n
s chmerz
oll y
T ran
H olz
ras e
Ġbes chÃ¤d
( );
ĠA nders
uer y
last et
Aus gabe
And reas
Ġnationale n
F ran
ĠDiagn ose
ĠA va
ĠFre ig
Ha n
ĠGe eignet
chtl iches
viel fÃ¤lt
Ġwo hnen
Ġselb ststÃ¤nd
ĠD R
nso r
Ġstab il
SS EN
Ġenthaltene n
Mat omo
fle i
f lanzen
Ġvi s
ch m
Ã ³
ĠV illa
n trag
mi sierung
ĠRe ha
ff nete
wee n
Ġo rganisato
ad d
tÃ¤ tte
ĠAmp hi
wa chsen
nf lÃ¤che
r ze
p ur
ĠSimo n
h erz
wei tere
ĠL etzte
e insatz
nta t
ĠJahr gang
tt ingen
ĠAn hÃ¤nger
Ġhe rz
Ġerfol gten
ĠTri p
u ktion
iale n
Ġ ehre
ĠÃľbern ahme
ĠgrÃ¶ ÃŁt
n terricht
Ġst olz
otisch e
Mi tte
ge fÃ¤
ri ken
ĠAt om
ĠB oot
ĠkÃ¼r ze
Ġbek ommst
AuÃŁe rdem
ĠVorde rgrund
ĠL ebe
Ġc olle
ĠKlima wandel
e rien
e am
ĠMedi zi
Ġ denkt
Si cherheits
Download s
ĠE rla
ĠAus l
Ġke nn
ĠmÃ¼ ssten
ĠBelieb theit
ĠDida ktik
ĠpersÃ¶nliche r
Sti ftung
Ġers tau
Ġessen tial
Ġli est
ĠÃ¼bliche n
k ompl
rgisch e
C am
zu sagen
h s
ĠJahrze hnten
ca t
ĠMa rie
sie ger
Ġ8 4
ra chte
ĠEinb l
Kommen tiere
ĠEl l
ĠDoku ment
ĠFa hre
i tigen
fÃ¼l l
ĠBekannt machungen
Ġ8 7
vert reter
Ġ199 2
ĠAuf tritt
Ġ sec
cke y
ĠWa rte
ĠVertra ges
Lo go
ĠRi chard
Ġ wÃ¶chen
be stand
ĠEin s
Ġ drÃ¼cken
ĠWe gen
leva nz
Ġsteige rn
ĠHaus es
ĠPfe rd
me lt
Wirtschafts wissenschaftliche
ach im
De nn
Ġhoh em
S um
Ġbasi c
ution s
ws ki
geb uch
ĠB indung
rat zen
ĠC olo
Ġschad e
ĠFunktion s
ne nd
Ġabgel ehnt
Ġkl i
ĠSch ult
Ġheraus zu
Ġelektro nische
ĠA nbietern
nst raÃŁe
An sp
Ġmens chliche
Ã¶ n
Ġerre ichte
gescho ss
a nklicken
ĠKo ffer
tu hl
Ġob eren
Te lefo
i us
Ġlang fristig
rei st
fÃ¼ hre
ri chs
Ġschwar ze
ĠAlterna tiven
O W
rztlich e
Ġtheo r
use l
ĠKommenta ren
rÃ¼ hren
Ġdies mal
na ls
rta l
b ehÃ¶rden
ĠL ad
ĠWa rn
ĠThÃ¼ ringen
ĠAn schlieÃŁend
ĠwÃ ¼ns
ĠV ision
Ġdahin t
Ware nkorb
ĠSt ufe
Ġmi eten
ĠMa hl
werk s
ĠRÃ¼st zeug
Ġab geben
akt ion
Ġhe rkÃ¶
ndere r
ĠLiefe rzeit
ĠTe ppich
et ta
P T
Ġre gu
e rge
Ã¼ber sicht
sta d
ĠursprÃ¼n glichen
wid rige
ĠSy mbol
ĠE a
ĠvollstÃ¤nd ige
Ġta t
ndi t
res po
ĠSo lar
Ġvoll um
Ġausge wertet
Ġaut h
ĠDatenÃ¼b ertra
Ġla t
sstelle n
asche n
Ġ such
Ġzertifizi ert
ĠGe werk
so ftware
ĠAnf Ã¤nger
Ġf otogra
e itungen
ĠMi nder
ĠT hai
ĠEinwill igungen
b edin
b ildungs
we nder
K ON
ĠMÃ¤ rchen
pl izi
ĠBet reib
manti s
Ġb lau
il st
cke nd
zu rÃ¼ck
Ġ anklicken
ĠWÃ¼nsche r
co ver
gen a
k op
B usiness
Sch alt
proch e
pro t
ĠMitglied schaft
pla ce
ĠUntersuch ungen
ema n
ĠBi lanz
ĠRe zension
beste l
Da ss
ĠKomp etenzen
Up date
ĠSoz iologie
Ġauth e
ĠMo nd
nfo rm
Ġumfasse nde
ĠzukÃ¼nft ige
E nd
rgen t
ete rin
Ġauthe n
ĠBÃ¤ ume
ĠFormula rs
ĠBunde stag
ĠvollstÃ¤nd igen
ĠPaa r
ĠD usche
Ġbe fest
nÃ ¼b
ab rik
merk ungen
Ġ94 043
ĠGe fahren
Ġunge fÃ¤hr
vi ertel
ĠEpi sode
e instellungen
Ġ deko
ĠMa ngel
n tfa
g re
ĠZert ifikat
ĠRÃ¤ um
ĠAkt uelle
ĠD A
rat iven
Kom mission
ĠStandard s
proche n
ĠSach ver
ĠMas ken
rum fang
Ġges chÃ¤ft
Ġt hro
Ġ SH
ĠAust ralien
Ġ SW
ĠKo ndi
imat e
Su per
Ã¶ ch
ĠBe rechnung
ĠSp uren
ers chaft
Ġakt iven
ĠVi s
ĠBe rge
Ġ7 3
ĠI SB
schwe ig
me ssungen
rÃ¤ n
Ġ ..
Ġind ire
ĠVer da
ĠAuftrag geber
gn ost
Ġauthen t
ya n
ĠA achen
vio us
wÃ ¼nsche
ĠErschei nung
Ġpraktische n
ĠLo ve
ĠDÃ¤ nemark
P flicht
ĠT ickets
Ġst ri
w l
ch loss
Q ualitÃ¤t
U SA
mantis ch
ss toffe
hin weis
ĠSch lu
a men
ĠRat e
ĠTe rro
ĠEd i
Ġ3 65
Ġauf bewa
Ġo hn
Ġbrauch st
n sbes
Ġ ero
meth ode
No n
B ehÃ¶rden
ĠNutzer verhalten
ĠverÃ¶ffentl ichte
ĠErwa chsenen
Ein ige
ĠDro gen
Ġweiter geleitet
Ġb io
L icht
ĠBauste l
D emo
ĠAb gabe
K I
ĠBaustel l
8 00
Ġha ftet
ĠA a
chni ker
Die nst
Ġbean twortet
Lit eratur
reich es
Ġmens ch
Ġmedizi nischen
U hr
i nsbes
ri chter
Ġ allt
S ucht
Ġschl icht
ĠZ im
lad resse
ĠTran sparenz
ĠAb geord
ĠHe alth
ve reinbarung
Ġ ret
ed och
ĠF ro
ri ker
rbe s
ĠFavo riten
Ġvert i
ĠÃ¤lte ren
ĠLa ptop
M y
O hne
ĠOpe ration
ĠN ote
erfa ssung
e ntfa
A nfrage
E rfa
ĠRe so
ĠÃ¼ber geben
ĠAn erkennung
ĠE ss
Verfa hren
san t
ĠÂ§ Â§
ĠKa th
Ġbeschre iben
ĠSo ngs
ĠAlterna tiv
ĠNut z
Ġauf geh
Ġ errichtet
min g
nb Ã
Ġehema lige
medie n
B ranche
chÃ¤d igung
Ġh u
lb es
forde rung
P RE
cha t
SÃ ¼d
rriere freiheit
ĠBo tschaft
Ġbei nhalten
mei e
O C
ĠM IT
ĠPrÃ¤s entation
ĠKe nne
Ġrein igen
ige rn
ĠVor feld
pa rte
Ġbes uchte
ĠM ose
ĠSi n
G A
ye n
ĠÃ¼berl egen
Ġve rf
ku nd
Ġkennen lernen
ou rs
Ġ7 1
Ġg Ã¶
ĠR em
18 0
lu sion
ude r
ver lag
Ġpasse nder
Se rvices
Ġ untern
b aus
rti e
ema l
i nsehen
ĠÃ¤lte re
il ls
ĠM odel
Ġf esten
ĠB L
ĠK as
bÃ¼ ro
ĠAkt ualisierung
e insehen
use ln
Ġmed i
k uchen
Ġ system
rali s
vo rgang
Ġwa rtet
pa nnen
reiche nde
K L
nsta n
sit es
Ġann ehmen
pe s
nnÃ ¼tz
à ¤
ĠKro a
wer fen
ĠT U
ĠBekannt werden
Ġbea chte
Ġ SÃ¶
Ġhell e
ĠÃ¼ber ras
ĠKo rrekt
ff l
ĠT T
gerÃ¤te n
ĠmÃ¼ sse
Ġzu stÃ¤ndig
ĠEn gi
i meter
Komp onente
verkehr s
Ġcha t
ĠTrotz dem
ĠHe ft
C loud
ĠNachte ile
Ġfra gt
mmlich e
Ġ insbes
ba uer
ĠBel euchtung
ĠD ol
ĠKroa t
ĠG aming
ĠIn haber
ĠPro vision
Ġ einsehen
ĠSa nierung
¼n ften
rage nden
siede lt
Einb etten
Ġange legt
ĠfÃ¼ hrenden
ĠAmts gericht
Ġkla ppt
ĠFlÃ¼ ss
urze ln
ĠmÃ¤nnlich e
ĠAllei n
ls Ã
ig st
ĠSchli eÃŁlich
ĠStÃ¼ cke
fo x
geb irge
flei s
rki n
vert retung
edi enst
nb o
chi ff
ĠFo rst
ch mi
âĺħ âĺħ
rbe nen
rn s
Ba y
ĠPrÃ¤s enz
ĠBe ha
e inbe
Ġ8 1
Ġwo rauf
Ġstatt dessen
Ġbesondere r
Ġ schÃ¤d
Ġunm Ã¶glich
ĠPate n
Wid ersp
Kla sse
AN N
El ement
H u
ĠAlt stadt
Ġge messen
ĠP V
ĠT rust
meie r
L es
Ġirgend wo
e uren
Ġverli ert
ĠTo il
Ġf rau
gazi ne
ĠQua n
ktione l
ĠJa vascript
ktionel l
Ġum zu
old e
k ommt
Ġ suche
ka d
ĠNetz werken
Ġvorli egt
ce r
Ġ stÃ¼t
haus es
ĠBlu etooth
ut zung
P R
ĠSp re
Ġbeeinflu sst
rge nd
Ein satz
ĠkÃ¼ nstliche
ĠL ab
sprech u
ĠergÃ¤ nzen
sprechu n
op l
ina t
reg ister
ry l
sprechun g
Ġglobale n
Ġp ubl
vert i
schl iste
ĠInvesti tionen
erfa hrung
Ġrelevante n
Cen t
ĠNieder lande
ĠInteressen t
rans fer
W oche
ĠWÃ¼r z
ĠK rit
ĠNach wuchs
a mazon
bestel l
ulti n
emi ttel
nÃ¼ gen
z ze
ĠGe wÃ¼r
ĠGebÃ¤ ud
b iert
a nlegen
ĠU St
Ġtrocken e
Ġanschlie ÃŁe
Ġ Soll
mi tten
! "
ss y
Fra uen
um bl
Ġgeplante n
Po wered
ĠBe sitzer
Ges chrieben
ĠEn glish
i fen
ĠzukÃ¼nft ig
t erp
h y
ĠRecht mÃ¤ÃŁigkeit
erst raÃŁe
Ġbedeute nd
Ġrea giert
la sten
ĠFig ur
ĠKÃ¼ nstl
Ġ email
ĠDi ffe
N et
Ġb rau
ĠUn garn
ca tegorized
fi nan
Q ual
cro soft
Ġ SL
ĠTsch e
ni ch
ĠSmartp hones
ĠDisk ussionen
Su pport
nnisch e
Ġauf gefÃ¼hrten
Aus bildung
u ntere
Ġge ri
ĠPro vider
ĠP as
thea tre
gi a
ja hre
u nder
Ga l
ĠKo pie
ĠFrei will
Spe zial
ultin g
b ehÃ¶rde
lÃ¤ ttern
om mern
erg rÃ¼
ĠMann heim
Ġli ke
Be a
ĠK olo
Ġha rmo
Ġletzt l
ec tion
Ġletztl i
ĠSu i
ĠLÃ¶sch e
Ġletztli ch
Ca l
cha d
Ġti me
ĠWissenschaftl e
ĠDatenÃ¼b ertragung
tche n
sst i
Ġkonse quent
Ġ anlegen
Ġgeschi ckt
Ġsa uber
ĠWissenschaftle r
Ġ einerseits
ĠP um
Ġhe ran
ckl enburg
ĠKonkur renz
¤ hrt
Be so
ug u
ĠDi men
Ġ9 2
ĠProfe ssor
G egen
ua rt
me tall
ĠFreund schaft
Ġune rl
rba u
ĠRe nnen
Ġunterha lb
ĠAmphi theatre
ĠEinn ahme
Ġbehe r
Ġo ne
ĠMi x
ĠAc tion
Ġk reative
hÃ¶ rt
ĠKn ochen
ĠT H
Ġ199 1
o nen
Ġge ld
t hal
Ġ entfa
ĠhÃ¤uf iger
ĠEin stieg
ĠBunde stags
Ġeinf a
Vie w
Ġma chten
ĠSÃ¼ ÃŁ
ĠSta tion
Ġver passen
ĠZÃ¤ hne
ĠWÃ¼nsche n
ve rfÃ¼
akt ionen
Ã¤d i
D ri
rge ld
ĠKreativ itÃ¤t
Ġschwar zen
Ġr eser
ĠAb kommen
Ġautomat isiert
n tl
hard t
Ġ unternehmen
ĠEin ladung
Ġr etten
na rzt
a nfall
ĠRe chten
Ġkon tra
ĠBaum wolle
Rat geber
ĠKon sum
t uren
auschal e
ĠSchwie rigkeiten
Ġli ef
Reg ion
1 10
S umme
ĠKa ssel
ĠBade zimmer
Ġerh ebt
fe hl
ĠAkt uelles
F OR
Diese n
Ġba ye
i zung
mant e
Ġbes e
si ne
ĠE M
swert es
ha rt
Ġges endet
Ġlieb sten
chte l
em Ã¶glichkeit
ĠK era
Ġbedi e
Sen s
ehnt e
Ġwar me
ĠschÃ¤t zen
ĠPi raten
sta nde
ĠC C
e lect
ĠTra g
ĠD ampf
Schri tt
ĠAd d
ĠWissen s
wa nderung
ĠAr chÃ¤
ĠgrÃ¼ nen
i ebe
M ini
ĠSchoko lade
ĠA ch
A nfahrt
ĠWeiteren twicklung
ĠAd ressen
va riante
ĠSau na
p lÃ¤tzen
nl iste
Einf ach
ĠMei nungen
ĠBes tÃ¤t
ni ker
Inte rview
ĠPrÃ¼f ungs
Ġve rde
ĠA st
ĠMe ga
Ġwei ss
Ġb reiten
Weihna chts
Ġ9 3
pro zesse
fahr zeug
ma nager
fÃ¼ hrten
unden e
Z ug
e ntz
Ġk lÃ¤ren
eh inde
ĠzÃ ¼
Nach name
Ġdat i
B EN
ĠAus ge
F H
ĠChrist us
G ute
Ġje nes
ir me
oo p
ĠP rio
sbe ratung
gi c
ĠUnters e
nge ls
ĠE rt
wu nden
part ment
Ġt rinken
A ktion
Datei e
mme rt
ĠHer rschaft
ĠAuf lÃ¶sung
ĠArt ikeln
Ġinne ren
Ġph ysi
fli ch
Dateie n
T Ã¼r
empfeh lung
olo gen
Ġfli e
ch eide
ĠSol ch
Ġ ansta
a rm
ĠInvest ment
fa ri
ĠBel gien
ĠMa ma
Ġerte ilst
ss igen
oren e
nd ustrie
ĠMa rs
Ġwei ÃŁen
tÃ¤ nden
Ġ reisen
ĠF olie
An halt
Ġspezial isiert
M eth
bo gen
ĠprÃ¤ zise
Ġbi nnen
wie gend
Ġ untere
Ġrote n
ĠArme e
a rchi
lb um
" ).
x id
ĠI SO
H T
Ġauss i
Ġtraditionelle n
ri fe
vide o
s dorf
Ġbegeg nen
fil me
ĠF ertig
vie ws
ss chule
Ġwei ÃŁe
Ġvollum fÃ¤nglich
Ġange h
& &
ĠPort ugal
ĠTe i
Ġsa n
zieh st
ort h
ĠSti ft
su pport
ĠT ieren
lam pe
Ġbeschriebene n
Ġaus gesetzt
zeit raum
ĠO lde
Ġwichtig ste
ĠPerso ne
Ġfol gte
Sol lten
ĠT hr
Ġauf rufen
ra sse
gele gten
Ga rantie
Ġblock ieren
mei nnÃ¼tz
lÃ¤ rt
ĠF am
Schwei z
Ma rtin
ĠTÃ¤t igkeiten
Ġ schuld
ĠLÃ¶sche n
ĠgroÃŁ zÃ¼
ĠGro ÃŁen
vol umen
ĠB ruder
StÃ ¤
] ]
ĠChr i
In ve
ĠMehrwert steuer
Ġsy m
ĠMÃ ¼ll
l uft
ĠVerfa ssung
nge re
ĠSchlÃ¼sse ldienst
hi nk
ĠschlÃ¤ gt
ssi fi
ren e
cha fter
Ġexk lusive
rmed izi
ĠStudi erende
k redit
chwe ren
ĠFreie n
Ġ sk
ges chrieben
ra ls
ĠHo ff
pa rat
Ġ12 5
ĠR aba
Ġbel egt
W olf
ĠDe press
ĠSch ub
Ã ¨
ĠV ia
ĠausfÃ¼ hrlich
fe hle
i nrichtung
wa rds
Sy mbol
ĠSpa zie
ĠIl lust
ĠBet riebe
kl i
da ktionell
ĠBache lor
ba uten
prÃ¤s enta
ĠUnterse i
ĠUntersei t
fÃ¤h ige
ÃŁ u
Ġfahr lÃ¤ss
ud d
Ġ stelle
ĠUnterseit e
ĠMus kel
cha i
wandte n
ĠSchl ieÃŁen
B re
ĠFlÃ¼chtl inge
" >
ĠO hren
ĠT E
kl inik
ĠMoto rs
20 00
schrÃ¤ nken
sta nden
ĠH aben
p rin
spiele r
pa y
Ã¼ber greife
ufe nde
Ġunerl Ã¤sslich
i sburg
ĠEntwick l
ĠÃľbern acht
ĠBra ut
Se e
ĠKam pagne
ĠEmp fang
hÃ¤ nomen
Ġgewo hnt
ĠRei chs
ĠBro s
ĠTro cken
ĠWa rtung
ĠSp ot
gi es
ĠPrÃ¤s e
Ġbetreffe nde
ibti s
ĠGegen wart
ĠKos tÃ¼
E rste
hi k
Ġ spiel
rhei t
ÃŁu n
chin g
sp w
id em
Ã¼b t
oth erape
12 3
Gle i
ch lÃ¼
C L
dru ckt
Ġsta tion
b ett
ĠNo rwegen
Ġ# >
H isto
ig hl
s how
Pi n
Ġl ese
ĠAdminist ration
pi ere
L aut
ĠAuto rs
ĠErl ebnisse
Ġspezifische n
¤mp fe
Ġge ile
bu nd
Sens e
M obil
A nzeigen
ĠKroat i
gehe nde
orde r
ze pta
nso ren
P P
ĠVerkauf s
ĠSozia les
ÃŁun g
ld o
ĠWeltk rieg
Ġ3 50
LE S
Ġveran twortliche
k rebs
Digital e
S eh
d efe
ĠN ICHT
¼b s
ĠBaustell e
p oten
end orf
ĠMÃ¼ h
gi erten
auss chluss
a rbeite
g ets
ĠPo sitionen
ĠGeb raucht
Ġf rische
iere nden
W A
ĠGewinn spiel
ĠHe inz
20 05
ĠBe sten
ĠKa nÃ¤le
Ġchristlich e
rein iger
s eln
s chreib
vide os
Beste l
F lug
d icke
ĠSchwa nz
SP D
ĠB osch
emitte ilungen
Ġwesen tlichen
v ort
rvi c
H z
ku lÃ¤
Ġb reite
ĠT empo
rb et
ĠVollstÃ¤nd igkeit
Ġj emanden
ĠArtike ls
tu l
ĠiP ad
ĠVerli nkung
nehme nden
B R
men Ã
siat i
b Ã¶rse
ĠF eb
PersÃ¶nlich e
to ur
ĠSt rÃ¤
Christ ian
ve rei
Ba l
i ra
Ġp olitisch
r wÃ¼ns
fe kt
e rwÃ¼ns
Ġba ut
erst i
Imm obilien
M as
V ort
r zeugen
ĠVo rgang
ĠISB N
ĠGene rationen
ĠPhili pp
ĠEnts pannung
be cken
ĠO R
G et
recht igkeit
Ġna mens
ĠLa u
ve rkauft
E rweit
Ġda vor
ebli n
Le istung
ĠjÃ¤hrlich e
r rt
h eber
Ġme cha
Ġfinan ziellen
Ġ ago
ĠHa gen
En td
ĠArchit ekten
ĠkW h
eucht et
ĠÃĦ uÃŁe
i kte
Ġk auf
b ranche
menÃ ¼
ĠI ndex
Ġge fi
cooki es
ĠL och
ĠMag net
Ġ erwÃ¼ns
ga rantie
Ġge ste
ssis mus
ĠEu GH
ĠmÃ ¤dchen
ĠAuf l
ĠBla u
ĠAn sonsten
ex p
ĠDatenschutz richtlinie
fleis ch
Ġo ff
ĠWirk samkeit
izi erte
Ġdati n
Ġamerika nischen
lte re
i des
ri erend
Ha l
iga n
ĠWirklich keit
Ġm ulti
ĠE X
ĠBe rnd
Ġgeso ndert
la uch
Benut zer
vert rete
ige nde
Ġeinzigart igen
tt ert
ĠAb wehr
ro om
s perren
ĠBezi rks
deutsch land
ĠÃľber wachung
erh ebung
Ġdes ign
fert igung
wa chs
ĠZi tro
Ġange gebene
ĠW hi
ĠErinne rungen
ĠGast ronomie
R ahmen
nd eten
Ġbena nnt
ĠMo na
ĠSch wÃ¤
Ġdatin g
rankheit e
rko n
ĠSoli da
ĠBe kla
Ġ: -)
ĠInvesti tion
Ġ radi
pon s
cke rn
e rzeugen
¼bs ch
K am
Ka lender
ĠF ashion
Ã¼r fen
w hi
fer rer
Kontakt formular
ĠBe e
Ġhinzu gefÃ¼gt
nlei t
sab eth
Ġdamal igen
' ).
pe a
Ġthe y
ĠÃ¼b rige
ĠLa ssen
Ġoptimale n
ĠF DP
ma rken
ĠEuro pÃ¤
ndard s
eblin g
Ġpoten t
rankheite n
nked i
So fort
ri th
Ġ anfall
sse rung
voll es
x a
kt op
nc es
ka tego
nu x
ĠGewi nner
ĠFreig abe
Ġ erzeugen
2 50
ĠBenachricht igungen
ges ellschaften
ir ls
erhe r
ĠV ersorgungs
ĠZu ordnung
ur zel
ĠRub rik
th ilfe
Ġg rie
ĠZiel gruppe
Ġfest legen
ĠT aus
ĠKa ssen
nkedi n
ĠVorsitze nder
opl e
werke r
nis men
Ġmeint e
ĠVal e
ĠKlass iker
Ġp m
ĠOs nab
s chm
im um
ĠBoch um
S F
ralis ch
t eils
ĠPerspekt iven
gesch lagen
Ġsich erer
ĠSp Ã¤t
Ġsp Ã¼ren
sta r
ĠE rsten
Ġm ann
ĠAuseinanders etzung
Modell e
ĠK I
ĠP utin
Fol low
ĠBegrÃ¼ ndung
ĠGe nie
Ra um
com merce
Ġgegens eitig
ĠAugs burg
ationa les
erti s
Ġumfang reiche
sam mlung
ĠI nitia
also zial
Ġsex y
e intra
nn land
ĠFlex ibilitÃ¤t
ĠHa rry
Ġre pa
ĠB ri
rakt ikum
gren zung
Ġf rischen
Ġm aschine
Ġdas jenige
Ġemp fangen
Ġunzu reichend
ĠKo a
ĠO rten
ĠHÃ¶he n
gl o
ĠSchne ider
ĠgÃ¼nst iger
Ġab schlie
G R
ER N
ĠT icket
Tro tz
ect ed
nÃ ©
produ kten
ĠSchwe ster
em ini
Fa zit
P lay
ĠThe ologie
ĠSch uss
ĠAn s
ĠKrise n
Ġn ord
ĠBlu e
erse i
iga r
S Q
mee r
A lterna
ĠZu verlÃ¤ss
ĠÃ¼berwie gen
hie r
ĠAn melden
IV E
d s
Ġge nehm
Speicher dauer
ĠGes chÃ¤fte
tudie n
vi erte
Ġgeeig neten
Ġmo mentan
Ġunkompl iziert
Ġher ren
ĠK lÃ¤ge
ri mini
lt ers
Ġk ommu
Ġerha lte
Ġum setzen
ndi e
Ġerte ilte
ĠKu nd
rbe l
e nergie
ĠLe uten
bei trÃ¤ge
rni s
igt es
ĠG emÃ¤
ĠBe gleitung
a gt
Mensch e
ĠMaÃŁ nahme
ĠH R
H ot
uss t
ĠgrÃ¼ n
Å ¡
ĠSta bilitÃ¤t
ĠZ ufa
y outube
Ġpa rallel
p k
ĠSte phan
ĠkÃ ¤
rb l
Ġange sichts
men tal
W R
Ġge ringen
ĠVert rÃ¤ge
ĠP ul
W O
lo h
nsti eg
Re chtliches
izi eren
zi rk
a ct
SÃ ¤
ĠBlÃ¼te n
ĠPh il
ĠzurÃ¼ck zufÃ¼hren
Ġfl iegen
ĠÃĦ rzt
ĠG ua
Tech nische
Ġm obil
ĠD AS
Standard s
Ġbe sa
Ka rten
p x
ĠBo ntrager
Ġbegeist ern
ĠAn weisungen
Be arbeiten
pp ertal
Y o
ĠAn ruf
Ġregionale n
ĠSa i
Ġka tholische
ka u
erf ol
Me l
ĠSem inare
ĠModul e
r zielt
e rzielt
g ibt
ĠUnterkÃ ¼nfte
Ge ld
Ġ8 2
ĠBenutze rgruppen
Ġkurz fristig
ĠkÃ¼nd igen
N ext
ĠWiki pedia
san g
Bes tseller
Ġ chi
________________ ________________
lo na
Ġmass iv
Ġbe que
ĠF ede
ĠHunde rt
ĠVeran stalter
ĠVo rhaben
ufe l
ĠBo gen
bie n
ĠÃľberei nst
Ġ erzielt
ĠStu hl
Ġerb ringen
Ġst op
" );
i nigung
ru ckt
ĠMobil funk
ĠFunktion sweise
wa nzig
Ġge stiegen
JÃ¤hr ige
ĠIma ge
Ġbe urte
c ss
D SGVO
ĠE rklÃ¤
Ġrech e
ID ER
rstel lungs
Ġdurchschnittlich e
Ġ iOS
ĠDarm stadt
Ġdahint e
f ungen
ngt h
Ð¾ Ð
ta il
ĠT rÃ¤ger
ĠCha l
ft igen
ĠgÃ¼lt igen
tu i
Ġemp f
nstan t
A p
ĠTa gs
ĠBen zin
rÃ¼ chte
rbei tungen
ĠVÃ¶l ker
Ġâ Ŀ
ĠErfa hre
D SG
ĠBegeg nung
Ġbed ro
ri zon
Ġbe rÃ¼hrt
ĠTe ig
lsÃ ¤
ĠStÃ¶ rungen
i splay
ĠZ wische
ĠX i
ĠMi nde
B rowser
st ch
ĠAmb i
erfÃ¼ llung
ce a
ĠMaÃŁ gabe
ĠEinb indung
Pe r
e ni
ver mittlung
ĠKi nders
ĠÃ¼bermitte lten
ĠP lÃ¤ne
il ia
B and
Ġregel mÃ¤ÃŁigen
E rl
ĠFlo rian
me rkung
c ure
nde lte
stch e
ĠSich erung
best immung
Ġwenig stens
e gte
ĠFo r
gangene n
Ġerled igen
Ġ dicht
ĠJa mes
ĠÃĦ gy
krÃ¤ ften
nÃ ¼ber
nbe rger
Ġautomat isierten
ĠgefÃ¤ hrlich
O V
cke lt
Ġo be
Ham burg
ĠDeaktiv ierung
geb a
stche n
ĠA nne
ĠSolch e
Ġdahinte r
f b
t eam
S as
Ġda rstellt
ĠKommu nen
i zen
ver mi
ĠPark way
ĠK ids
ĠDa rlehen
ĠK nie
BÃ ¼ro
sp olitik
ĠPress emitteilung
ĠdÃ ¤
ttlich e
B I
D ollar
ĠC ommuni
n tend
Ġerleicht ert
u erte
Ġohn ehin
Ġ Summe
ĠVe rm
Ġdiskut ieren
Ġregel mÃ¤ÃŁige
h men
a me
othe ke
nf red
t n
Ġ sensi
Be ruf
Ġbea chtet
A udio
ĠZe ntra
ĠÃ ľ
ĠAb sol
ðĿ Ĳ
s tÃ¼cke
Ã¤r zt
stu nde
ĠSche ibe
B N
rot e
rganisa tionen
gesch neid
ĠErf olge
Ġaussi eht
Ve rkauf
ma tion
c ou
c reme
ĠAuf klÃ¤rung
ĠBi enen
ĠE rk
Ġfehl erf
ĠVermi eter
== ==
ren zen
nforma tik
ĠSport l
tive s
e ssion
S hield
t erte
Ġfl e
ĠSt rÃ¶
ĠC up
Ã ĥ
ĠEi nbau
ĠBud get
ĠBe stel
Ġfi x
ou nd
bereite n
ĠGesch ir
ĠTech nische
: :
ÃŁt eil
ĠSozial wissenschaften
ĠSchÃ ¼tzen
e nki
Ġ8 3
ĠLa ck
ĠZ y
Ġaufgeh oben
ĠSt ernen
g ast
Ġt empo
ĠCann abis
Ġmo n
meid u
ĠGegen stÃ¤nde
meidu n
Ma g
p os
meidun g
ĠSchri fta
ĠSchÃ¶ n
Ġh d
ĠGala xy
sta rt
v y
cht ete
siati s
oche r
ĠSaa l
ĠDi pl
ĠmÃ ¤cht
ĠMis ch
ĠherkÃ¶ mmliche
hte n
AT E
ĠText il
chri tten
ĠBe la
âĢĵâĢĵ âĢĵâĢĵ
d isplay
si erter
Ġ( =
Ġjunge r
siatis ch
roti s
ĠWi tte
gli ede
Ġvor vertra
ĠVer wa
ĠTre nnung
n auf
ĠPort folio
ĠStadtte il
ĠZei tz
Ġsy st
ĠKraftstoff verbrauch
t fÃ¤llt
ĠVorsch lÃ¤ge
n tfÃ¤llt
, ...
e ntfÃ¤llt
Ġre chte
rÃ¶ hlich
ĠR asen
Ġ isol
f aser
R uss
Ġintelligent e
lÃ¼ cken
rÃ¤ s
k reuz
Ġeinzel ner
ta uen
to rs
Ġgemein t
G EL
Ġmi ni
Ġex tre
CH F
Ġzwe imal
rop ole
ĠBa ute
ĠMo nta
ĠBuch ungs
Ġ shop
ĠP ER
TA KT
ĠPlan ungs
ĠTo nnen
Ġunde rs
Ñ ĥ
ĠLou i
Hin weise
ĠP rit
ild i
Ġli nk
o na
ni stan
Ġprodu zieren
ĠAn lauf
ĠEigen tums
Ġsol ches
ĠEn th
ĠReit e
zi erter
Ġnutz bar
chad e
Ġbet reten
Ġ energ
eh mer
we iler
Ġfa ssen
ĠJa c
rvi erung
Ġ entz
Ġwe l
ĠAuto mat
ĠpersÃ¶nlich es
ĠGeheim nis
ĠNicht s
rig ina
rb Ã
rut to
ĠLauf enden
Ġerk unden
Ġbe fa
rÃ¼s e
ĠSy n
ĠL ob
utl i
ĠBedie nung
Ġbra uche
Aus ge
Ha t
cce ssoires
wa hlen
Ġ antworten
ĠBraun schweig
ab out
ho fen
Ġhe runte
Ġt ext
Er ziehungs
erie l
Analy t
us tadt
ĠÃ¶ fter
ĠHint e
erg ebnisse
Ġf am
ĠK ni
ĠNÃ¤ chte
a nste
chn ologischen
n treten
ĠTo re
ĠSe curity
ĠPro tokoll
ĠHeil igen
wÃ¤ nde
Ġge re
T T
ĠMÃ¤ ngel
ĠV ul
Ġvorauss ichtlich
ĠÃ¶ rtliche
ĠEli t
t rieb
Ġfe iert
ma sse
Ġfei n
So nntag
deutsche n
be ls
Ġbes chleu
ĠErg Ã¤nzung
rbe rg
Ġsit e
Ġ eintra
ĠT ode
Da rÃ¼ber
ĠKom ma
La ndes
ĠLo kal
Wa l
tu nden
Sp rache
Ġ schÃ¤
ĠGe no
Ġab steigend
Ġf ett
M otor
ĠAp r
Ġ einbe
j ournal
ob ile
eriel l
ge funden
Ġ entfÃ¤llt
ĠÃĸ k
ĠLiefe ranten
Ġtee n
ĠVerhalten s
ĠDurch messer
met rie
ĠKÃ¶nig s
uni n
rfÃ ¤
Wa sser
Ġ| --
Ġge langt
ĠGeh Ã
u krai
FuÃŁ ball
e izung
Mensche n
ĠVorg Ã¤nge
ĠSpann u
c ca
Ġreal e
ĠWerk zeuge
ĠSpannu n
ĠAn halt
rotis ch
ĠAl i
Ge rÃ¤te
trolle r
ibtis ch
eh ebung
ed lung
ĠPa ssen
Ġzust immst
Ġwin t
ĠSpannun g
p lÃ¤ne
reu ungs
ers ta
gl Ã¼ck
ĠOst ern
ĠOpt ik
A ust
ĠNeu ro
Ġheut ige
ĠKos metik
ba lls
rkin g
Ġp ort
schaftlich e
Ġge stalt
ĠSig nal
Ġtre nnen
ersei t
rt ner
we lche
Cent e
a ker
uss tattung
ĠAn o
ĠM P
ĠPraktik um
Ġfaszi ni
ĠZ imme
ĠGehÃ ¤
T F
Us e
Ġsowie so
ĠlÃ ¼cken
ĠJournal isten
ierte r
Ġverl o
ĠMig ration
ebe rg
ĠGe richte
rre r
zÃ ¤
ge rechte
Ġinne re
Dire kt
ĠPlan eten
Ġauf gefÃ¼hrt
ĠVe rfol
ĠMi ete
h isto
ĠProt e
ĠC as
ĠB d
¼ ge
ĠZ U
h eitlich
ĠBeteil igten
si nformationen
erh Ã¤lt
rha us
ĠK lage
vat e
gie r
sit zung
wert ige
Ġkonzent rieren
A udi
Ġbe hi
Ġte ils
n terp
W ett
relevant e
ĠEcht zeit
Ġ informa
ĠBlock ieren
Ġna t
Han s
ĠÃ¼berras cht
Auf grund
ra gs
fo r
ĠFrank furter
eb ig
lad bach
j s
ĠPrit love
im l
yt e
ĠEnerg y
Analyt i
LÃ¶s ungen
veran twortlich
Stand ort
Mo n
sta ge
ĠZu lassung
kon omie
ĠGÃ ¼ltigkeit
Ġerweit erte
Ġdoppe lt
rem o
S up
ma g
ĠEurope a
men gen
Ma rken
ĠA nfa
chr oni
Ġfre ilich
ĠProgram mi
Sol lte
gen Ã¶
ls a
Ġda uern
ĠReche rche
lste n
bahn hof
s cri
Ġnied rige
Ã¶de r
K irche
ĠJ Ã¶rg
i pp
ĠMich e
Ġp seudony
ĠEva ngelische
ĠWe hr
ĠgefÃ¤ hrliche
Op tionen
Ġ(* )
Ã¶ pfe
ĠFeucht igkeit
Ġ2 20
tÃ¤t igkeit
erfÃ¼ hrende
ĠTra ge
pa rks
rg eb
ĠKata log
ĠMi ttl
C lub
eri als
sa ge
Ġvisit ors
Ġbek Ã
chwe rden
Ġ einn
ĠKÃ¶ lner
ĠAnd rea
Ġso me
ga sse
ĠAktiv itÃ¤t
Ġmal e
perso nal
Ġ enge
twi tter
fa ktor
Ġst ill
ĠK B
nbe i
D V
remse n
t ierst
ri ss
Nut zung
rp ommern
Ei nzel
Ġta us
uli n
Appl e
Cente r
et ts
Emp feh
ĠO ld
ĠAp fel
Ġma ngel
Me rk
ĠBro w
ĠEin zahlung
ĠgroÃŁ em
Ġkontinui erlich
ĠBewe rber
co re
¤ ngen
h ose
ĠEuropea n
M L
ĠK ochen
Ġgleiche rmaÃŁen
s mart
Ġerwo rben
Ġ right
sa tzes
pack u
{ }
hin weisen
packu n
r zi
Ġtoll es
ĠAd obe
ĠSchÃ ¤d
ĠDatenÃ¼bertra gbarkeit
um i
sische r
packun g
Ġweiter zu
Ġge sichert
ke y
ĠRost ock
Ġso u
ĠKi ssen
ĠStadt zentrum
Ġ arbeits
ĠSchwei ze
ĠÃ¶sterrei chischen
ba t
chte il
ĠSA P
ĠNet work
Ġge stellte
AG E
ĠVerl etzungen
ĠSo rg
richt linien
¼ nkt
ĠWa t
rÃ ¼b
ĠDI Y
Ġqualita tiv
ĠInteressent e
Ġ Sum
vors tand
ĠK reu
Ġzu stande
wÃ¤ rme
st uft
Ġ stell
Ġfi t
ĠAus rÃ¼stung
ĠA V
ĠK ette
Ch ef
Ġbeliebte n
P RO
D em
ĠLi festyle
Jo ha
Ġ17 0
Ġmona tlich
ĠO ver
rat hon
ĠDe cken
fi k
Ġle istung
ĠGe rhard
l eute
i ren
ĠManch mal
Ġle gte
Ġ Seh
O be
ĠInte rviews
ĠPÃ ¤
Ze n
rou nd
mb h
a nfrage
Di a
Ġg reift
ĠHy brid
ĠEuropÃ¤ e
ĠJubilÃ¤ um
ĠScha tz
ĠEuropÃ¤e r
Ġindividuelle r
ĠBe fest
Ba nk
Ġ whi
ĠAcce ssoires
Ġni ede
we a
Ġhei ÃŁe
Ġporn os
La n
Ġbe fÃ¼r
ri ere
Ġauf bauen
Ġvirt uellen
ĠDesign s
s emit
Ġrest l
ĠMo mente
Ġbe ster
ĠzurÃ¼ck finden
ĠSie ger
ĠSie ge
Ġeinge fÃ¼hrt
Part y
ĠMedi zinische
sh eim
Ġgeb a
fe s
Ġange wendet
Sy steme
Ġvorges ehenen
Fina n
Y ou
h otel
ĠSpiel zeug
e rde
ĠZ war
ĠDat i
Ġk ritische
Ã¶t et
ct i
Ġscha lten
Ġsa ge
n ert
ĠLi nien
Ġind ustrie
ĠT MG
ĠAlb ert
wohn ern
Ġzu kommen
ĠIntern eta
ssi erten
KÃ ¤
ĠKe nntnisse
Ġklein eren
Ġ ders
et zungs
Viel leicht
ĠV f
tle r
ĠPra kti
i ff
ĠBeweg ungen
ĠVorstand s
ĠPots dam
ĠMa ssage
Ġeinges etzten
ch einen
d ick
ĠEich e
Ġ erli
Ġste cken
zw ungen
Ġli ebt
O D
ĠkÃ¼r zlich
ĠB lÃ¤tter
pf lan
ĠRese arch
pÃ ©
Ġrestl i
ĠScho ol
lo d
ca r
Ġrestli ch
semb l
' );
ĠShop ping
Ġge il
Ġcha ra
ĠB ut
ĠT reib
Ġunn Ã¶t
zei ta
s ettings
ĠGrund schule
Wei ÃŁ
analy tics
ĠCamp us
20 04
Ġfu n
ĠT rÃ¤
ĠTe chniken
Reise n
ĠDu nkel
M U
Ġab kommen
Ġ ~
ĠF ris
Ġgesellschaftliche n
Re port
c ole
ĠProdukt s
Ġauf get
lauf zeit
Ġle cker
ĠBra silien
L uft
ĠJ edoch
zu sammen
Va riante
........ ........
m y
Ġ anste
ĠSk y
pla y
ĠHo rn
wett bewerb
Ġkomp letten
e inigung
we ilen
ĠO f
¤ nien
Ã ¤nien
ĠSch ad
a nsicht
Ġbetrieb l
Ġanfa ngen
re ide
auf gaben
ĠStand orte
b lock
ĠDri ttel
rmu n
ĠBa kterien
Ġeinge geben
T Z
ĠB r
I talie
ĠZe lt
e Book
ĠVerst Ã¶
ĠPhoto volta
ĠSha re
Ġerforde rn
Ġbetriebl i
ĠZins e
schi cken
Ġauthent i
ra mt
Ġt hird
Ġbetriebli ch
G eben
} )
ndit e
ĠO P
Ġzusammenge fasst
u nterricht
ube l
L ike
D rei
Ġschle chte
ĠW h
gemÃ¤ ÃŁe
Ġge meldet
H eil
Wo rkshop
ĠCo ck
Ġbetre ut
chie n
ĠVerfa sser
ĠEl ect
ĠH ose
qu id
P rÃ¼
!! !!
ĠKarto ffeln
SÃ ¼
ĠAktiv ieren
st immung
ĠWei ch
AR D
Ġ Sca
ĠInteressente n
W il
ĠMas ke
Ġbe merken
sse lbe
Ġ9 1
AC K
tÃ¤ rke
Ġ19 60
mÃ¤r kte
kÃ ¼che
utli ch
ĠDati n
Ġimmer hin
W G
ĠPro mo
Ġgericht l
ĠAb weg
pp l
ĠW IR
ĠCha rakt
Ġnachhalt igen
Wicht ige
n p
ĠVerfahren s
Ġgerichtl i
Ġgerichtli ch
wa ys
Ġklick st
n richten
Ġim pro
erseit e
pe ria
Ġdu nkel
sslich e
et zer
ĠH E
10 3
ĠUnivers a
ĠU hren
ĠKroati e
M usi
a ccess
k uss
ĠG ibt
Ġkommuni zieren
tale n
Ġwa hre
A pps
Ġnavig ieren
n lÃ¤sslich
Ġkonzi piert
m usi
ĠRes pekt
ĠAmeri can
cla imer
ĠGro ÃŁteil
P lus
ĠHel fer
be rater
ĠerÃ¶ ffnen
ĠV ON
ĠDatin g
ĠGrÃ¼ ne
Ġunders tand
ĠFlÃ¼chtl ings
ĠFran ci
ĠMa gd
ĠVer vielfÃ¤lt
a nlÃ¤sslich
plizi t
ĠVe reinba
Ġso nn
ĠLÃ¶s ungs
sst rategie
Ġhoh es
p hone
Ġnach weisen
ĠZ wangs
Ġsti eg
ĠNo rmen
ĠOberflÃ¤che n
s chloss
lÃ¤ s
ina tionen
Ġvers endet
Sta d
ĠWÃ¤ s
ĠC ash
ĠI na
ufa ct
be utel
Ġdem o
ĠVerb indungen
Ġdiesbe zÃ¼
Ja n
Ġge fahren
ruck s
sti egs
ĠNachba rn
Ind ustrie
hop Ã¤di
ĠSui t
sembl e
cen s
ĠKroatie n
Ġnega tiv
Ġschriftliche n
ĠAust ria
id l
ĠRa u
V erfÃ¼
Ġ sh
O h
ĠKandi daten
fi nale
Ġst ehe
Ġorgani sieren
ĠAn ton
I Z
ine l
ĠT es
umbl r
sstÃ¤ tte
ĠErscheinungs bild
Sa l
ĠVe rh
ĠVER ARBEIT
ĠFel ix
sta tur
Ġ ukrai
wi rt
rm t
. *
Ġpro gram
Ã¤h lung
Ġdank bar
perso n
ĠAuf fassung
Ġ arbeite
Ã¶s u
ĠTre ffer
ĠSem ina
Ġ Î
Ġscha ut
ĠP y
iert es
unin g
ĠW ann
ĠFea tures
Ã¶su n
ĠManch e
ĠSch lo
ĠZinse n
Ġinteg rierten
erb ehebung
rstelle r
ĠElektro nik
b edie
Ġâ ĺ
Ã¶sun g
Ġ202 4
Ġinspi rieren
Ni eder
Ġlei s
ma rketing
20 03
wun g
P G
ig et
ĠWÃ¤s ch
rg abe
Be n
ĠMod us
ĠDenk mal
g ue
IC E
ĠR ights
ĠEx port
ĠInvesto ren
ĠÃ¼bermitte lte
t ran
ĠÃ¼b rig
La ge
ĠFÃ¼ ÃŁe
ĠvielfÃ¤lt igen
MÃ¼n ch
Ġvo llem
Ġver da
Ġgesta tten
Ġalles amt
Ġ anlÃ¤sslich
enk u
Ġvier zehn
rÃ¼ ckte
rod e
ĠPÃ¤dago gik
Ġbereits t
Ġsponta n
ĠÃ¼ber wachen
rtie r
ĠR ote
ĠVie r
cht a
lo ver
ĠEx empla
nzle r
Ġmed ia
ĠSt ick
ĠSchaus piel
ho fer
oll eg
ĠDritt land
i nbar
uf ers
F ort
s chnittlich
ve rfa
ml e
ĠSto rage
ĠComput ers
e inbar
ĠzurÃ¼ck ziehst
ĠAuto bahn
ĠZuf ri
rmun g
ĠElit e
ĠKf z
Ġch emische
ĠExp erte
rg ebnisse
ents cheidung
ĠKo nstruktion
obe l
ĠKl einen
agen tur
Ġgeb eten
fl ix
ĠMensch h
v erteid
ĠFerien wohnung
ĠMenschh e
Ġbereitge stellten
ĠMenschhe i
ĠâĤ¬ /
ĠMenschhei t
ĠUm zugs
ĠE rteilung
heil kunde
Word s
Pay Pal
ĠM ult
Ġst ehenden
ub ern
igita les
ĠgrÃ¼ ndlich
ch eine
ĠSt yle
mÃ ¤ss
ĠLe e
ĠGe i
urt stag
ĠPart ne
f r
ĠGra z
ra rbeit
ĠA ma
Ġgesch ehen
Ġ Sucht
f y
Ġauf steigend
ni tt
the k
i nh
Abo nne
ge walt
Ġunterschiedliche r
ĠF lasche
ĠKÃ¤s e
ri tten
Ġeink aufen
ĠwunderschÃ¶ nen
ĠBab ys
ma ngel
ĠAspe kt
c amp
nan t
ĠgefÃ¼ hlt
Ġverein t
ike rn
ut et
h em
. Â»
ĠKÃ¼ ste
ann i
Ġp fla
bes chrÃ¤
nba nken
ĠWÃ¤ hlen
chlie ÃŁen
Ġvorli egen
sta hl
ĠInterp reta
Ġ19 50
i cle
ffe rn
u des
imi t
ĠErke nntnis
ĠGegen stand
ĠU K
Ġabe rmals
form ula
Be richt
¤ mmung
n vollstÃ¤nd
hi nge
u nvollstÃ¤nd
ĠEink lang
rha nd
ĠEi e
ĠIntensi v
ĠNutzer daten
Ġgesch Ã¤t
Ġ service
Ġorden tlich
Z ust
ri ne
ĠLiefe rungen
ĠGra s
matische n
ĠG ratis
Ol iver
N ER
ĠKi ta
na cht
Ġstatt findet
pat i
ĠA nbau
Ġkulturelle n
bo ts
go ni
ĠEmp fÃ¤nge
ĠO fen
Ġ defe
ĠSp rit
Ġf f
verti s
R es
rg et
ĠZelle n
ĠZentral e
kei ne
so rten
ĠÃ¼bern ahm
chade n
ĠPro fis
f reundlich
Ġeno rm
Ġgeh olfen
ge ht
Ġspanne nden
lauf end
erh eits
ĠP os
ĠLand tags
ole ranz
jÃ ¤
rge wicht
ĠBe fra
rui t
Wel l
ĠTra uer
ĠBiel efeld
C ard
p id
ĠRe l
rie rungs
ĠI ran
Ġvi erten
ĠMod erne
Ġab melden
ĠHi erfÃ¼r
ĠFert igung
ĠgewÃ¤ hrt
Ġ \
Ġim pl
Ma r
ĠImmun system
yl inder
Ġsich erstellen
kl ickt
_ .
vi ce
ĠKÃ¤ lte
we tter
ĠV R
ĠK ommen
Ġbed euten
ĠWun schliste
ĠWirtschaft si
ĠLoui s
Ġ dicke
grÃ¼ n
F ri
ĠSa men
ĠKi ndert
ft ige
ĠSchri tten
il ian
ĠDi et
jekt iv
s cheinen
ĠInstit ute
ĠE C
Ġ Ska
E t
Ġbewa hren
ĠW eber
B lack
ĠPoten zial
be finden
ĠvielfÃ¤lt ige
B ildung
ho ff
V erl
ĠP fund
rol e
gesch ehen
lch es
Ġ schneiden
Ġumfang reichen
Ġkomfort able
Ġv erteid
wohn h
wohnh e
aus cht
Ġnachfolge nde
Ã¤t zen
ĠDienste anbieter
hi um
Ġga lt
Ġkom pakt
Ġauthenti s
ĠOnlineshop s
n ion
Ġ[ [
ĠA sien
Ġauthentis ch
Ġ schreib
ĠImp fung
ro rd
I nne
ĠDatenschutzbeauftra gten
ĠLea sing
Ġle git
Erziehungs wissenschaftliche
ĠTh emas
ĠBÃ¼ch ern
ĠStrategie n
reife nde
ĠRe ad
ĠT obias
ĠRegen sburg
Ġmorgen s
rfreundlich keit
Ġka p
ib i
ĠA rn
ĠR ema
ĠBenutze re
x o
Ġ unvollstÃ¤nd
ĠEnergi ee
ko rb
ĠZuverlÃ¤ss igkeit
u nsicht
ĠAdvents kalender
b Ã¼rger
Ġaus probieren
ĠT F
Ġabge geben
ĠEinzel h
ka pital
ildi n
Ġuna ngen
ta a
K inde
ĠSicherheits grÃ¼nden
ĠN AT
Ġ dick
ĠHÃ¶ chst
n igt
PrÃ¤ sident
Zi tieren
ĠKa sse
be werbe
h ersteller
n gaben
Ġvorli egenden
ĠBB Code
ĠMÃ¼h e
ĠUS D
Ġty pische
Ġauszu werten
nis h
to ring
b re
tu rn
ug eb
Ġt ot
ĠMe eres
ildin g
we lten
Ġpotent i
n os
H unde
izi erten
unge r
nach weis
ĠMo rd
¤mp ft
ĠÃĸl e
Ġvor sichtig
W es
utsche n
ĠDefini tion
ch einbar
vo rst
Ġrestlich e
ĠL G
nie rungs
a da
Ġange kÃ¼ndigt
Bestel l
ĠverfÃ¼g bare
forde rn
D ritta
ĠCB D
ĠB ER
ĠM useen
Ġansta tt
Ġbet reibt
zi pien
e z
Sta a
spe zifische
Ġinteg rieren
Ġsorgt e
ĠNi co
ĠAb melden
ĠEr wÃ¤
Ġverabs chied
ĠUmsatz steuer
ĠErs atzteile
ĠP olit
G ehe
r gs
ĠAugen blick
ĠOsnab rÃ¼ck
Stell e
zie n
n immt
ĠChro me
ĠC R
st yle
f amilien
ĠKoa l
ĠD ebatte
co des
âĨ Ĵ
ĠAufbewahrungs fristen
rieben e
ĠA hnung
ĠLandes hauptstadt
ĠFa c
Ġn ett
ET ZT
Ã ¤ngen
ĠBeschÃ¤ft igung
Ġzusammen gestellt
ĠHa rmo
ĠAnge hÃ¶rigen
ĠB ull
mal l
ĠEink Ã
e ihen
ĠSuit e
ho me
Ġbe danken
ĠSwi ss
Ġbundes weit
Ġvers uche
ĠVors orge
ĠLuxemb urg
Ġges unden
? "
ĠSuch maschine
kom fort
k olle
ro a
rf unktion
sp rung
ĠRicht ige
Ġeinge schaltet
ĠWa ndern
Ġaus fÃ¼hren
Ġern eue
selb e
ĠTou risten
stud io
Ġpotenti e
V oll
ĠKÃ¼ hlschrank
ĠbegrÃ¼ ÃŁen
ĠMa ke
Ġge lassen
chi rurgie
Ġve ga
s cheinbar
geb racht
ulta t
ĠDes igner
sth e
Ġ Script
Ġverle i
ĠA gra
ch w
Ġkor rig
Ġk ra
ã ĥ
Ġbetrieblich e
me lder
F rÃ¼h
ĠM S
ĠlÃ¤nge ren
B aden
pa ganda
pi xel
gel esen
Ġbes uchten
op o
Exp erten
Ġf eatures
Fo rschung
Veran staltung
Nachhalt igkeit
ĠSur fe
Ä ±
ĠN ehmen
chÃ ¼sse
Ġve rkl
AL L
ĠBeto n
t ert
ut zen
Ġ Sven
rf ormance
gren zen
ĠÃ Ĺ
Ġp oli
ĠFu nd
ĠKÃ¼r ze
ion i
ĠPla tten
ĠW unde
ps eln
ĠH osting
ĠD M
kische n
Ġte ilt
Ġeintra gen
Ġlan gl
Ġver mein
Ġkontroll iert
Dritta nbieter
vate r
e chter
ĠHerstell ers
E nde
Ġ sperren
aus bildung
ĠAd Sense
ertis e
ĠTi me
ges chritte
ve ster
os ex
ĠSchick sal
versich erungs
Sch ul
l fer
o rgen
rmal ink
to ry
ge lung
usto mer
ĠW C
i fer
Da nk
kale n
C ommunity
oun g
c rollen
ffi c
Mi tarbeiter
Ãľbern ehmen
ĠR am
cadem y
Ġbehaupt e
stÃ¤ dte
Ġange wiesen
Ġschwe rer
chai n
riel l
ĠUl rich
ĠZ ust
lo ne
Sonst iges
ro rden
ĠSchuld e
ĠD U
Ġthro ugh
ĠD utze
ĠZug riffe
Ġgro sse
c ula
xt e
ĠwÃ¼ns cht
ĠBÃ¼nd nis
l isten
z ch
verb andes
ĠMad e
ĠA C
Ġha lbe
chrÃ¤ nke
c ifi
ĠDe ve
chiede ne
ĠVersich erungen
ĠBeschÃ¤ft igten
Ġveran twortungs
ĠHochschule n
ĠBe ck
cka r
ĠL ichte
ĠB om
i nterp
Ġkommer ziellen
f red
Ġp ubli
fe ste
Na cht
t eri
ĠWa rs
ĠG ol
ĠF eu
tasche n
ndant e
ĠAU F
ĠP ha
tt ch
Ġschla fen
ĠEntwickl e
Ġ tag
ĠMenschen rechte
Rad io
tu nde
n recht
Ġge antwortet
ĠBe sondere
y out
ĠKa rt
viel e
ss pie
ĠM useums
ĠKam mer
unterla gen
fÃ¼ll e
dakte ur
ĠPrÃ¤ mie
ab sicht
ĠKant e
ys e
Die nste
s ession
ĠE ta
fu ÃŁ
ĠA T
ĠPri ma
Ġgelegen e
ĠO ra
h yd
ertain ment
Ġb re
Ġ euer
log o
N L
ĠFo rmel
Ġanonymi siert
Ļ ¥
fÃ¤h igen
Ġpotentie l
K V
ĠSchlag wÃ¶rter
ĠendgÃ ¼ltig
zia les
M ER
Ġfalsche n
ĠMiche l
l enge
ĠEinbl icke
Ġk redit
ĠWeb fonts
ĠWirtschafts raum
ĠX L
ĠVerk nÃ¼
ĠMÃ¼nch ner
Ġelektro nisch
ĠRe kord
Ġletzt endlich
ĠT rinken
Ġveru rte
ĠF laschen
Ġeinget ragen
ĠM ed
Ġpotentiel l
Ġalterna tiven
ĠAbe nde
lage rt
ĠKa pazitÃ¤t
olo ge
wohnhe i
wechs lung
ĠKu gel
rmi ttel
tt Ã¤us
Ġfest zu
bÃ¤ nder
Ġf rage
ine a
pa nne
Ġum zusetzen
Ġders elbe
ĠAuf nahmen
Ġelegant e
ĠSorg falt
ST R
woo commerce
I X
ĠGÃ¶ ttingen
wohnhei t
ĠMiet wagen
ĠBestÃ¤t igungs
ĠQu i
im ieren
ĠP fi
ĠLi eder
IL D
f ers
Ġhie ÃŁ
Ġfra gte
ĠBundes ministerium
F irmen
ĠProfe ssional
ĠEinzel nen
ĠhÃ ¼bsch
ĠNachr ichte
Ġp lugin
ĠAnt ib
Z immer
ĠUm stÃ¤nde
ĠnÃ¤ch stes
ĠWa rm
daktionell e
Ġ zeichnen
ĠtÃ¤ gliche
ĠMe ist
eg ram
A chtung
mel l
Ġgro sser
ĠC ur
zte r
ĠLÃ ¼be
ĠVermi ttlung
Ġvi erte
ffi zielle
ĠGru ÃŁ
Ġzu folge
d rÃ¼ckt
ĠT opf
co rd
dre ht
ĠGe gend
ĠWÃ¼rz burg
n ote
¤ch eln
ba sierte
ĠSM S
ntend o
âĢ Ĥ
Ġkl ima
ĠBege ist
Ġemo tionale
Ġo kay
Ġperma nente
ĠIngeni eur
ĠTi n
cha nge
ĠGall e
Ġ Å
Ġfre ig
ĠEinzelh e
ĠGerma n
Ġnachvoll ziehen
ĠAkt ualitÃ¤t
Ġrei ne
Ġpfl egen
U E
Ġverschiede nsten
ĠBa n
ĠTe sta
na vigation
ĠEie r
cel l
ios e
Ġvide os
ĠLe vel
ĠKonze rn
Ã¶d i
ĠF eh
Ġmensch e
ndi nnen
ĠKa ro
ĠK em
ĠNeue n
ĠWiede rerke
ĠDaten erhebung
mate ur
ĠBe ne
Ġerg o
ĠBern hard
ĠVerl Ã¤ngerung
t erm
Ġbe enden
g ru
ĠkÃ¶rpe rliche
p resse
Ġbei nahe
ch enken
ĠKÃ¼ hl
mantisch e
ĠDeko ration
ĠKomp o
Ġab ends
ĠE ige
Ġzweite r
ch eiben
ers a
ĠLi ebling
ĠgrÃ¼ ne
Ġstra f
ĠOsts ee
ĠEntwickle r
ĠunabhÃ¤ng ige
pa cken
prÃ¤s enz
rkl iste
Ġdro ht
ĠCro ss
d eve
Ġk ritisch
ĠSe g
ĠR oth
ff punkt
ĠBundes land
S ab
ste chnik
ĠRe na
end igung
ĠÃľb u
nlich e
d ose
ĠAn stieg
G lÃ¼ck
gen annten
ĠÃľbu n
BÃ ¼
Ġdarauf hin
Ġwie so
po i
em Ã¤ÃŁ
Ġdre ht
rf reundliche
xe r
kl ima
Ġso was
ĠCal l
ai s
ĠCa rd
Ġdur ften
eti pps
M B
nce r
ST ER
Ste fan
W F
C lick
ĠGl i
Ġco ol
Ġ scheinen
ĠPsych otherapie
gabe nd
K opf
beg riffe
{{ /
Ġli eÃŁen
ĠKauf preis
sto ck
ĠSonst ige
U rheber
c reen
s crollen
S orten
Ġausge richtet
ĠHans e
Ġnach lesen
Ġeindeut igen
ĠKrimi nal
oot i
ĠSurfe rlebnis
ĠInstru mente
Ġabges ehen
ĠgemÃ¼ tlich
pa ct
ĠKapi ta
rech nungs
Ġwu nder
ws ers
ĠwunderschÃ¶ ne
ket ball
ĠÃľbun g
ĠDiese l
ĠKo pien
ĠTel l
ĠFinan zierungs
igi n
Ġur heber
Ġrenom mi
ĠEin schÃ¤tzung
Ġauf t
Ġvor wiegend
Ġsam t
Ġumfasse nd
verb Ã¤nde
nach folgend
ĠGe halt
Ġ euren
ĠT LS
hu n
ĠBe rufe
Ġdem okratische
erga ngs
ĠGewi ssen
Ġverurs achen
Ġk os
d iver
ĠBetreib ers
Ġste rben
t erg
scha d
Ġn ahmen
Ges amt
ĠWe ine
Ġ schmerz
ne nden
f Ã¶rm
e sse
Ã¤nzu ngs
ĠLo n
ĠGu ide
ĠDu isburg
ĠPrÃ¤sident e
Ġk raft
Ġversto ÃŁen
Ġind i
Ġumfa ssen
ĠA sso
ĠGesetz geber
1 000
chn ungen
eriell e
Ġander erseits
Bo ts
tÃ¤nd ig
ĠBe ach
Mi et
ĠLi eben
Ġzu ordnen
ĠKon su
ĠTre ppe
16 0
ĠEinzelhe i
mte r
ĠUniversa l
ĠEinzelhei t
fol ger
oth ek
ro rt
ã ģ
rÃ¤ uch
Ġ2 30
e co
Ġgrundlege nden
Ġgelungen e
ga nz
M ir
ĠKera mik
ĠReakt ionen
ĠAb i
St eue
n tn
nges ch
Ġab rufbar
fu hr
gut achten
ĠL ungen
Ġ scrollen
Ġbe nachricht
ra tu
zch e
ĠTÃ¤t e
s per
ĠW urzeln
ĠRechtsverl etzung
ĠWohl befinden
vert rÃ¤ge
Ġge fordert
Ġni x
ĠBre mer
ge lb
Ġarbeit ete
Ġ198 8
ĠBea chten
K oope
Ġbeoba chtet
Widerruf sbelehrung
M useum
rai n
rÃ¤um l
ĠSpa rkasse
gene r
ĠPa norama
fÃ¼ hl
Ġb ritischen
K K
sstaat e
ss pe
ĠB rem
ĠEr ziehung
st rom
ĠVervielfÃ¤lt igung
ĠNa gel
Ġev tl
ĠZi ffer
eh rt
vi c
rgi n
Ġeingeh e
ĠInstru ment
rÃ¤uml i
ĠVo rli
ĠCla udia
sstaate n
nta tion
Ġmitzu teilen
ĠB rau
ch em
Ġumfasse nden
ffl e
zeit l
O ne
ĠMi ts
Ġweit gehend
Ġsa ub
Ġinvest iert
vertra ges
ĠFi nale
Ġattrakt ive
e ntn
na chrichten
ĠEin tra
ĠÃ¼bers etzt
Ġbesser es
rin o
Cont e
ĠEinn ahmen
Ġver walt
ĠAmbi e
E rh
Ġerst re
ĠN ik
vin g
ĠSpezial isten
ĠM ol
Ansp rechpartner
ttch e
ĠBa rbara
stÃ¤ tten
ebe ln
ĠP sy
Ġti e
nd urch
ĠTÃ¤te r
ĠWass erstoff
ĠPa n
G erne
prÃ¤s e
ĠA nkunft
fa ktoren
Ġinteressante n
Ġty pischen
Ġbedie n
L L
g ger
ty p
ĠTo uch
W h
G V
ĠGebÃ ¼hr
ĠTo maten
ĠVo rbild
In halts
Se x
ĠNÃ ¤ch
ffen h
Me ist
Ġverg rÃ¶ÃŁ
LÃ¶s u
gebi eten
LÃ¶su n
Ġabzu lehnen
ko h
ĠGe pÃ¤ck
ĠJournal ismus
nstle r
ri zo
Ġunver ge
rÃ¤umli ch
os igkeit
ĠBros ch
d ingen
M oto
ebe s
sstÃ¶ rungen
u rity
nn ungs
etz bar
a nleitung
Ġf reu
t so
Ġinso weit
rotisch e
Aktie n
Ġfreundliche n
i ft
ĠAmbie n
ua ge
Ġ} );
sea rch
s erie
IN D
eg ungen
LÃ¶sun g
kla useln
ckli ch
Ġp lant
ĠInspi ration
ĠZeitz one
EN N
Ġerfahre nen
Ġgepfl egt
ĠAusste llungen
F ehl
ĠAn wender
s chw
Ġuner wÃ¼ns
In g
bo nus
ĠInse kten
ĠGe flÃ¼
ĠRÃ¤ umen
Ġident ifizie
ĠGeburt stags
ĠMe yer
ĠAn st
ri p
ffenh e
Ġ entn
fi ts
Fina nz
Ġille gale
Ġbedien t
enku n
ĠGesch ichts
Ġb ut
uld e
Ġle itet
Ãľ V
ĠSG B
ĠRe zensionen
Ġblo ÃŁ
ĠÃ¼ber sichtlich
ĠSen so
Ġabge zogen
berei tet
Ġver sich
Ġtra f
ĠQua rtal
ĠKe rzen
Versand kosten
ĠL ind
ĠF remde
Ġgel iebt
ĠTre k
be zogene
Kl e
ĠPrÃ¤sidente n
rd et
Ġinformation ste
ĠgehÃ¶ rende
st il
ooti n
S la
ffenhe i
ĠvielfÃ¤lt ig
ĠGesch ehen
Ġbe ige
ge halt
ou sine
Ġst Ã¼r
10 1
ĠEr mitt
Ġbeantra gt
Sta r
ĠF eder
zu cker
Ġl Ã¶st
ĠWeb design
N C
ĠVermÃ¶gen s
ĠCy ber
Ġzu stÃ¤ndige
ffenhei t
Ġange pa
zeitl i
ssa r
ri stik
ĠSeiten auf
rad o
gi nnen
ĠInte l
Ġweite rem
gun sten
F lÃ¼
ĠÃľberg reifende
ckt ritt
N EU
ĠSa les
Wa hl
Ġwieder zu
ðĿ Ĺ
ĠCa t
Ġbetre ffen
ĠFo rma
ĠU we
ĠAmbien t
Ġ SK
ĠNa tionen
ĠTe nnis
ĠInne re
Ġleis e
ndo ne
Y outube
selb st
ĠR SS
ni fi
ĠIntera ktion
Ġindustrie l
ĠFlug zeug
Ġ Sabine
ĠMa uer
ĠOlde nburg
enkun g
Ã ¼nft
Ei s
¤mp fer
ĠSa nitÃ¤
ĠKonze pte
ste igen
ĠPatri ck
Ã¼rger meister
ĠgewÃ¤h rte
ĠstÃ¤ dtische
Ġre flekt
c as
Con s
Z uletzt
ĠGra f
Ha ftungs
nee ring
ĠDi esen
Ġdigitale r
do cument
p re
siatisch e
Glei ch
Ġanzu sehen
Ġverbl eiben
Ġindustriel l
e ad
Ġempfehlen swert
¤ch sischen
ĠE du
bes ch
verfahren s
ĠWÃ¼ rde
Ġbereitst e
us l
sk osten
Pa per
Ġge meinnÃ¼tz
schaft s
G ruÃŁ
ras chung
ootin g
rmi s
ĠHisto risches
ĠDoku menta
ul ette
ĠChamp ions
ĠWa hlen
ĠAusfÃ¼ hrungen
Mai n
ĠHÃ¤ ndl
ĠT ha
Ġsoziale r
nleit e
gewi esen
Conte n
S zena
ĠTra vel
ĠNa hrung
eh nung
zli ches
ĠSport s
iv als
ĠUntersuch ungs
ĠB utter
ĠP hÃ¤nomen
lse itig
erk rank
ĠHelm ut
âĢľ ),
Ġhervor ragende
fo rd
h eizung
xi n
Ã¶ rt
Ko nfigurieren
ĠCla ssic
rÃ¼st et
ĠKol um
s chenken
ansp rÃ¼che
ĠErb ringung
Ġhinge wiesen
ĠA ero
ĠB ody
ika tion
Sch nelle
Ġ- ---
SCH UTZ
G L
Ġvorgeschrieben e
Conten t
ĠK omm
nge ren
C lose
old i
Ġeinge gangen
ĠH umor
ĠZ oo
G ibt
ĠMitte ln
ÃŁ ig
ĠAb sicht
ĠSp ra
pla ner
Ġschme ckt
Ja hres
i ss
Ġnega tiven
ĠZeits chriften
be wegung
ga rd
ri erter
co me
ch wÃ¤
ĠÃ¼bera rbeitet
ĠErh Ã¶hung
era l
zeitli ch
ĠSy stemen
Ġtechnische r
pa nd
eterin Ã
eterinÃ ¤
re zept
S now
Ġkomb inieren
part i
Ġgeb unden
Ġvertra ut
ĠC ount
ĠB ist
Ġwhi ch
me iste
Tech nisch
Ġunterha lten
ĠbenÃ¶t igten
verein s
Ã¶ o
ĠVolks wagen
e Bay
Ġ1 11
* ,
ks e
rz Ã
ĠBi schof
ra ining
ĠK oste
e gel
Ġba rriere
Sch nell
Ġme rkt
sta nzen
Ġoptim iert
ra uche
t ige
St rategie
r eben
ck ch
be wertungen
Ġkurz em
Ġab l
ĠMÃ¤r kte
ĠAufent halts
ĠA dam
Ġf ilm
ĠW iese
Ġf ur
Ġgere gelt
Ġst reng
ĠMi thilfe
ĠWe ima
ĠB os
ea rs
ĠW hite
ĠbemÃ¼ ht
twick l
ĠDatenvera rbeitungs
ĠDo uble
T our
ĠRa ts
ĠEinzelheit e
ĠKryptowÃ¤ hrungen
rb ert
olde r
ĠEinzelheite n
ee p
ĠWelle n
Funktional e
ngel egt
s wi
ĠErf urt
Ġweit erg
Antworten LÃ¶schen
No v
Ġfinan zieren
Ġauss t
Ġqualifizi erten
ĠgehÃ¶ rte
selbe n
enki d
ĠKonzentra tion
Ġvers us
qua t
ĠPubli kation
P op
Ġunters uchen
ĠNutze raktivitÃ¤t
fessionell e
ĠR osa
u v
Ġt raum
ĠmÃ¼ h
Ġste uern
Q ua
Ġstart ete
ĠHand lungen
Ġ drehen
To ol
ĠH ER
ph ysi
Ġm achst
s chmi
ĠEde l
lop ment
S Z
Ġg eteilt
nki rchen
Ġk ochen
ĠSachver halt
chrei t
Ġbe wo
Ġk rei
ĠMe ssung
Schre iben
Be nz
Ġkrit isiert
ffffffff ffffffff
Ġange ht
ĠRÃ¼ck kehr
ch eibe
ke nntnisse
ĠWint ermo
Ġverschiede n
ĠHo rmo
ĠGlÃ¤ ub
ĠGi ta
ed ers
nb uch
e ngen
Ġleit e
ĠEise nbahn
inel l
Ġge wÃ¶
rh o
F ried
so fern
ĠM T
ĠStre cken
b la
ĠWu ppertal
um fang
ĠzurÃ¼ck setzen
Ho h
Ġeinzigart ig
p ulver
ĠDa n
F P
kon omische
zche n
Rh e
ĠÃľb erf
gha nistan
ĠUp dates
ĠGe stalt
rvi ert
ĠQuan t
Ġgro ssen
ĠEntst ehung
Ġtiefe r
ĠWeb browser
rce lona
rmal e
aa l
rat iv
ĠWert pa
Ġo rga
Ã¶ rn
vo rhaben
Ġge no
ĠKarto n
Ge meinde
Ġstaa tliche
ili tÃ¤ts
tate n
pa a
Pak et
tte st
H erb
ĠDienstle istungs
Ġ198 6
K S
t erst
Ġzum ut
Ġselb stÃ¤ndig
ĠT uto
ĠPoli zi
ĠzukÃ¼nft igen
ĠKonze rte
ĠAd Words
t ia
ĠTexte n
ĠGi pfel
Ġallt Ã
ĠalltÃ ¤
ĠSuch begriff
ĠSchrifta rten
Ġbeteil igen
d umm
rmi ert
rlÃ¤ ndische
ĠDi eter
Ġb ritische
rnte n
Ġdarf st
Ġwicht iges
Ġget Ã¤t
De z
ul pt
ch na
ĠE G
Ġpa t
N euer
ĠStand orten
zah lungs
f fte
Ġj et
Ġ diver
Ġgesamme lten
Ġ scheinbar
Ġ anfragen
Ġverz ichtet
Funktione n
Be rg
b rief
Ġzu recht
ĠDiab etes
MÃ ¼
to ffen
E E
ĠReise ziel
n wend
Ġzah lt
nage ments
ĠSchu lter
ĠLebens dauer
ĠCa p
Ġstrukt uri
ĠEin gangs
stau rant
ia nz
c io
eb racht
ĠScha um
kis met
Ġla ss
ĠB ibliothe
kÃ¼ ste
Ġspe kta
Ġso zusagen
ndli ches
i ntl
ĠInd em
Sta tion
ĠWiderspruchs recht
ĠBaye rischen
ĠFanta sy
Gesch enk
T rans
ĠArbeits markt
ĠzerstÃ¶ rt
Ġbe wu
ĠF lag
sse rvice
Ġverli nken
ĠMe cklenburg
ckch e
ĠAufbewa hrung
** *
Ġno n
T ou
V orteile
ĠA ct
Ġeingehe n
Ġthe ra
Beliebt e
Ġje gliche
Form ular
nta inb
ĠBe urte
Ġeinge stuft
Ġje glicher
ĠBundes wehr
ck nen
ndante n
ĠAuftragsvera rbeiter
Ġbes chweren
Ġkommen tierst
ĠAus flug
ĠModelle n
Zahlungs arten
go rith
ĠRo yal
ust om
ĠSch na
Ġcolle ct
ĠMarkt platz
E inge
U rs
ĠEmo tionen
ĠReche n
usi o
pt imierung
ĠKonse quenzen
ĠR A
Ġdurch ge
e nne
Ġfachlich e
ministe riums
Ġgeb oten
K redit
ĠGrund funktionen
ĠSo ny
bische n
ĠN oten
B UNG
Ġla s
ĠTeil nehmern
ge fahr
Ġprot ected
nl es
egen e
Ro ck
Ġwesen tlicher
a nb
rente n
Ġ1 15
sb Ã
ĠL IN
ĠDea l
hri n
ivi n
Ġschla nk
ĠErh olung
ĠZ DF
Ġenga giert
Ġwiederh olt
ĠVorsch lag
peich e
ni ck
ĠK redi
r richten
ssa tz
Ġb log
ĠFormula re
f otos
ĠWi s
Ġ19 72
E m
roh u
ni ka
ĠBrÃ¼ d
ĠmaÃŁ geschneid
ka sse
e rrichten
ĠSch ach
L ux
ĠXi n
ĠA rbeiter
Ġus es
ĠC ompliance
Ġschle chter
Z U
Zah lung
rmi eren
Ã¶di e
ja r
ĠÃ¤ lter
ĠDes wegen
ĠSchwerpunkt e
rei z
ĠWohn raum
f utter
ĠSchÃ¼l ern
ĠJose ph
date nbank
Som mer
Ä į
ĠRuss i
ĠPe l
Ġspe nden
ĠVi rt
tÃ¼t zt
ĠM oo
ĠSchal e
ĠFl eck
ĠPet ers
ĠM utt
ĠGuta chten
fert igen
ĠFrÃ¼ chte
Ġg rau
berei tung
Ġvorhe rigen
ĠVoll zeit
ĠBegeist erung
ĠVer dacht
Liefe rung
rÃ ¼be
re gel
| |
ĠnÃ¼tzlich e
pum pen
ĠRegi sse
ĠSach verstÃ¤nd
ĠLa ngen
Ġinterne n
ĠtatsÃ¤chliche n
ĠWettbewerb s
ĠOl iven
Ġh ol
ckche n
ri stall
Ġ4 50
ĠInternationale n
C hat
ĠSprachen zentrum
Ġbehaupte n
ann u
vert ising
fische n
ĠJu genda
We rden
Ġverso rgen
ĠBenutze rname
ĠWa nderung
l ook
ĠAuf trÃ¤ge
r eden
uthe r
ĠAnk auf
Ta ges
ĠKam pagnen
edl i
Ġfort laufend
ĠU ran
ffle r
Ġaufge stellt
Ġplat ziert
Richt linien
ĠSta l
ĠDra ht
ĠF lach
nste i
m Ã¶glich
Ġlang jÃ¤hrige
ĠGed uld
Ġwei hna
Ġnachfolge nd
Ġvorhe rige
ĠPla net
~ ~
Ġrob ust
ba i
v om
Ġeinzu legen
rka ssen
ĠGesicht s
ĠSeite nbetreiber
chro tt
ĠWÃ ¤hr
ĠPoly ester
Mob ile
Ġh om
Ġj o
ommon s
ĠgenÃ¼ gt
rohu n
ĠDaten speicherung
ĠAb ma
Ġwasch e
ĠRund funk
rohun g
sl eben
Grund verordnung
Ġfehl erha
Ġfreig eben
ste ine
Ġnacht rÃ¤glich
D IE
ĠVi ze
t erk
th ologie
nfÃ ¼
ĠSingl es
Ã¶d l
teil ungen
Ġwi ndow
A ch
uf akt
n terg
Ġange siedelt
pri ngen
S etzung
ĠSchli eÃŁ
erma rk
Use r
Ġunzureichend em
Ġzu gunsten
Ġdeta illierte
ĠP KW
ima tion
ktiv itÃ¤ten
ress o
ergrÃ¼ nde
viel falt
Ġopt imi
A u
Ġvo rhers
ufact urer
idee n
Se l
zu gang
Ġtempo rÃ¤
rf i
ĠBes e
ĠAbs chied
Nut zer
Ver wendung
empfeh lungen
Ġwo fÃ¼r
Ġhoch ge
Ġkontroll ieren
ĠP M
eta g
lor ca
ĠEli sabeth
gesch enk
ĠRÃ¼cks e
Ġbe zogen
flu gs
Ġnega tive
ĠV Ã¶gel
ologische r
U P
gische r
Ġschie r
rat et
Ġeinget ra
âĢ¦ )
ĠA nforde
Ġlo kal
Ġ3 000
Ġmut ma
Ġ ehe
Ġ198 7
t iver
ĠForde rung
nda u
ĠNotwend igkeit
ĠA vant
? )
ĠR inge
Kontakt ieren
ĠÃ¶sterrei chische
. ):
do r
gt o
s elt
ĠBea chtung
ĠWe lten
ĠK aufen
nk Ã
s ze
rbe rgen
ĠFo rscher
So u
Ka nal
nc tional
ki stan
ĠVers chle
Ġbe legen
Ã¼b ers
Shop s
eg o
ĠArchÃ¤ ologie
ĠD Ã¶
ĠMill ion
ĠSpe ktrum
ĠKommu nal
ran lage
ĠHe lden
rgi t
ĠE th
ĠRa l
ĠStrom verbrauch
ĠDatenschutz hinweisen
% )
ĠG ran
ĠWi nkel
eti tion
Ġ schenken
tra ining
si v
Ġge ko
ĠFol lo
ĠA kismet
t v
ĠKind h
ĠSt imm
pla tzes
Ġbasi erend
ĠDaten erfassung
wa cht
ĠRo ute
ĠKindh e
pa ÃŁ
ĠWiede rauf
ĠSp rech
ĠProdu ct
Imp f
Pa ge
Ġ; -)
reche nde
Sonst ige
n ett
Ġverle ihen
Analyti s
Analytis ch
ĠÃľb ungs
ĠKo hlen
Ġdeta ill
st ream
ĠÃľber weisung
ĠLabo r
Ġerst kla
Ġst uft
ch wach
rege lung
ka talog
ĠfÃ¼ hrend
W etter
grÃ¶ ÃŁen
Ġ access
ĠKindhe i
ĠAus nahmen
Ġdeutschsprach ige
ĠSchaus pieler
ĠE ro
ĠK uli
mensch e
ĠU lt
Ġvon einander
lÃ ©
ĠKindhei t
12 5
ĠT R
Ġauf ta
ĠStadt kern
Ġl uft
Ġwesen tliche
ĠMann schaften
ĠDa ue
Pat i
hÃ¼ tte
Ġweiteren twicke
OLLOLLOLLOLL OLLOLLOLLOLL
we nien
t uch
e chnologie
nze nd
Ġges Ã
Lo cal
annte r
Ġver halten
Sch lÃ¼sse
An lage
ĠÃĸ ko
Schwa rz
ĠN EU
Ġdiesbe zÃ¼glich
ĠJÃ¤ nner
ĠE w
Ġvie lseit
qu ip
ĠVorsitze nde
ort a
ĠKomp oni
S ul
Ġex akt
ĠDe ckel
ĠAuf stellung
ki no
fra ktion
a rbeitung
¼ch ern
sa ndt
isi erungen
rech nungen
ĠBÃ¼ hnen
Ġ SD
fÃ¤n gnis
oll i
Ġvers uchte
ĠÃ¼ber lassen
GÃ ¤
n terst
Da zu
wa nne
Ġfest ge
ĠHu wi
scha ut
Ãľb ers
ed ern
ĠSchri ften
ĠF ull
ðŁ ĩ
komp etenz
ĠA ndernfalls
ulga rien
sa uss
Ġeinhei tlichen
rs a
s chwach
Ġsa nft
ena u
ĠBoo ts
ĠVorles u
IT E
ĠVorlesu n
riche n
b ilden
Re ihe
ĠVorlesun g
¼nkt l
Ġverwe ndest
eba u
Ġf lo
ĠSchre ibtisch
gie rig
rohe n
Verantwortliche r
Ġoptisch e
u nterst
ĠJak ob
Ġversp richt
ir gend
Ġausgeb ildet
¼nktl i
Ġausge sprochen
fra uen
Ġk reativ
ĠTF SI
ĠA ro
Ġ amazon
Ġo rd
E rfolg
Effizienz klasse
Ġf ind
Ġver ha
Erf orderlich
ĠAnf ahrt
Ġ7 50
ka rto
ĠAusste llungs
si ege
nan spruch
ĠRol ls
z im
7 00
¼nktli ch
ĠGra u
ĠButton s
Perso nen
ĠWeb analys
Ġerstel lten
Ġko pieren
lam pen
Ġtranspa rent
nnt nissen
Ġbed Ã¼rfen
ka ta
ĠRe ferent
zi pl
Ġ rÃ¤umlich
ĠFa ktor
Ġauf einander
ch end
Ġ ac
R ot
Ges undheits
ĠE st
n wenden
S wa
Ġ Sup
Ġwe stlichen
t erd
ĠW erten
ĠLÃ¤ rm
ĠFÃ¼ nf
annu n
ĠW O
ĠM otive
Wint e
ĠFra ktion
nb ildung
L IN
h erapie
ĠO S
t il
ĠGe rechtigkeit
ĠSp rung
ĠGebÃ¤ uden
rade n
ĠSchei n
ivin g
ĠG r
ĠSu n
Ge o
A ff
Ġ edi
Pro be
ĠMar co
eh o
F D
B la
ĠGe danke
lusi v
Mi crosoft
e cker
Ã¶ sser
bo xen
j amin
Id e
Zu dem
Ġrenom miert
ĠDa rauf
rba n
Ga lerie
Ġvo rde
ĠVerantwortliche r
ĠBetriebs wirtschaftslehre
ĠSÃ¼ dti
peiche r
ĠRe view
lto n
Ġverschiede nartig
rlo tte
annun g
ĠPla tte
ĠRa iner
ĠTra gen
Z wischen
Ġeingebett et
Ġ echter
Shi rt
Ġverte ilen
Ġwe chsel
ĠVol umen
ĠD icht
Ġm ult
Ġgegen wÃ¤rt
ĠLi nz
bs chluss
Ġste uer
ĠCom pany
ĠJÃ ¼
ĠSpe ed
ĠKontra st
Ġet l
rd icht
ĠZ weit
Ġaus wirken
ĠAb holung
weil ig
richt ungs
ĠÃĸ sterrei
Bei spiel
Ġ einander
ĠDe ck
En glisch
ĠKin g
Ġgeschlossene n
Ver sich
Bet reiber
Ġwar men
Ġwahr genommen
ĠEbe nen
stra ct
Ġetl i
obl enz
Ġ dumm
zeit ige
t igung
ĠT hi
nstru mente
ĠFrieden s
ĠNied ersch
lass ungs
ĠWe niger
tre ffe
ĠZ erstÃ¶
ST E
I nnova
n teil
Ġpo sition
ĠSpeise n
ziel les
ĠF utter
cto ry
Abo ut
Ġ schutz
lt s
ĠM rd
Ġschle chten
Ġzu fÃ¤llig
Ġ198 5
ĠFormat e
Ġ schlu
Ġeingeb aut
ĠA roma
Ġn am
ges etze
ĠM O
programm s
ĠI tal
gen ehm
c ed
gal erie
MÃ¼nch e
emo nat
im pft
chule n
ĠstÃ¤ rke
ĠFranzÃ¶ sisch
ĠGÃ ¼te
u nterg
Media daten
wo hne
ifika tions
Ġte urer
U l
âĢĭ âĢĭ
ĠGemÃ¤ lde
Pati e
ĠFel l
ĠBe vor
Ha ftung
Ġstaa tlichen
gl os
Ġtaus end
sl i
MÃ¼nche n
Ġfinan ziert
Ġ198 4
sbe richt
ĠH os
ĠSte inb
ĠKrÃ¤ uter
G las
ĠLeip ziger
ĠH as
e rr
e ÃŁe
Ver wandte
ĠGast geber
Ġdiver gent
ĠRei fe
Ġunbegren zten
9 00
Ġange l
ĠGlÃ¤ s
ĠBedÃ¼rf nissen
A Z
ĠSonnen s
lossen e
Ġetli ch
K abel
ĠMe x
rdi nal
n sÃ¤
ĠB ruch
ĠUm bau
ĠG lÃ¼h
ĠFahr zeugen
Ġ unterst
St G
ĠO rdnungs
AN T
S IM
ĠGehÃ¤ use
ak s
sa ft
t ierten
ĠRussi s
indlich keit
ĠVertrags partner
rukt u
olle r
ĠMitglied s
kula tur
ĠhÃ¶ch stens
ĠAuf stieg
ĠBeurte ilung
es a
pat hische
fo ne
ĠAb fall
ĠK lag
ĠCorpo rate
Re zension
Ġnied rigen
chu sses
ĠKa nzlei
ĠL KW
ĠGeist es
Ġgefe iert
Ġeigen tlichen
ĠLei nwand
sp flege
ĠLiefe rumfang
ĠL ot
u lÃ¤
Patie n
ĠKa pelle
ĠJo achim
dal e
Ġabweich e
ĠgefÃ¼ llt
¼nst ige
ĠWa nde
ĠIdent ifizierung
Ġwasche n
36 5
ĠGel da
ĠAnfa ngs
Patien t
ĠBe endigung
ĠProjekt s
ĠDes ktop
Ġex plizit
vers a
Ġba sieren
a f
Ġfest zustellen
Ġgefi ckt
ehÃ¤ lter
kad e
Ġteil zunehmen
ĠbemÃ¼ h
ri ngs
Ġetlich e
---------------- ----------------
ĠLi nux
ĠPfa d
ĠBenachricht igung
ĠRussis ch
ĠSt reifen
IG E
ĠG rÃ¤
pf la
nke ln
¼n ste
geb ers
ĠZufri edenheit
op tion
A lter
roa t
Ġbe da
Ġentn ommen
lan sicht
Ġad s
ĠWe ile
ĠKompl ex
Hal l
ĠInfe ktionen
ze a
ĠSpeicher dauer
SS E
eti ngs
ĠFa zit
scha lt
P olizei
ĠMine ral
ĠB il
i nl
e rver
wÃ¼rd ige
Sp ot
â ĪĴ
ĠVo rha
ĠDes ig
ĠBa rt
K ompl
inen t
ĠIs la
ĠRud olf
mÃ¼ hle
ĠGe lb
ĠD B
ĠD est
tatt et
ĠFÃ¼hr erschein
St r
O ff
Ġehre nam
Ġ10 5
erga rten
ĠKult uren
Ġletzt es
Zen t
z icht
z zle
Ġliefe rbar
Pre vious
Ġbe wÃ¤lt
ĠParla ment
nstei n
d oo
ĠT OP
oo Commerce
Disk ussion
Ġha lben
lÃ¤ uft
ĠTÃ ¼
Ġda sselbe
e gten
nna men
ĠP kw
ĠEr mittlung
ĠDis ney
UR L
u nrecht
rf rei
Ġ dingen
ĠGeo rge
mensche n
N ummer
Ġverlei ht
gewi nn
ĠVale n
rma ch
Ġ runter
vÃ¶lke rungs
i nrichten
Ġident i
ĠHi rn
EN EN
ma cks
ĠDo nau
e inrichten
om y
Ġeigen em
IDER SP
ĠLand tag
ĠRa ssismus
um p
r zte
tern a
ĠFi rst
A g
ĠBe wertungs
ĠRÃ¼ckse i
Ġdiffe rierend
b zw
ĠMe sser
Ġ Sorten
Ġkostenfrei e
Rhe i
fÃ¼ llt
ĠN ull
ĠRahmen bedingungen
ĠMedi tation
ĠAsy l
ĠAmbient e
Ġaktual isieren
ĠNachba rschaft
num mern
Ġaus gelegt
Ġ unsicht
ĠStÃ¤ rken
Ġko nf
re y
ĠT rÃ¤ume
En twicklung
ĠT SV
ĠVerein igung
ĠPa lette
ĠVergleich e
ĠMagd eburg
Form ula
Ġinnova tiven
ĠPi e
ĠR O
z wi
ru nnen
ĠKo hl
ĠB rÃ¼cken
ĠO per
Ġ Suchen
ĠKata strophe
Ġitalie nischen
ble ch
ĠSche iben
Ġange ze
Ġm b
Ġhoch laden
bes tÃ¤tigung
KON TAKT
ĠRÃ¼cksei t
enk o
Vo rpommern
ĠPrio ritÃ¤t
ĠEine r
C DU
Vi ta
Ġkla ren
ĠbemÃ¼h e
Ġ schwach
ĠArbeits zeit
Re a
schal e
a nhalte
R ed
r ese
rbi e
ĠKl ett
Ġge f
E rstellt
ĠObe rb
ĠBa tterien
frei u
ĠHe a
ĠFerien wohnungen
twickl e
ro ss
auf sicht
We il
Ġkom pa
ĠGebi ete
Ġgespeich erte
ĠÃ¤ rztliche
ki e
Kurs e
Ã¤cht nis
ĠN y
Fra ktion
b remse
Ġveran la
oppe lt
freiu n
n tso
Ġherunte rge
Ġh erstellen
end urch
ĠVer meidung
An schluss
freiun g
ple r
iloso phie
Ġk unden
ĠbegrÃ¼ ndet
W and
a nwenden
ĠGe webe
Ġgel Ã¶st
zi fisch
zi eher
a va
n mitten
lo hnt
ĠVo ra
Ġeigen verantwortlich
ĠCh emi
rid e
i nmitten
Ġdeutschsprach igen
uta l
RÃ ¤d
ĠNational park
Ġl icht
gel enk
Ã¶dl i
Ġab schlieÃŁen
f olgen
ku gel
ĠKli e
Ba um
S kla
ĠBe kleidung
N EN
Kosten pflichtig
ta uf
Ġva l
ĠC re
Ġeinfach es
ĠNÃ¤h ere
Ġ einrichten
ĠHoch schul
ĠVerbrauch erschutz
ĠRo land
Ġgegebene r
ĠKat harina
ĠDeta illierte
il ies
Ġnied riger
Ġderselbe n
Ġ ena
h ungen
et tern
ĠPo i
ĠGesundheits wesen
ri ssen
ri ck
Ein willigung
ĠâĤ¬ .
Verke hr
ĠNe ub
wach st
c les
Ge l
Wa ld
Ġ interp
ĠD HL
nanspruch nahme
Ġ edle
ĠT oten
ommunika tions
wÃ¤ hrung
sie ht
Ġentspreche nder
Ge rade
iat rie
ĠNe ustadt
ĠRÃ¼ckseit e
Ġpotentiell e
ĠRechts grundlagen
bedie nung
cke rei
Ġaufzu bauen
Ġmod erner
Ġvereinba rten
ĠGlÃ¼ck s
ĠSy rien
wissenschaftl e
fangen e
Ġ inmitten
nl os
ĠGarantie n
Ġreal isiert
Ġsi m
ĠBa lance
ĠFortschri tt
ma ge
ssant e
O st
Ġf rucht
Ġf eine
oni k
wissenschaftle r
t echnologie
ĠHei zungs
ĠMal lorca
ini erte
ĠKrankenka ssen
ĠBrow sere
ĠAb rechnung
ĠGut es
ĠD C
mÃ ¤cht
G mbH
ĠK op
St reit
Ġ unrecht
e ntso
ct ure
f ungs
ĠLam pen
sb urger
ĠGesam theit
ĠReihe nfolge
H K
Ant i
ĠRei ÃŁ
ĠLock down
ĠVer zeichnis
R T
a rgu
u nauf
ĠChem nitz
ĠT hre
wÃ¼rd ig
ĠN ieren
Ġabweiche n
b lÃ¤tter
ĠVerfa ssungs
ert es
do n
l iebe
Ġjet zo
ĠKl iniken
ĠSe nder
sistent e
ĠKa rne
ĠÃľber rasch
Ġb ilder
Ġ10 1
ĠTelek om
ĠKl oster
Ġha ndels
ĠAut h
ĠW ER
So nnen
dra ulische
In teg
Ġher rscht
v erteilung
gÃ¤ u
ĠF ul
Ab brechen
10 5
ĠTi era
ĠG PS
p rache
Ġentstanden e
Ġja hr
ĠD usch
ĠCo ver
F amilien
PrÃ¤ s
Ġhe range
ĠWiderrufs frist
Gemein sam
Ġg emis
Ġvorvertra glicher
Ġfolge ndes
ĠK ostenlose
": {"
ĠN etto
mann s
ĠK etten
Ġimpl ement
P rivate
Ġ anhalte
lante n
Kle i
rel l
ĠAus gleich
'' '
nfÃ ¤lle
â Ŀ
ĠÃ ¼
ĠDi rk
ĠHa i
Ġexklusi v
Sa lz
H ighl
n est
i tigung
ĠErnt e
Ġvers chaffen
Ġv erstell
Ġmehr mals
ĠSe ries
Di splay
Ġ anwenden
Intern ational
rf l
G ER
Ġschwe d
mp l
erti t
ĠH ut
ĠMo z
ĠBi t
ĠTu rnier
Ġwunde rbare
spe kt
Ġmi nus
ĠSei nige
Ġk ulina
na rbeit
ot zen
rb rÃ¼cken
ĠSicherheits lÃ¼cken
ĠEnergie wende
Ġerfa ssten
Ġmi nder
Ġ schÃ¼
ers Ã
Ġ ed
ĠSta rs
Ġunve rÃ¤
etsch e
ĠL eber
M ulti
ĠRe no
ĠB lan
Ġwh ile
ĠFab ri
Mi ch
wede n
Ġsta t
p rakt
ĠEl emen
ĠEin mal
ĠKais ers
Ġbed ingt
ĠÃ¶ffen tlicher
hin t
Ġattra ktiv
me ras
sse nde
ĠG il
Ġtra inieren
Si ehe
ĠRe ferenz
ĠAbs enden
Mo dul
Kl eine
ĠAn to
âĢ ³
Ġge stellten
ĠSchm utz
t gen
Ma nager
Ġgut em
Ġbe zeichnen
ĠschÃ¤d l
Hin terla
nall e
Ġg oogle
Li eber
S olo
ĠInf lation
Ġange sprochen
Ġver hÃ¤lt
Ġvertra ulich
ĠAn sichten
W C
Auto ren
f ind
ME HR
ĠfÃ¼ hle
ĠAb sprache
Ġf rÃ¶hlich
m g
ĠSP AM
ĠMe ilen
ĠInnova tionen
ĠJo e
schre i
ĠA K
Tra ining
Ġflach e
ss traÃŁe
ĠExp ert
ĠBei n
ĠSe il
erke nnen
Ġunterschiedlich sten
usio n
Ġverb a
ĠCo nnect
ĠPrÃ¤ vention
ĠFu nda
Ġle gend
ĠB rÃ¤
Ġschwie rigen
Ã¤hr st
Nut zen
ralisch e
ĠR TL
ĠPo rsche
T Ã
ĠLebens mitteln
Beso nders
gÃ ¼
ĠSa lat
ĠDa me
ĠNeu h
vo rgangs
Ġ sho
Ġbe ruhen
ĠRe la
ĠR n
ren ch
ĠÃ¼be n
rhÃ¤lt nissen
Wind ows
ĠThe rmo
Ġ ruft
Ã§ ais
ĠRa lf
rÃ¼ mpe
l enden
ĠVers tÃ¤
ĠO DER
eta l
Ġo rig
Ġliebe voll
ĠR ange
ĠTrans fer
u ls
ia ne
ĠMinister prÃ¤sident
izi d
buch nummer
ĠWa gner
v ile
Herzlich e
10 2
Te ile
rhe rige
ĠRÃ¼ck zahlung
St Bl
ĠGro ss
lste i
Wi ede
kret Ã¤r
cht es
e inh
uberei tung
ĠSau erstoff
t eratur
ĠH P
ĠÃĸ ffen
Frei zeit
be rlin
e nger
20 02
ĠBeso nderheiten
zid enz
Ġli egenden
u rn
Ġbereit et
ĠTransa ktion
NE WS
mad e
ĠSta u
ĠSchwar ze
ĠH ase
Ġda nken
vers ch
Fan s
nie la
rechtliche r
mle r
ss port
i egenden
ju gend
ku lation
ĠBe rÃ¼
ĠWa rtungs
Ġ unauf
ĠW este
Ġidenti s
ĠFire fox
Ġelekt rische
fi rma
ĠAnsp rÃ¼chen
ta goni
Ġ ara
E va
ĠTin t
ĠBlog ger
ĠAno ny
ci ty
feren ces
me tte
ĠRe flex
Ġausgeh e
Ġho ffentlich
cens e
ĠVers uche
rea tiven
fol gt
L U
K olle
ĠstÃ¤ rk
Analytisch e
Ġintensi ve
kon t
Ġ zentral
ru nden
ĠE ur
ĠschÃ¤dl i
ĠFranci sco
ĠEinf Ã
fest ival
ĠUmwelt schutz
Ġausgeb aut
Ġpa ge
Ġte chni
Ġanaly ze
ĠSi d
que st
ĠLiefe rk
ĠB O
ĠA ve
y r
Ġko nstru
Ġvors Ã¤tzlich
geben h
t dem
Ġausgel Ã¶st
gebenh e
. ;
ĠSa iso
10 4
IC K
gebenhe i
Inhalts verzeichnis
Ġgeb ildet
ĠSt eine
gebenhei t
ĠKon gress
w ochen
ttche n
ĠE con
ĠBes uchen
Ġries igen
Ġentwicke lten
Ġherzlich e
ba nken
ĠI nanspruchnahme
ank auf
k ratie
ĠKondi tionen
14 0
sb ruck
vo rstellung
ĠKunden konto
ĠBand s
D M
ĠThai land
M aster
uliche n
ĠLit hium
ĠReser ved
Ġver wÃ¶
Kontakt daten
ĠSpe cial
j unkt
i tdem
ĠGla nz
weich e
ĠMittela lter
e itdem
op tionen
A tt
s eitdem
Ġ entso
Ph il
ĠOpt imi
ĠgrÃ¶ÃŁte r
ĠZ oom
99 9
ĠMa nip
i ssa
ĠBescha ffenheit
Ġ Sla
mp f
run ternehmen
i erungen
eri um
Wa sse
rio r
ĠPrÃ¼f ungen
ĠValen t
ĠFe nste
ĠWeihnachts markt
B W
Ġbe reiten
Sp o
D C
erb orn
ĠSus anne
ĠMa nfred
Ġn et
ĠSchulde n
ĠRÃ¼ck gabe
k riterien
ĠPro file
Ã¶glichkeit e
me nde
Ġaus tauschen
V I
i sla
Ã¶glichkeite n
p ole
ĠGottes dienst
ĠKompl ett
d rÃ¤
ĠSchadens ersatz
bereiche n
ptisch e
kla ppen
ĠZufa l
ĠJahrze hnte
Ġ anb
ĠC u
ĠPi zza
Ġmittl eren
ch male
erte il
red et
ĠFi nnland
Ġverst ehe
stat i
Ġmeld et
Ġex peri
ĠN ight
Ġeffe ktiver
and ra
ĠGab riel
ete chnik
ĠW ach
ĠApothe ker
sta rk
Ġba ck
ĠEx trem
ĠCons ulting
quip ment
Ġdem nach
ĠT rade
ĠÃľber raschung
c tions
wasch e
Ġindustriell e
ĠMe lde
ĠFass ade
Ġvern Ã¼nft
s chmale
Ġkap utt
Ġfunktion a
Li zenz
ĠschÃ¤dli ch
ĠBundes ka
Ġ schw
s cheine
ĠBa rcelona
n ue
Wicht ig
Mo re
Ġenglische n
u gt
ĠZufal l
iefe l
sst il
Zust immen
Ġâ ĺħ
Ġ seitdem
ĠJ enn
ĠGebraucht wagen
ĠWebanalys edienst
n loggen
V E
lÃ¤ ufig
Ù Ħ
Ġzwei e
we sten
i nloggen
Ġha ut
ST EN
s enken
ĠLiebe s
A ss
ĠKraftstoff verbrÃ¤uchen
g ge
ĠB auf
ĠSpi ri
ĠWirtschaftsi nformatik
ĠSp recher
Gewi nn
Ġangeb racht
N Ã¤h
Ġ Sas
fa ngs
ĠBes tseller
GebÃ ¤
echten stein
ĠWÃ¤ nde
Ġzweck s
mp fe
pro ben
bin g
ĠMus keln
Ġp unkt
t io
ĠM ust
d ete
fie ld
konze rt
e inloggen
ersti n
G S
ĠKolle ktion
chÃ¤ ften
Ġerf Ã¤hrst
Emp fÃ¤nger
ĠAnhalt spunkte
ĠSat e
ĠReite r
ĠBuch es
re uth
Effizienz klassen
K R
Ġessen t
Ġna chts
ĠA rne
Ġna ckte
Ġb ro
P ER
Ġle gal
ĠKu rt
stand s
wa ffen
Ma tt
ĠPrÃ¤ sid
ĠSchwei ÃŁ
ĠImpu lse
sp ot
ĠKlie n
n oten
ĠBauste i
ĠUnte rwe
fÃ¼lle n
Ġimpro ve
HÃ ¼
RÃ¤d ersatz
lÃ¤ss igkeit
schal l
ĠSa rah
Ver gleich
Ġgro ss
Ġenga gieren
ĠRÃ¼cks endung
G lo
Ġad minist
Ġh olz
Ġfu hr
Ġf la
la nden
reat e
ĠA US
Ġessent i
hats app
Ġpsy chische
ĠBaustei n
ĠNeuh e
fre ude
Ġauf zunehmen
Ã¶dli ch
Z Ã
ĠVa ri
ĠFlÃ¼ ge
ĠTabelle n
Ġanderweit ig
P sych
Ġta ge
ĠZert ifizierung
Ġ| |
ĠbemÃ¼he n
Ġge kla
Erweit erte
Ġbericht ete
n och
fin g
ĠKlag emÃ¶glichkeit
po sit
k k
ges ehen
ĠQue e
Ġinteg rierte
ĠAus zeichnung
ĠWeit erhin
fert ig
Ġalterna tive
ĠKranken versicherung
ĠKlÃ¤ge rin
ĠSt ufen
ma ster
ĠIn stand
ĠTa i
ĠD rucker
Zert ifikat
Ġbeteil igten
we rs
ach lÃ¤ss
ĠVa ters
ĠStellung nahme
Se nden
ĠB rille
ĠXin g
ĠWi rbe
ĠC omic
Ma ÃŁnahmen
Ġpro bl
mÃ¤ nnische
e nbahn
s ca
ĠHerz l
D L
ĠBy tes
Da ta
n zunehmen
ĠO rient
Ġbi nden
ĠKlick s
erst ehen
t zi
roat i
m utter
ho use
ĠBericht erstattung
Sport wissenschaftliche
ĠBa nner
ministe rin
Ġeinge halten
Ġdies jÃ¤hrigen
w omit
ĠN euer
s em
l ed
ĠTa xi
Ġj emals
lstei n
ĠU nk
Aktiv itÃ¤ten
gra ben
bestell e
ĠSo fa
imm obilien
ĠAuf treten
ssich erung
ĠSt eu
Ġverb reit
nst ern
rai t
K ostenlos
Ġ20 30
Ġfinan ziell
hÃ¶ rigkeit
ĠFe rie
Ġ schmale
Ġwelt weiten
ĠKonze ption
ĠVers chlag
Ġkonzent riert
Ġvari ieren
ĠJ ena
Auss tellung
lÃ¤ sse
ĠV I
ĠÃľberwachungs programmen
Ġverringe rn
Ġwechse lt
ĠVort rÃ¤ge
Ġ; )
Ġidentis ch
s olle
lod i
Ġsta rker
tur m
AU F
ĠSch ula
L ehr
Ġverwe nde
ĠMex iko
ĠHaus tÃ¼r
e rvices
e inrichtung
ĠSa nta
ĠVorbe rei
f ieren
ĠLe ad
erschei nungen
ch eider
Ste i
Fl ex
ĠSchla cht
ra ube
ĠVer wertung
ĠB ol
ĠMita rbeit
W ild
i tige
ĠKlien t
rient ierten
ĠRe levanz
Ġbe wÃ¤h
Ġ einloggen
tzÃ¼nd ungen
ĠBel l
Ġstandard buchnummer
ka nal
ĠEi nge
ĠP ick
n sicher
Ġlust ig
n ha
e lse
zu cht
pa rkasse
ĠL EG
ne utral
cha ncen
Ã¤h lte
ĠLandes regierung
Ha rd
ĠNeuhe i
Ġzumut bar
Ġ eBay
si tuation
Ġ Setzung
Ġfa ir
s chlÃ¼
word press
ntainb ike
âĢ º
tri x
rt ern
u rin
ĠIsb n
ĠNeuhei t
ĠChri s
Ad vents
rie ntal
ĠBet reuungs
ĠT ruppen
Ġges amt
Ġurheber rechtlich
Ġhe rge
ĠRÃ¤ tsel
ZE IT
ĠfÃ¼ hrten
ĠPoten tial
Ġgewerbliche n
Ġro sa
Ġelekt rischen
ĠKom pro
Ġnach st
Ġoffe ngelegt
wa kei
Ġbee n
N O
bro nn
b rand
ĠBea t
rden s
ĠAus blick
cht ern
ĠFest platte
So nde
ĠBe gleiter
Ġwol lt
ĠLÃ¼be ck
ĠT Ã¼b
Pra xis
the men
idd e
ĠAuth e
ose r
Ġver weisen
Ma ria
ebe nden
Ġ solle
Ġkorre kte
ĠR iesen
Ġ ris
Ġwieder ke
ĠFei e
cal e
RU CH
ir ed
tÃ¤nd igkeit
e ngth
inem a
rbeit ete
c ast
ni tÃ¤t
tali smus
Ġries ige
cke rt
ĠO ppo
Ġfert igen
Ġverste ckt
¼le n
ĠSate l
O ffice
ĠRÃ¼ cktritt
W erte
punkte n
Ġamerika nische
Sem inar
ĠElekt rom
Ġop tionale
Sch ne
ilde nde
ron g
exe n
erse rvice
Ġverl egt
lai s
ĠLi sa
cho r
Po i
gto n
ĠAs ch
ĠFests tellung
f amilie
¤h e
et reibe
ĠAuthe n
gi tter
ĠNeu mann
ĠL aufen
ID E
ĠFÃ¼ rsten
Ġ19 20
ĠFrÃ¼ hlings
Ġmach bar
fÃ¼ hr
Ġ0 17
Ġb spw
ĠF risch
nb ild
T ickets
ĠfÃ¼ hre
Lan g
rimini erung
Ġka lten
Ġerhi elten
ĠKreis lauf
meo ffice
Ġsiche rgestellt
ĠBrowsere instellungen
So zial
ĠSch Ã¤t
ĠgrÃ¶ ÃŁe
Ġsam melt
Ġabge fragt
Lit e
Ġausbl eiben
ĠNo rm
ual isiert
1 30
ĠTra u
ĠĠĠĠ ĠĠĠĠ
Ġirgend welche
erst ruktur
Ġzug runde
h h
Ġkom patibel
Ġfreie r
eterinÃ¤ rmedizi
ĠAus maÃŁ
ki a
e inl
ĠRum Ã¤nien
ĠVerpack ungs
ĠHa rn
r kte
ĠP auschal
Ġessenti e
Ġgena uen
ĠpÃ ¤dago
Ġfi n
ĠBe rgen
Ġt ou
Ġgerichtlich e
schÃ¤t zen
bet reuung
ĠWa ffe
ra f
Ve rhalten
Ġbet ragen
oste l
ze lt
sta tionen
ĠTel e
P remium
ĠPro test
ĠSc reen
ĠJun ior
N ET
Ġjemand em
Mi ttel
ĠSt d
rÃ¼ ger
erfol g
ĠSi ehe
Ġ womit
ĠH ilfen
ĠL eb
p fehlen
ĠJ i
Re ferenzen
ĠRh yth
ĠD rucke
sÃ¤ cke
ĠAR D
ĠUnt ergrund
ĠVer gleichs
ĠD et
F I
spa lten
cheid ungen
Ġreal isieren
v g
tle itz
e llungen
sh ilfe
Ġf amilie
ĠH Ã¶r
sa mer
l ength
ĠFi lte
ĠD FB
p ose
ha fter
ĠbenÃ¶t igst
ĠerfÃ ¤hrt
S orte
Ġ24 0
ĠAuss chluss
ĠDutze nd
Ġwi ld
ĠberÃ¼hmte n
ĠThera pe
ĠKlÃ¤ ger
IL L
Funktion s
nan lage
bestelle n
ĠI rgend
nforma t
Ġbehaupt et
ĠA la
ĠT uch
nli n
Ġkosten gÃ¼nst
ĠSchÃ¶ ne
ĠZe ugen
wasche n
jÃ¤hr ig
Frank reich
system s
ere ch
pse l
ĠLu kas
weg ungen
ja hren
St re
ĠEntscheidungs findung
Th eater
Ġsu pport
ĠDi eb
ĠDa rum
ĠÃľbereinst immung
be ne
ta tions
i ers
e rren
ĠEffe kte
men z
ĠKommentar daten
ĠAn reise
ĠVer handlungen
Ġad min
ĠSch mu
Ġverl Ã¤sslich
He rz
Ba nking
Ġmi s
et nam
Ġ senken
ĠD Ã¶r
Ġme ga
troll i
ĠAuthen t
kademi s
ĠPaten t
mp h
ĠReha bili
Ġju gend
ĠO rigina
rla gen
ĠIH RE
ĠRe cycling
ĠH op
f rie
nf ig
ĠAb ruf
ufakt ur
ĠApothe ken
ĠExplo rer
to ols
ĠFern seher
Ġze igten
e rmin
wese nheit
ko rea
zeug nisse
v erstÃ¶
tud e
Ġ smart
Ġbef reit
ĠAb meldung
nzu g
P rivat
Gro ÃŁe
ĠVerz Ã¶ge
ĠAuss chuss
gÃ¤ ste
olo gy
Ġma rkt
G utscheine
V R
B lock
ĠInterpreta tion
Rezept e
w oll
Ġstell vertrete
pi re
Ġecht es
E ltern
ĠE tik
ĠArchi tekt
ĠBÃ¶rse n
ges undheit
ĠVers chlÃ¼sse
I SE
ĠExp ertise
zellen t
Fu nctional
tlich keit
Ġti efen
vel l
rolle r
Mod us
cri ption
e es
ĠVen edig
ĠP erle
13 9
ui s
Veran staltungs
Ġ Szena
ĠZah narzt
ĠImp lement
ĠWa tch
ĠVertrags erfÃ¼llung
Ġ unterg
ĠKo kos
sk raft
nb latt
ĠSch wÃ¤che
ĠRo ut
gat e
h erren
s endet
Ġbl ieben
spiel zeug
Ġge nial
Vors tand
Ġfi ckt
Ġvertra gs
to re
ĠEi nbe
Ġbekannt esten
ĠStad ion
ck ig
ĠNach folger
Benutze rname
ĠArbeit ss
Ġge rufen
Ġsa ys
Ġune inge
Ġgeb ucht
ĠSatel l
ĠRuck sack
c ort
ige nden
Ġ198 2
Regist riert
K och
nzlich e
Ġbed enken
ĠPet ra
ĠRes ultat
ĠVert ret
n tritt
rmis ch
Ġchara kteri
ĠFrei staat
rkl inik
ĠSatell i
ĠLaut sprecher
g b
ĠnÃ¶t igen
ĠCo rp
s chwÃ¤
ĠD ete
ĠLebens qualitÃ¤t
ĠT rier
ro th
ĠInfe ktions
E lekt
ĠSpiel ern
ĠRe fe
k annten
ĠAn hand
ĠRe ze
ri sierung
Ġversand t
He r
ĠFotogra fen
ĠProvi nz
Ġba cken
ĠDo n
s etzten
Ġleite n
ĠendgÃ ¼lt
ĠHerstell ern
ĠEd ge
Ġgeb rau
rmach e
ĠVerschlag wortet
ĠNiko laus
IT ER
ĠInnova tions
hÃ ¼lle
ĠÃĦgy pten
Ġgene rieren
Ġschnellst e
AR K
ĠK r
ĠO ster
so g
ĠDi stanz
ge lte
ĠI g
Li fe
Ġanonymi sierte
Ġbunte n
ĠAnk Ã¼ndigung
Ð¸ Ð
Ġ ):
rt ete
Ġvo rl
ĠHerzl i
Mark us
Ġdunkle n
e lp
ĠFa hren
ge lÃ¤nde
Ġru nden
ĠInne ren
ĠVerknÃ¼ pfung
ĠT urm
k lo
ĠUN S
ĠBÃ¤ ren
ĠSai n
Ġexklusi ven
Ġzug reife
ĠHÃ¤ ufig
Ġverb reiten
re gen
ĠL abel
stre cke
gÃ¤ ngen
op pt
ĠLa i
Ġvergleich bar
ma tte
Ġvo rkommen
Publi kationen
ĠLi ppen
zins e
ĠBa ss
) -
Ġessentie l
Ġbe wirkt
rgeh ende
ĠTre ppen
twick lungs
Ġ eur
F Ã¶rd
Ġ19 33
ue rung
ma kler
ĠAuf takt
M C
t hl
Ġti tten
ran lagen
ĠFeie r
ja n
Ġ1 16
Ġangebote ne
fi x
K os
ĠBe sicht
verhÃ¤ltnisse s
vertis ement
Ġ Snow
i ps
bl enden
ĠGas ts
uff et
wo rks
ĠSolida ritÃ¤t
kademis ch
Ġpsy chischen
WÃ¤ rme
ĠSee n
u nsicher
nel les
Wes halb
ĠE rstellen
Ġbe sprechen
dem a
feren ce
ĠP odcasts
rb ildung
gro u
istische r
Ġpro vide
fo re
Ġerhalten e
nchen g
nie r
i sa
ĠGe ltung
ĠLi nke
zi als
Ġessentiel l
IER EN
ru nn
poi n
ĠBu n
imme ls
Ġfa cebook
h lst
ĠBa rrierefreiheit
Ġfunktiona l
ÃŁlich e
ige rt
gra u
ĠBur gen
si us
rf re
ch ub
l euchte
22 1
ĠP seudony
! ,
ĠAR T
tt ers
ĠLe nz
ĠZi tat
Ġanst re
ĠW im
ri ka
ĠSatelli t
ob lauch
if unktion
ĠV erste
Ġuntere inander
Ġwirklich e
z Ã¤hlt
Ġ Skla
ĠLi egen
rpunkt e
ĠverlÃ¤ uft
v ille
ndal e
ĠZusammen fassung
ĠRema rketing
b end
ners chaft
ĠgÃ¼lt ige
Ġ198 3
Ġhalb es
tÃ ¼cher
ĠauÃŁerge wÃ¶hnliche
Stelle n
ĠAnge la
Ġeinzu halten
ĠKn opf
eigen e
Ġdo wn
ĠSo ci
foto grafie
ĠSupe rmarkt
go v
ĠKa na
s chicht
rizon t
ĠAbende ssen
que s
ze nde
s chrank
ĠgroÃŁart ige
fÃ¤ ch
will igt
âĢ ĳ
Ġverschi ckt
ig o
yo n
ĠEin es
Ver sicherung
olly wood
hre re
usee land
Ġinformationste chnologischen
ĠSchu ls
ĠChal lenge
hle ne
einheit e
ĠF rie
mit tags
ĠLa une
erha ltung
fre unde
run ken
ĠRÃ¤um lichkeiten
Ġ stellten
Ġrespekt ieren
zin g
Ġ unsicher
ĠFach krÃ¤fte
ian t
Ġ einh
einheite n
Ġausge schaltet
Ġneue ste
ĠGi ft
ĠKunst geschichte
cho ssen
ĠO rgani
beile gung
Da niel
ĠMeisters chaft
¤dago gik
Ġ198 1
Ġli nke
ĠLeo n
twickle r
ĠNutzungs daten
p b
ĠKrankenka sse
Fahr rad
fÃ¼ hrungen
ĠEin griff
S N
Ġleistung ssta
ĠR eb
ssti s
Ġh ere
Ġerstmal ig
Fi s
Ġausgehe n
ĠTell e
Ġsp Ã¼r
Ġvor genannten
zentrum s
ĠJ ury
ol ungs
Ġge lb
ĠUniversitÃ¤t e
riell e
erst o
ert yp
th ers
ven tionelle
h j
Ġlo cker
ĠUniversitÃ¤te n
ĠFÃ¼hrungs krÃ¤fte
Q ue
welle n
Ġfolge ndem
ĠBe cker
Ġwei ÃŁt
ĠTechnolo gy
Ġge ogra
fi nde
nad i
ĠKal k
Ġunb est
ĠZent imeter
ĠSain t
ĠFilm s
mo rgen
nce l
fÃ¼ hrte
Ph ili
ĠausfÃ¼ l
Ã¤r zte
c ur
e istungs
Bi n
met ropole
lon s
Re gel
ĠHi ndern
ĠSam me
ĠStre aming
zu s
Ġeure r
B ett
s wer
ĠPe rma
ne ue
poin t
ĠRegist rieren
ĠEnerg ies
edli ch
lÃ¤ nen
ĠÃĸ ffnen
Ġp u
ĠWohn mobil
ri us
Ġb uche
Ġver raten
ĠStÃ¤ dt
ĠNation alsozial
B lu
n schlÃ¤
asch inen
Ġ19 74
L ern
Ġge we
ĠReis ebe
10 7
so rte
ĠVern etzung
spro gramm
P raktikum
auf wand
rl berg
ĠFried hof
e ria
ĠAus richtung
ĠMe rkliste
d B
ob ilitÃ¤t
Ġ selt
Ġre publik
ĠfrÃ¼h ere
Ġ>> >
ĠA fri
pa ratur
ĠBenutzere rfahrung
ĠK lo
Ġunterha lt
as mus
auf nahmen
cht i
La ssen
ĠMedika ment
ĠM ot
ĠÃ ĺ
me ga
mas ke
So ziale
Ġaus Ã¼ben
ĠFu n
ĠR T
re nden
ĠTei ch
R isi
ĠRe form
Z we
Ġman uell
Ġscha rf
E nergi
Ġautomatisierte r
verb indungen
Ġ= =
Auf trags
ĠW etten
hin gton
ĠB ir
Ġdemo nst
Ġ19 79
l iger
B us
Fre unde
ca rt
Ġle istungs
E gal
Hoh e
sb ach
phische n
Ġbes etzt
B eg
ĠMe r
ol ia
sstis ch
ĠZus endung
Ġright s
ĠSpa ss
Bes uch
fÃ¤ll ige
J ournal
Meta l
B Ã¼rge
zub ringen
los es
gÃ¤ rten
ĠLo w
Bi t
be eren
ĠâĤ¬ )
ĠP ia
ssi e
Ġwa ch
S Y
ĠU t
ĠKonfigu ration
Ġbe gleit
use nde
be ck
ĠMale r
Ġ# ##
Ġverurte ilt
i nue
ĠPro gnose
tatt ungs
Ġvertra glichen
ĠV erteilung
vorsch lÃ¤ge
r ran
ĠReihe n
ĠKat e
ĠSelbst verstÃ¤ndlich
ĠGrÃ¼ ndungs
ni us
Lea rning
Ġangen ehme
ĠVerb rechen
Ġschie n
mische r
ĠA ni
ĠKa d
ĠmÃ¼ sst
ĠÃ¤ hne
ost ik
ĠV PN
ĠE nz
ĠBe steller
C ON
Ġeigen tliche
Ã¶ ffnung
san walt
Ġerne uten
ĠEnt sorgung
ĠO ct
ĠHu ma
ZusÃ¤tzlich e
hlo n
wÃ¤ gung
ĠWett kampf
ĠB etten
Â ł
ssl e
wer fer
G utschein
ĠAnge hÃ¶rige
Ġ schm
Ġverschi eben
ku mente
ĠStatt dessen
ĠLe id
e ingen
ss tadt
ĠVor sicht
ĠRecht sb
rase n
rÃ¤s e
ĠD ES
ra gt
Ġ einl
11 7
ĠausfÃ¼l l
ĠSt rei
Ġ decken
ĠWo nn
Ġange fÃ¼hrten
Ġausge wo
indli ches
chwe rde
wendungs zweck
ĠPra xi
ĠBe cken
ue rei
Ġbest ehe
ĠVERARBEIT UNG
io l
end ete
ĠRed u
ĠK lar
Ġaufgel istet
i ces
ĠK im
ĠTerra ssen
Ġgeh eim
G uten
ĠSch ade
ĠBa cken
t ermin
ĠA rgent
enn a
ĠI rrt
ĠSta tionen
Ġmit machen
Ġalte s
ĠEnt gelt
Ho w
Ĺ ı
Ġ sl
lÃ¼te n
B rand
wÃ¤ hrt
ĠUn sicherheit
ĠExperi ment
Ġ ).
ku n
Ġf eucht
dl e
ĠGes chle
ĠDanke schÃ¶n
Ġphy sischen
c ol
f lasche
ĠK ir
Ġ engen
m lungen
Ġo riginal
B D
a ugen
IT Z
ĠThea ters
ab t
am b
n sÃ¤tze
ĠTeil zeit
ĠGesch wi
ĠPersÃ¶nlich keits
ĠKonfigu rieren
Ex tra
ĠMedi um
tri fft
n terd
Ġ wÃ¼r
ĠEnt ertainment
ĠHaupts tudium
ĠBÃ¼rge rinnen
I AL
cht eten
ĠLa ub
fel l
Ø ±
Ja vaScript
Pflicht feld
E h
Ġc la
rdis zipli
ĠT empel
go r
c olor
ĠFo rsch
ĠErn eue
pit e
ĠÃ¤ rge
Ġzusammen gefÃ¼hrt
asts chrift
Ġex plo
ĠA cademy
x l
Â» .
Ġtra fen
Ġo ver
ĠPlat zierung
Ġverlo r
Ide n
mb urg
Ġwe m
sp rit
ba cks
Produ ktion
lseit e
ĠGla ube
Ġverkauft e
erei e
ĠDatenschutz niveau
ĠStÃ¤ rkung
k rÃ¶
sh ed
kom b
ĠBeschwerde recht
da ille
Ġordnungs gemÃ¤ÃŁ
ib st
ert ag
ko ntakte
Ġfehl ende
pa tion
n twort
il es
n wes
ss piele
ĠHa nda
mo re
c os
ĠPER SON
Vo rbe
ĠSi eben
Ġ eingen
Ġrestliche n
Ġ Sets
Rei fen
ĠA zu
MÃ¶ chten
Wie n
¤ ute
ĠfÃ ¤llig
ĠDomain s
mi th
Shi rts
a nwes
ĠVerbrauch ers
P unkte
Ġc omp
and ina
Ġgek lÃ¤rt
s ke
konze pte
Ta rgeting
Fe l
ebel l
Ġ archi
spa n
Ġl ed
ĠGi n
ere ig
ĠunabhÃ¤ng igen
ã Ĥ
Q U
ĠkÃ¶rpe rlichen
ĠRe ndite
ĠWeiterb ildungs
Imm obilie
ĠCa rol
zu fri
eb uch
Ġsp ra
ĠQual ifikation
Ġaufbewa hrt
ĠB Ã¶h
ĠZugangs daten
Ma d
ĠA ktions
Ġauf wend
St eck
tra l
ste ck
ha ven
l ings
K unde
ĠWe nde
ĠBio logie
Ġank ommt
Ġanbi etet
Ġj enen
sp ra
rchi e
ĠP reu
ga tion
gra f
ĠNet flix
Ġver wiesen
n richt
x p
bea rbeitung
V irus
IDERSP RUCH
c ci
la lte
ĠLon g
Ġfol gten
UnterstÃ¼t zung
Ġsach l
ĠBereits chaft
Ġfa iren
K rieg
Ġ19 75
rmarkt u
tok olle
] [
rmarktu n
ĠSelb ststÃ¤nd
ĠErl Ã
emo n
Ġkla sse
Ġwa sser
ges chÃ¼t
Ã¼ber weisung
Ins e
auss chuss
Ġsachl i
l inge
rmarktun g
ĠM r
ĠKont e
ob t
2 20
nÃ ¼t
Ġla ufende
Italie n
Ġverb indlich
o uren
ĠFakultÃ¤t e
A ir
be kommen
ncheng ladbach
jÃ¤ ger
ĠParla ments
ĠwÃ¼ rd
IE GEL
ĠT wi
ĠausfÃ¼ll e
peri ode
K B
Ġversch oben
ru gs
Iden t
Sch nitt
ro ne
ĠSpam bots
n ull
i to
th eater
ĠGebÃ¤ udes
Ġlangfrist ige
R et
a tembe
Ġange forde
aktiv itÃ¤ten
Ġg latt
ĠAb lehnen
Ġjuri stischen
Pa ul
ege nd
s cheid
Ġfi ck
Ġsp art
Ġge folgt
ĠPa are
i nto
Ġverhe i
ĠSo uth
Zent rum
n r
ĠKenn zeichen
uch st
ĠKo rea
nh eits
ĠGewi chts
ĠE mi
Ġwa chse
Ġ1 19
ĠLi nden
ĠausfÃ¼lle n
val l
Ġsuch st
ĠFakultÃ¤te n
Ab stract
lo rien
ĠLat e
Ġ Shield
Ġeinge legt
HÃ¤ ufig
Da men
ĠEigen tlich
ĠkÃ¶ nig
ĠsÃ¼dlich e
K ommunikation
Ġbe weisen
ĠBe handlungen
P osts
mo us
aus wahl
ĠNachhalt igkeits
netz werk
Ġre daktionelle
Ġsachli ch
ĠHerzli ch
Ġre cy
Ġdri tter
Ġla ch
fi nder
ĠGa rde
ĠNational e
Ġstud ierte
j es
Ġauss age
ĠMitglieder versammlung
ĠB uÃŁ
nst rukt
ĠDimen sion
BE Z
ĠBeoba cht
ĠFl iesen
U kraine
ĠVi ntage
ĠSam mel
ĠM ehl
Ġgesch e
J edes
tÃ¤ rkt
Ġintere ssen
ĠAl fred
ĠA lo
ĠM ur
ĠAnl eitungen
weich ungen
si eg
ĠgeschÃ¤ft l
c z
Ġeinzu setzen
Ġ anwes
ĠGel enk
ĠBes chrÃ¤
Ġ atembe
rn ia
M ik
Ġk ir
rei fung
ssa u
ĠEt was
ĠWebs hop
ĠMittels tand
ĠHa ss
l eistungs
ĠTie fen
¤ ufe
gÃ ¼ltig
Ġkann t
¤ch sische
Ġge zwungen
ĠGR Ãľ
Ġgleiche r
10 9
ĠMoni ka
Ġop tional
Ġne ws
row sing
ro ni
ĠEin stellungs
Ġ eBook
ĠgeschÃ¤ftl i
Ġheraus gegeben
l euchten
Ġalterna tiv
ny l
C omputer
ĠBe zugs
stra sse
sa a
Ġsta rb
ĠPfe ffer
Ġwahr nehmen
t ime
ĠKa p
ttin g
ĠSo wohl
ĠMa sters
ĠCo sta
s eits
ĠfranzÃ¶ sische
ĠA y
Ġmona tlichen
ri nne
ĠGe si
pro blem
D ra
Ġ19 68
ab teilung
20 01
wa ssers
trolli n
C amp
ĠLehr veranstaltungen
ĠG ood
ĠSÃ¼da frika
IS BN
ĠÃľb ergang
ĠRauch e
13 1
ad min
Ġweiterg eben
ĠerhÃ¶hte n
Sach s
Ġlu x
ĠWÃ¤ hrung
Ġunsere iner
xi e
Ġp fle
G as
AR E
ĠAt e
u nterd
Ġzuzu stimmen
Ġso mme
Th erapie
Ġ19 78
cht igen
ĠDoku menten
Ġanony me
Ġganze s
ĠBunde samt
ta ndes
nleite r
Ġg aben
ĠAuf forderung
ĠNAT O
nia n
Ġents chied
ĠKu pfer
Ġregist rierten
Re chtliche
ka men
ĠZitro nen
ha r
N ational
Ġ sendet
Ġk oope
ĠVerarbeitungs vorgÃ¤nge
llo w
ĠAnb indung
He rren
ĠauÃŁe rorden
ver Ã¶ffen
ĠErscheinungs jahr
ĠVi sa
ve rleih
ĠAl ba
ĠAus zahlung
LE T
ĠTa fel
ge webe
stÃ¶ rungen
IN T
P E
ĠU lm
ĠWirk ungs
ĠHÃ¶ rs
Ã¶ sterreich
Ġversch winden
A ktionen
zieh bar
k reise
ĠTra ck
rk irche
zo nen
trollin g
Ġ ski
etzte r
ese ne
gleich h
Ñ ı
ĠLandschaft s
Aus kunft
Ġkannt e
ĠÃ¼berrasch end
ster dam
P fe
gleichh e
ĠHa ken
e itige
In sgesamt
sst ufe
ĠErfa hren
ĠDa rk
gleichhe i
ĠRecht sprechung
ĠÃ ¢
ĠNot ebook
ha rmo
ĠUrheber rechte
ĠWa y
ĠLÃ ¤cheln
ĠInstit uts
A gentur
gleichhei t
Entd ecken
Ġattrakt iven
ĠCha os
K ey
Ġzeit weise
FOR M
Ġnach weis
pe nden
ĠGa rage
ab geord
Ġgesto rben
ÂŃ ÂŃ
ĠVe geta
Be vor
oldi n
ol dt
ri stische
ĠAb sicherung
D B
Ġindivid uelles
odi s
ĠSeite na
iot ika
ĠReport s
ĠE cken
Ġre zept
fÃ¼ gt
ĠgeschÃ¤ftli ch
Ġdokument iert
ĠE S
ĠT HE
ĠStaats anwalt
ĠFl iegen
00 1
da ss
Ġbe zah
nge rs
Ġvirt uelle
Ġwiederh olen
ze nden
ĠT ote
ĠF lash
s rael
Ġvo rlÃ¤
ĠZie ls
ĠFe ls
ĠAf ghanistan
Ġbreit es
zeug nis
Ġ Sorte
liefe rn
Ġausge statt
Ġkompl ex
eu ert
ver waltungs
¼ nden
ntat e
ĠN ACH
ga d
Ba sis
V erg
ĠVerb indungs
erb lick
ĠLim ousine
ĠTra ue
ĠKa tar
n rufen
a ir
Ba si
ĠSol utions
Ġ init
ĠPhase n
i nba
Ġfie ld
ĠzuverlÃ¤ss ige
zÃ¼ gen
dienstle istungen
Ġna me
ĠÃ¤lte sten
Ġwo rking
Ġsam sung
ĠPrÃ¤se n
T weet
ĠWintermo nat
Ġpro bieren
Ġeingeb lendet
U CH
Ġ ela
so rganisation
D O
Ġents pannen
e ring
Ġorig inell
Ġmehre rer
n tui
Ġerb racht
Ġha use
ĠZ wang
sle i
cro ss
Ġ emb
G ymna
ĠSport arten
Ġsy mb
Ġindire kt
ĠLebens jahr
C R
Ha ndels
ĠB ob
ĠR oten
ĠK oblenz
zu lernen
Ġbe standen
il ft
ĠAk kus
nnen wende
grou nd
Ġher rlich
Ba r
ĠSpe zifi
ĠB ucht
Ġsec urity
Fa l
Tel efax
ĠA rsch
ug o
ĠHerb ert
ĠHint ergrÃ¼nde
wo rds
ĠReise nde
i con
auf lÃ¶sung
e ige
Ġkomme nde
Ġrechts widrige
T I
ĠCE O
ĠB rÃ¶
ĠErlÃ ¤ute
bl icke
C OM
ĠUrlaubs ziel
ĠHÃ¼ tte
ĠC reme
ck y
Rea l
lu des
M u
ĠB eta
enz ahlung
i ntui
% .
Ni ed
Ġrei fe
Staa t
ĠStri ck
ĠPa na
ĠU rk
Ges etzliche
nn iert
ĠMark et
Ġro mantische
rb Ã¼cher
Ġfreige schaltet
ge o
sse ln
Ġsp rich
opt out
ce ss
tego ries
Ġfort schri
Ã¶ge rn
ĠSchal l
ĠTrust ed
ĠKa lt
ki t
Ġhei sst
ĠEx cel
n tgen
ĠWe ide
tage ssen
rste r
IE L
Si eg
ĠMus ke
rauss etzungen
be wusstsein
k ritik
ĠErg ebnissen
ĠSaa rland
Ġmo ntiert
We g
zie rungen
Ġka lte
versa l
Y our
ĠMÃ¼ tter
a ntwort
ĠMe la
Ġ under
ĠF lat
gn osen
a nrufen
ffene n
ĠGÃ¤ rten
ĠWol ken
n igin
Ġna vigation
a ma
ĠMittl erweile
oldin g
Ġvern achlÃ¤ss
rf ilm
P M
Ã¶gliche rweise
zipli n
Ñģ Ðº
Ã¶ch e
ĠZiel gruppen
F M
ĠHu n
fa rb
ĠMilitÃ¤ r
ĠAusnahme fÃ¤llen
K ranken
zinse n
kademisch e
Ġspi rit
ĠW iesen
ĠUrheber rechts
Ġ12 8
D G
spe ktion
eu rs
nkte r
ĠGerma nistik
ĠÃ¤uÃŁ ern
s lo
H abe
ĠRoh stoffe
Ġha n
Ġfi ltern
H ilf
ĠFrÃ¼h e
rdi e
D om
Ġ dr
so p
Ġhe imischen
Re la
ĠCho r
ĠE rbe
T ests
ĠKle ider
ĠGesch macks
Ġchine sischen
ĠD y
Ġab so
jÃ¤hr l
Ġzeitlich e
V B
Ġb aby
ĠLi cense
ĠAll ergie
Yo ga
ĠBela stungen
Ġunsere i
Ġunserei n
wisch endurch
Ġunserein s
ĠNe o
Ġ Solo
vo rlage
sta s
zy klus
ĠRet tung
Ġk reativen
ro du
ĠDa umen
ur l
Ġ13 5
e rv
i nschlÃ¤
ĠVertrieb s
Ġinternationale r
3 60
ĠHe ilung
ĠSchwa ch
Ġbereitste l
scha ffe
K reuz
ĠA nklicken
erf orderlich
ĠPsy cho
Ġbe reich
ja gd
ĠkÃ¼ mmert
Ã³ n
ĠbegrÃ¼ ÃŁt
ĠN ude
ve rd
ĠInn sbruck
ĠSo wj
ĠJ os
Ġha rten
ĠHa rz
ĠSi eb
kam pagnen
H ER
L ade
erf o
ĠMa ssa
Ġle istet
w hat
Dienstle ister
rda n
fÃ¼ hlen
He y
b eteiligung
ĠNetzwerk s
Ġwo rld
jÃ¤hrl i
ĠB uchen
Ġge kÃ¼ndigt
a rte
s tÃ
Re chte
ĠGlauben s
D eta
ĠGe sang
kali e
zis ka
Ġeind rucks
ĠA lu
lÃ¤ sst
Ġget Ã¶tet
ĠLa yout
N G
H g
ĠTe ndenz
a chte
Ġo k
ĠvorÃ¼ber gehend
ĠKla rheit
ĠPro b
Ġschi ef
Ġn ette
Ġmit nehmen
ĠMedika menten
Ġt rug
Ġwir ft
NÃ ¼
wohnheit e
schad e
wohnheite n
ĠGe staltungs
Ġmaschine nles
gesprÃ¤ch e
ĠNieder lage
f low
20 1
ĠAufsicht s
jÃ¤hrli ch
ĠPa pa
ï ¼
ĠArbeits recht
ĠO ma
rbl i
Ġba r
Ġauf recht
Ġbei des
ĠFi t
nge ld
Ġ% .
tÃ¤ tten
ĠTint e
ha ls
c up
prÃ¤ gung
j etzt
ĠPad erborn
ĠRe ply
Sti ch
Ġ unterd
nc ed
ĠDiskussion s
ĠTro pfen
ĠGegen Ã¼ber
ĠT rÃ¤ge
A ra
Ġ1 12
ig sten
ĠtÃ¤t igen
ĠVor jahr
etti n
reif bar
S EN
Ġweb cam
Wo rld
10 8
Ġdiffe ren
Ġ5 000
n omie
o rganisation
ĠZukunft s
Ġ19 73
rÃ¤uch l
la ndes
ĠSzene n
ĠP O
Q uery
Fa rb
ĠPa pie
ĠAtt rib
Ġq uer
ĠEbe nfalls
ĠA wards
Ãĸ l
lÃ¤ d
Ġkonf ron
ĠVerb u
FÃ¶rd erstruktur
e inschlÃ¤
ĠÃ¶rtliche n
Ġne rv
ĠMe iste
t hin
ĠEx t
verl etzungen
ra uchen
ĠR unden
ĠAbs chnitte
ro i
ĠfrÃ¼h zeitig
t errichtet
ĠCha rles
ĠSta m
rÃ¤uchl i
ĠInvesti tions
n terrichtet
u nterrichtet
Ba yern
ĠglÃ¼cklich e
ĠLiefer zeiten
art h
Ġkeines wegs
Ġ Sul
nun ternehmen
ĠT L
Ġbedi n
ĠJournal ist
Ġnach gewiesen
a nsÃ¤
Ġ Sab
ĠÃĸsterreich s
ĠSit e
cal ly
ĠselbststÃ¤nd ig
erh of
ĠBes cheid
ĠTeuto nia
ĠEt hik
Ġemp fehle
¼te n
i srael
Ġbishe rige
a thl
¼d e
ĠSuch maschinen
Ġbeurte ilen
Ġlit era
Vol ks
nta s
ĠCa re
Ġange meld
¤ nden
ĠInhalt sstoffe
Bet reff
ĠRob oter
Ġ unterrichtet
Ġ return
ro nen
d rÃ¼cke
ĠRoh stoff
Ġbestm Ã¶glich
ĠBro nze
ĠV ib
Ġag gress
ill y
Ġbereitstel l
Ġla u
a way
ĠBam berg
N S
ĠH A
AN K
ĠÃ¼bers pringen
ĠAuÃŁe nbereich
ĠChrist ine
obe ne
Ġdefini eren
Ġkennen zulernen
Ġbeh oben
Ġbereitstell e
wa rten
Ġr ese
ĠSch lÃ¤
E X
Ġher zustellen
Fi nden
rein igt
i das
ĠRechn ungen
Ġ intui
ĠZe ile
ĠHalb zeit
ĠKame ras
ĠSchra uben
ot ta
rÃ¤uchli ch
Ġ einschlÃ¤
ec kte
ĠA larm
Ġ into
t erin
Sou nd
ĠNi ntendo
ĠSchi ffe
ĠE id
Ge org
gi ere
da u
kom mission
ĠGleich gewicht
Mob ilitÃ¤t
ĠMit einander
Me nu
chi ckt
Ġ ansÃ¤
ĠT am
Studie n
ĠN S
Ġf einen
chlie ÃŁt
Ġp rin
wei hna
Winte r
Ġri chter
ĠgewÃ¤ hren
C ity
Ge nau
ĠLei ch
r sichtlich
H ub
u gie
E rfahren
ĠBet rug
fe sts
ĠRet ro
m otor
ĠKa ra
Ma nage
Ġpa rti
ĠLo gik
ra ry
s chriften
a ntrag
Sich e
Ġsa tt
n sburg
ĠSo lange
Ġeva ngelische
ĠFo re
eterinÃ¤rmedizi nische
Ġbereitstelle n
He im
edd ed
ĠBe vÃ¶lkerungs
H AL
ĠSpeich ert
ĠLo cation
ĠerklÃ¤ re
ĠPo sit
ne cht
Ġeinn ehmen
ĠSonnens ch
ĠdÃ¼r ften
ĠO rgan
Intern ationale
ĠHÃ¶he punkt
Ġauf geben
ff ner
bes chluss
e rsichtlich
Za hn
Ba tterie
ĠEngi neering
T icket
nei n
M M
sso ftware
Ġk olle
ĠN ext
ĠAd e
a lem
ĠÃľber zeugung
ĠI S
U K
port ieren
i tliche
pa r
ĠInternet bro
ĠAus lieferung
wirtschaftliche n
ĠCa n
S Ã¤tze
we ets
werk zeuge
ĠHe u
Grund sÃ¤tzlich
ĠBlock chain
will e
ĠSam meln
ĠE volution
e rotische
nle iste
Ġganz h
ĠÃľb ergangs
ĠA chtung
ĠRaba tte
ĠGet reide
a la
hal e
Ġganzh e
Ġ ersichtlich
ĠAusland s
lant i
ĠM emo
rha usen
aus weis
ĠVerb ot
ĠAP I
ĠSil vester
pri ce
ĠRei z
kante n
ĠPap st
ra ktionen
l ive
ĠSe kunde
J Ã¼rgen
ĠC rui
ĠFe ind
Ġgele itet
Ń Ĳ
ĠBÃ¼ ros
re port
[...]
