{
  "version": "1.0",
  "truncation": null,
  "padding": null,
  "added_tokens": [
    {
      "id": 0,
      "content": "<|endoftext|>",
      "single_word": false,
      "lstrip": false,
      "rstrip": false,
      "normalized": true,
      "special": true
    }
  ],
  "normalizer": null,
  "pre_tokenizer": {
    "type": "ByteLevel",
    "add_prefix_space": false,
    "trim_offsets": true,
    "use_regex": true
  },
  "post_processor": {
    "type": "ByteLevel",
    "add_prefix_space": true,
    "trim_offsets": false,
    "use_regex": true
  },
  "decoder": {
    "type": "ByteLevel",
    "add_prefix_space": true,
    "trim_offsets": true,
    "use_regex": true
  },
  "model": {
    "type": "BPE",
    "dropout": null,
    "unk_token": null,
    "continuing_subword_prefix": "",
    "end_of_word_suffix": "",
    "fuse_unk": false,
    "byte_fallback": false,
    "ignore_merges": false,
    "vocab": {
      "<|endoftext|>": 0,
      "!": 1,
      "\"": 2,
      "#": 3,
      "$": 4,
      "%": 5,
      "&": 6,
      "'": 7,
      "(": 8,
      ")": 9,
      "*": 10,
      "+": 11,
      ",": 12,
      "-": 13,
      ".": 14,
      "/": 15,
      "0": 16,
      "1": 17,
      "2": 18,
      "3": 19,
      "4": 20,
      "5": 21,
      "6": 22,
      "7": 23,
      "8": 24,
      "9": 25,
      ":": 26,
      ";": 27,
      "<": 28,
      "=": 29,
      ">": 30,
      "?": 31,
      "@": 32,
      "A": 33,
      "B": 34,
      "C": 35,
      "D": 36,
      "E": 37,
      "F": 38,
      "G": 39,
      "H": 40,
      "I": 41,
      "J": 42,
      "K": 43,
      "L": 44,
      "M": 45,
      "N": 46,
      "O": 47,
      "P": 48,
      "Q": 49,
      "R": 50,
      "S": 51,
      "T": 52,
      "U": 53,
      "V": 54,
      "W": 55,
      "X": 56,
      "Y": 57,
      "Z": 58,
      "[": 59,
      "\\": 60,
      "]": 61,
      "^": 62,
      "_": 63,
      "`": 64,
      "a": 65,
      "b": 66,
      "c": 67,
      "d": 68,
      "e": 69,
      "f": 70,
      "g": 71,
      "h": 72,
      "i": 73,
      "j": 74,
      "k": 75,
      "l": 76,
      "m": 77,
      "n": 78,
      "o": 79,
      "p": 80,
      "q": 81,
      "r": 82,
      "s": 83,
      "t": 84,
      "u": 85,
      "v": 86,
      "w": 87,
      "x": 88,
      "y": 89,
      "z": 90,
      "{": 91,
      "|": 92,
      "}": 93,
      "~": 94,
      "¡": 95,
      "¢": 96,
      "£": 97,
      "¤": 98,
      "¥": 99,
      "¦": 100,
      "§": 101,
      "¨": 102,
      "©": 103,
      "ª": 104,
      "«": 105,
      "¬": 106,
      "®": 107,
      "¯": 108,
      "°": 109,
      "±": 110,
      "²": 111,
      "³": 112,
      "´": 113,
      "µ": 114,
      "¶": 115,
      "·": 116,
      "¸": 117,
      "¹": 118,
      "º": 119,
      "»": 120,
      "¼": 121,
      "½": 122,
      "¾": 123,
      "¿": 124,
      "À": 125,
      "Á": 126,
      "Â": 127,
      "Ã": 128,
      "Ä": 129,
      "Å": 130,
      "Æ": 131,
      "Ç": 132,
      "È": 133,
      "É": 134,
      "Ê": 135,
      "Ë": 136,
      "Ì": 137,
      "Í": 138,
      "Î": 139,
      "Ï": 140,
      "Ð": 141,
      "Ñ": 142,
      "Ò": 143,
      "Ó": 144,
      "Ô": 145,
      "Õ": 146,
      "Ö": 147,
      "×": 148,
      "Ø": 149,
      "Ù": 150,
      "Ú": 151,
      "Û": 152,
      "Ü": 153,
      "Ý": 154,
      "Þ": 155,
      "ß": 156,
      "à": 157,
      "á": 158,
      "â": 159,
      "ã": 160,
      "ä": 161,
      "å": 162,
      "æ": 163,
      "ç": 164,
      "è": 165,
      "é": 166,
      "ê": 167,
      "ë": 168,
      "ì": 169,
      "í": 170,
      "î": 171,
      "ï": 172,
      "ð": 173,
      "ñ": 174,
      "ò": 175,
      "ó": 176,
      "ô": 177,
      "õ": 178,
      "ö": 179,
      "÷": 180,
      "ø": 181,
      "ù": 182,
      "ú": 183,
      "û": 184,
      "ü": 185,
      "ý": 186,
      "þ": 187,
      "ÿ": 188,
      "Ā": 189,
      "ā": 190,
      "Ă": 191,
      "ă": 192,
      "Ą": 193,
      "ą": 194,
      "Ć": 195,
      "ć": 196,
      "Ĉ": 197,
      "ĉ": 198,
      "Ċ": 199,
      "ċ": 200,
      "Č": 201,
      "č": 202,
      "Ď": 203,
      "ď": 204,
      "Đ": 205,
      "đ": 206,
      "Ē": 207,
      "ē": 208,
      "Ĕ": 209,
      "ĕ": 210,
      "Ė": 211,
      "ė": 212,
      "Ę": 213,
      "ę": 214,
      "Ě": 215,
      "ě": 216,
      "Ĝ": 217,
      "ĝ": 218,
      "Ğ": 219,
      "ğ": 220,
      "Ġ": 221,
      "ġ": 222,
      "Ģ": 223,
      "ģ": 224,
      "Ĥ": 225,
      "ĥ": 226,
      "Ħ": 227,
      "ħ": 228,
      "Ĩ": 229,
      "ĩ": 230,
      "Ī": 231,
      "ī": 232,
      "Ĭ": 233,
      "ĭ": 234,
      "Į": 235,
      "į": 236,
      "İ": 237,
      "ı": 238,
      "Ĳ": 239,
      "ĳ": 240,
      "Ĵ": 241,
      "ĵ": 242,
      "Ķ": 243,
      "ķ": 244,
      "ĸ": 245,
      "Ĺ": 246,
      "ĺ": 247,
      "Ļ": 248,
      "ļ": 249,
      "Ľ": 250,
      "ľ": 251,
      "Ŀ": 252,
      "ŀ": 253,
      "Ł": 254,
      "ł": 255,
      "Ń": 256,
      "en": 257,
      "er": 258,
      "ch": 259,
      "\":": 260,
      "ei": 261,
      "Ġd": 262,
      "el": 263,
      "un": 264,
      "ie": 265,
      ",\"": 266,
      "la": 267,
      "de": 268,
      "st": 269,
      "ro": 270,
      "\":\"": 271,
      "\",\"": 272,
      "in": 273,
      "{\"": 274,
      "on": 275,
      "pro": 276,
      "bel": 277,
      "an": 278,
      "prob": 279,
      "label": 280,
      "},": 281,
      "ll": 282,
      "ar": 283,
      "es": 284,
      "ĠS": 285,
      "ich": 286,
      "at": 287,
      "ein": 288,
      "Ã¼": 289,
      "ung": 290,
      "Ġa": 291,
      "Ġun": 292,
      "Ġs": 293,
      "ge": 294,
      "or": 295,
      "Ġw": 296,
      "},{\"": 297,
      "99": 298,
      "Ã¤": 299,
      "nu": 300,
      "it": 301,
      "ten": 302,
      "sch": 303,
      "null": 304,
      "te": 305,
      "ĠA": 306,
      "Ġv": 307,
      "Ġdie": 308,
      "Ġund": 309,
      "ĠD": 310,
      "al": 311,
      "Ġb": 312,
      "der": 313,
      "Ġm": 314,
      "ĠB": 315,
      "den": 316,
      "hr": 317,
      "ti": 318,
      "Ġz": 319,
      "ur": 320,
      "as": 321,
      "Ġein": 322,
      "Ġder": 323,
      "ter": 324,
      "gen": 325,
      "20": 326,
      "us": 327,
      "ĠM": 328,
      "et": 329,
      "em": 330,
      "Ġi": 331,
      "Ġf": 332,
      "uf": 333,
      "ĠW": 334,
      "ĠE": 335,
      "Ã¶": 336,
      "ĠI": 337,
      "ber": 338,
      "ĠF": 339,
      "Ġin": 340,
      "Ġn": 341,
      "ĠK": 342,
      "ĠG": 343,
      "Ġh": 344,
      "Ġk": 345,
      "ck": 346,
      "lich": 347,
      ".\\": 348,
      "ĠP": 349,
      "ra": 350,
      "Ġzu": 351,
      "re": 352,
      "war": 353,
      "ut": 354,
      "ir": 355,
      "ion": 356,
      "sen": 357,
      "eit": 358,
      "Ã¼r": 359,
      ",{\"": 360,
      "ier": 361,
      "ĠT": 362,
      "Ġg": 363,
      "ĠV": 364,
      "âĢ": 365,
      "ach": 366,
      "ĠH": 367,
      "Ġ(": 368,
      "Ġ20": 369,
      "um": 370,
      "is": 371,
      "ell": 372,
      "mm": 373,
      "warc": 374,
      "ĠR": 375,
      "uch": 376,
      "ben": 377,
      "ĠL": 378,
      "Ġan": 379,
      "il": 380,
      "ig": 381,
      "Ġer": 382,
      "se": 383,
      "ĠN": 384,
      "Ġdas": 385,
      "Ġver": 386,
      "Ġvon": 387,
      "icht": 388,
      "Ġo": 389,
      "Ġge": 390,
      "ol": 391,
      "Ġ1": 392,
      "Ġauf": 393,
      "ĠfÃ¼r": 394,
      "ĠC": 395,
      "98": 396,
      "ser": 397,
      "ation": 398,
      "Ġden": 399,
      "oo": 400,
      "le": 401,
      "ers": 402,
      "nen": 403,
      "am": 404,
      "Ġmit": 405,
      "isch": 406,
      "ent": 407,
      "00": 408,
      "ĠZ": 409,
      "ÃŁ": 410,
      "eh": 411,
      "rei": 412,
      "con": 413,
      "22": 414,
      "ĠIn": 415,
      "ĠSie": 416,
      "be": 417,
      "Ġist": 418,
      "ĠU": 419,
      "kt": 420,
      "ing": 421,
      "ĠJ": 422,
      "ff": 423,
      "and": 424,
      "ls": 425,
      "eg": 426,
      "om": 427,
      "Ġp": 428,
      "ungen": 429,
      "ann": 430,
      "97": 431,
      "nD": 432,
      "ĠSt": 433,
      "ĠâĢ": 434,
      "ĠVer": 435,
      "eb": 436,
      "di": 437,
      "Ġwir": 438,
      "ĠAn": 439,
      "Ġ201": 440,
      "aten": 441,
      "est": 442,
      "96": 443,
      "95": 444,
      "id": 445,
      "ahr": 446,
      "ft": 447,
      "tent": 448,
      "Ġnicht": 449,
      "Ġso": 450,
      "lan": 451,
      "content": 452,
      "Ã¼ber": 453,
      "Ġim": 454,
      "Ġoder": 455,
      "Ġaus": 456,
      "Ġdes": 457,
      "eich": 458,
      "sp": 459,
      "lo": 460,
      "he": 461,
      "ook": 462,
      "for": 463,
      "ies": 464,
      "nA": 465,
      "Ġwer": 466,
      "ĠSch": 467,
      "ic": 468,
      "utz": 469,
      "ul": 470,
      "Ã¤n": 471,
      "ind": 472,
      "21": 473,
      "ik": 474,
      "94": 475,
      "iel": 476,
      "hl": 477,
      "Ġt": 478,
      "ag": 479,
      "93": 480,
      "eu": 481,
      "Ġsich": 482,
      "ĠO": 483,
      "au": 484,
      "Ġeine": 485,
      "Ġj": 486,
      "11": 487,
      "nS": 488,
      "ehr": 489,
      "och": 490,
      "ungs": 491,
      "Ġl": 492,
      "ad": 493,
      "Ġbei": 494,
      "pe": 495,
      "ĠÃ¼ber": 496,
      "Ã¶n": 497,
      "etz": 498,
      "Ġwerden": 499,
      "ien": 500,
      "ver": 501,
      "23": 502,
      "ort": 503,
      "tif": 504,
      "25": 505,
      "stell": 506,
      "ern": 507,
      "iden": 508,
      "998": 509,
      "Ġsch": 510,
      "ri": 511,
      "esch": 512,
      "kti": 513,
      "wei": 514,
      "gt": 515,
      "Ġauch": 516,
      "24": 517,
      "91": 518,
      "26": 519,
      "Ġum": 520,
      "Ġes": 521,
      "sten": 522,
      "ot": 523,
      "identif": 524,
      "\":{\"": 525,
      "hal": 526,
      "05": 527,
      "pp": 528,
      "27": 529,
      "ĠEin": 530,
      "ĠIhr": 531,
      "hn": 532,
      "omm": 533,
      "Ġdem": 534,
      "nW": 535,
      "ab": 536,
      "Ġst": 537,
      "ech": 538,
      "83": 539,
      "ĠEr": 540,
      "enn": 541,
      "und": 542,
      "Ġsind": 543,
      "86": 544,
      "tz": 545,
      "Ġbe": 546,
      "75": 547,
      "84": 548,
      "85": 549,
      "15": 550,
      "06": 551,
      "13": 552,
      "ĠDaten": 553,
      "ht": 554,
      "03": 555,
      "04": 556,
      "eiter": 557,
      "form": 558,
      "Ġwie": 559,
      "ha": 560,
      "Ã¤r": 561,
      "ist": 562,
      "Ġunser": 563,
      "73": 564,
      "74": 565,
      "16": 566,
      "14": 567,
      "Ġha": 568,
      "eil": 569,
      "tig": 570,
      "Ã¼ck": 571,
      "ĠkÃ¶n": 572,
      "76": 573,
      "ĠDie": 574,
      "wer": 575,
      "all": 576,
      "eine": 577,
      "ĠSp": 578,
      "ess": 579,
      "Ġall": 580,
      "Ġnach": 581,
      "end": 582,
      "ru": 583,
      "tern": 584,
      "urch": 585,
      "Ġ-": 586,
      "Ġals": 587,
      "ger": 588,
      "ty": 589,
      "urn": 590,
      "men": 591,
      "nE": 592,
      "ĠUn": 593,
      "arb": 594,
      "ed": 595,
      "nM": 596,
      "Ã¼n": 597,
      "age": 598,
      "ĠCook": 599,
      "\\\"": 600,
      "ug": 601,
      "08": 602,
      "ieren": 603,
      "ĠkÃ¶nnen": 604,
      "nB": 605,
      "sit": 606,
      "ĠâĢĵ": 607,
      "ick": 608,
      "ĠWeb": 609,
      "Ġvor": 610,
      "rÃ¤": 611,
      "12": 612,
      "nI": 613,
      "ication": 614,
      "scha": 615,
      "oll": 616,
      "uid": 617,
      "ĠPro": 618,
      "Ġdass": 619,
      "type": 620,
      "chen": 621,
      "ts": 622,
      "ĠAr": 623,
      "ep": 624,
      "\":\"<": 625,
      "uuid": 626,
      "identification": 627,
      "},\"": 628,
      "Ġzur": 629,
      "âĢľ": 630,
      "qu": 631,
      "lsh": 632,
      "tlsh": 633,
      "Ġich": 634,
      "iv": 635,
      "Ġwird": 636,
      "996": 637,
      "eiten": 638,
      "Ã¶r": 639,
      "auf": 640,
      "ischen": 641,
      "07": 642,
      "ord": 643,
      "\":[": 644,
      "lin": 645,
      "45": 646,
      "ssen": 647,
      "Ġab": 648,
      "Ġ/": 649,
      "ce": 650,
      "lichen": 651,
      "pf": 652,
      "itt": 653,
      "Ġsein": 654,
      "imm": 655,
      "ark": 656,
      "17": 657,
      "33": 658,
      "to": 659,
      "iert": 660,
      "ische": 661,
      "ww": 662,
      "Ġnu": 663,
      "eite": 664,
      "ps": 665,
      "nN": 666,
      "lie": 667,
      "Ġhat": 668,
      ">\",\"": 669,
      "ÂŃ": 670,
      "aus": 671,
      "Ġje": 672,
      "ust": 673,
      "28": 674,
      "ationen": 675,
      "ĠâĢŀ": 676,
      "schutz": 677,
      "Ġunter": 678,
      "Ġent": 679,
      "46": 680,
      "Ġkann": 681,
      "ktion": 682,
      "ss": 683,
      "ran": 684,
      ")\\": 685,
      "og": 686,
      "997": 687,
      "Ġsie": 688,
      "55": 689,
      "Ġ3": 690,
      "liche": 691,
      "geb": 692,
      "ate": 693,
      "Ġzum": 694,
      "ub": 695,
      "fÃ¼": 696,
      "ner": 697,
      "Ġhaben": 698,
      "rie": 699,
      "tra": 700,
      "nK": 701,
      "Ġeinen": 702,
      "erk": 703,
      "Ġdurch": 704,
      "Ġuns": 705,
      "ĠAus": 706,
      "nF": 707,
      "Ġda": 708,
      "ĠJahr": 709,
      "Ġam": 710,
      "18": 711,
      "Ġeiner": 712,
      "zen": 713,
      "len": 714,
      "elt": 715,
      "ĠÃ": 716,
      "ĠAb": 717,
      "ĠDe": 718,
      "senten": 719,
      "zi": 720,
      "43": 721,
      "ill": 722,
      "ahl": 723,
      "schaft": 724,
      "eigen": 725,
      "Ã¤t": 726,
      "ĠCookies": 727,
      "nDie": 728,
      "art": 729,
      "ateg": 730,
      "ang": 731,
      "//": 732,
      "eben": 733,
      "nt": 734,
      "ĠBe": 735,
      "Ġihr": 736,
      "://": 737,
      "..": 738,
      "zu": 739,
      "10": 740,
      "ert": 741,
      "pr": 742,
      "che": 743,
      "alit": 744,
      "87": 745,
      "igen": 746,
      "pla": 747,
      "rech": 748,
      "ĠWebsit": 749,
      "ader": 750,
      "nG": 751,
      "995": 752,
      "uss": 753,
      "her": 754,
      "Ġander": 755,
      "erson": 756,
      "hen": 757,
      "fen": 758,
      "ategor": 759,
      "im": 760,
      "09": 761,
      "formationen": 762,
      "Ġr": 763,
      "ings": 764,
      "har": 765,
      "ied": 766,
      "2022": 767,
      ":\\": 768,
      "xt": 769,
      "schen": 770,
      "lang": 771,
      "ĠMa": 772,
      "header": 773,
      "44": 774,
      "Ġeinem": 775,
      "vers": 776,
      "36": 777,
      "det": 778,
      "Ã¶g": 779,
      "nP": 780,
      "lei": 781,
      "heit": 782,
      "01": 783,
      "Ġweiter": 784,
      "wen": 785,
      "35": 786,
      "ho": 787,
      "tet": 788,
      "nT": 789,
      "ĠWebsite": 790,
      "tps": 791,
      "nH": 792,
      "Ġwar": 793,
      "keit": 794,
      "Ġmehr": 795,
      "bt": 796,
      "Ġwur": 797,
      "nC": 798,
      "des": 799,
      "gest": 800,
      "bar": 801,
      "ont": 802,
      "Ġbis": 803,
      "os": 804,
      "ige": 805,
      "eck": 806,
      "fahr": 807,
      "nis": 808,
      "amm": 809,
      "ac": 810,
      "Ġnur": 811,
      "ĠBer": 812,
      "ĠIhre": 813,
      "ember": 814,
      "lock": 815,
      "Ġbest": 816,
      "Ġges": 817,
      "Ġdies": 818,
      "ah": 819,
      "get": 820,
      "88": 821,
      "assen": 822,
      "deu": 823,
      "ew": 824,
      "anz": 825,
      "zeit": 826,
      "dern": 827,
      "Ġc": 828,
      "ehen": 829,
      "gel": 830,
      "net": 831,
      "Ã¤hr": 832,
      "Ġman": 833,
      "dem": 834,
      "77": 835,
      "nV": 836,
      "29": 837,
      "Ġdiese": 838,
      "ĠGr": 839,
      "eren": 840,
      "66": 841,
      "fe": 842,
      "mf": 843,
      "ĠAuf": 844,
      "ste": 845,
      "Ġe": 846,
      "34": 847,
      "ak": 848,
      "ail": 849,
      "ster": 850,
      "ata": 851,
      "edi": 852,
      "etzt": 853,
      "ffen": 854,
      "du": 855,
      "Ġnoch": 856,
      "utsch": 857,
      "land": 858,
      "met": 859,
      "https": 860,
      "tar": 861,
      "ob": 862,
      "ken": 863,
      "19": 864,
      "ĠVor": 865,
      "hnen": 866,
      "ommen": 867,
      "elle": 868,
      "Ġ&": 869,
      "mal": 870,
      "ov": 871,
      "ÃŁen": 872,
      "ref": 873,
      "}}": 874,
      "text": 875,
      "rec": 876,
      "alt": 877,
      "ap": 878,
      "65": 879,
      "ant": 880,
      "ĠSo": 881,
      "qualit": 882,
      "unden": 883,
      "90": 884,
      "sha": 885,
      "uri": 886,
      "Ġdu": 887,
      "ne": 888,
      "ges": 889,
      "Ġ4": 890,
      "Ġfin": 891,
      "ef": 892,
      "version": 893,
      "Ġ5": 894,
      "date": 895,
      "nL": 896,
      "gle": 897,
      "Ġsp": 898,
      "ass": 899,
      "Ġneu": 900,
      "ehmen": 901,
      "oogle": 902,
      "Ġ2022": 903,
      "categor": 904,
      "ĠInformationen": 905,
      "fol": 906,
      "ild": 907,
      "ľber": 908,
      "block": 909,
      "Ġviel": 910,
      "per": 911,
      "02": 912,
      "Ġsoll": 913,
      "warn": 914,
      "eln": 915,
      "gth": 916,
      "uage": 917,
      "ĠWir": 918,
      "Ġber": 919,
      "length": 920,
      "language": 921,
      "record": 922,
      "nZ": 923,
      "target": 924,
      "Ã¶glich": 925,
      "quality": 926,
      "plain": 927,
      "categories": 928,
      "Ġlie": 929,
      "conversion": 930,
      "adata": 931,
      "]}}": 932,
      "refers": 933,
      "metadata": 934,
      "headers": 935,
      "digest": 936,
      "mful": 937,
      "warnings": 938,
      "sentence": 939,
      "harmful": 940,
      "identifications": 941,
      "\"},\"": 942,
      "identified": 943,
      "ler": 944,
      "Ġverwen": 945,
      "?\\": 946,
      "dr": 947,
      "gr": 948,
      "lÃ¤": 949,
      "Ġdieser": 950,
      "Ġwenn": 951,
      "lÃ¤r": 952,
      "Ġ2": 953,
      "nR": 954,
      "ĠMit": 955,
      "64": 956,
      "ktiv": 957,
      "\":[{\"": 958,
      "Ġunserer": 959,
      "tion": 960,
      "mmer": 961,
      "iz": 962,
      "Ġaber": 963,
      "op": 964,
      "Ġdar": 965,
      "unktion": 966,
      "me": 967,
      "wie": 968,
      "ĠNutz": 969,
      "}]}}": 970,
      "Ġ|": 971,
      "ĠDas": 972,
      "eitung": 973,
      "\"]": 974,
      "\":[\"": 975,
      "\"],\"": 976,
      "leich": 977,
      "Ġhier": 978,
      "57": 979,
      "54": 980,
      "ÃŁe": 981,
      "esse": 982,
      "nIn": 983,
      "bst": 984,
      "Ġla": 985,
      "rÃ¼": 986,
      "Ġgen": 987,
      "eig": 988,
      "acht": 989,
      "Ġhin": 990,
      "tem": 991,
      "994": 992,
      "halten": 993,
      "ga": 994,
      "erung": 995,
      "hin": 996,
      "Ġpro": 997,
      "ĠRech": 998,
      "ma": 999,
      "ogen": 1000,
      "nU": 1001,
      "Ġbes": 1002,
      "37": 1003,
      "Ġ6": 1004,
      "ĠHer": 1005,
      "weck": 1006,
      "!\\": 1007,
      "rit": 1008,
      "esen": 1009,
      "lle": 1010,
      "trag": 1011,
      "sh": 1012,
      "www": 1013,
      "ink": 1014,
      "ellen": 1015,
      "Ġper": 1016,
      "56": 1017,
      "30": 1018,
      "ast": 1019,
      "atz": 1020,
      "Ã¤l": 1021,
      "ame": 1022,
      "Ġvom": 1023,
      "81": 1024,
      "eld": 1025,
      "ierung": 1026,
      "Ġ\\\"": 1027,
      "lick": 1028,
      "ĠDer": 1029,
      "ookie": 1030,
      "ersonen": 1031,
      "Ġwurde": 1032,
      "od": 1033,
      "akt": 1034,
      "ĠDatenschutz": 1035,
      "47": 1036,
      "Ġre": 1037,
      "nAn": 1038,
      "Ġet": 1039,
      "reich": 1040,
      "hem": 1041,
      "ale": 1042,
      "einen": 1043,
      "mer": 1044,
      "ĠZeit": 1045,
      "ĠFra": 1046,
      "kte": 1047,
      "gesch": 1048,
      "Ã¤ch": 1049,
      "zep": 1050,
      "achen": 1051,
      "hne": 1052,
      "issen": 1053,
      "reis": 1054,
      "stellungen": 1055,
      "80": 1056,
      "Ġalle": 1057,
      "Ã¤hl": 1058,
      "fer": 1059,
      "forder": 1060,
      "ĠReg": 1061,
      "ĠNach": 1062,
      "ĠÃľber": 1063,
      "bie": 1064,
      "ibt": 1065,
      "ichtig": 1066,
      "dig": 1067,
      "tik": 1068,
      "Ġde": 1069,
      "ĠGes": 1070,
      "bez": 1071,
      "ack": 1072,
      "fall": 1073,
      "fÃ¼hr": 1074,
      "ult": 1075,
      "com": 1076,
      "Ġdann": 1077,
      "osten": 1078,
      "Ġwieder": 1079,
      "mitt": 1080,
      "vor": 1081,
      "recht": 1082,
      "ĠIm": 1083,
      "usamm": 1084,
      "eits": 1085,
      "egen": 1086,
      "In": 1087,
      "att": 1088,
      "min": 1089,
      "ĠFor": 1090,
      "ĠÂ": 1091,
      "Ġgel": 1092,
      "olog": 1093,
      "Ġgew": 1094,
      "bes": 1095,
      "Ġbet": 1096,
      "DE": 1097,
      "Ġgro": 1098,
      "92": 1099,
      "ĠBet": 1100,
      "Ġ2021": 1101,
      "ĠUm": 1102,
      "ke": 1103,
      "tigen": 1104,
      "ard": 1105,
      "ĠGesch": 1106,
      "Ã¶ff": 1107,
      "lung": 1108,
      "ost": 1109,
      "67": 1110,
      "Ġâ": 1111,
      "onder": 1112,
      "ohn": 1113,
      "lÃ¤rung": 1114,
      "uchen": 1115,
      "Ġher": 1116,
      "63": 1117,
      "spiel": 1118,
      "inder": 1119,
      "Ġwas": 1120,
      "ay": 1121,
      "),": 1122,
      "uÃŁ": 1123,
      "Ã¶ch": 1124,
      "fach": 1125,
      "gem": 1126,
      "53": 1127,
      "ĠKon": 1128,
      "pt": 1129,
      "adt": 1130,
      "weise": 1131,
      "993": 1132,
      "ow": 1133,
      "ĠInhal": 1134,
      "elbst": 1135,
      "ĠMen": 1136,
      "uro": 1137,
      "ĠAl": 1138,
      "ide": 1139,
      "ĠEnt": 1140,
      "stellen": 1141,
      "Ġgem": 1142,
      "usammen": 1143,
      "Ġunsere": 1144,
      "Ġmir": 1145,
      "eist": 1146,
      "gend": 1147,
      "ober": 1148,
      "Ġeines": 1149,
      "Ã¼hr": 1150,
      "Ġpassen": 1151,
      "Ġ2020": 1152,
      "nah": 1153,
      "ekt": 1154,
      "Ã¼tz": 1155,
      "nCookie": 1156,
      "alen": 1157,
      "einer": 1158,
      "ces": 1159,
      "line": 1160,
      "ĠDeutsch": 1161,
      "urg": 1162,
      "wend": 1163,
      "ĠStÃ¼ck": 1164,
      "itz": 1165,
      "Ġkeine": 1166,
      "Ġfinden": 1167,
      "agen": 1168,
      "ĠEn": 1169,
      "atenschutz": 1170,
      "geben": 1171,
      "Ġimmer": 1172,
      "wor": 1173,
      "ovember": 1174,
      "ia": 1175,
      "Ġgibt": 1176,
      "atur": 1177,
      "Mail": 1178,
      "ive": 1179,
      "ĠBes": 1180,
      "wort": 1181,
      "zeu": 1182,
      "eignet": 1183,
      "Ġsehr": 1184,
      "ĠUnter": 1185,
      "ron": 1186,
      ".\",\"": 1187,
      "riff": 1188,
      "ine": 1189,
      "omp": 1190,
      "--": 1191,
      "off": 1192,
      "ok": 1193,
      "ider": 1194,
      "Ġetw": 1195,
      "999": 1196,
      "nJ": 1197,
      "zeigen": 1198,
      "ingen": 1199,
      "ER": 1200,
      "arbeitung": 1201,
      "ĠMedi": 1202,
      "Ĥ¬": 1203,
      "erklÃ¤rung": 1204,
      "alten": 1205,
      "Ġsowie": 1206,
      "lar": 1207,
      "ĠOr": 1208,
      "dien": 1209,
      "bezogen": 1210,
      "71": 1211,
      "ĠArb": 1212,
      "ĠBei": 1213,
      "Ġ2019": 1214,
      "Ġandere": 1215,
      "will": 1216,
      "aly": 1217,
      "tt": 1218,
      "tieren": 1219,
      "ank": 1220,
      "Ġgesch": 1221,
      "ĠIhnen": 1222,
      "short": 1223,
      "chn": 1224,
      "48": 1225,
      "yst": 1226,
      "sentences": 1227,
      "tember": 1228,
      "BB": 1229,
      "ĠCookie": 1230,
      "ĠGoogle": 1231,
      "ĠEs": 1232,
      "stellt": 1233,
      "ĠNovember": 1234,
      "tige": 1235,
      "stÃ¤n": 1236,
      "fra": 1237,
      "Ġle": 1238,
      "Ġzwei": 1239,
      "Ġ2018": 1240,
      "arten": 1241,
      "Ġgeeignet": 1242,
      "Ã¤rz": 1243,
      "br": 1244,
      "ierte": 1245,
      "AC": 1246,
      "Qu": 1247,
      "ĠZu": 1248,
      "wert": 1249,
      "ĠProdu": 1250,
      "wick": 1251,
      "bl": 1252,
      "EN": 1253,
      "zember": 1254,
      "nWir": 1255,
      "uni": 1256,
      "Ġschon": 1257,
      "abei": 1258,
      "Ġeigen": 1259,
      "bieter": 1260,
      "ontakt": 1261,
      "ĠUhr": 1262,
      "unde": 1263,
      "ersonenbezogen": 1264,
      "89": 1265,
      "Ã¤tz": 1266,
      "eng": 1267,
      "sicht": 1268,
      "Ġgegen": 1269,
      "ĠWer": 1270,
      "ĠEuro": 1271,
      "ktober": 1272,
      "iger": 1273,
      "ĠKomm": 1274,
      "Ã¤ÃŁ": 1275,
      "ften": 1276,
      "ĠFunktion": 1277,
      "ater": 1278,
      "Ġwel": 1279,
      "ucht": 1280,
      "ett": 1281,
      "ĠIhrer": 1282,
      "ial": 1283,
      "Ġwen": 1284,
      "ystem": 1285,
      "ec": 1286,
      "Ġgr": 1287,
      "stellung": 1288,
      "ED": 1289,
      "innen": 1290,
      "amit": 1291,
      "row": 1292,
      "zie": 1293,
      "41": 1294,
      "teil": 1295,
      "ph": 1296,
      "igung": 1297,
      "uli": 1298,
      "Ġ2017": 1299,
      "eptember": 1300,
      "echn": 1301,
      "Ġdiesem": 1302,
      "luss": 1303,
      "nDatenschutz": 1304,
      "stag": 1305,
      "ĠWei": 1306,
      "AD": 1307,
      "anu": 1308,
      "âĢ¦": 1309,
      "erv": 1310,
      "alis": 1311,
      "31": 1312,
      "lage": 1313,
      "78": 1314,
      "icher": 1315,
      "Ġte": 1316,
      "weg": 1317,
      "38": 1318,
      "ĠTe": 1319,
      "Ġ10": 1320,
      "St": 1321,
      "ĠZug": 1322,
      "Ġohne": 1323,
      "spr": 1324,
      "ohl": 1325,
      "ternehmen": 1326,
      "ews": 1327,
      "amen": 1328,
      "Ġmich": 1329,
      "reu": 1330,
      "Ġkon": 1331,
      "av": 1332,
      "essen": 1333,
      "bung": 1334,
      "press": 1335,
      "ĠDezember": 1336,
      "ufen": 1337,
      "ĠMon": 1338,
      "ĠIntern": 1339,
      "satz": 1340,
      "itte": 1341,
      "Ġger": 1342,
      "ĠDien": 1343,
      "ktu": 1344,
      "are": 1345,
      "CC": 1346,
      "log": 1347,
      "Ġ2016": 1348,
      "ĠOktober": 1349,
      "ĠLeben": 1350,
      "rag": 1351,
      "eim": 1352,
      "ba": 1353,
      "AB": 1354,
      "49": 1355,
      "enutz": 1356,
      "ugust": 1357,
      "50": 1358,
      "pril": 1359,
      "inter": 1360,
      "ĠmÃ¼": 1361,
      "ĠMai": 1362,
      "Ġversch": 1363,
      "bs": 1364,
      "burg": 1365,
      "ĠSpiel": 1366,
      "ĠTeil": 1367,
      "ice": 1368,
      "eht": 1369,
      "ĠBest": 1370,
      "els": 1371,
      "fahren": 1372,
      "Ġson": 1373,
      "inn": 1374,
      "ren": 1375,
      "ĠWenn": 1376,
      "sche": 1377,
      "Ġwurden": 1378,
      "lÃ¼": 1379,
      "Ġ7": 1380,
      "Ġjede": 1381,
      "ĠSeptember": 1382,
      "40": 1383,
      "ruck": 1384,
      "kzep": 1385,
      "gan": 1386,
      "zin": 1387,
      "anuar": 1388,
      "nO": 1389,
      "zeich": 1390,
      "...\\": 1391,
      "58": 1392,
      "Ġange": 1393,
      "Ġanderen": 1394,
      "nDer": 1395,
      "Ġganz": 1396,
      "seite": 1397,
      "riv": 1398,
      "Ġverwendet": 1399,
      "rat": 1400,
      "EF": 1401,
      "laub": 1402,
      "Ġbeim": 1403,
      "nSt": 1404,
      "ĠJuni": 1405,
      "ebru": 1406,
      "ebruar": 1407,
      "ĠMÃ¤rz": 1408,
      "Ġjeder": 1409,
      "EC": 1410,
      "bau": 1411,
      "licht": 1412,
      "Ġhabe": 1413,
      "ud": 1414,
      ").": 1415,
      "DD": 1416,
      "kommen": 1417,
      "peich": 1418,
      "ĠGrund": 1419,
      "ichten": 1420,
      "ĠJuli": 1421,
      "69": 1422,
      "51": 1423,
      "sk": 1424,
      "Ġnutz": 1425,
      "Ġkl": 1426,
      "Ġdi": 1427,
      "tikel": 1428,
      "ĠVers": 1429,
      "haus": 1430,
      "nUn": 1431,
      "oren": 1432,
      "Ġeinfach": 1433,
      "__": 1434,
      "ichte": 1435,
      "nung": 1436,
      "82": 1437,
      "schlie": 1438,
      "ĠmÃ¶ch": 1439,
      "ĠRe": 1440,
      "rechen": 1441,
      "Ġthe": 1442,
      "ĠThem": 1443,
      "ĠZweck": 1444,
      "ritt": 1445,
      "etzen": 1446,
      "ĠJahre": 1447,
      "ĠAugust": 1448,
      "nDas": 1449,
      "wir": 1450,
      "gung": 1451,
      "ĠHa": 1452,
      "ĠBeit": 1453,
      "Ġ2015": 1454,
      "ĠApril": 1455,
      "AF": 1456,
      "rank": 1457,
      "Ã¤hrend": 1458,
      "ebook": 1459,
      "ere": 1460,
      "ĠWeiter": 1461,
      "foo": 1462,
      "ĠâĤ¬": 1463,
      "ou": 1464,
      "ĠSeite": 1465,
      "ĠHand": 1466,
      "lag": 1467,
      "acebook": 1468,
      "EB": 1469,
      "Ġselbst": 1470,
      "Ġerfol": 1471,
      "let": 1472,
      "ĠJanuar": 1473,
      "our": 1474,
      "ĠGer": 1475,
      "Ġex": 1476,
      "DF": 1477,
      "zahl": 1478,
      "iss": 1479,
      "Ã¶ffent": 1480,
      "Ġpersonenbezogen": 1481,
      "atist": 1482,
      "tschaft": 1483,
      "Ġins": 1484,
      "licher": 1485,
      "mb": 1486,
      "ment": 1487,
      "hÃ¶r": 1488,
      "Ġbie": 1489,
      "bed": 1490,
      "ĠTra": 1491,
      "af": 1492,
      "DC": 1493,
      "ĠAut": 1494,
      "Ã¤lt": 1495,
      "bild": 1496,
      "32": 1497,
      "enk": 1498,
      "ĠSpeich": 1499,
      "ĠBesuch": 1500,
      "gra": 1501,
      "ĠDu": 1502,
      "ĠFebruar": 1503,
      "Ã¤ll": 1504,
      "zw": 1505,
      "ĠRei": 1506,
      "footer": 1507,
      "eitet": 1508,
      "Ġerforder": 1509,
      "ĠInter": 1510,
      "Ġgut": 1511,
      "000": 1512,
      "los": 1513,
      "asser": 1514,
      "ĠArt": 1515,
      "ester": 1516,
      "Ġdamit": 1517,
      "60": 1518,
      "auer": 1519,
      "ĠBo": 1520,
      "42": 1521,
      "nSch": 1522,
      "ĠQu": 1523,
      "ĠLie": 1524,
      "rach": 1525,
      "ĠIch": 1526,
      "sam": 1527,
      "Ġmachen": 1528,
      "Ã¤ng": 1529,
      "richt": 1530,
      "ĠmÃ¶glich": 1531,
      "ĠMenschen": 1532,
      "Ġzw": 1533,
      "schei": 1534,
      "ĠMark": 1535,
      "Ġlassen": 1536,
      "ĠPf": 1537,
      "halb": 1538,
      "ionen": 1539,
      "Ġdazu": 1540,
      "ĠMar": 1541,
      "ĠInhalte": 1542,
      "ieden": 1543,
      "keiten": 1544,
      "Ġihre": 1545,
      "/\",\"": 1546,
      "ex": 1547,
      "ĠAu": 1548,
      "ĠAll": 1549,
      "ĠPla": 1550,
      "EE": 1551,
      "olgen": 1552,
      "0000": 1553,
      "Ġgeht": 1554,
      "ĠInternet": 1555,
      "39": 1556,
      "worten": 1557,
      "ĠmÃ¼ssen": 1558,
      "Ġdabei": 1559,
      "ens": 1560,
      "Adr": 1561,
      "immung": 1562,
      "ade": 1563,
      "Ġal": 1564,
      "ĠCo": 1565,
      "ĠOn": 1566,
      "9996": 1567,
      "igkeit": 1568,
      "Ġmuss": 1569,
      "ĠTag": 1570,
      "Ġbeg": 1571,
      "70": 1572,
      "Ġ2014": 1573,
      "dung": 1574,
      "ĠY": 1575,
      "pressum": 1576,
      "rem": 1577,
      "nIm": 1578,
      "ĠPerson": 1579,
      "AA": 1580,
      "ĠRo": 1581,
      "Ġjetzt": 1582,
      "986": 1583,
      "ĠVerarbeitung": 1584,
      "aum": 1585,
      "ischer": 1586,
      "Ġzusammen": 1587,
      "nEin": 1588,
      "72": 1589,
      "olit": 1590,
      "Ġob": 1591,
      "obil": 1592,
      "nVer": 1593,
      "rowser": 1594,
      "itÃ¤t": 1595,
      "entr": 1596,
      "ppen": 1597,
      "ĠFahr": 1598,
      "glie": 1599,
      "ĠUr": 1600,
      "gabe": 1601,
      "ĠKinder": 1602,
      "ĠDatenschutzerklÃ¤rung": 1603,
      "ĠMin": 1604,
      "Ġ16": 1605,
      "stand": 1606,
      "undes": 1607,
      "aupt": 1608,
      "ĠwÃ¤hrend": 1609,
      "ĠDiese": 1610,
      "uche": 1611,
      "fil": 1612,
      "ations": 1613,
      "Ġfrei": 1614,
      "zei": 1615,
      "Ġneue": 1616,
      "rÃ¤ge": 1617,
      "bo": 1618,
      "arbeiten": 1619,
      "enden": 1620,
      "ĠLand": 1621,
      "52": 1622,
      "Ġetwas": 1623,
      "nÃ": 1624,
      "Ã¶s": 1625,
      "ĠGeb": 1626,
      "hol": 1627,
      "Ġmein": 1628,
      "kzeptieren": 1629,
      "eute": 1630,
      "Ġof": 1631,
      "gang": 1632,
      "ian": 1633,
      "unft": 1634,
      "kauf": 1635,
      "unkt": 1636,
      "gew": 1637,
      "aden": 1638,
      "CD": 1639,
      "Ġ8": 1640,
      "79": 1641,
      "man": 1642,
      "ats": 1643,
      "ĠDeutschland": 1644,
      "co": 1645,
      "Ġtechn": 1646,
      "werk": 1647,
      "ĠUnternehmen": 1648,
      "ĠGe": 1649,
      "lagen": 1650,
      "Ġerforderlich": 1651,
      "frei": 1652,
      "ĠNutzer": 1653,
      "halt": 1654,
      "61": 1655,
      "68": 1656,
      "fte": 1657,
      "mus": 1658,
      "cken": 1659,
      "Ã¤nder": 1660,
      "ĠNeu": 1661,
      "9995": 1662,
      "io": 1663,
      "Ġgeben": 1664,
      "Ġerst": 1665,
      "nte": 1666,
      "CB": 1667,
      "rekt": 1668,
      "ĠAngeb": 1669,
      "Ġentsp": 1670,
      "Ġ0": 1671,
      "fern": 1672,
      "grund": 1673,
      "IN": 1674,
      "Ġdiesen": 1675,
      "ilfe": 1676,
      "urz": 1677,
      "wendung": 1678,
      "ĠJahren": 1679,
      "EA": 1680,
      "ĠGew": 1681,
      "Ġbestimm": 1682,
      "ander": 1683,
      "FF": 1684,
      "ute": 1685,
      "ald": 1686,
      "ote": 1687,
      "gleich": 1688,
      "besser": 1689,
      "Ġdan": 1690,
      "9994": 1691,
      "tin": 1692,
      "Ġhel": 1693,
      "ek": 1694,
      "ziell": 1695,
      "ĠKunden": 1696,
      "Ġ2013": 1697,
      "Ġgleich": 1698,
      "uen": 1699,
      "Ġverwenden": 1700,
      "annt": 1701,
      "eting": 1702,
      "ĠHaus": 1703,
      "ĠzurÃ¼ck": 1704,
      "ĠKl": 1705,
      "olle": 1706,
      "ĠZust": 1707,
      "983": 1708,
      "artner": 1709,
      "Ġung": 1710,
      "stoff": 1711,
      "ign": 1712,
      "uÃŁer": 1713,
      "ĠEx": 1714,
      "ĠFall": 1715,
      "fin": 1716,
      "Ġ15": 1717,
      "Ã¤d": 1718,
      "Ġben": 1719,
      "An": 1720,
      "Ã¤hlen": 1721,
      "Ġ18": 1722,
      "Ġmal": 1723,
      "Ġschn": 1724,
      "Ġdieses": 1725,
      "mÃ¤ÃŁ": 1726,
      "ĠÃĸ": 1727,
      "ĠWelt": 1728,
      "DB": 1729,
      "anden": 1730,
      "ĠMus": 1731,
      "Ã¤h": 1732,
      "rauch": 1733,
      "antwort": 1734,
      "9993": 1735,
      "amil": 1736,
      "VO": 1737,
      "ĠTechn": 1738,
      "Ġwichtig": 1739,
      "anst": 1740,
      "dit": 1741,
      "amt": 1742,
      "uer": 1743,
      "ĠCh": 1744,
      "Ġgest": 1745,
      "CH": 1746,
      "ĠStadt": 1747,
      "cher": 1748,
      "Ġweiterhin": 1749,
      "ĠMedien": 1750,
      "tigt": 1751,
      "hÃ¤lt": 1752,
      "berg": 1753,
      "SG": 1754,
      "ym": 1755,
      "las": 1756,
      "ersÃ¶n": 1757,
      "beding": 1758,
      "ĠBenutz": 1759,
      "so": 1760,
      "ĠAd": 1761,
      "ĠUnd": 1762,
      "ierten": 1763,
      "Ġdoch": 1764,
      "ĠVide": 1765,
      "ollen": 1766,
      "CF": 1767,
      "984": 1768,
      "ĠWar": 1769,
      "ĠUS": 1770,
      "aut": 1771,
      "ĠÃĦ": 1772,
      "agt": 1773,
      "59": 1774,
      "nahme": 1775,
      "nWeiter": 1776,
      "iken": 1777,
      "fÃ¼r": 1778,
      "mann": 1779,
      "lass": 1780,
      "unter": 1781,
      "Ġerhalten": 1782,
      "euer": 1783,
      "lug": 1784,
      "Ġkomm": 1785,
      "uten": 1786,
      "9997": 1787,
      "CE": 1788,
      "edoch": 1789,
      "willigung": 1790,
      "zug": 1791,
      "ĠErfahr": 1792,
      "sst": 1793,
      "stÃ¼tz": 1794,
      "ruf": 1795,
      "Ġ2012": 1796,
      "BA": 1797,
      "Ġhelfen": 1798,
      "ube": 1799,
      "Ġho": 1800,
      "ĠMo": 1801,
      "nNach": 1802,
      "eile": 1803,
      "CA": 1804,
      "urs": 1805,
      "atÃ¼r": 1806,
      "Ġon": 1807,
      "li": 1808,
      "zieh": 1809,
      "ĠSpeicherung": 1810,
      "tiert": 1811,
      "orn": 1812,
      "Ġ12": 1813,
      "ĠFÃ¼r": 1814,
      "Ġviele": 1815,
      "Ġerm": 1816,
      "Ġverschieden": 1817,
      "ookies": 1818,
      "ĠOnline": 1819,
      "Ġnutzen": 1820,
      "raft": 1821,
      "BF": 1822,
      "Ġto": 1823,
      "Ġdich": 1824,
      "ĠVerb": 1825,
      "ee": 1826,
      "von": 1827,
      "under": 1828,
      "roffen": 1829,
      "pen": 1830,
      "927": 1831,
      "ĠNutzung": 1832,
      "...": 1833,
      "zel": 1834,
      "ĠAbs": 1835,
      "verb": 1836,
      "ativ": 1837,
      "eicht": 1838,
      "ĠIhrem": 1839,
      "Ã¤uf": 1840,
      "Ġgespeich": 1841,
      "arbeitet": 1842,
      "rÃ¤n": 1843,
      "th": 1844,
      "ppe": 1845,
      "Ġzwischen": 1846,
      "Ġunseren": 1847,
      "ĠSte": 1848,
      "Ã¶l": 1849,
      "Ġbesch": 1850,
      "Ġjedoch": 1851,
      "icherheit": 1852,
      "gramm": 1853,
      "62": 1854,
      "schlieÃŁ": 1855,
      "Ġbek": 1856,
      "stehen": 1857,
      "Ã¤re": 1858,
      "gaben": 1859,
      "mittel": 1860,
      "rom": 1861,
      "Ġfor": 1862,
      "rieb": 1863,
      "Ġ19": 1864,
      "kon": 1865,
      "lossen": 1866,
      "altung": 1867,
      "ĠEinwilligung": 1868,
      "ĠBrowser": 1869,
      "Ġseine": 1870,
      "DA": 1871,
      "if": 1872,
      "Ġseit": 1873,
      "enz": 1874,
      "Ġ*": 1875,
      "ĠWoch": 1876,
      "ĠDies": 1877,
      "ĠBild": 1878,
      "zeug": 1879,
      "ieder": 1880,
      "ĠAm": 1881,
      "falls": 1882,
      "unst": 1883,
      "lus": 1884,
      "ĠArtikel": 1885,
      "9991": 1886,
      "gie": 1887,
      "ĠArbeit": 1888,
      "ahn": 1889,
      "Ġjederzeit": 1890,
      "tic": 1891,
      "Ġbereits": 1892,
      "istr": 1893,
      "Ġdenn": 1894,
      "ium": 1895,
      "Ġaktu": 1896,
      "Ã¤nger": 1897,
      "Ġ9": 1898,
      "ĠKomment": 1899,
      "Ġwelche": 1900,
      "ĠDa": 1901,
      "Ġweitere": 1902,
      "Ġkommen": 1903,
      "orf": 1904,
      "ore": 1905,
      "Ġand": 1906,
      "BE": 1907,
      "nAnt": 1908,
      "oten": 1909,
      "ĠHier": 1910,
      "hop": 1911,
      "ĠZugriff": 1912,
      "ĠFrei": 1913,
      "Ġverbesser": 1914,
      "aa": 1915,
      "Ġbesonder": 1916,
      "reiben": 1917,
      "Ġaller": 1918,
      "tag": 1919,
      "sel": 1920,
      "ĠSchw": 1921,
      "ĠAnaly": 1922,
      "ram": 1923,
      "ologie": 1924,
      "Ġbzw": 1925,
      "ĠZahl": 1926,
      "nisse": 1927,
      "bet": 1928,
      "ĠRecht": 1929,
      "ĠMan": 1930,
      "ultur": 1931,
      "ĠLink": 1932,
      "kunft": 1933,
      "ĠMitt": 1934,
      "die": 1935,
      "Ġja": 1936,
      "Ġanzeigen": 1937,
      "nIch": 1938,
      "ĠSeiten": 1939,
      "Ġ[": 1940,
      "mel": 1941,
      "Ġ11": 1942,
      "Ġeben": 1943,
      "Ġ14": 1944,
      "âĢĵ": 1945,
      "akult": 1946,
      "Ġaktiv": 1947,
      "Ġhatte": 1948,
      "schaften": 1949,
      "Ġbeh": 1950,
      "Ġmeine": 1951,
      "985": 1952,
      "nAlle": 1953,
      "tre": 1954,
      "letter": 1955,
      "Ġalles": 1956,
      "Ġersten": 1957,
      "aff": 1958,
      "hand": 1959,
      "ĠSon": 1960,
      "Sch": 1961,
      "cc": 1962,
      "991": 1963,
      "erne": 1964,
      "ĠZustimmung": 1965,
      "Adresse": 1966,
      "nName": 1967,
      "jekt": 1968,
      "Ġ+": 1969,
      "Ġerk": 1970,
      "wahl": 1971,
      "ubl": 1972,
      "ule": 1973,
      "ende": 1974,
      "lauf": 1975,
      "ĠFr": 1976,
      "ĠBr": 1977,
      "wand": 1978,
      "mpf": 1979,
      "Ġrecht": 1980,
      "Ġdir": 1981,
      "ĠBundes": 1982,
      "hm": 1983,
      "ĠfÃ¼hr": 1984,
      "vent": 1985,
      "FA": 1986,
      "Ġinter": 1987,
      "Ġsondern": 1988,
      "Ġ30": 1989,
      "kehr": 1990,
      "ĠDurch": 1991,
      "setz": 1992,
      "lesen": 1993,
      "up": 1994,
      "schluss": 1995,
      "ĠEl": 1996,
      "Ã¤ft": 1997,
      "Ġfolgen": 1998,
      "gl": 1999,
      "pti": 2000,
      "igit": 2001,
      "umen": 2002,
      "Ġihnen": 2003,
      "ĠWebseite": 2004,
      "weis": 2005,
      "Ġsollte": 2006,
      "lange": 2007,
      "Ã¶ÃŁ": 2008,
      "Ġblei": 2009,
      "Ġkein": 2010,
      "Ġem": 2011,
      "lichkeit": 2012,
      "inde": 2013,
      "raf": 2014,
      "eiÃŁ": 2015,
      "leist": 2016,
      "ĠRechts": 2017,
      "nWenn": 2018,
      "ehÃ¶r": 2019,
      "Ġbin": 2020,
      "ĠGen": 2021,
      "str": 2022,
      "amp": 2023,
      "eiden": 2024,
      "ĠIr": 2025,
      "ĠLauf": 2026,
      "Ġdaneben": 2027,
      "Ġfest": 2028,
      "issenschaft": 2029,
      "punkt": 2030,
      "achten": 2031,
      "sere": 2032,
      "cht": 2033,
      "gehen": 2034,
      "one": 2035,
      "ĠgehÃ¶r": 2036,
      "BD": 2037,
      "Ã¼nst": 2038,
      "Ġletz": 2039,
      "AE": 2040,
      "AN": 2041,
      "Ġpersonenbezogenen": 2042,
      "emester": 2043,
      "Ġwo": 2044,
      "nSie": 2045,
      "ĠEinstellungen": 2046,
      "akultÃ¤t": 2047,
      "ĠDi": 2048,
      "ĠKontakt": 2049,
      "ĠwÃ¼r": 2050,
      "isk": 2051,
      "ĠGem": 2052,
      "ib": 2053,
      "ilder": 2054,
      "Ġverb": 2055,
      "Ġgef": 2056,
      "stit": 2057,
      "Ġneuen": 2058,
      "Ġ2011": 2059,
      "ĠLe": 2060,
      "elef": 2061,
      "tiny": 2062,
      "ĠBesch": 2063,
      "ĠBereich": 2064,
      "ĠWasser": 2065,
      "Ġoben": 2066,
      "yp": 2067,
      "ĠAnt": 2068,
      "rin": 2069,
      "ain": 2070,
      "ax": 2071,
      "Ġsicher": 2072,
      "ĠBuch": 2073,
      "legen": 2074,
      "rieben": 2075,
      "ewsletter": 2076,
      "ca": 2077,
      "ĠForm": 2078,
      "zial": 2079,
      "schein": 2080,
      "Ġ25": 2081,
      "ĠpersÃ¶n": 2082,
      "Ġhoch": 2083,
      "Ġalso": 2084,
      "Ġwill": 2085,
      "ks": 2086,
      "weil": 2087,
      "rad": 2088,
      "Ġ13": 2089,
      "itter": 2090,
      "mbH": 2091,
      "nGoogle": 2092,
      "nehmen": 2093,
      "Ġverbessern": 2094,
      "ĠmÃ¶chten": 2095,
      "dienst": 2096,
      "ĠDes": 2097,
      "eller": 2098,
      "988": 2099,
      "daten": 2100,
      "ĠHin": 2101,
      "ys": 2102,
      "lex": 2103,
      "Ġ#": 2104,
      "ight": 2105,
      "FB": 2106,
      "ĠnatÃ¼r": 2107,
      "ervice": 2108,
      "ĠIhren": 2109,
      "wicklung": 2110,
      "ĠMitglie": 2111,
      "nAr": 2112,
      "div": 2113,
      "ĠBau": 2114,
      "Ġ17": 2115,
      "âĢĿ": 2116,
      "ipp": 2117,
      "mar": 2118,
      "Ġgeb": 2119,
      "ĠBesucher": 2120,
      "987": 2121,
      "omat": 2122,
      "nEr": 2123,
      "âĢŀ": 2124,
      "Ġvoll": 2125,
      "ĠEine": 2126,
      "ĠRÃ¼ck": 2127,
      "da": 2128,
      "ahmen": 2129,
      "ome": 2130,
      "ĠSti": 2131,
      "nMit": 2132,
      "Ġliegen": 2133,
      "undheit": 2134,
      "gestellt": 2135,
      "ĠDienst": 2136,
      "Ġgemein": 2137,
      "ĠVerwendung": 2138,
      "stadt": 2139,
      "ĠMÃ¶glich": 2140,
      "eilen": 2141,
      "nAntworten": 2142,
      "alitÃ¤t": 2143,
      "Ġvers": 2144,
      "az": 2145,
      "urt": 2146,
      "org": 2147,
      "ĠEU": 2148,
      "zt": 2149,
      "einstellungen": 2150,
      "Ġdein": 2151,
      "Ġ21": 2152,
      "uter": 2153,
      "Ġnot": 2154,
      "ennt": 2155,
      "ĠFunktionen": 2156,
      "neh": 2157,
      "ĠGmbH": 2158,
      "arbeit": 2159,
      "na": 2160,
      "rift": 2161,
      "Ã¶glichen": 2162,
      "ĠWohn": 2163,
      "Ġnun": 2164,
      "990": 2165,
      "Ġsol": 2166,
      "SGVO": 2167,
      "Ġkosten": 2168,
      "reise": 2169,
      "lassen": 2170,
      "Ġdrei": 2171,
      "ĠEurop": 2172,
      "ĠKar": 2173,
      "uft": 2174,
      "gar": 2175,
      "aktiv": 2176,
      "kten": 2177,
      "scht": 2178,
      "9975": 2179,
      "Ġbr": 2180,
      "ĠWeitere": 2181,
      "iere": 2182,
      "ĠGro": 2183,
      "ĠAnzeigen": 2184,
      "Ġihrer": 2185,
      "orden": 2186,
      "Ã¤llt": 2187,
      "als": 2188,
      "etail": 2189,
      "ĠgroÃŁe": 2190,
      "reichen": 2191,
      "BC": 2192,
      "ĠPh": 2193,
      "osit": 2194,
      "divid": 2195,
      "isches": 2196,
      "stra": 2197,
      "schn": 2198,
      "FE": 2199,
      "ĠBl": 2200,
      "ON": 2201,
      "ĠBerlin": 2202,
      "9976": 2203,
      "9974": 2204,
      "elefon": 2205,
      "Ã¤ndern": 2206,
      "Ġkannst": 2207,
      "fang": 2208,
      "prÃ¤": 2209,
      "ze": 2210,
      "ĠThema": 2211,
      "Ġsteht": 2212,
      "Ã¶rder": 2213,
      "ĠLebens": 2214,
      "dividu": 2215,
      "hÃ¶": 2216,
      "bb": 2217,
      "ĠPrÃ¤": 2218,
      "Ġessen": 2219,
      "Ver": 2220,
      "Ġerfolgt": 2221,
      "924": 2222,
      "ĠFil": 2223,
      "âĢľ,": 2224,
      "terne": 2225,
      "liches": 2226,
      "mit": 2227,
      "IT": 2228,
      "Ġstatt": 2229,
      "abel": 2230,
      "ĠIP": 2231,
      "tes": 2232,
      "Ġwenig": 2233,
      "schung": 2234,
      "Informationen": 2235,
      "fr": 2236,
      "ĠBeg": 2237,
      "ĠStand": 2238,
      "ĠThe": 2239,
      "arbeiter": 2240,
      "rist": 2241,
      "Ġtra": 2242,
      "ĠTh": 2243,
      "usÃ¤tz": 2244,
      "Die": 2245,
      "Ġaut": 2246,
      "ĠFacebook": 2247,
      "ĠDSGVO": 2248,
      "ko": 2249,
      "bei": 2250,
      ").\\": 2251,
      "immer": 2252,
      "Ġwider": 2253,
      "Ã©": 2254,
      "ĠWinter": 2255,
      "echtig": 2256,
      "ttform": 2257,
      "druck": 2258,
      "Ġgespeichert": 2259,
      "achsen": 2260,
      "ST": 2261,
      "lau": 2262,
      "Ġsehen": 2263,
      "iste": 2264,
      "ve": 2265,
      "nKontakt": 2266,
      "zer": 2267,
      "ity": 2268,
      "nahmen": 2269,
      "fo": 2270,
      "ĠSchul": 2271,
      "Ġ22": 2272,
      "ure": 2273,
      "weiter": 2274,
      "ĠFamil": 2275,
      "ix": 2276,
      "Ġkommt": 2277,
      "asst": 2278,
      ",\\": 2279,
      "ĠPreis": 2280,
      "ele": 2281,
      "ware": 2282,
      "Ġseiner": 2283,
      "rop": 2284,
      "ĠHo": 2285,
      "Ġakzeptieren": 2286,
      "ellschaft": 2287,
      "iet": 2288,
      "Ġ24": 2289,
      "olitik": 2290,
      "ĠFot": 2291,
      "Ġeinmal": 2292,
      "ruppe": 2293,
      "Ġsei": 2294,
      "Ġbel": 2295,
      "Ġnie": 2296,
      "254": 2297,
      "isten": 2298,
      "ĠName": 2299,
      "ĠErfahrung": 2300,
      "chiv": 2301,
      "aterial": 2302,
      "Ġtechnische": 2303,
      "gemein": 2304,
      "asse": 2305,
      "je": 2306,
      "Ġheute": 2307,
      "ĠSomm": 2308,
      "nWie": 2309,
      "Ein": 2310,
      "ven": 2311,
      "ĠSport": 2312,
      "ĠâĢľ": 2313,
      "ĠÂ»": 2314,
      "Ã¤ten": 2315,
      "ĠBeitrag": 2316,
      "fÃ¼ll": 2317,
      "ress": 2318,
      "aler": 2319,
      "Ġallen": 2320,
      "Ġel": 2321,
      "Ġ2010": 2322,
      "ĠEner": 2323,
      "Ġmacht": 2324,
      "Ġdeut": 2325,
      "ans": 2326,
      "use": 2327,
      "nÃľber": 2328,
      "ĠRahmen": 2329,
      "Ġ100": 2330,
      "ĠZusammen": 2331,
      "Ġdenen": 2332,
      "Ġy": 2333,
      "welt": 2334,
      "eder": 2335,
      "mark": 2336,
      "Ġmark": 2337,
      "973": 2338,
      "ĠSer": 2339,
      "Ġwaren": 2340,
      "ĠGrÃ¼n": 2341,
      "digen": 2342,
      "Ġlang": 2343,
      "iew": 2344,
      "ĠRegel": 2345,
      "9973": 2346,
      "schlieÃŁlich": 2347,
      "835": 2348,
      "Ġstehen": 2349,
      "ĠSicherheit": 2350,
      "Ġetwa": 2351,
      "weit": 2352,
      "975": 2353,
      "eland": 2354,
      "blem": 2355,
      "----": 2356,
      "fort": 2357,
      "nDiese": 2358,
      "bereich": 2359,
      "ĠFre": 2360,
      "arf": 2361,
      "ilt": 2362,
      "Ġallem": 2363,
      "edizin": 2364,
      "âĢĻ": 2365,
      "ĠStu": 2366,
      "itten": 2367,
      "onn": 2368,
      "Ġtun": 2369,
      "fa": 2370,
      "Ġsagt": 2371,
      "sb": 2372,
      "ĠBÃ¼": 2373,
      "ĠWider": 2374,
      "orgen": 2375,
      "Ġunserem": 2376,
      "9998": 2377,
      "ĠDr": 2378,
      "leb": 2379,
      "Ġsetzen": 2380,
      "ĠFin": 2381,
      "ugend": 2382,
      "UN": 2383,
      "nAnbieter": 2384,
      "schied": 2385,
      "ĠHoch": 2386,
      ">\"},\"": 2387,
      "Ġx": 2388,
      "ĠVertrag": 2389,
      "ative": 2390,
      "ĠDar": 2391,
      "Ġir": 2392,
      "Ġhand": 2393,
      "ĠWie": 2394,
      "ĠHÃ¤n": 2395,
      "Ġdeine": 2396,
      "ĠArbeits": 2397,
      "Ġdort": 2398,
      "ĠFragen": 2399,
      "cker": 2400,
      "Ġbieten": 2401,
      "ĠLeist": 2402,
      "andes": 2403,
      "Ġschnell": 2404,
      "ond": 2405,
      "heim": 2406,
      "Ġbetroffen": 2407,
      "Pro": 2408,
      "FD": 2409,
      "ganis": 2410,
      "sol": 2411,
      "deut": 2412,
      "plan": 2413,
      "ĠVerfÃ¼": 2414,
      "Ã¤nge": 2415,
      "Ġmitt": 2416,
      "Ã¶rper": 2417,
      "bin": 2418,
      "spruch": 2419,
      "nMehr": 2420,
      "Ġbietet": 2421,
      "inger": 2422,
      "ĠPol": 2423,
      "oc": 2424,
      "ieg": 2425,
      "Ġth": 2426,
      "ĠFakultÃ¤t": 2427,
      "Ġdirekt": 2428,
      "Ġihren": 2429,
      "Ġwirk": 2430,
      "ĠFach": 2431,
      "tigkeit": 2432,
      "Ġbew": 2433,
      "voll": 2434,
      "ĠAuch": 2435,
      "uren": 2436,
      "ĠPar": 2437,
      "ip": 2438,
      "mo": 2439,
      "iele": 2440,
      "ĠAngebot": 2441,
      "ĠKategor": 2442,
      "nImpressum": 2443,
      "tics": 2444,
      "ker": 2445,
      "Ã¤u": 2446,
      "port": 2447,
      "raum": 2448,
      "ĠProz": 2449,
      "ĠermÃ¶glichen": 2450,
      "ĠKunst": 2451,
      "GB": 2452,
      "ĠProdukt": 2453,
      "Ġderen": 2454,
      "____": 2455,
      "nZweck": 2456,
      "Ġweil": 2457,
      "134": 2458,
      "stÃ¼ck": 2459,
      "ĠgrÃ¶ÃŁ": 2460,
      "zielle": 2461,
      "ĠgroÃŁ": 2462,
      "lege": 2463,
      "eister": 2464,
      "anzen": 2465,
      "Ġausge": 2466,
      "Ġspeich": 2467,
      "df": 2468,
      "agement": 2469,
      "976": 2470,
      "tragen": 2471,
      "dige": 2472,
      "buch": 2473,
      "aufen": 2474,
      "ĠTo": 2475,
      "test": 2476,
      "ĠProblem": 2477,
      "sehen": 2478,
      "ĠÃ¤": 2479,
      "ular": 2480,
      "Ġopti": 2481,
      "hÃ¤ng": 2482,
      "ĠLehr": 2483,
      "ese": 2484,
      "Ġgerne": 2485,
      "ĠSa": 2486,
      "kung": 2487,
      "echt": 2488,
      "Ġdarauf": 2489,
      "Ġindem": 2490,
      "haft": 2491,
      "9505": 2492,
      "ĠBenutzer": 2493,
      "acy": 2494,
      "AR": 2495,
      "reg": 2496,
      "ĠStra": 2497,
      "licken": 2498,
      "ly": 2499,
      "etails": 2500,
      "FC": 2501,
      "Ġlesen": 2502,
      "bildung": 2503,
      "ief": 2504,
      "indung": 2505,
      "ĠschÃ¶n": 2506,
      "Ġgilt": 2507,
      "nPro": 2508,
      "ĠIreland": 2509,
      "ĠverfÃ¼": 2510,
      "ĠnÃ¤ch": 2511,
      "ivers": 2512,
      "Ġverarbeitet": 2513,
      "ES": 2514,
      "ĠTer": 2515,
      "ĠEnde": 2516,
      "9633": 2517,
      "Ġor": 2518,
      "old": 2519,
      "ĠBeitrÃ¤ge": 2520,
      "Ġcm": 2521,
      "zuf": 2522,
      "stagram": 2523,
      "aktion": 2524,
      "kosten": 2525,
      "âĢ¦\\": 2526,
      "Ã¼hl": 2527,
      "Ġempf": 2528,
      "ement": 2529,
      "heiten": 2530,
      "ĠdarÃ¼ber": 2531,
      "fÃ¼hrung": 2532,
      "100": 2533,
      "ĠNatur": 2534,
      "Ã¼rger": 2535,
      "ennen": 2536,
      "9320": 2537,
      "ĠDrit": 2538,
      "ĠâĢ¦": 2539,
      "ml": 2540,
      "sy": 2541,
      "ister": 2542,
      "sta": 2543,
      "ĠMet": 2544,
      "eisten": 2545,
      "glich": 2546,
      "Ġspe": 2547,
      "ielen": 2548,
      "rivacy": 2549,
      "ĠOber": 2550,
      "ĠApp": 2551,
      "ions": 2552,
      "âĢľ\\": 2553,
      "ons": 2554,
      "reffen": 2555,
      "lÃ¼ss": 2556,
      "]\\": 2557,
      "ĠVerantwort": 2558,
      "tier": 2559,
      "reiber": 2560,
      "ĠdafÃ¼r": 2561,
      "ziehungs": 2562,
      "mals": 2563,
      "ĠGeschÃ¤ft": 2564,
      "Ġeigenen": 2565,
      "Ã¼nf": 2566,
      "bf": 2567,
      "unk": 2568,
      "geber": 2569,
      "roll": 2570,
      "Ġreg": 2571,
      "9857": 2572,
      "tisch": 2573,
      "Ġihn": 2574,
      "945": 2575,
      "wohl": 2576,
      "Ġ2009": 2577,
      "Ġliegt": 2578,
      "ruppen": 2579,
      "eter": 2580,
      "ĠSta": 2581,
      "annten": 2582,
      "Ġ23": 2583,
      "Ġinform": 2584,
      "Ġkomp": 2585,
      "Ġinner": 2586,
      "Ġgar": 2587,
      "ets": 2588,
      "frage": 2589,
      "Ġht": 2590,
      "Ġentsprechen": 2591,
      "ator": 2592,
      "dd": 2593,
      "ĠBeispiel": 2594,
      "jahr": 2595,
      "ĠJo": 2596,
      "ational": 2597,
      "Ġbitte": 2598,
      "966": 2599,
      "gangen": 2600,
      "ette": 2601,
      "olz": 2602,
      "ĠWeg": 2603,
      "##": 2604,
      "utter": 2605,
      "ĠVideo": 2606,
      "Ġmus": 2607,
      "drÃ¼ck": 2608,
      "atistiken": 2609,
      "Ã¤hlt": 2610,
      "angen": 2611,
      "ĠzusÃ¤tz": 2612,
      "ĠGemein": 2613,
      "Ġletzten": 2614,
      "ĠHilfe": 2615,
      "926": 2616,
      "unik": 2617,
      "ĠUSA": 2618,
      "etten": 2619,
      "icken": 2620,
      "sport": 2621,
      "974": 2622,
      "nEx": 2623,
      "ĠauÃŁer": 2624,
      "904": 2625,
      "ue": 2626,
      "no": 2627,
      "ĠbenÃ¶": 2628,
      "ase": 2629,
      "ĠX": 2630,
      "ĠMod": 2631,
      "Ġperson": 2632,
      "ĠPersonen": 2633,
      "immt": 2634,
      "nEssen": 2635,
      "Ġhttps": 2636,
      "tlich": 2637,
      "blick": 2638,
      "ager": 2639,
      "ĠTeam": 2640,
      "ologien": 2641,
      "stein": 2642,
      "ĠKo": 2643,
      "mÃ¤ÃŁig": 2644,
      "ĠMehr": 2645,
      "Ġus": 2646,
      "ache": 2647,
      "LL": 2648,
      "ĠProdukte": 2649,
      "bla": 2650,
      "hrist": 2651,
      "ĠMusik": 2652,
      "reifen": 2653,
      "916": 2654,
      "rotz": 2655,
      "ĠAls": 2656,
      "ĠVerein": 2657,
      "nten": 2658,
      "angeb": 2659,
      "ĠSystem": 2660,
      "93209505": 2661,
      "9955": 2662,
      "ID": 2663,
      "nDatenschutzerklÃ¤rung": 2664,
      "annen": 2665,
      "nUm": 2666,
      "baren": 2667,
      "ĠStr": 2668,
      "ino": 2669,
      "statt": 2670,
      "ĠTage": 2671,
      "ka": 2672,
      "AT": 2673,
      "978": 2674,
      "ondere": 2675,
      "Ġeh": 2676,
      "ingt": 2677,
      "richten": 2678,
      "980": 2679,
      "anstalt": 2680,
      "ula": 2681,
      "ession": 2682,
      "ĠMal": 2683,
      "entrum": 2684,
      "Ġinteress": 2685,
      "nWas": 2686,
      "utt": 2687,
      "Ġhinter": 2688,
      "nBei": 2689,
      "923": 2690,
      "Ġseinen": 2691,
      "Ġjeden": 2692,
      "cke": 2693,
      "ĠAber": 2694,
      "Ġch": 2695,
      "Ġsonst": 2696,
      "Ġunbe": 2697,
      "wÃ¤hlen": 2698,
      "Ġkurz": 2699,
      "ĠVerfÃ¼gung": 2700,
      "ĠEinige": 2701,
      "ĠEnergie": 2702,
      "ai": 2703,
      "ĠWochen": 2704,
      "Ġvielen": 2705,
      "Ġwollen": 2706,
      "ĠJahres": 2707,
      "Ġgenau": 2708,
      "amer": 2709,
      "bd": 2710,
      "out": 2711,
      "ĠGel": 2712,
      "Ġbesten": 2713,
      "Ġ%": 2714,
      "Ã¼d": 2715,
      "OR": 2716,
      "ĠHaupt": 2717,
      "Ġsel": 2718,
      "rufen": 2719,
      "bedingungen": 2720,
      "inen": 2721,
      "ĠGeld": 2722,
      "Ġkeiner": 2723,
      "aÃŁ": 2724,
      "unt": 2725,
      "ĠDritt": 2726,
      "nAuf": 2727,
      "ĠKom": 2728,
      "tifiz": 2729,
      "ðŁ": 2730,
      "ĠSchn": 2731,
      "nZur": 2732,
      "deutung": 2733,
      "flÃ¤": 2734,
      "Ġmo": 2735,
      "geschlossen": 2736,
      "ĠunterstÃ¼tz": 2737,
      "ĠGesundheit": 2738,
      "aar": 2739,
      "ehl": 2740,
      "954": 2741,
      "Ġrund": 2742,
      "witter": 2743,
      "Â»": 2744,
      "ĠMarketing": 2745,
      "ĠDem": 2746,
      "Ã¤te": 2747,
      "inks": 2748,
      "ĠBar": 2749,
      "produ": 2750,
      "nhttps": 2751,
      "ĠNetz": 2752,
      "ĠBed": 2753,
      "stu": 2754,
      "ĠwÃ¼rde": 2755,
      "Ġirgend": 2756,
      "nAus": 2757,
      "ante": 2758,
      "bc": 2759,
      "Ġgehen": 2760,
      "Ġgesetz": 2761,
      "2021": 2762,
      "ĠTr": 2763,
      "ball": 2764,
      "9945": 2765,
      "cial": 2766,
      "Ġverl": 2767,
      "ĠAuswahl": 2768,
      "iges": 2769,
      "hof": 2770,
      "Ġfindet": 2771,
      "ielt": 2772,
      "sent": 2773,
      "Ġerfahren": 2774,
      "stitut": 2775,
      "ĠWirtschaft": 2776,
      "leben": 2777,
      "ĠFrage": 2778,
      "sw": 2779,
      "dio": 2780,
      "alter": 2781,
      "yn": 2782,
      "Ã¶ffentlicht": 2783,
      "ĠMann": 2784,
      "Ġlit": 2785,
      "ĠReise": 2786,
      "ĠAlle": 2787,
      "Ġro": 2788,
      "nEs": 2789,
      "ichtige": 2790,
      "ĠBlick": 2791,
      "Ġ50": 2792,
      "eider": 2793,
      "Ġeinge": 2794,
      "ae": 2795,
      "les": 2796,
      "lÃ¼ck": 2797,
      "ock": 2798,
      "ĠSchutz": 2799,
      "merk": 2800,
      "ĠBedeutung": 2801,
      "rukt": 2802,
      "Ġbesser": 2803,
      "Ġu": 2804,
      "atung": 2805,
      "Ġwert": 2806,
      "ĠGegen": 2807,
      "own": 2808,
      "ĠTran": 2809,
      "Ã¤m": 2810,
      "ĠImpressum": 2811,
      "ĠAugen": 2812,
      "ina": 2813,
      "ance": 2814,
      "ĠVersand": 2815,
      "ĠThemen": 2816,
      "mÃ¶glich": 2817,
      "fÃ¼hrt": 2818,
      "icherung": 2819,
      "ĠerklÃ¤r": 2820,
      "964": 2821,
      "ĠVol": 2822,
      "ited": 2823,
      "Ġautomat": 2824,
      "Ã¼b": 2825,
      "IS": 2826,
      "Ġkom": 2827,
      "nAb": 2828,
      ".,": 2829,
      "sterreich": 2830,
      "gesetzt": 2831,
      "beh": 2832,
      "hre": 2833,
      "bare": 2834,
      "ĠSe": 2835,
      "ĠMill": 2836,
      "ublik": 2837,
      "folgen": 2838,
      "ĠLaufzeit": 2839,
      "haupt": 2840,
      "Ġihm": 2841,
      "stelle": 2842,
      "ftware": 2843,
      "ĠMÃ¼n": 2844,
      "Ġwirklich": 2845,
      "platz": 2846,
      "besondere": 2847,
      "Ġsollten": 2848,
      "9985": 2849,
      "ĠOrt": 2850,
      "98579633": 2851,
      "965": 2852,
      "sse": 2853,
      "Ġ*\\": 2854,
      "uck": 2855,
      "nFÃ¼r": 2856,
      "Ġrech": 2857,
      "bend": 2858,
      "mehr": 2859,
      "9573": 2860,
      "ragen": 2861,
      "meld": 2862,
      "ĠCO": 2863,
      "Ġgrund": 2864,
      "ise": 2865,
      "halte": 2866,
      "nder": 2867,
      "Ġoffen": 2868,
      "ĠMÃ¶glichkeit": 2869,
      "erien": 2870,
      "ĠTechnologien": 2871,
      "Tube": 2872,
      "kl": 2873,
      "lÃ¤ss": 2874,
      "ĠBeh": 2875,
      "992": 2876,
      "Ã¼nd": 2877,
      "Ã¼l": 2878,
      "ĠlÃ¤": 2879,
      "955": 2880,
      "omment": 2881,
      "ĠWas": 2882,
      "Ġstark": 2883,
      "fre": 2884,
      "Ġschw": 2885,
      "Ġdeutsch": 2886,
      "ĠMitarbeiter": 2887,
      "911": 2888,
      "ĠMonat": 2889,
      "arte": 2890,
      "ouTube": 2891,
      "labs": 2892,
      "echs": 2893,
      "liegen": 2894,
      "olf": 2895,
      "ĠGra": 2896,
      "do": 2897,
      "ĠBlog": 2898,
      "ĠInform": 2899,
      "ĠnatÃ¼rlich": 2900,
      "Ġnichts": 2901,
      "ĠwÃ¤re": 2902,
      "dest": 2903,
      "900": 2904,
      "Ġoft": 2905,
      "ĠSu": 2906,
      "Ġverst": 2907,
      "fassen": 2908,
      "Ġspeichern": 2909,
      "setzung": 2910,
      "834": 2911,
      "weisen": 2912,
      "ĠWor": 2913,
      "Ġerfolg": 2914,
      "ĠCon": 2915,
      "Ġgemeinsam": 2916,
      "atei": 2917,
      "ĠKosten": 2918,
      "iell": 2919,
      "ĠausschlieÃŁlich": 2920,
      "orlabs": 2921,
      "Ġfreiwill": 2922,
      "Ġ.": 2923,
      "Ġneben": 2924,
      "Ġbra": 2925,
      "ĠTest": 2926,
      "auen": 2927,
      "ĠWerbung": 2928,
      "steller": 2929,
      "9988": 2930,
      "herap": 2931,
      "Ġ:": 2932,
      "prÃ¼": 2933,
      "ĠAnalytics": 2934,
      "rieg": 2935,
      "Ã¤ter": 2936,
      "ott": 2937,
      "ĠEigen": 2938,
      "977": 2939,
      "Ġlange": 2940,
      "zig": 2941,
      "Ġdavon": 2942,
      "ĠZiel": 2943,
      "Ġhohe": 2944,
      "Ġentwick": 2945,
      "reibung": 2946,
      "einander": 2947,
      "anbieter": 2948,
      "ĠEinsatz": 2949,
      "nehmer": 2950,
      "fest": 2951,
      "html": 2952,
      "ĠFrauen": 2953,
      "ĠWerk": 2954,
      "ĠPat": 2955,
      "ĠNewsletter": 2956,
      "ĠFest": 2957,
      "Ġkonnte": 2958,
      "mon": 2959,
      "ption": 2960,
      "ĠkÃ¶nnte": 2961,
      "123": 2962,
      "8554": 2963,
      "ĠSelbst": 2964,
      "stÃ¤ndig": 2965,
      "ĠSpe": 2966,
      "Ġpersonalis": 2967,
      "ums": 2968,
      "nVor": 2969,
      "ehlen": 2970,
      "sweise": 2971,
      "lech": 2972,
      "ĠNamen": 2973,
      "ĠFir": 2974,
      "stens": 2975,
      "ĠPartner": 2976,
      "ĠÂ§": 2977,
      "dings": 2978,
      "Ġen": 2979,
      "Ġbesteht": 2980,
      "deten": 2981,
      "genommen": 2982,
      "ranken": 2983,
      "ins": 2984,
      "stÃ¤nd": 2985,
      "ismus": 2986,
      "ĠJugend": 2987,
      "Ġhalten": 2988,
      "pol": 2989,
      "nWeitere": 2990,
      "ĠHerzen": 2991,
      "ĠAnbieter": 2992,
      "melden": 2993,
      "view": 2994,
      "ichtet": 2995,
      "ĠLim": 2996,
      "Ġ09": 2997,
      "Ġallein": 2998,
      "Ã¤ts": 2999,
      "ĠBel": 3000,
      "Ġstellen": 3001,
      "ĠService": 3002,
      "sÃ¤tz": 3003,
      "ĠSk": 3004,
      "IE": 3005,
      "egt": 3006,
      "eigt": 3007,
      "pl": 3008,
      "ĠMittel": 3009,
      "Ġbesonders": 3010,
      "ĠGeschichte": 3011,
      "ĠKir": 3012,
      "ĠStre": 3013,
      "nMark": 3014,
      "ĠPer": 3015,
      "Ġeinige": 3016,
      "fass": 3017,
      "Un": 3018,
      "ĠgroÃŁen": 3019,
      "mess": 3020,
      "Ar": 3021,
      "ct": 3022,
      "ĠHÃ¶": 3023,
      "feld": 3024,
      "annte": 3025,
      "nungs": 3026,
      "immen": 3027,
      "ĠRep": 3028,
      "onnen": 3029,
      "Ġzahl": 3030,
      "ĠPlatz": 3031,
      "956": 3032,
      "Ġjeweil": 3033,
      "Ã¼t": 3034,
      "arch": 3035,
      "lose": 3036,
      "ĠauswÃ¤hlen": 3037,
      "946": 3038,
      "ĠKauf": 3039,
      "906": 3040,
      "nSo": 3041,
      "lekt": 3042,
      "Ġby": 3043,
      "Ġbestimmte": 3044,
      "ĠPost": 3045,
      "load": 3046,
      "Â©": 3047,
      "ool": 3048,
      "lieÃŁen": 3049,
      "wertung": 3050,
      "rakti": 3051,
      "ĠMaÃŁ": 3052,
      "ĠErk": 3053,
      "054": 3054,
      "eint": 3055,
      "orb": 3056,
      "Ġ,": 3057,
      "ĠmÃ¶chte": 3058,
      "ika": 3059,
      "ĠSchwei": 3060,
      "ĠlÃ¤sst": 3061,
      "vest": 3062,
      "Ġfunktion": 3063,
      "ĠHot": 3064,
      "US": 3065,
      "affen": 3066,
      "ĠBestell": 3067,
      "ĠProjekt": 3068,
      "ction": 3069,
      "Ġbed": 3070,
      "we": 3071,
      "quem": 3072,
      "rache": 3073,
      "schule": 3074,
      "ĠBas": 3075,
      "Ġ2008": 3076,
      "921": 3077,
      "ry": 3078,
      "nNeu": 3079,
      "2020": 3080,
      "ument": 3081,
      "Ã¼ll": 3082,
      "anken": 3083,
      "Ġausb": 3084,
      "ordnung": 3085,
      "ebsit": 3086,
      "privacy": 3087,
      "Ġwohl": 3088,
      "ĠProf": 3089,
      "Ġverm": 3090,
      "ĠFrank": 3091,
      "9986": 3092,
      "Ġstatist": 3093,
      "Ġteil": 3094,
      "ĠÃ¶ffent": 3095,
      "Ġerste": 3096,
      "âĤ¬": 3097,
      "othe": 3098,
      "Ġ26": 3099,
      "jÃ¤hr": 3100,
      "ĠKre": 3101,
      "swert": 3102,
      "Ġbleiben": 3103,
      "bach": 3104,
      "Ġmeiner": 3105,
      "95738554": 3106,
      "wirtschaft": 3107,
      "itel": 3108,
      "6908": 3109,
      "ĠLandes": 3110,
      "Ġgerade": 3111,
      "Ġ27": 3112,
      "tp": 3113,
      "echtigten": 3114,
      "Ã¶ll": 3115,
      "asch": 3116,
      "**": 3117,
      "915": 3118,
      "seiten": 3119,
      "ath": 3120,
      "Ġbeiden": 3121,
      "gesetz": 3122,
      "Ġalt": 3123,
      "'s": 3124,
      "ĠIde": 3125,
      "Ġhast": 3126,
      "ĠBeruf": 3127,
      "ĠMarkt": 3128,
      "Ġzwar": 3129,
      "Ġindividu": 3130,
      "Ġis": 3131,
      "lenden": 3132,
      "iter": 3133,
      "nDatenschutzeinstellungen": 3134,
      "schlieÃŁen": 3135,
      "ĠBi": 3136,
      "rax": 3137,
      "Wir": 3138,
      "Â«": 3139,
      "Ġuner": 3140,
      "981": 3141,
      "Ã¤chlich": 3142,
      "9276908": 3143,
      "ĠChrist": 3144,
      "Er": 3145,
      "ĠKommentar": 3146,
      "ĠKultur": 3147,
      "nummer": 3148,
      "nSp": 3149,
      "ĠKommunik": 3150,
      "folg": 3151,
      "inar": 3152,
      "\\\",": 3153,
      "ala": 3154,
      "Ġkaufen": 3155,
      "iff": 3156,
      "AL": 3157,
      "Ġca": 3158,
      "erst": 3159,
      "ĠMein": 3160,
      "963": 3161,
      "rona": 3162,
      "nach": 3163,
      "lebnis": 3164,
      "Ġfahr": 3165,
      "Ġinnerhalb": 3166,
      "953": 3167,
      "dc": 3168,
      "ĠGeschÃ¤fts": 3169,
      "Ã¼hren": 3170,
      "Ġseinem": 3171,
      "Ġ28": 3172,
      "Ġunterschied": 3173,
      "ĠBitte": 3174,
      "ĠDo": 3175,
      "ĠErgeb": 3176,
      "Ġat": 3177,
      "905": 3178,
      "serv": 3179,
      "Ġvier": 3180,
      "iebt": 3181,
      "ĠVort": 3182,
      "ĠdÃ¼r": 3183,
      "olge": 3184,
      "Ġmeisten": 3185,
      "ĠFrau": 3186,
      "Ġerg": 3187,
      "nExterne": 3188,
      "itu": 3189,
      "AS": 3190,
      "scheiden": 3191,
      "ĠfrÃ¼": 3192,
      "zÃ¼": 3193,
      "Ġ...\\": 3194,
      "Ġnehmen": 3195,
      "Ġmm": 3196,
      "ĠOb": 3197,
      "Ġessenziell": 3198,
      "mach": 3199,
      "Ġ=": 3200,
      "ĠZahlungs": 3201,
      "sych": 3202,
      "Ġverhin": 3203,
      "Ġstand": 3204,
      "ĠZukunft": 3205,
      "ichtigen": 3206,
      "fragen": 3207,
      "fc": 3208,
      "Ġkeinen": 3209,
      "Ġweiteren": 3210,
      "ielleicht": 3211,
      "Ġwahr": 3212,
      "Ġfreu": 3213,
      "tegr": 3214,
      "Ġget": 3215,
      "Ġanon": 3216,
      "944": 3217,
      "Ġbedeu": 3218,
      "ĠAuto": 3219,
      "zeiten": 3220,
      "ziehen": 3221,
      "riebs": 3222,
      "ange": 3223,
      "lasse": 3224,
      "programm": 3225,
      "Ã¶ÃŁe": 3226,
      "laden": 3227,
      "Ġverschiedenen": 3228,
      "ĠâĤ¬\\": 3229,
      "935": 3230,
      "ttformen": 3231,
      "http": 3232,
      "ebsite": 3233,
      "zept": 3234,
      "Ġbefin": 3235,
      "ichts": 3236,
      "sprech": 3237,
      "ima": 3238,
      "Ġkleine": 3239,
      "Ġ2023": 3240,
      "Ġrichtig": 3241,
      "efÃ¤llt": 3242,
      "ĠComp": 3243,
      "Ġwei": 3244,
      "nDe": 3245,
      "ĠBilder": 3246,
      "lungs": 3247,
      "ĠRa": 3248,
      "deck": 3249,
      "126": 3250,
      "Ġheraus": 3251,
      "ierungs": 3252,
      "racht": 3253,
      "itzen": 3254,
      "system": 3255,
      "Ġleben": 3256,
      "nb": 3257,
      "ente": 3258,
      "standen": 3259,
      "ĠlÃ¶": 3260,
      "Ġinsbesondere": 3261,
      "864": 3262,
      "ĠKommentare": 3263,
      "fÃ¤h": 3264,
      "Ġaufge": 3265,
      "ĠFar": 3266,
      "Ã¤tig": 3267,
      "ĠHam": 3268,
      "ĠPart": 3269,
      "Ġra": 3270,
      "Ġeinzel": 3271,
      "ches": 3272,
      "alien": 3273,
      "Ġsogar": 3274,
      "ĠGroÃŁ": 3275,
      "ĠMe": 3276,
      "wohn": 3277,
      "bedingt": 3278,
      "etter": 3279,
      "akti": 3280,
      "ampf": 3281,
      "meldung": 3282,
      "ruktur": 3283,
      "Ġbereit": 3284,
      "ieb": 3285,
      "Ġlieb": 3286,
      "Ġgute": 3287,
      "anten": 3288,
      "Ġonline": 3289,
      "Ġ>": 3290,
      "Ġgemacht": 3291,
      "par": 3292,
      "Ġeuch": 3293,
      "google": 3294,
      "ĠMund": 3295,
      "967": 3296,
      "Ġschwer": 3297,
      "ĠKÃ¼": 3298,
      "205": 3299,
      "ite": 3300,
      "erner": 3301,
      "Ġganzen": 3302,
      "Ġdigit": 3303,
      "ET": 3304,
      "treten": 3305,
      "hein": 3306,
      "Ġlo": 3307,
      "903": 3308,
      "ĠLÃ¶": 3309,
      "otor": 3310,
      "Ġelekt": 3311,
      "nHier": 3312,
      "ja": 3313,
      "9987": 3314,
      "rigen": 3315,
      "ĠPlan": 3316,
      "unsch": 3317,
      "reiche": 3318,
      "UR": 3319,
      "OS": 3320,
      "ftung": 3321,
      "ĠgehÃ¶ren": 3322,
      "Ġihrem": 3323,
      "ĠNe": 3324,
      "925": 3325,
      "anstaltungen": 3326,
      "Ġsex": 3327,
      "9123": 3328,
      "techn": 3329,
      "edia": 3330,
      "Ġgelten": 3331,
      "936": 3332,
      "ĠImm": 3333,
      "ĠÃ¼berhaupt": 3334,
      "ĠHÃ¤nden": 3335,
      "wagen": 3336,
      "nd": 3337,
      "schlag": 3338,
      "Ġmehrere": 3339,
      "nFacebook": 3340,
      "ĠDank": 3341,
      "ution": 3342,
      "wendig": 3343,
      "yr": 3344,
      "982": 3345,
      "zon": 3346,
      "ĠMitglied": 3347,
      "schul": 3348,
      "ehm": 3349,
      "del": 3350,
      "922": 3351,
      "245": 3352,
      "istor": 3353,
      "ĠMag": 3354,
      "ime": 3355,
      "ĠprÃ¤": 3356,
      "ĠEntschei": 3357,
      "ĠWahl": 3358,
      "passen": 3359,
      "Ã¤us": 3360,
      "rÃ¼f": 3361,
      "9983": 3362,
      "ĠKont": 3363,
      "105": 3364,
      "ĠKÃ¶rper": 3365,
      "nAkzeptieren": 3366,
      "ĠHei": 3367,
      "Ġdaher": 3368,
      "ĠhÃ¤t": 3369,
      "miss": 3370,
      "135": 3371,
      "ĠAngebote": 3372,
      "ĠKraft": 3373,
      "cri": 3374,
      "ĠGarten": 3375,
      "ĠSitz": 3376,
      "943": 3377,
      "Ġverw": 3378,
      "ĠRaum": 3379,
      "ĠYouTube": 3380,
      "Ġwiderrufen": 3381,
      "875": 3382,
      "Ġtrotz": 3383,
      "db": 3384,
      "Ġzie": 3385,
      "ausch": 3386,
      "934": 3387,
      "Ġgek": 3388,
      "nSpeich": 3389,
      "ĠUmf": 3390,
      "EL": 3391,
      "Ġwissen": 3392,
      "langen": 3393,
      "ĠFuÃŁ": 3394,
      "lieÃŁ": 3395,
      "ĠKn": 3396,
      "ĠDabei": 3397,
      "ĠAnfang": 3398,
      "nAll": 3399,
      "ĠInf": 3400,
      "grÃ¼n": 3401,
      "957": 3402,
      "unkte": 3403,
      "lieben": 3404,
      "ĠRegion": 3405,
      "ĠUnivers": 3406,
      "ĠKa": 3407,
      "rivat": 3408,
      "ehler": 3409,
      "hren": 3410,
      "heb": 3411,
      "besch": 3412,
      "947": 3413,
      "1555": 3414,
      "ĠweiÃŁ": 3415,
      "schw": 3416,
      "bark": 3417,
      "ĠNacht": 3418,
      "ĠÃĦnder": 3419,
      "nungen": 3420,
      "Cookies": 3421,
      "ernen": 3422,
      "hle": 3423,
      "rÃ¼ck": 3424,
      "Ã¶sung": 3425,
      "rau": 3426,
      "iko": 3427,
      "jekte": 3428,
      "ĠWeihn": 3429,
      "ĠÃ¤ndern": 3430,
      "klus": 3431,
      "fÃ¼hl": 3432,
      "ĠInteresse": 3433,
      "ret": 3434,
      "ike": 3435,
      "837": 3436,
      "99134": 3437,
      "ĠMonate": 3438,
      "AM": 3439,
      "ormal": 3440,
      "err": 3441,
      "reicht": 3442,
      "ish": 3443,
      "ĠgemÃ¤ÃŁ": 3444,
      "Ġpersonalisierte": 3445,
      "zeichnet": 3446,
      "ĠHerr": 3447,
      "Ġbitten": 3448,
      "straÃŁe": 3449,
      "alz": 3450,
      "ĠAngaben": 3451,
      "Ġintern": 3452,
      "markt": 3453,
      "968": 3454,
      "gegen": 3455,
      "fb": 3456,
      "inner": 3457,
      "ĠWert": 3458,
      "ienen": 3459,
      "lÃ¼ssel": 3460,
      "eichen": 3461,
      "ull": 3462,
      "ĠÃ¤hn": 3463,
      "best": 3464,
      "933": 3465,
      "ĠEuropÃ¤": 3466,
      "ĠAt": 3467,
      "iker": 3468,
      "Ġcookies": 3469,
      "nWer": 3470,
      "ĠSocial": 3471,
      "9946": 3472,
      "ĠpersÃ¶nlichen": 3473,
      "Ġausgew": 3474,
      "Ġkont": 3475,
      "adurch": 3476,
      "Ġausblenden": 3477,
      "nEine": 3478,
      "hilfe": 3479,
      "Ġstellt": 3480,
      "Ġaufs": 3481,
      "ĠInstitut": 3482,
      "ea": 3483,
      "mart": 3484,
      "cen": 3485,
      "arr": 3486,
      "ĠFinanz": 3487,
      "ĠText": 3488,
      "zeigt": 3489,
      "lÃ¶": 3490,
      "ograf": 3491,
      "tische": 3492,
      "ĠLi": 3493,
      "ĠFrÃ¼": 3494,
      "ith": 3495,
      "ranz": 3496,
      "fel": 3497,
      "schrift": 3498,
      "rieden": 3499,
      "ĠUrlaub": 3500,
      "lam": 3501,
      "omit": 3502,
      "ipps": 3503,
      "dre": 3504,
      "9913425": 3505,
      "nWeiterlesen": 3506,
      "ĠMinuten": 3507,
      "hei": 3508,
      "echsel": 3509,
      "ĠLimited": 3510,
      "ĠInhalts": 3511,
      "ĠProgramm": 3512,
      "kurs": 3513,
      "raxis": 3514,
      "ĠRicht": 3515,
      "resse": 3516,
      "ĠnÃ¤chsten": 3517,
      "ĠPass": 3518,
      "Ġgab": 3519,
      "ĠEinzel": 3520,
      "Ġ40": 3521,
      "ĠStunden": 3522,
      "9984": 3523,
      "Ġlinks": 3524,
      "Ġunten": 3525,
      "Ġangeb": 3526,
      "ĠProzent": 3527,
      "ĠGeh": 3528,
      "schnitt": 3529,
      "*\\": 3530,
      "ĠDenn": 3531,
      "ĠKat": 3532,
      "ĠDeutsche": 3533,
      "845": 3534,
      "ĠEv": 3535,
      "sor": 3536,
      "messung": 3537,
      "hoben": 3538,
      "ĠLu": 3539,
      "ĠVideos": 3540,
      "885": 3541,
      "dition": 3542,
      "ĠDesign": 3543,
      "nStatistiken": 3544,
      "Ġverschiedene": 3545,
      "ĠWoche": 3546,
      "913": 3547,
      "Ġjedem": 3548,
      "setzen": 3549,
      "nUnsere": 3550,
      "876": 3551,
      "herapie": 3552,
      "ari": 3553,
      "Ġhinaus": 3554,
      "Ġweniger": 3555,
      "ĠKin": 3556,
      "ĠKap": 3557,
      "ĠPo": 3558,
      "Ġerstellen": 3559,
      "914": 3560,
      "avig": 3561,
      "Ã¶nen": 3562,
      "PR": 3563,
      "fahrt": 3564,
      "223": 3565,
      "kungen": 3566,
      "feren": 3567,
      "php": 3568,
      "preis": 3569,
      "ĠBoard": 3570,
      "Adressen": 3571,
      "Ġregel": 3572,
      "Ġqu": 3573,
      "Ġdarf": 3574,
      "Ġleicht": 3575,
      "813": 3576,
      "ĠIhres": 3577,
      "âĢľ.": 3578,
      "reten": 3579,
      "ĠSh": 3580,
      "ĠAktiv": 3581,
      "874": 3582,
      "semester": 3583,
      "UNG": 3584,
      "iegel": 3585,
      "ĠHe": 3586,
      "-,": 3587,
      "ĠHolz": 3588,
      "orm": 3589,
      "riften": 3590,
      "rÃ¤fte": 3591,
      "achts": 3592,
      "ĠBetrieb": 3593,
      "Ã¤chst": 3594,
      "inge": 3595,
      "ĠâĢ¢": 3596,
      "Ġjeweiligen": 3597,
      "ĠEntwicklung": 3598,
      "tiv": 3599,
      "elles": 3600,
      "ĠKomp": 3601,
      "Ġaufgrund": 3602,
      "emand": 3603,
      "zip": 3604,
      "IG": 3605,
      "ktionen": 3606,
      "tur": 3607,
      "ĠEnd": 3608,
      "91231555": 3609,
      "aur": 3610,
      "846": 3611,
      "ume": 3612,
      "Ġunver": 3613,
      "Ġ29": 3614,
      "Ġweit": 3615,
      "9934": 3616,
      "ĠDienste": 3617,
      "Ġfolgenden": 3618,
      "Sp": 3619,
      "nov": 3620,
      ");": 3621,
      "ĠFilm": 3622,
      "Ġ2007": 3623,
      "fd": 3624,
      "Ġverstehen": 3625,
      "ĠerhÃ¤lt": 3626,
      "ĠBÃ¼rger": 3627,
      "Ġbleibt": 3628,
      "bew": 3629,
      "9977": 3630,
      "2019": 3631,
      "dust": 3632,
      "ĠFamilien": 3633,
      "ĠhÃ¶": 3634,
      "leitung": 3635,
      "ungsver": 3636,
      "ĠMaterial": 3637,
      "fasst": 3638,
      "laubnis": 3639,
      "ervic": 3640,
      "ĠNieder": 3641,
      "Ġkleinen": 3642,
      "ĠEmpf": 3643,
      "oph": 3644,
      "ĠspÃ¤ter": 3645,
      "ĠTagen": 3646,
      "senden": 3647,
      "zus": 3648,
      "ĠInhalt": 3649,
      "pflich": 3650,
      "ĠRechte": 3651,
      "Ãľ": 3652,
      "lungen": 3653,
      "son": 3654,
      "nBe": 3655,
      "bahn": 3656,
      "zweck": 3657,
      "ĠHd": 3658,
      "Ġzeigt": 3659,
      "ĠHerz": 3660,
      "ĠDisk": 3661,
      "Pla": 3662,
      "alender": 3663,
      "ĠVert": 3664,
      "ĠJe": 3665,
      "bÃ¼": 3666,
      "ĠausdrÃ¼ck": 3667,
      "barkeit": 3668,
      "ĠTrain": 3669,
      "ĠNord": 3670,
      "ĠSuche": 3671,
      "ĠWebsites": 3672,
      "836": 3673,
      "lu": 3674,
      "alisierung": 3675,
      "Ã¼ler": 3676,
      "Ġersch": 3677,
      "Einstellungen": 3678,
      "ĠDan": 3679,
      "ĠElekt": 3680,
      "Ã¼ndig": 3681,
      "ĠDub": 3682,
      "zub": 3683,
      "reib": 3684,
      "uhe": 3685,
      "ĠServer": 3686,
      "826": 3687,
      "werb": 3688,
      "ĠNicht": 3689,
      "917": 3690,
      "ĠSchla": 3691,
      "Ġeigene": 3692,
      "cd": 3693,
      "nZum": 3694,
      "Ġph": 3695,
      "937": 3696,
      "ĠArchiv": 3697,
      "866": 3698,
      "ĠKategorien": 3699,
      "dium": 3700,
      "Ġebenfalls": 3701,
      "ĠvÃ¶ll": 3702,
      "Ġiden": 3703,
      "865": 3704,
      "zimmer": 3705,
      "Ġfr": 3706,
      "letz": 3707,
      "ling": 3708,
      "ĠðŁ": 3709,
      "Ġunseres": 3710,
      "206": 3711,
      "Ġprof": 3712,
      "ĠSommers": 3713,
      "ogra": 3714,
      "tÃ¼": 3715,
      "Ã¤f": 3716,
      "ĠVon": 3717,
      "Ġhil": 3718,
      "âĸ": 3719,
      "204": 3720,
      "leistungen": 3721,
      "Ġbevor": 3722,
      "duz": 3723,
      "AG": 3724,
      "ĠLog": 3725,
      "frist": 3726,
      "Ġzeigen": 3727,
      "Ġsagen": 3728,
      "Ġfast": 3729,
      "ĠverfÃ¼g": 3730,
      "abil": 3731,
      "Ġerz": 3732,
      "ehn": 3733,
      "Ġperfe": 3734,
      "fallen": 3735,
      "Ġhinweg": 3736,
      "ikan": 3737,
      "ĠFlug": 3738,
      "mazon": 3739,
      "ĠInteressen": 3740,
      "Ġdeutschen": 3741,
      "200": 3742,
      "unge": 3743,
      "ĠWintersemester": 3744,
      "Ġbenutz": 3745,
      "gebenen": 3746,
      "echnet": 3747,
      "ĠDatenver": 3748,
      "ĠVergleich": 3749,
      "Ã¤nd": 3750,
      "ĠgegenÃ¼ber": 3751,
      "freie": 3752,
      "9999": 3753,
      "hel": 3754,
      "atten": 3755,
      "ĠKÃ¶n": 3756,
      "ĠWiderruf": 3757,
      "Ġbekommen": 3758,
      "cf": 3759,
      "inne": 3760,
      "ĠGast": 3761,
      "oder": 3762,
      "ison": 3763,
      "Ġpaar": 3764,
      "nDu": 3765,
      "Ġbestehen": 3766,
      "):": 3767,
      "immungen": 3768,
      "res": 3769,
      "peten": 3770,
      "ĠfÃ¼hren": 3771,
      "Ġmeinen": 3772,
      "igkeiten": 3773,
      "ters": 3774,
      "Ġworden": 3775,
      "aren": 3776,
      "ĠLuft": 3777,
      "ĠLei": 3778,
      "reisen": 3779,
      "ĠAuftrag": 3780,
      "lem": 3781,
      "2671": 3782,
      "ĠPark": 3783,
      "816": 3784,
      "ĠDann": 3785,
      "bi": 3786,
      "ĠZeitpunkt": 3787,
      "ta": 3788,
      "IL": 3789,
      "Ġhandelt": 3790,
      "walt": 3791,
      "970": 3792,
      "Ġunbedingt": 3793,
      "ĠRes": 3794,
      "ĠvÃ¶llig": 3795,
      "ĠWind": 3796,
      "kreis": 3797,
      "803": 3798,
      "ĠLin": 3799,
      "ersonenbezogene": 3800,
      "warz": 3801,
      "ĠRis": 3802,
      "linie": 3803,
      "Ã¼gen": 3804,
      "ochen": 3805,
      "zeitig": 3806,
      "obilien": 3807,
      "ĠTermin": 3808,
      "erweise": 3809,
      "805": 3810,
      "Ġsollen": 3811,
      "ĠGar": 3812,
      "atum": 3813,
      "Ġwww": 3814,
      "844": 3815,
      "ĠTa": 3816,
      "Ġenthalten": 3817,
      "Ġzun": 3818,
      "flÃ¤che": 3819,
      "ĠCorona": 3820,
      "114": 3821,
      "++": 3822,
      "kra": 3823,
      "Ġwelt": 3824,
      "wissenschaft": 3825,
      "Ã¤ren": 3826,
      "ollte": 3827,
      "ĠLiefer": 3828,
      "255": 3829,
      "wÃ¤": 3830,
      "ĠSommersemester": 3831,
      "847": 3832,
      "ĠGesellschaft": 3833,
      "ĠÃľbersicht": 3834,
      "ĠFahrzeug": 3835,
      "zung": 3836,
      "itÃ¤ten": 3837,
      "Ġallerdings": 3838,
      "ierter": 3839,
      "Ã¤llen": 3840,
      "ĠLes": 3841,
      "tseite": 3842,
      "zeichen": 3843,
      "ĠPolitik": 3844,
      "144": 3845,
      "europ": 3846,
      "ĠBay": 3847,
      "zogen": 3848,
      "cb": 3849,
      "abhÃ¤ng": 3850,
      "ĠZwecken": 3851,
      "rich": 3852,
      "mail": 3853,
      "ownload": 3854,
      "nMarketing": 3855,
      "nEssenziell": 3856,
      "Ġgenutz": 3857,
      "tens": 3858,
      "ĠStelle": 3859,
      "8352671": 3860,
      "115": 3861,
      "ĠGrundlage": 3862,
      "ĠFe": 3863,
      "ĠErziehungs": 3864,
      "ox": 3865,
      "gruppe": 3866,
      "960": 3867,
      "Ġhatten": 3868,
      "Ġdeinen": 3869,
      "ĠMÃ¤n": 3870,
      "Ġklar": 3871,
      "ĠAng": 3872,
      "km": 3873,
      "Ġbekannt": 3874,
      "ativen": 3875,
      "ĠNot": 3876,
      "masch": 3877,
      "sver": 3878,
      "Ġcon": 3879,
      "....": 3880,
      "Ġbeispiel": 3881,
      "ĠIs": 3882,
      "ĠDublin": 3883,
      "855": 3884,
      "alk": 3885,
      "nLie": 3886,
      "743": 3887,
      "mitteln": 3888,
      "154": 3889,
      "Ġbestimmten": 3890,
      "ĠNeben": 3891,
      "Ġfre": 3892,
      "Ġbist": 3893,
      "ĠBoden": 3894,
      "scher": 3895,
      "II": 3896,
      "ĠBek": 3897,
      "Ã¤nde": 3898,
      "ternen": 3899,
      "Ġgesam": 3900,
      "ĠGed": 3901,
      "nAls": 3902,
      "lation": 3903,
      "netz": 3904,
      "Ġvia": 3905,
      "lÃ¤uf": 3906,
      "ĠWeib": 3907,
      "ĠRest": 3908,
      "ĠVerbrauch": 3909,
      "ĠUnterstÃ¼tz": 3910,
      "mod": 3911,
      "ĠTÃ¼r": 3912,
      "ĠErlaubnis": 3913,
      "Ġsowohl": 3914,
      "rot": 3915,
      "ĠHaar": 3916,
      "244": 3917,
      "Ġdeaktiv": 3918,
      "Ġsag": 3919,
      "pflicht": 3920,
      "ĠLinks": 3921,
      "9990": 3922,
      "ĠSommer": 3923,
      "ĠTelefon": 3924,
      "Ġpass": 3925,
      "Ġsuchen": 3926,
      "tragung": 3927,
      "ĠÃ¼b": 3928,
      "Ġverarbeiten": 3929,
      "ĠVerkehr": 3930,
      "hang": 3931,
      "lat": 3932,
      "ĠBus": 3933,
      "Ġbeachten": 3934,
      "ĠForum": 3935,
      "ĠMÃ¼nchen": 3936,
      "ĠDruck": 3937,
      "altet": 3938,
      "pack": 3939,
      "fassung": 3940,
      "ĠPflege": 3941,
      "eige": 3942,
      "Ġaktuellen": 3943,
      "275": 3944,
      "liste": 3945,
      "ĠPa": 3946,
      "Ġ31": 3947,
      "ĠZugang": 3948,
      "polic": 3949,
      "EG": 3950,
      "Ġ'": 3951,
      "ary": 3952,
      "ĠdÃ¼rfen": 3953,
      "sph": 3954,
      "igt": 3955,
      "215": 3956,
      "usst": 3957,
      "ĠEltern": 3958,
      "how": 3959,
      "ĠhÃ¤uf": 3960,
      "gelegt": 3961,
      "schriften": 3962,
      "863": 3963,
      "andlung": 3964,
      "ĠPort": 3965,
      "ĠFern": 3966,
      "Ġabge": 3967,
      "EU": 3968,
      "Ġbuchen": 3969,
      "2018": 3970,
      "971": 3971,
      "9965": 3972,
      "Ġmittels": 3973,
      "ĠSam": 3974,
      "ppel": 3975,
      "ĠgewÃ¤hr": 3976,
      "ĠMitglieder": 3977,
      "schrÃ¤n": 3978,
      "ienten": 3979,
      "9966": 3980,
      "reiten": 3981,
      "Ġkostenlos": 3982,
      "ĠRoss": 3983,
      "ĠEUR": 3984,
      "back": 3985,
      "ĠWahr": 3986,
      "ĠWeise": 3987,
      "ĠDir": 3988,
      "Ġoptimal": 3989,
      "ĠSan": 3990,
      "angebot": 3991,
      "fluss": 3992,
      "urf": 3993,
      "wasser": 3994,
      "ĠSchm": 3995,
      "rang": 3996,
      "alte": 3997,
      "box": 3998,
      "216": 3999,
      "ael": 4000,
      "Ġeher": 4001,
      "ĠKind": 4002,
      "Ġkam": 4003,
      "ĠFamilie": 4004,
      "ĠTier": 4005,
      "furt": 4006,
      "Ġkm": 4007,
      "Ġverwendeten": 4008,
      "ĠDiensten": 4009,
      "ĠDigit": 4010,
      "ĠBen": 4011,
      "elche": 4012,
      "nAm": 4013,
      "958": 4014,
      "ĠMaps": 4015,
      "ĠverÃ¶ffentlicht": 4016,
      "bank": 4017,
      "lanzen": 4018,
      "nAktu": 4019,
      "!!": 4020,
      "Ġ{": 4021,
      "Ġeigentlich": 4022,
      "wissen": 4023,
      "ĠBetreiber": 4024,
      "ĠErn": 4025,
      "emp": 4026,
      "833": 4027,
      "ĠWest": 4028,
      "929": 4029,
      "dorf": 4030,
      "ĠgehÃ¶rt": 4031,
      "ĠGesetz": 4032,
      "ĠGrÃ¼": 4033,
      "Ġsolche": 4034,
      "forderungen": 4035,
      "geh": 4036,
      "enkorb": 4037,
      "wehr": 4038,
      "Ġwegen": 4039,
      "116": 4040,
      "ĠMat": 4041,
      "ĠAG": 4042,
      "nJetzt": 4043,
      "256": 4044,
      "gerufen": 4045,
      "auber": 4046,
      "ĠPersonenbezogene": 4047,
      "ĠAutor": 4048,
      "ĠâĨ": 4049,
      "ĠZwei": 4050,
      "ĠSoftware": 4051,
      "haltung": 4052,
      "ĠUmwelt": 4053,
      "ĠheiÃŁ": 4054,
      "nBitte": 4055,
      "medizin": 4056,
      "00003": 4057,
      "igin": 4058,
      "ÌĪ": 4059,
      "Ġ60": 4060,
      "ĠAntworten": 4061,
      "richtung": 4062,
      "angel": 4063,
      "Ġanzu": 4064,
      "ĠTages": 4065,
      "meister": 4066,
      "ĠÃĸsterreich": 4067,
      "Ġregistr": 4068,
      "ĠWe": 4069,
      "225": 4070,
      "zeuge": 4071,
      "Ġnutzt": 4072,
      "HR": 4073,
      "Ġsofort": 4074,
      "Ġward": 4075,
      "nBer": 4076,
      "lob": 4077,
      "int": 4078,
      "Ġbeispielsweise": 4079,
      "Ġgrundlegen": 4080,
      "804": 4081,
      "zur": 4082,
      "ital": 4083,
      "ect": 4084,
      "SS": 4085,
      "teilung": 4086,
      "Ġmarkieren": 4087,
      "Ġentscheiden": 4088,
      "ĠhÃ¶her": 4089,
      "884": 4090,
      "atik": 4091,
      "OL": 4092,
      "226": 4093,
      "ĠMillionen": 4094,
      "ĠLa": 4095,
      "service": 4096,
      "eier": 4097,
      "Ġsozi": 4098,
      "ĠKopf": 4099,
      "zustellen": 4100,
      "stattung": 4101,
      "berechtigten": 4102,
      "oto": 4103,
      "Ġfall": 4104,
      "867": 4105,
      "ĠgelÃ¶": 4106,
      "ĠSicherheits": 4107,
      "854": 4108,
      "blasen": 4109,
      "156": 4110,
      "laus": 4111,
      "856": 4112,
      "Ã¤mpf": 4113,
      "Ġnotwendig": 4114,
      "203": 4115,
      "ĠViel": 4116,
      "lÃ¤tz": 4117,
      "uh": 4118,
      "Ġkennen": 4119,
      "leg": 4120,
      "info": 4121,
      "rÃ¤gt": 4122,
      "224": 4123,
      "ĠFolgen": 4124,
      "ĠFÃ¶rder": 4125,
      "cript": 4126,
      "achte": 4127,
      "ĠTour": 4128,
      "Ġidentifiz": 4129,
      "Ġakzep": 4130,
      "106": 4131,
      "mÃ¶glichkeiten": 4132,
      "ungsk": 4133,
      "Ġfreuen": 4134,
      "ĠHamburg": 4135,
      "Ġbetroffene": 4136,
      "Ġautomatisch": 4137,
      "beg": 4138,
      "ĠNachrichten": 4139,
      "ĠInnen": 4140,
      "arkt": 4141,
      "lim": 4142,
      "ĠDoch": 4143,
      "elev": 4144,
      "ĠWort": 4145,
      "274": 4146,
      "erren": 4147,
      "ĠGener": 4148,
      "ĠWaren": 4149,
      "eta": 4150,
      "ash": 4151,
      "Ġkombin": 4152,
      "ĠSc": 4153,
      "sa": 4154,
      "ĠÂ·": 4155,
      "demie": 4156,
      "wertungen": 4157,
      "ĠAdr": 4158,
      "Ġausgeschlossen": 4159,
      "ĠTwitter": 4160,
      "276": 4161,
      "ĠKlein": 4162,
      "ĠÃ¶": 4163,
      "gien": 4164,
      "mÃ¤ÃŁigen": 4165,
      "Ġzweite": 4166,
      "ĠRat": 4167,
      "eitag": 4168,
      "ĠDetails": 4169,
      "oment": 4170,
      "ĠStar": 4171,
      "ĠRed": 4172,
      "ds": 4173,
      "ĠZwecke": 4174,
      "ĠInternetseite": 4175,
      "inden": 4176,
      "464": 4177,
      "Ġ08": 4178,
      "9933": 4179,
      "Ġern": 4180,
      "104": 4181,
      "lub": 4182,
      "fÃ¤l": 4183,
      "ness": 4184,
      "755": 4185,
      "Ġarbeiten": 4186,
      "9936": 4187,
      "osition": 4188,
      "nKategor": 4189,
      "ĠLicht": 4190,
      "Ġvielleicht": 4191,
      "ĠSozial": 4192,
      "ĠOrganis": 4193,
      "uster": 4194,
      "sie": 4195,
      "kk": 4196,
      "ĠgewÃ¼n": 4197,
      "TE": 4198,
      "754": 4199,
      "Ġpersonenbezogene": 4200,
      "806": 4201,
      "176": 4202,
      "Ġbedeutet": 4203,
      "erin": 4204,
      "ĠSil": 4205,
      "allo": 4206,
      "ritten": 4207,
      "wÃ¤r": 4208,
      "formular": 4209,
      "ĠTeilnehmer": 4210,
      "Ġhei": 4211,
      "ĠDen": 4212,
      "loss": 4213,
      "Ġmeinem": 4214,
      "ĠFolge": 4215,
      "ĠErfolg": 4216,
      "zeige": 4217,
      "umm": 4218,
      "iti": 4219,
      "Ġbringen": 4220,
      "Ġungel": 4221,
      "nZurÃ¼ck": 4222,
      "Ġsofern": 4223,
      "quick": 4224,
      "________": 4225,
      "ĠFerien": 4226,
      "035": 4227,
      "Ġverein": 4228,
      "236": 4229,
      "ĠtÃ¤": 4230,
      "ĠAnalyse": 4231,
      "Ġeng": 4232,
      "145": 4233,
      "9943": 4234,
      "minist": 4235,
      "-/": 4236,
      "246": 4237,
      "ĠSÃ¼d": 4238,
      "Ġklein": 4239,
      "dete": 4240,
      "ĠStimm": 4241,
      "IM": 4242,
      "Ġmeist": 4243,
      "ĠFÃ¼hr": 4244,
      "ĠQualitÃ¤t": 4245,
      "nete": 4246,
      "ĠSol": 4247,
      "Ġjedes": 4248,
      "ĠMich": 4249,
      "Ġsor": 4250,
      "utschen": 4251,
      "schau": 4252,
      "214": 4253,
      "OM": 4254,
      "sto": 4255,
      "ĠDis": 4256,
      "800": 4257,
      "Ġ2006": 4258,
      "mittlung": 4259,
      "Ġpolit": 4260,
      "izei": 4261,
      "Ġanderem": 4262,
      "lauben": 4263,
      "ĠFresse": 4264,
      "ĠNews": 4265,
      "Ġbisher": 4266,
      "ĠDicken": 4267,
      "ĠAmazon": 4268,
      "Ã¶hn": 4269,
      "ĠWein": 4270,
      "por": 4271,
      "ĠStrom": 4272,
      "hÃ¶ren": 4273,
      "ĠKategorie": 4274,
      "linik": 4275,
      "Ġeff": 4276,
      "ĠVertrags": 4277,
      "873": 4278,
      "ĠhÃ¶ch": 4279,
      "Ġbeneiden": 4280,
      "Ġwunder": 4281,
      "ĠBad": 4282,
      "PD": 4283,
      "ĠTop": 4284,
      "upp": 4285,
      "235": 4286,
      "ĠAnfrage": 4287,
      "zeugt": 4288,
      "ĠKranken": 4289,
      "Kon": 4290,
      "756": 4291,
      "017": 4292,
      "Ġbeneidenswert": 4293,
      "ĠErziehungsberechtigten": 4294,
      "146": 4295,
      "ĠChar": 4296,
      "igur": 4297,
      "Ġpar": 4298,
      "Ġaufblasen": 4299,
      "quicklich": 4300,
      "Ã¤den": 4301,
      "ĠExper": 4302,
      "894": 4303,
      "Ġfreiwilligen": 4304,
      "Ġunbequem": 4305,
      "ĠHÃ¶he": 4306,
      "rill": 4307,
      "ĠBa": 4308,
      "9164": 4309,
      "ĠVerbindung": 4310,
      "ĠCar": 4311,
      "036": 4312,
      "IR": 4313,
      "vel": 4314,
      "ĠMont": 4315,
      "stoffe": 4316,
      "ĠFl": 4317,
      "ĠEing": 4318,
      "uÃŁerdem": 4319,
      "kn": 4320,
      "mÃ¶": 4321,
      "Ġabsol": 4322,
      "Ã¤ndert": 4323,
      "ĠGlÃ¼ck": 4324,
      "ĠWissen": 4325,
      "ĠNÃ¤": 4326,
      "ĠZum": 4327,
      "nSuche": 4328,
      "Ġar": 4329,
      "Ġnotwen": 4330,
      "ĠInhaltsmessung": 4331,
      "ferung": 4332,
      "ales": 4333,
      "Ġbetroffenen": 4334,
      "/\\": 4335,
      "gesamt": 4336,
      "Ġerwar": 4337,
      "ĠTex": 4338,
      "Ġsagte": 4339,
      "este": 4340,
      "Der": 4341,
      "ĠVoll": 4342,
      "2016": 4343,
      "ĠBank": 4344,
      "steigen": 4345,
      "tigung": 4346,
      "iga": 4347,
      "elten": 4348,
      "enten": 4349,
      "Ġdeutlich": 4350,
      "tÃ¼mer": 4351,
      "urger": 4352,
      "ĠGu": 4353,
      "Ġungut": 4354,
      "ms": 4355,
      "ĠzusÃ¤tzliche": 4356,
      "halts": 4357,
      "ĠHinter": 4358,
      "207": 4359,
      "over": 4360,
      "Ã¼tzen": 4361,
      "ey": 4362,
      "Ġend": 4363,
      "handen": 4364,
      "Ã¤lle": 4365,
      "Ã¶ffentlich": 4366,
      "Ã¶pf": 4367,
      "ĠHel": 4368,
      "ĠNr": 4369,
      "ervices": 4370,
      "ĠZur": 4371,
      "ĠWebseiten": 4372,
      "Ġne": 4373,
      "apier": 4374,
      "vis": 4375,
      "ĠschÃ¶nen": 4376,
      "TS": 4377,
      "enzen": 4378,
      "Ġstandard": 4379,
      "nZu": 4380,
      "nBeit": 4381,
      "see": 4382,
      "irt": 4383,
      "nRe": 4384,
      "Ġfort": 4385,
      "Ġwerde": 4386,
      "843": 4387,
      "UM": 4388,
      "tiger": 4389,
      "Ã¶rter": 4390,
      "ĠVerantwortlichen": 4391,
      "ĠSteuer": 4392,
      "ĠermÃ¶glich": 4393,
      "Ġunerquicklich": 4394,
      "Ġungeliebt": 4395,
      "ener": 4396,
      "Ġelektron": 4397,
      "esser": 4398,
      "928": 4399,
      "Ġklicken": 4400,
      "verein": 4401,
      "azin": 4402,
      "Â®": 4403,
      "spe": 4404,
      "765": 4405,
      "ood": 4406,
      "DR": 4407,
      "ĠSuch": 4408,
      "cast": 4409,
      "minister": 4410,
      "ĠKlima": 4411,
      "atistik": 4412,
      "Ġsieht": 4413,
      "EM": 4414,
      "tliche": 4415,
      "ĠPhil": 4416,
      "ĠDom": 4417,
      "ĠBla": 4418,
      "ammlung": 4419,
      "treter": 4420,
      "profil": 4421,
      "enntnis": 4422,
      "Ġsolange": 4423,
      "rolle": 4424,
      "ubehÃ¶r": 4425,
      "ĠSchÃ¼ler": 4426,
      "âĸº": 4427,
      "Das": 4428,
      "ĠBon": 4429,
      "reibt": 4430,
      "werte": 4431,
      "174": 4432,
      "ĠHaut": 4433,
      "ĠSen": 4434,
      "Ġzeit": 4435,
      "ministrat": 4436,
      "ĠProfil": 4437,
      "ĠÂ«": 4438,
      "waltung": 4439,
      "ĠfÃ¼hrt": 4440,
      "dauer": 4441,
      "9935": 4442,
      "prÃ¤ch": 4443,
      "Ġwelches": 4444,
      "ĠBox": 4445,
      "ĠlÃ¤nger": 4446,
      "Ġspr": 4447,
      "Ġ...": 4448,
      "ntag": 4449,
      "ĠGest": 4450,
      "Ġkeinerlei": 4451,
      "Ġmin": 4452,
      "ĠbenÃ¶tigen": 4453,
      "Ġdessen": 4454,
      "ork": 4455,
      "Ġdeinem": 4456,
      "2017": 4457,
      "Ã¶ffnet": 4458,
      "908": 4459,
      "Ġteilen": 4460,
      "anstaltung": 4461,
      "ĠHeil": 4462,
      "ĠIns": 4463,
      "aben": 4464,
      "gerÃ¤t": 4465,
      "Ġhervor": 4466,
      "gesehen": 4467,
      "anal": 4468,
      "ĠZw": 4469,
      "zentrum": 4470,
      "ĠBra": 4471,
      "zahlen": 4472,
      "Ġ01": 4473,
      "wiesen": 4474,
      "853": 4475,
      "zess": 4476,
      "OP": 4477,
      "ld": 4478,
      "IP": 4479,
      "zahlung": 4480,
      "ĠMil": 4481,
      "laubt": 4482,
      "weils": 4483,
      "136": 4484,
      "ĠgÃ¼nst": 4485,
      "234": 4486,
      "Ġbehalten": 4487,
      "chten": 4488,
      "rt": 4489,
      "mittelt": 4490,
      "ĠHeim": 4491,
      "897": 4492,
      "ĠNur": 4493,
      "bert": 4494,
      "ĠPrÃ¼f": 4495,
      "ĠÃľ": 4496,
      "Ġres": 4497,
      "ĠMerk": 4498,
      "ode": 4499,
      "Ġyour": 4500,
      "ĠStandard": 4501,
      "ĠSitu": 4502,
      "Ġverfolgen": 4503,
      "004": 4504,
      "ĠOst": 4505,
      "akter": 4506,
      "ĠerhÃ¶": 4507,
      "ĠKur": 4508,
      "alb": 4509,
      "Aus": 4510,
      "883": 4511,
      "264": 4512,
      "ĠAust": 4513,
      "leistung": 4514,
      "ĠUnsere": 4515,
      "ĠWien": 4516,
      "ĠZahn": 4517,
      "Â§": 4518,
      "ĠPreise": 4519,
      "Ġleider": 4520,
      "ĠSpieler": 4521,
      "ire": 4522,
      "ĠausdrÃ¼cklich": 4523,
      "hÃ¤ltnis": 4524,
      "verstanden": 4525,
      "uellen": 4526,
      "iteratur": 4527,
      "173": 4528,
      "kraft": 4529,
      "895": 4530,
      "sprÃ¼": 4531,
      "rick": 4532,
      "srecht": 4533,
      "ĠDiskuss": 4534,
      "--------": 4535,
      ".:": 4536,
      "ĠBerg": 4537,
      "ĠWerbe": 4538,
      "ĠKreis": 4539,
      "aby": 4540,
      "ĠInstagram": 4541,
      "ĠMedia": 4542,
      "wachsen": 4543,
      "ĠAntwort": 4544,
      "ĠStart": 4545,
      "ĠÃĸff": 4546,
      "decken": 4547,
      "ĠHotel": 4548,
      "avigation": 4549,
      "ĠTisch": 4550,
      "uper": 4551,
      "ĠhÃ¤tte": 4552,
      "uchten": 4553,
      "istik": 4554,
      "App": 4555,
      "Ġrein": 4556,
      "Ã¤ude": 4557,
      "ĠMaÃŁnahmen": 4558,
      "Ã¤ngen": 4559,
      "ĠUnterstÃ¼tzung": 4560,
      "155": 4561,
      "âĢ¢": 4562,
      "ĠGÃ¤": 4563,
      "UT": 4564,
      "nBesch": 4565,
      "ĠNachricht": 4566,
      "ĠWieder": 4567,
      "nY": 4568,
      "ommt": 4569,
      "745": 4570,
      "ĠgelÃ¶scht": 4571,
      "ennung": 4572,
      "213": 4573,
      "Ad": 4574,
      "verstÃ¤nd": 4575,
      "ĠKr": 4576,
      "siden": 4577,
      "stre": 4578,
      "park": 4579,
      "9980": 4580,
      "Ġniemals": 4581,
      "Ġanonym": 4582,
      "ĠBeweg": 4583,
      "ĠWarenkorb": 4584,
      "ĠÂ»\\": 4585,
      "ĠMobil": 4586,
      "Ġwohn": 4587,
      "ĠGruppe": 4588,
      "Ġblock": 4589,
      "ĠDich": 4590,
      "ĠermÃ¶glicht": 4591,
      "\\\":": 4592,
      "Ġpla": 4593,
      "ĠRad": 4594,
      "Ġzug": 4595,
      "eckt": 4596,
      "265": 4597,
      "geschichte": 4598,
      "907": 4599,
      "neut": 4600,
      "blog": 4601,
      "ĠWill": 4602,
      "Ġempfehlen": 4603,
      "asen": 4604,
      "pa": 4605,
      "ns": 4606,
      "nKomment": 4607,
      "9963": 4608,
      "uhr": 4609,
      ".âĢľ\\": 4610,
      "125": 4611,
      "ĠEuropa": 4612,
      "Ġverbunden": 4613,
      "ots": 4614,
      "\\\\": 4615,
      "onnieren": 4616,
      "spar": 4617,
      "ĠPrivat": 4618,
      "ilden": 4619,
      "rage": 4620,
      "hops": 4621,
      "iven": 4622,
      "825": 4623,
      "ĠGef": 4624,
      "ĠDok": 4625,
      "167": 4626,
      "ĠunterstÃ¼tzen": 4627,
      "rief": 4628,
      "ĠSchwer": 4629,
      "ĠSmart": 4630,
      "456": 4631,
      "nWar": 4632,
      "Ġerhoben": 4633,
      "sei": 4634,
      "Ġguten": 4635,
      "ĠDatenverarbeitung": 4636,
      "Ġoff": 4637,
      "ĠHar": 4638,
      "Ã¶sungen": 4639,
      "ĠRegie": 4640,
      "erei": 4641,
      "Ġare": 4642,
      "ĠHy": 4643,
      "065": 4644,
      "Ġgenutzt": 4645,
      "233": 4646,
      "Ġdaran": 4647,
      "ĠIt": 4648,
      "ĠGesamt": 4649,
      "Ġvorher": 4650,
      "Ġanpassen": 4651,
      "ĠComputer": 4652,
      "ĠSor": 4653,
      "Ġjeweils": 4654,
      "Ġganze": 4655,
      "ĠLiebe": 4656,
      "Ġvorhanden": 4657,
      "reite": 4658,
      "funktion": 4659,
      "Ġanaly": 4660,
      "tiere": 4661,
      "losen": 4662,
      "nGesch": 4663,
      "453": 4664,
      "ieÃŁen": 4665,
      "Ġexternen": 4666,
      "policies": 4667,
      "ĠFel": 4668,
      "hann": 4669,
      "ktions": 4670,
      "yer": 4671,
      "Ġsogen": 4672,
      "peratur": 4673,
      "attet": 4674,
      "Ġstatistischen": 4675,
      "rim": 4676,
      "wÃ¼r": 4677,
      "Ã¤ndig": 4678,
      "reuz": 4679,
      "Ġdurchs": 4680,
      "103": 4681,
      "Ġtats": 4682,
      "ake": 4683,
      "ĠAuge": 4684,
      "nHer": 4685,
      "Ġwes": 4686,
      "teilen": 4687,
      "ĠGerÃ¤t": 4688,
      "KT": 4689,
      "wegs": 4690,
      "ana": 4691,
      "165": 4692,
      "046": 4693,
      "ĠDeutschen": 4694,
      "ĠBeratung": 4695,
      "Ãĸ": 4696,
      "maÃŁ": 4697,
      "9925": 4698,
      "9967": 4699,
      "243": 4700,
      "217": 4701,
      "766": 4702,
      "ĠTipps": 4703,
      "hunder": 4704,
      "ĠInfos": 4705,
      "886": 4706,
      "OT": 4707,
      "geld": 4708,
      "Ġschreiben": 4709,
      "ĠVerlag": 4710,
      "versicherung": 4711,
      "vol": 4712,
      "ĠDatei": 4713,
      "ĠBran": 4714,
      "ideo": 4715,
      "IC": 4716,
      "99875": 4717,
      "eiger": 4718,
      "spiele": 4719,
      "ĠMensch": 4720,
      "ĠBaum": 4721,
      "Ġzuf": 4722,
      "ĠOhne": 4723,
      "Ġdeiner": 4724,
      "166": 4725,
      "ichtigung": 4726,
      "Ġentsprechenden": 4727,
      "Ġmax": 4728,
      "ĠUnternehmens": 4729,
      "Ã¤hrung": 4730,
      "Ġgesetzt": 4731,
      "ĠBand": 4732,
      "ĠStreet": 4733,
      "056": 4734,
      "zentr": 4735,
      "Ġeinverstanden": 4736,
      "fter": 4737,
      "Ġgrundlegende": 4738,
      "ĠRom": 4739,
      "ĠStudien": 4740,
      "Ġging": 4741,
      "ĠDieses": 4742,
      "rÃ¤ger": 4743,
      "lecht": 4744,
      "ziellen": 4745,
      "steuer": 4746,
      "263": 4747,
      "Ġur": 4748,
      "eum": 4749,
      "zif": 4750,
      "ĠAktu": 4751,
      "ong": 4752,
      "ĠwÃ¼n": 4753,
      "ĠArch": 4754,
      "ommer": 4755,
      "ĠDieser": 4756,
      "kel": 4757,
      "eisen": 4758,
      "Ġauszu": 4759,
      "Ġweite": 4760,
      "Ġverkauf": 4761,
      "ĠSchweiz": 4762,
      "IV": 4763,
      "Ġfol": 4764,
      "949164": 4765,
      "AP": 4766,
      "767": 4767,
      "Ġmel": 4768,
      "ĠStud": 4769,
      "Ġkonnten": 4770,
      "Ġjemand": 4771,
      "94916475": 4772,
      "erten": 4773,
      "lanz": 4774,
      "266": 4775,
      "ĠWald": 4776,
      "ĠIndust": 4777,
      "ng": 4778,
      "ĠBetriebs": 4779,
      "izien": 4780,
      "ĠLeistungen": 4781,
      "147": 4782,
      "815": 4783,
      "ose": 4784,
      "164": 4785,
      "iki": 4786,
      "ĠFeuer": 4787,
      "unternehmen": 4788,
      "elig": 4789,
      "isiert": 4790,
      "Ġhab": 4791,
      "ritte": 4792,
      "Ġanhand": 4793,
      "006": 4794,
      "Ġberech": 4795,
      "273": 4796,
      "ĠDamit": 4797,
      "ĠWeihnachts": 4798,
      "nIhre": 4799,
      "hil": 4800,
      "117": 4801,
      "Ã¼nstler": 4802,
      "ĠLage": 4803,
      "ĠAbend": 4804,
      "Ġ07": 4805,
      "ĠWand": 4806,
      "\\\"\\": 4807,
      "omas": 4808,
      "ĠInvest": 4809,
      "ane": 4810,
      "nGes": 4811,
      "ĠAlt": 4812,
      "nGefÃ¤llt": 4813,
      "lett": 4814,
      "kennen": 4815,
      "ission": 4816,
      "Ġtrotzdem": 4817,
      "ĠGruppen": 4818,
      "Ġsomit": 4819,
      "9944": 4820,
      "rik": 4821,
      ".)": 4822,
      "005": 4823,
      "Ġanders": 4824,
      "Ġ80": 4825,
      "ĠBasis": 4826,
      "nAut": 4827,
      "ĠKurz": 4828,
      "gruppen": 4829,
      "vents": 4830,
      "Ġerreichen": 4831,
      "atter": 4832,
      "Ġnormal": 4833,
      "ĠhÃ¤ufig": 4834,
      "ĠfÃ¼nf": 4835,
      "stellte": 4836,
      "dert": 4837,
      "ecken": 4838,
      "Ġyou": 4839,
      "edizinische": 4840,
      "Ġ03": 4841,
      "amin": 4842,
      "ĠKÃ¶l": 4843,
      "893": 4844,
      "Ġaktivieren": 4845,
      "nUnd": 4846,
      "ĠFen": 4847,
      "972": 4848,
      "734": 4849,
      "fÃ¼hrer": 4850,
      "management": 4851,
      "ICH": 4852,
      "ungsbedingungen": 4853,
      "ĠSau": 4854,
      "Ġhochwer": 4855,
      "einigung": 4856,
      "Ber": 4857,
      "Ġeingeb": 4858,
      "ĠKrit": 4859,
      "ĠHil": 4860,
      "ĠlÃ¶schen": 4861,
      "ĠÂ©": 4862,
      "gebung": 4863,
      "857": 4864,
      "ĠâĢ¦\\": 4865,
      "113": 4866,
      "ĠVoraus": 4867,
      "nAuch": 4868,
      "alyse": 4869,
      "ĠDorf": 4870,
      "ĠBestellung": 4871,
      "Ġverantwort": 4872,
      "ĠSinne": 4873,
      "kir": 4874,
      "ĠTre": 4875,
      "orgung": 4876,
      "177": 4877,
      "go": 4878,
      "tischen": 4879,
      "rechte": 4880,
      "ĠVerfahren": 4881,
      "rock": 4882,
      "ĠdaÃŁ": 4883,
      "acken": 4884,
      "ĠFort": 4885,
      "hard": 4886,
      "imeo": 4887,
      "unction": 4888,
      "TP": 4889,
      "ĠPan": 4890,
      "Ġrichten": 4891,
      "nEigen": 4892,
      "uchte": 4893,
      "ĠWunsch": 4894,
      "Ġentwickelt": 4895,
      "SL": 4896,
      "920": 4897,
      "odcast": 4898,
      "aust": 4899,
      "heber": 4900,
      "Ġdadurch": 4901,
      "bli": 4902,
      "stru": 4903,
      "ĠFirma": 4904,
      "824": 4905,
      "Ġpersonenbezogener": 4906,
      "ĠMÃ¶glichkeiten": 4907,
      "ationale": 4908,
      "Ã¼tzt": 4909,
      "freund": 4910,
      "137": 4911,
      "rÃ¼n": 4912,
      "akte": 4913,
      "ieten": 4914,
      "ichter": 4915,
      "ole": 4916,
      "iness": 4917,
      "indestens": 4918,
      "Ġangezeigt": 4919,
      "ĠMotor": 4920,
      "Ġangem": 4921,
      "ĠKindern": 4922,
      "Ġeinzelnen": 4923,
      "ffff": 4924,
      "ĠTrans": 4925,
      "ĠInformation": 4926,
      "ĠWo": 4927,
      "Ġoptim": 4928,
      "ama": 4929,
      "Media": 4930,
      "ĠVerkauf": 4931,
      "anlage": 4932,
      "Ġerfolgreich": 4933,
      "ĠOption": 4934,
      "bietern": 4935,
      "896": 4936,
      "Ġinformieren": 4937,
      ".-": 4938,
      "gessen": 4939,
      "Ã¤user": 4940,
      "asino": 4941,
      "eilung": 4942,
      "schlÃ¤": 4943,
      "124": 4944,
      "045": 4945,
      "ommun": 4946,
      "753": 4947,
      "Ġposit": 4948,
      "Ġmag": 4949,
      "950": 4950,
      "ĠPsych": 4951,
      "ĠHinsicht": 4952,
      "ĠRegistr": 4953,
      "stieg": 4954,
      "Ġfunktioniert": 4955,
      "Ġintegr": 4956,
      "das": 4957,
      "iegelt": 4958,
      "Ġgefunden": 4959,
      "ĠDritten": 4960,
      "TM": 4961,
      "ors": 4962,
      "066": 4963,
      "bringen": 4964,
      "ĠKredit": 4965,
      "ĠAuÃŁerdem": 4966,
      "nHallo": 4967,
      "043": 4968,
      "atte": 4969,
      "rechend": 4970,
      "ĠShop": 4971,
      "ĠheiÃŁt": 4972,
      "fordert": 4973,
      "ĠGewinn": 4974,
      "Ġeinwand": 4975,
      "nNewsletter": 4976,
      "stuhl": 4977,
      "lust": 4978,
      "istische": 4979,
      "735": 4980,
      "nArtikel": 4981,
      "Ġspielen": 4982,
      "erkunft": 4983,
      "ages": 4984,
      "ktive": 4985,
      "####": 4986,
      "ĠEuropÃ¤ischen": 4987,
      "ĠDon": 4988,
      "zufÃ¼hren": 4989,
      "Ġ90": 4990,
      "ĠSchluss": 4991,
      "Ġdeshalb": 4992,
      "nReg": 4993,
      "ition": 4994,
      "ĠerfÃ¼ll": 4995,
      "able": 4996,
      "ehÃ¶rde": 4997,
      "So": 4998,
      "technik": 4999,
      "736": 5000,
      "ĠUN": 5001,
      "827": 5002,
      "Ġwebsite": 5003,
      "Ich": 5004,
      "055": 5005,
      "ĠSpaÃŁ": 5006,
      "iver": 5007,
      "Ġna": 5008,
      "Ġetc": 5009,
      "ĠDort": 5010,
      "Ġverhindern": 5011,
      "spf": 5012,
      "teilt": 5013,
      "ĠMedizin": 5014,
      "133": 5015,
      "ĠWett": 5016,
      "partner": 5017,
      "237": 5018,
      "zeugen": 5019,
      "zum": 5020,
      "verkehr": 5021,
      "Ã¼rf": 5022,
      "ĠGold": 5023,
      "Ġkombiniert": 5024,
      "Ġ45": 5025,
      "ĠWissenschaft": 5026,
      "uchs": 5027,
      "Ġporn": 5028,
      "ags": 5029,
      "ĠunterstÃ¼tzt": 5030,
      "werden": 5031,
      "Ġpriv": 5032,
      "ĠChe": 5033,
      "Ġgegeben": 5034,
      "nQu": 5035,
      "innt": 5036,
      "Ġgeschn": 5037,
      "verbrauch": 5038,
      "prochen": 5039,
      "ĠSchule": 5040,
      "nAl": 5041,
      "9964": 5042,
      "nehm": 5043,
      "ohlen": 5044,
      "Ġfindest": 5045,
      "Ġerneut": 5046,
      "cm": 5047,
      "184": 5048,
      "cking": 5049,
      "nUnser": 5050,
      "ÃĦ": 5051,
      "193": 5052,
      "ooper": 5053,
      "064": 5054,
      "ĠDazu": 5055,
      "Ġmindestens": 5056,
      "ĠAlter": 5057,
      "Ã¤ngt": 5058,
      "stellten": 5059,
      "ĠKurs": 5060,
      "Ã¼rz": 5061,
      "ograph": 5062,
      "springen": 5063,
      "Ġinkl": 5064,
      "OG": 5065,
      "Ġbesuchen": 5066,
      "ĠStellen": 5067,
      "ĠHum": 5068,
      "nVon": 5069,
      "ias": 5070,
      "Ã¼ss": 5071,
      "hung": 5072,
      "xtrem": 5073,
      "tis": 5074,
      "Ġbedarf": 5075,
      "ĠFreund": 5076,
      "ĠenthÃ¤lt": 5077,
      "ĠGleich": 5078,
      "ĠPraxis": 5079,
      "atus": 5080,
      "227": 5081,
      "ĠFa": 5082,
      "ationalen": 5083,
      "ĠSprache": 5084,
      "ics": 5085,
      "Ġkonk": 5086,
      "ĠSonnen": 5087,
      "Ġsetzt": 5088,
      "Ġangeboten": 5089,
      "ĠProbleme": 5090,
      "764": 5091,
      "gef": 5092,
      "isse": 5093,
      "Ġbetreffen": 5094,
      "gemeine": 5095,
      "leidung": 5096,
      "891": 5097,
      "bek": 5098,
      "ĠLÃ¶schung": 5099,
      "ĠTitel": 5100,
      "Ġebenso": 5101,
      "ĠRolle": 5102,
      "enke": 5103,
      "sichtlich": 5104,
      "such": 5105,
      "utschland": 5106,
      "821": 5107,
      "877": 5108,
      "tive": 5109,
      "rig": 5110,
      "wind": 5111,
      "ĠListe": 5112,
      "Ġstimmen": 5113,
      "idenz": 5114,
      "woch": 5115,
      "MS": 5116,
      "ĠwÃ¤hlen": 5117,
      "ĠDein": 5118,
      "anne": 5119,
      "Ġfal": 5120,
      "Ġit": 5121,
      "ĠPrin": 5122,
      "Mit": 5123,
      "Ġakzeptiert": 5124,
      "tritt": 5125,
      "yl": 5126,
      "ĠEssen": 5127,
      "alle": 5128,
      "ĠIT": 5129,
      "ĠErgebnis": 5130,
      "044": 5131,
      "index": 5132,
      "435": 5133,
      "Ġaktuell": 5134,
      "hausen": 5135,
      "rans": 5136,
      "Ġsoweit": 5137,
      "ffer": 5138,
      ";\\": 5139,
      "gefÃ¼hrt": 5140,
      "Ã¤ufer": 5141,
      "sein": 5142,
      "Ġ2005": 5143,
      "ĠHouse": 5144,
      "ĠhÃ¶r": 5145,
      "744": 5146,
      "Ġweg": 5147,
      "Ġhilft": 5148,
      "ĠStraÃŁe": 5149,
      "tierung": 5150,
      "by": 5151,
      "ĠSens": 5152,
      "linien": 5153,
      "gericht": 5154,
      "185": 5155,
      "sprechen": 5156,
      "finden": 5157,
      "ĠTel": 5158,
      "Ġbefindet": 5159,
      "abe": 5160,
      "ĠFla": 5161,
      "ĠÃ¼bertragen": 5162,
      "problem": 5163,
      "ĠJob": 5164,
      "Ġprakti": 5165,
      "rachen": 5166,
      "ĠModell": 5167,
      "schieden": 5168,
      "arian": 5169,
      "ĠJahrhunder": 5170,
      "196": 5171,
      "ĠRhein": 5172,
      "Ġentsprechend": 5173,
      "sprung": 5174,
      "pfer": 5175,
      "icro": 5176,
      "ĠrechtmÃ¤ÃŁigen": 5177,
      "ĠEng": 5178,
      "wirkungen": 5179,
      "karte": 5180,
      "814": 5181,
      "087": 5182,
      "cookie": 5183,
      "ĠKommunikations": 5184,
      "neten": 5185,
      "Ġerstellt": 5186,
      "277": 5187,
      "garten": 5188,
      "nern": 5189,
      "europÃ¤": 5190,
      "nHost": 5191,
      "2015": 5192,
      "Ġaktuelle": 5193,
      "Ġsod": 5194,
      "nKategorien": 5195,
      "Ġfolgende": 5196,
      "wach": 5197,
      "ĠFotos": 5198,
      "ĠFoto": 5199,
      "Ġdazuge": 5200,
      "ĠHeraus": 5201,
      "gebiet": 5202,
      "ĠverfÃ¼gbar": 5203,
      "ĠGemeinde": 5204,
      "missionen": 5205,
      "ĠErst": 5206,
      "088": 5207,
      "ĠAp": 5208,
      "aup": 5209,
      "rige": 5210,
      "Ġwelcher": 5211,
      "194": 5212,
      "glichen": 5213,
      "ĠVertreter": 5214,
      "wig": 5215,
      "beit": 5216,
      "ĠSicht": 5217,
      "ĠJetzt": 5218,
      "003": 5219,
      "til": 5220,
      "ĠMutter": 5221,
      "Ġad": 5222,
      "okrat": 5223,
      "ĠMw": 5224,
      "053": 5225,
      "nProdu": 5226,
      "ĠInc": 5227,
      "98326": 5228,
      "Ġbas": 5229,
      "Ġbeste": 5230,
      "ĠPeter": 5231,
      "746": 5232,
      "ĠKonkurs": 5233,
      "Ġkaum": 5234,
      "ava": 5235,
      "PS": 5236,
      "iziert": 5237,
      "itze": 5238,
      "Ġverwalten": 5239,
      "ĠStein": 5240,
      "175": 5241,
      "267": 5242,
      "ĠGut": 5243,
      "Ã¤dag": 5244,
      "eise": 5245,
      "ĠStaats": 5246,
      "ĠReich": 5247,
      "Ġ06": 5248,
      "ĠAdministrat": 5249,
      "pfen": 5250,
      "app": 5251,
      "Ġbelieb": 5252,
      "Ġgenannten": 5253,
      "287": 5254,
      "gut": 5255,
      "ĠZusammenhang": 5256,
      "Ġvergleich": 5257,
      "vertrag": 5258,
      "Ġneues": 5259,
      "ĠUl": 5260,
      "034": 5261,
      "lehnen": 5262,
      "ĠKarten": 5263,
      "nUnter": 5264,
      "Ġgesetzlichen": 5265,
      "9956": 5266,
      "ierungen": 5267,
      "ĠSach": 5268,
      "ĠVeranstaltungen": 5269,
      "ertig": 5270,
      "ziehung": 5271,
      "ĠprÃ¤sen": 5272,
      "ĠRef": 5273,
      "gegeben": 5274,
      "ĠAnmeldung": 5275,
      "ĠImmobilien": 5276,
      "âĢĶ": 5277,
      "Ġrechts": 5278,
      "nmehr": 5279,
      "ĠWiderspruch": 5280,
      "hemen": 5281,
      "fs": 5282,
      "ĠKommunikation": 5283,
      "ĠFrÃ¼h": 5284,
      "Ġdennoch": 5285,
      "gesellschaft": 5286,
      "nTelefon": 5287,
      "ĠTV": 5288,
      "ĠSem": 5289,
      "ummer": 5290,
      "091": 5291,
      "Ġwarum": 5292,
      "struktur": 5293,
      "823": 5294,
      "ĠHerkunft": 5295,
      "Ġmon": 5296,
      "fÃ¼llung": 5297,
      "Ġleich": 5298,
      "336": 5299,
      "ĠKrieg": 5300,
      "ĠOut": 5301,
      "EW": 5302,
      "ĠSonder": 5303,
      "rust": 5304,
      "rund": 5305,
      "153": 5306,
      "ĠBlut": 5307,
      "AQ": 5308,
      "ministr": 5309,
      "ĠServices": 5310,
      "werten": 5311,
      "itÃ¤ts": 5312,
      "2014": 5313,
      "ĠDritte": 5314,
      "volle": 5315,
      "ams": 5316,
      "richtungen": 5317,
      "733": 5318,
      "ĠII": 5319,
      "SB": 5320,
      "nBeschreibung": 5321,
      "ĠLeistung": 5322,
      "usch": 5323,
      "Ġ}": 5324,
      "Ã¤lter": 5325,
      "898": 5326,
      "Ġ[âĢ¦": 5327,
      "Ġdo": 5328,
      "Ġlos": 5329,
      "IK": 5330,
      "othek": 5331,
      "nMen": 5332,
      "Ġerlaubt": 5333,
      "reude": 5334,
      "leit": 5335,
      "9924": 5336,
      "ĠOl": 5337,
      "tim": 5338,
      "ĠStÃ¤d": 5339,
      "uell": 5340,
      "ĠHause": 5341,
      "rifft": 5342,
      "zens": 5343,
      "Ġkor": 5344,
      "253": 5345,
      "gelt": 5346,
      "dieweil": 5347,
      "Ġgestellt": 5348,
      "Ġverpflich": 5349,
      "ĠausgewÃ¤hlt": 5350,
      "kur": 5351,
      "vert": 5352,
      "ĠEntscheidung": 5353,
      "nVers": 5354,
      "ĠDeine": 5355,
      "033": 5356,
      "gn": 5357,
      "pel": 5358,
      "reen": 5359,
      "figur": 5360,
      "ĠWirtschafts": 5361,
      "Ġlernen": 5362,
      "opyr": 5363,
      "isierung": 5364,
      "ammer": 5365,
      "irm": 5366,
      "Ġferner": 5367,
      "ĠBahn": 5368,
      "ĠzunÃ¤chst": 5369,
      "Ã¼rt": 5370,
      "811": 5371,
      "ĠRegen": 5372,
      "Ġentsprechende": 5373,
      "Ġdeutsche": 5374,
      "Press": 5375,
      "wegen": 5376,
      "ates": 5377,
      "ĠAuÃŁen": 5378,
      "ĠGeburt": 5379,
      "sÃ¤tzlich": 5380,
      "ĠFrie": 5381,
      "SV": 5382,
      "stall": 5383,
      "9921": 5384,
      "ĠLeute": 5385,
      "Ġzweiten": 5386,
      "Ã¶gliche": 5387,
      "ĠMwSt": 5388,
      "opyright": 5389,
      "ĠerklÃ¤rt": 5390,
      "ĠÃ¶ffentlichen": 5391,
      "063": 5392,
      "98326254": 5393,
      "stÃ¤nden": 5394,
      "rechts": 5395,
      "alisiert": 5396,
      "ehÃ¶rden": 5397,
      "143": 5398,
      "Ġ200": 5399,
      "Ġerkennen": 5400,
      "Ġdient": 5401,
      "ĠĠ": 5402,
      "dividuelle": 5403,
      "057": 5404,
      "ĠErgebnisse": 5405,
      "alog": 5406,
      "angebote": 5407,
      "763": 5408,
      "ĠTechnik": 5409,
      "ĠIst": 5410,
      "Ġgespeicherten": 5411,
      "Ġgern": 5412,
      "201": 5413,
      "ĠKonto": 5414,
      "930": 5415,
      "verband": 5416,
      "eid": 5417,
      "Ġschm": 5418,
      "grundlage": 5419,
      "eidig": 5420,
      "alif": 5421,
      "Ġverz": 5422,
      "ĠwÃ¼rden": 5423,
      "verhalten": 5424,
      "leiter": 5425,
      "ĠBÃ¼ro": 5426,
      "anger": 5427,
      "schungs": 5428,
      "ĠEi": 5429,
      "ĠPatienten": 5430,
      "757": 5431,
      "9927": 5432,
      "163": 5433,
      "ĠmÃ¶glicherweise": 5434,
      "arbeite": 5435,
      "Ġweitem": 5436,
      "last": 5437,
      "auftrag": 5438,
      "ufe": 5439,
      "ĠQ": 5440,
      "hy": 5441,
      "dia": 5442,
      "Ġeinwandfreie": 5443,
      "arm": 5444,
      "ĠDach": 5445,
      "Ġmeinst": 5446,
      "Se": 5447,
      "Ġhohen": 5448,
      "lÃ¤tze": 5449,
      "195": 5450,
      "Ġgerechnet": 5451,
      "ĠBereit": 5452,
      "Ġnachhal": 5453,
      "Ġalten": 5454,
      "ĠâĨĴ": 5455,
      "aket": 5456,
      "band": 5457,
      "gart": 5458,
      "nWird": 5459,
      "ehe": 5460,
      "werke": 5461,
      "ĠSex": 5462,
      "ĠMart": 5463,
      "was": 5464,
      "Ġas": 5465,
      "ĠPay": 5466,
      "ande": 5467,
      "oot": 5468,
      "ĠGott": 5469,
      "ĠÃĦnderungen": 5470,
      "tend": 5471,
      "umente": 5472,
      "KW": 5473,
      "ĠKÃ¶nig": 5474,
      "lingen": 5475,
      "Ġvergangen": 5476,
      "187": 5477,
      "RO": 5478,
      "ĠAlltag": 5479,
      "dere": 5480,
      "ĠBÃ¼cher": 5481,
      "Ġide": 5482,
      "9923": 5483,
      "âĢĺ": 5484,
      "ĠregelmÃ¤ÃŁig": 5485,
      "wesen": 5486,
      "Ġwenden": 5487,
      "Ġalldieweil": 5488,
      "ĠDauer": 5489,
      "ĠPlat": 5490,
      "gehend": 5491,
      "hnt": 5492,
      "747": 5493,
      "ory": 5494,
      "gf": 5495,
      "ĠErfahrungen": 5496,
      "Ġwerfen": 5497,
      "ĠunabhÃ¤ng": 5498,
      "essary": 5499,
      "ĠAnspruch": 5500,
      "Ġwith": 5501,
      "nDurch": 5502,
      "Ã¼cks": 5503,
      "flug": 5504,
      "orte": 5505,
      "Be": 5506,
      "Ġfinde": 5507,
      "ĠVerhalten": 5508,
      "ĠSchritt": 5509,
      "ssystem": 5510,
      "Ġeinzu": 5511,
      "ĠVolks": 5512,
      "iefer": 5513,
      "IA": 5514,
      "ica": 5515,
      "Ã¤dchen": 5516,
      "ĠEntwick": 5517,
      "beratung": 5518,
      "ĠstÃ¤r": 5519,
      "rÃ¤ch": 5520,
      "dent": 5521,
      "ĠBrem": 5522,
      "ĠSituation": 5523,
      "nEssenzielle": 5524,
      "ĠNew": 5525,
      "ĠEben": 5526,
      "Ab": 5527,
      "Ġwollte": 5528,
      "ĠFenster": 5529,
      "MW": 5530,
      "zepte": 5531,
      "ĠAnzahl": 5532,
      "uk": 5533,
      "ĠMain": 5534,
      "Ġwohnhaft": 5535,
      "gÃ¤nge": 5536,
      "284": 5537,
      "157": 5538,
      "ĠPolizei": 5539,
      "elte": 5540,
      "schuss": 5541,
      "Ġgleichzeitig": 5542,
      "822": 5543,
      "ĠGet": 5544,
      "DU": 5545,
      "eien": 5546,
      "ĠElektro": 5547,
      "9954": 5548,
      "2023": 5549,
      "ux": 5550,
      "077": 5551,
      "Ġgeschlossen": 5552,
      "Vor": 5553,
      "ita": 5554,
      "ĠfÃ¼hl": 5555,
      ".âĢľ": 5556,
      "riffe": 5557,
      "Emissionen": 5558,
      "ministration": 5559,
      "ickt": 5560,
      "ows": 5561,
      "940": 5562,
      "Ġ04": 5563,
      "Ġ<": 5564,
      "nDa": 5565,
      "geg": 5566,
      "Ġliebe": 5567,
      "Ġentfern": 5568,
      "Ã¤dagog": 5569,
      "ĠDinge": 5570,
      "aktieren": 5571,
      "formation": 5572,
      "po": 5573,
      "Ġklass": 5574,
      "Ġbringt": 5575,
      "nInstagram": 5576,
      "ĠEinschrÃ¤n": 5577,
      "act": 5578,
      "amera": 5579,
      "RW": 5580,
      "Ġprofession": 5581,
      "ollten": 5582,
      "ĠMenge": 5583,
      "zgl": 5584,
      "ekten": 5585,
      "ĠAc": 5586,
      "Ġdam": 5587,
      "ĠFÃ¤llen": 5588,
      "Ġabgerufen": 5589,
      "plat": 5590,
      "sburg": 5591,
      "Tra": 5592,
      "folge": 5593,
      "2108": 5594,
      "Ġherunter": 5595,
      "186": 5596,
      "ĠbestÃ¤": 5597,
      "ĠkÃ¶nnten": 5598,
      "ĠStraÃŁen": 5599,
      "037": 5600,
      "Ġausgest": 5601,
      "ĠFehler": 5602,
      "ĠschlieÃŁ": 5603,
      "ĠDiskussion": 5604,
      "ymb": 5605,
      "gemeinen": 5606,
      "663": 5607,
      "werbung": 5608,
      "ĠschlieÃŁen": 5609,
      "dro": 5610,
      "nc": 5611,
      "Ġeindeu": 5612,
      "Ġ500": 5613,
      "ĠWh": 5614,
      "fÃ¼hren": 5615,
      "stÃ¤ndigen": 5616,
      "low": 5617,
      "ottes": 5618,
      "urm": 5619,
      "Ġbeziehungs": 5620,
      "ĠFlÃ¼": 5621,
      "ĠÃ¼bern": 5622,
      "ĠMoment": 5623,
      "ĠMonaten": 5624,
      "ĠLieferung": 5625,
      "887": 5626,
      "ĠBerufs": 5627,
      "ĠAnwendung": 5628,
      "sphÃ¤re": 5629,
      "uttgart": 5630,
      "Ġbehand": 5631,
      "ĠBestand": 5632,
      "ordon": 5633,
      "Ġ70": 5634,
      "tennis": 5635,
      "ĠKla": 5636,
      "ĠUnser": 5637,
      "Ġbraucht": 5638,
      "edien": 5639,
      "informationen": 5640,
      "Ġverlangen": 5641,
      "denken": 5642,
      "zwecken": 5643,
      "ĠfrÃ¼her": 5644,
      "grenz": 5645,
      "Ġinsgesamt": 5646,
      "Ġtragen": 5647,
      "nAGB": 5648,
      "ĠAufgaben": 5649,
      "ĠbenÃ¶tigt": 5650,
      "rocken": 5651,
      "127": 5652,
      "9926": 5653,
      "indest": 5654,
      "leisch": 5655,
      "ĠFarben": 5656,
      "ĠZeiten": 5657,
      "ĠMeinung": 5658,
      "ĠPlug": 5659,
      "ene": 5660,
      "ĠInnov": 5661,
      "fan": 5662,
      "Ġblockiert": 5663,
      "zÃ¼glich": 5664,
      "antie": 5665,
      "817": 5666,
      "ĠAusbildung": 5667,
      "pass": 5668,
      "AU": 5669,
      "Ã¼ch": 5670,
      "HL": 5671,
      "nÃĦ": 5672,
      "ĠModer": 5673,
      "Ġeingesetzt": 5674,
      "121": 5675,
      "Ġbeziehungsweise": 5676,
      "9957": 5677,
      "nNutz": 5678,
      "omo": 5679,
      "verfahren": 5680,
      "ĠAbschluss": 5681,
      "kor": 5682,
      "count": 5683,
      "ĠKrÃ¤fte": 5684,
      "ĠMÃ¤nner": 5685,
      "Ġgesehen": 5686,
      "Ġzudem": 5687,
      "Ġgenommen": 5688,
      "tipp": 5689,
      "022": 5690,
      "spir": 5691,
      "zeichnungen": 5692,
      "286": 5693,
      "ĠKÃ¶ln": 5694,
      "ĠFreitag": 5695,
      "Ġ05": 5696,
      "wissenschaften": 5697,
      "pft": 5698,
      "ĠZubehÃ¶r": 5699,
      "way": 5700,
      "ĠUp": 5701,
      "247": 5702,
      "Ã¤um": 5703,
      "Ġdauer": 5704,
      "Ġstets": 5705,
      "HF": 5706,
      "ĠNetzwerk": 5707,
      "riffen": 5708,
      "nDies": 5709,
      "Ġnied": 5710,
      "ĠVerk": 5711,
      "737": 5712,
      "ĠBeginn": 5713,
      "egal": 5714,
      "ĠDatenschutzeinstellungen": 5715,
      "ĠFeld": 5716,
      "Ġtreffen": 5717,
      "ĠSuper": 5718,
      "material": 5719,
      "285": 5720,
      "nÃĸ": 5721,
      "mÃ¶gen": 5722,
      "ĠNÃ¤he": 5723,
      "Ġpf": 5724,
      "067": 5725,
      "Ãĥ": 5726,
      "ĠDrittanbieter": 5727,
      "nFunktion": 5728,
      "name": 5729,
      "osoph": 5730,
      "==": 5731,
      "ĠKaff": 5732,
      "Ġthis": 5733,
      "ĠÃľbertragung": 5734,
      "107": 5735,
      "ĠWÃ¼n": 5736,
      "ĠMetho": 5737,
      "Â°": 5738,
      "dungen": 5739,
      "Ã¼cken": 5740,
      "bewahr": 5741,
      "007": 5742,
      "fl": 5743,
      "lechts": 5744,
      "klusive": 5745,
      "rum": 5746,
      "empf": 5747,
      "Ġeinigen": 5748,
      "ĠMichael": 5749,
      "995123": 5750,
      "ĠRot": 5751,
      "facebook": 5752,
      "Ġtechnisch": 5753,
      "ĠWolf": 5754,
      "ĠKrank": 5755,
      "ulation": 5756,
      "ĠGrÃ¼nden": 5757,
      "ĠAdresse": 5758,
      "Ġthat": 5759,
      "ĠRuss": 5760,
      "Ġbem": 5761,
      "anien": 5762,
      "chmal": 5763,
      "of": 5764,
      "ĠSeit": 5765,
      "257": 5766,
      "haben": 5767,
      "TV": 5768,
      "ĠTab": 5769,
      "294": 5770,
      "Ġwichtige": 5771,
      "ĠtatsÃ¤chlich": 5772,
      "esten": 5773,
      ".\\\"": 5774,
      "oss": 5775,
      "Ġgener": 5776,
      "nIndividuelle": 5777,
      "Ġ35": 5778,
      "ĠLÃ¤nder": 5779,
      "ĠRisiko": 5780,
      "ordPress": 5781,
      "OK": 5782,
      "TR": 5783,
      "Ġgeschniegelt": 5784,
      "stal": 5785,
      "Ġmoder": 5786,
      "9953": 5787,
      "ĠKor": 5788,
      "âĤ": 5789,
      "Ã¤tigkeit": 5790,
      "ĠIdeen": 5791,
      "sser": 5792,
      "465": 5793,
      "haber": 5794,
      "ĠGlas": 5795,
      "ĠâĢĶ": 5796,
      "ĠGordon": 5797,
      "ĠRund": 5798,
      "ĠBett": 5799,
      "ĠHig": 5800,
      "ĠNor": 5801,
      "ĠstandardmÃ¤ÃŁig": 5802,
      "Ã¶bel": 5803,
      "Ġfahrenden": 5804,
      "ĠeuropÃ¤": 5805,
      "urnal": 5806,
      "itÃ¤r": 5807,
      "ĠÃĦr": 5808,
      "ars": 5809,
      "047": 5810,
      "Ġech": 5811,
      "Ġkg": 5812,
      "De": 5813,
      "pflege": 5814,
      "ĠBehandlung": 5815,
      "bruch": 5816,
      "ĠVerbraucher": 5817,
      "mack": 5818,
      "iete": 5819,
      "male": 5820,
      "ologische": 5821,
      "gerÃ¤te": 5822,
      "Ġerreicht": 5823,
      "burger": 5824,
      "mut": 5825,
      "807": 5826,
      "nTop": 5827,
      "ano": 5828,
      "ladung": 5829,
      "EO": 5830,
      ",_": 5831,
      "ring": 5832,
      "wa": 5833,
      "Ġneuer": 5834,
      "stechn": 5835,
      "orien": 5836,
      "ĠBarrow": 5837,
      "447": 5838,
      "ĠLÃ¶sung": 5839,
      "schlieÃŁend": 5840,
      "ĠWirkung": 5841,
      "ĠLager": 5842,
      "monat": 5843,
      "ĠDienstleistungen": 5844,
      "Ã¤her": 5845,
      "777": 5846,
      "ĠVersicher": 5847,
      "itzt": 5848,
      "ĠAltern": 5849,
      "Ġaufspringen": 5850,
      "ĠPublik": 5851,
      "Ġmusste": 5852,
      "vention": 5853,
      "lÃ¤ufig": 5854,
      "ĠSchÃ¶n": 5855,
      "ĠSatz": 5856,
      "2775": 5857,
      "brechen": 5858,
      "Ġusw": 5859,
      "Ġeingel": 5860,
      "ĠHerbst": 5861,
      "ĠSonntag": 5862,
      "ttp": 5863,
      "anbietern": 5864,
      "DER": 5865,
      "ĠUmgang": 5866,
      "nline": 5867,
      "kraine": 5868,
      "ĠBildung": 5869,
      "Ġgeworden": 5870,
      "wechsel": 5871,
      "Ġgestalten": 5872,
      "ĠZoll": 5873,
      "ĠTem": 5874,
      "GH": 5875,
      "âĤĤ": 5876,
      "tiges": 5877,
      "fernen": 5878,
      "reibe": 5879,
      "ĠFrankfurt": 5880,
      "Ġbeein": 5881,
      "teuer": 5882,
      "Ġnachdem": 5883,
      "ĠJa": 5884,
      "Ġeinzig": 5885,
      "ĠVis": 5886,
      "schafts": 5887,
      "ĠdazugehÃ¶ren": 5888,
      "iner": 5889,
      "108": 5890,
      "202": 5891,
      "ĠEinfluss": 5892,
      "Auf": 5893,
      "Ġ33": 5894,
      "ĠTor": 5895,
      "Ġlaufen": 5896,
      "iten": 5897,
      "ĠIndustrie": 5898,
      "ierende": 5899,
      "ights": 5900,
      "ĠNo": 5901,
      "365": 5902,
      "ĠHom": 5903,
      "437": 5904,
      "99805": 5905,
      "ĠFalle": 5906,
      "ĠMail": 5907,
      "ience": 5908,
      "9292108": 5909,
      "ille": 5910,
      "ĠWetter": 5911,
      "ĠBezug": 5912,
      "Ġanderer": 5913,
      "ĠImmer": 5914,
      "karten": 5915,
      "its": 5916,
      "loud": 5917,
      "ĠMasch": 5918,
      "nEigentÃ¼mer": 5919,
      "ĠVertra": 5920,
      "nIhr": 5921,
      "nab": 5922,
      "Ġnimmt": 5923,
      "ient": 5924,
      "forschung": 5925,
      "blatt": 5926,
      "entlich": 5927,
      "Te": 5928,
      "Ġeingesch": 5929,
      "ĠDre": 5930,
      "ĠImpf": 5931,
      "Ġklick": 5932,
      "Medizinische": 5933,
      "ĠSchlaf": 5934,
      "Ġorganis": 5935,
      "spannen": 5936,
      "yle": 5937,
      "ĠKoll": 5938,
      "napp": 5939,
      "ĠMess": 5940,
      "ĠerklÃ¤ren": 5941,
      "ĠKlick": 5942,
      "ĠPunkt": 5943,
      "itieren": 5944,
      "ĠArzt": 5945,
      "ĠMax": 5946,
      "Ġanalys": 5947,
      "Ġbefinden": 5948,
      "Ġhttp": 5949,
      "ĠEff": 5950,
      "Ġreduz": 5951,
      "ĠSchrift": 5952,
      "Ġmen": 5953,
      "HN": 5954,
      "436": 5955,
      "ĠNational": 5956,
      "ĠVersandkosten": 5957,
      "Re": 5958,
      "ĠGesprÃ¤ch": 5959,
      "nInhalte": 5960,
      "ĠMarken": 5961,
      "9917": 5962,
      "989": 5963,
      "sitzen": 5964,
      "geord": 5965,
      "102": 5966,
      "ĠSprach": 5967,
      "artige": 5968,
      "ĠZus": 5969,
      "ĠAller": 5970,
      "ĠBayern": 5971,
      "aun": 5972,
      "TL": 5973,
      "ĠHersteller": 5974,
      "ĠEinkauf": 5975,
      "Ã¶ÃŁen": 5976,
      "glied": 5977,
      "ĠErd": 5978,
      "spricht": 5979,
      "ĠhÃ¤lt": 5980,
      "SP": 5981,
      "ĠChin": 5982,
      "Ġsenden": 5983,
      "bu": 5984,
      "vÃ¶l": 5985,
      "Ġdienen": 5986,
      "Script": 5987,
      "ĠBern": 5988,
      "ĠAuskunft": 5989,
      "enter": 5990,
      "efin": 5991,
      "weder": 5992,
      "455": 5993,
      "rÃ¤gen": 5994,
      "EI": 5995,
      "Ġsorgen": 5996,
      "ĠTri": 5997,
      "ĠEm": 5998,
      "208": 5999,
      "setzungen": 6000,
      "434": 6001,
      "Ġvergessen": 6002,
      "Ġberechtigt": 6003,
      "zenz": 6004,
      "aser": 6005,
      "spla": 6006,
      "apan": 6007,
      "ĠSchaden": 6008,
      "Ġanmelden": 6009,
      "ĠStatistiken": 6010,
      "9593": 6011,
      "ranzÃ¶s": 6012,
      "irus": 6013,
      "ĠPflanzen": 6014,
      "nSpeichert": 6015,
      "seh": 6016,
      "merzen": 6017,
      "reif": 6018,
      "ĠÃ¼berprÃ¼": 6019,
      "bieten": 6020,
      "Ġsamm": 6021,
      "Ġsinn": 6022,
      "Ġheu": 6023,
      "profile": 6024,
      "ĠGrÃ¶ÃŁe": 6025,
      "ĠGedanken": 6026,
      "293": 6027,
      "ĠKan": 6028,
      "ĠAndre": 6029,
      "itekt": 6030,
      "ĠManagement": 6031,
      "ĠZusammenarbeit": 6032,
      "Ġerf": 6033,
      "ehmer": 6034,
      "ferenzen": 6035,
      "nvon": 6036,
      "holz": 6037,
      "jen": 6038,
      "Ġspannen": 6039,
      "ĠKil": 6040,
      "ĠBis": 6041,
      "Ġru": 6042,
      "piel": 6043,
      "Ġ2004": 6044,
      "zufÃ¼gen": 6045,
      "legt": 6046,
      "ampag": 6047,
      "ĠStoff": 6048,
      "yc": 6049,
      "Plattformen": 6050,
      "bad": 6051,
      "formance": 6052,
      "Ġzehn": 6053,
      "ĠGutsch": 6054,
      "ĠLeip": 6055,
      "wart": 6056,
      "ĠJohann": 6057,
      "schie": 6058,
      "ĠWirk": 6059,
      "XX": 6060,
      "Ġerfassen": 6061,
      "466": 6062,
      "Ġ02": 6063,
      "ĠGrÃ¼ÃŁe": 6064,
      "etzte": 6065,
      "9987587": 6066,
      "ĠSpeichern": 6067,
      "far": 6068,
      "berger": 6069,
      "ĠSchlÃ¼ssel": 6070,
      "itzer": 6071,
      "âĢĭ": 6072,
      "wÃ¶rter": 6073,
      "sÃ¤": 6074,
      "ĠFarb": 6075,
      "ĠFormular": 6076,
      "ĠSaison": 6077,
      "Ġhistor": 6078,
      "nInformationen": 6079,
      "ĠOff": 6080,
      "111": 6081,
      "plattformen": 6082,
      "ĠGÃ¤ste": 6083,
      "ĠAss": 6084,
      "ĠHÃ¶r": 6085,
      "atch": 6086,
      "rÃ¤nkt": 6087,
      "Ġsuper": 6088,
      "nMein": 6089,
      "atis": 6090,
      "ĠGerÃ¤te": 6091,
      "Ġerle": 6092,
      "ĠRichtung": 6093,
      "Details": 6094,
      "Ġlan": 6095,
      "Ġtreiben": 6096,
      "ĠDirekt": 6097,
      "top": 6098,
      "ĠAllgemein": 6099,
      "ĠpersÃ¶nlich": 6100,
      "bericht": 6101,
      "Ġidentifizieren": 6102,
      "Ġmodern": 6103,
      "ĠKlinik": 6104,
      "ĠWÃ¤r": 6105,
      "ĠFuÃŁball": 6106,
      "omie": 6107,
      "Ġansehen": 6108,
      "8198": 6109,
      "Ġgeplan": 6110,
      "ĠVersion": 6111,
      "OLL": 6112,
      "wohner": 6113,
      "nBlog": 6114,
      "petenz": 6115,
      "110": 6116,
      "9970": 6117,
      "ĠGas": 6118,
      "hafte": 6119,
      "ĠDeutschmark": 6120,
      "schÃ¤tz": 6121,
      "ĠGi": 6122,
      "achst": 6123,
      "aufnahme": 6124,
      "ĠSpann": 6125,
      "Ġ55": 6126,
      "hor": 6127,
      "Ġpassiert": 6128,
      "izienz": 6129,
      "Ġrichtige": 6130,
      "phone": 6131,
      "artikel": 6132,
      "Ġkleiner": 6133,
      "weile": 6134,
      "anlagen": 6135,
      "ames": 6136,
      "Ġfand": 6137,
      "ĠLeistungs": 6138,
      "Ġentstehen": 6139,
      "Ġversenden": 6140,
      "ikro": 6141,
      "Ġselber": 6142,
      "Ġentfernt": 6143,
      "achr": 6144,
      "122": 6145,
      "ografie": 6146,
      "sum": 6147,
      "ara": 6148,
      "nOpen": 6149,
      "outube": 6150,
      "ĠDrittanbietern": 6151,
      "Ġerweiter": 6152,
      "Ġbef": 6153,
      "ibel": 6154,
      "Ġschaffen": 6155,
      "ĠPasswort": 6156,
      "Ġkomplett": 6157,
      "ĠMer": 6158,
      "962": 6159,
      "stÃ¤nde": 6160,
      "geln": 6161,
      "rangig": 6162,
      "PT": 6163,
      "Ġwirtschaft": 6164,
      "egenheit": 6165,
      "Ġmaxim": 6166,
      "ĠMeer": 6167,
      "ĠKenntnis": 6168,
      "istischen": 6169,
      "653": 6170,
      "ÃĹ": 6171,
      "news": 6172,
      "ĠZentrum": 6173,
      "immel": 6174,
      "ĠHinweise": 6175,
      "ĠPersonal": 6176,
      "schm": 6177,
      "ĠChem": 6178,
      "rol": 6179,
      "eintrÃ¤ch": 6180,
      "nerstag": 6181,
      "/?": 6182,
      "bus": 6183,
      "ĠRestaur": 6184,
      "931": 6185,
      "prozess": 6186,
      "%\\": 6187,
      "ĠKenn": 6188,
      "Ġreich": 6189,
      "zun": 6190,
      "ĠSek": 6191,
      "ĠRein": 6192,
      "stÃ¤t": 6193,
      "ĠLiteratur": 6194,
      "verlÃ¤ss": 6195,
      "Ġvertra": 6196,
      "ĠHol": 6197,
      "hnung": 6198,
      "ĠAmer": 6199,
      "241": 6200,
      "828": 6201,
      "flÃ¤chen": 6202,
      "ĠHunde": 6203,
      "Ġbein": 6204,
      "9915": 6205,
      "Ġsozialen": 6206,
      "ĠAugenmerk": 6207,
      "Ã¤hlten": 6208,
      "ĠMel": 6209,
      "ĠFirmen": 6210,
      "igten": 6211,
      "nStar": 6212,
      "Ġvorbei": 6213,
      "Ġmanuellen": 6214,
      "8886": 6215,
      "Ġumfassen": 6216,
      "agazin": 6217,
      "fÃ¤higkeit": 6218,
      "ĠBorlabs": 6219,
      "Ġabzu": 6220,
      "Ġ[âĢ¦]\\": 6221,
      "ĠÃ¤h": 6222,
      "allen": 6223,
      "nWarum": 6224,
      "UL": 6225,
      "Ġdeaktivieren": 6226,
      "ktien": 6227,
      "iginal": 6228,
      "ĠUniversitÃ¤t": 6229,
      "979": 6230,
      "ĠbÃ¼nd": 6231,
      "ĠZimmer": 6232,
      "sprache": 6233,
      "ĠEngl": 6234,
      "GefÃ¤llt": 6235,
      "ĠBack": 6236,
      "Ġhierzu": 6237,
      "eils": 6238,
      "ĠSozi": 6239,
      "nNur": 6240,
      "nEnt": 6241,
      "reuung": 6242,
      "910": 6243,
      "ildet": 6244,
      "alismus": 6245,
      "ĠGesundheits": 6246,
      "ena": 6247,
      "Ġbrauchen": 6248,
      "Ġspiel": 6249,
      "ziel": 6250,
      "ada": 6251,
      "sprach": 6252,
      "ili": 6253,
      "ĠEt": 6254,
      "Ġmobil": 6255,
      "ĠGebÃ¤ude": 6256,
      "ĠGrand": 6257,
      "Ġendlich": 6258,
      "onds": 6259,
      "ĠBetroffen": 6260,
      "ION": 6261,
      "Ġbesonderen": 6262,
      "99374": 6263,
      "211": 6264,
      "scheinlich": 6265,
      "letzung": 6266,
      "ĠBereitstellung": 6267,
      "Ġherz": 6268,
      "ierenden": 6269,
      "Ġvert": 6270,
      "ĠLang": 6271,
      "avaScript": 6272,
      "ĠMÃ¼ll": 6273,
      "emal": 6274,
      "ĠReisen": 6275,
      "lot": 6276,
      "ĠOrd": 6277,
      "ĠgroÃŁer": 6278,
      "nutz": 6279,
      "ĠProzess": 6280,
      "obei": 6281,
      "ĠLo": 6282,
      "912": 6283,
      "2013": 6284,
      "leisten": 6285,
      "ĠnÃ¶": 6286,
      "ĠAnzeige": 6287,
      "ĠKirche": 6288,
      "fragt": 6289,
      "zust": 6290,
      "ĠSpiele": 6291,
      "Ġergibt": 6292,
      "Ġverpflichtet": 6293,
      "ĠTon": 6294,
      "Ã¶ffnen": 6295,
      "ĠBewertungen": 6296,
      "ĠSamstag": 6297,
      "Ġgemeins": 6298,
      "ĠEvidenz": 6299,
      "ĠMeter": 6300,
      "gro": 6301,
      "ĠDownload": 6302,
      "Ġweltweit": 6303,
      "legung": 6304,
      "118": 6305,
      "ĠgrÃ¼n": 6306,
      "Ġ2000": 6307,
      "han": 6308,
      "Ġzuvor": 6309,
      "ĠFarbe": 6310,
      "ĠBio": 6311,
      "stitution": 6312,
      "nVerÃ¶ffentlicht": 6313,
      "alerie": 6314,
      "500": 6315,
      "Ġggf": 6316,
      "ĠBrand": 6317,
      "RL": 6318,
      "Ġselten": 6319,
      "unn": 6320,
      "Ġinformiert": 6321,
      "usamment": 6322,
      "Ġderzeit": 6323,
      "nNot": 6324,
      "Innen": 6325,
      "aktionen": 6326,
      "ĠHerren": 6327,
      "bliothek": 6328,
      "ĠThomas": 6329,
      "ĠIdee": 6330,
      "ĠPresse": 6331,
      "Ġzentr": 6332,
      "283": 6333,
      "alitÃ¤ts": 6334,
      "Ġ)": 6335,
      "ĠAnti": 6336,
      "eldet": 6337,
      "ĠAlso": 6338,
      "ruhe": 6339,
      "Ġbegl": 6340,
      "Ġlegen": 6341,
      "samkeit": 6342,
      "System": 6343,
      "neu": 6344,
      "VP": 6345,
      "Ġhinzu": 6346,
      "ĠAntrag": 6347,
      "Al": 6348,
      "ĠVorteile": 6349,
      "Ġdeines": 6350,
      "Ã¤mlich": 6351,
      "lager": 6352,
      "setzt": 6353,
      "Ġgesagt": 6354,
      "gte": 6355,
      "ingungen": 6356,
      "ĠzusÃ¤tzlich": 6357,
      "ĠStaat": 6358,
      "ĠGerman": 6359,
      "Ġoffi": 6360,
      "Ã¤dig": 6361,
      "Ġliefen": 6362,
      "ĠZeichen": 6363,
      "ĠEuch": 6364,
      "ĠWander": 6365,
      "Ġrichtigen": 6366,
      "Ġrelev": 6367,
      "Ġ75": 6368,
      "Ġstimm": 6369,
      "Ġerreich": 6370,
      "atoren": 6371,
      "Ġgesp": 6372,
      "Ġentsperren": 6373,
      "ĠGanz": 6374,
      "183": 6375,
      "tert": 6376,
      "Ġwichtigsten": 6377,
      "hare": 6378,
      "zeichnung": 6379,
      "anke": 6380,
      "901": 6381,
      "nKommentar": 6382,
      "ĠvollstÃ¤ndig": 6383,
      "dik": 6384,
      "wald": 6385,
      "auso": 6386,
      "soft": 6387,
      "fahrung": 6388,
      "nWider": 6389,
      "set": 6390,
      "bereitung": 6391,
      "zwischen": 6392,
      "ymp": 6393,
      "128": 6394,
      "chte": 6395,
      "Ã¼st": 6396,
      "rug": 6397,
      "kom": 6398,
      "ĠKunde": 6399,
      "ĠZudem": 6400,
      "ni": 6401,
      "ĠBewertung": 6402,
      "durch": 6403,
      "ĠVideoplattformen": 6404,
      "ĠVolk": 6405,
      "nDeine": 6406,
      "glieder": 6407,
      "stÃ¤ndige": 6408,
      "ĠEis": 6409,
      "hebung": 6410,
      "Ġanony": 6411,
      "sÃ¤tze": 6412,
      "ĠStell": 6413,
      "ĠStuttgart": 6414,
      "99342775": 6415,
      "*:": 6416,
      "Ġkrit": 6417,
      "ĠSand": 6418,
      "Ġverantwortlich": 6419,
      "teile": 6420,
      "Ã¤nglich": 6421,
      "nBorlabs": 6422,
      "redit": 6423,
      "ĠIN": 6424,
      "ile": 6425,
      "âĨ": 6426,
      "ĠPlattform": 6427,
      "gangs": 6428,
      "nKon": 6429,
      "onym": 6430,
      "Ã¶st": 6431,
      "ĠDienstes": 6432,
      "Ã¤uft": 6433,
      "ĠAdministrator": 6434,
      "dacht": 6435,
      "denburg": 6436,
      "ĠKÃ¼che": 6437,
      "ĠUnion": 6438,
      "wendungen": 6439,
      "Ġerheb": 6440,
      "Ġgenug": 6441,
      "997254": 6442,
      "endet": 6443,
      "ĠCamp": 6444,
      "venz": 6445,
      "ament": 6446,
      "ĠbÃ¼ndeln": 6447,
      "ĠBal": 6448,
      "335": 6449,
      "OW": 6450,
      "454": 6451,
      "938": 6452,
      "hÃ¤user": 6453,
      "komp": 6454,
      "heben": 6455,
      "ĠGraf": 6456,
      "ĠWil": 6457,
      "nCookies": 6458,
      "ĠJan": 6459,
      "9916": 6460,
      "Ġzusamment": 6461,
      "Ġanges": 6462,
      "que": 6463,
      "ĠVeranstaltung": 6464,
      "9911": 6465,
      "Ġbeginnt": 6466,
      "weite": 6467,
      "ĠSalz": 6468,
      "ĠSub": 6469,
      "457": 6470,
      "Ġdank": 6471,
      "ĠItalien": 6472,
      "werbe": 6473,
      "nWo": 6474,
      "LC": 6475,
      "001": 6476,
      "Ġdarin": 6477,
      "742": 6478,
      "ĠReihe": 6479,
      "Ġihres": 6480,
      "99725497": 6481,
      "Ġeinzi": 6482,
      "bas": 6483,
      "heits": 6484,
      "falt": 6485,
      "Ġbestellen": 6486,
      "ĠÃľb": 6487,
      "wo": 6488,
      "eff": 6489,
      "haltigkeit": 6490,
      "ĠBearbeitung": 6491,
      "ĠschÃ¶ne": 6492,
      "150": 6493,
      "Ġinstall": 6494,
      "OV": 6495,
      "Ġfreund": 6496,
      "101": 6497,
      "HE": 6498,
      "otel": 6499,
      "ĠGeschenk": 6500,
      "ferenz": 6501,
      "Ġperfekt": 6502,
      "ĠbeschÃ¤f": 6503,
      "Ġdire": 6504,
      "raucht": 6505,
      "ĠGeige": 6506,
      "echts": 6507,
      "9978": 6508,
      "dungs": 6509,
      "9913": 6510,
      "ĠErwachsen": 6511,
      "steht": 6512,
      "atÃ¼rlich": 6513,
      "444": 6514,
      "aro": 6515,
      "ccess": 6516,
      "ĠOnlin": 6517,
      "Ġgesamten": 6518,
      "interest": 6519,
      "Ph": 6520,
      "viel": 6521,
      "ĠBesonder": 6522,
      "HT": 6523,
      "ĠTante": 6524,
      "pfel": 6525,
      "Ġgeschrieben": 6526,
      "076": 6527,
      "nLiebe": 6528,
      "roh": 6529,
      "Ġober": 6530,
      "irk": 6531,
      "ideos": 6532,
      "Ġgewesen": 6533,
      "Ġ(âĢŀ": 6534,
      "ĠWohnung": 6535,
      "Ġsodass": 6536,
      "ĠauÃŁerdem": 6537,
      "ĠWerden": 6538,
      "Ã¼ren": 6539,
      "918": 6540,
      "Ġmittler": 6541,
      "bestimmungen": 6542,
      "ĠVerkehrs": 6543,
      "flÃ¼": 6544,
      "ĠAngel": 6545,
      "holen": 6546,
      "nNews": 6547,
      "356": 6548,
      "ĠFreizeit": 6549,
      "Ġzahlreiche": 6550,
      "181": 6551,
      "Ġhe": 6552,
      "Ġgesamte": 6553,
      "209": 6554,
      "arbeitungs": 6555,
      "olen": 6556,
      "solvenz": 6557,
      "ĠOder": 6558,
      "nKosten": 6559,
      "Analy": 6560,
      "ĠUmfang": 6561,
      "nborlabs": 6562,
      "Ãľber": 6563,
      "nSpeichern": 6564,
      "Â²": 6565,
      "ĠLive": 6566,
      "ategie": 6567,
      "295": 6568,
      "8198054": 6569,
      "Ġzer": 6570,
      "iser": 6571,
      "Ġ$": 6572,
      "ĠVimeo": 6573,
      "Ġoptimieren": 6574,
      "zÃ¤hl": 6575,
      "ĠpersÃ¶nliche": 6576,
      "Ex": 6577,
      "film": 6578,
      "nTel": 6579,
      "Ġbewachen": 6580,
      "nMan": 6581,
      "ĠAufgabe": 6582,
      "ining": 6583,
      "334": 6584,
      "design": 6585,
      "nTwitter": 6586,
      "ĠSteu": 6587,
      "Ġabonnieren": 6588,
      "kont": 6589,
      "Ġanderes": 6590,
      "ĠzusammenschlieÃŁen": 6591,
      "leister": 6592,
      "ĠBunde": 6593,
      "Ġmusst": 6594,
      "maschinen": 6595,
      "Ġbald": 6596,
      "rise": 6597,
      "ĠHor": 6598,
      "Ġzusammentun": 6599,
      "9937": 6600,
      "948": 6601,
      "sÃ¤chlich": 6602,
      "ĠSÃ¼": 6603,
      "ĠFreunde": 6604,
      "Ġandern": 6605,
      "Ġsorgt": 6606,
      "gern": 6607,
      "ĠProjekte": 6608,
      "Ġlieber": 6609,
      "ĠHinweis": 6610,
      "OC": 6611,
      "Ġbeide": 6612,
      "Ġsechs": 6613,
      "Ġgeschlechts": 6614,
      "gi": 6615,
      "echan": 6616,
      "961": 6617,
      "Ã¡": 6618,
      "ĠmÃ¶glichst": 6619,
      "/\"},\"": 6620,
      "Ġbezeichnet": 6621,
      "ĠDarstellung": 6622,
      "ĠAngst": 6623,
      "180": 6624,
      "ĠnÃ¤mlich": 6625,
      "Ġspielt": 6626,
      "ĠStandort": 6627,
      "ĠUrheber": 6628,
      "ĠPunkte": 6629,
      "nJa": 6630,
      "play": 6631,
      "Ġentfernen": 6632,
      "ĠMartin": 6633,
      "ĠPal": 6634,
      "ĠVerÃ¤nder": 6635,
      "Ġsolchen": 6636,
      "ĠKalender": 6637,
      "ĠAlex": 6638,
      "ĠTraum": 6639,
      "messer": 6640,
      "Ġsprechen": 6641,
      "Ġmehreren": 6642,
      "Ġzusammenspannen": 6643,
      "amilien": 6644,
      "Ġ@": 6645,
      "Ġnotwendige": 6646,
      "afft": 6647,
      "ĠUmgebung": 6648,
      "lÃ¶sung": 6649,
      "jÃ¤hrige": 6650,
      "ĠAufsicht": 6651,
      "ĠÃĦnderung": 6652,
      "555": 6653,
      "geschrieben": 6654,
      "278": 6655,
      "ynam": 6656,
      "Ġdefin": 6657,
      "Ġdiver": 6658,
      "Ã¤lte": 6659,
      "ĠJohn": 6660,
      "âĢľ)": 6661,
      "SC": 6662,
      "uelle": 6663,
      "Ġau": 6664,
      "Ġbesondere": 6665,
      "ometer": 6666,
      "nAnmelden": 6667,
      "liga": 6668,
      "280": 6669,
      "Ġinfo": 6670,
      "ause": 6671,
      "ĠVerpflicht": 6672,
      "\\\".": 6673,
      "Ch": 6674,
      "ĠRegistrierung": 6675,
      "onnement": 6676,
      "9906": 6677,
      "omaten": 6678,
      "ĠSim": 6679,
      "ucher": 6680,
      "empla": 6681,
      "941": 6682,
      "politik": 6683,
      "Pal": 6684,
      "zy": 6685,
      "463": 6686,
      "Ġmelden": 6687,
      "hause": 6688,
      "nStatistik": 6689,
      "ĠErlebnis": 6690,
      "ING": 6691,
      "9905": 6692,
      "zent": 6693,
      "Ġgelesen": 6694,
      "ĠGrÃ¼nde": 6695,
      "stimmung": 6696,
      "rÃ¤f": 6697,
      "ĠAnforderungen": 6698,
      "illa": 6699,
      "281": 6700,
      "mmern": 6701,
      "ĠInt": 6702,
      "nHin": 6703,
      "ĠauÃŁerhalb": 6704,
      "9922": 6705,
      "HA": 6706,
      "nBild": 6707,
      "ĠHann": 6708,
      "ĠLÃ¤ndern": 6709,
      "Ġvergangenen": 6710,
      "maschine": 6711,
      "ĠErfÃ¼llung": 6712,
      "einstellung": 6713,
      "Ġscheint": 6714,
      "onen": 6715,
      "Nach": 6716,
      "Ġporno": 6717,
      "Ġunterschiedlichen": 6718,
      "arn": 6719,
      "mlich": 6720,
      "anc": 6721,
      "Ġgaran": 6722,
      "467": 6723,
      "ĠFreude": 6724,
      "ĠUrsprung": 6725,
      "lern": 6726,
      "ĠFÃ¤h": 6727,
      "Ġentwickeln": 6728,
      "forum": 6729,
      "alitÃ¤ten": 6730,
      "Ġledig": 6731,
      "ĠDamen": 6732,
      "behalten": 6733,
      "stellungs": 6734,
      "deckt": 6735,
      "556": 6736,
      "ĠLehrstuhl": 6737,
      "leger": 6738,
      "projekt": 6739,
      "Stre": 6740,
      "eed": 6741,
      "ris": 6742,
      "ĠFahrrad": 6743,
      "kÃ¼n": 6744,
      "betrieb": 6745,
      "ĠSache": 6746,
      "ypto": 6747,
      "ĠInformations": 6748,
      "9947": 6749,
      "wortet": 6750,
      "shop": 6751,
      "ĠNet": 6752,
      "ĠBedÃ¼rf": 6753,
      "ĠMot": 6754,
      "Ġlaut": 6755,
      "ating": 6756,
      "âĢľ-": 6757,
      "ochter": 6758,
      "elligen": 6759,
      "ĠWohl": 6760,
      "ĠnebensÃ¤chlich": 6761,
      "nBest": 6762,
      "iat": 6763,
      "ival": 6764,
      "ĠTool": 6765,
      "ĠPubl": 6766,
      "bildungs": 6767,
      "ĠKreuz": 6768,
      "Ġschwier": 6769,
      "ĠInterview": 6770,
      "Ġteilweise": 6771,
      "Ġletzte": 6772,
      "Ġangegeben": 6773,
      "ĠProduktion": 6774,
      "9904": 6775,
      "nBeitrag": 6776,
      "zut": 6777,
      "ĠAusgabe": 6778,
      "ĠArten": 6779,
      "ĠbeilÃ¤ufig": 6780,
      "Ġnachrangig": 6781,
      "ĠÐ": 6782,
      "rimin": 6783,
      "ĠKol": 6784,
      "Vers": 6785,
      "Ġlediglich": 6786,
      "Ġbeschrieben": 6787,
      "ternehmer": 6788,
      "Ġstatistische": 6789,
      "ĠBaby": 6790,
      "ĠVertreterin": 6791,
      "Ġform": 6792,
      "ĠAktion": 6793,
      "ĠNov": 6794,
      "ield": 6795,
      "Administration": 6796,
      "ĠCom": 6797,
      "ulen": 6798,
      "splan": 6799,
      "MG": 6800,
      "Reg": 6801,
      "ĠZer": 6802,
      "ĠEp": 6803,
      "Ġzuerst": 6804,
      "ted": 6805,
      "Ġalte": 6806,
      "sitz": 6807,
      "ierend": 6808,
      "557": 6809,
      "ĠKirchen": 6810,
      "ĠPC": 6811,
      "nPreis": 6812,
      "tifik": 6813,
      "chem": 6814,
      "icrosoft": 6815,
      "Euro": 6816,
      "ĠSinn": 6817,
      "ĠTemperatur": 6818,
      "ĠMetall": 6819,
      "ĠÃ¼brigen": 6820,
      "ĠBlock": 6821,
      "zunehmen": 6822,
      "Ġ000": 6823,
      "onnenten": 6824,
      "zert": 6825,
      "Ġbenutzen": 6826,
      "ĠOrganisation": 6827,
      "ski": 6828,
      "023": 6829,
      "ĠFass": 6830,
      "ĠArbeiten": 6831,
      "ĠsÃ¤m": 6832,
      "TA": 6833,
      "ĠmirGefÃ¤llt": 6834,
      "8658": 6835,
      "Im": 6836,
      "fangen": 6837,
      "ĠAusland": 6838,
      "ĠExperten": 6839,
      "ĠOpti": 6840,
      "ola": 6841,
      "linge": 6842,
      "risch": 6843,
      "stallation": 6844,
      "agieren": 6845,
      "ĠViele": 6846,
      "ĠGottes": 6847,
      "ĠPrem": 6848,
      "ĠForen": 6849,
      "barer": 6850,
      "ĠUkraine": 6851,
      "Ġzust": 6852,
      "ĠSing": 6853,
      "fordern": 6854,
      "erseits": 6855,
      "Ġseines": 6856,
      "sprÃ¼n": 6857,
      "ĠWeibs": 6858,
      "tor": 6859,
      "ĠdurchgefÃ¼hrt": 6860,
      "ĠAk": 6861,
      "np": 6862,
      "ĠProfess": 6863,
      "109": 6864,
      "Ã¼hrt": 6865,
      "Ġgenannt": 6866,
      "artet": 6867,
      "tierte": 6868,
      "ĠÃľberblick": 6869,
      "ixel": 6870,
      "Ġaktiviert": 6871,
      "ones": 6872,
      "Sie": 6873,
      "zte": 6874,
      "Ġbekommt": 6875,
      "ĠEinstellung": 6876,
      "026": 6877,
      "ĠGefÃ¼hl": 6878,
      "UF": 6879,
      "ĠWeibsstÃ¼ck": 6880,
      "kultur": 6881,
      "sident": 6882,
      "ĠgewÃ¼nsch": 6883,
      "014": 6884,
      "Ġehemal": 6885,
      "392": 6886,
      "WS": 6887,
      "lab": 6888,
      "MP": 6889,
      "ĠVerantwortung": 6890,
      "337": 6891,
      "ĠBusiness": 6892,
      "ĠJu": 6893,
      "ĠÃ¼bermittelt": 6894,
      "ĠdurchzufÃ¼hren": 6895,
      "ĠEinschrÃ¤nkung": 6896,
      "nweiter": 6897,
      "utton": 6898,
      "ĠID": 6899,
      "ĠMÃ¤r": 6900,
      "9914": 6901,
      "nahm": 6902,
      "ros": 6903,
      "ĠprÃ¼": 6904,
      "Ã¼se": 6905,
      "analyse": 6906,
      "ossen": 6907,
      "ĠCor": 6908,
      "ĠUrs": 6909,
      "Ġrel": 6910,
      "9937474": 6911,
      "Ġberaten": 6912,
      "mand": 6913,
      "Ġfahren": 6914,
      "Ã¤ck": 6915,
      "eiert": 6916,
      "kla": 6917,
      "354": 6918,
      "ĠPersÃ¶n": 6919,
      "nService": 6920,
      "ieÃŁ": 6921,
      "KE": 6922,
      "ĠUntersuch": 6923,
      "ĠLeit": 6924,
      "ĠeinschlieÃŁlich": 6925,
      "Ġstamm": 6926,
      "366": 6927,
      "ĠMy": 6928,
      "dienen": 6929,
      "99773": 6930,
      "333": 6931,
      "igungs": 6932,
      "664": 6933,
      "Ġwissenschaft": 6934,
      "ĠWird": 6935,
      "stÃ¤r": 6936,
      "forderung": 6937,
      "macherei": 6938,
      "ĠInsolvenz": 6939,
      "ĠPflicht": 6940,
      "ĠWeibsen": 6941,
      "ĠbeeintrÃ¤ch": 6942,
      "Alle": 6943,
      "731": 6944,
      "Ġentweder": 6945,
      "ĠErsatz": 6946,
      "drich": 6947,
      "ĠStartseite": 6948,
      "ĠDeshalb": 6949,
      "024": 6950,
      "Ã¶rt": 6951,
      "erspe": 6952,
      "ktiven": 6953,
      "932": 6954,
      "+\\": 6955,
      "Ã¼sseld": 6956,
      "Ġtoll": 6957,
      "verbind": 6958,
      "ĠBedingungen": 6959,
      "Art": 6960,
      "ĠHochzeit": 6961,
      "DS": 6962,
      "bereit": 6963,
      "ĠÃ¼bernehmen": 6964,
      "ĠProdukten": 6965,
      "eins": 6966,
      "ĠMul": 6967,
      "spartner": 6968,
      "ĠTheater": 6969,
      "air": 6970,
      "ĠWL": 6971,
      "OLLOLL": 6972,
      ">\\": 6973,
      "TER": 6974,
      "Ã¼hle": 6975,
      "ĠSchlag": 6976,
      "119": 6977,
      "353": 6978,
      "produkte": 6979,
      "ĠKÃ¼nstler": 6980,
      "Ġpasst": 6981,
      "ĠBedarf": 6982,
      "ĠschÃ¼tzen": 6983,
      "stands": 6984,
      "ĠOffen": 6985,
      "Ġdanach": 6986,
      "une": 6987,
      "ĠLeipzig": 6988,
      "laube": 6989,
      "Pf": 6990,
      "ĠDS": 6991,
      "akten": 6992,
      "ppchen": 6993,
      "Ġziehen": 6994,
      "AV": 6995,
      "ĠKampf": 6996,
      "{{": 6997,
      "ĠSensations": 6998,
      "ĠnÃ¤chste": 6999,
      "nTeilen": 7000,
      "ologischen": 7001,
      "nUr": 7002,
      "Ġkla": 7003,
      "952": 7004,
      "Ġtechnischen": 7005,
      "ikon": 7006,
      "nPost": 7007,
      "ĠRÃ¤": 7008,
      "Ġkn": 7009,
      "Ġbequem": 7010,
      "IY": 7011,
      "otos": 7012,
      "ĠLeser": 7013,
      "nMo": 7014,
      "emitt": 7015,
      "iar": 7016,
      "ĠBegriff": 7017,
      "Ġgenauso": 7018,
      "nArchiv": 7019,
      "9928": 7020,
      "120": 7021,
      "Ġunterwegs": 7022,
      "ĠlÃ¤uft": 7023,
      "trÃ¤ge": 7024,
      "665": 7025,
      "ards": 7026,
      "ĠAbsatz": 7027,
      "Ġehr": 7028,
      "rÃ¤ume": 7029,
      "arzt": 7030,
      "Ġausgeb": 7031,
      "Ġ2003": 7032,
      "Ġlok": 7033,
      "8886924": 7034,
      "Ġweder": 7035,
      "ĠSchweizer": 7036,
      "808": 7037,
      "Log": 7038,
      "Ġessenzielle": 7039,
      "015": 7040,
      "Ġphp": 7041,
      "echseln": 7042,
      "Ġabgeschlossen": 7043,
      "ĠSensationsmacherei": 7044,
      "112": 7045,
      "ĠWild": 7046,
      "ĠHund": 7047,
      "ĠÃ¤hnlichen": 7048,
      "jÃ¤hrigen": 7049,
      "hs": 7050,
      "ĠSign": 7051,
      "âĢĶâĢĶ": 7052,
      "094": 7053,
      "Stand": 7054,
      "dessen": 7055,
      "ĠDoppel": 7056,
      "ĠgewÃ¤hrleisten": 7057,
      "415": 7058,
      "obs": 7059,
      "Ġfalls": 7060,
      "Ġvoraus": 7061,
      "enntnisse": 7062,
      "ĠGewalt": 7063,
      "Ġnah": 7064,
      "Ġvertreten": 7065,
      "aaaa": 7066,
      "mie": 7067,
      "ĠDritter": 7068,
      "ĠKer": 7069,
      "Ġbeant": 7070,
      "nStartseite": 7071,
      "820": 7072,
      "ĠBekannt": 7073,
      "ĠgewÃ¼nscht": 7074,
      "aw": 7075,
      "ĠPodcast": 7076,
      "818": 7077,
      "nVersand": 7078,
      "mine": 7079,
      "BS": 7080,
      "ical": 7081,
      "ĠÃĸl": 7082,
      "ius": 7083,
      "baut": 7084,
      "951": 7085,
      "raten": 7086,
      "rand": 7087,
      "kunde": 7088,
      "lichten": 7089,
      "irn": 7090,
      "Ġabw": 7091,
      "Ġnahe": 7092,
      "ley": 7093,
      "Ã¤st": 7094,
      "ĠRab": 7095,
      "halter": 7096,
      "baum": 7097,
      "ĠForschungs": 7098,
      "ĠUnterricht": 7099,
      "page": 7100,
      "aschen": 7101,
      "vin": 7102,
      "Ã¤ne": 7103,
      "PL": 7104,
      "Ġandernfalls": 7105,
      "ildern": 7106,
      "ĠKombin": 7107,
      "IF": 7108,
      "ĠHu": 7109,
      "654": 7110,
      "Ġkontaktieren": 7111,
      "ĠKooper": 7112,
      "ĠJavaScript": 7113,
      "ĠgrundsÃ¤tzlich": 7114,
      "ĠUmstÃ¤nden": 7115,
      "ĠForschung": 7116,
      "ners": 7117,
      "za": 7118,
      "ĠergÃ¤n": 7119,
      "fung": 7120,
      "wurf": 7121,
      "Ġdisk": 7122,
      "sprÃ¼che": 7123,
      "lies": 7124,
      "ĠAben": 7125,
      "ĠBall": 7126,
      "Wer": 7127,
      "ĠGewÃ¤hr": 7128,
      "ses": 7129,
      "Ġentgegen": 7130,
      "ender": 7131,
      "Ġabsolut": 7132,
      "ĠAuss": 7133,
      "666": 7134,
      "Inhalte": 7135,
      "ĠLÃ¶sungen": 7136,
      "werben": 7137,
      "ĠChance": 7138,
      "fÃ¤lle": 7139,
      "****": 7140,
      "075": 7141,
      "nw": 7142,
      "ĠWordPress": 7143,
      "RE": 7144,
      "ror": 7145,
      "iveau": 7146,
      "PA": 7147,
      "rankungen": 7148,
      "Ġeffe": 7149,
      "Ġtyp": 7150,
      "Ġzumindest": 7151,
      "ĠNutzerer": 7152,
      "Ġsucht": 7153,
      "nJe": 7154,
      "Ġhal": 7155,
      "punkte": 7156,
      "spann": 7157,
      "ĠLern": 7158,
      "Ġerh": 7159,
      "verstÃ¤ndlich": 7160,
      "laufen": 7161,
      "ĠAbonnenten": 7162,
      "025": 7163,
      "nNovember": 7164,
      "832": 7165,
      "ĠChristian": 7166,
      "ther": 7167,
      "ĠHÃ¼": 7168,
      "ĠtÃ¤glich": 7169,
      "Ġ300": 7170,
      "ĠÃ¼berwie": 7171,
      "ĠfÃ¤llt": 7172,
      "ĠKern": 7173,
      "8360": 7174,
      "funk": 7175,
      "942": 7176,
      "ĠSqu": 7177,
      "Ġintens": 7178,
      "ĠBildungs": 7179,
      "rauen": 7180,
      "auern": 7181,
      "Ġag": 7182,
      "XL": 7183,
      "Ġwobei": 7184,
      "âĢľ.\\": 7185,
      "Ġunters": 7186,
      "ĠDav": 7187,
      "nWelche": 7188,
      "Ġ36": 7189,
      "Ġschrift": 7190,
      "ĠMas": 7191,
      "mund": 7192,
      "Ġbestimmt": 7193,
      "959344": 7194,
      "VG": 7195,
      "ĠbetrÃ¤gt": 7196,
      "KL": 7197,
      "ĠEdel": 7198,
      "Ġberechtigten": 7199,
      "ĠEndgerÃ¤t": 7200,
      "nk": 7201,
      "umin": 7202,
      "129": 7203,
      "ali": 7204,
      "ĠgrÃ¶ÃŁten": 7205,
      "ĠMitte": 7206,
      "Ġjunge": 7207,
      "lichkeiten": 7208,
      "=\\\"": 7209,
      "Ġseien": 7210,
      "ĠTrend": 7211,
      "Ġzuk": 7212,
      "ĠnatÃ¼rliche": 7213,
      "212": 7214,
      "ĠLebensmittel": 7215,
      "Ġzufrieden": 7216,
      "nWebsite": 7217,
      "datum": 7218,
      "nMeine": 7219,
      "itness": 7220,
      "Ġerfolgen": 7221,
      "vi": 7222,
      "gress": 7223,
      "Ġberuf": 7224,
      "zeichnis": 7225,
      "ĠVit": 7226,
      "ĠRegierung": 7227,
      "waltungs": 7228,
      "ĠInternational": 7229,
      "ĠAlles": 7230,
      "ĠMacht": 7231,
      "PN": 7232,
      "wertet": 7233,
      "ĠSchÃ¤den": 7234,
      "ĠDrei": 7235,
      "bÃ¼cher": 7236,
      "Ġse": 7237,
      "002": 7238,
      "Dien": 7239,
      "ĠTeile": 7240,
      "qualitÃ¤t": 7241,
      "ĠDaher": 7242,
      "artig": 7243,
      "Ġanbieten": 7244,
      "364": 7245,
      "ateien": 7246,
      "merz": 7247,
      "VD": 7248,
      "Ġverlin": 7249,
      "achtet": 7250,
      "030": 7251,
      "ĠSchwarz": 7252,
      "Man": 7253,
      "leiben": 7254,
      "ace": 7255,
      "Ġgeh": 7256,
      "vÃ¶lk": 7257,
      "8658916": 7258,
      "nRecht": 7259,
      "ĠTransport": 7260,
      "461": 7261,
      "Ã¤mm": 7262,
      "schlÃ¤ge": 7263,
      "schlÃ¼ssel": 7264,
      "koll": 7265,
      "onto": 7266,
      "ĠBenutzern": 7267,
      "ĠSpam": 7268,
      "Markt": 7269,
      "Ġerster": 7270,
      "ĠWare": 7271,
      "ĠVorlieben": 7272,
      "nose": 7273,
      "ogel": 7274,
      "ĠâĨĴ\\": 7275,
      "ki": 7276,
      "9886": 7277,
      "ĠFran": 7278,
      "ĠMiss": 7279,
      "Ġextrem": 7280,
      "riebe": 7281,
      "llen": 7282,
      "nThe": 7283,
      "door": 7284,
      "ĠGo": 7285,
      "ĠVater": 7286,
      "nEn": 7287,
      "ĠfrÃ¼h": 7288,
      "ĠAuswirkungen": 7289,
      "ĠkÃ¼": 7290,
      "item": 7291,
      "ini": 7292,
      "ĠAkk": 7293,
      "sequ": 7294,
      "ecessary": 7295,
      "Ġentdecken": 7296,
      "tipps": 7297,
      "ĠAir": 7298,
      "wendungs": 7299,
      "Shop": 7300,
      "anter": 7301,
      "Ã¤hlte": 7302,
      "sf": 7303,
      "Ġ32": 7304,
      "Ġegal": 7305,
      "check": 7306,
      "ĠOper": 7307,
      "ĠFol": 7308,
      "Ġangegebenen": 7309,
      "barung": 7310,
      "wid": 7311,
      "Ges": 7312,
      "nNeueste": 7313,
      "brauch": 7314,
      "242": 7315,
      "Ġgleichen": 7316,
      "Ã¼bung": 7317,
      "ĠAnschluss": 7318,
      "ĠWege": 7319,
      "ĠPress": 7320,
      "ĠManager": 7321,
      "ĠÃ¤lter": 7322,
      "ĠHans": 7323,
      "Ġpsych": 7324,
      "ĠBro": 7325,
      "Ġ65": 7326,
      "ĠDurchfÃ¼hrung": 7327,
      "ĠAktivitÃ¤ten": 7328,
      "2012": 7329,
      "aming": 7330,
      "969": 7331,
      "ĠSw": 7332,
      "ĠRechtsan": 7333,
      "ĠBeim": 7334,
      "ous": 7335,
      "nm": 7336,
      "Ġdigitalen": 7337,
      "Ġtot": 7338,
      "greifen": 7339,
      "''": 7340,
      "ĠmÃ¶chtest": 7341,
      "Ġproduz": 7342,
      "aat": 7343,
      "tr": 7344,
      "Ġ2002": 7345,
      "Ġverloren": 7346,
      "Ġtran": 7347,
      "ĠTraining": 7348,
      "ministerium": 7349,
      "ĠClub": 7350,
      "Richt": 7351,
      "speich": 7352,
      "orts": 7353,
      "dom": 7354,
      "98634": 7355,
      "oom": 7356,
      "AZ": 7357,
      "ĠPrÃ¤ferenzen": 7358,
      "ĠÃĸffent": 7359,
      "ried": 7360,
      "ĠwÃ¼nschen": 7361,
      "HK": 7362,
      "Ġ44": 7363,
      "Ġergeben": 7364,
      "Es": 7365,
      "Ġrei": 7366,
      "staat": 7367,
      "ower": 7368,
      "ĠFlÃ¤": 7369,
      "016": 7370,
      "ĠDokument": 7371,
      "ĠHaftung": 7372,
      "Ã¼ter": 7373,
      "ĠTexte": 7374,
      "Ġwenigen": 7375,
      "ĠPrÃ¼fung": 7376,
      "val": 7377,
      "ĠMorgen": 7378,
      "939": 7379,
      "809": 7380,
      "Ġreicht": 7381,
      "ĠBereichen": 7382,
      "ĠPri": 7383,
      "Ġsolltest": 7384,
      "ĠHuman": 7385,
      "Co": 7386,
      "9992": 7387,
      "Ġversuchen": 7388,
      "lassung": 7389,
      "hÃ¤ngig": 7390,
      "ĠKontaktformular": 7391,
      "1403": 7392,
      "nSchlieÃŁen": 7393,
      "ĠZwischen": 7394,
      "usion": 7395,
      "ĠNutzungs": 7396,
      "liegt": 7397,
      "time": 7398,
      "ommerce": 7399,
      "ĠNeue": 7400,
      "068": 7401,
      "ĠIntegr": 7402,
      "ndie": 7403,
      "The": 7404,
      "jo": 7405,
      "ders": 7406,
      "uz": 7407,
      "ĠDeutschlands": 7408,
      "SE": 7409,
      "83413": 7410,
      "nDetails": 7411,
      "ĠWel": 7412,
      "ĠSchloss": 7413,
      "Ġschwarz": 7414,
      "ĠMÃ¤dchen": 7415,
      "ĠCont": 7416,
      "Ġsammeln": 7417,
      "Produ": 7418,
      "lÃ¤nd": 7419,
      "ĠRoman": 7420,
      "ivil": 7421,
      "9373": 7422,
      "ĠErschein": 7423,
      "ĠUmsetzung": 7424,
      "9903": 7425,
      "reff": 7426,
      "ĠFelder": 7427,
      "ĠgenieÃŁen": 7428,
      "ĠGebrauch": 7429,
      "nicht": 7430,
      "Ġdra": 7431,
      "ĠKlasse": 7432,
      "Ġvorbehalten": 7433,
      "Funktion": 7434,
      "endung": 7435,
      "Ġeinger": 7436,
      "machen": 7437,
      "Ġverlassen": 7438,
      "online": 7439,
      "erken": 7440,
      "rÃ¶": 7441,
      "ĠgeÃ¶ffnet": 7442,
      "sg": 7443,
      "ĠDep": 7444,
      "ĠAlb": 7445,
      "nMeta": 7446,
      "Ġtolle": 7447,
      "klasse": 7448,
      "8360984": 7449,
      "ĠTod": 7450,
      "Ġsicht": 7451,
      "268": 7452,
      "Ġmittel": 7453,
      "Ġhoff": 7454,
      "ĠDro": 7455,
      "aub": 7456,
      "kunden": 7457,
      "Ġfinan": 7458,
      "Ser": 7459,
      "Ã¤hrt": 7460,
      "-\\": 7461,
      "nHome": 7462,
      "ĠverfÃ¼gt": 7463,
      "ĠAufent": 7464,
      "ĠSal": 7465,
      "Ġsonstige": 7466,
      "gewicht": 7467,
      "Ġanzuzeigen": 7468,
      "vÃ¶lkerung": 7469,
      "Ġ49": 7470,
      "554": 7471,
      "ĠHeimat": 7472,
      "ĠPfer": 7473,
      "mens": 7474,
      "Ġ//": 7475,
      "nBes": 7476,
      "ĠCanal": 7477,
      "141": 7478,
      "Ġanonymen": 7479,
      "ĠBestimmungen": 7480,
      "Ġmanchmal": 7481,
      "ĠMiet": 7482,
      "ĠKraftstoff": 7483,
      "Ã¼ndigung": 7484,
      "ĠBaden": 7485,
      "hafen": 7486,
      "fla": 7487,
      "ftungs": 7488,
      "218": 7489,
      "Ġbetreffenden": 7490,
      "919": 7491,
      "regierung": 7492,
      "ĠðŁĺ": 7493,
      "brid": 7494,
      "ĠLiebl": 7495,
      "92483413": 7496,
      "publik": 7497,
      "okus": 7498,
      "lÃ¤nder": 7499,
      "schuhe": 7500,
      "250": 7501,
      "auch": 7502,
      "ommunity": 7503,
      "132": 7504,
      "ĠPap": 7505,
      "ĠRussland": 7506,
      "ĠSP": 7507,
      "knÃ¼": 7508,
      "ĠMeister": 7509,
      "9815": 7510,
      "Ġfehl": 7511,
      "Ġdamals": 7512,
      "Ġdarum": 7513,
      "handel": 7514,
      "Ã¼sseldorf": 7515,
      "bern": 7516,
      "363": 7517,
      "nProdukt": 7518,
      "Ġausgestattet": 7519,
      "ZE": 7520,
      "anzeigen": 7521,
      "edIn": 7522,
      "NG": 7523,
      "rollen": 7524,
      "ĠMaterialien": 7525,
      "xx": 7526,
      "ĠAgen": 7527,
      "deutsch": 7528,
      "Ã¤ss": 7529,
      "Ġladen": 7530,
      "KG": 7531,
      "Ġherr": 7532,
      "iegen": 7533,
      "Ġspeziell": 7534,
      "ĠMass": 7535,
      "DI": 7536,
      "inkl": 7537,
      "ZW": 7538,
      "bindung": 7539,
      "ppt": 7540,
      "ĠSachsen": 7541,
      "ĠphpBB": 7542,
      "ĠWÃ¤hrend": 7543,
      "ĠGeist": 7544,
      "Ġfe": 7545,
      "Ġtief": 7546,
      "nDieser": 7547,
      "Ġerleben": 7548,
      "ĠEisen": 7549,
      "ĠSee": 7550,
      "Ġtelefon": 7551,
      "ĠAnge": 7552,
      "Ġzzgl": 7553,
      "ront": 7554,
      "omen": 7555,
      "ĠMontag": 7556,
      "ĠGeburtstag": 7557,
      "uff": 7558,
      "igungen": 7559,
      "ehlungen": 7560,
      "nTh": 7561,
      "nMenÃ¼": 7562,
      "251": 7563,
      "Ġindividuell": 7564,
      "ĠâĢļ": 7565,
      "841": 7566,
      "temberg": 7567,
      "osophie": 7568,
      "inken": 7569,
      "ĠTÃ¤tigkeit": 7570,
      "ĠAblauf": 7571,
      "2011": 7572,
      "istenz": 7573,
      "ĠRepublik": 7574,
      "ĠDadurch": 7575,
      "ĠHein": 7576,
      "ĠKoch": 7577,
      "ĠFalls": 7578,
      "code": 7579,
      "151": 7580,
      "SA": 7581,
      "nWeb": 7582,
      "nl": 7583,
      "ĠzukÃ¼nf": 7584,
      "Mod": 7585,
      "bedarf": 7586,
      "ernt": 7587,
      "epage": 7588,
      "ĠCasino": 7589,
      "Ġknapp": 7590,
      "UP": 7591,
      "entwicklung": 7592,
      "BL": 7593,
      "ĠWindows": 7594,
      "berichte": 7595,
      "838": 7596,
      "ĠgegrÃ¼n": 7597,
      "onts": 7598,
      "Ġangen": 7599,
      "oga": 7600,
      "ympt": 7601,
      "nBet": 7602,
      "ĠZahlung": 7603,
      "gliche": 7604,
      "nPer": 7605,
      "ĠgefÃ¤hr": 7606,
      "9920": 7607,
      "ĠCam": 7608,
      "ĠTro": 7609,
      "ĠGesicht": 7610,
      "Ġunterschiedliche": 7611,
      "ĠAnlage": 7612,
      "656": 7613,
      "zusetzen": 7614,
      "ĠVerbesser": 7615,
      "249": 7616,
      "Ġgebracht": 7617,
      "Ġbean": 7618,
      "reig": 7619,
      "ĠGelegenheit": 7620,
      "ĠKop": 7621,
      "ĠSÃ¤": 7622,
      "ĠberÃ¼cks": 7623,
      "ĠFrankreich": 7624,
      "ĠBrief": 7625,
      "obert": 7626,
      "Ġziemlich": 7627,
      "Ġbetrach": 7628,
      "grÃ¶ÃŁe": 7629,
      "ĠRelig": 7630,
      "weitergabe": 7631,
      "ktor": 7632,
      "ĠEind": 7633,
      "ĠBez": 7634,
      "Ġ00": 7635,
      "Ġint": 7636,
      "ĠSpezial": 7637,
      "221": 7638,
      "ĠFC": 7639,
      "hÃ¤nge": 7640,
      "Ġdurchaus": 7641,
      "ĠschlieÃŁlich": 7642,
      "ĠKarte": 7643,
      "vollen": 7644,
      "Ã¶se": 7645,
      "ĠUser": 7646,
      "ĠMeine": 7647,
      "ĠBade": 7648,
      "ĠBÃ¤": 7649,
      "versorgung": 7650,
      "tionen": 7651,
      "For": 7652,
      "ĠLux": 7653,
      "Ġfreiwillige": 7654,
      "gÃ¤n": 7655,
      "ĠjÃ¤hr": 7656,
      "ĠCha": 7657,
      "ĠPapier": 7658,
      "Ã¼ltig": 7659,
      "850": 7660,
      "222": 7661,
      "ĠTeilnahme": 7662,
      "Ġeinzelne": 7663,
      "ĠTiere": 7664,
      "DP": 7665,
      "ĠAufzeichnungen": 7666,
      "139": 7667,
      "870": 7668,
      "sex": 7669,
      "nZahl": 7670,
      "Ġbi": 7671,
      "klÃ¤rung": 7672,
      "Ã¤ppchen": 7673,
      "ĠGewicht": 7674,
      "ĠSoSe": 7675,
      "ĠPaul": 7676,
      "8473": 7677,
      "ĠPhys": 7678,
      "ĠHoff": 7679,
      "ĠHintergrund": 7680,
      "ĠÃ¼": 7681,
      "98634017": 7682,
      "292": 7683,
      "WR": 7684,
      "347": 7685,
      "Ġgewinnen": 7686,
      "Ġraus": 7687,
      "itektur": 7688,
      "Ġsozial": 7689,
      "fachen": 7690,
      "ymbol": 7691,
      "ĠSamm": 7692,
      "ĠSeminar": 7693,
      "forms": 7694,
      "862": 7695,
      "Ġfehlen": 7696,
      "HS": 7697,
      "ĠRechtsgrundlage": 7698,
      "Ġfallen": 7699,
      "Ġbeteil": 7700,
      "ĠRechnung": 7701,
      "ĠInfe": 7702,
      "ĠKontrolle": 7703,
      "harma": 7704,
      "verkauf": 7705,
      "ĠUhrzeit": 7706,
      "ĠFolgenden": 7707,
      "ĠBit": 7708,
      "Ġhergestellt": 7709,
      "abet": 7710,
      "wenden": 7711,
      "Ġnieder": 7712,
      "ĠTechnologie": 7713,
      "ump": 7714,
      "Ġ150": 7715,
      "Ġspricht": 7716,
      "browser": 7717,
      "Ġschlech": 7718,
      "nei": 7719,
      "ĠErde": 7720,
      "031": 7721,
      "ĠOptim": 7722,
      "nOnline": 7723,
      "uth": 7724,
      "Ã¤tigung": 7725,
      "Ġfrem": 7726,
      "ĠStad": 7727,
      "vo": 7728,
      "lieb": 7729,
      "Ġabbrechen": 7730,
      "ĠAngabe": 7731,
      "831": 7732,
      "219": 7733,
      "aching": 7734,
      "ĠSquare": 7735,
      "ĠhinzufÃ¼gen": 7736,
      "berater": 7737,
      "ĠGrenz": 7738,
      "sorge": 7739,
      "182": 7740,
      "ĠWettbe": 7741,
      "ĠErnÃ¤hrung": 7742,
      "ĠverfÃ¼gen": 7743,
      "ĠLED": 7744,
      "tum": 7745,
      "HM": 7746,
      "nAd": 7747,
      "ĠApple": 7748,
      "Ġbenutzt": 7749,
      "ĠWechsel": 7750,
      "ated": 7751,
      "ĠkÃ¶nnt": 7752,
      "wende": 7753,
      "pper": 7754,
      "afÃ¼r": 7755,
      "ĠMor": 7756,
      "maÃŁnahmen": 7757,
      "nLink": 7758,
      "ĠDarÃ¼ber": 7759,
      "ilien": 7760,
      "zul": 7761,
      "Ġwelchen": 7762,
      "ĠSchne": 7763,
      "kat": 7764,
      "228": 7765,
      "Ġlieben": 7766,
      "300": 7767,
      "schirm": 7768,
      "ĠWelche": 7769,
      "Ġfunction": 7770,
      "nTer": 7771,
      "ĠBew": 7772,
      "9467": 7773,
      "urlaub": 7774,
      "ĠAnfragen": 7775,
      "2436": 7776,
      "ĠOrts": 7777,
      "gat": 7778,
      "ĠZustand": 7779,
      "ĠRegeln": 7780,
      "ostet": 7781,
      "ĠQualitÃ¤ts": 7782,
      "boden": 7783,
      "steiger": 7784,
      "Ġunmittel": 7785,
      "ĠEntstehen": 7786,
      "Ġabgel": 7787,
      "bald": 7788,
      "Map": 7789,
      "ancen": 7790,
      "Ġvermeiden": 7791,
      "ehlung": 7792,
      "852": 7793,
      "ĠErinner": 7794,
      "ĠRoll": 7795,
      "032": 7796,
      "Ã¶rungen": 7797,
      "nungszeiten": 7798,
      "ĠFakt": 7799,
      "Um": 7800,
      "nwww": 7801,
      "sprechpartner": 7802,
      "ĠLÃ¼": 7803,
      "nSuchen": 7804,
      "detail": 7805,
      "Ð°": 7806,
      "Ġbegeist": 7807,
      "240": 7808,
      "ĠKra": 7809,
      "dis": 7810,
      "ĠMaster": 7811,
      "ĠMÃ¶bel": 7812,
      "ĠÃ¶ffnen": 7813,
      "nTechn": 7814,
      "ĠInsel": 7815,
      "ral": 7816,
      "Ġwirkt": 7817,
      "848": 7818,
      "ĠSchnitt": 7819,
      "Ġfach": 7820,
      "ĠGeheim": 7821,
      "ĠLese": 7822,
      "GVO": 7823,
      "288": 7824,
      "Ġfolgt": 7825,
      "ĠChina": 7826,
      "FakultÃ¤t": 7827,
      "dienste": 7828,
      "hÃ¤nger": 7829,
      "ĠBewegung": 7830,
      "Ġwor": 7831,
      "fli": 7832,
      "ĠGrenzen": 7833,
      "ĠDatenweitergabe": 7834,
      "ĠDel": 7835,
      "ÃĹ\\": 7836,
      "passt": 7837,
      "842": 7838,
      "Ġbeob": 7839,
      "Ġ43": 7840,
      "nTe": 7841,
      "ĠAs": 7842,
      "ĠDenk": 7843,
      "ines": 7844,
      "FS": 7845,
      "ahnen": 7846,
      "131": 7847,
      "nWiderruf": 7848,
      "weisung": 7849,
      "231": 7850,
      "datenschutz": 7851,
      "Ġsparen": 7852,
      "ĠgrÃ¶ÃŁte": 7853,
      "itiative": 7854,
      "the": 7855,
      "fÃ¶rder": 7856,
      "oben": 7857,
      "ĠTherapie": 7858,
      "Ġdunk": 7859,
      "anbieters": 7860,
      "ĠhÃ¶ren": 7861,
      "UG": 7862,
      "ĠGefahr": 7863,
      "Ġfil": 7864,
      "emente": 7865,
      "windigkeit": 7866,
      "iertes": 7867,
      "RT": 7868,
      "nDezember": 7869,
      "gal": 7870,
      "ZT": 7871,
      "ischem": 7872,
      "ĠRedaktion": 7873,
      "fÃ¼hrten": 7874,
      "Ġumfang": 7875,
      "Ġentstanden": 7876,
      "861": 7877,
      "ĠZentr": 7878,
      "gy": 7879,
      "elen": 7880,
      "229": 7881,
      "isierte": 7882,
      "letzt": 7883,
      "sm": 7884,
      "link": 7885,
      "freien": 7886,
      "aratur": 7887,
      "400": 7888,
      "Ġgekommen": 7889,
      "Ġsorg": 7890,
      "nSeit": 7891,
      "egel": 7892,
      "Ġzulassen": 7893,
      "169": 7894,
      "Ġpassenden": 7895,
      "Ġschneller": 7896,
      "ĠStunde": 7897,
      "152": 7898,
      "149": 7899,
      "Ġanalysieren": 7900,
      "ĠNa": 7901,
      "Ã¶rung": 7902,
      "Ġsolcher": 7903,
      "ĠGeschmack": 7904,
      "Sh": 7905,
      "Ġwenige": 7906,
      "fahrer": 7907,
      "ĠVi": 7908,
      "ĠSchiff": 7909,
      "Ġumfasst": 7910,
      "ĠunabhÃ¤ngig": 7911,
      "Ã¶rdert": 7912,
      "erenz": 7913,
      "ĠRÃ¶": 7914,
      "reck": 7915,
      "Ã¼cke": 7916,
      "achel": 7917,
      "ĠSpeicher": 7918,
      "Ġfertig": 7919,
      "ĠArbeitgeber": 7920,
      "Ġmass": 7921,
      "Ġed": 7922,
      "ĠAktien": 7923,
      "ĠVergangen": 7924,
      "bilder": 7925,
      "bett": 7926,
      "Or": 7927,
      "FL": 7928,
      "acke": 7929,
      "ordnungs": 7930,
      "ĠWarum": 7931,
      "ĠRec": 7932,
      "konto": 7933,
      "eilt": 7934,
      "732": 7935,
      "RD": 7936,
      "160": 7937,
      "Ġdenken": 7938,
      "rah": 7939,
      "schauen": 7940,
      "ĠTracking": 7941,
      "ĠglÃ¼ck": 7942,
      "ĠStÃ¤r": 7943,
      "nSchlag": 7944,
      "ĠMikro": 7945,
      "Ġpol": 7946,
      "ĠnÃ¤her": 7947,
      "rib": 7948,
      "140": 7949,
      "AK": 7950,
      "izieren": 7951,
      "Ġstarten": 7952,
      "zern": 7953,
      "Ġnotwendigen": 7954,
      "ikal": 7955,
      "ĠHome": 7956,
      "ï¿": 7957,
      "ĠPil": 7958,
      "ĠerhÃ¤ltlich": 7959,
      "gemÃ¤ÃŁ": 7960,
      "252": 7961,
      "formen": 7962,
      "nKinder": 7963,
      "OB": 7964,
      "ĠBeschwer": 7965,
      "ĠGroup": 7966,
      "schÃ¶n": 7967,
      "ĠlÃ¤ng": 7968,
      "splatz": 7969,
      "liminar": 7970,
      "Ġklicke": 7971,
      "Ġhalt": 7972,
      "denk": 7973,
      "Cookie": 7974,
      "toff": 7975,
      "nBeitrÃ¤ge": 7976,
      "ĠGÃ¶": 7977,
      "Ġinternationalen": 7978,
      "halle": 7979,
      "902": 7980,
      "Ġbisschen": 7981,
      "ĠerfÃ¼llt": 7982,
      "ĠMedik": 7983,
      "Analysen": 7984,
      "ĠPower": 7985,
      "Ġinklusive": 7986,
      "ĠPrÃ¤liminar": 7987,
      "Ġmittlerweile": 7988,
      "mat": 7989,
      "verwaltung": 7990,
      "Ã¼cher": 7991,
      "Ġdigitale": 7992,
      "Ġspeichert": 7993,
      "Ġwichtigen": 7994,
      "filter": 7995,
      "ĠgeschÃ¼tzt": 7996,
      "Ġ94": 7997,
      "ĠMuseum": 7998,
      "aller": 7999,
      "cel": 8000,
      "euten": 8001,
      "ĠInnovation": 8002,
      "eistungs": 8003,
      "Â´": 8004,
      "inkel": 8005,
      "Ġ46": 8006,
      "ĠBeteil": 8007,
      "ĠvielfÃ¤l": 8008,
      "ĠerwÃ¤": 8009,
      "ĠEreig": 8010,
      "Mark": 8011,
      "frastruktur": 8012,
      "________________": 8013,
      "ĠPartei": 8014,
      "ĠWorks": 8015,
      "ĠMi": 8016,
      "Ġglob": 8017,
      "ibil": 8018,
      "part": 8019,
      "nCopyright": 8020,
      "zwei": 8021,
      "ĠSupp": 8022,
      "ĠBeschÃ¤f": 8023,
      "ads": 8024,
      "LS": 8025,
      "schla": 8026,
      "ĠInteress": 8027,
      "Ġschreibt": 8028,
      "rate": 8029,
      "239": 8030,
      "steh": 8031,
      "achtung": 8032,
      "nPresse": 8033,
      "ĠBlack": 8034,
      "IX": 8035,
      "Ġdeaktiviert": 8036,
      "Ġbislang": 8037,
      "Ġstr": 8038,
      "nMai": 8039,
      "9265": 8040,
      "nDr": 8041,
      "ĠVarian": 8042,
      "Ġabgerufenen": 8043,
      "ĠAufbewahr": 8044,
      "hnliche": 8045,
      "Ġvis": 8046,
      "ĠSPD": 8047,
      "ĠMaschinen": 8048,
      "ĠFranz": 8049,
      "tial": 8050,
      "UV": 8051,
      "hoch": 8052,
      "ĠHof": 8053,
      "ico": 8054,
      "unkten": 8055,
      "Ġ34": 8056,
      "Ġsub": 8057,
      "hu": 8058,
      "ĠHandwerk": 8059,
      "EIN": 8060,
      "Ġregion": 8061,
      "imp": 8062,
      "Ġneg": 8063,
      "ĠMarke": 8064,
      "rÃ¼st": 8065,
      "ĠRechtsver": 8066,
      "kohol": 8067,
      "ĠOpen": 8068,
      "pon": 8069,
      "ĠÃ¼berw": 8070,
      "ĠHeiz": 8071,
      "Le": 8072,
      "AX": 8073,
      "Ġjung": 8074,
      "830": 8075,
      "scheidet": 8076,
      "238": 8077,
      "nissen": 8078,
      "ĠWochenende": 8079,
      "ĠBoards": 8080,
      "ĠJes": 8081,
      "ĠSchwerpunkt": 8082,
      "Street": 8083,
      "nAktuelle": 8084,
      "ato": 8085,
      "andid": 8086,
      "ĠHandels": 8087,
      "138": 8088,
      "holung": 8089,
      "ĠMarketingzwecken": 8090,
      "metho": 8091,
      "161": 8092,
      "Techn": 8093,
      "Ġangefordert": 8094,
      "ĠgÃ¼nstig": 8095,
      "162": 8096,
      "ĠFrieden": 8097,
      "Ġallgemeinen": 8098,
      "ĠAch": 8099,
      "ĠzuverlÃ¤ss": 8100,
      "ĠMindest": 8101,
      "ĠRezept": 8102,
      "Ġpost": 8103,
      "ĠGrad": 8104,
      "folgenden": 8105,
      "holt": 8106,
      "leider": 8107,
      "ĠNun": 8108,
      "een": 8109,
      "strahl": 8110,
      "Ã¶rdern": 8111,
      "nur": 8112,
      "KS": 8113,
      "schrank": 8114,
      "nJuli": 8115,
      "rhein": 8116,
      "nOktober": 8117,
      "omin": 8118,
      "ĠHandel": 8119,
      "Ġlief": 8120,
      "ebe": 8121,
      "Ġarbeitet": 8122,
      "Ġtreten": 8123,
      "Ġkre": 8124,
      "Ġwann": 8125,
      "essour": 8126,
      "ĠKG": 8127,
      "Ġinnov": 8128,
      "orie": 8129,
      "-)": 8130,
      "Ġ;": 8131,
      "ĠðŁĻ": 8132,
      "ĠTochter": 8133,
      "ĠhÃ¤tten": 8134,
      "instagram": 8135,
      "ĠRuhe": 8136,
      "Ġregistrieren": 8137,
      "wÃ¼n": 8138,
      "Ġflex": 8139,
      "Ġversucht": 8140,
      "ĠHistor": 8141,
      "ĠverÃ¶ffentlich": 8142,
      "Ġeigener": 8143,
      "ioren": 8144,
      "nSte": 8145,
      "nSeptember": 8146,
      "Ġeiniger": 8147,
      "ĠWeiterlesen": 8148,
      "258": 8149,
      "atsApp": 8150,
      "wal": 8151,
      "wp": 8152,
      "Ġentspricht": 8153,
      "Ġdenk": 8154,
      "142": 8155,
      "9907": 8156,
      "Ġindividuelle": 8157,
      "159": 8158,
      "uls": 8159,
      "ĠKompon": 8160,
      "nNutzungsbedingungen": 8161,
      "sti": 8162,
      "ĠWal": 8163,
      "272": 8164,
      "ĠLaden": 8165,
      "ĠursprÃ¼n": 8166,
      "uchtung": 8167,
      "Ġattra": 8168,
      "Ġsobald": 8169,
      "itzung": 8170,
      "880": 8171,
      "ĠRob": 8172,
      "ĠFo": 8173,
      "coin": 8174,
      "affel": 8175,
      "Ġangemessen": 8176,
      "nKeine": 8177,
      "ugen": 8178,
      "ĠLab": 8179,
      "iertel": 8180,
      "eis": 8181,
      "ĠSpr": 8182,
      "210": 8183,
      "agn": 8184,
      "Ã¤dagogik": 8185,
      "ĠVerwaltung": 8186,
      "krieg": 8187,
      "Ġbewusst": 8188,
      "ĠBot": 8189,
      "nam": 8190,
      "ĠWeihnachten": 8191,
      "282": 8192,
      "Ġdrin": 8193,
      "959": 8194,
      "Ġkostenlose": 8195,
      "nDeutsch": 8196,
      "helm": 8197,
      "schulen": 8198,
      "ffffffff": 8199,
      "ross": 8200,
      "ĠRem": 8201,
      "word": 8202,
      "ĠTyp": 8203,
      "ï¿½": 8204,
      "ĠAufbau": 8205,
      "arif": 8206,
      "wendige": 8207,
      "Ġschlecht": 8208,
      "9896": 8209,
      "NS": 8210,
      "drÃ¼cken": 8211,
      "wirken": 8212,
      "851": 8213,
      "spekt": 8214,
      "ĠCol": 8215,
      "ĠRÃ¼cken": 8216,
      "ĠDomain": 8217,
      "OX": 8218,
      "ĠTim": 8219,
      "Ġgesamm": 8220,
      "98464": 8221,
      "DM": 8222,
      "stahl": 8223,
      "nAber": 8224,
      "Ġank": 8225,
      "ĠLust": 8226,
      "Ġeinsteigen": 8227,
      "Ġverkaufen": 8228,
      "rÃ¤um": 8229,
      "Ġfalsch": 8230,
      "Ġbl": 8231,
      "Aut": 8232,
      "367": 8233,
      "EX": 8234,
      "spielen": 8235,
      "9723": 8236,
      "itle": 8237,
      "opf": 8238,
      "angs": 8239,
      "boten": 8240,
      "9945743": 8241,
      "ĠPrakti": 8242,
      "rael": 8243,
      "itor": 8244,
      "staaten": 8245,
      "NL": 8246,
      "Ġfunktionieren": 8247,
      "rechnung": 8248,
      "oge": 8249,
      "ĠNutzerprofile": 8250,
      "9727": 8251,
      "ĠVerÃ¶ffentlich": 8252,
      "wander": 8253,
      "ĠAusstellung": 8254,
      "Ġmensch": 8255,
      "web": 8256,
      "ĠFÃ¶rderung": 8257,
      "Ġsogenannte": 8258,
      "ĠstÃ¤ndig": 8259,
      "042": 8260,
      "ĠWeiÃŁ": 8261,
      "indust": 8262,
      "Ġguter": 8263,
      "nGe": 8264,
      "Ġprivaten": 8265,
      "158": 8266,
      "folgt": 8267,
      "VB": 8268,
      "ĠSachen": 8269,
      "Ġinvest": 8270,
      "ĠÃľbermittlung": 8271,
      "Ġjur": 8272,
      "WL": 8273,
      "ampe": 8274,
      "ĠKontaktdaten": 8275,
      "lack": 8276,
      "dient": 8277,
      "Ġlangsam": 8278,
      "atze": 8279,
      "Ġkur": 8280,
      "undert": 8281,
      "ĠprÃ¼fen": 8282,
      "Ġweisen": 8283,
      "Ġant": 8284,
      "192": 8285,
      "PC": 8286,
      "udwig": 8287,
      "232": 8288,
      "ĠTher": 8289,
      "ĠBeziehung": 8290,
      "148": 8291,
      "nMar": 8292,
      "nJuni": 8293,
      "771": 8294,
      "timent": 8295,
      "868": 8296,
      "Ġgefallen": 8297,
      "Ġelektronisches": 8298,
      "Ġpassende": 8299,
      "ĠSurf": 8300,
      "ĠKant": 8301,
      "ĠausfÃ¼hr": 8302,
      "Ġtradition": 8303,
      "188": 8304,
      "ĠBonus": 8305,
      "ĠtrÃ¤gt": 8306,
      "Ġruh": 8307,
      "Ġsteigen": 8308,
      "Ġ(*": 8309,
      "sprechend": 8310,
      "zene": 8311,
      "nNicht": 8312,
      "nInter": 8313,
      "ĠAusÃ¼bung": 8314,
      "Ã¤nn": 8315,
      "860": 8316,
      "Ġbestell": 8317,
      "Form": 8318,
      "858": 8319,
      "ĠHÃ¤nd": 8320,
      "ĠDÃ¼sseldorf": 8321,
      "Gesch": 8322,
      "ĠParty": 8323,
      "Ġirgendeiner": 8324,
      "Nr": 8325,
      "ĠNachhaltigkeit": 8326,
      "ĠGrab": 8327,
      "IER": 8328,
      "antas": 8329,
      "beauftrag": 8330,
      "ĠZusatz": 8331,
      "ainer": 8332,
      "ĠAmts": 8333,
      "nKunden": 8334,
      "ĠZuf": 8335,
      "nAugust": 8336,
      "testen": 8337,
      "uminium": 8338,
      "tere": 8339,
      "ĠJung": 8340,
      "ĠNachbar": 8341,
      "261": 8342,
      "sc": 8343,
      "Ġerwarten": 8344,
      "scheint": 8345,
      "Ġalleinigen": 8346,
      "Ġruss": 8347,
      "gas": 8348,
      "ĠZiele": 8349,
      "nApril": 8350,
      "Ent": 8351,
      "beck": 8352,
      "ĠAug": 8353,
      "produkt": 8354,
      "Ġbegren": 8355,
      "StreetMap": 8356,
      "Ġzuletzt": 8357,
      "Service": 8358,
      "ĠKompetenz": 8359,
      "ĠAdvent": 8360,
      "882": 8361,
      "ĠCharakter": 8362,
      "ĠStudium": 8363,
      "ĠAv": 8364,
      "Ġvertrag": 8365,
      "OF": 8366,
      "agegen": 8367,
      "ĠKaffee": 8368,
      "dy": 8369,
      "hlt": 8370,
      "ĠFreiheit": 8371,
      "Ġverurs": 8372,
      "nFor": 8373,
      "Ġausgel": 8374,
      "Ġunber": 8375,
      "ĠEvent": 8376,
      "nX": 8377,
      "ĠAnbieters": 8378,
      "ĠZahlen": 8379,
      "ĠAustausch": 8380,
      "Ã¶sen": 8381,
      "nf": 8382,
      "Ġli": 8383,
      "Ã¤llig": 8384,
      "rip": 8385,
      "ĠPlatforms": 8386,
      "erkonto": 8387,
      "ĠHandy": 8388,
      "lÃ¤uter": 8389,
      "Ġ1000": 8390,
      "ĠsÃ¤mtliche": 8391,
      "Ġjem": 8392,
      "Ġkomplet": 8393,
      "iefert": 8394,
      "ĠFriedrich": 8395,
      "ĠabhÃ¤ngig": 8396,
      "071": 8397,
      "ĠAusstattung": 8398,
      "ordin": 8399,
      "san": 8400,
      "ĠMuster": 8401,
      "888": 8402,
      "178": 8403,
      "obby": 8404,
      "zeh": 8405,
      "ĠDres": 8406,
      "Ġschl": 8407,
      "rete": 8408,
      "Ġerwartet": 8409,
      "ographie": 8410,
      "171": 8411,
      "gid": 8412,
      "IZ": 8413,
      "sendung": 8414,
      "Angeb": 8415,
      "ward": 8416,
      "ĠFer": 8417,
      "ĠDatum": 8418,
      "ĠSur": 8419,
      "ĠSchreib": 8420,
      "Ġsogenannten": 8421,
      "ĠFeed": 8422,
      "ĠMig": 8423,
      "tlichen": 8424,
      "ĠDonnerstag": 8425,
      "Ġverlieren": 8426,
      "Ġexterne": 8427,
      "ĠKlim": 8428,
      "189": 8429,
      "nDieses": 8430,
      "AY": 8431,
      "768": 8432,
      "tete": 8433,
      "ĠMatt": 8434,
      "atterie": 8435,
      "092": 8436,
      "Ġevent": 8437,
      "lament": 8438,
      "Ġindividuellen": 8439,
      "ĠOriginal": 8440,
      "871": 8441,
      "ĠFeuerwehr": 8442,
      "ĠStefan": 8443,
      "ĠDatenÃ¼ber": 8444,
      "hi": 8445,
      "Ġ2001": 8446,
      "ĠUmsatz": 8447,
      "ĠSilber": 8448,
      "ĠStudie": 8449,
      "ĠTurn": 8450,
      "NT": 8451,
      "019": 8452,
      "ĠInternetdienst": 8453,
      "ĠFein": 8454,
      "ĠZeu": 8455,
      "ya": 8456,
      "ĠTermine": 8457,
      "080": 8458,
      "ĠhÃ¤ngt": 8459,
      "kei": 8460,
      "ĠSofern": 8461,
      "ĠRang": 8462,
      "ĠBrÃ¼": 8463,
      "ĠKabel": 8464,
      "Ġstabil": 8465,
      "Ġbearbeiten": 8466,
      "ĠSerie": 8467,
      "upport": 8468,
      "nRechts": 8469,
      "UB": 8470,
      "Ġheutigen": 8471,
      "99905": 8472,
      "krÃ¤fte": 8473,
      "nGew": 8474,
      "Ġsoziale": 8475,
      "sbehÃ¶rde": 8476,
      "ĠVereins": 8477,
      "letzungen": 8478,
      "ĠKeine": 8479,
      "Ġbeginnen": 8480,
      "271": 8481,
      "Ġernst": 8482,
      "ĠModelle": 8483,
      "ESS": 8484,
      "Ġerfasst": 8485,
      "lÃ¼sse": 8486,
      "nVorlieben": 8487,
      "ĠZeitraum": 8488,
      "ĠDigital": 8489,
      "Ġdahin": 8490,
      "andern": 8491,
      "Ġaufgenommen": 8492,
      "Ġ250": 8493,
      "ĠSonne": 8494,
      "ĠPet": 8495,
      "ĠAGB": 8496,
      "ĠmaÃŁ": 8497,
      "008": 8498,
      "ĠPlanung": 8499,
      "nPf": 8500,
      "ĠPosition": 8501,
      "ĠWell": 8502,
      "98464245": 8503,
      "ĠmÃ¼s": 8504,
      "Ġeinfache": 8505,
      "uns": 8506,
      "ĠAbhÃ¤ng": 8507,
      "HG": 8508,
      "ĠSemester": 8509,
      "ommunik": 8510,
      "061": 8511,
      "995126": 8512,
      "130": 8513,
      "nJanuar": 8514,
      "Ġverd": 8515,
      "nAktuelles": 8516,
      "ĠEigenschaften": 8517,
      "8076": 8518,
      "ĠKlass": 8519,
      "ĠFunktionalitÃ¤t": 8520,
      "alisieren": 8521,
      "Ġwahrscheinlich": 8522,
      "ĠZit": 8523,
      "nTra": 8524,
      "Bet": 8525,
      "ollar": 8526,
      "ĠAutoren": 8527,
      "ĠLehrer": 8528,
      "ĠkÃ¶rper": 8529,
      "ĠInternetdienstanbieters": 8530,
      "Ġjungen": 8531,
      "Ġengl": 8532,
      "ĠZÃ¼r": 8533,
      "Ġtut": 8534,
      "Ġentschieden": 8535,
      "ĠWiderrufs": 8536,
      "Ġtrifft": 8537,
      "ave": 8538,
      "Ġverk": 8539,
      "ĠKommunikationsnetz": 8540,
      "nMÃ¤rz": 8541,
      "9894": 8542,
      "rein": 8543,
      "ĠSchei": 8544,
      "si": 8545,
      "ĠJournal": 8546,
      "nSchn": 8547,
      "ĠPop": 8548,
      "ĠPre": 8549,
      "Ġ?": 8550,
      "ĠRegional": 8551,
      "ĠHard": 8552,
      "ĠSonst": 8553,
      "okratie": 8554,
      "ĠArm": 8555,
      "archiv": 8556,
      "ĠAufruf": 8557,
      "8475": 8558,
      "CL": 8559,
      "Ġleisten": 8560,
      "ĠStrand": 8561,
      "ĠVermÃ¶gen": 8562,
      "RG": 8563,
      "heil": 8564,
      "ĠNummer": 8565,
      "ĠVER": 8566,
      "ĠEinrichtung": 8567,
      "ĠAbonnement": 8568,
      "ration": 8569,
      "179": 8570,
      "rab": 8571,
      "357": 8572,
      "versammlung": 8573,
      "gten": 8574,
      "248": 8575,
      "ĠSchl": 8576,
      "Ã¼rttemberg": 8577,
      "ĠCre": 8578,
      "atisch": 8579,
      "Ġliefern": 8580,
      "2010": 8581,
      "ĠRock": 8582,
      "weiÃŁ": 8583,
      "ĠTat": 8584,
      "RM": 8585,
      "Ġeinzige": 8586,
      "ĠSchnÃ¤ppchen": 8587,
      "ĠPDF": 8588,
      "ĠKÃ¼chen": 8589,
      "ĠST": 8590,
      "ymn": 8591,
      "urer": 8592,
      "Ġdep": 8593,
      "rÃ¤umen": 8594,
      "HP": 8595,
      "Ġunterschiedlich": 8596,
      "bran": 8597,
      "ĠAndreas": 8598,
      "ĠCity": 8599,
      "ĠStraf": 8600,
      "ĠRu": 8601,
      "ove": 8602,
      "DL": 8603,
      "loggen": 8604,
      "9875": 8605,
      "rÃ¼cken": 8606,
      "nFebruar": 8607,
      "Ġdaraus": 8608,
      "prÃ¼fung": 8609,
      "lernen": 8610,
      "Ġwelchem": 8611,
      "Ġzahlreichen": 8612,
      "schaffen": 8613,
      "ĠAlten": 8614,
      "gestaltung": 8615,
      "Ġbewegen": 8616,
      "wirk": 8617,
      "ĠKarl": 8618,
      "nSport": 8619,
      "tigten": 8620,
      "RF": 8621,
      "kampf": 8622,
      "Ġerscheint": 8623,
      "iefe": 8624,
      "post": 8625,
      "Ġdre": 8626,
      "auspiel": 8627,
      "ĠPriv": 8628,
      "enken": 8629,
      "878": 8630,
      "ĠSohn": 8631,
      "Ġregistriert": 8632,
      "Daten": 8633,
      "ĠKu": 8634,
      "nLog": 8635,
      "Ġ120": 8636,
      "untain": 8637,
      "761": 8638,
      "ĠKlar": 8639,
      "Ġgeladen": 8640,
      "99805135": 8641,
      "Ġfragen": 8642,
      "ĠKarr": 8643,
      "Ġuser": 8644,
      "una": 8645,
      "ĠFÃ¼hrung": 8646,
      "ĠSprachen": 8647,
      "bis": 8648,
      "ĠAllerdings": 8649,
      "038": 8650,
      "Ġinteressant": 8651,
      "ĠNutzers": 8652,
      "ĠnÃ¶tig": 8653,
      "nRegistr": 8654,
      "kap": 8655,
      "172": 8656,
      "ĠeuropÃ¤ischen": 8657,
      "ding": 8658,
      "HW": 8659,
      "nSon": 8660,
      "CO": 8661,
      "168": 8662,
      "mond": 8663,
      "290": 8664,
      "SM": 8665,
      "izi": 8666,
      "iller": 8667,
      "Ã¤tze": 8668,
      "RK": 8669,
      "agd": 8670,
      "ĠTal": 8671,
      "Ġwesent": 8672,
      "9834": 8673,
      "Ġverhinder": 8674,
      "99998": 8675,
      "Ġanerk": 8676,
      "ĠChr": 8677,
      "uristen": 8678,
      "Ð¸": 8679,
      "istisch": 8680,
      "9865": 8681,
      "ĠðŁĻĤ": 8682,
      "ible": 8683,
      "gebaut": 8684,
      "lein": 8685,
      "ĠÃ¼bergehen": 8686,
      "762": 8687,
      "9885": 8688,
      "ĠSmartphone": 8689,
      "ĠAlters": 8690,
      "Ġentsteht": 8691,
      "567": 8692,
      "Ġbesitzen": 8693,
      "872": 8694,
      "ĠErforder": 8695,
      "spiegel": 8696,
      "058": 8697,
      "TML": 8698,
      "9895": 8699,
      "abl": 8700,
      "fuer": 8701,
      "oden": 8702,
      "99512625": 8703,
      "geschn": 8704,
      "ĠSet": 8705,
      "Ġbesucht": 8706,
      "ichert": 8707,
      "ĠSel": 8708,
      "Ġachten": 8709,
      "ĠBerechtig": 8710,
      "259": 8711,
      "ĠkÃ¼nf": 8712,
      "881": 8713,
      "ĠÃ¼berall": 8714,
      "!\",\"": 8715,
      "ĠÃ¼berra": 8716,
      "ĠFokus": 8717,
      "ritts": 8718,
      "ĠWÃ¼r": 8719,
      "nArch": 8720,
      "kirchen": 8721,
      "Ġtraur": 8722,
      "Ġgering": 8723,
      "Ã¼re": 8724,
      "ĠRet": 8725,
      "Ġwirken": 8726,
      "gs": 8727,
      "Ġfrom": 8728,
      "ĠMilliar": 8729,
      "011": 8730,
      "ĠZahlungseinstellung": 8731,
      "ĠBu": 8732,
      "loser": 8733,
      "pert": 8734,
      "mil": 8735,
      "work": 8736,
      "ronik": 8737,
      "Ã¤rm": 8738,
      "ĠprÃ¤sentiert": 8739,
      "eiern": 8740,
      "ichtigkeit": 8741,
      "ieso": 8742,
      "stanz": 8743,
      "ĠApothe": 8744,
      "Ã¤fts": 8745,
      "ĠCent": 8746,
      "ĠKlassen": 8747,
      "Ġbilden": 8748,
      "DPR": 8749,
      "........": 8750,
      "553": 8751,
      "plÃ¤tze": 8752,
      "ham": 8753,
      "Ã¤lfte": 8754,
      "Ġgeeig": 8755,
      "Google": 8756,
      "nRep": 8757,
      "ĠKombination": 8758,
      "musik": 8759,
      "nGer": 8760,
      "Ð¾": 8761,
      "abend": 8762,
      "ĠInhalten": 8763,
      "zahlt": 8764,
      "ĠKonkursfall": 8765,
      "Konto": 8766,
      "ĠHon": 8767,
      "âĢĿ\\": 8768,
      "ĠtÃ¤tig": 8769,
      "051": 8770,
      "frau": 8771,
      "Ġwichtiger": 8772,
      "ĠMini": 8773,
      "Ġ_": 8774,
      "Ġwarten": 8775,
      "ĠAff": 8776,
      "Ġsieben": 8777,
      "Ġwirst": 8778,
      "Zust": 8779,
      "Ġobwohl": 8780,
      "ona": 8781,
      "ĠInner": 8782,
      "Ġspezif": 8783,
      "ĠRegelungen": 8784,
      "nAllgemein": 8785,
      "Ġmarkiert": 8786,
      "1135": 8787,
      "tags": 8788,
      "emein": 8789,
      "ĠFrem": 8790,
      "sicherheit": 8791,
      "Phone": 8792,
      "nOr": 8793,
      "here": 8794,
      "ĠGeschichten": 8795,
      "ĠPor": 8796,
      "alls": 8797,
      "osme": 8798,
      "Ġweiterlesen": 8799,
      "tierten": 8800,
      "ĠFleisch": 8801,
      "ĠStahl": 8802,
      "9955392": 8803,
      "à¸": 8804,
      "region": 8805,
      "ĠHalb": 8806,
      "ĠSchulen": 8807,
      "organis": 8808,
      "069": 8809,
      "Ġkamen": 8810,
      "Ger": 8811,
      "nFunktional": 8812,
      "olden": 8813,
      "Ġperfekte": 8814,
      "acher": 8815,
      "072": 8816,
      "platte": 8817,
      "uld": 8818,
      "ĠCloud": 8819,
      "UK": 8820,
      "nvor": 8821,
      ".)\\": 8822,
      "ĠJahrhundert": 8823,
      "lÃ¶tz": 8824,
      "rucken": 8825,
      "9900": 8826,
      "flus": 8827,
      "ĠBor": 8828,
      "gemeinschaft": 8829,
      "ĠBevÃ¶lkerung": 8830,
      "Ġwechseln": 8831,
      "portal": 8832,
      "sem": 8833,
      "sachsen": 8834,
      "ye": 8835,
      "ĠAbhÃ¤ngigkeit": 8836,
      "079": 8837,
      "ize": 8838,
      "Ġmorgen": 8839,
      "Her": 8840,
      "ĠUnfall": 8841,
      "ĠnatÃ¼rlichen": 8842,
      "ĠUmfrage": 8843,
      "ĠMÃ¼ller": 8844,
      "ĠGlob": 8845,
      "Ġsport": 8846,
      "book": 8847,
      "ird": 8848,
      "beginn": 8849,
      "All": 8850,
      "ĠrÃ¼ck": 8851,
      "Ġaltern": 8852,
      "reichend": 8853,
      "MM": 8854,
      "262": 8855,
      "ĠMicrosoft": 8856,
      "Ã¼rn": 8857,
      "eser": 8858,
      "Fil": 8859,
      "9893": 8860,
      "industrie": 8861,
      "fÃ¤hig": 8862,
      "Ġmil": 8863,
      "ĠMittwoch": 8864,
      "ĠBehinder": 8865,
      "atungs": 8866,
      "Ġvorgesehen": 8867,
      "ĠCas": 8868,
      "IB": 8869,
      "\\\":\\\"": 8870,
      "Ġ48": 8871,
      "ual": 8872,
      "ĠDeb": 8873,
      "ĠVorladung": 8874,
      "Ġbegann": 8875,
      "ble": 8876,
      "Ġbehandelt": 8877,
      "ĠKÃ¼hl": 8878,
      "sinn": 8879,
      "NE": 8880,
      "bezie": 8881,
      "nutzung": 8882,
      "Ġherunterladen": 8883,
      "wirkung": 8884,
      "cal": 8885,
      "9891": 8886,
      "studium": 8887,
      "nin": 8888,
      "leid": 8889,
      "Ã¶ffnung": 8890,
      "ĠJul": 8891,
      "TC": 8892,
      "ĠHan": 8893,
      "ritz": 8894,
      "kar": 8895,
      "Ġjetz": 8896,
      "fertigt": 8897,
      "Ã¤tter": 8898,
      "949": 8899,
      "840": 8900,
      "schreiben": 8901,
      "ĠPayPal": 8902,
      "ĠMed": 8903,
      "nDi": 8904,
      "Ġstra": 8905,
      "ĠSei": 8906,
      "machung": 8907,
      "Ġvorge": 8908,
      "Ġweiteres": 8909,
      "647": 8910,
      "ĠDatenschutzbestimmungen": 8911,
      "8473453": 8912,
      "ĠPlus": 8913,
      "ĠKasten": 8914,
      "ĠKritik": 8915,
      "lands": 8916,
      "ugel": 8917,
      "Ġgelegen": 8918,
      "Ġvoller": 8919,
      "Ġbeweg": 8920,
      "170": 8921,
      "Ã¶rse": 8922,
      "lik": 8923,
      "081": 8924,
      "FG": 8925,
      "nViele": 8926,
      "738": 8927,
      "ĠzÃ¤hlen": 8928,
      "etaill": 8929,
      "essourcen": 8930,
      "stes": 8931,
      "west": 8932,
      "ingung": 8933,
      "ĠRadio": 8934,
      "ĠKommun": 8935,
      "nFr": 8936,
      "Ġmodernen": 8937,
      "ichtete": 8938,
      "okal": 8939,
      "ĠNahr": 8940,
      "Ġexper": 8941,
      "Ġausger": 8942,
      "ĠAusdruck": 8943,
      "ĠYork": 8944,
      "468": 8945,
      "Ġweiterer": 8946,
      "volution": 8947,
      "Ġirgendwie": 8948,
      "8795": 8949,
      "ĠÃ¼berzeugt": 8950,
      "ĠMinister": 8951,
      "ĠHal": 8952,
      "9960": 8953,
      "ci": 8954,
      "279": 8955,
      "ĠAnk": 8956,
      "9747": 8957,
      "ĠKonzept": 8958,
      "fristig": 8959,
      "Ġbeziehen": 8960,
      "wein": 8961,
      "Ġpolitische": 8962,
      "ĠAktionen": 8963,
      "9822": 8964,
      "ged": 8965,
      "Ġschwar": 8966,
      "El": 8967,
      "beweg": 8968,
      "maÃŁen": 8969,
      "ĠLeiter": 8970,
      "vier": 8971,
      "Ġmed": 8972,
      "667": 8973,
      "ĠÃ¶ffentlich": 8974,
      "Ġerleich": 8975,
      "ĠRel": 8976,
      "risten": 8977,
      "ĠUnterschied": 8978,
      "ĠStaaten": 8979,
      "ĠMand": 8980,
      "Ġuse": 8981,
      "Ġerteil": 8982,
      "Ġgutes": 8983,
      "nPass": 8984,
      "RA": 8985,
      "ĠFÃ¼": 8986,
      "ĠBetroffenen": 8987,
      "felder": 8988,
      "nIst": 8989,
      "ĠSein": 8990,
      "048": 8991,
      "Ġsteuer": 8992,
      "Ġbekomm": 8993,
      "Ġzahlen": 8994,
      "ĠLesen": 8995,
      "ĠDafÃ¼r": 8996,
      "essel": 8997,
      "bauen": 8998,
      "nIntern": 8999,
      "droid": 9000,
      "ĠGeschenke": 9001,
      "849": 9002,
      "auert": 9003,
      "sthe": 9004,
      "station": 9005,
      "ĠBur": 9006,
      "nFil": 9007,
      "Ġbessere": 9008,
      "nThemen": 9009,
      "ĠPerspe": 9010,
      "ĠGestaltung": 9011,
      "ĠMethoden": 9012,
      "99963": 9013,
      "ĠWachst": 9014,
      "ĠVorteil": 9015,
      "\\\",\\\"": 9016,
      "752": 9017,
      "9995091": 9018,
      "Ġzeich": 9019,
      "QL": 9020,
      "ringen": 9021,
      "ĠOp": 9022,
      "Ġdauerhaft": 9023,
      "ĠWerte": 9024,
      "jekten": 9025,
      "Spe": 9026,
      "ĠBericht": 9027,
      "PG": 9028,
      "brem": 9029,
      "abrik": 9030,
      "Ġgez": 9031,
      "efrei": 9032,
      "ZG": 9033,
      "modell": 9034,
      "062": 9035,
      "('": 9036,
      "ðĿ": 9037,
      "Ġentf": 9038,
      "wÃ¤rts": 9039,
      "ĠUrlaubs": 9040,
      "ĠLÃ¤nge": 9041,
      "ĠMeld": 9042,
      "ondon": 9043,
      "ĠLieblings": 9044,
      "ĠStÃ¤dte": 9045,
      "Ġgl": 9046,
      "WM": 9047,
      "znei": 9048,
      "gebnisse": 9049,
      "HO": 9050,
      "ĠVoraussetzungen": 9051,
      "artigen": 9052,
      "nNeue": 9053,
      "ĠTablet": 9054,
      "ĠLeiden": 9055,
      "Ġkultur": 9056,
      "IO": 9057,
      "rachte": 9058,
      "rochen": 9059,
      "9883": 9060,
      "ĠKro": 9061,
      "nStand": 9062,
      "gestimmt": 9063,
      "nOb": 9064,
      "Ġif": 9065,
      "Ġkommun": 9066,
      "ĠKooperation": 9067,
      "Ġdenke": 9068,
      "mas": 9069,
      "ĠWol": 9070,
      "ĠanschlieÃŁend": 9071,
      "enne": 9072,
      "ĠDaniel": 9073,
      "Ac": 9074,
      "any": 9075,
      "ĠVerlauf": 9076,
      "WG": 9077,
      "Ġhinweggehen": 9078,
      "recher": 9079,
      "041": 9080,
      "Ġinteressante": 9081,
      "Ġinformation": 9082,
      "arbeitende": 9083,
      "Ġ{{": 9084,
      "ĠEinfach": 9085,
      "----------------": 9086,
      "ĠÃ¼berprÃ¼fen": 9087,
      "ĠgefÃ¼hrt": 9088,
      "ĠTeams": 9089,
      "Ġerscheinen": 9090,
      "zension": 9091,
      "9988837": 9092,
      "ĠRoh": 9093,
      "ĠÃ¤hnlich": 9094,
      "beits": 9095,
      "ĠHeute": 9096,
      "sdaten": 9097,
      "9017": 9098,
      "nDeutschland": 9099,
      "059": 9100,
      "vision": 9101,
      "ĠVerteidig": 9102,
      "nhttp": 9103,
      "nDen": 9104,
      "Ġentnehmen": 9105,
      "falen": 9106,
      "Ġgra": 9107,
      "ĠmÃ¶gliche": 9108,
      "haften": 9109,
      "va": 9110,
      "ĠHannover": 9111,
      "derung": 9112,
      "997223": 9113,
      "nTisch": 9114,
      "ĠGru": 9115,
      "Ġdur": 9116,
      "Ġgebe": 9117,
      "dex": 9118,
      "ires": 9119,
      "ĠLinie": 9120,
      "ĠBier": 9121,
      "2009": 9122,
      "+++": 9123,
      "ĠjÃ¼n": 9124,
      "tigte": 9125,
      "Ġdagegen": 9126,
      "Ġmy": 9127,
      "ĠFormat": 9128,
      "ĠEd": 9129,
      "osk": 9130,
      "stern": 9131,
      "board": 9132,
      "Ġeindeutige": 9133,
      "grÃ¶ÃŁ": 9134,
      "Ġkauf": 9135,
      "Ġallgemein": 9136,
      "ĠFlÃ¼cht": 9137,
      "Ġmiteinander": 9138,
      "bÃ¼rger": 9139,
      "9876": 9140,
      "SCH": 9141,
      "ĠLaut": 9142,
      "438": 9143,
      "ĠBerliner": 9144,
      "DEN": 9145,
      "orben": 9146,
      "ĠFilter": 9147,
      "ton": 9148,
      "839": 9149,
      "HY": 9150,
      "Ġme": 9151,
      "KV": 9152,
      "ĠVerpflichtung": 9153,
      "ĠGeorg": 9154,
      "ĠBundestag": 9155,
      "etzung": 9156,
      "nAngeb": 9157,
      "Ġsc": 9158,
      "ikanischen": 9159,
      "9897": 9160,
      "ĠMotiv": 9161,
      "nFoto": 9162,
      "9874": 9163,
      "Ġ400": 9164,
      "nOpenStreetMap": 9165,
      "Ġvern": 9166,
      "nergie": 9167,
      "ĠPersÃ¶nlichkeit": 9168,
      "ĠAnliegen": 9169,
      "lÃ¤sslich": 9170,
      "irurg": 9171,
      "Str": 9172,
      "ichtigt": 9173,
      "anner": 9174,
      "format": 9175,
      "ĠReifen": 9176,
      "ypen": 9177,
      "ĠErzeugt": 9178,
      "ĠverÃ¤ndert": 9179,
      "Ġexist": 9180,
      "ZX": 9181,
      "ĠIdent": 9182,
      "Ġzeig": 9183,
      "ĠBrowsers": 9184,
      "ĠKlaus": 9185,
      "bereiche": 9186,
      "sonsten": 9187,
      "Ġneuesten": 9188,
      "stoffen": 9189,
      "Richtlinie": 9190,
      "ML": 9191,
      "digt": 9192,
      "ĠgrÃ¶ÃŁer": 9193,
      "ĠGetrÃ¤n": 9194,
      "wege": 9195,
      "ays": 9196,
      "nFolgen": 9197,
      "Neu": 9198,
      "IQ": 9199,
      "ized": 9200,
      "634": 9201,
      "859": 9202,
      "UX": 9203,
      "Ġdisku": 9204,
      "452": 9205,
      "ĠMilch": 9206,
      "ools": 9207,
      "ktiver": 9208,
      "ĠGeneral": 9209,
      "ND": 9210,
      "Ġkommenden": 9211,
      "mung": 9212,
      "93739265": 9213,
      "ject": 9214,
      "Ġused": 9215,
      "Ġgesellschaft": 9216,
      "isierten": 9217,
      "Ġirgendw": 9218,
      "Sport": 9219,
      "betreiber": 9220,
      "Ġphys": 9221,
      "aka": 9222,
      "ĠLandkreis": 9223,
      "dlich": 9224,
      "Ġjahr": 9225,
      "052": 9226,
      "ĠSitzung": 9227,
      "ĠCA": 9228,
      "PO": 9229,
      "ieur": 9230,
      "Ġbeeinflus": 9231,
      "430": 9232,
      "ĠVergangenheit": 9233,
      "ĠAnlagen": 9234,
      "JJ": 9235,
      "Ġren": 9236,
      "win": 9237,
      "lehre": 9238,
      "ĠVerantwortliche": 9239,
      "ĠEmail": 9240,
      "9835": 9241,
      "ĠWasch": 9242,
      "Ġwachsen": 9243,
      "Ã³": 9244,
      "070": 9245,
      "Ġberu": 9246,
      "echte": 9247,
      "\\\".\\": 9248,
      "hes": 9249,
      "ĠAf": 9250,
      "ĠMilliarden": 9251,
      "ĠWÃ¼nsche": 9252,
      "senz": 9253,
      "Ġries": 9254,
      "ura": 9255,
      "Ġeingestellt": 9256,
      "gewiesen": 9257,
      "Ġproblem": 9258,
      "ĠBurg": 9259,
      "ĠTats": 9260,
      "ĠgroÃŁes": 9261,
      "usstsein": 9262,
      "190": 9263,
      "ĠTischtennis": 9264,
      "Ġmachte": 9265,
      "9918": 9266,
      "ĠWorld": 9267,
      "ĠKrankheit": 9268,
      "ĠRie": 9269,
      "94525": 9270,
      "vergleich": 9271,
      "abelle": 9272,
      "Ġherab": 9273,
      "prechen": 9274,
      "269": 9275,
      "ĠTick": 9276,
      "741": 9277,
      "typ": 9278,
      "Ġwidersprechen": 9279,
      "umenten": 9280,
      "Ġjeweilige": 9281,
      "igte": 9282,
      "ria": 9283,
      "99983": 9284,
      "ĠAluminium": 9285,
      "ĠTrotz": 9286,
      "ĠSchalt": 9287,
      "Ã¤mpfen": 9288,
      "pping": 9289,
      "Ã¤testens": 9290,
      "werbs": 9291,
      "Ġauftreten": 9292,
      "nÃĦhnliche": 9293,
      "tex": 9294,
      "arriere": 9295,
      "Che": 9296,
      "nSe": 9297,
      "azit": 9298,
      "osen": 9299,
      "rÃ¼stung": 9300,
      "ody": 9301,
      ",-": 9302,
      "Ġgewonnen": 9303,
      "Ġsan": 9304,
      "082": 9305,
      "ĠerhÃ¶ht": 9306,
      "zÃ¼ge": 9307,
      "Ðµ": 9308,
      "Ġconsent": 9309,
      "nHand": 9310,
      "nÃĸff": 9311,
      "ĠSolar": 9312,
      "ĠKrÃ¤": 9313,
      "ĠBenutzung": 9314,
      "ĠgeÃ¤ndert": 9315,
      "Ġpolitischen": 9316,
      "Ġgekenn": 9317,
      "431": 9318,
      "012": 9319,
      "ĠBerichtigung": 9320,
      "ĠPoly": 9321,
      "EV": 9322,
      "jemand": 9323,
      "Ã¼llen": 9324,
      "ĠInstr": 9325,
      "suche": 9326,
      "ĠfÃ¼hrte": 9327,
      "Ġgesucht": 9328,
      "YX": 9329,
      "ĠLernen": 9330,
      "2525": 9331,
      "itar": 9332,
      "Ġpositiv": 9333,
      "ĠNutzungsbedingungen": 9334,
      ".\\\"\\": 9335,
      "cy": 9336,
      "SU": 9337,
      "euerung": 9338,
      "Book": 9339,
      "DG": 9340,
      "zeichnen": 9341,
      "hema": 9342,
      "Ġmonat": 9343,
      "040": 9344,
      "772": 9345,
      "HC": 9346,
      "ĠSchreiben": 9347,
      "Ġalleine": 9348,
      "fassungs": 9349,
      "YL": 9350,
      "Ġherum": 9351,
      "ants": 9352,
      "ĠKamera": 9353,
      "Ġcookie": 9354,
      "ĠFerienhaus": 9355,
      "Ġniemand": 9356,
      "arbon": 9357,
      "kinder": 9358,
      "aner": 9359,
      "Ġgegebenen": 9360,
      "Unter": 9361,
      "Ã¤cher": 9362,
      "ĠErfassung": 9363,
      "denten": 9364,
      "ĠBud": 9365,
      "kum": 9366,
      "mittag": 9367,
      "ĠZeitung": 9368,
      "657": 9369,
      "ĠStil": 9370,
      "078": 9371,
      "rennen": 9372,
      "9930": 9373,
      "ĠDanke": 9374,
      "euert": 9375,
      "ĠDresden": 9376,
      "ĠFitness": 9377,
      "reinigung": 9378,
      "ĠBedÃ¼rfnisse": 9379,
      "ĠInstitution": 9380,
      "ĠFahrer": 9381,
      "ĠÃĸffentlichkeit": 9382,
      "ids": 9383,
      "hlen": 9384,
      "EK": 9385,
      "Ġstaat": 9386,
      "ĠAufsichtsbehÃ¶rde": 9387,
      "mt": 9388,
      "ĠgegrÃ¼ndet": 9389,
      "dra": 9390,
      "ĠPoten": 9391,
      "ĠPl": 9392,
      "ĠTools": 9393,
      "nMitt": 9394,
      "ĠBuchsta": 9395,
      "ĠMie": 9396,
      "ĠEngagement": 9397,
      "HV": 9398,
      "mobil": 9399,
      "Ġ42": 9400,
      "nUnternehmen": 9401,
      "ded": 9402,
      "Ġdis": 9403,
      "Ġwasser": 9404,
      "NA": 9405,
      "94672436": 9406,
      "verordnung": 9407,
      "Ġkennt": 9408,
      "rÃ¤der": 9409,
      "nGrund": 9410,
      "ĠSperr": 9411,
      "9873": 9412,
      "ierst": 9413,
      "ĠVerpack": 9414,
      "steigend": 9415,
[...]
