{
  "version": "1.0",
  "truncation": null,
  "padding": null,
  "added_tokens": [
    {
      "id": 0,
      "content": "<|endoftext|>",
      "single_word": false,
      "lstrip": false,
      "rstrip": false,
      "normalized": true,
      "special": true
    }
  ],
  "normalizer": null,
  "pre_tokenizer": {
    "type": "ByteLevel",
    "add_prefix_space": false,
    "trim_offsets": true,
    "use_regex": true
  },
  "post_processor": {
    "type": "ByteLevel",
    "add_prefix_space": true,
    "trim_offsets": false,
    "use_regex": true
  },
  "decoder": {
    "type": "ByteLevel",
    "add_prefix_space": true,
    "trim_offsets": true,
    "use_regex": true
  },
  "model": {
    "type": "BPE",
    "dropout": null,
    "unk_token": null,
    "continuing_subword_prefix": "",
    "end_of_word_suffix": "",
    "fuse_unk": false,
    "byte_fallback": false,
    "ignore_merges": false,
    "vocab": {
      "<|endoftext|>": 0,
      "!": 1,
      "\"": 2,
      "#": 3,
      "$": 4,
      "%": 5,
      "&": 6,
      "'": 7,
      "(": 8,
      ")": 9,
      "*": 10,
      "+": 11,
      ",": 12,
      "-": 13,
      ".": 14,
      "/": 15,
      "0": 16,
      "1": 17,
      "2": 18,
      "3": 19,
      "4": 20,
      "5": 21,
      "6": 22,
      "7": 23,
      "8": 24,
      "9": 25,
      ":": 26,
      ";": 27,
      "<": 28,
      "=": 29,
      ">": 30,
      "?": 31,
      "@": 32,
      "A": 33,
      "B": 34,
      "C": 35,
      "D": 36,
      "E": 37,
      "F": 38,
      "G": 39,
      "H": 40,
      "I": 41,
      "J": 42,
      "K": 43,
      "L": 44,
      "M": 45,
      "N": 46,
      "O": 47,
      "P": 48,
      "Q": 49,
      "R": 50,
      "S": 51,
      "T": 52,
      "U": 53,
      "V": 54,
      "W": 55,
      "X": 56,
      "Y": 57,
      "Z": 58,
      "[": 59,
      "\\": 60,
      "]": 61,
      "^": 62,
      "_": 63,
      "`": 64,
      "a": 65,
      "b": 66,
      "c": 67,
      "d": 68,
      "e": 69,
      "f": 70,
      "g": 71,
      "h": 72,
      "i": 73,
      "j": 74,
      "k": 75,
      "l": 76,
      "m": 77,
      "n": 78,
      "o": 79,
      "p": 80,
      "q": 81,
      "r": 82,
      "s": 83,
      "t": 84,
      "u": 85,
      "v": 86,
      "w": 87,
      "x": 88,
      "y": 89,
      "z": 90,
      "{": 91,
      "|": 92,
      "}": 93,
      "~": 94,
      "¡": 95,
      "¢": 96,
      "£": 97,
      "¤": 98,
      "¥": 99,
      "¦": 100,
      "§": 101,
      "¨": 102,
      "©": 103,
      "ª": 104,
      "«": 105,
      "¬": 106,
      "®": 107,
      "¯": 108,
      "°": 109,
      "±": 110,
      "²": 111,
      "³": 112,
      "´": 113,
      "µ": 114,
      "¶": 115,
      "·": 116,
      "¸": 117,
      "¹": 118,
      "º": 119,
      "»": 120,
      "¼": 121,
      "½": 122,
      "¾": 123,
      "¿": 124,
      "À": 125,
      "Á": 126,
      "Â": 127,
      "Ã": 128,
      "Ä": 129,
      "Å": 130,
      "Æ": 131,
      "Ç": 132,
      "È": 133,
      "É": 134,
      "Ê": 135,
      "Ë": 136,
      "Ì": 137,
      "Í": 138,
      "Î": 139,
      "Ï": 140,
      "Ð": 141,
      "Ñ": 142,
      "Ò": 143,
      "Ó": 144,
      "Ô": 145,
      "Õ": 146,
      "Ö": 147,
      "×": 148,
      "Ø": 149,
      "Ù": 150,
      "Ú": 151,
      "Û": 152,
      "Ü": 153,
      "Ý": 154,
      "Þ": 155,
      "ß": 156,
      "à": 157,
      "á": 158,
      "â": 159,
      "ã": 160,
      "ä": 161,
      "å": 162,
      "æ": 163,
      "ç": 164,
      "è": 165,
      "é": 166,
      "ê": 167,
      "ë": 168,
      "ì": 169,
      "í": 170,
      "î": 171,
      "ï": 172,
      "ð": 173,
      "ñ": 174,
      "ò": 175,
      "ó": 176,
      "ô": 177,
      "õ": 178,
      "ö": 179,
      "÷": 180,
      "ø": 181,
      "ù": 182,
      "ú": 183,
      "û": 184,
      "ü": 185,
      "ý": 186,
      "þ": 187,
      "ÿ": 188,
      "Ā": 189,
      "ā": 190,
      "Ă": 191,
      "ă": 192,
      "Ą": 193,
      "ą": 194,
      "Ć": 195,
      "ć": 196,
      "Ĉ": 197,
      "ĉ": 198,
      "Ċ": 199,
      "ċ": 200,
      "Č": 201,
      "č": 202,
      "Ď": 203,
      "ď": 204,
      "Đ": 205,
      "đ": 206,
      "Ē": 207,
      "ē": 208,
      "Ĕ": 209,
      "ĕ": 210,
      "Ė": 211,
      "ė": 212,
      "Ę": 213,
      "ę": 214,
      "Ě": 215,
      "ě": 216,
      "Ĝ": 217,
      "ĝ": 218,
      "Ğ": 219,
      "ğ": 220,
      "Ġ": 221,
      "ġ": 222,
      "Ģ": 223,
      "ģ": 224,
      "Ĥ": 225,
      "ĥ": 226,
      "Ħ": 227,
      "ħ": 228,
      "Ĩ": 229,
      "ĩ": 230,
      "Ī": 231,
      "ī": 232,
      "Ĭ": 233,
      "ĭ": 234,
      "Į": 235,
      "į": 236,
      "İ": 237,
      "ı": 238,
      "Ĳ": 239,
      "ĳ": 240,
      "Ĵ": 241,
      "ĵ": 242,
      "Ķ": 243,
      "ķ": 244,
      "ĸ": 245,
      "Ĺ": 246,
      "ĺ": 247,
      "Ļ": 248,
      "ļ": 249,
      "Ľ": 250,
      "ľ": 251,
      "Ŀ": 252,
      "ŀ": 253,
      "Ł": 254,
      "ł": 255,
      "Ń": 256,
      "rt": 257,
      "ra": 258,
      "ss": 259,
      "me": 260,
      "ht": 261,
      "we": 262,
      "et": 263,
      "ĠA": 264,
      "Ġv": 265,
      "ig": 266,
      "hr": 267,
      "ĠD": 268,
      "cht": 269,
      "Ġb": 270,
      "zu": 271,
      "ch": 272,
      "ĠB": 273,
      "Ġg": 274,
      "si": 275,
      "ri": 276,
      "da": 277,
      "nn": 278,
      "em": 279,
      "Ġm": 280,
      "ĠM": 281,
      "Ġn": 282,
      "rs": 283,
      "la": 284,
      "wi": 285,
      "Ġzu": 286,
      "lt": 287,
      "Ġf": 288,
      "ĠW": 289,
      "ĠE": 290,
      "us": 291,
      "ze": 292,
      "eb": 293,
      "uf": 294,
      "ut": 295,
      "Ã¶": 296,
      "rd": 297,
      "nd": 298,
      "nde": 299,
      "ĠI": 300,
      "ta": 301,
      "ha": 302,
      "Ġda": 303,
      "ĠF": 304,
      "ĠK": 305,
      "ke": 306,
      "Ġbe": 307,
      "ro": 308,
      "20": 309,
      "ge": 310,
      "gen": 311,
      "ĠG": 312,
      "ĠP": 313,
      "il": 314,
      "Ġvo": 315,
      "kt": 316,
      "Ġge": 317,
      "io": 318,
      "ru": 319,
      "rn": 320,
      "ers": 321,
      "Ġk": 322,
      "im": 323,
      "ol": 324,
      "ĠT": 325,
      "Ġwe": 326,
      "ĠV": 327,
      "¼r": 328,
      "Ã¼r": 329,
      "sse": 330,
      "âĢ": 331,
      "ion": 332,
      "ĠH": 333,
      "Ġwi": 334,
      "Ġ(": 335,
      "Ġsi": 336,
      "ur": 337,
      "Ġ20": 338,
      "ed": 339,
      "fe": 340,
      "auf": 341,
      "ĠR": 342,
      "ige": 343,
      "ĠL": 344,
      "hre": 345,
      "ni": 346,
      "icht": 347,
      "Ġmi": 348,
      "men": 349,
      "rb": 350,
      "Ġo": 351,
      "rde": 352,
      "na": 353,
      "ma": 354,
      "ĠN": 355,
      "ert": 356,
      "Ġvon": 357,
      "tt": 358,
      "uch": 359,
      "Si": 360,
      "um": 361,
      "Ġauf": 362,
      "Ġ1": 363,
      "wa": 364,
      "ĠC": 365,
      "ĠfÃ¼r": 366,
      "ĠBe": 367,
      "ngen": 368,
      "so": 369,
      "ck": 370,
      "ĠSi": 371,
      "rÃ": 372,
      "pe": 373,
      "ach": 374,
      "oo": 375,
      "ft": 376,
      "am": 377,
      "ĠÃ": 378,
      "ĠZ": 379,
      "Ġmit": 380,
      "ÃŁ": 381,
      "Ġh": 382,
      "gs": 383,
      "ern": 384,
      "ab": 385,
      "om": 386,
      "tion": 387,
      "ls": 388,
      "ve": 389,
      "eh": 390,
      "Ġve": 391,
      "ĠSie": 392,
      "rk": 393,
      "ĠDa": 394,
      "nden": 395,
      "ĠU": 396,
      "lu": 397,
      "ĠJ": 398,
      "Ġha": 399,
      "ts": 400,
      "nf": 401,
      "Ġp": 402,
      "nne": 403,
      "aus": 404,
      "Ġdas": 405,
      "ssen": 406,
      "lte": 407,
      "Ġim": 408,
      "St": 409,
      "ue": 410,
      "ĠâĢ": 411,
      "ebe": 412,
      "rf": 413,
      "rden": 414,
      "gl": 415,
      "¼b": 416,
      "ngs": 417,
      "Ġ201": 418,
      "ĠDi": 419,
      "Ġl": 420,
      "nge": 421,
      "Sch": 422,
      "Ġnicht": 423,
      "rbe": 424,
      "zi": 425,
      "ĠGe": 426,
      "ĠVe": 427,
      "ki": 428,
      "igen": 429,
      "Ġt": 430,
      "Ġod": 431,
      "Ġode": 432,
      "Ġoder": 433,
      "tte": 434,
      "Ġso": 435,
      "ĠSt": 436,
      "sta": 437,
      "es": 438,
      "ese": 439,
      "des": 440,
      "Ġdes": 441,
      "ĠMa": 442,
      "hn": 443,
      "os": 444,
      "id": 445,
      "¼be": 446,
      "Ġaus": 447,
      "Se": 448,
      "ort": 449,
      "ede": 450,
      "Ġsich": 451,
      "rl": 452,
      "nnen": 453,
      "ĠSch": 454,
      "ĠO": 455,
      "Ġj": 456,
      "ĠRe": 457,
      "¼ber": 458,
      "nk": 459,
      "run": 460,
      "sp": 461,
      "och": 462,
      "mi": 463,
      "Ġwerden": 464,
      "nder": 465,
      "dem": 466,
      "ĠIn": 467,
      "ooki": 468,
      "ĠWe": 469,
      "ĠEi": 470,
      "eben": 471,
      "re": 472,
      "ere": 473,
      "rei": 474,
      "eren": 475,
      "auch": 476,
      "ot": 477,
      "kei": 478,
      "as": 479,
      "cha": 480,
      "rg": 481,
      "rung": 482,
      "nb": 483,
      "tÃ": 484,
      "Ġauch": 485,
      "Ġum": 486,
      "zen": 487,
      "ren": 488,
      "hl": 489,
      "ĠDe": 490,
      "fen": 491,
      "iese": 492,
      "ĠSe": 493,
      "du": 494,
      "wei": 495,
      "ken": 496,
      "ete": 497,
      "Ġme": 498,
      "ĠÃ¼ber": 499,
      "¤t": 500,
      "tu": 501,
      "Ġdem": 502,
      "ĠAn": 503,
      "ĠDat": 504,
      "Ġab": 505,
      "lÃ": 506,
      "ann": 507,
      "Ġes": 508,
      "ĠDate": 509,
      "rÃ¼": 510,
      "gt": 511,
      "lo": 512,
      "Ġbei": 513,
      "rbei": 514,
      "Ġsind": 515,
      "rma": 516,
      "Ġ2": 517,
      "zt": 518,
      "st": 519,
      "ist": 520,
      "ste": 521,
      "Ġist": 522,
      "ĠDaten": 523,
      "ĠEin": 524,
      "ba": 525,
      "Ġver": 526,
      "diese": 527,
      "ÃŁe": 528,
      "Ġdiese": 529,
      "Ġma": 530,
      "zei": 531,
      "ir": 532,
      "ĠkÃ¶": 533,
      "00": 534,
      "ĠJa": 535,
      "ib": 536,
      "pt": 537,
      "ungen": 538,
      "chte": 539,
      "Ġbi": 540,
      "ĠDie": 541,
      "rÃ¤": 542,
      "Ġwa": 543,
      "als": 544,
      "sa": 545,
      "rte": 546,
      "wÃ": 547,
      "gli": 548,
      "stel": 549,
      "ran": 550,
      "lten": 551,
      "Ġnach": 552,
      "pa": 553,
      "Ġ-": 554,
      "nfo": 555,
      "urch": 556,
      "Ġhab": 557,
      "and": 558,
      "ĠIhre": 559,
      "ub": 560,
      "ĠMi": 561,
      "mer": 562,
      "ĠCooki": 563,
      "Ġhabe": 564,
      "gi": 565,
      "ĠkÃ¶nnen": 566,
      "sit": 567,
      "ĠâĢĵ": 568,
      "ul": 569,
      "Ġwir": 570,
      "ide": 571,
      "ĠWeb": 572,
      "ehe": 573,
      "Ġz": 574,
      "..": 575,
      "nis": 576,
      "erst": 577,
      "Sta": 578,
      "pi": 579,
      "ĠPro": 580,
      "Ġdass": 581,
      "uss": 582,
      "tione": 583,
      "scha": 584,
      "âĢľ": 585,
      "lÃ¤": 586,
      "Ġals": 587,
      "ĠTe": 588,
      "ne": 589,
      "ine": 590,
      "eine": 591,
      "Ġeine": 592,
      "nen": 593,
      "ungs": 594,
      "ga": 595,
      "Ġwird": 596,
      "rie": 597,
      "ff": 598,
      "So": 599,
      "rh": 600,
      "lb": 601,
      "tionen": 602,
      "hne": 603,
      "ĠAb": 604,
      "Ġ202": 605,
      "ld": 606,
      "fa": 607,
      "emb": 608,
      "erte": 609,
      "oll": 610,
      "iv": 611,
      "sere": 612,
      "ka": 613,
      "nem": 614,
      "Ġ/": 615,
      "nsere": 616,
      "Ġwie": 617,
      "fÃ": 618,
      "erf": 619,
      "tern": 620,
      "nst": 621,
      "ĠFa": 622,
      "Ġwei": 623,
      "embe": 624,
      "Ġhi": 625,
      "durch": 626,
      "lun": 627,
      "ob": 628,
      "lung": 629,
      "inem": 630,
      "Di": 631,
      "ÂŃ": 632,
      "glich": 633,
      "ember": 634,
      "nkt": 635,
      "wÃ¤": 636,
      "keit": 637,
      "nz": 638,
      "ĠâĢŀ": 639,
      "chut": 640,
      "Ġ3": 641,
      "Ġhe": 642,
      "Ġkann": 643,
      "ieren": 644,
      "nforma": 645,
      "est": 646,
      "rm": 647,
      "tz": 648,
      "ĠMe": 649,
      "hren": 650,
      "ce": 651,
      "ia": 652,
      "Ġhaben": 653,
      "ust": 654,
      "gle": 655,
      "Ġeinen": 656,
      "Ġdurch": 657,
      "einem": 658,
      "unsere": 659,
      "nl": 660,
      "Ġunsere": 661,
      "ĠHe": 662,
      "Ġeiner": 663,
      "Ġzum": 664,
      "Ġzur": 665,
      "ĠBa": 666,
      "erso": 667,
      "od": 668,
      "Ġsie": 669,
      "etzt": 670,
      "Ġges": 671,
      "ndere": 672,
      "ute": 673,
      "Ġam": 674,
      "schut": 675,
      "ĠCookies": 676,
      "ĠPa": 677,
      "eder": 678,
      "rbeit": 679,
      "Ma": 680,
      "tun": 681,
      "Ġweit": 682,
      "ĠSo": 683,
      "Die": 684,
      "ies": 685,
      "ind": 686,
      "chr": 687,
      "op": 688,
      "ffen": 689,
      "ommen": 690,
      "zeit": 691,
      "ett": 692,
      "wu": 693,
      "ĠKa": 694,
      "site": 695,
      "cke": 696,
      "ĠSta": 697,
      "unkt": 698,
      "ug": 699,
      "eue": 700,
      "rat": 701,
      "tung": 702,
      "wo": 703,
      "uche": 704,
      "Ġli": 705,
      "ehen": 706,
      "chi": 707,
      "ĠVer": 708,
      "ua": 709,
      "ver": 710,
      "rli": 711,
      "ĠWa": 712,
      "geb": 713,
      "wend": 714,
      "Ġvor": 715,
      "nformationen": 716,
      "uts": 717,
      "chl": 718,
      "Ġvi": 719,
      "Ġwu": 720,
      "hi": 721,
      "ĠWi": 722,
      "cken": 723,
      "Ġla": 724,
      "ĠHa": 725,
      "Ġeinem": 726,
      "erung": 727,
      "ges": 728,
      "per": 729,
      "Ġre": 730,
      "ĠUn": 731,
      "Ġerf": 732,
      "tl": 733,
      "Ġhat": 734,
      "fi": 735,
      "ĠAus": 736,
      "ĠKo": 737,
      "fo": 738,
      "ĠNa": 739,
      "edi": 740,
      "ost": 741,
      "nts": 742,
      "tra": 743,
      "ĠWebsite": 744,
      "utsch": 745,
      "ĠVo": 746,
      "land": 747,
      "Ġc": 748,
      "schaft": 749,
      "net": 750,
      "¼ck": 751,
      "abe": 752,
      "igt": 753,
      "ex": 754,
      "nta": 755,
      "Ġ4": 756,
      "Ġvie": 757,
      "reich": 758,
      "Ġnur": 759,
      "imm": 760,
      "rund": 761,
      "ĠGes": 762,
      "erh": 763,
      "ĠLi": 764,
      "kte": 765,
      "Ã¤t": 766,
      "dies": 767,
      "tÃ¤": 768,
      "nal": 769,
      "ĠZe": 770,
      "Ġkei": 771,
      "pei": 772,
      "Ġbis": 773,
      "sten": 774,
      "ad": 775,
      "ĠLe": 776,
      "Ã¶glich": 777,
      "Ġdies": 778,
      "richt": 779,
      "ku": 780,
      "ile": 781,
      "ĠTa": 782,
      "nisch": 783,
      "ln": 784,
      "ner": 785,
      "Ġman": 786,
      "peich": 787,
      "vi": 788,
      "ĠAuf": 789,
      "va": 790,
      "to": 791,
      "rin": 792,
      "ik": 793,
      "Ġpa": 794,
      "Ġ0": 795,
      "andere": 796,
      "Ġandere": 797,
      "rz": 798,
      "nze": 799,
      "hle": 800,
      "Ġnoch": 801,
      "vo": 802,
      "pie": 803,
      "We": 804,
      "zie": 805,
      "wort": 806,
      "erste": 807,
      "weis": 808,
      "ľb": 809,
      "iert": 810,
      "Ġdu": 811,
      "chten": 812,
      "eten": 813,
      "Ġmehr": 814,
      "Ġ5": 815,
      "uel": 816,
      "ah": 817,
      "lungen": 818,
      "Ġ&": 819,
      "nes": 820,
      "Ġviel": 821,
      "zun": 822,
      "reis": 823,
      "ild": 824,
      "nnt": 825,
      "eg": 826,
      "th": 827,
      "ud": 828,
      "Ġ19": 829,
      "tÃ¤t": 830,
      "mp": 831,
      "hnen": 832,
      "uell": 833,
      "Ġst": 834,
      "ĠKu": 835,
      "fÃ¼": 836,
      "ĠMo": 837,
      "Ġfi": 838,
      "Ġsta": 839,
      "oogle": 840,
      "rech": 841,
      "nbe": 842,
      "ĠMÃ": 843,
      "ws": 844,
      "zung": 845,
      "Ġ2022": 846,
      "ment": 847,
      "ĠInformationen": 848,
      "Sp": 849,
      "ris": 850,
      "Da": 851,
      "rten": 852,
      "ĠBei": 853,
      "Sa": 854,
      "tere": 855,
      "rha": 856,
      "ÃŁen": 857,
      "Ã¼ck": 858,
      "ehmen": 859,
      "ters": 860,
      "eu": 861,
      "pp": 862,
      "rla": 863,
      "ode": 864,
      "igu": 865,
      "tli": 866,
      "ĠTh": 867,
      "iste": 868,
      "end": 869,
      "ĠNo": 870,
      "ger": 871,
      "ĠAl": 872,
      "Ġdieser": 873,
      "chli": 874,
      "Ġwenn": 875,
      "ffe": 876,
      "Ġ6": 877,
      "ehr": 878,
      "lls": 879,
      "sam": 880,
      "ache": 881,
      "Ġvers": 882,
      "Be": 883,
      "ibt": 884,
      "ĠZei": 885,
      "zo": 886,
      "sol": 887,
      "tlich": 888,
      "De": 889,
      "akt": 890,
      "Ġunserer": 891,
      "Ġabe": 892,
      "ote": 893,
      "spi": 894,
      "ĠNut": 895,
      "ster": 896,
      "twort": 897,
      "no": 898,
      "unktion": 899,
      "In": 900,
      "Ġaber": 901,
      "ĠWei": 902,
      "gra": 903,
      "ĠDas": 904,
      "ĠFra": 905,
      "Ġ|": 906,
      "olle": 907,
      "Ġpro": 908,
      "unde": 909,
      "igun": 910,
      "igung": 911,
      "ines": 912,
      "ko": 913,
      "lan": 914,
      "ĠFo": 915,
      "ili": 916,
      "nische": 917,
      "Ġ200": 918,
      "Ġhie": 919,
      "wie": 920,
      "Ġga": 921,
      "gel": 922,
      "ina": 923,
      "ĠSei": 924,
      "ive": 925,
      "ndern": 926,
      "rklÃ¤": 927,
      "ichte": 928,
      "Cooki": 929,
      "uni": 930,
      "ette": 931,
      "fte": 932,
      "ww": 933,
      "obe": 934,
      "ange": 935,
      "oli": 936,
      "Ġneue": 937,
      "fl": 938,
      "ents": 939,
      "ema": 940,
      "gie": 941,
      "be": 942,
      "weise": 943,
      "ĠSp": 944,
      "igkeit": 945,
      "rst": 946,
      "ĠUm": 947,
      "chÃ": 948,
      "halt": 949,
      "ruf": 950,
      "ress": 951,
      "ĠÃľb": 952,
      "hlen": 953,
      "spie": 954,
      "dt": 955,
      "ĠSeit": 956,
      "oste": 957,
      "ĠLa": 958,
      "ĠSa": 959,
      "chri": 960,
      "sst": 961,
      "...": 962,
      "isi": 963,
      "Ġvom": 964,
      "uto": 965,
      "tten": 966,
      "ini": 967,
      "Ġwar": 968,
      "Ġ\"": 969,
      "ou": 970,
      "eines": 971,
      "Ġhier": 972,
      "rÃ¶": 973,
      "egen": 974,
      "ĠArt": 975,
      "weit": 976,
      "Ġte": 977,
      "rum": 978,
      "ppe": 979,
      "ho": 980,
      "Ġwurde": 981,
      "eter": 982,
      "Ġko": 983,
      "nu": 984,
      "esen": 985,
      "Ġents": 986,
      "ĠBes": 987,
      "ĠDatenschut": 988,
      "ĠHi": 989,
      "Ġper": 990,
      "An": 991,
      "Ġet": 992,
      "ĠDer": 993,
      "rfa": 994,
      "iger": 995,
      "fÃ¤": 996,
      "ick": 997,
      "Ã¶s": 998,
      "olo": 999,
      "ike": 1000,
      "Ġange": 1001,
      "ziel": 1002,
      "zer": 1003,
      "sicht": 1004,
      "cho": 1005,
      "bl": 1006,
      "mei": 1007,
      "ĠSeite": 1008,
      "ekt": 1009,
      "ps": 1010,
      "rlich": 1011,
      "ĠCo": 1012,
      "pri": 1013,
      "omm": 1014,
      "recht": 1015,
      "wert": 1016,
      "ĠKi": 1017,
      "¼t": 1018,
      "inge": 1019,
      "pro": 1020,
      "ĠwÃ¤": 1021,
      "ure": 1022,
      "mit": 1023,
      "ast": 1024,
      "uen": 1025,
      "uelle": 1026,
      "seine": 1027,
      "Ġdann": 1028,
      "Ġkeine": 1029,
      "Ġseine": 1030,
      "ihre": 1031,
      "Ġwo": 1032,
      "hÃ": 1033,
      "ĠDeutsch": 1034,
      ").": 1035,
      "Ġihre": 1036,
      "ertra": 1037,
      "stellungen": 1038,
      "rke": 1039,
      "bar": 1040,
      "gene": 1041,
      "les": 1042,
      "eig": 1043,
      "Ġsol": 1044,
      "nbi": 1045,
      "ĠÂ": 1046,
      "ĠMÃ¤": 1047,
      "lch": 1048,
      "Ġerste": 1049,
      "Ġ9": 1050,
      "Dat": 1051,
      "Ġ7": 1052,
      "Ġgro": 1053,
      "ca": 1054,
      "ĠZeit": 1055,
      "ĠIhr": 1056,
      "inf": 1057,
      "use": 1058,
      "uli": 1059,
      "chs": 1060,
      "Ġ2021": 1061,
      "Ġsa": 1062,
      "ĠPerso": 1063,
      "¼n": 1064,
      "10": 1065,
      "hru": 1066,
      "mm": 1067,
      "Ġle": 1068,
      "Ġâ": 1069,
      "hrun": 1070,
      "hrung": 1071,
      "ĠMit": 1072,
      "Cookie": 1073,
      "),": 1074,
      "Ġjede": 1075,
      "ill": 1076,
      "rien": 1077,
      "chre": 1078,
      "rbeite": 1079,
      "22": 1080,
      "risch": 1081,
      "Date": 1082,
      "iden": 1083,
      "nut": 1084,
      "Ġwas": 1085,
      "Ġ8": 1086,
      "Re": 1087,
      "tal": 1088,
      "piel": 1089,
      "ktion": 1090,
      "gu": 1091,
      "ĠZu": 1092,
      "rad": 1093,
      "nun": 1094,
      "Ġkl": 1095,
      "uro": 1096,
      "rklÃ¤rung": 1097,
      "ĠJahre": 1098,
      "Ġmir": 1099,
      "ose": 1100,
      "ĠfÃ": 1101,
      "Ġsp": 1102,
      "Ġeines": 1103,
      "hÃ¤": 1104,
      "uchen": 1105,
      "Mail": 1106,
      "Ġhin": 1107,
      "eta": 1108,
      "erl": 1109,
      "ĠKl": 1110,
      "Ġperso": 1111,
      "chlie": 1112,
      "ibe": 1113,
      "Ġ2020": 1114,
      "nschut": 1115,
      "ĠBo": 1116,
      "halte": 1117,
      "ĠEr": 1118,
      "Ġwieder": 1119,
      "ziell": 1120,
      "etz": 1121,
      "resse": 1122,
      "ER": 1123,
      "Ġfinden": 1124,
      "scho": 1125,
      "sehr": 1126,
      "omp": 1127,
      "nters": 1128,
      "hÃ¶": 1129,
      "mal": 1130,
      "elb": 1131,
      "Ġimmer": 1132,
      "Ġgibt": 1133,
      "19": 1134,
      "erg": 1135,
      "vember": 1136,
      "rÃ¼ck": 1137,
      "Ġsehr": 1138,
      "Ġbet": 1139,
      "co": 1140,
      "erne": 1141,
      "nung": 1142,
      "nke": 1143,
      "eignet": 1144,
      "stell": 1145,
      "Ġ10": 1146,
      "ĠRei": 1147,
      "Ġsowie": 1148,
      "halten": 1149,
      "ube": 1150,
      "ĠWir": 1151,
      "gabe": 1152,
      "ĠEn": 1153,
      "rem": 1154,
      "Ġverwend": 1155,
      "einf": 1156,
      "Ġetwa": 1157,
      "enden": 1158,
      "achen": 1159,
      "Ġakt": 1160,
      "Ei": 1161,
      "nnte": 1162,
      "ook": 1163,
      "olge": 1164,
      "ĠStÃ¼ck": 1165,
      "Ĥ¬": 1166,
      "rbeitung": 1167,
      "ben": 1168,
      "zogene": 1169,
      "Al": 1170,
      "rvi": 1171,
      "11": 1172,
      "wil": 1173,
      "ntakt": 1174,
      "eigen": 1175,
      "ĠTi": 1176,
      "zept": 1177,
      "orde": 1178,
      "erten": 1179,
      "ĠmÃ": 1180,
      "Ġ2019": 1181,
      "ĠNe": 1182,
      "zerklÃ¤rung": 1183,
      "ĠIhnen": 1184,
      "ria": 1185,
      "selb": 1186,
      "will": 1187,
      "Ġbes": 1188,
      "ĠMai": 1189,
      "ĠWo": 1190,
      "ĠGoogle": 1191,
      "chÃ¤": 1192,
      "Ġscho": 1193,
      "Speich": 1194,
      "hrt": 1195,
      "ĠCookie": 1196,
      "ĠEs": 1197,
      "Ġbest": 1198,
      "efe": 1199,
      "ĠRa": 1200,
      "ihr": 1201,
      "ege": 1202,
      "ĠJahr": 1203,
      "--": 1204,
      "ĠNovember": 1205,
      "Ġihr": 1206,
      "rungen": 1207,
      "Der": 1208,
      "Ad": 1209,
      "rit": 1210,
      "fu": 1211,
      "itÃ¤t": 1212,
      "rfÃ": 1213,
      "dat": 1214,
      "EN": 1215,
      "rsch": 1216,
      "Ġ2018": 1217,
      "stu": 1218,
      "rmi": 1219,
      "ĠRecht": 1220,
      "ĠBet": 1221,
      "nenbe": 1222,
      "ima": 1223,
      "Wi": 1224,
      "12": 1225,
      "ĠVi": 1226,
      "nline": 1227,
      "nah": 1228,
      "Ġgeeignet": 1229,
      "ĠProdu": 1230,
      "Ġth": 1231,
      "Wir": 1232,
      "eti": 1233,
      "Datenschut": 1234,
      "Ve": 1235,
      "ober": 1236,
      "ĠMen": 1237,
      "zember": 1238,
      "uer": 1239,
      "com": 1240,
      "naly": 1241,
      "nenbezogene": 1242,
      "gun": 1243,
      "Ġselb": 1244,
      "sser": 1245,
      "ĠGa": 1246,
      "nat": 1247,
      "Ġeigen": 1248,
      "immt": 1249,
      "Ġschon": 1250,
      "Ġgegen": 1251,
      "ation": 1252,
      "ĠFunktion": 1253,
      "Das": 1254,
      "teg": 1255,
      "chni": 1256,
      "ĠEuro": 1257,
      "ktober": 1258,
      "Ġeinf": 1259,
      "lche": 1260,
      "Ġmuss": 1261,
      "ĠIhrer": 1262,
      "Ġmeine": 1263,
      "set": 1264,
      "ĠUhr": 1265,
      "sti": 1266,
      "ĠFe": 1267,
      "lde": 1268,
      "rfÃ¼": 1269,
      "gung": 1270,
      "tÃ¤nd": 1271,
      "urg": 1272,
      "¤ÃŁ": 1273,
      "bei": 1274,
      "Ġ2017": 1275,
      "Ġjed": 1276,
      "rge": 1277,
      "ĠNach": 1278,
      "ptember": 1279,
      "Ã¤ÃŁ": 1280,
      "Ġdiesem": 1281,
      "nfa": 1282,
      "Ge": 1283,
      "lage": 1284,
      "zeich": 1285,
      "//": 1286,
      "dun": 1287,
      "âĢ¦": 1288,
      "Mi": 1289,
      "ĠThe": 1290,
      "mein": 1291,
      "dung": 1292,
      "stelle": 1293,
      "ĠSte": 1294,
      "Ġohne": 1295,
      "rarbeitung": 1296,
      "luss": 1297,
      "gte": 1298,
      "Ġpassen": 1299,
      "Ġviele": 1300,
      "htt": 1301,
      "reit": 1302,
      "annt": 1303,
      "Ġmich": 1304,
      "isti": 1305,
      "ternehmen": 1306,
      "ĠmÃ¼": 1307,
      "ĠMedi": 1308,
      "ĠIntern": 1309,
      "ĠfÃ¼": 1310,
      "erei": 1311,
      "://": 1312,
      "ĠDezember": 1313,
      "Na": 1314,
      "twi": 1315,
      "ĠMens": 1316,
      "ĠÃ¤": 1317,
      "rch": 1318,
      "ĠDo": 1319,
      "geben": 1320,
      "llt": 1321,
      "nda": 1322,
      "enen": 1323,
      "spiel": 1324,
      "ry": 1325,
      "einge": 1326,
      "reiche": 1327,
      "Ġ2016": 1328,
      "res": 1329,
      "ĠOktober": 1330,
      "weck": 1331,
      "Te": 1332,
      "lÃ¼": 1333,
      "ĠMensch": 1334,
      "ugust": 1335,
      "nli": 1336,
      "ĠAu": 1337,
      "pril": 1338,
      "ĠLeben": 1339,
      "glei": 1340,
      "Ġthe": 1341,
      "ĠQ": 1342,
      "Ein": 1343,
      "Ġeinge": 1344,
      "Ġex": 1345,
      "ĠWenn": 1346,
      "nua": 1347,
      "Ġwurden": 1348,
      "ĠCa": 1349,
      "Ġna": 1350,
      "ual": 1351,
      "erha": 1352,
      "ĠSeptember": 1353,
      "llung": 1354,
      "ĠmÃ¶": 1355,
      "rga": 1356,
      "Ġanderen": 1357,
      "ĠmÃ¶glich": 1358,
      "mat": 1359,
      "ĠDiese": 1360,
      "hrend": 1361,
      "Ġverwendet": 1362,
      "ak": 1363,
      "nuar": 1364,
      "stellt": 1365,
      "tions": 1366,
      "Spiel": 1367,
      "reu": 1368,
      "Ġbeim": 1369,
      "oche": 1370,
      "tliche": 1371,
      "Ġste": 1372,
      "Ġnut": 1373,
      "rua": 1374,
      "ebrua": 1375,
      "ĠMÃ¤rz": 1376,
      "Ġausge": 1377,
      "riff": 1378,
      "oto": 1379,
      "Ko": 1380,
      "zia": 1381,
      "nbieter": 1382,
      "este": 1383,
      "rste": 1384,
      "Ġjeder": 1385,
      "ĠBi": 1386,
      "gend": 1387,
      "ĠAll": 1388,
      "Ġ18": 1389,
      "rne": 1390,
      "ĠHo": 1391,
      "vers": 1392,
      "ebruar": 1393,
      "ĠTeil": 1394,
      "orderlich": 1395,
      "wis": 1396,
      "ĠRo": 1397,
      "ebook": 1398,
      "ĠTo": 1399,
      "ber": 1400,
      "ĠJuli": 1401,
      "Ġje": 1402,
      "sammen": 1403,
      "ilie": 1404,
      "ufe": 1405,
      "ĠGrund": 1406,
      "ttel": 1407,
      "nÃ": 1408,
      "Ġwen": 1409,
      "usi": 1410,
      "trÃ¤": 1411,
      "nlich": 1412,
      "unters": 1413,
      "ĠJuni": 1414,
      "its": 1415,
      "pla": 1416,
      "nie": 1417,
      "All": 1418,
      "ĠAugust": 1419,
      "ĠApril": 1420,
      "Ġ2015": 1421,
      "ckt": 1422,
      "ĠIm": 1423,
      "Sy": 1424,
      "ĠAbs": 1425,
      "ĠâĤ¬": 1426,
      "egt": 1427,
      "ee": 1428,
      "igte": 1429,
      "chaft": 1430,
      "date": 1431,
      "cebook": 1432,
      "__": 1433,
      "ĠÃ¼b": 1434,
      "rate": 1435,
      "ĠÃľbe": 1436,
      "Ġerfol": 1437,
      "Ġzusammen": 1438,
      "rische": 1439,
      "wisch": 1440,
      "Ġ16": 1441,
      "eid": 1442,
      "Ġpersonenbezogene": 1443,
      "art": 1444,
      "Ġwicht": 1445,
      "Ġgut": 1446,
      "ione": 1447,
      "ĠPla": 1448,
      "ilen": 1449,
      "Ġerh": 1450,
      "Ġob": 1451,
      "gan": 1452,
      "log": 1453,
      "30": 1454,
      "reche": 1455,
      "ĠJanuar": 1456,
      "ubl": 1457,
      "rtschaft": 1458,
      "sio": 1459,
      "Ġunters": 1460,
      "ĠSpeich": 1461,
      "isten": 1462,
      "ule": 1463,
      "Ġze": 1464,
      "ĠHÃ": 1465,
      "wische": 1466,
      "las": 1467,
      "immu": 1468,
      "Ġ15": 1469,
      "Ġfa": 1470,
      "Wei": 1471,
      "ĠFÃ": 1472,
      "rkt": 1473,
      "soll": 1474,
      "Ġdamit": 1475,
      "immun": 1476,
      "ndes": 1477,
      "ikel": 1478,
      "Ġweite": 1479,
      "ĠFebruar": 1480,
      "immung": 1481,
      "ĠIch": 1482,
      "ĠDu": 1483,
      "Ġho": 1484,
      "Ġdazu": 1485,
      "ucht": 1486,
      "nken": 1487,
      "mb": 1488,
      "rÃ¤t": 1489,
      "Ġmachen": 1490,
      "uten": 1491,
      "ĠVers": 1492,
      "chiede": 1493,
      "ĠLei": 1494,
      "Ġsoll": 1495,
      "ĠMensche": 1496,
      "up": 1497,
      "ruppe": 1498,
      "Ġlassen": 1499,
      "enn": 1500,
      "15": 1501,
      "ils": 1502,
      "etzte": 1503,
      "ĠSpiel": 1504,
      "ologie": 1505,
      "Pro": 1506,
      "ĠInhalte": 1507,
      "rieb": 1508,
      "igi": 1509,
      "stalt": 1510,
      "ĠlÃ": 1511,
      "bo": 1512,
      "raus": 1513,
      "ssi": 1514,
      "www": 1515,
      "ĠAd": 1516,
      "Fa": 1517,
      "ĠMenschen": 1518,
      "nel": 1519,
      "ĠBro": 1520,
      "Ġerforderlich": 1521,
      "¤ch": 1522,
      "ĠZus": 1523,
      "18": 1524,
      "Ġgeht": 1525,
      "ollen": 1526,
      "ĠKÃ": 1527,
      "Ġwelche": 1528,
      "lungs": 1529,
      "ja": 1530,
      "qu": 1531,
      "osten": 1532,
      "wischen": 1533,
      "Ġselbst": 1534,
      "¤h": 1535,
      "ĠGesch": 1536,
      "ĠTra": 1537,
      "ven": 1538,
      "Ġind": 1539,
      "ink": 1540,
      "ĠmÃ¼ssen": 1541,
      "Ġbek": 1542,
      "rein": 1543,
      "sehen": 1544,
      "tworte": 1545,
      "stellen": 1546,
      "Ġdabei": 1547,
      "trag": 1548,
      "reits": 1549,
      "deine": 1550,
      "tego": 1551,
      "https": 1552,
      "ĠKon": 1553,
      "Ġeinfach": 1554,
      "sk": 1555,
      "unden": 1556,
      "Ġdeine": 1557,
      "eits": 1558,
      "ĠhÃ": 1559,
      "ssa": 1560,
      "ĠZug": 1561,
      "zial": 1562,
      "essen": 1563,
      "nzu": 1564,
      "tworten": 1565,
      "CH": 1566,
      "stem": 1567,
      "ommenta": 1568,
      "ĠInternet": 1569,
      "ider": 1570,
      "ĠY": 1571,
      "Ġ2014": 1572,
      "Ġgena": 1573,
      "Ġverwe": 1574,
      "Ka": 1575,
      "¤lt": 1576,
      "Ġjetzt": 1577,
      "mpress": 1578,
      "edin": 1579,
      "Ġ12": 1580,
      "ĠVerarbeitung": 1581,
      "schlie": 1582,
      "tur": 1583,
      "ĠKÃ¶": 1584,
      "Ã¶glichkeit": 1585,
      "ebt": 1586,
      "satz": 1587,
      "ire": 1588,
      "tter": 1589,
      "ĠDatenschutzerklÃ¤rung": 1590,
      "iben": 1591,
      "Ġhel": 1592,
      "rbeiten": 1593,
      "sb": 1594,
      "¤nge": 1595,
      "mpressum": 1596,
      "Ġganz": 1597,
      "ĠWebs": 1598,
      "ĠwÃ¤hrend": 1599,
      "nft": 1600,
      "nba": 1601,
      "ĠGeb": 1602,
      "sich": 1603,
      "ct": 1604,
      "za": 1605,
      "Ġetwas": 1606,
      "gesch": 1607,
      "nders": 1608,
      "erm": 1609,
      "zeptieren": 1610,
      "Ġgel": 1611,
      "eber": 1612,
      "era": 1613,
      "Ġof": 1614,
      "chn": 1615,
      "lter": 1616,
      "zl": 1617,
      "16": 1618,
      "ilfe": 1619,
      "sto": 1620,
      "ĠLand": 1621,
      "rach": 1622,
      "sy": 1623,
      "Ġgl": 1624,
      "ngeb": 1625,
      "ches": 1626,
      "ssenschaft": 1627,
      "ĠDeutschland": 1628,
      "14": 1629,
      "chÃ¤ft": 1630,
      "ĠWebse": 1631,
      "rage": 1632,
      "2022": 1633,
      "000": 1634,
      "olit": 1635,
      "ÃŁt": 1636,
      "Ã¶ffen": 1637,
      "ĠUnternehmen": 1638,
      "Ġbl": 1639,
      "ny": 1640,
      "Ġzwei": 1641,
      "etin": 1642,
      "do": 1643,
      "ĠErfa": 1644,
      "ĠUnt": 1645,
      "ĠHaus": 1646,
      "fal": 1647,
      "hop": 1648,
      "17": 1649,
      "Ġrecht": 1650,
      "ĠZi": 1651,
      "ĠWebsei": 1652,
      "ĠWebseit": 1653,
      "rp": 1654,
      "go": 1655,
      "ĠHer": 1656,
      "eme": 1657,
      "ĠEx": 1658,
      "Ġto": 1659,
      "Ġja": 1660,
      "ĠFi": 1661,
      "ĠVeran": 1662,
      "ĠWebseite": 1663,
      "Ġgeben": 1664,
      "rgi": 1665,
      "ĠAngeb": 1666,
      "rungs": 1667,
      "amt": 1668,
      "Ġvera": 1669,
      "Ich": 1670,
      "Ġak": 1671,
      "ĠBild": 1672,
      "rol": 1673,
      "nell": 1674,
      "ichten": 1675,
      "ĠLo": 1676,
      "ĠBl": 1677,
      "wendu": 1678,
      "wendun": 1679,
      "wendung": 1680,
      "Ġdiesen": 1681,
      "Ġni": 1682,
      "ĠJahren": 1683,
      "erhi": 1684,
      "spe": 1685,
      "mel": 1686,
      "chu": 1687,
      "Ġ14": 1688,
      "rlaub": 1689,
      "Ġgle": 1690,
      "gang": 1691,
      "zent": 1692,
      "13": 1693,
      "¼l": 1694,
      "eting": 1695,
      "rvice": 1696,
      "SA": 1697,
      "lag": 1698,
      "tÃ¼t": 1699,
      "ral": 1700,
      "reise": 1701,
      "Ġglei": 1702,
      "ĠVerb": 1703,
      "ragen": 1704,
      "chÃ¶": 1705,
      "ration": 1706,
      "ea": 1707,
      "zeu": 1708,
      "Ġtech": 1709,
      "erhin": 1710,
      "Ã¶l": 1711,
      "ĠAuto": 1712,
      "ilt": 1713,
      "ĠWelt": 1714,
      "vor": 1715,
      "chwe": 1716,
      "ĠnÃ": 1717,
      "Ġ2013": 1718,
      "Ġverwenden": 1719,
      "Alle": 1720,
      "pfl": 1721,
      "mo": 1722,
      "Ġmal": 1723,
      "tisti": 1724,
      "ĠwÃ": 1725,
      "ĠMedie": 1726,
      "rdi": 1727,
      "ĠMonat": 1728,
      "zieh": 1729,
      "IN": 1730,
      "ifi": 1731,
      "Ġerha": 1732,
      "lar": 1733,
      "Vo": 1734,
      "nzeigen": 1735,
      "Ġeigene": 1736,
      "tÃ¼r": 1737,
      "rbesse": 1738,
      "chse": 1739,
      "Ġgleich": 1740,
      "erb": 1741,
      "ssu": 1742,
      "ĠÃĸ": 1743,
      "setzen": 1744,
      "Ġdieses": 1745,
      "ionen": 1746,
      "ĠzurÃ¼ck": 1747,
      "Ġverb": 1748,
      "zli": 1749,
      "eil": 1750,
      "ĠBÃ": 1751,
      "emp": 1752,
      "ĠHand": 1753,
      "Ġfrei": 1754,
      "auss": 1755,
      "ffene": 1756,
      "21": 1757,
      "kten": 1758,
      "Ġentsp": 1759,
      "ersÃ¶": 1760,
      "ften": 1761,
      "Ġweiterhin": 1762,
      "kult": 1763,
      "tive": 1764,
      "ssun": 1765,
      "form": 1766,
      "schÃ¶": 1767,
      "ĠUnd": 1768,
      "ĠBenut": 1769,
      "ersÃ¶nlich": 1770,
      "ssung": 1771,
      "doch": 1772,
      "eutsch": 1773,
      "nce": 1774,
      "werk": 1775,
      "sÃ¤t": 1776,
      "ĠVide": 1777,
      "ĠKunden": 1778,
      "deutsch": 1779,
      "ĠFrei": 1780,
      "Ġdoch": 1781,
      "ĠHÃ¤": 1782,
      "Ã¤lt": 1783,
      "ĠSy": 1784,
      "unge": 1785,
      "SG": 1786,
      "gleich": 1787,
      "Pa": 1788,
      "lette": 1789,
      "Ġbestimmt": 1790,
      "ĠBunde": 1791,
      "Me": 1792,
      "Ġweitere": 1793,
      "mÃ¤ÃŁ": 1794,
      "ĠÃĦ": 1795,
      "Ġerst": 1796,
      "ucher": 1797,
      "rketing": 1798,
      "ĠOnline": 1799,
      "Nach": 1800,
      "Ã¶t": 1801,
      "Ġerhalten": 1802,
      "ndl": 1803,
      "50": 1804,
      "Ġ17": 1805,
      "ringen": 1806,
      "trÃ¤ge": 1807,
      "Ã¶rde": 1808,
      "Ġba": 1809,
      "lles": 1810,
      "neh": 1811,
      "zlich": 1812,
      "Ã¶h": 1813,
      "terne": 1814,
      "ĠEinwill": 1815,
      "verb": 1816,
      "ommt": 1817,
      "haus": 1818,
      "wse": 1819,
      "ult": 1820,
      "ĠMedien": 1821,
      "Ġ2012": 1822,
      "ĠGrÃ¼": 1823,
      "ord": 1824,
      "ĠStadt": 1825,
      "ĠSpeicherung": 1826,
      "jekt": 1827,
      "Ġerm": 1828,
      "gram": 1829,
      "weite": 1830,
      "sis": 1831,
      "ruck": 1832,
      "Ġverschiede": 1833,
      "sion": 1834,
      "tag": 1835,
      "Ġhelfen": 1836,
      "Ġgeb": 1837,
      "Ġnutzen": 1838,
      "seren": 1839,
      "zw": 1840,
      "ndi": 1841,
      "ustimmung": 1842,
      "Spa": 1843,
      "lekt": 1844,
      "cy": 1845,
      "Ġweiter": 1846,
      "hand": 1847,
      "wser": 1848,
      "Diese": 1849,
      "pen": 1850,
      "¼ch": 1851,
      "tÃ¼rl": 1852,
      "tÃ¼rli": 1853,
      "ÃŁl": 1854,
      "anzeigen": 1855,
      "ĠKinder": 1856,
      "aufe": 1857,
      "imi": 1858,
      "ĠIhrem": 1859,
      "rbeitet": 1860,
      "alt": 1861,
      "VO": 1862,
      "rbeits": 1863,
      "sbe": 1864,
      "ĠhÃ¤": 1865,
      "nseren": 1866,
      "Ġbereits": 1867,
      "ĠNutzung": 1868,
      "Ġgespeich": 1869,
      "Ġ13": 1870,
      "ĠFal": 1871,
      "ĠPo": 1872,
      "lig": 1873,
      "fern": 1874,
      "chluss": 1875,
      "ude": 1876,
      "unseren": 1877,
      "nstl": 1878,
      "fÃ¼r": 1879,
      "Ġunseren": 1880,
      "ĠGra": 1881,
      "weg": 1882,
      "ĠWÃ": 1883,
      "rts": 1884,
      "Ġjedoch": 1885,
      "tÃ¼rlich": 1886,
      "Ġzwischen": 1887,
      "ĠHin": 1888,
      "Ġbeso": 1889,
      "ĠPerson": 1890,
      "walt": 1891,
      "SÃ": 1892,
      "Ha": 1893,
      "ade": 1894,
      "uren": 1895,
      "Bei": 1896,
      "lso": 1897,
      "upt": 1898,
      "ĠCha": 1899,
      "nsta": 1900,
      "zielle": 1901,
      "Ġ30": 1902,
      "ial": 1903,
      "lossen": 1904,
      "ĠStra": 1905,
      "rauf": 1906,
      "Ġ*": 1907,
      "bi": 1908,
      "daten": 1909,
      "denn": 1910,
      "nisse": 1911,
      "Name": 1912,
      "ĠAnze": 1913,
      "cs": 1914,
      "je": 1915,
      "von": 1916,
      "ĠWoche": 1917,
      "Ġjederzeit": 1918,
      "Mit": 1919,
      "lagen": 1920,
      "ĠEinwilligung": 1921,
      "Ġbea": 1922,
      "Ġdenn": 1923,
      "pÃ": 1924,
      "izi": 1925,
      "ÃŁli": 1926,
      "udi": 1927,
      "ĠFahr": 1928,
      "ĠNutzer": 1929,
      "nahme": 1930,
      "fri": 1931,
      "Wenn": 1932,
      "ĠKommenta": 1933,
      "ĠDatenschutz": 1934,
      "bs": 1935,
      "Adresse": 1936,
      "amilie": 1937,
      "ĠgroÃŁe": 1938,
      "fer": 1939,
      "ĠschÃ¶": 1940,
      "ÃŁlich": 1941,
      "Ne": 1942,
      "Sie": 1943,
      "ĠArtikel": 1944,
      "rÃ¼ber": 1945,
      "Google": 1946,
      "ag": 1947,
      "sÃ": 1948,
      "twick": 1949,
      "Informationen": 1950,
      "raft": 1951,
      "Ġverbesse": 1952,
      "nste": 1953,
      "rken": 1954,
      "ĠAnaly": 1955,
      "Ġ[": 1956,
      "Ġkleine": 1957,
      "ĠFall": 1958,
      "ĠFÃ¼r": 1959,
      "Ġwichtig": 1960,
      "Ġand": 1961,
      "Ġerfa": 1962,
      "oten": 1963,
      "Ġbzw": 1964,
      "ĠlÃ¤": 1965,
      "Ãľb": 1966,
      "alles": 1967,
      "uft": 1968,
      "Ba": 1969,
      "Ġanzeigen": 1970,
      "ĠLÃ": 1971,
      "âĢĵ": 1972,
      "riva": 1973,
      "rkl": 1974,
      "chnell": 1975,
      "ĠIntere": 1976,
      "indet": 1977,
      "geh": 1978,
      "ĠDies": 1979,
      "ĠEine": 1980,
      "rÃ¼h": 1981,
      "gaben": 1982,
      "fall": 1983,
      "chlich": 1984,
      "schnell": 1985,
      "Ġauss": 1986,
      "also": 1987,
      "rank": 1988,
      "¤hr": 1989,
      "Ġalles": 1990,
      "¼ns": 1991,
      "Ġhatte": 1992,
      "utt": 1993,
      "Ġersten": 1994,
      "uellen": 1995,
      "Ġbed": 1996,
      "dire": 1997,
      "ĠZustimmung": 1998,
      "Ġ+": 1999,
      "Ġtechnische": 2000,
      "the": 2001,
      "uÃŁ": 2002,
      "iges": 2003,
      "lem": 2004,
      "ĠZugriff": 2005,
      "neben": 2006,
      "Ġfo": 2007,
      "Li": 2008,
      "mus": 2009,
      "ĠWie": 2010,
      "Ġhoh": 2011,
      "Spe": 2012,
      "chle": 2013,
      "Ġ11": 2014,
      "rmen": 2015,
      "Ġricht": 2016,
      "dir": 2017,
      "Ġble": 2018,
      "igten": 2019,
      "ĠKe": 2020,
      "Ġka": 2021,
      "Ġsondern": 2022,
      "gis": 2023,
      "ĠHie": 2024,
      "Ġta": 2025,
      "lauf": 2026,
      "Ġschnell": 2027,
      "lad": 2028,
      "Ġbestimmte": 2029,
      "punkt": 2030,
      "Ġdir": 2031,
      "rbu": 2032,
      "ole": 2033,
      "ĠTag": 2034,
      "rlin": 2035,
      "Ã¤h": 2036,
      "ĠVor": 2037,
      "ihnen": 2038,
      "Ġihnen": 2039,
      "Ġdeutsch": 2040,
      "ĠDurch": 2041,
      "emi": 2042,
      "cherh": 2043,
      "Ġsollte": 2044,
      "cker": 2045,
      "ĠÃľber": 2046,
      "rfol": 2047,
      "rufe": 2048,
      "ahmen": 2049,
      "frei": 2050,
      "ĠVertra": 2051,
      "orte": 2052,
      "¼che": 2053,
      "ĠAuss": 2054,
      "ĠPart": 2055,
      "ffi": 2056,
      "ĠDri": 2057,
      "ĠReis": 2058,
      "lden": 2059,
      "ommuni": 2060,
      "rig": 2061,
      "kultÃ¤t": 2062,
      "kommen": 2063,
      "ĠgehÃ¶": 2064,
      "grund": 2065,
      "ĠEnts": 2066,
      "ĠJu": 2067,
      "ktiv": 2068,
      "ildung": 2069,
      "nks": 2070,
      "gungen": 2071,
      "kl": 2072,
      "pÃ¤": 2073,
      "Ġca": 2074,
      "xt": 2075,
      "mini": 2076,
      "rgen": 2077,
      "Ġers": 2078,
      "ĠSpa": 2079,
      "reichen": 2080,
      "rbun": 2081,
      "rre": 2082,
      "Ġpersonenbezogenen": 2083,
      "rbung": 2084,
      "inen": 2085,
      "Ã¶gliche": 2086,
      "ĠEinstellungen": 2087,
      "igital": 2088,
      "mann": 2089,
      "ĠArbeit": 2090,
      "Ġdire": 2091,
      "Ġdaneben": 2092,
      "ationa": 2093,
      "23": 2094,
      "rku": 2095,
      "otwend": 2096,
      "He": 2097,
      "ubli": 2098,
      "wahl": 2099,
      "aufen": 2100,
      "Hi": 2101,
      "24": 2102,
      "Ġneuen": 2103,
      "ĠReg": 2104,
      "Ġ2011": 2105,
      "Ã¤hr": 2106,
      "Ġkom": 2107,
      "Som": 2108,
      "Wie": 2109,
      "nergi": 2110,
      "burg": 2111,
      "ST": 2112,
      "Ġmei": 2113,
      "Ġalso": 2114,
      "stellung": 2115,
      "AN": 2116,
      "rechen": 2117,
      "Ġwid": 2118,
      "ĠpersÃ¶nlich": 2119,
      "mbH": 2120,
      "ĠwÃ¼": 2121,
      "info": 2122,
      "su": 2123,
      "Ġ#": 2124,
      "lassen": 2125,
      "roffene": 2126,
      "sh": 2127,
      "ĠmÃ¶chten": 2128,
      "kal": 2129,
      "Ġverbessern": 2130,
      "ndh": 2131,
      "Ġgeh": 2132,
      "rwe": 2133,
      "Ġoben": 2134,
      "po": 2135,
      "âĢĿ": 2136,
      "tand": 2137,
      "chnologie": 2138,
      "stÃ¤": 2139,
      "Ġaktiv": 2140,
      "Ġnu": 2141,
      "uÃŁe": 2142,
      "ty": 2143,
      "ĠIhren": 2144,
      "ĠMitgli": 2145,
      "âĢŀ": 2146,
      "ih": 2147,
      "nstle": 2148,
      "ĠSÃ": 2149,
      "Ġhoch": 2150,
      "Ġne": 2151,
      "Ġkommen": 2152,
      "ĠBuch": 2153,
      "hin": 2154,
      "Ġbin": 2155,
      "Ġhohe": 2156,
      "Su": 2157,
      "roll": 2158,
      "rauch": 2159,
      "Kontakt": 2160,
      "weil": 2161,
      "Un": 2162,
      "ĠVerwendung": 2163,
      "ĠOb": 2164,
      "ase": 2165,
      "ĠVie": 2166,
      "rom": 2167,
      "ĠnatÃ¼rlich": 2168,
      "zeug": 2169,
      "gisch": 2170,
      "Antworten": 2171,
      "ĠAm": 2172,
      "ĠEU": 2173,
      "sÃ¤tzlich": 2174,
      "ĠNews": 2175,
      "rial": 2176,
      "mente": 2177,
      "ĠArbeits": 2178,
      "ĠGro": 2179,
      "ĠBrowser": 2180,
      "ĠFunktione": 2181,
      "undh": 2182,
      "rant": 2183,
      "ĠZweck": 2184,
      "ĠGmbH": 2185,
      "ĠUnters": 2186,
      "ĠFunktionen": 2187,
      "ammen": 2188,
      "efo": 2189,
      "ational": 2190,
      "iner": 2191,
      "ĠUnte": 2192,
      "stand": 2193,
      "ĠThema": 2194,
      "Ġnun": 2195,
      "nh": 2196,
      "Ġletzte": 2197,
      "usch": 2198,
      "kÃ": 2199,
      "gÃ": 2200,
      "nger": 2201,
      "old": 2202,
      "nzen": 2203,
      "Wa": 2204,
      "ruch": 2205,
      "war": 2206,
      "ĠSeiten": 2207,
      "SGVO": 2208,
      "ells": 2209,
      "stung": 2210,
      "twortl": 2211,
      "twortli": 2212,
      "ĠWeitere": 2213,
      "hnl": 2214,
      "twortlich": 2215,
      "ets": 2216,
      "ĠSom": 2217,
      "lefo": 2218,
      "Ġihrer": 2219,
      "wand": 2220,
      "ĠKontakt": 2221,
      "ĠAnzeigen": 2222,
      "ĠMÃ¶glichkeit": 2223,
      "kunft": 2224,
      "ivid": 2225,
      "latt": 2226,
      "nstellungen": 2227,
      "pf": 2228,
      "Um": 2229,
      "rau": 2230,
      "rben": 2231,
      "drei": 2232,
      "odel": 2233,
      "met": 2234,
      "zte": 2235,
      "annte": 2236,
      "Ġkannst": 2237,
      "ĠDes": 2238,
      "99": 2239,
      "Ġmo": 2240,
      "ĠBesucher": 2241,
      "cheid": 2242,
      "hnli": 2243,
      "Ġsteht": 2244,
      "utz": 2245,
      "ĠNi": 2246,
      "Ġgemein": 2247,
      "Ġfre": 2248,
      "zug": 2249,
      "ci": 2250,
      "ph": 2251,
      "ĠAlle": 2252,
      "âĢľ,": 2253,
      "auto": 2254,
      "Ġessen": 2255,
      "ĠInhalt": 2256,
      "Ġerfolgt": 2257,
      "speich": 2258,
      "Ġstatt": 2259,
      "ĠPrÃ¤": 2260,
      "Ex": 2261,
      "Ġkonnte": 2262,
      "ĠHier": 2263,
      "chrÃ": 2264,
      "rade": 2265,
      "Ġfolge": 2266,
      "eut": 2267,
      "ĠIP": 2268,
      "erlesen": 2269,
      "bau": 2270,
      "oren": 2271,
      "Ġwenig": 2272,
      "Ġbeste": 2273,
      "Ġliegen": 2274,
      "Ġkein": 2275,
      "ef": 2276,
      "Auf": 2277,
      "etet": 2278,
      "Ġdrei": 2279,
      "ĠSchÃ": 2280,
      "letter": 2281,
      "ĠBundes": 2282,
      "fort": 2283,
      "ĠFacebook": 2284,
      "Ġverl": 2285,
      "enk": 2286,
      "ĠLauf": 2287,
      "chreib": 2288,
      "25": 2289,
      "rme": 2290,
      "llem": 2291,
      "stungen": 2292,
      "ĠDSGVO": 2293,
      "Ġgespeichert": 2294,
      "ostenl": 2295,
      "nmal": 2296,
      "Suche": 2297,
      "Ġsehen": 2298,
      "Ġwil": 2299,
      "erem": 2300,
      "rer": 2301,
      "red": 2302,
      "chrift": 2303,
      "ign": 2304,
      "bal": 2305,
      "ndard": 2306,
      "Ġ...": 2307,
      "rea": 2308,
      "inmal": 2309,
      "Ġkommt": 2310,
      "¼nd": 2311,
      "Ġtu": 2312,
      "Anbieter": 2313,
      "Ġscha": 2314,
      "rache": 2315,
      "einmal": 2316,
      "edia": 2317,
      "ĠZwe": 2318,
      "pl": 2319,
      "Ġseiner": 2320,
      "chrÃ¤": 2321,
      "chied": 2322,
      "ssion": 2323,
      "fun": 2324,
      "ware": 2325,
      "Ġakzeptieren": 2326,
      "urz": 2327,
      "port": 2328,
      "lÃ¤ch": 2329,
      "Ġeinmal": 2330,
      "kti": 2331,
      "Ġwill": 2332,
      "ĠSport": 2333,
      "mas": 2334,
      "ĠAbe": 2335,
      "ĠLebens": 2336,
      "Ġ24": 2337,
      "ĠName": 2338,
      "ĠErfahrung": 2339,
      "edingungen": 2340,
      "ker": 2341,
      "olz": 2342,
      "ics": 2343,
      "chts": 2344,
      "ĠZa": 2345,
      "ĠâĢľ": 2346,
      "innen": 2347,
      "ĠÂ»": 2348,
      "Ġheute": 2349,
      "ĠVa": 2350,
      "Ġpo": 2351,
      "ĠgrÃ¶": 2352,
      "Im": 2353,
      "dort": 2354,
      "ntere": 2355,
      "ĠWohn": 2356,
      "man": 2357,
      "Mehr": 2358,
      "Ġmacht": 2359,
      "rhalb": 2360,
      "wÃ¤h": 2361,
      "Ġ2010": 2362,
      "iere": 2363,
      "reten": 2364,
      "ehl": 2365,
      "Ġy": 2366,
      "09": 2367,
      "ĠGÃ": 2368,
      "rufen": 2369,
      "Ges": 2370,
      "denen": 2371,
      "ĠZie": 2372,
      "Ġdort": 2373,
      "ĠRahmen": 2374,
      "Ġ25": 2375,
      "hnlich": 2376,
      "Ġ100": 2377,
      "Ġdenen": 2378,
      "ĠSicherh": 2379,
      "ĠLÃ¶s": 2380,
      "spa": 2381,
      "ĠZusammen": 2382,
      "Ãľbe": 2383,
      "Ġwaren": 2384,
      "fan": 2385,
      "ĠPe": 2386,
      "Aus": 2387,
      "¤l": 2388,
      "rkli": 2389,
      "Ã¶glichen": 2390,
      "chun": 2391,
      "emester": 2392,
      "eim": 2393,
      "ĠMal": 2394,
      "ĠFamilie": 2395,
      "Ġopt": 2396,
      "tlichen": 2397,
      "gliche": 2398,
      "ĠPi": 2399,
      "Ġsiche": 2400,
      "ĠZah": 2401,
      "etails": 2402,
      "mittel": 2403,
      "hÃ¤n": 2404,
      "lÃ¤che": 2405,
      "gal": 2406,
      "Es": 2407,
      "ĠkÃ¶nnte": 2408,
      "Ja": 2409,
      "zungs": 2410,
      "ĠEnt": 2411,
      "rba": 2412,
      "âĢĻ": 2413,
      "ompl": 2414,
      "ĠDeutsche": 2415,
      "Ġsagt": 2416,
      "ĠFl": 2417,
      "tri": 2418,
      "chung": 2419,
      "Datenschutz": 2420,
      "ĠInt": 2421,
      "ĠPreis": 2422,
      "serem": 2423,
      "allem": 2424,
      "ĠNeu": 2425,
      "Ġallem": 2426,
      "kon": 2427,
      "spiele": 2428,
      "rieren": 2429,
      "ltern": 2430,
      "nserem": 2431,
      "unserem": 2432,
      "ebnis": 2433,
      "IT": 2434,
      "Ġunserem": 2435,
      "Ġsetzen": 2436,
      "----": 2437,
      "lektro": 2438,
      "ĠChr": 2439,
      "ĠId": 2440,
      "lug": 2441,
      "tut": 2442,
      "Impressum": 2443,
      "ted": 2444,
      "ufen": 2445,
      "icken": 2446,
      "ĠJo": 2447,
      "Ã¼ber": 2448,
      "gramm": 2449,
      "Ã¶he": 2450,
      "ĠMusi": 2451,
      "pps": 2452,
      "pflicht": 2453,
      "ian": 2454,
      "ĠVerfÃ¼": 2455,
      "Ġspe": 2456,
      "hrl": 2457,
      "xi": 2458,
      "ĠFragen": 2459,
      "ndli": 2460,
      "ĠkÃ": 2461,
      "odell": 2462,
      "tiv": 2463,
      "ĠFakultÃ¤t": 2464,
      "Ġtun": 2465,
      "Ġher": 2466,
      "kehr": 2467,
      "Ġbieten": 2468,
      "berei": 2469,
      "Ġdirekt": 2470,
      "Ġx": 2471,
      "erial": 2472,
      "ĠMin": 2473,
      "erstel": 2474,
      "wissenschaft": 2475,
      "his": 2476,
      "ĠWeit": 2477,
      "Ġgehe": 2478,
      "mitte": 2479,
      "ellschaft": 2480,
      "ander": 2481,
      "son": 2482,
      "ĠStel": 2483,
      "Was": 2484,
      "rgani": 2485,
      "rich": 2486,
      "Vi": 2487,
      "Ġbietet": 2488,
      "Ġmark": 2489,
      "ihren": 2490,
      "rchiv": 2491,
      "Ġvol": 2492,
      "Ġihren": 2493,
      "rklich": 2494,
      "ĠSpe": 2495,
      "ami": 2496,
      "ye": 2497,
      "ĠAuch": 2498,
      "ON": 2499,
      "nige": 2500,
      "ĠUni": 2501,
      "ernen": 2502,
      "ĠKla": 2503,
      "04": 2504,
      "zeinstellungen": 2505,
      "ngel": 2506,
      "ummer": 2507,
      "welt": 2508,
      "ĠHoch": 2509,
      "Bi": 2510,
      "oden": 2511,
      "SS": 2512,
      "ĠKatego": 2513,
      "ifizi": 2514,
      "ĠForm": 2515,
      "ĠCh": 2516,
      "zel": 2517,
      "Ġir": 2518,
      "deren": 2519,
      "Ġ22": 2520,
      "Sam": 2521,
      "Ġfest": 2522,
      "zin": 2523,
      "ĠBerlin": 2524,
      "nischen": 2525,
      "Ãľber": 2526,
      "ĠermÃ¶glichen": 2527,
      "inne": 2528,
      "Ġderen": 2529,
      "Ġemp": 2530,
      "Ġweil": 2531,
      "ĠRÃ": 2532,
      "ĠverfÃ¼": 2533,
      "Ġauto": 2534,
      "schwe": 2535,
      "immer": 2536,
      "gische": 2537,
      "nahmen": 2538,
      "prÃ¼": 2539,
      "utu": 2540,
      "mu": 2541,
      "hrer": 2542,
      "wÃ¶": 2543,
      "gin": 2544,
      "Ġke": 2545,
      "Zweck": 2546,
      "iebt": 2547,
      "ĠGo": 2548,
      "Ġspeich": 2549,
      "ĠProbl": 2550,
      "aste": 2551,
      "nfalls": 2552,
      "ĠTechnologie": 2553,
      "49": 2554,
      "lade": 2555,
      "Ġerl": 2556,
      "ard": 2557,
      "06": 2558,
      "ndert": 2559,
      "Ġhint": 2560,
      "____": 2561,
      "Ġsolch": 2562,
      "ĠFach": 2563,
      "ĠStell": 2564,
      "teil": 2565,
      "nni": 2566,
      "reite": 2567,
      "twicklung": 2568,
      "Ġ21": 2569,
      "Ġdarauf": 2570,
      "Ã¶r": 2571,
      "Ġgerne": 2572,
      "ĠReise": 2573,
      "ĠEl": 2574,
      "Ab": 2575,
      "Ġindem": 2576,
      "ĠWas": 2577,
      "rÃ¤te": 2578,
      "tÃ¼": 2579,
      "tics": 2580,
      "08": 2581,
      "ĠBetrieb": 2582,
      "cial": 2583,
      "nergie": 2584,
      "07": 2585,
      "chnik": 2586,
      "reland": 2587,
      "Ġstehen": 2588,
      "fung": 2589,
      "erstell": 2590,
      "angeb": 2591,
      "nÃ¶t": 2592,
      "indu": 2593,
      "ndlich": 2594,
      "Ġdeutsche": 2595,
      "01": 2596,
      "ĠHilfe": 2597,
      "Ġgem": 2598,
      "rhe": 2599,
      "ĠIreland": 2600,
      "inz": 2601,
      "ĠScha": 2602,
      "ĠEnde": 2603,
      "ĠFre": 2604,
      "Ġgilt": 2605,
      "eicht": 2606,
      "Ġverarbeitet": 2607,
      "Ġlesen": 2608,
      "ndel": 2609,
      "Ġausschlie": 2610,
      "Shop": 2611,
      "ret": 2612,
      "ĠProdukt": 2613,
      "Co": 2614,
      "ilm": 2615,
      "utun": 2616,
      "nner": 2617,
      "ĠBeitrÃ¤ge": 2618,
      "mati": 2619,
      "intere": 2620,
      "indun": 2621,
      "indung": 2622,
      "nach": 2623,
      "Ġinfo": 2624,
      "Ġunge": 2625,
      "enst": 2626,
      "ĠâĢ¦": 2627,
      "ĠRu": 2628,
      "Ġcm": 2629,
      "schre": 2630,
      "rna": 2631,
      "ĠRÃ¼ck": 2632,
      "hÃ¤ng": 2633,
      "ĠdarÃ¼ber": 2634,
      "Ġerg": 2635,
      "ziehungs": 2636,
      "ualitÃ¤t": 2637,
      "utung": 2638,
      "ĠTage": 2639,
      "ister": 2640,
      "Ġnotwend": 2641,
      "ĠText": 2642,
      "03": 2643,
      "inie": 2644,
      "Ġco": 2645,
      "ĠSto": 2646,
      "auÃŁe": 2647,
      "lÃ¼sse": 2648,
      "ĠStudi": 2649,
      "zÃ": 2650,
      "wohl": 2651,
      "wn": 2652,
      "nungs": 2653,
      "unbe": 2654,
      "etten": 2655,
      "eck": 2656,
      "Ġbesten": 2657,
      "Ġabge": 2658,
      "05": 2659,
      "Th": 2660,
      "Ġbitte": 2661,
      "ĠGeschÃ¤ft": 2662,
      "UN": 2663,
      "rivat": 2664,
      "ĠnÃ¤ch": 2665,
      "ttl": 2666,
      "eri": 2667,
      "ĠdafÃ¼r": 2668,
      "AR": 2669,
      "Ġeigenen": 2670,
      "Mo": 2671,
      "rter": 2672,
      "Ġbetroffene": 2673,
      "Ġvoll": 2674,
      "Ġinne": 2675,
      "Ġneu": 2676,
      "opf": 2677,
      "ĠZiel": 2678,
      "feld": 2679,
      "ĠSu": 2680,
      "Ġgesch": 2681,
      "DatenschutzerklÃ¤rung": 2682,
      "Ġmehre": 2683,
      "ihn": 2684,
      "Ġ2009": 2685,
      "Ġ:": 2686,
      "raum": 2687,
      "Essen": 2688,
      "rfahren": 2689,
      "ĠPfl": 2690,
      "liebt": 2691,
      "ille": 2692,
      "Ġihn": 2693,
      "ĠRechts": 2694,
      "Le": 2695,
      "Ġunbe": 2696,
      "ĠViel": 2697,
      "Ġintere": 2698,
      "¼d": 2699,
      "ĠpersÃ¶nliche": 2700,
      "ierung": 2701,
      "Ġliegt": 2702,
      "gten": 2703,
      "ron": 2704,
      "ĠGewi": 2705,
      "pÃ¤i": 2706,
      "ĠVol": 2707,
      "imal": 2708,
      "Weit": 2709,
      "ĠKom": 2710,
      "ĠMat": 2711,
      "nage": 2712,
      "Ġbra": 2713,
      "pÃ¤is": 2714,
      "Zur": 2715,
      "ĠBereich": 2716,
      "isierte": 2717,
      "sso": 2718,
      "ĠMonate": 2719,
      "ngst": 2720,
      "fÃ¤llt": 2721,
      "hna": 2722,
      "Ġmein": 2723,
      "ĠWÃ¤": 2724,
      "uter": 2725,
      "Ġlan": 2726,
      "Ġalt": 2727,
      "rbeiter": 2728,
      "ĠUSA": 2729,
      "Ġlo": 2730,
      "ĠBeitrag": 2731,
      "chter": 2732,
      "Ġsolche": 2733,
      "ziehen": 2734,
      "ndelt": 2735,
      "tistiken": 2736,
      "med": 2737,
      "ndest": 2738,
      "Ġkon": 2739,
      "olitik": 2740,
      "ĠBede": 2741,
      "esten": 2742,
      "Ġhttps": 2743,
      "ring": 2744,
      "ĠNachr": 2745,
      "ID": 2746,
      "ĠPh": 2747,
      "ĠbenÃ¶t": 2748,
      "hnt": 2749,
      "rle": 2750,
      "ĠDr": 2751,
      "ĠProdukte": 2752,
      "chrieben": 2753,
      "ĠauÃŁe": 2754,
      "immen": 2755,
      "feren": 2756,
      "ilde": 2757,
      "FÃ¼r": 2758,
      "nig": 2759,
      "sondere": 2760,
      "grÃ¼": 2761,
      "ĠX": 2762,
      "ĠTeam": 2763,
      "pÃ¤isch": 2764,
      "ĠErg": 2765,
      "ĠMita": 2766,
      "ys": 2767,
      "rona": 2768,
      "halb": 2769,
      "unb": 2770,
      "han": 2771,
      "ommunika": 2772,
      "rischen": 2773,
      "ĠAngebot": 2774,
      "kla": 2775,
      "urs": 2776,
      "mÃ": 2777,
      "wollen": 2778,
      "erklÃ¤": 2779,
      "Ġtro": 2780,
      "aut": 2781,
      "ĠFri": 2782,
      "ĠFÃ¼": 2783,
      "haft": 2784,
      "aktiv": 2785,
      "pÃ¤ische": 2786,
      "ĠStelle": 2787,
      "tze": 2788,
      "ĠLiefe": 2789,
      "ĠzusÃ¤tzlich": 2790,
      "matis": 2791,
      "Ġunb": 2792,
      "Ġ.": 2793,
      "chule": 2794,
      "Ġseinen": 2795,
      "sÃ¤": 2796,
      "etzl": 2797,
      "ĠEinige": 2798,
      "ĠgÃ": 2799,
      "Ġsonst": 2800,
      "ĠAnf": 2801,
      "wÃ¤hlen": 2802,
      "Cookies": 2803,
      "Ġvielen": 2804,
      "rigen": 2805,
      "ĠTre": 2806,
      "Ġwollen": 2807,
      "ĠVerfÃ¼gung": 2808,
      "twicke": 2809,
      "02": 2810,
      "ĠWeg": 2811,
      "ĠAber": 2812,
      "Ġzweite": 2813,
      "erla": 2814,
      "Ġ%": 2815,
      "Ġrund": 2816,
      "ĠBau": 2817,
      "ðŁ": 2818,
      "Ġsicher": 2819,
      "Ġwer": 2820,
      "pel": 2821,
      "out": 2822,
      "Ġwirklich": 2823,
      "part": 2824,
      "ĠGesundh": 2825,
      "ĠerklÃ¤": 2826,
      "Ġkostenl": 2827,
      "Art": 2828,
      "riert": 2829,
      "vie": 2830,
      "ĠRi": 2831,
      "forde": 2832,
      "nan": 2833,
      "rukt": 2834,
      "ĠOrt": 2835,
      "nc": 2836,
      "SP": 2837,
      "sste": 2838,
      "ĠBad": 2839,
      "orma": 2840,
      "plan": 2841,
      "ĠunterstÃ¼t": 2842,
      "ĠÃ¶": 2843,
      "osen": 2844,
      "lbe": 2845,
      "abel": 2846,
      "Ġpersonal": 2847,
      "Ġ23": 2848,
      "gehe": 2849,
      "get": 2850,
      "Â»": 2851,
      "lock": 2852,
      "Ġander": 2853,
      "Ġletzten": 2854,
      "matisch": 2855,
      "ĠhÃ¶": 2856,
      "GB": 2857,
      "omi": 2858,
      "ĠAr": 2859,
      "ĠMehr": 2860,
      "26": 2861,
      "tlicht": 2862,
      "anzu": 2863,
      "ĠwÃ¼rde": 2864,
      "mÃ¤ÃŁig": 2865,
      "tiona": 2866,
      "ĠCO": 2867,
      "Ġza": 2868,
      "Ġfindet": 2869,
      "rwa": 2870,
      "ĠWirtschaft": 2871,
      "Ġverst": 2872,
      "Ġhei": 2873,
      "rkauf": 2874,
      "emand": 2875,
      "Ġgehen": 2876,
      "ĠFrage": 2877,
      "ĠÃ¼be": 2878,
      "ĠPersonen": 2879,
      "ĠAuswahl": 2880,
      "Ġro": 2881,
      "ĠThemen": 2882,
      "nsten": 2883,
      "platz": 2884,
      "etzli": 2885,
      "ĠMan": 2886,
      "Ġwert": 2887,
      "Ġwide": 2888,
      "oth": 2889,
      "ĠStÃ": 2890,
      "News": 2891,
      "ĠLaufzeit": 2892,
      "¤d": 2893,
      "ums": 2894,
      "ĠMarketing": 2895,
      "Ġanzu": 2896,
      "Ġ199": 2897,
      "IE": 2898,
      "Ġ50": 2899,
      "ĠInsti": 2900,
      "ĠTran": 2901,
      "etzung": 2902,
      "ĠImpressum": 2903,
      "nÃ¼": 2904,
      "formen": 2905,
      "ĠSchwe": 2906,
      ".,": 2907,
      "Ti": 2908,
      "ĠBedeutung": 2909,
      "stÃ¤nd": 2910,
      "emo": 2911,
      "Ta": 2912,
      "ierte": 2913,
      "etzlich": 2914,
      "Ġih": 2915,
      "ĠspÃ¤t": 2916,
      "28": 2917,
      "nab": 2918,
      "ĠJahres": 2919,
      "twortliche": 2920,
      "Ġlit": 2921,
      "ngt": 2922,
      "hie": 2923,
      "raten": 2924,
      "gefÃ¼": 2925,
      "AT": 2926,
      "ĠGruppe": 2927,
      "ĠAugen": 2928,
      "Do": 2929,
      "haupt": 2930,
      "Ġlang": 2931,
      "Ã¤nge": 2932,
      "ĠStaa": 2933,
      "nzel": 2934,
      "sex": 2935,
      "igkeite": 2936,
      "schi": 2937,
      "ĠGeld": 2938,
      "Ġihm": 2939,
      "igkeiten": 2940,
      "nony": 2941,
      "ftware": 2942,
      "nko": 2943,
      "eina": 2944,
      "Tube": 2945,
      "27": 2946,
      "sisch": 2947,
      "ĠNetz": 2948,
      "âĢľ.": 2949,
      "Ġsollten": 2950,
      "ntra": 2951,
      "ellung": 2952,
      "ĠBesuch": 2953,
      "lick": 2954,
      "ĠBlick": 2955,
      "ĠVersand": 2956,
      "Ġwider": 2957,
      "racht": 2958,
      "ĠVert": 2959,
      "ness": 2960,
      "sbesondere": 2961,
      "Ġgrund": 2962,
      "ĠSchwei": 2963,
      "Ak": 2964,
      "bel": 2965,
      "Ġlange": 2966,
      "Ġfor": 2967,
      "ĠTechnologien": 2968,
      "aden": 2969,
      "tÃ¼ck": 2970,
      "darf": 2971,
      "ĠInte": 2972,
      "euer": 2973,
      "ula": 2974,
      "geme": 2975,
      "Ġ09": 2976,
      "ouTube": 2977,
      "ntwicke": 2978,
      "ĠausschlieÃŁlich": 2979,
      "inige": 2980,
      "ĠService": 2981,
      "ĠRicht": 2982,
      "rweise": 2983,
      "nto": 2984,
      "naus": 2985,
      "los": 2986,
      "29": 2987,
      "ĠSelb": 2988,
      "sid": 2989,
      "tional": 2990,
      "mers": 2991,
      "ĠKult": 2992,
      "Lo": 2993,
      "RE": 2994,
      "eres": 2995,
      "ufig": 2996,
      "Ġschwe": 2997,
      "xe": 2998,
      "ratung": 2999,
      "einige": 3000,
      "verl": 3001,
      "Ġnichts": 3002,
      "Ġget": 3003,
      "ntern": 3004,
      "merk": 3005,
      "Ġoft": 3006,
      "ml": 3007,
      "ĠRegel": 3008,
      "ingen": 3009,
      "entwicke": 3010,
      "Weitere": 3011,
      "ĠwÃ¤re": 3012,
      "melden": 3013,
      "Ġspeichern": 3014,
      "ssis": 3015,
      "inde": 3016,
      "minist": 3017,
      "ĠSam": 3018,
      "ĠMill": 3019,
      "rlabs": 3020,
      "zÃ¼": 3021,
      "ĠverÃ¶ffen": 3022,
      "llo": 3023,
      "Ġfreiwill": 3024,
      "ĠMu": 3025,
      "ĠWerbung": 3026,
      "ĠAnalytics": 3027,
      "ĠSchutz": 3028,
      "Ġgen": 3029,
      "chutz": 3030,
      "troll": 3031,
      "ratur": 3032,
      "¼ll": 3033,
      "eden": 3034,
      "staltu": 3035,
      "lang": 3036,
      "staltun": 3037,
      "ĠMann": 3038,
      "staltung": 3039,
      "richten": 3040,
      "ibl": 3041,
      "rse": 3042,
      "Ġeinige": 3043,
      "olf": 3044,
      "witter": 3045,
      "sie": 3046,
      "ttels": 3047,
      "nbiet": 3048,
      "iefe": 3049,
      "ĠFina": 3050,
      "Ġdavon": 3051,
      "Ġjeden": 3052,
      "Ġreg": 3053,
      "linie": 3054,
      "Ġneben": 3055,
      "Ġentwicke": 3056,
      "SE": 3057,
      "ĠInf": 3058,
      "tanden": 3059,
      "geber": 3060,
      "gruppe": 3061,
      "ĠCon": 3062,
      "ĠLÃ¤": 3063,
      "Ġeben": 3064,
      "ndeln": 3065,
      "chÃ¼t": 3066,
      "gar": 3067,
      "iderruf": 3068,
      "rche": 3069,
      "tes": 3070,
      "nformation": 3071,
      "ĠNamen": 3072,
      "vent": 3073,
      "qua": 3074,
      "stoff": 3075,
      "gut": 3076,
      "ĠEinf": 3077,
      "hnliche": 3078,
      "Sol": 3079,
      "ĠMei": 3080,
      "Ġbesteht": 3081,
      "ĠApp": 3082,
      "Ġentsprech": 3083,
      "nhe": 3084,
      "stagram": 3085,
      "ĠBra": 3086,
      "mes": 3087,
      "ĠGeschichte": 3088,
      "con": 3089,
      "ces": 3090,
      "ationale": 3091,
      "ĠBea": 3092,
      "Ġcooki": 3093,
      "rati": 3094,
      "Ġschre": 3095,
      "ĠÂ§": 3096,
      "ĠWasser": 3097,
      "kosten": 3098,
      "ĠKunst": 3099,
      "ĠGegen": 3100,
      "zah": 3101,
      "nderung": 3102,
      "fang": 3103,
      "urt": 3104,
      "setzt": 3105,
      "ext": 3106,
      "rdings": 3107,
      "utte": 3108,
      "Ġhalten": 3109,
      "ĠBeispiel": 3110,
      "ĠEinsatz": 3111,
      "ĠEnergie": 3112,
      "emen": 3113,
      "Ġgema": 3114,
      "Ġstellen": 3115,
      "Bes": 3116,
      "ĠHerzen": 3117,
      "geschlossen": 3118,
      "trags": 3119,
      "voll": 3120,
      "meri": 3121,
      "werb": 3122,
      "irch": 3123,
      "¤n": 3124,
      "ĠMitglied": 3125,
      "LE": 3126,
      "reiber": 3127,
      "ressen": 3128,
      "rdem": 3129,
      "ĠBenutzer": 3130,
      "gehen": 3131,
      "ly": 3132,
      "fest": 3133,
      "ndo": 3134,
      "Ġbesonders": 3135,
      "Ġkla": 3136,
      "Schri": 3137,
      "ĠgroÃŁen": 3138,
      "schlieÃŁen": 3139,
      "nagement": 3140,
      "tistis": 3141,
      "¤ll": 3142,
      "Ġ28": 3143,
      "tungs": 3144,
      "priva": 3145,
      "Ã¶se": 3146,
      "ĠMÃ¼n": 3147,
      "yl": 3148,
      "wes": 3149,
      "Ġjeweil": 3150,
      "ĠWare": 3151,
      "tistisch": 3152,
      "swert": 3153,
      "Bo": 3154,
      "ĠNutze": 3155,
      "tellung": 3156,
      "La": 3157,
      "tor": 3158,
      "ĠEigen": 3159,
      "ĠHam": 3160,
      "Ġgemeinsam": 3161,
      "ersch": 3162,
      "ĠWerk": 3163,
      "ĠKauf": 3164,
      "Â©": 3165,
      "ĠauswÃ¤hlen": 3166,
      ".âĢľ": 3167,
      "Ġby": 3168,
      "tre": 3169,
      "stra": 3170,
      "ĠNatur": 3171,
      "laden": 3172,
      "ĠProjekt": 3173,
      "stag": 3174,
      "ight": 3175,
      "chreibu": 3176,
      "chreibun": 3177,
      "uste": 3178,
      "Wo": 3179,
      "ĠFrauen": 3180,
      "zungen": 3181,
      "ĠmÃ¶chte": 3182,
      "ĠlÃ¤sst": 3183,
      "mach": 3184,
      "rganisa": 3185,
      "chreibung": 3186,
      "45": 3187,
      "Ġfunktion": 3188,
      "Ġerfahren": 3189,
      "ĠWeib": 3190,
      "atz": 3191,
      "ziale": 3192,
      "schrÃ¤": 3193,
      "prÃ¤": 3194,
      "Ġweiteren": 3195,
      "gemein": 3196,
      "mals": 3197,
      "ĠMaÃŁ": 3198,
      "nth": 3199,
      "Ġgerade": 3200,
      "Ġ2008": 3201,
      "ĠgroÃŁ": 3202,
      "iven": 3203,
      "ktione": 3204,
      "Ġgenau": 3205,
      "ilo": 3206,
      "erke": 3207,
      "ĠMusik": 3208,
      "wirtschaft": 3209,
      "mark": 3210,
      "wertu": 3211,
      "wertun": 3212,
      "ĠFolge": 3213,
      "ĠÃ¶ffen": 3214,
      "Ġ,": 3215,
      "wertung": 3216,
      "Ġgesetzlich": 3217,
      "erweise": 3218,
      "##": 3219,
      "Sei": 3220,
      "privacy": 3221,
      "ruh": 3222,
      "berg": 3223,
      "uld": 3224,
      "ĠPra": 3225,
      "fel": 3226,
      "âĤ¬": 3227,
      "nds": 3228,
      "heim": 3229,
      "Ġ26": 3230,
      "erwe": 3231,
      "ĠStre": 3232,
      "ĠFrank": 3233,
      "zahl": 3234,
      "que": 3235,
      "ĠInstitut": 3236,
      "rsche": 3237,
      "erstelle": 3238,
      "redi": 3239,
      "eher": 3240,
      "fft": 3241,
      "¼nsch": 3242,
      "abei": 3243,
      "Ġbesser": 3244,
      "'s": 3245,
      "\",": 3246,
      "load": 3247,
      "ĠJugend": 3248,
      "sicherung": 3249,
      "rstel": 3250,
      "Ġhast": 3251,
      "bes": 3252,
      "Ġbeiden": 3253,
      "our": 3254,
      "ĠSchwa": 3255,
      "ÃŁte": 3256,
      "nigen": 3257,
      "ĠLink": 3258,
      "Ġindivid": 3259,
      "Ġmeiner": 3260,
      "ĠBÃ¼": 3261,
      "tik": 3262,
      "nsi": 3263,
      "¼nst": 3264,
      "Datenschutzeinstellungen": 3265,
      "sts": 3266,
      "Ġ27": 3267,
      "Ġzwar": 3268,
      "chiedl": 3269,
      "chiedli": 3270,
      "isierung": 3271,
      "Einstellungen": 3272,
      "Ġspa": 3273,
      "ĠMark": 3274,
      "rato": 3275,
      "Â«": 3276,
      "gebene": 3277,
      "hrungen": 3278,
      "Ġon": 3279,
      "chiedlich": 3280,
      "ĠKommunika": 3281,
      "**": 3282,
      "ĠInteresse": 3283,
      "ĠBitte": 3284,
      "ĠKÃ¼": 3285,
      "fil": 3286,
      "rab": 3287,
      "rro": 3288,
      "Ġkaufen": 3289,
      "Akzeptieren": 3290,
      "Externe": 3291,
      "Ġbleiben": 3292,
      "emÃ": 3293,
      "statt": 3294,
      "nehmer": 3295,
      "ĠBenutze": 3296,
      "anony": 3297,
      "leicht": 3298,
      "ĠSpiele": 3299,
      "ings": 3300,
      "Ġus": 3301,
      "Ġinnerhalb": 3302,
      "Ver": 3303,
      "Ġstatistisch": 3304,
      "ersp": 3305,
      "lÃ¼ck": 3306,
      "Hie": 3307,
      "seinem": 3308,
      "ĠStand": 3309,
      "dÃ¼r": 3310,
      "Ġseinem": 3311,
      "nfan": 3312,
      "jÃ¤hr": 3313,
      "zeichnet": 3314,
      "¼nsche": 3315,
      "are": 3316,
      "Facebook": 3317,
      "ĠVerein": 3318,
      "ender": 3319,
      "ĠInd": 3320,
      "Ġmeisten": 3321,
      "ĠUS": 3322,
      "ppen": 3323,
      "Ġwohl": 3324,
      "Ã¼b": 3325,
      "ras": 3326,
      "hrungs": 3327,
      "Ġmusst": 3328,
      "runt": 3329,
      "ĠAnsp": 3330,
      "nsbesondere": 3331,
      "insbesondere": 3332,
      "ĠdÃ¼r": 3333,
      "2021": 3334,
      "ular": 3335,
      "mehr": 3336,
      "Eine": 3337,
      "finden": 3338,
      "ĠWebsit": 3339,
      "weisen": 3340,
      "Ġ2023": 3341,
      "Ġinformi": 3342,
      "bildung": 3343,
      "rver": 3344,
      "Ġerstel": 3345,
      "zon": 3346,
      "Ġunterschiedlich": 3347,
      "hof": 3348,
      "asch": 3349,
      "istik": 3350,
      "ĠAlt": 3351,
      "nungen": 3352,
      "Ġ=": 3353,
      "eth": 3354,
      "Ġessenziell": 3355,
      "Ga": 3356,
      "ĠZukunft": 3357,
      "Ġverhi": 3358,
      "Ġkeinen": 3359,
      "ĠHu": 3360,
      "ĠFrau": 3361,
      "Du": 3362,
      "¼cher": 3363,
      "Ġnehmen": 3364,
      "40": 3365,
      "ium": 3366,
      "ĠBlog": 3367,
      "olgen": 3368,
      "reifen": 3369,
      "fÃ¼hrung": 3370,
      "sport": 3371,
      "wer": 3372,
      "erecht": 3373,
      "arbeiten": 3374,
      "Ġsex": 3375,
      "Ġanony": 3376,
      "¤lle": 3377,
      "ĠMarkt": 3378,
      "gbar": 3379,
      "inzel": 3380,
      "Ġmm": 3381,
      "uben": 3382,
      "ĠLu": 3383,
      "isto": 3384,
      "Hier": 3385,
      "zeite": 3386,
      "Ġverschiedenen": 3387,
      "oliti": 3388,
      "nfang": 3389,
      "nno": 3390,
      "rri": 3391,
      "min": 3392,
      "ĠPat": 3393,
      "amte": 3394,
      "einzel": 3395,
      "ĠZahlungs": 3396,
      "ĠExp": 3397,
      "meldung": 3398,
      "EL": 3399,
      "istungen": 3400,
      "digital": 3401,
      "ĠPlatz": 3402,
      "ĠBeruf": 3403,
      "einz": 3404,
      "edingt": 3405,
      "jahr": 3406,
      "AL": 3407,
      "san": 3408,
      "ĠUnter": 3409,
      "ĠWu": 3410,
      "ĠKommentare": 3411,
      "Ġonline": 3412,
      "OR": 3413,
      "ssisch": 3414,
      "ildu": 3415,
      "ritta": 3416,
      "Ġlieb": 3417,
      "euch": 3418,
      "GefÃ¤llt": 3419,
      "Ġsogar": 3420,
      "Ġausbl": 3421,
      "Ġinsbesondere": 3422,
      "ĠCorona": 3423,
      "zeiten": 3424,
      "Ġeinzel": 3425,
      "user": 3426,
      "Ġstatistische": 3427,
      "ĠSystem": 3428,
      "ssan": 3429,
      "ĠSchri": 3430,
      "lat": 3431,
      "ball": 3432,
      "Ġgute": 3433,
      "ĠRad": 3434,
      "Fo": 3435,
      "stis": 3436,
      "Ġgemacht": 3437,
      "ende": 3438,
      "ĠTri": 3439,
      "Spi": 3440,
      "wach": 3441,
      "Ġ29": 3442,
      "versi": 3443,
      "Ġtra": 3444,
      "ĠKosten": 3445,
      "stadt": 3446,
      "inzu": 3447,
      "legen": 3448,
      "olen": 3449,
      "ktionen": 3450,
      "erner": 3451,
      "nien": 3452,
      "bereich": 3453,
      "ĠVerantwortliche": 3454,
      "Seit": 3455,
      "Ġeuch": 3456,
      "Ca": 3457,
      "Unsere": 3458,
      "freie": 3459,
      "lefon": 3460,
      "Ġbereit": 3461,
      "Ġauszu": 3462,
      "Spie": 3463,
      "ĠVideo": 3464,
      "Ġeinz": 3465,
      "ĠfrÃ¼h": 3466,
      "Ġganzen": 3467,
      "Ġpersonalisierte": 3468,
      "google": 3469,
      "suchen": 3470,
      "!!": 3471,
      "enke": 3472,
      "quem": 3473,
      "nderungen": 3474,
      "Ġihrem": 3475,
      "ĠAls": 3476,
      "Ġbef": 3477,
      "wuss": 3478,
      "ĠBÃ¼r": 3479,
      "olitis": 3480,
      "Ho": 3481,
      "rÃ¶ÃŁe": 3482,
      "wese": 3483,
      "ĠFoto": 3484,
      "bÃ": 3485,
      "ĠNewsletter": 3486,
      "ĠAt": 3487,
      "ĠInternets": 3488,
      "ks": 3489,
      "ĠgehÃ¶ren": 3490,
      "ftu": 3491,
      "einen": 3492,
      "ĠSchl": 3493,
      "Sc": 3494,
      "ĠÃ¼berhaupt": 3495,
      "intern": 3496,
      "Ġdah": 3497,
      "Ġmehrere": 3498,
      "sin": 3499,
      "Ġgewi": 3500,
      "Sach": 3501,
      "Ġdahe": 3502,
      "ftun": 3503,
      "ĠVors": 3504,
      "analy": 3505,
      "einzu": 3506,
      "Ġebe": 3507,
      "ftung": 3508,
      "ĠHÃ¤nden": 3509,
      "ĠprÃ¤": 3510,
      "stungs": 3511,
      "wagen": 3512,
      "ĠLandes": 3513,
      "Ġ>": 3514,
      "Ġrichtig": 3515,
      "Ġveran": 3516,
      "tieren": 3517,
      "utter": 3518,
      "mern": 3519,
      "60": 3520,
      "vert": 3521,
      "ĠYouTube": 3522,
      "Ġti": 3523,
      "Ġhinte": 3524,
      "rkun": 3525,
      "ĠSchla": 3526,
      "erungs": 3527,
      "No": 3528,
      "Ġheraus": 3529,
      "Ġirgend": 3530,
      "obilie": 3531,
      "ĠKommentar": 3532,
      "33": 3533,
      "ĠAngebote": 3534,
      "):": 3535,
      "Ãĸ": 3536,
      "rschu": 3537,
      "Ġausd": 3538,
      "rkung": 3539,
      "ĠWert": 3540,
      "Ġdaher": 3541,
      "bedingungen": 3542,
      "ĠRegion": 3543,
      "Ġeinzu": 3544,
      "Ġwiderrufen": 3545,
      "otel": 3546,
      "ĠÃ¼bern": 3547,
      "eaktiv": 3548,
      "deaktiv": 3549,
      "Weiterlesen": 3550,
      "ĠGl": 3551,
      "stisch": 3552,
      "Kl": 3553,
      "Ġleicht": 3554,
      "sl": 3555,
      "ĠDabei": 3556,
      "ĠVideos": 3557,
      "tatt": 3558,
      "td": 3559,
      "ĠForum": 3560,
      "90": 3561,
      "rdnung": 3562,
      "ĠLimi": 3563,
      "Ġaufge": 3564,
      "insta": 3565,
      "Ġwelch": 3566,
      "lder": 3567,
      "nutzt": 3568,
      "tzen": 3569,
      "istung": 3570,
      "sprÃ¤": 3571,
      "bare": 3572,
      "Ġwissen": 3573,
      "ĠSuche": 3574,
      "radi": 3575,
      "ĠzusÃ¤tzliche": 3576,
      "Ġexterne": 3577,
      "Ġgar": 3578,
      "ĠGebÃ": 3579,
      "nehmen": 3580,
      "Ġrei": 3581,
      "Marketing": 3582,
      "ĠPunkt": 3583,
      "Ġdigital": 3584,
      "Ġtrotz": 3585,
      "ĠMund": 3586,
      "ĠStÃ¤": 3587,
      "irche": 3588,
      "ebnisse": 3589,
      "....": 3590,
      "ĠNicht": 3591,
      "ĠSelbst": 3592,
      "nent": 3593,
      "mens": 3594,
      "erk": 3595,
      "ril": 3596,
      "ĠFuÃŁ": 3597,
      "rstellung": 3598,
      "smus": 3599,
      "itÃ¤te": 3600,
      "Ġteil": 3601,
      "rige": 3602,
      "itung": 3603,
      "ĠDienst": 3604,
      "ĠWeihna": 3605,
      "ĠAnt": 3606,
      "lege": 3607,
      "ÃĦ": 3608,
      "erwa": 3609,
      "rgu": 3610,
      "ĠMitte": 3611,
      "nhei": 3612,
      "ĠBilde": 3613,
      "ranken": 3614,
      "deut": 3615,
      "ĠInternetse": 3616,
      "if": 3617,
      "passen": 3618,
      "Ġr": 3619,
      "ĠBest": 3620,
      "bet": 3621,
      "ĠAngaben": 3622,
      "lange": 3623,
      "cal": 3624,
      "side": 3625,
      "ĠInternetsei": 3626,
      "ĠInternetseit": 3627,
      "ĠInternetseite": 3628,
      "itÃ¤ten": 3629,
      "stei": 3630,
      "Schre": 3631,
      "lase": 3632,
      "staltungen": 3633,
      "ĠWochen": 3634,
      "ĠÃ¤ndern": 3635,
      "ĠEmp": 3636,
      "vig": 3637,
      "sterreich": 3638,
      "ĠKraft": 3639,
      "Ġvier": 3640,
      "igungen": 3641,
      "rag": 3642,
      "ĠgemÃ¤ÃŁ": 3643,
      "siert": 3644,
      "En": 3645,
      "olitisch": 3646,
      "fÃ¼hren": 3647,
      "ĠKonze": 3648,
      "2020": 3649,
      "ĠImm": 3650,
      "druck": 3651,
      "Ġbitten": 3652,
      "mt": 3653,
      "indl": 3654,
      "Web": 3655,
      "wol": 3656,
      "ystem": 3657,
      "Ġink": 3658,
      "aa": 3659,
      "schule": 3660,
      "rschun": 3661,
      "ĠVertrags": 3662,
      "Ġaufs": 3663,
      "rschung": 3664,
      "Ġstellt": 3665,
      "spiels": 3666,
      "tÃ¤ts": 3667,
      "Ġcookies": 3668,
      "¼lle": 3669,
      "Ġausblenden": 3670,
      "ĠpersÃ¶nlichen": 3671,
      "ĠSocial": 3672,
      "ĠUrlaub": 3673,
      "folge": 3674,
      "Statistiken": 3675,
      "rliche": 3676,
      "gelt": 3677,
      "ĠKÃ¶r": 3678,
      "jekte": 3679,
      "mazon": 3680,
      "Ġerstell": 3681,
      "Ġkurz": 3682,
      "ĠChrist": 3683,
      "wÃ¼ns": 3684,
      "rete": 3685,
      "lm": 3686,
      "Ġlinks": 3687,
      "lse": 3688,
      "ĠMitarbeiter": 3689,
      "messung": 3690,
      "tsÃ": 3691,
      "Ġerstelle": 3692,
      "ĠDÃ": 3693,
      "sische": 3694,
      "ustrie": 3695,
      "Ġmod": 3696,
      "yp": 3697,
      "ĠLimited": 3698,
      "genommen": 3699,
      "ĠBilder": 3700,
      "Ġautomatisch": 3701,
      "oben": 3702,
      "geln": 3703,
      "Zum": 3704,
      "Ġintern": 3705,
      "rks": 3706,
      "ilu": 3707,
      "ĠVerl": 3708,
      "35": 3709,
      "fis": 3710,
      "Medi": 3711,
      "ĠnÃ¤chsten": 3712,
      "ĠMinuten": 3713,
      "Am": 3714,
      "Ġgewo": 3715,
      "Adressen": 3716,
      "Vie": 3717,
      "ĠInteressen": 3718,
      "uner": 3719,
      "Ġangeb": 3720,
      "neiden": 3721,
      "tsÃ¤": 3722,
      "schutz": 3723,
      "zwe": 3724,
      "ĠEntscheid": 3725,
      "ĠWinters": 3726,
      "iet": 3727,
      "ĠWin": 3728,
      "Ġentsch": 3729,
      "To": 3730,
      "arbeit": 3731,
      "ĠStunden": 3732,
      "poli": 3733,
      "meinde": 3734,
      "enken": 3735,
      "Zu": 3736,
      "mart": 3737,
      "Ġgab": 3738,
      "Ġverschiedene": 3739,
      "ssant": 3740,
      "ĠEd": 3741,
      "zeigt": 3742,
      "ĠDank": 3743,
      "Akt": 3744,
      "mÃ¶glichkeit": 3745,
      "ĠImp": 3746,
      "100": 3747,
      "Ġjedem": 3748,
      "OL": 3749,
      "hause": 3750,
      "pin": 3751,
      "Ġweniger": 3752,
      "tiert": 3753,
      "ident": 3754,
      "Ġbesondere": 3755,
      "Ġ40": 3756,
      "zeitig": 3757,
      "ĠDritta": 3758,
      "dri": 3759,
      "ĠProzent": 3760,
      "rauss": 3761,
      "Ġdarf": 3762,
      "rise": 3763,
      "ranz": 3764,
      "Ġhinaus": 3765,
      "Ġpasse": 3766,
      "baren": 3767,
      "lst": 3768,
      "ssische": 3769,
      "otos": 3770,
      "Ġgesetzliche": 3771,
      "ilun": 3772,
      "berecht": 3773,
      "ĠSol": 3774,
      "ĠTest": 3775,
      "ĠIhres": 3776,
      "dessen": 3777,
      "ec": 3778,
      "rÃ¤fte": 3779,
      "Ġerstellen": 3780,
      "ilung": 3781,
      "ĠBoard": 3782,
      "-,": 3783,
      "rti": 3784,
      "ĠBu": 3785,
      "Ġfu": 3786,
      "Ġjeweiligen": 3787,
      "Ġfl": 3788,
      "ĠPartner": 3789,
      "ĠKultur": 3790,
      "ĠAnalys": 3791,
      "Ġerfolg": 3792,
      "Ġend": 3793,
      "ĠRechte": 3794,
      "ĠAnfang": 3795,
      "ĠMÃ¼nch": 3796,
      "Ġaufgrund": 3797,
      "wesen": 3798,
      "vol": 3799,
      "nus": 3800,
      "Ġdeut": 3801,
      "IS": 3802,
      "ĠDienste": 3803,
      ");": 3804,
      "ĠDienstle": 3805,
      "hal": 3806,
      "spro": 3807,
      "Ġzuge": 3808,
      "ĠWahl": 3809,
      "ĠHei": 3810,
      "ĠRaum": 3811,
      "ĠAuÃŁe": 3812,
      "isiert": 3813,
      "ĠIdee": 3814,
      "usche": 3815,
      "ĠShop": 3816,
      "Ġbleibt": 3817,
      "Ġfolgenden": 3818,
      "fÃ¤h": 3819,
      "redit": 3820,
      "80": 3821,
      "ĠâĢ¢": 3822,
      "Ġverstehen": 3823,
      "ĠPf": 3824,
      "rgt": 3825,
      "fÃ¤l": 3826,
      "ĠAbo": 3827,
      "eva": 3828,
      "ree": 3829,
      "Ġ2007": 3830,
      "ĠerhÃ¤lt": 3831,
      "ĠHaa": 3832,
      "ĠvÃ¶l": 3833,
      "ĠAnbieter": 3834,
      "acht": 3835,
      "ript": 3836,
      "rechnet": 3837,
      "cks": 3838,
      "tali": 3839,
      "ĠErn": 3840,
      "Ġkleinen": 3841,
      "ĠDesign": 3842,
      "ĠEntwicklung": 3843,
      "pÃ¤ischen": 3844,
      "ĠBio": 3845,
      "rator": 3846,
      "eiden": 3847,
      "Ġzeigt": 3848,
      "ĠSen": 3849,
      "rlaubnis": 3850,
      "Ã¶sch": 3851,
      "Fi": 3852,
      "Ġuner": 3853,
      "gegen": 3854,
      "stens": 3855,
      "ene": 3856,
      "ĠOp": 3857,
      "schle": 3858,
      "ull": 3859,
      "rmin": 3860,
      "ĠPort": 3861,
      "mis": 3862,
      "ĠTagen": 3863,
      "ĠWid": 3864,
      "ĠSti": 3865,
      "lass": 3866,
      "buch": 3867,
      "eÃŁen": 3868,
      "31": 3869,
      "ĠSpie": 3870,
      "ĠSprache": 3871,
      "lusi": 3872,
      "ĠDenn": 3873,
      "ĠKomp": 3874,
      "ĠWebsites": 3875,
      "rÃ¼ckl": 3876,
      "nnova": 3877,
      "ublik": 3878,
      "Ġberecht": 3879,
      "UNG": 3880,
      "âĸ": 3881,
      "ĠSpi": 3882,
      "kto": 3883,
      "ĠIns": 3884,
      "ĠHd": 3885,
      "xis": 3886,
      "schafte": 3887,
      "ĠLehr": 3888,
      "Produ": 3889,
      "lla": 3890,
      "produ": 3891,
      "ena": 3892,
      "ĠðŁ": 3893,
      "handlung": 3894,
      "fahr": 3895,
      "ĠweiÃŁ": 3896,
      "rÃ¼ckli": 3897,
      "ĠGi": 3898,
      "Ġbekannt": 3899,
      ".)": 3900,
      "ya": 3901,
      "ĠFilm": 3902,
      "ĠNeue": 3903,
      "¤mp": 3904,
      "rÃ¼cklich": 3905,
      "nschlie": 3906,
      "erer": 3907,
      "rtei": 3908,
      "ĠSchu": 3909,
      "lattformen": 3910,
      "imme": 3911,
      "rlebnis": 3912,
      "euro": 3913,
      "stein": 3914,
      "spielsweise": 3915,
      "fess": 3916,
      "ĠWeis": 3917,
      "ldi": 3918,
      "ĠSchule": 3919,
      "Ġident": 3920,
      "schaften": 3921,
      "ume": 3922,
      "Ġbewe": 3923,
      "nkorb": 3924,
      "ĠKategorien": 3925,
      "Ġebenfalls": 3926,
      "¤r": 3927,
      "ĠAktiv": 3928,
      "rivate": 3929,
      "seres": 3930,
      "Ġsagen": 3931,
      "umen": 3932,
      "Ra": 3933,
      "ĠModell": 3934,
      "ĠSicherhe": 3935,
      "ĠSicherhei": 3936,
      "ĠEink": 3937,
      "Ġhil": 3938,
      "ĠSicherheit": 3939,
      "ĠAnd": 3940,
      "ĠAnalyse": 3941,
      "nseres": 3942,
      "unseres": 3943,
      "Ġfast": 3944,
      "ĠHÃ¶he": 3945,
      "Neue": 3946,
      "36": 3947,
      "Ġunseres": 3948,
      "chine": 3949,
      "Ze": 3950,
      "Ġperfe": 3951,
      "Bitte": 3952,
      "ĠFest": 3953,
      "rian": 3954,
      "ĠSach": 3955,
      "ĠGroÃŁ": 3956,
      "Ġmittels": 3957,
      "ndu": 3958,
      "thalten": 3959,
      "Ġzeigen": 3960,
      "Ġregel": 3961,
      "einander": 3962,
      "immungen": 3963,
      "http": 3964,
      "ĠVon": 3965,
      "Ġdeutschen": 3966,
      "tsÃ¤chlich": 3967,
      "Ġerke": 3968,
      "chis": 3969,
      "oun": 3970,
      "ĠZeitpunkt": 3971,
      "nver": 3972,
      "ests": 3973,
      "Ġsofort": 3974,
      "hat": 3975,
      "chsel": 3976,
      "reundlich": 3977,
      "ziert": 3978,
      "rni": 3979,
      "erie": 3980,
      "indli": 3981,
      "ĠUrs": 3982,
      "ĠHerz": 3983,
      "Ġbekommen": 3984,
      "ĠWiderruf": 3985,
      "Ġpaa": 3986,
      "ĠHolz": 3987,
      "abl": 3988,
      "rtet": 3989,
      "markt": 3990,
      "ton": 3991,
      "Ġdeutl": 3992,
      "Ã¶sche": 3993,
      "Ġdeutli": 3994,
      "zeiche": 3995,
      "ĠGÃ¤": 3996,
      "ĠKle": 3997,
      "ehÃ¶r": 3998,
      "Ġverfol": 3999,
      "merika": 4000,
      "Ġdo": 4001,
      "ĠMittel": 4002,
      "ĠSicherheits": 4003,
      "mete": 4004,
      "ĠArchiv": 4005,
      "annten": 4006,
      "ĠSommers": 4007,
      "fra": 4008,
      "ĠausdrÃ¼cklich": 4009,
      "ecken": 4010,
      "ĠGesellschaft": 4011,
      "DE": 4012,
      "sollen": 4013,
      "spielen": 4014,
      "Ġwelt": 4015,
      "Ġworden": 4016,
      "Ġhandelt": 4017,
      "WÃ": 4018,
      "Ġunbedingt": 4019,
      "ĠPreise": 4020,
      "vertra": 4021,
      "verarbeitung": 4022,
      "Ġmeinen": 4023,
      "erz": 4024,
      "ĠausgewÃ¤h": 4025,
      "95": 4026,
      "ĠvÃ¶llig": 4027,
      "ampf": 4028,
      "istis": 4029,
      "Ġsollen": 4030,
      "tet": 4031,
      "keits": 4032,
      "Ġmed": 4033,
      "Ġdeutlich": 4034,
      "ĠWint": 4035,
      "Ġgi": 4036,
      "78": 4037,
      "nthalten": 4038,
      "enthalten": 4039,
      "ood": 4040,
      "ĠStudie": 4041,
      "Ġgla": 4042,
      "ĠHaupt": 4043,
      "Ġgesta": 4044,
      "ĠSee": 4045,
      "Ġerwa": 4046,
      "erre": 4047,
      "zeichen": 4048,
      "Ġwww": 4049,
      "ĠWintersemester": 4050,
      "ĠMaterial": 4051,
      "ĠNacht": 4052,
      "ĠDann": 4053,
      "zentrum": 4054,
      "Katego": 4055,
      "gri": 4056,
      "rgangen": 4057,
      "erdings": 4058,
      "lerdings": 4059,
      "ehle": 4060,
      "llerdings": 4061,
      "allerdings": 4062,
      "nku": 4063,
      "ĠEnd": 4064,
      "ĠÃľbersicht": 4065,
      "Ġverk": 4066,
      "iniert": 4067,
      "Jetzt": 4068,
      "ĠPlan": 4069,
      "ĠInhalts": 4070,
      "ssch": 4071,
      "Ġenthalten": 4072,
      "schluss": 4073,
      "AM": 4074,
      "ffizie": 4075,
      "ĠBel": 4076,
      "ments": 4077,
      "ĠZwecken": 4078,
      "sprÃ¤ch": 4079,
      "Ġleben": 4080,
      "ublin": 4081,
      "Ġpaar": 4082,
      "rinnen": 4083,
      "ĠCe": 4084,
      "preis": 4085,
      "chnitt": 4086,
      "frist": 4087,
      "Ġallerdings": 4088,
      "Essenziell": 4089,
      "yer": 4090,
      "Ġvia": 4091,
      "ĠPost": 4092,
      "¼te": 4093,
      "ĠQualitÃ¤t": 4094,
      "ĠDisk": 4095,
      "Sh": 4096,
      "oder": 4097,
      "Ġhinweg": 4098,
      "34": 4099,
      "olitische": 4100,
      "ebl": 4101,
      "Ġdeinen": 4102,
      "Ġhatten": 4103,
      "lasen": 4104,
      "ĠLinks": 4105,
      "Ġbist": 4106,
      "ĠErziehungs": 4107,
      "eteil": 4108,
      "ĠGrundlage": 4109,
      "eser": 4110,
      "nnis": 4111,
      "cooki": 4112,
      "etze": 4113,
      "funden": 4114,
      "Ġbestimmten": 4115,
      "Ġtre": 4116,
      "ĠgegenÃ¼ber": 4117,
      "Funktion": 4118,
      "Inhalte": 4119,
      "langen": 4120,
      "hrle": 4121,
      "igungs": 4122,
      "zess": 4123,
      "verstÃ¤nd": 4124,
      "ĠTro": 4125,
      "EU": 4126,
      "ĠDublin": 4127,
      "ĠLiebe": 4128,
      "¤ss": 4129,
      "ĠProblem": 4130,
      "kra": 4131,
      "rzeit": 4132,
      "reinba": 4133,
      "ĠWeise": 4134,
      "elektro": 4135,
      "ĠComp": 4136,
      "rÃ¼cken": 4137,
      "zeuge": 4138,
      "ĠRech": 4139,
      "Ġbetre": 4140,
      "hilfe": 4141,
      "ĠLage": 4142,
      "riti": 4143,
      "zieren": 4144,
      "ĠNord": 4145,
      "ĠRat": 4146,
      "Deutsch": 4147,
      "ildungs": 4148,
      "chÃ¤d": 4149,
      "ĠPoli": 4150,
      "ĠRegie": 4151,
      "Ġversch": 4152,
      "Ġsowohl": 4153,
      "Ġdeaktiv": 4154,
      "uri": 4155,
      "ĠLuft": 4156,
      "emals": 4157,
      "Sha": 4158,
      "ĠfÃ¼hren": 4159,
      "ĠUnterstÃ¼t": 4160,
      "ĠRÃ¼": 4161,
      "amit": 4162,
      "nia": 4163,
      "++": 4164,
      "Ġgrundlege": 4165,
      "ĠSommersemester": 4166,
      "wnload": 4167,
      "nsp": 4168,
      "Ġkompl": 4169,
      "Rei": 4170,
      "fach": 4171,
      "rtse": 4172,
      "ĠErlaubnis": 4173,
      "Ġrea": 4174,
      "cen": 4175,
      "Ã¶schen": 4176,
      "Ġbedeut": 4177,
      "istisch": 4178,
      "Ġbevor": 4179,
      "Ġfe": 4180,
      "Ġunterschiedliche": 4181,
      "ĠEinzel": 4182,
      "stische": 4183,
      "Ġgesamte": 4184,
      "¼le": 4185,
      "ĠMÃ¼nche": 4186,
      "Ġvert": 4187,
      "rlei": 4188,
      "Ġwol": 4189,
      "38": 4190,
      "MÃ": 4191,
      "ĠGarten": 4192,
      "ĠÃ¼bermitte": 4193,
      "ĠScho": 4194,
      "Ġweb": 4195,
      "Ġbuchen": 4196,
      "Ġaktuellen": 4197,
      "rÃ¼ch": 4198,
      "nsti": 4199,
      "kta": 4200,
      "hÃ¤ngig": 4201,
      "rtsei": 4202,
      "etzen": 4203,
      "Ġbeachten": 4204,
      "eitung": 4205,
      "Ġsoziale": 4206,
      "ĠMas": 4207,
      "ĠgrÃ¶ÃŁte": 4208,
      "iker": 4209,
      "Ġph": 4210,
      "tadt": 4211,
      "¼lt": 4212,
      "ĠRisi": 4213,
      "ĠdÃ¼rfen": 4214,
      "Ġzahl": 4215,
      "ĠMedia": 4216,
      "Ġkostenlos": 4217,
      "fehlen": 4218,
      "Smart": 4219,
      "ĠKÃ¶rper": 4220,
      "ĠVerkehr": 4221,
      "Ġsuchen": 4222,
      "ĠKirche": 4223,
      "ĠTÃ¼r": 4224,
      "ĠEltern": 4225,
      "Ġ'": 4226,
      "rmo": 4227,
      "Ġkam": 4228,
      "rtseit": 4229,
      "ĠRh": 4230,
      "ĠFern": 4231,
      "rtseite": 4232,
      "ologische": 4233,
      "ĠEUR": 4234,
      "richtet": 4235,
      "nale": 4236,
      "Ġaufb": 4237,
      "Ġverwendeten": 4238,
      "ginn": 4239,
      "rkunft": 4240,
      "hrs": 4241,
      "ersteller": 4242,
      "chriften": 4243,
      "nnu": 4244,
      "nga": 4245,
      "hone": 4246,
      "age": 4247,
      "indlich": 4248,
      "ĠHÃ¶": 4249,
      "Ġverarbeiten": 4250,
      "Ġeigentlich": 4251,
      "inigen": 4252,
      "ngut": 4253,
      "griff": 4254,
      "tiven": 4255,
      "ĠFlug": 4256,
      "Ġsu": 4257,
      "ĠDiensten": 4258,
      "ĠSchi": 4259,
      "ĠWind": 4260,
      "ners": 4261,
      "ĠMaps": 4262,
      "rra": 4263,
      "Fe": 4264,
      "Ġhinzu": 4265,
      "Ġeher": 4266,
      "Analy": 4267,
      "Sil": 4268,
      "ĠVergleich": 4269,
      "ĠSoftware": 4270,
      "ĠUmwelt": 4271,
      "rÃ¼che": 4272,
      "falls": 4273,
      "ĠFu": 4274,
      "55": 4275,
      "Ġkm": 4276,
      "ĠPflege": 4277,
      "ĠAc": 4278,
      "vide": 4279,
      "rechte": 4280,
      "Ġ31": 4281,
      "Ġ{": 4282,
      "mail": 4283,
      "Ġdri": 4284,
      "Details": 4285,
      "ĠGene": 4286,
      "ĠgehÃ¶rt": 4287,
      "ĠLit": 4288,
      "Ġinteressant": 4289,
      "Ġregist": 4290,
      "glichen": 4291,
      "zimmer": 4292,
      "39": 4293,
      "Ġumfa": 4294,
      "einigen": 4295,
      "ĠverÃ¶ffentlicht": 4296,
      "ĠPersonenbezogene": 4297,
      "chisch": 4298,
      "37": 4299,
      "Ġwegen": 4300,
      "nnun": 4301,
      "Ġhinter": 4302,
      "meter": 4303,
      "ĠLicht": 4304,
      "nnung": 4305,
      "ZurÃ¼ck": 4306,
      "reiten": 4307,
      "Ġnah": 4308,
      "ĠMÃ¼nchen": 4309,
      "ĠPrÃ¼": 4310,
      "ndet": 4311,
      "ĠkÃ¼": 4312,
      "ĠIs": 4313,
      "Ġnutzt": 4314,
      "ĠâĨ": 4315,
      "ĠErfol": 4316,
      "ĠKÃ¤": 4317,
      "obil": 4318,
      "ĠAnl": 4319,
      "kin": 4320,
      "Ġbeispielsweise": 4321,
      "pat": 4322,
      "chla": 4323,
      "rhÃ¤lt": 4324,
      "ÌĪ": 4325,
      "fert": 4326,
      "inik": 4327,
      "Media": 4328,
      "Ġkomb": 4329,
      "ĠAntworten": 4330,
      "ĠWer": 4331,
      "2019": 4332,
      "Ġ08": 4333,
      "ble": 4334,
      "tse": 4335,
      "Ġ}": 4336,
      "icke": 4337,
      "Ġnie": 4338,
      "ĠRoss": 4339,
      "Ġwerde": 4340,
      "Ġ60": 4341,
      "lÃ¤t": 4342,
      "US": 4343,
      "ĠChi": 4344,
      "ickl": 4345,
      "erse": 4346,
      "¤chst": 4347,
      "ĠZwecke": 4348,
      "gesetzt": 4349,
      "Ġgenannte": 4350,
      "Ġmarkieren": 4351,
      "ika": 4352,
      "Ste": 4353,
      "iches": 4354,
      "ĠGesundhe": 4355,
      "ĠGesundhei": 4356,
      "ranch": 4357,
      "Ġnotwendig": 4358,
      "Ġward": 4359,
      "ĠEuropa": 4360,
      "oot": 4361,
      "ĠÂ·": 4362,
      "Als": 4363,
      "inar": 4364,
      "Ã¼nd": 4365,
      "reiben": 4366,
      "Ġspie": 4367,
      "glis": 4368,
      "ĠAnge": 4369,
      "ek": 4370,
      "sych": 4371,
      "nforde": 4372,
      "ĠAp": 4373,
      "Ġelektro": 4374,
      "ĠFreu": 4375,
      "ltu": 4376,
      "wÃ¤hrle": 4377,
      "Ġ198": 4378,
      "ĠWerbe": 4379,
      "ĠGesundheit": 4380,
      "rvices": 4381,
      "eucht": 4382,
      "nna": 4383,
      "ĠAG": 4384,
      "eln": 4385,
      "ĠMillionen": 4386,
      "org": 4387,
      "ĠMitglieder": 4388,
      "versitÃ¤t": 4389,
      "ĠGu": 4390,
      "ĠKonk": 4391,
      "ĠWort": 4392,
      "pto": 4393,
      "Auto": 4394,
      "Ġganze": 4395,
      "Ġpass": 4396,
      "Ġfreuen": 4397,
      "sition": 4398,
      "berechtigten": 4399,
      "richtu": 4400,
      "ĠWarenkorb": 4401,
      "richtun": 4402,
      "richtung": 4403,
      "ĠTop": 4404,
      "44": 4405,
      "hang": 4406,
      "Ġverwa": 4407,
      "fisch": 4408,
      "ĠWaren": 4409,
      "ĠDoch": 4410,
      "mission": 4411,
      "tattu": 4412,
      "tattun": 4413,
      "tattung": 4414,
      "ĠDetails": 4415,
      "urf": 4416,
      "wertungen": 4417,
      "Ġvertra": 4418,
      "verfahren": 4419,
      "miss": 4420,
      "ĠKind": 4421,
      "¼nft": 4422,
      "rstell": 4423,
      "ĠFÃ¶rde": 4424,
      "Ġausgeschlossen": 4425,
      "empe": 4426,
      "ĠBre": 4427,
      "feh": 4428,
      "ET": 4429,
      "Viel": 4430,
      "ĠJe": 4431,
      "ĠspÃ¤te": 4432,
      "Ġvielleicht": 4433,
      "mÃ¤ÃŁigen": 4434,
      "ĠNot": 4435,
      "ĠKopf": 4436,
      "emie": 4437,
      "talie": 4438,
      "iko": 4439,
      "Po": 4440,
      "vents": 4441,
      "sieren": 4442,
      "gestellt": 4443,
      "cki": 4444,
      "glisch": 4445,
      "ĠFunktiona": 4446,
      "ktis": 4447,
      "Ġmanch": 4448,
      "ĠAkt": 4449,
      "ĠFunktional": 4450,
      "Ã¶gl": 4451,
      "ĠII": 4452,
      "Tra": 4453,
      "ĠNeben": 4454,
      "ndun": 4455,
      "Ġschi": 4456,
      "rno": 4457,
      "hrli": 4458,
      "Ġdigitale": 4459,
      "ĠTwitter": 4460,
      "gren": 4461,
      "ndung": 4462,
      "ĠgewÃ¼ns": 4463,
      "ĠKal": 4464,
      "Ġbedeutet": 4465,
      "meo": 4466,
      "cl": 4467,
      "Such": 4468,
      "ĠErs": 4469,
      "ligen": 4470,
      "ruktur": 4471,
      "Ind": 4472,
      "Ġmeist": 4473,
      "falle": 4474,
      "ltun": 4475,
      "aben": 4476,
      "steme": 4477,
      "ĠSchul": 4478,
      "ĠFÃ¤lle": 4479,
      "rill": 4480,
      "une": 4481,
      "Ġmeinem": 4482,
      "rriere": 4483,
      "chtl": 4484,
      "chae": 4485,
      "ltung": 4486,
      "Ġbringen": 4487,
      "Ã¶scht": 4488,
      "ĠCam": 4489,
      "Ġsofern": 4490,
      "ĠPark": 4491,
      "ĠAnfrage": 4492,
      "etzungen": 4493,
      "lz": 4494,
      "leva": 4495,
      "Ġakzept": 4496,
      "tritt": 4497,
      "hrlich": 4498,
      "zentra": 4499,
      "nit": 4500,
      "48": 4501,
      "tzung": 4502,
      "zogen": 4503,
      "Ġschle": 4504,
      "wirk": 4505,
      "ickli": 4506,
      "Newsletter": 4507,
      "ĠHamburg": 4508,
      "SCH": 4509,
      "Ġjedes": 4510,
      "inin": 4511,
      "hrenden": 4512,
      "ĠKlima": 4513,
      "Ġbish": 4514,
      "ĠBewe": 4515,
      "gierung": 4516,
      "Ġentst": 4517,
      "ity": 4518,
      "Ġbishe": 4519,
      "ffnet": 4520,
      "ĠNutzungs": 4521,
      "ranche": 4522,
      "icklich": 4523,
      "ĠDicken": 4524,
      "ĠStraÃŁe": 4525,
      "Ġzi": 4526,
      "ttlung": 4527,
      "rio": 4528,
      "tungen": 4529,
      "Ġanderem": 4530,
      "-/": 4531,
      "ringt": 4532,
      "App": 4533,
      "Ġ2006": 4534,
      "nvers": 4535,
      "iver": 4536,
      "ĠMoto": 4537,
      "wusst": 4538,
      "ĠKategorie": 4539,
      "ĠGebÃ¤": 4540,
      "ED": 4541,
      "right": 4542,
      "ries": 4543,
      "lÃ¤ss": 4544,
      "dauer": 4545,
      "Ki": 4546,
      "ĠFresse": 4547,
      "Ġerne": 4548,
      "Ġgest": 4549,
      "ĠVerbindung": 4550,
      "mÃ¶glichkeite": 4551,
      "________": 4552,
      "hÃ¶ren": 4553,
      "mÃ¶glichkeiten": 4554,
      "ĠDigital": 4555,
      ".:": 4556,
      "ement": 4557,
      "leh": 4558,
      "ussion": 4559,
      "gericht": 4560,
      "Ġbeneiden": 4561,
      "Kommenta": 4562,
      "upts": 4563,
      "Ġstark": 4564,
      "ĠErziehungsberechtigten": 4565,
      "ros": 4566,
      "ĠPass": 4567,
      "asten": 4568,
      "ĠTis": 4569,
      "frage": 4570,
      "ĠSommer": 4571,
      "ĠPati": 4572,
      "richte": 4573,
      "Ġbegi": 4574,
      "ratis": 4575,
      "Ġfreiwilligen": 4576,
      "Ġkennen": 4577,
      "udio": 4578,
      "Ġbetroffenen": 4579,
      "erfa": 4580,
      "pis": 4581,
      "vigation": 4582,
      "Ġlie": 4583,
      "ĠSÃ¼d": 4584,
      "tuation": 4585,
      "Ġvorbe": 4586,
      "Ġbeneidenswert": 4587,
      "46": 4588,
      "ĠgrÃ¼": 4589,
      "quicklich": 4590,
      "nete": 4591,
      "Ġverli": 4592,
      "tch": 4593,
      "Ġkur": 4594,
      "Und": 4595,
      "Ġaufblasen": 4596,
      "Ġarbeiten": 4597,
      "Ġabsol": 4598,
      "ĠInhaltsmessung": 4599,
      "das": 4600,
      "ĠGlÃ¼ck": 4601,
      "zeugt": 4602,
      "ĠQua": 4603,
      "rid": 4604,
      "rc": 4605,
      "ĠImmobilie": 4606,
      "ebu": 4607,
      "Ġgleiche": 4608,
      "ĠtÃ": 4609,
      "iga": 4610,
      "rmat": 4611,
      "nÃ¤chst": 4612,
      "phie": 4613,
      "Ġabzu": 4614,
      "70": 4615,
      "nin": 4616,
      "uden": 4617,
      "chwa": 4618,
      "trolle": 4619,
      "ĠVerantwortlichen": 4620,
      "AG": 4621,
      "Ġunbequem": 4622,
      "ĠTel": 4623,
      "Ġad": 4624,
      "DF": 4625,
      "senden": 4626,
      "rÃ¤gt": 4627,
      "ĠAmazon": 4628,
      "orf": 4629,
      "ĠMeta": 4630,
      "ĠUnsere": 4631,
      "ktisch": 4632,
      "ĠGle": 4633,
      "nheit": 4634,
      "ĠVertrag": 4635,
      "ĠschÃ¶nen": 4636,
      "enz": 4637,
      "rang": 4638,
      "Ġungeliebt": 4639,
      "ungut": 4640,
      "ĠPatie": 4641,
      "Ġungut": 4642,
      "Ġstandard": 4643,
      "lanzen": 4644,
      "ĠlÃ¤nge": 4645,
      "Ã¶glicht": 4646,
      "ĠHint": 4647,
      "ĠSau": 4648,
      "rent": 4649,
      "dÃ": 4650,
      "ĠPatien": 4651,
      "ĠKÃ¼che": 4652,
      "sges": 4653,
      "ilitÃ¤t": 4654,
      "Ã¤he": 4655,
      "Ġva": 4656,
      "ĠPatient": 4657,
      "nka": 4658,
      "Ġklicken": 4659,
      "cookie": 4660,
      "chlag": 4661,
      "âĸº": 4662,
      "waltu": 4663,
      "Ġsieht": 4664,
      "waltun": 4665,
      "Ġsagte": 4666,
      "waltung": 4667,
      "emÃ¼": 4668,
      "ĠKrie": 4669,
      "Ġjemand": 4670,
      "Ġfort": 4671,
      "nwand": 4672,
      "Ã¤ss": 4673,
      "Ġunerquicklich": 4674,
      "fie": 4675,
      "ĠGast": 4676,
      "Â®": 4677,
      "ĠGeschÃ¤fts": 4678,
      "TE": 4679,
      "Ġpra": 4680,
      "tage": 4681,
      "Ġmusste": 4682,
      "Ġwelches": 4683,
      "schrift": 4684,
      "eht": 4685,
      "ĠBal": 4686,
      "rher": 4687,
      "Ġcon": 4688,
      "anders": 4689,
      "Ġsolange": 4690,
      "inb": 4691,
      "ndels": 4692,
      "fahrt": 4693,
      "ĠGerÃ¤te": 4694,
      "chricht": 4695,
      "has": 4696,
      "deinem": 4697,
      "wache": 4698,
      "wed": 4699,
      "ĠfÃ¼hrt": 4700,
      "siden": 4701,
      "Ġdeinem": 4702,
      "inlich": 4703,
      "Ġsto": 4704,
      "ĠbenÃ¶tigen": 4705,
      "hrsch": 4706,
      "rnen": 4707,
      "eba": 4708,
      "ĠNr": 4709,
      "Ġdessen": 4710,
      "ĠhÃ¤tte": 4711,
      "werke": 4712,
      "rzt": 4713,
      "ĠNÃ": 4714,
      "ierten": 4715,
      "ĠHaut": 4716,
      "ount": 4717,
      "ĠgÃ¼nst": 4718,
      "rgun": 4719,
      "etis": 4720,
      "Ġteilen": 4721,
      "ĠGold": 4722,
      "Ġra": 4723,
      "rgestellt": 4724,
      "rall": 4725,
      "ining": 4726,
      "Ġvolls": 4727,
      "ienst": 4728,
      "Ġkeiner": 4729,
      "ĠMode": 4730,
      "Nut": 4731,
      "Ġkeinerlei": 4732,
      "tistik": 4733,
      "cro": 4734,
      "volle": 4735,
      "rgung": 4736,
      "¤de": 4737,
      "ols": 4738,
      "\":": 4739,
      "ĠAut": 4740,
      "mlung": 4741,
      "setzung": 4742,
      "Ġdurchs": 4743,
      "ringe": 4744,
      "ismus": 4745,
      "AS": 4746,
      "ĠZum": 4747,
      "wohn": 4748,
      "ĠAk": 4749,
      "75": 4750,
      "rchi": 4751,
      "ĠÂ«": 4752,
      "zustellen": 4753,
      "ffer": 4754,
      "ĠnatÃ¼rliche": 4755,
      "weils": 4756,
      "Ġbehalten": 4757,
      "einlich": 4758,
      "perren": 4759,
      "ĠDem": 4760,
      "sident": 4761,
      "Ġbee": 4762,
      "Ġerre": 4763,
      "ĠZur": 4764,
      "bild": 4765,
      "cies": 4766,
      "nve": 4767,
      "etter": 4768,
      "kreis": 4769,
      "ĠNur": 4770,
      "fallen": 4771,
      "ssel": 4772,
      "menta": 4773,
      "piele": 4774,
      "ĠNachricht": 4775,
      "IL": 4776,
      "65": 4777,
      "Ġverfolgen": 4778,
      "iz": 4779,
      "Link": 4780,
      "medizi": 4781,
      "erter": 4782,
      "Uns": 4783,
      "ochen": 4784,
      "ltag": 4785,
      "32": 4786,
      "ison": 4787,
      "OS": 4788,
      "ĠTeilnehmer": 4789,
      "ilder": 4790,
      "Ġidentifizi": 4791,
      "Auch": 4792,
      "rium": 4793,
      "ensi": 4794,
      "ew": 4795,
      "Eigen": 4796,
      "ilÃ": 4797,
      "ĠElektro": 4798,
      "rchen": 4799,
      "IG": 4800,
      "Ġleider": 4801,
      "ĠSP": 4802,
      "aby": 4803,
      "ertragung": 4804,
      "rankh": 4805,
      "nkl": 4806,
      "ĠÃĸsterreich": 4807,
      "Â§": 4808,
      "ĠZÃ": 4809,
      "ĠInstagram": 4810,
      "ĠspÃ¤ter": 4811,
      "--------": 4812,
      "Ġschnelle": 4813,
      "ĠtÃ¤": 4814,
      "eidu": 4815,
      "gewi": 4816,
      "eidun": 4817,
      "ĠUnterstÃ¼tzung": 4818,
      "tsch": 4819,
      "ĠerfÃ": 4820,
      "runte": 4821,
      "Ihre": 4822,
      "eidung": 4823,
      "ĠStrom": 4824,
      "ĠgelÃ¶scht": 4825,
      "pte": 4826,
      "ĠAntwort": 4827,
      "Ġzeit": 4828,
      "Service": 4829,
      "handen": 4830,
      "yern": 4831,
      "hunde": 4832,
      "ĠMaÃŁnahmen": 4833,
      "nstru": 4834,
      "nnieren": 4835,
      "ĠErf": 4836,
      "ĠZugang": 4837,
      "IC": 4838,
      "ziehu": 4839,
      "agen": 4840,
      "ziehun": 4841,
      "rechtl": 4842,
      "\".": 4843,
      "ziehung": 4844,
      "ĠFerien": 4845,
      "ĠAdminist": 4846,
      "renz": 4847,
      "ĠMÃ¶": 4848,
      "hrscheinlich": 4849,
      "stÃ¼ck": 4850,
      "Ġsam": 4851,
      "chael": 4852,
      "hlt": 4853,
      "Ġwiede": 4854,
      "lay": 4855,
      "ĠBlu": 4856,
      "Ġniemals": 4857,
      "ĠOrganisa": 4858,
      "ufer": 4859,
      "back": 4860,
      "ilÃ¤": 4861,
      "ĠBoden": 4862,
      "fter": 4863,
      "Ġempfehlen": 4864,
      "lose": 4865,
      "tus": 4866,
      "ĠermÃ¶glicht": 4867,
      "ĠEis": 4868,
      "rka": 4869,
      "remd": 4870,
      "ĠNachrichten": 4871,
      "nster": 4872,
      "Ġyour": 4873,
      "km": 4874,
      "Ġersch": 4875,
      "Von": 4876,
      "ĠSteue": 4877,
      "ĠBetreiber": 4878,
      "urger": 4879,
      "Ġverbunden": 4880,
      "wÃ¼": 4881,
      "43": 4882,
      "Ġbel": 4883,
      "fÃ¼hrt": 4884,
      "ĠPolitik": 4885,
      "rite": 4886,
      "stau": 4887,
      "2018": 4888,
      "ping": 4889,
      "nkel": 4890,
      "Ġgenutzt": 4891,
      "enth": 4892,
      "ĠInve": 4893,
      "nÃ¤": 4894,
      "ĠhÃ¶ch": 4895,
      "lub": 4896,
      "rik": 4897,
      "veran": 4898,
      "Ġguten": 4899,
      "ĠSmart": 4900,
      "Vers": 4901,
      "ĠDatenverarbeitung": 4902,
      "ĠHotel": 4903,
      "flÃ¤che": 4904,
      "ĠSil": 4905,
      "tÃ¼mer": 4906,
      "ĠunterstÃ¼tzen": 4907,
      "Press": 4908,
      "nente": 4909,
      "Wird": 4910,
      "formular": 4911,
      "Ġdaran": 4912,
      "Ġ07": 4913,
      "npassen": 4914,
      "ĠZen": 4915,
      "ĠStandard": 4916,
      "wissenschafte": 4917,
      "ckte": 4918,
      "Ġwes": 4919,
      "chische": 4920,
      "ĠStart": 4921,
      "tro": 4922,
      "ĠInnen": 4923,
      "ĠDir": 4924,
      "ĠWissen": 4925,
      "endet": 4926,
      "anpassen": 4927,
      "ĠOpt": 4928,
      "ergabe": 4929,
      "ĠstÃ¤": 4930,
      "etisch": 4931,
      "unver": 4932,
      "Ġanpassen": 4933,
      "Ġvorhanden": 4934,
      "Ġanaly": 4935,
      "wissenschaften": 4936,
      "ĠSh": 4937,
      "ormal": 4938,
      "Ch": 4939,
      "Ġjeweils": 4940,
      "Ġexternen": 4941,
      "Ġblock": 4942,
      "ĠvollstÃ¤nd": 4943,
      "RO": 4944,
      "Hin": 4945,
      "ndestens": 4946,
      "reisen": 4947,
      "Ġern": 4948,
      "policies": 4949,
      "danken": 4950,
      "Ġsogen": 4951,
      "partner": 4952,
      "fini": 4953,
      "Ġkle": 4954,
      "schwa": 4955,
      "Ġstatistischen": 4956,
      "ĠsÃ": 4957,
      "ĠInformation": 4958,
      "Ġanders": 4959,
      "rlieben": 4960,
      "ĠWissenschaft": 4961,
      "zten": 4962,
      "hrten": 4963,
      "Hallo": 4964,
      "ip": 4965,
      "ssta": 4966,
      "nteg": 4967,
      "Ġentspreche": 4968,
      "Ġunver": 4969,
      "nkun": 4970,
      "Ã¶d": 4971,
      "invers": 4972,
      "ĠAuge": 4973,
      "uta": 4974,
      "ĠBereits": 4975,
      "useum": 4976,
      "âĢ¢": 4977,
      "Sem": 4978,
      "ubehÃ¶r": 4979,
      "Ã¶sen": 4980,
      "ĠTipps": 4981,
      "att": 4982,
      "ram": 4983,
      "nkung": 4984,
      "Ġare": 4985,
      "ĠDeutschen": 4986,
      "Ġgin": 4987,
      "schl": 4988,
      "Seite": 4989,
      "47": 4990,
      "ebun": 4991,
      "lugin": 4992,
      "ckin": 4993,
      "Ġyou": 4994,
      "Ġ01": 4995,
      "pisch": 4996,
      "ĠBeratung": 4997,
      "ĠDoku": 4998,
      "gefÃ¼hrt": 4999,
      "Ġdeiner": 5000,
      "ĠOhne": 5001,
      "ebung": 5002,
      "ĠHy": 5003,
      "Ġentsprechenden": 5004,
      "fÃ¤lt": 5005,
      "stud": 5006,
      "ĠSinne": 5007,
      "loss": 5008,
      "ita": 5009,
      "Ġschreiben": 5010,
      "ĠRolle": 5011,
      "karte": 5012,
      "pekt": 5013,
      "rstelle": 5014,
      "ĠLite": 5015,
      "ĠTit": 5016,
      "integ": 5017,
      "ĠGlei": 5018,
      "ĠInfos": 5019,
      "ĠSchÃ¶": 5020,
      "nfal": 5021,
      "ziellen": 5022,
      "ĠBla": 5023,
      "einvers": 5024,
      "einverstanden": 5025,
      "system": 5026,
      "chÃ¤t": 5027,
      "sagt": 5028,
      "Ġging": 5029,
      "Ġgrundlegende": 5030,
      "ĠfÃ¤": 5031,
      "ĠStreet": 5032,
      "Ġeinverstanden": 5033,
      "ĠHaar": 5034,
      "ĠDieses": 5035,
      "zierung": 5036,
      "Ġgesetzt": 5037,
      "nhand": 5038,
      "rkÃ": 5039,
      "rest": 5040,
      "ĠSchweiz": 5041,
      "Reg": 5042,
      "ĠtatsÃ¤chlich": 5043,
      "Unse": 5044,
      "ĠWald": 5045,
      "ingeb": 5046,
      "Ġ)": 5047,
      "ĠServer": 5048,
      "Unser": 5049,
      "gerÃ¤t": 5050,
      "Durch": 5051,
      "ĠDieser": 5052,
      "bu": 5053,
      "Wer": 5054,
      "ĠBericht": 5055,
      "ĠgewÃ¤h": 5056,
      "schu": 5057,
      "Ro": 5058,
      "gangen": 5059,
      "rechtli": 5060,
      "The": 5061,
      "press": 5062,
      "Ġenth": 5063,
      "nbieters": 5064,
      "ĠYo": 5065,
      "rechtlich": 5066,
      "ĠLeistungen": 5067,
      "Ġkonnten": 5068,
      "Ġliefe": 5069,
      "chkeit": 5070,
      "dte": 5071,
      "ĠAbend": 5072,
      "furt": 5073,
      "ĠFrÃ¼h": 5074,
      "dienst": 5075,
      "rreichen": 5076,
      "ĠverÃ¤": 5077,
      "Ġmax": 5078,
      "anhand": 5079,
      "ĠProgramm": 5080,
      "ĠWun": 5081,
      "ĠFil": 5082,
      "Ġgek": 5083,
      "undes": 5084,
      "ĠBox": 5085,
      "ienen": 5086,
      "Ġanhand": 5087,
      "cking": 5088,
      "rief": 5089,
      "ĠVort": 5090,
      "Ġaktuelle": 5091,
      "ĠUns": 5092,
      "hol": 5093,
      "bis": 5094,
      "ĠDamit": 5095,
      "vid": 5096,
      "enb": 5097,
      "Ġbege": 5098,
      "Ġtrotzdem": 5099,
      "srecht": 5100,
      "SV": 5101,
      "eingeb": 5102,
      "sichtl": 5103,
      "ĠhÃ¤ufig": 5104,
      "ntag": 5105,
      "Ġklar": 5106,
      "unab": 5107,
      "messen": 5108,
      "Ġsomit": 5109,
      "ĠHel": 5110,
      "misch": 5111,
      "¼ler": 5112,
      "ĠGemeinde": 5113,
      "lusive": 5114,
      "Ġtri": 5115,
      "ĠRegist": 5116,
      "âĢ¦]": 5117,
      "FA": 5118,
      "ieb": 5119,
      "Kategorien": 5120,
      "ĠStaat": 5121,
      "was": 5122,
      "lus": 5123,
      "oba": 5124,
      "erreichen": 5125,
      "utsche": 5126,
      "Ġru": 5127,
      "Ġeingeb": 5128,
      "ĠBank": 5129,
      "nfall": 5130,
      "ĠBestellung": 5131,
      "rierung": 5132,
      "Ġerreichen": 5133,
      "ĠGesundheits": 5134,
      "Ġeuro": 5135,
      "ech": 5136,
      "ktor": 5137,
      "Ġhochwert": 5138,
      "sichtli": 5139,
      "ĠlÃ¶schen": 5140,
      "Ġaktivieren": 5141,
      "Ġoffen": 5142,
      "ĠÃ¼bers": 5143,
      "ICH": 5144,
      "Ġklei": 5145,
      "Ġselbe": 5146,
      "inwand": 5147,
      "ey": 5148,
      "alsch": 5149,
      "ĠDruck": 5150,
      "fahren": 5151,
      "ĠFlÃ¼": 5152,
      "ĠFort": 5153,
      "ntd": 5154,
      "imale": 5155,
      "schla": 5156,
      "glied": 5157,
      "ĠSchluss": 5158,
      "sichtlich": 5159,
      "ĠSozial": 5160,
      "ourna": 5161,
      "Ġangezeigt": 5162,
      "how": 5163,
      "ionel": 5164,
      "ĠTages": 5165,
      "Ġpersonenbezogener": 5166,
      "ĠFirma": 5167,
      "publik": 5168,
      "best": 5169,
      "ĠÂ©": 5170,
      "ĠdaÃŁ": 5171,
      "UR": 5172,
      "stan": 5173,
      "ifika": 5174,
      "ĠVerfahren": 5175,
      "Ġerte": 5176,
      "ĠMÃ¶glichkeite": 5177,
      "rient": 5178,
      "programm": 5179,
      "Ġrichten": 5180,
      "schÃ¼t": 5181,
      "ĠMÃ¶glichkeiten": 5182,
      "ruhe": 5183,
      "eckt": 5184,
      "file": 5185,
      "entd": 5186,
      "bahn": 5187,
      "lf": 5188,
      "ĠBand": 5189,
      "Ġdadurch": 5190,
      "erapie": 5191,
      "ĠFahrzeug": 5192,
      "Ġq": 5193,
      "ĠÃ¼bertra": 5194,
      "Ġ80": 5195,
      "Ġkombiniert": 5196,
      "ĠHeil": 5197,
      "Ġfol": 5198,
      "Ġeinzelnen": 5199,
      "Ġentwickelt": 5200,
      "sitze": 5201,
      "Ã¼re": 5202,
      "ĠTu": 5203,
      "ĠDich": 5204,
      "¤hlen": 5205,
      "nbietern": 5206,
      "rieben": 5207,
      "Ġinformieren": 5208,
      "ction": 5209,
      "Veran": 5210,
      "ĠKindern": 5211,
      "BB": 5212,
      "kraft": 5213,
      "irmen": 5214,
      "Ġschlie": 5215,
      "ĠDritten": 5216,
      "ĠprÃ¤s": 5217,
      "lta": 5218,
      "gebenen": 5219,
      "ĠprÃ¤se": 5220,
      "gebu": 5221,
      "Ġinternationale": 5222,
      "Ġheut": 5223,
      "sil": 5224,
      "odc": 5225,
      "rlaubt": 5226,
      "rÃ¤ge": 5227,
      "zinische": 5228,
      "Ġfunktioniert": 5229,
      "Sk": 5230,
      "ionell": 5231,
      "Abo": 5232,
      "see": 5233,
      "ĠbÃ": 5234,
      "rsten": 5235,
      "missionen": 5236,
      "Part": 5237,
      "Ġinteg": 5238,
      "ĠheiÃŁt": 5239,
      "ournal": 5240,
      "ĠAuÃŁerdem": 5241,
      "ĠFinanz": 5242,
      "vel": 5243,
      "Ġentd": 5244,
      "gazin": 5245,
      "ĠprÃ¤sen": 5246,
      "iva": 5247,
      "ution": 5248,
      "ichter": 5249,
      "Ġgefunden": 5250,
      "els": 5251,
      "Ġwunde": 5252,
      "ranti": 5253,
      "ĠDorf": 5254,
      "Vide": 5255,
      "levan": 5256,
      "uelles": 5257,
      "rigi": 5258,
      "uth": 5259,
      "ĠKlei": 5260,
      "hase": 5261,
      "mera": 5262,
      "41": 5263,
      "ĠBade": 5264,
      "nau": 5265,
      "Ġdeshalb": 5266,
      "meld": 5267,
      "Sicht": 5268,
      "roh": 5269,
      "Schl": 5270,
      "Ġkomp": 5271,
      "Ġspielen": 5272,
      "Ġred": 5273,
      "eide": 5274,
      "ieÃŁen": 5275,
      "Ġposit": 5276,
      "egal": 5277,
      "Ã©": 5278,
      "nfrei": 5279,
      "opy": 5280,
      "ĠLeistung": 5281,
      "Host": 5282,
      "ysi": 5283,
      "einwand": 5284,
      ".-": 5285,
      "Blog": 5286,
      "ĠBasis": 5287,
      "netz": 5288,
      "ĠPubli": 5289,
      "Ġwebsite": 5290,
      "sino": 5291,
      "ĠKreis": 5292,
      "ĠEuropÃ¤ischen": 5293,
      "ĠSpaÃŁ": 5294,
      "fische": 5295,
      "ĠFamilien": 5296,
      "istische": 5297,
      "ĠUN": 5298,
      "wachen": 5299,
      "nntnis": 5300,
      "nzl": 5301,
      "rot": 5302,
      "rschaft": 5303,
      "ĠWinte": 5304,
      "Ġverhindern": 5305,
      "ĠTÃ¤t": 5306,
      "Ġetc": 5307,
      "nch": 5308,
      "gessen": 5309,
      "omo": 5310,
      "iler": 5311,
      "Ġerneut": 5312,
      "ES": 5313,
      "ĠSuch": 5314,
      "fÃ¤ll": 5315,
      "ĠKapi": 5316,
      "ĠunterstÃ¼tzt": 5317,
      "mme": 5318,
      "werte": 5319,
      "ĠDort": 5320,
      "ĠChance": 5321,
      "geschichte": 5322,
      "nso": 5323,
      "verhalten": 5324,
      "levant": 5325,
      "Ġeinwand": 5326,
      "ĠHinsicht": 5327,
      "ĠListe": 5328,
      "Ġ35": 5329,
      "ĠPlatt": 5330,
      "zahlen": 5331,
      "zÃ¼glich": 5332,
      "male": 5333,
      "Ġnied": 5334,
      "fÃ¶rde": 5335,
      "Ġfindest": 5336,
      "ĠIT": 5337,
      "ĠDazu": 5338,
      "ritis": 5339,
      "tzl": 5340,
      "gebun": 5341,
      "gebung": 5342,
      "erlaubt": 5343,
      "medizin": 5344,
      "Ġnormal": 5345,
      "ĠErwa": 5346,
      "mai": 5347,
      "Top": 5348,
      "funktion": 5349,
      "ĠKolle": 5350,
      "tto": 5351,
      "oppe": 5352,
      "ĠKurs": 5353,
      "ĠDire": 5354,
      "ĠObe": 5355,
      "ĠfÃ¼nf": 5356,
      "ĠSchre": 5357,
      "kunden": 5358,
      "Ġerz": 5359,
      "ichkeit": 5360,
      "zig": 5361,
      "Ġpe": 5362,
      "ĠWel": 5363,
      "Ġerlaubt": 5364,
      "gende": 5365,
      "dul": 5366,
      "ulti": 5367,
      "othe": 5368,
      "ĠMini": 5369,
      "ĠFotos": 5370,
      "Ġmindestens": 5371,
      "uster": 5372,
      "ĠUnternehmens": 5373,
      "Ġ90": 5374,
      "ĠInforma": 5375,
      "schri": 5376,
      "ĠProbleme": 5377,
      "iblio": 5378,
      "ĠBÃ¼rger": 5379,
      "Ġbedarf": 5380,
      "Ġwohn": 5381,
      "Ġbesuchen": 5382,
      "Ġvolle": 5383,
      "ldie": 5384,
      "ĠRhe": 5385,
      "ktions": 5386,
      "ĠWebseiten": 5387,
      "ĠÃ¤hnliche": 5388,
      "Ġkonk": 5389,
      "Ġsetzt": 5390,
      "logie": 5391,
      "by": 5392,
      "usiness": 5393,
      "Ġentsprechend": 5394,
      "Ġbeliebt": 5395,
      "ĠbestÃ¤t": 5396,
      "iegen": 5397,
      "Ġebenso": 5398,
      "ĠPfe": 5399,
      "gd": 5400,
      "ĠSchne": 5401,
      "ĠTite": 5402,
      "stellte": 5403,
      "¼sse": 5404,
      "ĠenthÃ¤lt": 5405,
      "sgesamt": 5406,
      "reuz": 5407,
      "ĠVerkauf": 5408,
      "IM": 5409,
      "gart": 5410,
      "rko": 5411,
      "gemeine": 5412,
      "pfe": 5413,
      "gf": 5414,
      "ferenzen": 5415,
      "lterna": 5416,
      "twortu": 5417,
      "ĠHouse": 5418,
      "twortun": 5419,
      "ĠEssen": 5420,
      "twortung": 5421,
      "Ã¤hlt": 5422,
      "Ġstimmen": 5423,
      "hnte": 5424,
      "wede": 5425,
      "Ġsoweit": 5426,
      "Ġakzeptiert": 5427,
      "ĠGeburt": 5428,
      "ĠGesprÃ¤ch": 5429,
      "Ġpolitische": 5430,
      "Unt": 5431,
      "ĠLÃ¶schung": 5432,
      "ttes": 5433,
      "ĠKunde": 5434,
      "ĠMÃ¼": 5435,
      "ĠwÃ¤hlen": 5436,
      "ĠschÃ¶n": 5437,
      "ĠReih": 5438,
      "ĠHerb": 5439,
      "pport": 5440,
      "ansp": 5441,
      "ĠZent": 5442,
      "uber": 5443,
      "Ġ2005": 5444,
      "66": 5445,
      "Ġgeschni": 5446,
      "Ġlaut": 5447,
      "zentral": 5448,
      "ĠJahrhunde": 5449,
      "ĠHause": 5450,
      "Bet": 5451,
      "Ġhilft": 5452,
      "stik": 5453,
      "Ġbefindet": 5454,
      "rmine": 5455,
      "Ġunab": 5456,
      "ĠRob": 5457,
      "}}": 5458,
      "verkehr": 5459,
      "ndle": 5460,
      "box": 5461,
      "phÃ¤": 5462,
      "Ġsoda": 5463,
      "ssystem": 5464,
      "ĠBerg": 5465,
      "werbe": 5466,
      "ĠWett": 5467,
      "Ã¶gen": 5468,
      "tfern": 5469,
      "ĠGewinn": 5470,
      "ĠrechtmÃ¤ÃŁigen": 5471,
      "Ġschwer": 5472,
      "Ġgelten": 5473,
      "ĠHunde": 5474,
      "Ġdazuge": 5475,
      "nsehen": 5476,
      "auftra": 5477,
      "rmann": 5478,
      "bt": 5479,
      "ĠWidersp": 5480,
      "ĠDemo": 5481,
      "ĠDiskussion": 5482,
      "Ġprivate": 5483,
      "RA": 5484,
      "ĠKommunikation": 5485,
      "ĠMw": 5486,
      "sses": 5487,
      "Mei": 5488,
      "ĠJetzt": 5489,
      "ĠGemein": 5490,
      "wirkungen": 5491,
      "ĠViele": 5492,
      "isieren": 5493,
      "Ġerstellt": 5494,
      "ĠGefÃ¼": 5495,
      "Ġrein": 5496,
      "Ġwelcher": 5497,
      "maÃŁ": 5498,
      "rrow": 5499,
      "hler": 5500,
      "ĠSicht": 5501,
      "ĠReihe": 5502,
      "rategie": 5503,
      "Ġfolgende": 5504,
      "dago": 5505,
      "Ġbeha": 5506,
      "Ġkaum": 5507,
      "dorf": 5508,
      "ĠHeraus": 5509,
      "lÃ¤ge": 5510,
      "Ġzweiten": 5511,
      "Ġeh": 5512,
      "lobal": 5513,
      "Script": 5514,
      "asche": 5515,
      "Ġverwalten": 5516,
      "Dies": 5517,
      "Ġinkl": 5518,
      "ahme": 5519,
      "IP": 5520,
      "nntag": 5521,
      "2017": 5522,
      "rpunkt": 5523,
      "rweit": 5524,
      "Artikel": 5525,
      "nkte": 5526,
      "ĠTho": 5527,
      "ĠTV": 5528,
      "ĠErfolg": 5529,
      "reg": 5530,
      "ĠStaats": 5531,
      "ester": 5532,
      "Beschreibung": 5533,
      "lation": 5534,
      "stattet": 5535,
      "ĠĠ": 5536,
      "ĠKonkurs": 5537,
      "Ġgenannten": 5538,
      "imat": 5539,
      "ket": 5540,
      "mate": 5541,
      "tle": 5542,
      "ĠKommunikations": 5543,
      "park": 5544,
      "Ġgesetzlichen": 5545,
      "ĠAnmeldung": 5546,
      "rans": 5547,
      "oope": 5548,
      "alten": 5549,
      "ĠverfÃ¼gbar": 5550,
      "neten": 5551,
      "verbrauch": 5552,
      "mache": 5553,
      "lÃ¶s": 5554,
      "ĠWasse": 5555,
      "Ġneues": 5556,
      "Ġliebe": 5557,
      "ĠInc": 5558,
      "rordnung": 5559,
      "gelegt": 5560,
      "ĠDritte": 5561,
      "ĠEinb": 5562,
      "rantie": 5563,
      "Ġwith": 5564,
      "runter": 5565,
      "fordert": 5566,
      "Ġbetreffe": 5567,
      "arbeitet": 5568,
      "kro": 5569,
      "yle": 5570,
      "ĠTitel": 5571,
      "âĢĶ": 5572,
      "ĠgewÃ¤hrle": 5573,
      "Ġdennoch": 5574,
      "Ġwarum": 5575,
      "ĠZusammenhang": 5576,
      "oni": 5577,
      "ritisch": 5578,
      "ĠSonnen": 5579,
      "Ġbenut": 5580,
      "stÃ¤ndig": 5581,
      "ĠRezept": 5582,
      "nisches": 5583,
      "chinen": 5584,
      "Ġno": 5585,
      "ĠTan": 5586,
      "nager": 5587,
      "ĠHan": 5588,
      "ehenden": 5589,
      "fessionell": 5590,
      "ervice": 5591,
      "ffel": 5592,
      "ĠHerkunft": 5593,
      "ĠMus": 5594,
      "ĠHome": 5595,
      "ĠJob": 5596,
      "Euro": 5597,
      "Sig": 5598,
      "iona": 5599,
      "king": 5600,
      "ĠServices": 5601,
      "versicherung": 5602,
      "ĠschÃ¼t": 5603,
      "kale": 5604,
      "rÃ¶ffen": 5605,
      "Ġ06": 5606,
      "VerÃ¶ffen": 5607,
      "AGB": 5608,
      "ĠZwei": 5609,
      "meln": 5610,
      "ĠVeranstaltungen": 5611,
      "wig": 5612,
      "pfen": 5613,
      "ĠOut": 5614,
      "edÃ¼r": 5615,
      "Ġlos": 5616,
      "Bild": 5617,
      "zahlung": 5618,
      "amin": 5619,
      "ĠRhei": 5620,
      "ĠErgebnisse": 5621,
      "Instagram": 5622,
      "58": 5623,
      "rtin": 5624,
      "Angeb": 5625,
      "management": 5626,
      "Ġeinwandfreie": 5627,
      "Ġerfolgreich": 5628,
      "orteile": 5629,
      "ĠZeich": 5630,
      "Ġ[âĢ¦]": 5631,
      "pier": 5632,
      "ruchs": 5633,
      "ĠMwSt": 5634,
      "ĠLeute": 5635,
      "ĠausgewÃ¤hlt": 5636,
      "rakt": 5637,
      "zeugen": 5638,
      "nfÃ": 5639,
      "Mai": 5640,
      "Ġprodu": 5641,
      "gangs": 5642,
      "ĠWeihnachts": 5643,
      "ÃŁend": 5644,
      "ĠStad": 5645,
      "denken": 5646,
      "bad": 5647,
      "Ġgestellt": 5648,
      "77": 5649,
      "Pi": 5650,
      "Ġlernen": 5651,
      "BE": 5652,
      "Ġkontakt": 5653,
      "ĠBeschwe": 5654,
      "ĠRÃ¤": 5655,
      "ĠerklÃ¤rt": 5656,
      "ersorgung": 5657,
      "ĠÃ¶ffentlichen": 5658,
      "ĠGerÃ¤t": 5659,
      "zwecken": 5660,
      "ividuelle": 5661,
      "ffnung": 5662,
      "Ġfinan": 5663,
      "Ġentsprechende": 5664,
      "ĠzunÃ¤chst": 5665,
      "stl": 5666,
      "otiv": 5667,
      "ĠKranken": 5668,
      "opyright": 5669,
      "ĠDeine": 5670,
      "lam": 5671,
      "ĠDia": 5672,
      "ination": 5673,
      "gebÃ": 5674,
      "Viele": 5675,
      "Ġverg": 5676,
      "riant": 5677,
      "ldieweil": 5678,
      "Ġweg": 5679,
      "ĠPsych": 5680,
      "DR": 5681,
      "Emissionen": 5682,
      "fangen": 5683,
      "wissenschaftl": 5684,
      "59": 5685,
      "nummer": 5686,
      "Ġferner": 5687,
      "ltet": 5688,
      "ĠHÃ¼": 5689,
      "ĠâĨĴ": 5690,
      "gleit": 5691,
      "nissen": 5692,
      "ereich": 5693,
      "Ġgespeicherten": 5694,
      "âĢĺ": 5695,
      "Ġgern": 5696,
      "ĠSche": 5697,
      "grundlage": 5698,
      "Ġwollte": 5699,
      "ĠIde": 5700,
      "sitz": 5701,
      "ĠmÃ¶glicherweise": 5702,
      "Ġerkennen": 5703,
      "Sport": 5704,
      "ĠwÃ¼rden": 5705,
      "low": 5706,
      "hrte": 5707,
      "rmal": 5708,
      "meister": 5709,
      "angen": 5710,
      "stellten": 5711,
      "schÃ¤t": 5712,
      "ĠGas": 5713,
      "treten": 5714,
      "ilf": 5715,
      "mli": 5716,
      "cm": 5717,
      "AP": 5718,
      "rust": 5719,
      "Ġalten": 5720,
      "Ġpla": 5721,
      "erzeit": 5722,
      "ĠKredit": 5723,
      "ĠBett": 5724,
      "rankhe": 5725,
      "rankhei": 5726,
      "rankheit": 5727,
      "Ġweitem": 5728,
      "lÃ¤tze": 5729,
      "ĠPol": 5730,
      "Ġmeinst": 5731,
      "ĠNÃ¤he": 5732,
      "ĠWien": 5733,
      "Ġnachhalt": 5734,
      "ĠBek": 5735,
      "elten": 5736,
      "ĠÃĦnderungen": 5737,
      "nschutz": 5738,
      "ĠEntscheidu": 5739,
      "2016": 5740,
      "ĠEntscheidun": 5741,
      "Ġaktuell": 5742,
      "hte": 5743,
      "ĠEntscheidung": 5744,
      "Ġhohen": 5745,
      "off": 5746,
      "Ġgerechnet": 5747,
      "Ġoptim": 5748,
      "rand": 5749,
      "cessa": 5750,
      "edig": 5751,
      "Tel": 5752,
      "ĠFeld": 5753,
      "56": 5754,
      "Ġfinde": 5755,
      "42": 5756,
      "ĠGla": 5757,
      "Ġwenden": 5758,
      "ĠPunkte": 5759,
      "nberg": 5760,
      "ĠProf": 5761,
      "ktie": 5762,
      "ĠPraxis": 5763,
      "ĠSituation": 5764,
      "alte": 5765,
      "Ġdar": 5766,
      "achs": 5767,
      "Ihr": 5768,
      "tensi": 5769,
      "ĠSchritt": 5770,
      "ĠGott": 5771,
      "zufÃ¼hren": 5772,
      "Sim": 5773,
      "ĠTechnik": 5774,
      "gleiche": 5775,
      "hausen": 5776,
      "ĠPri": 5777,
      "Ġvergangen": 5778,
      "egelt": 5779,
      "ĠPay": 5780,
      "ibliothe": 5781,
      "lÃ¶": 5782,
      "Analys": 5783,
      "ĠUniversitÃ¤t": 5784,
      "ĠbÃ¼": 5785,
      "ĠZeite": 5786,
      "utton": 5787,
      "rÃ¼cksicht": 5788,
      "kom": 5789,
      "ĠArchi": 5790,
      "Ġwerfen": 5791,
      "ĠBÃ¤": 5792,
      "grafie": 5793,
      "cessary": 5794,
      "ĠZahn": 5795,
      "wÃ¼rd": 5796,
      "richtungen": 5797,
      "ĠErfahrungen": 5798,
      "ĠGlas": 5799,
      "ĠGren": 5800,
      "ntfern": 5801,
      "Ãľ": 5802,
      "Ġschwa": 5803,
      "Ġide": 5804,
      "lldieweil": 5805,
      "alldieweil": 5806,
      "Ġalldieweil": 5807,
      "mlich": 5808,
      "ĠWuns": 5809,
      "zeichnungen": 5810,
      "uti": 5811,
      "ĠAuftrag": 5812,
      "ĠVorla": 5813,
      "ĠKÃ¶nig": 5814,
      "entfern": 5815,
      "ĠDinge": 5816,
      "ĠAbschluss": 5817,
      "ĠRisiko": 5818,
      "Essenzielle": 5819,
      "amp": 5820,
      "mut": 5821,
      "gieren": 5822,
      "Ġcha": 5823,
      "rowser": 5824,
      "ĠSE": 5825,
      "wid": 5826,
      "Analyse": 5827,
      "ĠMenge": 5828,
      "ĠAnwendung": 5829,
      "ĠVerhalten": 5830,
      "ĠAnzahl": 5831,
      "Ġwohnhaft": 5832,
      "wiesen": 5833,
      "riante": 5834,
      "Ġklein": 5835,
      "ehende": 5836,
      "tags": 5837,
      "ĠHaupts": 5838,
      "rÃ¼cke": 5839,
      "derzeit": 5840,
      "vors": 5841,
      "ĠPatiente": 5842,
      "zgl": 5843,
      "iat": 5844,
      "plant": 5845,
      "ĠKn": 5846,
      "pack": 5847,
      "ĠregelmÃ¤ÃŁig": 5848,
      "Preis": 5849,
      "Ġgeschlossen": 5850,
      "ĠCl": 5851,
      "staa": 5852,
      "gesetz": 5853,
      "ause": 5854,
      "nachricht": 5855,
      "einde": 5856,
      "ĠEntwick": 5857,
      "ĠLese": 5858,
      "kel": 5859,
      "Ġgemeinsa": 5860,
      "ĠNew": 5861,
      "ehler": 5862,
      "nsgesamt": 5863,
      "insgesamt": 5864,
      "ffnen": 5865,
      "reife": 5866,
      "Ġabger": 5867,
      "mun": 5868,
      "ĠPlat": 5869,
      "ĠCen": 5870,
      "erungen": 5871,
      "Ġbringt": 5872,
      "ĠSÃ¼": 5873,
      "verband": 5874,
      "bald": 5875,
      "ĠMeth": 5876,
      "erna": 5877,
      "Ġeinde": 5878,
      "ĠmÃ¶gliche": 5879,
      "ĠSex": 5880,
      "ĠEinschrÃ¤": 5881,
      "itÃ¤ts": 5882,
      "Ġentfern": 5883,
      "page": 5884,
      "nners": 5885,
      "nbau": 5886,
      "cc": 5887,
      "wÃ¼r": 5888,
      "verein": 5889,
      "ĠSitz": 5890,
      "raÃŁe": 5891,
      "ĠFis": 5892,
      "Medizinische": 5893,
      "ym": 5894,
      "chliche": 5895,
      "ĠkÃ¶nnten": 5896,
      "ernt": 5897,
      "ĠFÃ¤llen": 5898,
      "âĤ": 5899,
      "uert": 5900,
      "gemeinen": 5901,
      "ĠVerlag": 5902,
      "Ġfalsch": 5903,
      "ĠLieferung": 5904,
      "79": 5905,
      "ĠIst": 5906,
      "ĠSchlÃ¼sse": 5907,
      "ĠÃľbers": 5908,
      "rkrank": 5909,
      "Nur": 5910,
      "sionen": 5911,
      "ferenz": 5912,
      "Ã¶lke": 5913,
      "nern": 5914,
      "ĠKÃ¶ln": 5915,
      "Ġderzeit": 5916,
      "viel": 5917,
      "ziehungsweise": 5918,
      "ordo": 5919,
      "rgan": 5920,
      "Ġeindeut": 5921,
      "ehn": 5922,
      "Ġhervor": 5923,
      "ĠBlut": 5924,
      "chaften": 5925,
      "Ġbraucht": 5926,
      "Ġbisher": 5927,
      "ĠKonto": 5928,
      "ĠBahn": 5929,
      "68": 5930,
      "Ġgleichzeitig": 5931,
      "ĠGeh": 5932,
      "DP": 5933,
      "Ġ<": 5934,
      "ĠMeinung": 5935,
      "Ġinsgesamt": 5936,
      "aust": 5937,
      "Ġas": 5938,
      "Frei": 5939,
      "ĠPrin": 5940,
      "ĠschlieÃŁen": 5941,
      "ĠWolf": 5942,
      "uchs": 5943,
      "ĠQual": 5944,
      "ĠOd": 5945,
      "Ġ70": 5946,
      "Sub": 5947,
      "nternehmen": 5948,
      "ĠGleich": 5949,
      "II": 5950,
      "muck": 5951,
      "rv": 5952,
      "gebiet": 5953,
      "ĠMonaten": 5954,
      "ĠÃ¼bertragen": 5955,
      "ĠBestand": 5956,
      "ĠFalle": 5957,
      "ĠbenÃ¶tigt": 5958,
      "ergrund": 5959,
      "ĠPartei": 5960,
      "acher": 5961,
      "ĠDen": 5962,
      "Ġbesit": 5963,
      "Ġverlangen": 5964,
      "fÃ¼hrer": 5965,
      "Individuelle": 5966,
      "ebli": 5967,
      "bach": 5968,
      "ordon": 5969,
      "ĠErh": 5970,
      "ĠDis": 5971,
      "Ġoffi": 5972,
      "barkeit": 5973,
      "nehme": 5974,
      "Ġblockiert": 5975,
      "âĤĤ": 5976,
      "springen": 5977,
      "Ġbeziehungsweise": 5978,
      "ĠGruppen": 5979,
      "tud": 5980,
      "ĠZeiten": 5981,
      "ĠInnova": 5982,
      "ther": 5983,
      "Ġeingesetzt": 5984,
      "Â°": 5985,
      "Ġwichtige": 5986,
      "Ġentfernt": 5987,
      "ĠwÃ¼nsche": 5988,
      "wald": 5989,
      "tzli": 5990,
      "nforderungen": 5991,
      "effe": 5992,
      "ĠAusbildung": 5993,
      "iloso": 5994,
      "Ã¤r": 5995,
      "menten": 5996,
      "Ġzudem": 5997,
      "ĠKrÃ¤fte": 5998,
      "nland": 5999,
      "ĠKonf": 6000,
      "ibel": 6001,
      "Ġjunge": 6002,
      "Ob": 6003,
      "Ġgenommen": 6004,
      "ĠHerr": 6005,
      "wick": 6006,
      "ĠUp": 6007,
      "sburg": 6008,
      "Telefon": 6009,
      "ĠGrÃ¶ÃŁe": 6010,
      "ĠDatenschutzeinstellungen": 6011,
      "tua": 6012,
      "Ġstets": 6013,
      "mische": 6014,
      "Ġgegeben": 6015,
      "lon": 6016,
      "Ġ500": 6017,
      "tekt": 6018,
      "ect": 6019,
      "haltu": 6020,
      "bewa": 6021,
      "haltun": 6022,
      "zeichnung": 6023,
      "haltung": 6024,
      "Liebe": 6025,
      "Ġthis": 6026,
      "rah": 6027,
      "kus": 6028,
      "ĠPolizei": 6029,
      "rzl": 6030,
      "wasser": 6031,
      "Ġnot": 6032,
      "Ġreal": 6033,
      "ĠRegen": 6034,
      "rmÃ¶gen": 6035,
      "ĠErgebnis": 6036,
      "UT": 6037,
      "gehend": 6038,
      "Ġsorgt": 6039,
      "fÃ¼gen": 6040,
      "ĠAdresse": 6041,
      "stuhl": 6042,
      "chlÃ¼sse": 6043,
      "pag": 6044,
      "ĠAnspruch": 6045,
      "ĠBeginn": 6046,
      "ĠComputer": 6047,
      "rationen": 6048,
      "ĠÃľbertragung": 6049,
      "EG": 6050,
      "tzlich": 6051,
      "Ġinsta": 6052,
      "daktion": 6053,
      "Ġtechnisch": 6054,
      "inger": 6055,
      "Ġ02": 6056,
      "ĠFarben": 6057,
      "Ġkomme": 6058,
      "phÃ¤re": 6059,
      "Archiv": 6060,
      "Mein": 6061,
      "Ġthat": 6062,
      "tfe": 6063,
      "Ġeinigen": 6064,
      "gerÃ¤te": 6065,
      "ĠUnion": 6066,
      "ngl": 6067,
      "ĠGrÃ¼nden": 6068,
      "ĠSem": 6069,
      "fragen": 6070,
      "VerÃ¶ffentlicht": 6071,
      "material": 6072,
      "mtliche": 6073,
      "kis": 6074,
      "erflÃ¤che": 6075,
      "ĠWinter": 6076,
      "Ġredu": 6077,
      "llst": 6078,
      "linien": 6079,
      "ĠWiede": 6080,
      "ĠSk": 6081,
      "ĠBildung": 6082,
      "hner": 6083,
      "Ġpraktisch": 6084,
      "ndis": 6085,
      "ĠKarte": 6086,
      "Ġkg": 6087,
      "Ġbesch": 6088,
      "tionel": 6089,
      "reet": 6090,
      "UM": 6091,
      "erli": 6092,
      "rater": 6093,
      "ĠLÃ¶su": 6094,
      "ĠâĢĶ": 6095,
      "ĠLÃ¶sun": 6096,
      "ĠGordon": 6097,
      "dru": 6098,
      "Ġabo": 6099,
      "ĠGet": 6100,
      "tausch": 6101,
      "ĠWest": 6102,
      "ĠWunsch": 6103,
      "tionell": 6104,
      "konze": 6105,
      "nischer": 6106,
      "Ġrechtl": 6107,
      "ĠStei": 6108,
      "Ġgesehen": 6109,
      "ĠLÃ¶sung": 6110,
      "ĠFrankfurt": 6111,
      "ĠstandardmÃ¤ÃŁig": 6112,
      "Reis": 6113,
      "Ġentscheiden": 6114,
      "chtennis": 6115,
      "Ġgeschniegelt": 6116,
      "Ġmittl": 6117,
      "gat": 6118,
      "facebook": 6119,
      "ĠKaffe": 6120,
      "Foto": 6121,
      "ĠnÃ¤": 6122,
      "Neu": 6123,
      "uerha": 6124,
      "uttgart": 6125,
      "uern": 6126,
      "ĠErl": 6127,
      "tiere": 6128,
      "reb": 6129,
      "ĠPresse": 6130,
      "erstellung": 6131,
      "Ġ05": 6132,
      "ĠPatienten": 6133,
      "Ju": 6134,
      "Ġgelte": 6135,
      "gele": 6136,
      "ĠDienstleistungen": 6137,
      "Ġfra": 6138,
      "ĠhÃ¶h": 6139,
      "erga": 6140,
      "Ġfahrenden": 6141,
      "ĠLive": 6142,
      "ĠUs": 6143,
      "Ġfreie": 6144,
      "ntrÃ¤": 6145,
      "Online": 6146,
      "Vor": 6147,
      "Ġtreffen": 6148,
      "ional": 6149,
      "ĠWÃ¼nsche": 6150,
      "Warum": 6151,
      "ĠQu": 6152,
      "ĠBarrow": 6153,
      "ĠMob": 6154,
      "ĠVolks": 6155,
      "Ġerreicht": 6156,
      "nlage": 6157,
      "lim": 6158,
      "nsts": 6159,
      "ĠWirkung": 6160,
      "ption": 6161,
      "Ġinteressante": 6162,
      "rker": 6163,
      "ĠKur": 6164,
      "¤cht": 6165,
      "Ġusw": 6166,
      "Ġverpflicht": 6167,
      "==": 6168,
      ",_": 6169,
      "egu": 6170,
      "Ġgescha": 6171,
      "Ġaufzu": 6172,
      "Ġrechtli": 6173,
      "halts": 6174,
      "ĠIndustrie": 6175,
      "Ġrechtlich": 6176,
      "reen": 6177,
      "orten": 6178,
      "ckl": 6179,
      "Ġhttp": 6180,
      "ĠsÃ¤": 6181,
      "ĠKonta": 6182,
      "EigentÃ¼mer": 6183,
      "mung": 6184,
      "Ġsy": 6185,
      "Ġaufspringen": 6186,
      "ĠSchlaf": 6187,
      "nmelden": 6188,
      "anmelden": 6189,
      "Ġ03": 6190,
      "Ġgenie": 6191,
      "ĠRund": 6192,
      "ĠÃ¤h": 6193,
      "Ġ45": 6194,
      "OP": 6195,
      "brechen": 6196,
      "Ġvorges": 6197,
      "rstellen": 6198,
      "Ġeinzig": 6199,
      "sischen": 6200,
      "Ġgeworden": 6201,
      "ĠIdeen": 6202,
      "istungs": 6203,
      "ĠArzt": 6204,
      "last": 6205,
      "Administ": 6206,
      "ĠGÃ¤ste": 6207,
      "ĠWal": 6208,
      "Ġgestalten": 6209,
      "maschine": 6210,
      "69": 6211,
      "Ġinteress": 6212,
      "AC": 6213,
      "ingt": 6214,
      "ĠDrittanbieter": 6215,
      "ĠRea": 6216,
      "ĠBehandlung": 6217,
      "Sand": 6218,
      "rschungs": 6219,
      "ĠdazugehÃ¶ren": 6220,
      "samkeit": 6221,
      "Ġangen": 6222,
      "erhe": 6223,
      "nked": 6224,
      "rgeh": 6225,
      "odcast": 6226,
      "ĠImmer": 6227,
      "ĠWirtschafts": 6228,
      "kraine": 6229,
      "dacht": 6230,
      "Ġnachdem": 6231,
      "stal": 6232,
      "ĠTie": 6233,
      "Gesch": 6234,
      "Ġtragen": 6235,
      "Ġanderer": 6236,
      "ĠVoll": 6237,
      "ĠFlo": 6238,
      "xel": 6239,
      "ĠBÃ¼ro": 6240,
      "Ġnimmt": 6241,
      "ĠRege": 6242,
      "stoffe": 6243,
      "win": 6244,
      "ĠFisch": 6245,
      "Ġalte": 6246,
      "prung": 6247,
      "amme": 6248,
      "ĠGeo": 6249,
      "ĠRuss": 6250,
      "ĠKri": 6251,
      "nle": 6252,
      "ndler": 6253,
      "ĠMoment": 6254,
      "ĠEinfluss": 6255,
      "bewerb": 6256,
      "ĠerklÃ¤ren": 6257,
      "Ġvergangene": 6258,
      "isk": 6259,
      "ĠVorauss": 6260,
      "ĠSchÃ¼ler": 6261,
      "chieden": 6262,
      "ĠErfÃ¼": 6263,
      "reitung": 6264,
      "ĠVerbrauch": 6265,
      "wechsel": 6266,
      "Ġverme": 6267,
      "ĠBayern": 6268,
      "Ġberechtigt": 6269,
      "nende": 6270,
      "dienen": 6271,
      "merzen": 6272,
      "Ġbefinden": 6273,
      "ĠAutor": 6274,
      "âĢĭ": 6275,
      "rolle": 6276,
      "ĠMetal": 6277,
      "loud": 6278,
      "ĠAlter": 6279,
      "zentrale": 6280,
      "Ġwahr": 6281,
      "nstitut": 6282,
      "fÃ¤lle": 6283,
      "Home": 6284,
      "Ġdienen": 6285,
      "ĠKlein": 6286,
      "rr": 6287,
      "rzli": 6288,
      "Speichert": 6289,
      "ĠVersion": 6290,
      "ĠGesamt": 6291,
      "ĠgrÃ¶ÃŁ": 6292,
      "ĠDatei": 6293,
      "Ġrechts": 6294,
      "ĠOst": 6295,
      "ĠCom": 6296,
      "rkÃ¤": 6297,
      "ĠMichael": 6298,
      "ĠHig": 6299,
      "ĠhÃ¤lt": 6300,
      "ĠAlterna": 6301,
      "Ġwese": 6302,
      "egun": 6303,
      "ĠErd": 6304,
      "weder": 6305,
      "ĠGen": 6306,
      "inschlie": 6307,
      "urm": 6308,
      "einschlie": 6309,
      "rzlich": 6310,
      "Ġanmelden": 6311,
      "egung": 6312,
      "AB": 6313,
      "ĠVerg": 6314,
      "irm": 6315,
      "ĠNetzwerk": 6316,
      "Ġvergessen": 6317,
      "ĠTou": 6318,
      "geld": 6319,
      "ĠPfa": 6320,
      "ĠSÃ¤": 6321,
      "tan": 6322,
      "AD": 6323,
      "Ġsenden": 6324,
      "Ġkna": 6325,
      "erteid": 6326,
      "empla": 6327,
      "ĠStatistiken": 6328,
      "Ġkomplett": 6329,
      "igkeits": 6330,
      "hall": 6331,
      "Plattformen": 6332,
      "nzeige": 6333,
      "Ski": 6334,
      "ĠWell": 6335,
      "sproch": 6336,
      "ĠJoha": 6337,
      "line": 6338,
      "Ġdat": 6339,
      "ĠÃ¼berprÃ¼": 6340,
      "usik": 6341,
      "flÃ¼": 6342,
      "Ġwesen": 6343,
      "ĠAufgaben": 6344,
      "ĠZubehÃ¶r": 6345,
      "ngste": 6346,
      "ĠUnse": 6347,
      "yna": 6348,
      "ĠJun": 6349,
      "Ġnahe": 6350,
      "ĠIden": 6351,
      "Ã¶rse": 6352,
      "ĠNieder": 6353,
      "emat": 6354,
      ".\"": 6355,
      "wind": 6356,
      "Ġsorgen": 6357,
      "ĠAppl": 6358,
      "niger": 6359,
      "OM": 6360,
      "stÃ¤nden": 6361,
      "ĠReich": 6362,
      "rechtliche": 6363,
      "ĠLeip": 6364,
      "oor": 6365,
      "ĠVideop": 6366,
      "*:": 6367,
      "ĠfrÃ¼he": 6368,
      "ranzÃ¶": 6369,
      "ĠMod": 6370,
      "ĠUnser": 6371,
      "BÃ": 6372,
      "erÃ¶": 6373,
      "rhei": 6374,
      "ĠTexte": 6375,
      "one": 6376,
      "Ġbesse": 6377,
      "ĠZusammenarbeit": 6378,
      "tar": 6379,
      "ĠFried": 6380,
      "rheber": 6381,
      "57": 6382,
      "text": 6383,
      "ĠInse": 6384,
      "ĠSpeichern": 6385,
      "ĠIdent": 6386,
      "service": 6387,
      "Chr": 6388,
      "ĠPersonal": 6389,
      "ĠHal": 6390,
      "dungen": 6391,
      "Ġhisto": 6392,
      "ots": 6393,
      "ĠKlinik": 6394,
      "Ġwirtschaft": 6395,
      "nhalt": 6396,
      "SC": 6397,
      "Innen": 6398,
      "pische": 6399,
      "ĠKurz": 6400,
      "Ġerfassen": 6401,
      "fol": 6402,
      "Ġsinn": 6403,
      "Ġendl": 6404,
      "ansehen": 6405,
      "Twitter": 6406,
      "rld": 6407,
      "ĠHerbst": 6408,
      "ndernfalls": 6409,
      "Ġ2004": 6410,
      "kunde": 6411,
      "zieht": 6412,
      "reundliche": 6413,
      "gesellschaft": 6414,
      "ĠAuskunft": 6415,
      "politik": 6416,
      "ĠRichtu": 6417,
      "ĠRichtun": 6418,
      "ĠBetriebs": 6419,
      "ĠRichtung": 6420,
      "ertig": 6421,
      "lau": 6422,
      "88": 6423,
      "Ġverdi": 6424,
      "ormance": 6425,
      "ĠBaum": 6426,
      "ĠFreitag": 6427,
      "Ġidentifizieren": 6428,
      "dra": 6429,
      "etzten": 6430,
      "ĠLeit": 6431,
      "rland": 6432,
      "teilu": 6433,
      "Ã¤hlen": 6434,
      "teilun": 6435,
      "ĠFreih": 6436,
      "chlechts": 6437,
      "intrÃ¤": 6438,
      "TP": 6439,
      "Ġzahlreiche": 6440,
      "sucht": 6441,
      "teilung": 6442,
      "¼rt": 6443,
      "ĠOde": 6444,
      "ĠSpann": 6445,
      "istet": 6446,
      "gleichen": 6447,
      "gy": 6448,
      "ĠFran": 6449,
      "chsen": 6450,
      "ĠVersandkosten": 6451,
      "name": 6452,
      "ntage": 6453,
      "####": 6454,
      "Ġggf": 6455,
      "Meta": 6456,
      "Sort": 6457,
      "¤den": 6458,
      "Ġres": 6459,
      "ĠEh": 6460,
      "iP": 6461,
      "Ġrichtige": 6462,
      "echt": 6463,
      "vÃ¶lke": 6464,
      "cu": 6465,
      "Ġpassiert": 6466,
      "ebel": 6467,
      "erweit": 6468,
      "ÃŁer": 6469,
      "ĠPeter": 6470,
      "achten": 6471,
      "sÃ¤tze": 6472,
      "ĠWord": 6473,
      "ĠSha": 6474,
      "ĠGrÃ¼ÃŁe": 6475,
      "wÃ¶rter": 6476,
      "Ġansehen": 6477,
      "ero": 6478,
      "ĠUmgang": 6479,
      "51": 6480,
      "ash": 6481,
      "Ġneuer": 6482,
      "ĠErst": 6483,
      "tum": 6484,
      "Website": 6485,
      "Ġprofessionell": 6486,
      "ĠMerk": 6487,
      "ows": 6488,
      "ĠMÃ¤nner": 6489,
      "sches": 6490,
      "ĠPer": 6491,
      "rhÃ¤ltnis": 6492,
      "ĠDrittanbietern": 6493,
      "ĠPasswort": 6494,
      "nitia": 6495,
      "Ġfand": 6496,
      "ĠRuh": 6497,
      "ĠAufgabe": 6498,
      "kali": 6499,
      "ĠVerÃ¤": 6500,
      "gn": 6501,
      "ĠThera": 6502,
      "wel": 6503,
      "Ni": 6504,
      "erfÃ": 6505,
      "irus": 6506,
      "Deine": 6507,
      "ĠFarb": 6508,
      "Ġbeg": 6509,
      "rkshop": 6510,
      "roffen": 6511,
      "sstel": 6512,
      "Ġselber": 6513,
      "ĠAnzeige": 6514,
      "ĠerhÃ¶": 6515,
      "ĠDeutschmark": 6516,
      "Ġspanne": 6517,
      "zes": 6518,
      "rwÃ¤": 6519,
      "ntfe": 6520,
      "Ġversenden": 6521,
      "ĠRestau": 6522,
      "ĠWill": 6523,
      "ĠDach": 6524,
      "rbeitungs": 6525,
      "ÃĹ": 6526,
      "main": 6527,
      "ehÃ¶rde": 6528,
      "outube": 6529,
      "ĠKam": 6530,
      "terneh": 6531,
      "ĠVersich": 6532,
      "67": 6533,
      "rview": 6534,
      "sierung": 6535,
      "ĠWahr": 6536,
      "Ġschaffen": 6537,
      "erta": 6538,
      "ihe": 6539,
      "rangig": 6540,
      "sum": 6541,
      "ilch": 6542,
      "enta": 6543,
      "ĠHinweise": 6544,
      "ckel": 6545,
      "HR": 6546,
      "auft": 6547,
      "Ġgeplant": 6548,
      "chtu": 6549,
      "ĠZentrum": 6550,
      "ĠZoll": 6551,
      "hisch": 6552,
      "onente": 6553,
      "ĠLÃ¤nder": 6554,
      "SM": 6555,
      "falt": 6556,
      "Ġendli": 6557,
      "entfe": 6558,
      "Ġendlich": 6559,
      "Ġerla": 6560,
      "stli": 6561,
      "ĠZeiche": 6562,
      "Ã¤n": 6563,
      "intrÃ¤cht": 6564,
      "verlÃ¤ss": 6565,
      "ppi": 6566,
      "54": 6567,
      "ĠFarbe": 6568,
      "videnz": 6569,
      "ĠGedanken": 6570,
      "ĠPriva": 6571,
      "ehlt": 6572,
      "runde": 6573,
      "ĠLeistungs": 6574,
      "ĠFreunde": 6575,
      "reas": 6576,
      "Ġmanuellen": 6577,
      "EM": 6578,
      "ĠAugenmerk": 6579,
      "sstell": 6580,
      "sien": 6581,
      "Des": 6582,
      "zugs": 6583,
      "ĠSchaden": 6584,
      "Ġbeh": 6585,
      "meldet": 6586,
      "ĠBorlabs": 6587,
      "einschlieÃŁlich": 6588,
      "Ġsozialen": 6589,
      "Kommentar": 6590,
      "itet": 6591,
      "wandt": 6592,
      "Ġtreiben": 6593,
      "nehm": 6594,
      "ĠSig": 6595,
      "Ġhierzu": 6596,
      "Speichern": 6597,
      "karten": 6598,
      "ermi": 6599,
      "Ġdeaktivieren": 6600,
      "ĠBÃ¼cher": 6601,
      "¤hrung": 6602,
      "obei": 6603,
      "ĠGericht": 6604,
      "hls": 6605,
      "anbi": 6606,
      "ĠThea": 6607,
      "ttli": 6608,
      "pflege": 6609,
      "ĠManagement": 6610,
      "erest": 6611,
      "ĠGal": 6612,
      "ommu": 6613,
      "ssischen": 6614,
      "test": 6615,
      "ĠFenster": 6616,
      "Ġzehn": 6617,
      "Ġporno": 6618,
      "ĠMeter": 6619,
      "OT": 6620,
      "ffnungs": 6621,
      "ĠCla": 6622,
      "Ġdauerha": 6623,
      "ĠTelefon": 6624,
      "Ġanbi": 6625,
      "chro": 6626,
      "DU": 6627,
      "IV": 6628,
      "Ġbrauchen": 6629,
      "edes": 6630,
      "Ġ04": 6631,
      "selten": 6632,
      "vaScript": 6633,
      "mmt": 6634,
      "ministe": 6635,
      "ĠJugendl": 6636,
      "kan": 6637,
      "edigl": 6638,
      "edigli": 6639,
      "Ġ49": 6640,
      "ediglich": 6641,
      "Ġschl": 6642,
      "iziert": 6643,
      "ĠTempe": 6644,
      "ĠZahl": 6645,
      "erle": 6646,
      "ilden": 6647,
      "chne": 6648,
      "etische": 6649,
      "lk": 6650,
      "ĠProduktion": 6651,
      "2023": 6652,
      "ĠTermin": 6653,
      "Ġweltweit": 6654,
      "ĠGesetz": 6655,
      "ziele": 6656,
      "ĠFehler": 6657,
      "ĠBewertungen": 6658,
      "sstelle": 6659,
      "ĠgroÃŁer": 6660,
      "lasch": 6661,
      "Ġbesonderen": 6662,
      "stlich": 6663,
      "div": 6664,
      "ĠStudien": 6665,
      "ĠBereitstellung": 6666,
      "elt": 6667,
      "2015": 6668,
      "ĠAlso": 6669,
      "ĠForen": 6670,
      "ĠnÃ¤h": 6671,
      "Â²": 6672,
      "nnes": 6673,
      "chtun": 6674,
      "-)": 6675,
      "ndisch": 6676,
      "ĠMarken": 6677,
      "HÃ": 6678,
      "ĠWand": 6679,
      "Versand": 6680,
      "Ġverpflichtet": 6681,
      "riginal": 6682,
      "chtung": 6683,
      "toff": 6684,
      "profile": 6685,
      "terest": 6686,
      "ĠEntst": 6687,
      "gas": 6688,
      "eiben": 6689,
      "Welche": 6690,
      "KT": 6691,
      "ĠEvidenz": 6692,
      "rale": 6693,
      "ritische": 6694,
      "ĠAlb": 6695,
      "Ġerhoben": 6696,
      "ĠGrÃ¼nde": 6697,
      "harma": 6698,
      "etenz": 6699,
      "ĠMax": 6700,
      "ĠDownload": 6701,
      "ffentlich": 6702,
      "ĠRet": 6703,
      "cie": 6704,
      "vertrag": 6705,
      "ĠHerausforde": 6706,
      "omie": 6707,
      "¼hrung": 6708,
      "unternehmen": 6709,
      "ĠLog": 6710,
      "band": 6711,
      "echnik": 6712,
      "unk": 6713,
      "Ġergibt": 6714,
      "ĠMet": 6715,
      "Meine": 6716,
      "Ġ2000": 6717,
      "ĠgefÃ¤": 6718,
      "Ġidea": 6719,
      "Ġselten": 6720,
      "echs": 6721,
      "ĠGesicht": 6722,
      "ssenschaftl": 6723,
      "Ġmin": 6724,
      "tera": 6725,
      "ĠTant": 6726,
      "Ġmag": 6727,
      "ttern": 6728,
      "Ġinformiert": 6729,
      "edÃ¼rf": 6730,
      "ĠSalz": 6731,
      "chwie": 6732,
      "tti": 6733,
      "illa": 6734,
      "ĠnÃ¶t": 6735,
      "Ġerweit": 6736,
      "ĠTrans": 6737,
      "staat": 6738,
      "nnent": 6739,
      "El": 6740,
      "ĠGrand": 6741,
      "ĠDauer": 6742,
      "deines": 6743,
      "ĠJugendli": 6744,
      "ĠNational": 6745,
      "ĠGerma": 6746,
      "Ġrichtigen": 6747,
      "Ġdeines": 6748,
      "hÃ¤nge": 6749,
      "reuu": 6750,
      "ĠFinan": 6751,
      "anschlie": 6752,
      "âĢľ)": 6753,
      "reuun": 6754,
      "ĠÃ¤uÃŁ": 6755,
      "Ġlegen": 6756,
      "gÃ¤n": 6757,
      "ĠgeschÃ¼t": 6758,
      "Ġvorbei": 6759,
      "ĠEuch": 6760,
      "reuung": 6761,
      "Zi": 6762,
      "53": 6763,
      "ĠÃĸl": 6764,
      "ttlich": 6765,
      "ĠVorteile": 6766,
      "frika": 6767,
      "Ġgesagt": 6768,
      "zeigen": 6769,
      "ĠThomas": 6770,
      "disk": 6771,
      "Ã¤hrung": 6772,
      "¼hren": 6773,
      "rischer": 6774,
      "MÃ¤": 6775,
      "ulich": 6776,
      "gruppen": 6777,
      "Ġanschlie": 6778,
      "Ġentsperren": 6779,
      "Richt": 6780,
      "sha": 6781,
      "straÃŁe": 6782,
      "rry": 6783,
      "Ġwichtigsten": 6784,
      "verstÃ¤ndl": 6785,
      "Ġforde": 6786,
      "Ġentfe": 6787,
      "ĠDS": 6788,
      "Ġeri": 6789,
      "Grund": 6790,
      "ffizienz": 6791,
      "ĠZudem": 6792,
      "Markt": 6793,
      "Ġ?": 6794,
      "Ġbald": 6795,
      "Ġliefen": 6796,
      "ĠKlick": 6797,
      "isters": 6798,
      "ildet": 6799,
      "ĠFle": 6800,
      "ĠVideoplattformen": 6801,
      "soft": 6802,
      "rufl": 6803,
      "Borlabs": 6804,
      "raucher": 6805,
      "Ġeffe": 6806,
      "ĠgrÃ¶ÃŁten": 6807,
      "ĠMag": 6808,
      "ĠVeranstaltung": 6809,
      "woch": 6810,
      "âĨ": 6811,
      "Statistik": 6812,
      "rkauft": 6813,
      "ĠjÃ": 6814,
      "2014": 6815,
      "64": 6816,
      "Nicht": 6817,
      "vera": 6818,
      "ĠHersteller": 6819,
      "ival": 6820,
      "pan": 6821,
      "steuer": 6822,
      "rechnung": 6823,
      "ĠEri": 6824,
      "Pe": 6825,
      "uso": 6826,
      "ĠDienstes": 6827,
      "rschei": 6828,
      "ĠAdministrator": 6829,
      "ĠIN": 6830,
      "ĠStÃ¤dte": 6831,
      "blick": 6832,
      "ugen": 6833,
      "Ġverantwortlich": 6834,
      "ndin": 6835,
      "Ġune": 6836,
      "KÃ": 6837,
      "ĠBewertung": 6838,
      "ĠMutter": 6839,
      "ĠHans": 6840,
      "Ġperfekt": 6841,
      "Ġzug": 6842,
      "sun": 6843,
      "indliche": 6844,
      "lant": 6845,
      "Ġgenug": 6846,
      "ĠFirmen": 6847,
      "ĠSA": 6848,
      "ĠbÃ¼ndeln": 6849,
      "lehnen": 6850,
      "ĠSonntag": 6851,
      "ĠÃľberb": 6852,
      "sstÃ¼ck": 6853,
      "ĠGrÃ¶": 6854,
      "wissenschaftli": 6855,
      "ĠNu": 6856,
      "ĠStuttgart": 6857,
      "52": 6858,
      "ahl": 6859,
      "wissenschaftlich": 6860,
      "ĠschÃ¶ne": 6861,
      "chtest": 6862,
      "ttwoch": 6863,
      "ĠReal": 6864,
      "kadem": 6865,
      "ION": 6866,
      "nnern": 6867,
      "200": 6868,
      "Er": 6869,
      "ostenfrei": 6870,
      "ĠJugendlich": 6871,
      "ĠVorg": 6872,
      "endu": 6873,
      "ĠMÃ¤d": 6874,
      "ĠPlattform": 6875,
      "ĠFreude": 6876,
      "ĠTante": 6877,
      "wendungen": 6878,
      "ĠBearbeitung": 6879,
      "hard": 6880,
      "ĠBen": 6881,
      "steige": 6882,
      "ĠVolk": 6883,
      "rteil": 6884,
      "Ġbeginnt": 6885,
      "Ġwirtschaftl": 6886,
      "ĠBaby": 6887,
      "Ġbestellen": 6888,
      "Ġfal": 6889,
      "Ġihres": 6890,
      "ĠKenntnis": 6891,
      "Ġdarin": 6892,
      "ĠStellen": 6893,
      "ĠJugendliche": 6894,
      "Ġinstal": 6895,
      "ĠGel": 6896,
      "raucht": 6897,
      "lti": 6898,
      "zene": 6899,
      "Ġbestehen": 6900,
      "borlabs": 6901,
      "ĠBÃ¼rge": 6902,
      "Suchen": 6903,
      "ssl": 6904,
      "ĠWÃ¤rme": 6905,
      "ĠGeige": 6906,
      "ĠItalie": 6907,
      "Ġzuvor": 6908,
      "ĠBetroffene": 6909,
      "spannen": 6910,
      "ĠKilo": 6911,
      "Anmelden": 6912,
      "ĠFreihe": 6913,
      "ĠdÃ": 6914,
      "inst": 6915,
      "eure": 6916,
      "Ġor": 6917,
      "yo": 6918,
      "Pla": 6919,
      "rbar": 6920,
      "Ġinstall": 6921,
      "Ġrot": 6922,
      "ĠBeso": 6923,
      "abo": 6924,
      "hnu": 6925,
      "ĠProjekte": 6926,
      "schwie": 6927,
      "Ġsodass": 6928,
      "sechs": 6929,
      "Ġrelevant": 6930,
      "Ġgeschrieben": 6931,
      "erweile": 6932,
      "ĠbeschÃ¤ft": 6933,
      "ĠProdukten": 6934,
      "Ġ(âĢŀ": 6935,
      "venz": 6936,
      "Ġerb": 6937,
      "ĠSchni": 6938,
      "zeits": 6939,
      "Schrift": 6940,
      "eute": 6941,
      "Startseite": 6942,
      "Ġgesamten": 6943,
      "Ã¤tzlich": 6944,
      "ĠauÃŁerdem": 6945,
      "kter": 6946,
      "IA": 6947,
      "rrekt": 6948,
      "ĠFÃ¤h": 6949,
      "ĠErfÃ¼llung": 6950,
      "ĠTisch": 6951,
      "endun": 6952,
      "Ġerk": 6953,
      "sations": 6954,
      "utschei": 6955,
      "endung": 6956,
      "Ġgewesen": 6957,
      "ĠZÃ¼": 6958,
      "ĠEinkauf": 6959,
      "Team": 6960,
      "Ġqual": 6961,
      "Ġveru": 6962,
      "ritt": 6963,
      "Mat": 6964,
      "89": 6965,
      "phe": 6966,
      "ĠModelle": 6967,
      "Ġoptimieren": 6968,
      "ĠKarten": 6969,
      "rdnungs": 6970,
      "ĠSchwarz": 6971,
      "ĠÃĦnderung": 6972,
      "Ġabonnieren": 6973,
      "nburg": 6974,
      "ĠZeichen": 6975,
      "Ġanderes": 6976,
      "Land": 6977,
      "ĠWohnu": 6978,
      "Ġwirtschaftli": 6979,
      "liga": 6980,
      "Ġdank": 6981,
      "Ġwirtschaftlich": 6982,
      "Ġsuper": 6983,
      "ĠWohnun": 6984,
      "ĠnÃ¤mlich": 6985,
      "hnun": 6986,
      "nnerstag": 6987,
      "ntensi": 6988,
      "efini": 6989,
      "ĠgrundsÃ¤tzlich": 6990,
      "ĠWohnung": 6991,
      "Pal": 6992,
      "ĠHerren": 6993,
      "defini": 6994,
      "hats": 6995,
      "ĠWerden": 6996,
      "ĠMarke": 6997,
      "sia": 6998,
      "ĠVimeo": 6999,
      "TM": 7000,
      "ĠBerufs": 7001,
      "ĠzusammenschlieÃŁen": 7002,
      "Ġbewachen": 7003,
      "tas": 7004,
      "ĠBezug": 7005,
      "ĠPflanzen": 7006,
      "nigung": 7007,
      "Bl": 7008,
      "Ġ@": 7009,
      "ĠStandort": 7010,
      "bÃ¼": 7011,
      "ĠDarstellung": 7012,
      "Ġanonym": 7013,
      "Zei": 7014,
      "erwegs": 7015,
      "November": 7016,
      "Ġbeide": 7017,
      "ĠmÃ¶glichst": 7018,
      "wehr": 7019,
      "Ġzusammentun": 7020,
      "ĠAlex": 7021,
      "Ġspielt": 7022,
      "ĠerÃ¶": 7023,
      "ĠÃ¤lte": 7024,
      "rÃ¤um": 7025,
      "ĠEinh": 7026,
      "ĠSub": 7027,
      "erwÃ¤": 7028,
      "hnung": 7029,
      "solvenz": 7030,
      "Ġ$": 7031,
      "Va": 7032,
      "ĠVerpflicht": 7033,
      "ĠErke": 7034,
      "Ġfall": 7035,
      "hÃ¤user": 7036,
      "Zus": 7037,
      "schlag": 7038,
      "Ġbezeichnet": 7039,
      "xen": 7040,
      "Ġtolle": 7041,
      "Ġnotwendige": 7042,
      "ĠRegistrierung": 7043,
      "Ġsechs": 7044,
      "nterest": 7045,
      "sÃ¤chlich": 7046,
      "intensi": 7047,
      "Ġsolchen": 7048,
      "kÃ¼": 7049,
      "Ġlieber": 7050,
      "chuss": 7051,
      "ĠVertrete": 7052,
      "ĠPC": 7053,
      "Ġmehreren": 7054,
      "Ġentfernen": 7055,
      "sproche": 7056,
      "Ġzusammenspannen": 7057,
      "ĠWil": 7058,
      "Ġlad": 7059,
      "ĠLiteratur": 7060,
      "wissenschaftliche": 7061,
      "Sache": 7062,
      "nik": 7063,
      "ssche": 7064,
      "ĠMar": 7065,
      "angebot": 7066,
      "ĠAusgabe": 7067,
      "Ġirgende": 7068,
      "Set": 7069,
      "eilen": 7070,
      "ssenschaftli": 7071,
      "ĠSpieler": 7072,
      "ssenschaftlich": 7073,
      "Ġindividuelle": 7074,
      "arch": 7075,
      "ĠOder": 7076,
      "Ġrechtliche": 7077,
      "krÃ¤fte": 7078,
      "erende": 7079,
      "rto": 7080,
      "pha": 7081,
      "ĠAufsicht": 7082,
      "GE": 7083,
      "quen": 7084,
      "Administration": 7085,
      "ĠLÃ¤ndern": 7086,
      "Ġverste": 7087,
      "Ġschwie": 7088,
      "ahrt": 7089,
      "sort": 7090,
      "ĠAnforderungen": 7091,
      "hli": 7092,
      "peri": 7093,
      "sschutz": 7094,
      "edie": 7095,
      "ĠFreihei": 7096,
      "recher": 7097,
      "rlichen": 7098,
      "ĠauÃŁerhalb": 7099,
      "lasche": 7100,
      "ilÃ¤ufig": 7101,
      "gla": 7102,
      "Recht": 7103,
      "Ġ000": 7104,
      "ĠSim": 7105,
      "Ġfolgen": 7106,
      "ĠHinweis": 7107,
      "immel": 7108,
      "technik": 7109,
      "ĠTelefo": 7110,
      "uschen": 7111,
      "Ġmelden": 7112,
      "ibliothek": 7113,
      "ehre": 7114,
      "ĠVorbe": 7115,
      "Ġteilweise": 7116,
      "ĠSaison": 7117,
      "ĠSache": 7118,
      "ĠVermi": 7119,
      "Ġmens": 7120,
      "ĠBusiness": 7121,
      "beg": 7122,
      "Ġunterschiedlichen": 7123,
      "ĠLes": 7124,
      "ĠArm": 7125,
      "ĠWein": 7126,
      "sth": 7127,
      "ĠUmgebung": 7128,
      "Funktiona": 7129,
      "ĠAktion": 7130,
      "kurs": 7131,
      "ĠSamstag": 7132,
      "Ġvergangenen": 7133,
      "ĠfÃ¶rde": 7134,
      "sprochen": 7135,
      "jÃ¤hrige": 7136,
      "ĠUrsprung": 7137,
      "Funktional": 7138,
      "Ġideal": 7139,
      "ĠVat": 7140,
      "tation": 7141,
      "wegen": 7142,
      "ĠProfil": 7143,
      "ĠBis": 7144,
      "ĠSand": 7145,
      "Jo": 7146,
      "perso": 7147,
      "ĠFreiheit": 7148,
      "ĠMedizin": 7149,
      "ĠSmartp": 7150,
      "porta": 7151,
      "âĢľ-": 7152,
      "ĠprÃ¼": 7153,
      "ĠOl": 7154,
      "ĠBehÃ¶": 7155,
      "76": 7156,
      "cation": 7157,
      "undhe": 7158,
      "Schlag": 7159,
      "tweder": 7160,
      "Ġvorher": 7161,
      "zell": 7162,
      "Ġoffene": 7163,
      "Ġgarant": 7164,
      "ĠGut": 7165,
      "Ġansp": 7166,
      "reig": 7167,
      "ĠAlltag": 7168,
      "urel": 7169,
      "ritik": 7170,
      "Ġlediglich": 7171,
      "Teilen": 7172,
      "rop": 7173,
      "nstellung": 7174,
      "Ġgeschlechts": 7175,
      "gik": 7176,
      "mitteln": 7177,
      "ĠnebensÃ¤chlich": 7178,
      "Ġbeschrieben": 7179,
      "verstÃ¤ndli": 7180,
      "gÃ¤": 7181,
      "verstÃ¤ndlich": 7182,
      "Ġverz": 7183,
      "wicklung": 7184,
      "Haus": 7185,
      "ĠUmfang": 7186,
      "undhei": 7187,
      "Ġfehl": 7188,
      "ix": 7189,
      "ĠVertreterin": 7190,
      "ĠHund": 7191,
      "ĠPflicht": 7192,
      "inste": 7193,
      "Dieser": 7194,
      "Ġaktiviert": 7195,
      "abi": 7196,
      "quare": 7197,
      "ĠbeilÃ¤ufig": 7198,
      "rger": 7199,
      "ĠMartin": 7200,
      "ĠBranche": 7201,
      "gÃ¤nge": 7202,
      "gro": 7203,
      "ĠDamen": 7204,
      "ĠAgen": 7205,
      "Ġ36": 7206,
      "ions": 7207,
      "sierte": 7208,
      "Ġgewa": 7209,
      "wohner": 7210,
      "ĠtÃ¤t": 7211,
      "ĠST": 7212,
      "ĠStartseite": 7213,
      "ratoren": 7214,
      "Ġnachrangig": 7215,
      "ĠArten": 7216,
      "tig": 7217,
      "eger": 7218,
      "halle": 7219,
      "lligen": 7220,
      "imer": 7221,
      "Ġsprechen": 7222,
      "Deutschland": 7223,
      "Ġentwickeln": 7224,
      "mos": 7225,
      "ĠPrÃ¤s": 7226,
      "ĠID": 7227,
      "IR": 7228,
      "uchte": 7229,
      "kademi": 7230,
      "Ġzuerst": 7231,
      "cce": 7232,
      "maten": 7233,
      "eml": 7234,
      "nnente": 7235,
      "pBB": 7236,
      "Ġbenutzen": 7237,
      "ĠmirGefÃ¤llt": 7238,
      "ĠUkraine": 7239,
      "Ġdefini": 7240,
      "ĠFeue": 7241,
      "ĠdurchgefÃ¼hrt": 7242,
      "dre": 7243,
      "ĠÃ¼brigen": 7244,
      "remde": 7245,
      "Ġgenannt": 7246,
      "able": 7247,
      "ĠMel": 7248,
      "Ġch": 7249,
      "ĠFreund": 7250,
      "SU": 7251,
      "gbarkeit": 7252,
      "ĠgeÃ¶": 7253,
      "ssungs": 7254,
      "ĠEm": 7255,
      "ĠKinde": 7256,
      "rasch": 7257,
      "seines": 7258,
      "mindest": 7259,
      "chÃ¼": 7260,
      "ĠlÃ¤nger": 7261,
      "ĠAusland": 7262,
      "fragt": 7263,
      "ĠSaa": 7264,
      "nnenten": 7265,
      "ĠHol": 7266,
      "terha": 7267,
      "enkt": 7268,
      "ING": 7269,
      "Ġseines": 7270,
      "ĠArbeiten": 7271,
      "ĠEbe": 7272,
      "gem": 7273,
      "Ġletzt": 7274,
      "ĠKra": 7275,
      "Ġwed": 7276,
      "gst": 7277,
      "ĠSich": 7278,
      "grad": 7279,
      "ĠAngst": 7280,
      "laus": 7281,
      "Dr": 7282,
      "Ġentstehen": 7283,
      "Ku": 7284,
      "Presse": 7285,
      "ntweder": 7286,
      "entweder": 7287,
      "rechts": 7288,
      "ĠSatz": 7289,
      "ffizien": 7290,
      "OLL": 7291,
      "waltungs": 7292,
      "ĠBack": 7293,
      "wicht": 7294,
      "ĠÐ": 7295,
      "ĠWL": 7296,
      "version": 7297,
      "ĠFan": 7298,
      "ĠÃľberblick": 7299,
      "eur": 7300,
      "mÃ¤": 7301,
      "ĠMicro": 7302,
      "chal": 7303,
      "ĠÃ¼bermittelt": 7304,
      "sub": 7305,
      "seh": 7306,
      "nges": 7307,
      "ĠSpezial": 7308,
      "TV": 7309,
      "ĠWeibsstÃ¼ck": 7310,
      "ĠAust": 7311,
      "Unternehmen": 7312,
      "Ġeinzigart": 7313,
      "html": 7314,
      "reichend": 7315,
      "ĠSchwerpunkt": 7316,
      "SB": 7317,
      "legenh": 7318,
      "eblich": 7319,
      "ĠImmobilien": 7320,
      "ĠRegiona": 7321,
      "Ġ00": 7322,
      "ldorf": 7323,
      "ĠEinstellung": 7324,
      "ĠPrem": 7325,
      "ammlung": 7326,
      "rufli": 7327,
      "ĠschÃ¼tzen": 7328,
      "Ġbekommt": 7329,
      "ruflich": 7330,
      "Ġty": 7331,
      "ngend": 7332,
      "ĠbegrÃ¼": 7333,
      "ĠHalb": 7334,
      "Kunden": 7335,
      "rÃ¤ft": 7336,
      "tembe": 7337,
      "ĠMotor": 7338,
      "ĠdurchzufÃ¼hren": 7339,
      "ights": 7340,
      "ĠMiet": 7341,
      "Ġehema": 7342,
      "ĠJournal": 7343,
      "andemie": 7344,
      "schnitt": 7345,
      "ĠWeibs": 7346,
      "ĠUntersuch": 7347,
      "ĠEinschrÃ¤nkung": 7348,
      "coi": 7349,
      "val": 7350,
      "rast": 7351,
      "ĠWeibse": 7352,
      "ĠWeibsen": 7353,
      "anno": 7354,
      "Ġstand": 7355,
      "ank": 7356,
      "kat": 7357,
      "ĠWird": 7358,
      "ĠBedÃ¼rf": 7359,
      "lichkeit": 7360,
      "ĠAktie": 7361,
      "MenÃ¼": 7362,
      "ĠPrivat": 7363,
      "Produkt": 7364,
      "ĠVerantwortung": 7365,
      "WE": 7366,
      "Ġentweder": 7367,
      "ĠBlock": 7368,
      "ikeln": 7369,
      "Ġgelesen": 7370,
      "ĠAnn": 7371,
      "osts": 7372,
      "ĠPersÃ¶nlich": 7373,
      "terwegs": 7374,
      "imierung": 7375,
      "rÃ¤ume": 7376,
      "ĠOrganisation": 7377,
      "ĠDeshalb": 7378,
      "way": 7379,
      "mack": 7380,
      "ĠKlasse": 7381,
      "zenz": 7382,
      "ĠeinschlieÃŁlich": 7383,
      "nterwegs": 7384,
      "unterwegs": 7385,
      "ĠBedingungen": 7386,
      "ĠbeeintrÃ¤cht": 7387,
      "Ġfahren": 7388,
      "rypto": 7389,
      "Ġpasst": 7390,
      "nglisch": 7391,
      "{{": 7392,
      "pft": 7393,
      "ĠtÃ¤glich": 7394,
      "ĠKomb": 7395,
      "ĠLeipzig": 7396,
      "Ġdanach": 7397,
      "tionelle": 7398,
      "kenn": 7399,
      "ktoren": 7400,
      "ĠLehrstuhl": 7401,
      "prech": 7402,
      "Ġvorli": 7403,
      "ĠGÃ¶": 7404,
      "ĠFalls": 7405,
      "ĠBeste": 7406,
      "Geb": 7407,
      "wobei": 7408,
      "raun": 7409,
      "macherei": 7410,
      "Ġ300": 7411,
      "ĠÃ¼bernehmen": 7412,
      "Ġgenauso": 7413,
      "oti": 7414,
      "rÃ¼hrt": 7415,
      "englisch": 7416,
      "ppch": 7417,
      "rth": 7418,
      "ĠnÃ¤chste": 7419,
      "ĠBedarf": 7420,
      "NÃ": 7421,
      "denk": 7422,
      "monat": 7423,
      "rbo": 7424,
      "she": 7425,
      "ĠWirk": 7426,
      "achst": 7427,
      "Ġgra": 7428,
      "rfen": 7429,
      "informationen": 7430,
      "Ġ38": 7431,
      "nntnisse": 7432,
      "Ġtechnischen": 7433,
      "Ġfalls": 7434,
      "ĠJohn": 7435,
      "zifische": 7436,
      "emis": 7437,
      "chtet": 7438,
      "andernfalls": 7439,
      "ĠKai": 7440,
      "Ġwede": 7441,
      "ĠlÃ¤uft": 7442,
      "olis": 7443,
      "Ġessenzielle": 7444,
      "laufen": 7445,
      "aba": 7446,
      "ĠInsolvenz": 7447,
      "legenhe": 7448,
      "legenhei": 7449,
      "legenheit": 7450,
      "FÃ": 7451,
      "ppche": 7452,
      "ĠGottes": 7453,
      "Con": 7454,
      "ĠGewalt": 7455,
      "Intern": 7456,
      "Ġbean": 7457,
      "Ġunterwegs": 7458,
      "Uni": 7459,
      "zunehmen": 7460,
      "ĠSensations": 7461,
      "ĠVerfa": 7462,
      "Ġbegeist": 7463,
      "rds": 7464,
      "Ġ2003": 7465,
      "ĠDah": 7466,
      "erenden": 7467,
      "rierte": 7468,
      "ĠForschungs": 7469,
      "ĠgewÃ¼nscht": 7470,
      "ĠNied": 7471,
      "ĠausfÃ¼": 7472,
      "ĠStraÃŁen": 7473,
      "SO": 7474,
      "ppchen": 7475,
      "Ã¼rge": 7476,
      "Ġziehen": 7477,
      "ĠLern": 7478,
      "una": 7479,
      "Ġangeboten": 7480,
      "osa": 7481,
      "Liefe": 7482,
      "haber": 7483,
      "Ġweder": 7484,
      "nkungen": 7485,
      "lue": 7486,
      "ĠvollstÃ¤ndig": 7487,
      "ĠHall": 7488,
      "ĠBegriff": 7489,
      "ordnung": 7490,
      "Ġschla": 7491,
      "og": 7492,
      "ĠForschung": 7493,
      "tat": 7494,
      "erfÃ¼": 7495,
      "=\"": 7496,
      "Ġbu": 7497,
      "Nutzungs": 7498,
      "Widerruf": 7499,
      "ĠÃ¤hnlichen": 7500,
      "ĠWelche": 7501,
      "ĠgewÃ¤hrleisten": 7502,
      "ĠFuÃŁball": 7503,
      "coin": 7504,
      "ensta": 7505,
      "âĢĶâĢĶ": 7506,
      "jÃ¤hrigen": 7507,
      "rmittlung": 7508,
      "nbank": 7509,
      "brid": 7510,
      "datum": 7511,
      "ĠDirekt": 7512,
      "rÃ¤ger": 7513,
      "nats": 7514,
      "Ġabgeschlossen": 7515,
      "rname": 7516,
      "ĠDritter": 7517,
      "Ġ48": 7518,
      "ĠMy": 7519,
      "olie": 7520,
      "rille": 7521,
      "ĠiP": 7522,
      "ĠPlugin": 7523,
      "Ġandernfalls": 7524,
      "ilitÃ¤": 7525,
      "ĠUnterricht": 7526,
      "ĠBM": 7527,
      "ĠJavaScript": 7528,
      "ĠAllgemein": 7529,
      "ĠExperten": 7530,
      "ĠInfo": 7531,
      "ffice": 7532,
      "range": 7533,
      "ĠSensationsmacherei": 7534,
      "rda": 7535,
      "Ġwechse": 7536,
      "kam": 7537,
      "oph": 7538,
      "BeitrÃ¤ge": 7539,
      "rieg": 7540,
      "ĠMail": 7541,
      "ĠGehe": 7542,
      "ebte": 7543,
      "Ġhand": 7544,
      "kle": 7545,
      "Open": 7546,
      "¼llt": 7547,
      "Notwend": 7548,
      "bestimmungen": 7549,
      "ssage": 7550,
      "urell": 7551,
      "Ke": 7552,
      "bank": 7553,
      "ĠKoope": 7554,
      "usse": 7555,
      "Ġschlecht": 7556,
      "ĠOption": 7557,
      "garten": 7558,
      "Ġmanche": 7559,
      "Ġlade": 7560,
      "''": 7561,
      "ĠUmstÃ¤nden": 7562,
      "fÃ¤nger": 7563,
      "plÃ¤tze": 7564,
      "inings": 7565,
      "Ġzumindest": 7566,
      "stieg": 7567,
      "ĠTeile": 7568,
      "rismus": 7569,
      "Ġbo": 7570,
      "Cha": 7571,
      "Ġsucht": 7572,
      "amerika": 7573,
      "ntral": 7574,
      "Ġkontaktieren": 7575,
      "Ġvereinba": 7576,
      "eat": 7577,
      "now": 7578,
      "ĠFahrrad": 7579,
      "ĠNutzere": 7580,
      "runterla": 7581,
      "Ġvern": 7582,
      "gramme": 7583,
      "ĠSchrift": 7584,
      "emli": 7585,
      "hÃ¤ngigkeit": 7586,
      "ieben": 7587,
      "Ã¶st": 7588,
      "sing": 7589,
      "gress": 7590,
      "achse": 7591,
      "Ġorgani": 7592,
      "rations": 7593,
      "ĠkÃ¶nnt": 7594,
      "teilen": 7595,
      "ĠTransport": 7596,
      "erformance": 7597,
      "nieren": 7598,
      "Ã¼ren": 7599,
      "Ġerschi": 7600,
      "spart": 7601,
      "giert": 7602,
      "mar": 7603,
      "ĠUrheber": 7604,
      "ĠGebÃ¤ude": 7605,
      "ĠLÃ¶sungen": 7606,
      "ĠSachs": 7607,
      "Kom": 7608,
      "ssten": 7609,
      "weiten": 7610,
      "erend": 7611,
      "¼ller": 7612,
      "Ġdiv": 7613,
      "Ph": 7614,
      "Video": 7615,
      "ĠWordPress": 7616,
      "ĠKenn": 7617,
      "WS": 7618,
      "ĠfÃ¤llt": 7619,
      "ehm": 7620,
      "Int": 7621,
      "oppel": 7622,
      "illen": 7623,
      "ĠMikro": 7624,
      "Ġschrift": 7625,
      "Kon": 7626,
      "riebe": 7627,
      "Port": 7628,
      "ĠEle": 7629,
      "ĠReisen": 7630,
      "72": 7631,
      "Ġhinge": 7632,
      "Ġausgeb": 7633,
      "ersche": 7634,
      "ĠKontrolle": 7635,
      "ĠAbonnenten": 7636,
      "ĠVerÃ¶ffen": 7637,
      "ĠÃ¼berwie": 7638,
      "emlich": 7639,
      "ĠProzess": 7640,
      "ĠbetrÃ¤gt": 7641,
      "Aktuelle": 7642,
      "stÃ¤nde": 7643,
      "erfÃ¼r": 7644,
      "ĠsÃ¼": 7645,
      "TER": 7646,
      "ĠLager": 7647,
      "Ġzufri": 7648,
      "Ġweis": 7649,
      "Ġwobei": 7650,
      "hafen": 7651,
      "KE": 7652,
      "ehÃ¶": 7653,
      "WÃ¤": 7654,
      "otels": 7655,
      "ĠMacht": 7656,
      "ffizient": 7657,
      "Verb": 7658,
      "ĠKÃ¼nstle": 7659,
      "ĠSprach": 7660,
      "Post": 7661,
      "ĠEndgerÃ¤t": 7662,
      "ĠSinn": 7663,
      "SchlieÃŁen": 7664,
      "ĠUnterneh": 7665,
      "ĠVerkÃ¤": 7666,
      "Ġ32": 7667,
      "runterlad": 7668,
      "****": 7669,
      "Ġintensi": 7670,
      "ĠLÃ¼": 7671,
      "Ġberechtigten": 7672,
      "risches": 7673,
      "HE": 7674,
      "ok": 7675,
      "ĠMeine": 7676,
      "¼llen": 7677,
      "ean": 7678,
      "ĠEinhe": 7679,
      "tgegen": 7680,
      "Ġdisk": 7681,
      "Man": 7682,
      "ĠInne": 7683,
      "ĠSpam": 7684,
      "ĠZahlung": 7685,
      "ĠChina": 7686,
      "qualitÃ¤t": 7687,
      "ĠerwÃ¤": 7688,
      "chsene": 7689,
      "ĠPu": 7690,
      "ĠAusb": 7691,
      "nderte": 7692,
      "erin": 7693,
      "stat": 7694,
      "rali": 7695,
      "ĠSchÃ¤den": 7696,
      "ĠDahe": 7697,
      "61": 7698,
      "Neueste": 7699,
      "app": 7700,
      "Ġwissenschaftlich": 7701,
      "ĠImpf": 7702,
      "wertet": 7703,
      "ĠDaher": 7704,
      "ĠVera": 7705,
      "ĠBildungs": 7706,
      "ĠgefÃ¼": 7707,
      "tsel": 7708,
      "AU": 7709,
      "ĠDei": 7710,
      "Ġanbieten": 7711,
      "ĠWege": 7712,
      "prÃ¼n": 7713,
      "erba": 7714,
      "ruppen": 7715,
      "schuh": 7716,
      "hrliche": 7717,
      "Ġegal": 7718,
      "ane": 7719,
      "wurf": 7720,
      "runterlade": 7721,
      "ĠNachhalt": 7722,
      "Ġumfasse": 7723,
      "burger": 7724,
      "Auss": 7725,
      "kÃ¼nft": 7726,
      "ĠAlles": 7727,
      "runterladen": 7728,
      "ndische": 7729,
      "ĠErlebnis": 7730,
      "ĠVorlieben": 7731,
      "Ġkostenlose": 7732,
      "forschung": 7733,
      "ĠJÃ": 7734,
      "aaaa": 7735,
      "74": 7736,
      "ĠWild": 7737,
      "ĠKreuz": 7738,
      "ĠAuswirkungen": 7739,
      "ĠOpe": 7740,
      "ĠGeschenk": 7741,
      "ĠBrows": 7742,
      "ĠZiele": 7743,
      "inden": 7744,
      "modell": 7745,
      "ĠCont": 7746,
      "ĠAnschluss": 7747,
      "Ġautomat": 7748,
      "Stand": 7749,
      "98": 7750,
      "tness": 7751,
      "ĠRes": 7752,
      "vÃ¶lkerung": 7753,
      "zis": 7754,
      "inve": 7755,
      "ĠEnergi": 7756,
      "rgang": 7757,
      "mmen": 7758,
      "liefe": 7759,
      "mant": 7760,
      "ĠInformations": 7761,
      "hische": 7762,
      "Ġangegebenen": 7763,
      "ntgegen": 7764,
      "ĠRuhe": 7765,
      "ĠKat": 7766,
      "Ġ!": 7767,
      "Ġerfolgen": 7768,
      "entgegen": 7769,
      "of": 7770,
      "utschein": 7771,
      "Ġstra": 7772,
      "Aber": 7773,
      "ĠFC": 7774,
      "cel": 7775,
      "ĠRed": 7776,
      "Themen": 7777,
      "ĠRegional": 7778,
      "Ġgleichen": 7779,
      "ĠAktivitÃ¤ten": 7780,
      "stimmt": 7781,
      "ritÃ¤t": 7782,
      "Dezember": 7783,
      "Ġdigitalen": 7784,
      "ĠgeÃ": 7785,
      "ĠAbsatz": 7786,
      "ĠRechtsan": 7787,
      "weich": 7788,
      "ĠMÃ¤dch": 7789,
      "ĠDurchfÃ¼hrung": 7790,
      "ĠAuftrags": 7791,
      "71": 7792,
      "Ġentdecken": 7793,
      "Wirtschaft": 7794,
      "ĠInteg": 7795,
      "reitet": 7796,
      "olisch": 7797,
      "ĠMein": 7798,
      "sschen": 7799,
      "resd": 7800,
      "fre": 7801,
      "Ġtran": 7802,
      "ngeben": 7803,
      "nstag": 7804,
      "ĠmÃ¶chtest": 7805,
      "Ġschriftl": 7806,
      "ĠRÃ¶": 7807,
      "xx": 7808,
      "ftungs": 7809,
      "NE": 7810,
      "freih": 7811,
      "ĠIndi": 7812,
      "Ġreicht": 7813,
      "ĠPÃ": 7814,
      "ĠKin": 7815,
      "ĠPrÃ¼fung": 7816,
      "Keine": 7817,
      "Ġverei": 7818,
      "ĠKalender": 7819,
      "nscha": 7820,
      "ĠKraftstoff": 7821,
      "Ġ2002": 7822,
      "sinn": 7823,
      "Ġversuchen": 7824,
      "rems": 7825,
      "Ġentgegen": 7826,
      "Ġwenigen": 7827,
      "ĠBeim": 7828,
      "ĠPrÃ¤ferenzen": 7829,
      "ĠDrei": 7830,
      "ĠGefÃ¼hl": 7831,
      "ĠKampf": 7832,
      "Ġprofi": 7833,
      "ntal": 7834,
      "ĠGelegenheit": 7835,
      "ĠwÃ¼nschen": 7836,
      "wp": 7837,
      "Ġsolltest": 7838,
      "ĠDritt": 7839,
      "ĠSchuld": 7840,
      "ichtu": 7841,
      "ĠBereichen": 7842,
      "Ġmob": 7843,
      "laub": 7844,
      "cont": 7845,
      "nkedIn": 7846,
      "ĠMorgen": 7847,
      "Hand": 7848,
      "ition": 7849,
      "traÃŁe": 7850,
      "ĠRadio": 7851,
      "Zah": 7852,
      "ĠMiss": 7853,
      "Ġprofessionelle": 7854,
      "chlÃ¤": 7855,
      "ĠHandels": 7856,
      "ĠFolgen": 7857,
      "ĠgeÃ¶ffnet": 7858,
      "ĠgeÃ¤": 7859,
      "instellung": 7860,
      "PS": 7861,
      "ktik": 7862,
      "ĠFelder": 7863,
      "zesse": 7864,
      "ĠPhiloso": 7865,
      "ĠStraf": 7866,
      "igem": 7867,
      "reter": 7868,
      "ĠHaftung": 7869,
      "ĠAspe": 7870,
      "lstÃ¤nd": 7871,
      "Ġerster": 7872,
      "¤dago": 7873,
      "ĠUmsetzung": 7874,
      "Ġziemlich": 7875,
      "rÃ¼ckt": 7876,
      "Oktober": 7877,
      "ĠFlu": 7878,
      "ĠWiderspruch": 7879,
      "Ġ//": 7880,
      "ĠAuÃŁen": 7881,
      "ĠhÃ¶he": 7882,
      "ĠZimmer": 7883,
      "Ġvorbehalten": 7884,
      "Ġberaten": 7885,
      "ichtun": 7886,
      "ebens": 7887,
      "Slo": 7888,
      "ĠDeutschlands": 7889,
      "Gro": 7890,
      "ffff": 7891,
      "ĠSchm": 7892,
      "ostet": 7893,
      "ĠSchlag": 7894,
      "ĠTradi": 7895,
      "ĠErschei": 7896,
      "ĠEmpfeh": 7897,
      "ĠLan": 7898,
      "Shi": 7899,
      "rschÃ¶": 7900,
      "stags": 7901,
      "ichtung": 7902,
      "ĠSki": 7903,
      "Ġverloren": 7904,
      "Ġraus": 7905,
      "Ġsammeln": 7906,
      "stro": 7907,
      "ĠgenieÃŁen": 7908,
      "peis": 7909,
      "qui": 7910,
      "Ġvertreten": 7911,
      "Ġverlassen": 7912,
      "ĠBestimmungen": 7913,
      "Ġzwi": 7914,
      "elm": 7915,
      "Ġfei": 7916,
      "ĠSoSe": 7917,
      "bauen": 7918,
      "inder": 7919,
      "etzes": 7920,
      "jo": 7921,
      "punkte": 7922,
      "ĠMÃ¤dche": 7923,
      "ĠverfÃ¼gt": 7924,
      "ĠerhÃ¤ltl": 7925,
      "Ġmanchmal": 7926,
      "ĠSchli": 7927,
      "Ġsteige": 7928,
      "splay": 7929,
      "ĠðŁĺ": 7930,
      "Benut": 7931,
      "dam": 7932,
      "einste": 7933,
      "ĠEva": 7934,
      "tlicher": 7935,
      "Regist": 7936,
      "ĠRussland": 7937,
      "merz": 7938,
      "Partner": 7939,
      "Ġanonymen": 7940,
      "eÃŁ": 7941,
      "ĠCanal": 7942,
      "lÃ¶su": 7943,
      "Ġweise": 7944,
      "lÃ¶sun": 7945,
      "Ġzzgl": 7946,
      "merce": 7947,
      "ĠerhÃ¤ltli": 7948,
      "terli": 7949,
      "lÃ¶sung": 7950,
      "ĠerhÃ¤ltlich": 7951,
      "ess": 7952,
      "achi": 7953,
      "yd": 7954,
      "ĠErde": 7955,
      "Perso": 7956,
      "ĠTeilnahme": 7957,
      "can": 7958,
      "Ġbetreffenden": 7959,
      "ĠTherapie": 7960,
      "zub": 7961,
      "ĠMateriali": 7962,
      "Ġdarum": 7963,
      "ĠManager": 7964,
      "fÃ¤higkeit": 7965,
      "rug": 7966,
      "elekt": 7967,
      "FakultÃ¤t": 7968,
      "roid": 7969,
      "ĠGewÃ¤": 7970,
      "wandte": 7971,
      "ĠKern": 7972,
      "abell": 7973,
      "DER": 7974,
      "Ġanzuzeigen": 7975,
      "ĠgegrÃ¼": 7976,
      "ĠVorstand": 7977,
      "retu": 7978,
      "August": 7979,
      "trem": 7980,
      "Unte": 7981,
      "ĠFreizeit": 7982,
      "ĠFormat": 7983,
      "Ġmedizi": 7984,
      "ĠRen": 7985,
      "lor": 7986,
      "ĠWÃ¤hrend": 7987,
      "ĠInternational": 7988,
      "Ġbewusst": 7989,
      "September": 7990,
      "bili": 7991,
      "ĠMaterialie": 7992,
      "ĠâĢļ": 7993,
      "ĠKrankheit": 7994,
      "Ġdamals": 7995,
      "ĠauÃŁer": 7996,
      "ĠMaterialien": 7997,
      "vision": 7998,
      "portal": 7999,
      "gleite": 8000,
      "traum": 8001,
      "nget": 8002,
      "wende": 8003,
      "ĠTraum": 8004,
      "ui": 8005,
      "rina": 8006,
      "emati": 8007,
      "regierung": 8008,
      "Ġvorge": 8009,
      "ioren": 8010,
      "Ġsonstige": 8011,
      "¼sseldorf": 8012,
      "ĠTiere": 8013,
      "eistung": 8014,
      "ĠCons": 8015,
      "ĠAlters": 8016,
      "Dieses": 8017,
      "immst": 8018,
      "Ġausgestattet": 8019,
      "ream": 8020,
      "wendungs": 8021,
      "ĠSchloss": 8022,
      "ĠAbst": 8023,
      "Ġerleben": 8024,
      "Ġschriftli": 8025,
      "ĠStÃ¶": 8026,
      "ĠFrÃ¼": 8027,
      "Ġschriftlich": 8028,
      "Archi": 8029,
      "Ġfalle": 8030,
      "information": 8031,
      "ĠsÃ¤mtliche": 8032,
      "ĠphpBB": 8033,
      "nterli": 8034,
      "ĠLebensmittel": 8035,
      "ĠSerie": 8036,
      "ĠKunsts": 8037,
      "ĠAufe": 8038,
      "2013": 8039,
      "rock": 8040,
      "Ġladen": 8041,
      "ĠLÃ¶": 8042,
      "rus": 8043,
      "Juli": 8044,
      "lach": 8045,
      "Ã¼bu": 8046,
      "Ġtradi": 8047,
      "ĠDadurch": 8048,
      "Ã¼bun": 8049,
      "Ġindividuell": 8050,
      "unterli": 8051,
      "klasse": 8052,
      "oom": 8053,
      "inkl": 8054,
      "Ã¼bung": 8055,
      "stÃ¤ndigen": 8056,
      "ĠMetall": 8057,
      "ĠAblauf": 8058,
      "obs": 8059,
      "ĠSit": 8060,
      "rren": 8061,
      "tem": 8062,
      "Ġunterli": 8063,
      "pra": 8064,
      "ĠMÃ¤dchen": 8065,
      "ĠMon": 8066,
      "ĠTal": 8067,
      "griffe": 8068,
      "rud": 8069,
      "nfrage": 8070,
      "sprach": 8071,
      "Links": 8072,
      "gungs": 8073,
      "ĠHeim": 8074,
      "ĠAnlage": 8075,
      "griffen": 8076,
      "OG": 8077,
      "ĠzukÃ¼nft": 8078,
      "ĠWindows": 8079,
      "freihe": 8080,
      "Ġecht": 8081,
      "Map": 8082,
      "work": 8083,
      "ĠAufen": 8084,
      "asen": 8085,
      "Ru": 8086,
      "System": 8087,
      "ĠBus": 8088,
      "meth": 8089,
      "ĠFrankreich": 8090,
      "Ġoffe": 8091,
      "ĠBaden": 8092,
      "ĠRechnung": 8093,
      "ĠGeist": 8094,
      "ĠAufent": 8095,
      "ufenen": 8096,
      "ĠDanke": 8097,
      "ock": 8098,
      "Beste": 8099,
      "freihei": 8100,
      "Ġrela": 8101,
      "rricht": 8102,
      "ehme": 8103,
      "à¸": 8104,
      "ĠschlieÃŁlich": 8105,
      "ĠGrafi": 8106,
      "ĠKaffee": 8107,
      "klÃ¤": 8108,
      "Ġeinzelne": 8109,
      "ĠVerbesse": 8110,
      "freiheit": 8111,
      "Ġdurchaus": 8112,
      "fei": 8113,
      "licht": 8114,
      "ersatz": 8115,
      "Square": 8116,
      "emÃ¼s": 8117,
      "Ġgebracht": 8118,
      "chuld": 8119,
      "ĠTÃ": 8120,
      "ĠEind": 8121,
      "tsei": 8122,
      "weitergabe": 8123,
      "ĠGebrauch": 8124,
      "Ġlangs": 8125,
      "ĠDra": 8126,
      "erart": 8127,
      "Ġsogenannte": 8128,
      "nmittel": 8129,
      "ĠberÃ¼cksicht": 8130,
      "ommunity": 8131,
      "lste": 8132,
      "ĠSachse": 8133,
      "ĠAufzeichnungen": 8134,
      "ĠWetter": 8135,
      "rpe": 8136,
      "April": 8137,
      "nker": 8138,
      "ĠLED": 8139,
      "Ġgeschi": 8140,
      "Ġergeben": 8141,
      "ĠVate": 8142,
      "Pass": 8143,
      "ĠApple": 8144,
      "ĠCH": 8145,
      "erti": 8146,
      "ĠDro": 8147,
      "¼ltig": 8148,
      "Ġfreiwillige": 8149,
      "ĠUhrzeit": 8150,
      "ĠCasino": 8151,
      "aming": 8152,
      "ĠVerst": 8153,
      "liches": 8154,
      "63": 8155,
      "ĠInfe": 8156,
      "ĠHintergrund": 8157,
      "handel": 8158,
      "ĠRechtsgrundlage": 8159,
      "ĠOberflÃ¤che": 8160,
      "Ġvorn": 8161,
      "rib": 8162,
      "ĠTheat": 8163,
      "Copyright": 8164,
      "ĠSchuh": 8165,
      "ĠjÃ¤hr": 8166,
      "ĠBrand": 8167,
      "Ġbeteil": 8168,
      "Ġspricht": 8169,
      "ĠAngabe": 8170,
      "Daten": 8171,
      "Navigation": 8172,
      "HÃ¤": 8173,
      "ĠMontag": 8174,
      "mte": 8175,
      "dr": 8176,
      "Hoch": 8177,
      "ĠBekannt": 8178,
      "urelle": 8179,
      "chau": 8180,
      "ĠTod": 8181,
      "ĠLux": 8182,
      "ĠSquare": 8183,
      "Ġbenutzt": 8184,
      "Ġsicht": 8185,
      "versorgung": 8186,
      "ĠErb": 8187,
      "ĠInsta": 8188,
      "Ġnachfolge": 8189,
      "Ġerforderliche": 8190,
      "ĠSeel": 8191,
      "maÃŁnahmen": 8192,
      "Com": 8193,
      "arten": 8194,
      "ĠFolgenden": 8195,
      "Ġabbrechen": 8196,
      "Ġurs": 8197,
      "Ġfunc": 8198,
      "unmittel": 8199,
      "Ġatt": 8200,
      "ĠChristian": 8201,
      "Ġeinste": 8202,
      "Ġfallen": 8203,
      "zeichnis": 8204,
      "ĠhinzufÃ¼gen": 8205,
      "rlÃ": 8206,
      "orge": 8207,
      "Ġhergestellt": 8208,
      "ĠPrÃ¼f": 8209,
      "Ġwelchen": 8210,
      "ranke": 8211,
      "ĠverfÃ¼gen": 8212,
      "udo": 8213,
      "Ġgewinnen": 8214,
      "Ġklicke": 8215,
      "OK": 8216,
      "Tre": 8217,
      "ev": 8218,
      "verwaltung": 8219,
      "Ġverfa": 8220,
      "forms": 8221,
      "Nr": 8222,
      "chst": 8223,
      "Ġ150": 8224,
      "tcoin": 8225,
      "DI": 8226,
      "ĠSort": 8227,
      "Ġschwarz": 8228,
      "helm": 8229,
      "event": 8230,
      "ĠDarÃ¼ber": 8231,
      "Ġju": 8232,
      "Ġhalt": 8233,
      "OLLOLL": 8234,
      "ilte": 8235,
      "RW": 8236,
      "ĠMuseum": 8237,
      "chwar": 8238,
      "ĠDeta": 8239,
      "udent": 8240,
      "ratisch": 8241,
      "reativ": 8242,
      "let": 8243,
      "ĠFlei": 8244,
      "emÃ¤": 8245,
      "ĠhÃ¶ren": 8246,
      "rucht": 8247,
      "ringer": 8248,
      "CO": 8249,
      "62": 8250,
      "ehnt": 8251,
      "hrende": 8252,
      "Ġunmittel": 8253,
      "ĠStein": 8254,
      "volution": 8255,
      "Ġ39": 8256,
      "ĠErkrank": 8257,
      "ĠAnfragen": 8258,
      "prÃ¤s": 8259,
      "ĠZustand": 8260,
      "rierten": 8261,
      "barer": 8262,
      "73": 8263,
      "tok": 8264,
      "ime": 8265,
      "500": 8266,
      "blem": 8267,
      "ĠBern": 8268,
      "flicht": 8269,
      "rif": 8270,
      "ĠRegeln": 8271,
      "reib": 8272,
      "ĠStunde": 8273,
      "Ġvermeiden": 8274,
      "chirm": 8275,
      "ĠSachsen": 8276,
      "ski": 8277,
      "Tech": 8278,
      "zit": 8279,
      "nad": 8280,
      "ĠGewicht": 8281,
      "ĠAnti": 8282,
      "nei": 8283,
      "ratie": 8284,
      "messer": 8285,
      "ĠGrenzen": 8286,
      "Ġwirkt": 8287,
      "Kla": 8288,
      "Nutzungsbedingungen": 8289,
      "letzt": 8290,
      "ĠKos": 8291,
      "egenden": 8292,
      "machen": 8293,
      "erspekt": 8294,
      "nkten": 8295,
      "ĠBrief": 8296,
      "schwar": 8297,
      "eteilt": 8298,
      "Ġzust": 8299,
      "ĠEntstehen": 8300,
      "tschaft": 8301,
      "Ġzentrale": 8302,
      "gebi": 8303,
      "passt": 8304,
      "ĠEffe": 8305,
      "Fl": 8306,
      "ĠTraining": 8307,
      "ĠTat": 8308,
      "Swi": 8309,
      "ndliche": 8310,
      "Analysen": 8311,
      "Ġoptimale": 8312,
      "rae": 8313,
      "ĠDE": 8314,
      "Ġsparen": 8315,
      "Ġfolgt": 8316,
      "mund": 8317,
      "ĠTerra": 8318,
      "ologischen": 8319,
      "ĠKata": 8320,
      "well": 8321,
      "iesen": 8322,
      "Ġbeoba": 8323,
      "datei": 8324,
      "exe": 8325,
      "ĠDatenweitergabe": 8326,
      "MÃ¤rz": 8327,
      "ĠInnovation": 8328,
      "zum": 8329,
      "ĠRan": 8330,
      "ĠgeschÃ¼tzt": 8331,
      "tial": 8332,
      "Street": 8333,
      "ĠGeheim": 8334,
      "chlecht": 8335,
      "nbar": 8336,
      "Buch": 8337,
      "ĠRelig": 8338,
      "cheidet": 8339,
      "ufa": 8340,
      "mmer": 8341,
      "rebs": 8342,
      "ĠHochschule": 8343,
      "ĠErnÃ¤hrung": 8344,
      "ffnungszeiten": 8345,
      "gischen": 8346,
      "Ġermi": 8347,
      "Ġumfasst": 8348,
      "Ġdate": 8349,
      "thei": 8350,
      "rliner": 8351,
      "ĠVergangen": 8352,
      "ĠJul": 8353,
      "Ġschreibt": 8354,
      "zelle": 8355,
      "GVO": 8356,
      "Ġerhi": 8357,
      "ĠunabhÃ¤ngig": 8358,
      "Ġentstanden": 8359,
      "Ġinklusive": 8360,
      "ĠNE": 8361,
      "maschinen": 8362,
      "rnt": 8363,
      "sterrei": 8364,
      "Ġgekommen": 8365,
      "ĠgebÃ": 8366,
      "Modell": 8367,
      "ĠKrieg": 8368,
      "Ġpassenden": 8369,
      "einst": 8370,
      "ĠEt": 8371,
      "day": 8372,
      "ĠBoards": 8373,
      "Ġdiverse": 8374,
      "Â´": 8375,
      "Ġzulassen": 8376,
      "view": 8377,
      "Ġumfang": 8378,
      "Ð°": 8379,
      "Ġbisschen": 8380,
      "Ġknapp": 8381,
      "rtu": 8382,
      "Ãľbersicht": 8383,
      "ĠPaul": 8384,
      "Ġanalysieren": 8385,
      "Ġane": 8386,
      "rÃ¤d": 8387,
      "pass": 8388,
      "innova": 8389,
      "ĠRest": 8390,
      "Ġfach": 8391,
      "ĠRepublik": 8392,
      "andi": 8393,
      "Ġwenige": 8394,
      "ĠItalien": 8395,
      "enste": 8396,
      "Stadt": 8397,
      "Ġcons": 8398,
      "ï¿": 8399,
      "ikon": 8400,
      "weisu": 8401,
      "weisun": 8402,
      "ĠVerwaltung": 8403,
      "Ġnotwendigen": 8404,
      "Kinder": 8405,
      "ĠCent": 8406,
      "weisung": 8407,
      "ĠPet": 8408,
      "ĠBewegung": 8409,
      "niel": 8410,
      "ĠSchnitt": 8411,
      "mie": 8412,
      "ĠRegierung": 8413,
      "ple": 8414,
      "Reise": 8415,
      "itz": 8416,
      "ulen": 8417,
      "Ġmittlerweile": 8418,
      "lben": 8419,
      "ĠErinne": 8420,
      "Juni": 8421,
      "Ġgegebene": 8422,
      "Konto": 8423,
      "lÃ¤nder": 8424,
      "blatt": 8425,
      "nam": 8426,
      "ĠGefahr": 8427,
      "ĠWarum": 8428,
      "ĠEreig": 8429,
      "Up": 8430,
      "nterha": 8431,
      "ĠDIE": 8432,
      "ĠerfÃ¼llt": 8433,
      "iensta": 8434,
      "Ġbestm": 8435,
      "ĠSonne": 8436,
      "Ġ34": 8437,
      "ĠProt": 8438,
      "Ġinternationalen": 8439,
      "ĠHisto": 8440,
      "llation": 8441,
      "vollen": 8442,
      "bisch": 8443,
      "ĠBeweg": 8444,
      "ĠGroup": 8445,
      "ĠÃ¶ffentlich": 8446,
      "zeichnen": 8447,
      "bus": 8448,
      "kos": 8449,
      "ĠvielfÃ¤lt": 8450,
      "glieder": 8451,
      "Ġspeichert": 8452,
      "Ġabsolut": 8453,
      "ĠSeme": 8454,
      "ible": 8455,
      "ĠFlÃ¤che": 8456,
      "ĠJes": 8457,
      "ĠKeine": 8458,
      "ĠJan": 8459,
      "Ġsti": 8460,
      "ĠVater": 8461,
      "ultur": 8462,
      "ĠÃ¶ffnen": 8463,
      "liminar": 8464,
      "uÃŁen": 8465,
      "ĠBeteil": 8466,
      "Ġdeaktiviert": 8467,
      "tures": 8468,
      "zed": 8469,
      "schne": 8470,
      "ives": 8471,
      "Ġwirk": 8472,
      "conte": 8473,
      "ĠglÃ¼ck": 8474,
      "flug": 8475,
      "terb": 8476,
      "ĠBeschÃ¤ft": 8477,
      "etreiber": 8478,
      "Ġwichtigen": 8479,
      "staltungs": 8480,
      "ĠWÃ¶": 8481,
      "chischen": 8482,
      "ĠPrÃ¤liminar": 8483,
      "ype": 8484,
      "ĠKontaktformular": 8485,
      "ĠRechn": 8486,
      "tektur": 8487,
      "ĠLande": 8488,
      "ĠVerbraucher": 8489,
      "ĠHof": 8490,
      "ppt": 8491,
      "glicher": 8492,
      "ĠPop": 8493,
      "TA": 8494,
      "cent": 8495,
      "Ã¶de": 8496,
      "Ġermitte": 8497,
      "sung": 8498,
      "ĠAusnahme": 8499,
      "ĠGrab": 8500,
      "conten": 8501,
      "nlagen": 8502,
      "diensta": 8503,
      "content": 8504,
      "Fra": 8505,
      "Aktuelles": 8506,
      "ĠKrise": 8507,
      "PrÃ¤": 8508,
      "funk": 8509,
      "ĠðŁĻ": 8510,
      "ĠAufbewa": 8511,
      "Ġabgerufenen": 8512,
      "ergi": 8513,
      "Tag": 8514,
      "ĠSchwi": 8515,
      "lgemeinen": 8516,
      "lÃ¼te": 8517,
      "reinbarung": 8518,
      "Ġ;": 8519,
      "llgemeinen": 8520,
      "allgemeinen": 8521,
      "ĠVita": 8522,
      "KW": 8523,
      "Ġwahrscheinlich": 8524,
      "ĠCal": 8525,
      "rett": 8526,
      "ĠNatu": 8527,
      "Ġbislang": 8528,
      "Ġzufrieden": 8529,
      "ĠKro": 8530,
      "Januar": 8531,
      "ĠSS": 8532,
      "ĠStoff": 8533,
      "werten": 8534,
      "ĠSan": 8535,
      "Go": 8536,
      "estens": 8537,
      "rner": 8538,
      "ĠZahlungse": 8539,
      "ĠPress": 8540,
      "ĠEinhei": 8541,
      "ĠMedika": 8542,
      "ĠVertrieb": 8543,
      "ĠTasche": 8544,
      "Ġrech": 8545,
      "kademie": 8546,
      "ĠWochenende": 8547,
      "ront": 8548,
      "Ġallgemeinen": 8549,
      "ĠMarketingzwecken": 8550,
      "Ġangefordert": 8551,
      "rlÃ¤": 8552,
      "ĠSou": 8553,
      "Sper": 8554,
      "rity": 8555,
      "ssers": 8556,
      "Surf": 8557,
      "ĠzuverlÃ¤ss": 8558,
      "Sur": 8559,
      "projekt": 8560,
      "lanz": 8561,
      "Emp": 8562,
      "Ġversucht": 8563,
      "werbung": 8564,
      "itig": 8565,
      "ep": 8566,
      "ntwicklung": 8567,
      "lobale": 8568,
      "Ġwann": 8569,
      "resde": 8570,
      "Ġregistrieren": 8571,
      "ĠVariante": 8572,
      "ĠTracking": 8573,
      "Ġtoll": 8574,
      "HA": 8575,
      "??": 8576,
      "Ġ75": 8577,
      "ĠAusstellung": 8578,
      "ice": 8579,
      "erhei": 8580,
      "sprache": 8581,
      "Sachen": 8582,
      "Ġacht": 8583,
      "Download": 8584,
      "Info": 8585,
      "Ġeigener": 8586,
      "Ġstarten": 8587,
      "Ġarbeitet": 8588,
      "ĠRÃ¼cken": 8589,
      "kalis": 8590,
      "nierung": 8591,
      "ĠOs": 8592,
      "Ġschneller": 8593,
      "________________": 8594,
      "link": 8595,
      "uchten": 8596,
      "riffe": 8597,
      "ĠhÃ¤tten": 8598,
      "ĠVerkehrs": 8599,
      "eno": 8600,
      "Ġform": 8601,
      "Ġangemessen": 8602,
      "ĠRent": 8603,
      "ssour": 8604,
      "Ġflex": 8605,
      "chlu": 8606,
      "hatsApp": 8607,
      "erel": 8608,
      "hÃ¶h": 8609,
      "obi": 8610,
      "stru": 8611,
      "Ġsobald": 8612,
      "ĠHuman": 8613,
      "gebe": 8614,
      "ĠWeiterlesen": 8615,
      "Ġdenk": 8616,
      "Ġdenken": 8617,
      "suche": 8618,
      "ttle": 8619,
      "achin": 8620,
      "ĠGarantie": 8621,
      "Ġsub": 8622,
      "erinnen": 8623,
      "Out": 8624,
      "holz": 8625,
      "Ġentspricht": 8626,
      "ï¿½": 8627,
      "ĠKoch": 8628,
      "Ġentscheide": 8629,
      "oster": 8630,
      "ĠFÃ¶rderung": 8631,
      "ĠSPD": 8632,
      "ĠBie": 8633,
      "ĠWeihnachten": 8634,
      "Ġwirtschaftliche": 8635,
      "ĠursprÃ¼n": 8636,
      "produkte": 8637,
      "Ġ94": 8638,
      "Ġinnova": 8639,
      "ĠDein": 8640,
      "Ist": 8641,
      "wÃ¶hnliche": 8642,
      "ply": 8643,
      "Ġruh": 8644,
      "Ġtief": 8645,
      "kalisch": 8646,
      "Ġverkauft": 8647,
      "Ġtreten": 8648,
      "Ġlebe": 8649,
      "Projekt": 8650,
      "ifizierung": 8651,
      "ĠÃ¼bl": 8652,
      "Ġ120": 8653,
      "ĠLehre": 8654,
      "Ġfertig": 8655,
      "ĠLam": 8656,
      "Show": 8657,
      "prozess": 8658,
      "ĠFel": 8659,
      "Hinweis": 8660,
      "ĠÃľbermittlung": 8661,
      "ĠDatum": 8662,
      "Ġ99": 8663,
      "chtli": 8664,
      "Ġeinsteigen": 8665,
      "ĠNun": 8666,
      "obby": 8667,
      "BER": 8668,
      "instagram": 8669,
      "ĠFei": 8670,
      "Ġprivaten": 8671,
      "rats": 8672,
      "ĠPharma": 8673,
      "osch": 8674,
      "Ġinve": 8675,
      "85": 8676,
      "ĠBezi": 8677,
      "ĠSachen": 8678,
      "Ġregistriert": 8679,
      "Ġverkaufen": 8680,
      "tÃ¤tigung": 8681,
      "ĠZeits": 8682,
      "ĠAndere": 8683,
      "Tis": 8684,
      "Ġerheblich": 8685,
      "rreich": 8686,
      "ĠKG": 8687,
      "ĠHeimat": 8688,
      "ĠNutzerprofile": 8689,
      "ĠÃ¼berl": 8690,
      "denke": 8691,
      "Ġbla": 8692,
      "ĠFeuerwe": 8693,
      "¼nfte": 8694,
      "langt": 8695,
      "Ġtelefo": 8696,
      "umini": 8697,
      "ĠEinheit": 8698,
      "flege": 8699,
      "ogen": 8700,
      "ĠUse": 8701,
      "riterien": 8702,
      "ĠHandy": 8703,
      "ehÃ¶rden": 8704,
      "Ġ55": 8705,
      "resden": 8706,
      "ĠBeschwerde": 8707,
      "ĠVerÃ¶ffentlich": 8708,
      "ĠSchÃ¼l": 8709,
      "dal": 8710,
      "ĠRedaktion": 8711,
      "Ġguter": 8712,
      "Ġlieben": 8713,
      "2012": 8714,
      "kleidung": 8715,
      "kern": 8716,
      "stalten": 8717,
      "ĠInsel": 8718,
      "Ġherzlich": 8719,
      "usen": 8720,
      "logs": 8721,
      "Ġpassende": 8722,
      "unterha": 8723,
      "ĠFrieden": 8724,
      "And": 8725,
      "FZ": 8726,
      "ĠAusstattung": 8727,
      "ĠStudium": 8728,
      "rÃ¤umen": 8729,
      "nitiative": 8730,
      "tzt": 8731,
      "fle": 8732,
      "Ġgesamme": 8733,
      "Ġkleiner": 8734,
      "ĠtrÃ¤gt": 8735,
      "ĠDemok": 8736,
      "rechpartner": 8737,
      "ĠPhysi": 8738,
      "Ġelektronisches": 8739,
      "Ġweisen": 8740,
      "ntera": 8741,
      "aching": 8742,
      "ĠGrad": 8743,
      "ĠSchalt": 8744,
      "nÃ¤ppchen": 8745,
      "ĠDÃ¤": 8746,
      "GrÃ¼": 8747,
      "umo": 8748,
      "ĠWohl": 8749,
      "ematis": 8750,
      "Ã¼hrung": 8751,
      "Ġstud": 8752,
      "lastung": 8753,
      "yt": 8754,
      "pital": 8755,
      "ĠEise": 8756,
      "nton": 8757,
      "ĠAusÃ¼bung": 8758,
      "kÃ¤mp": 8759,
      "ios": 8760,
      "teuer": 8761,
      "leine": 8762,
      "ĠSurf": 8763,
      "Ġzuletzt": 8764,
      "ĠKontaktdaten": 8765,
      "jekten": 8766,
      "ĠMatt": 8767,
      "Ġverurs": 8768,
      "ĠPil": 8769,
      "ĠverÃ¶ffentl": 8770,
      "Ġirgendeiner": 8771,
      "Februar": 8772,
      "Ġbegren": 8773,
      "ĠTÃ¤tigkeit": 8774,
      "ĠWorkshop": 8775,
      "Ġ1000": 8776,
      "Ġ33": 8777,
      "tterie": 8778,
      "olische": 8779,
      "erell": 8780,
      "ĠstÃ¶": 8781,
      "leinigen": 8782,
      "lleinigen": 8783,
      "alleinigen": 8784,
      "Ġalleinigen": 8785,
      "ionale": 8786,
      "ley": 8787,
      "StreetMap": 8788,
      "ĠKompl": 8789,
      "schlÃ¤": 8790,
      "ĠzugÃ¤n": 8791,
      "ĠAnk": 8792,
      "hip": 8793,
      "Ġnormale": 8794,
      "verordnung": 8795,
      "Studi": 8796,
      "zahlt": 8797,
      "ĠDÃ¼sseldorf": 8798,
      "ertel": 8799,
      "IER": 8800,
      "erheit": 8801,
      "ĠprÃ¼fen": 8802,
      "hai": 8803,
      "graphie": 8804,
      "kultur": 8805,
      "ĠDom": 8806,
      "Ġqua": 8807,
      "ĠPlatforms": 8808,
      "cheiden": 8809,
      "ĠabhÃ¤ngig": 8810,
      "Ġlei": 8811,
      "theit": 8812,
      "ĠBlack": 8813,
      "ĠGed": 8814,
      "ĠKel": 8815,
      "kationen": 8816,
      "ĠModul": 8817,
      "Ġwidersp": 8818,
      "ĠMess": 8819,
      ",-": 8820,
      "ĠPlanu": 8821,
      "ĠWeiteren": 8822,
      "ĠMig": 8823,
      "ĠPlanun": 8824,
      "LC": 8825,
      "kalender": 8826,
      "ĠAnbieters": 8827,
      "Ġsogenannten": 8828,
      "ĠEnglisch": 8829,
      "Fahr": 8830,
      "gid": 8831,
      "unda": 8832,
      "umme": 8833,
      "kÃ¤": 8834,
      "ĠBeitrags": 8835,
      "rastruktur": 8836,
      "Ġeure": 8837,
      "lÃ¤nde": 8838,
      "ĠBerecht": 8839,
      "stliche": 8840,
      "ĠInvesti": 8841,
      "Ġindividuellen": 8842,
      "Ġwissenschaftliche": 8843,
      "Ġerwartet": 8844,
      "ĠTour": 8845,
      "ĠLust": 8846,
      "ĠInterview": 8847,
      "ĠPlanung": 8848,
      "roch": 8849,
      "chwi": 8850,
      "Digital": 8851,
      "Ġ250": 8852,
      "lesen": 8853,
      "ĠPodcast": 8854,
      "ilfen": 8855,
      "ĠAGB": 8856,
      "Ġschwar": 8857,
      "ires": 8858,
      "ĠTech": 8859,
      "ĠTermine": 8860,
      "SR": 8861,
      "emitte": 8862,
      "ĠSeele": 8863,
      "ĠhÃ¤ngt": 8864,
      "ĠRhein": 8865,
      "ĠErz": 8866,
      "ĠBeziehung": 8867,
      "rael": 8868,
      "gage": 8869,
      "ĠGanz": 8870,
      "ĠverfÃ¼g": 8871,
      "¤le": 8872,
      "kisch": 8873,
      "ĠKol": 8874,
      "swerte": 8875,
      "ematisch": 8876,
      "matische": 8877,
      "Ġverlieren": 8878,
      "ACH": 8879,
      "isierten": 8880,
      "ĠPDF": 8881,
      "ĠOpen": 8882,
      "ĠLinie": 8883,
      "ĠBonus": 8884,
      "enga": 8885,
      "ĠEinrichtung": 8886,
      "Ġhilf": 8887,
      "AND": 8888,
      "rder": 8889,
      "nfigu": 8890,
      "ĠZahlen": 8891,
      "enstle": 8892,
      "Ġ2001": 8893,
      "ordnet": 8894,
      "ĠMillia": 8895,
      "Ġerfasst": 8896,
      "ĠgÃ¼nstig": 8897,
      "ĠFeed": 8898,
      "forma": 8899,
      "ĠKontakta": 8900,
      "eile": 8901,
      "hÃ¤lt": 8902,
      "Vorlieben": 8903,
      "tzÃ¼nd": 8904,
      "ĠgenÃ¼": 8905,
      "Ġeinfache": 8906,
      "hÃ¤nger": 8907,
      "ĠRepa": 8908,
      "ĠPoly": 8909,
      "ĠVertrauen": 8910,
      "ĠSofern": 8911,
      "Mitglied": 8912,
      "Ġtrifft": 8913,
      "ĠClub": 8914,
      "ĠNet": 8915,
      "ĠPosition": 8916,
      "ĠTee": 8917,
      "platte": 8918,
      "design": 8919,
      "achsen": 8920,
      "GH": 8921,
      "ĠSonde": 8922,
      "IK": 8923,
      "ĠFleis": 8924,
      "ĠBege": 8925,
      "lassung": 8926,
      "ĠOriginal": 8927,
      "hres": 8928,
      "ĠAmts": 8929,
      "empo": 8930,
      "ĠÃĸffentlich": 8931,
      "ysteme": 8932,
      "erstellen": 8933,
      "staltet": 8934,
      "Ġjungen": 8935,
      "ĠPara": 8936,
      "ĠMain": 8937,
      "ney": 8938,
      "Ġschri": 8939,
      "abelle": 8940,
      "ĠInternetdiensta": 8941,
      "ĠApothe": 8942,
      "ĠInternationale": 8943,
      "ĠÃ¼bli": 8944,
      "Ġfrom": 8945,
      "ĠEigenschaften": 8946,
      "Fach": 8947,
      "ĠFunktionalitÃ¤t": 8948,
      "Ġkosten": 8949,
      "Ġgene": 8950,
      "derart": 8951,
      "Teil": 8952,
      "GÃ": 8953,
      "ffu": 8954,
      "nzle": 8955,
      "rce": 8956,
      "Aktiv": 8957,
      "SH": 8958,
      "ĠSonst": 8959,
      "ĠInternetdienstanbieters": 8960,
      "ĠVermÃ¶gen": 8961,
      "Ġersche": 8962,
      "ĠÃ¼blich": 8963,
      "Ġsport": 8964,
      "ĠAusst": 8965,
      "nnummer": 8966,
      "ssig": 8967,
      "Ġerschei": 8968,
      "toren": 8969,
      "ĠFol": 8970,
      "Ġfunktionieren": 8971,
      "Ġderart": 8972,
      "rante": 8973,
      "Ġbearbeiten": 8974,
      "ĠAbonne": 8975,
      "schaltet": 8976,
      "Ġgefallen": 8977,
      "annover": 8978,
      "edl": 8979,
      "Ġ(*": 8980,
      "sbehÃ¶rde": 8981,
      "Ã¼rger": 8982,
      "ĠKarl": 8983,
      "effizient": 8984,
      "Code": 8985,
      "ĠLandschaft": 8986,
      "ĠFormular": 8987,
      "Ġaufgenommen": 8988,
      "ĠRot": 8989,
      "ĠkÃ¼r": 8990,
      "ĠWeite": 8991,
      "Ġangegeben": 8992,
      "Ġernst": 8993,
      "ĠStil": 8994,
      "liste": 8995,
      "Ġheutigen": 8996,
      "ĠIl": 8997,
      "rist": 8998,
      "intera": 8999,
      "ĠMou": 9000,
      "ĠKommunikationsnetz": 9001,
      "Den": 9002,
      "Ġsah": 9003,
      "Alles": 9004,
      "ĠDomain": 9005,
      "ĠSc": 9006,
      "ĠOnl": 9007,
      "stischen": 9008,
      "Folge": 9009,
      "ĠSchweizer": 9010,
      "tsein": 9011,
      "rschen": 9012,
      "ĠKons": 9013,
      "ĠSohn": 9014,
      "ĠðŁĻĤ": 9015,
      "ĠWerb": 9016,
      "Anzeige": 9017,
      "ĠAR": 9018,
      "konto": 9019,
      "Stel": 9020,
      "Ġeinzige": 9021,
      "Ġ44": 9022,
      "Ġspezielle": 9023,
      "ĠBevÃ¶lkerung": 9024,
      "Quelle": 9025,
      "Ġsort": 9026,
      "ĠHilf": 9027,
      "ĠeuropÃ¤ischen": 9028,
      "urer": 9029,
      "risi": 9030,
      "Welt": 9031,
      "adi": 9032,
      "Ġdaraus": 9033,
      "gner": 9034,
      "aser": 9035,
      "Ġwelchem": 9036,
      "ĠÃĦr": 9037,
      "Ġerschein": 9038,
      "Ġliefern": 9039,
      "ĠSper": 9040,
      "kÃ¶": 9041,
      "uminium": 9042,
      "Inf": 9043,
      "ĠMerkmale": 9044,
      "euchtu": 9045,
      "Ġumge": 9046,
      "stern": 9047,
      "ĠVER": 9048,
      "zip": 9049,
      "euchtun": 9050,
      "Ġfragen": 9051,
      "Ġaktual": 9052,
      "udwig": 9053,
      "gewicht": 9054,
      "letten": 9055,
      "schirm": 9056,
      "Inhalt": 9057,
      "Ġconse": 9058,
      "Ġerscheint": 9059,
      "euchtung": 9060,
      "zz": 9061,
      "ecke": 9062,
      "nic": 9063,
      "ĠAllerdings": 9064,
      "Sti": 9065,
      "Ġmitte": 9066,
      "cherhe": 9067,
      "ĠTheate": 9068,
      "df": 9069,
      "isio": 9070,
      "ĠSmartphone": 9071,
      "cherhei": 9072,
      "ning": 9073,
      "ĠVereins": 9074,
      "ĠOrts": 9075,
      "cle": 9076,
      "ĠmaÃŁ": 9077,
      "cherheit": 9078,
      "Ġzahlreichen": 9079,
      "Hilfe": 9080,
      "ĠKar": 9081,
      "zeugs": 9082,
      "rier": 9083,
      "ĠPartners": 9084,
      "ĠWerte": 9085,
      "ĠAss": 9086,
      "ĠNutzers": 9087,
      "prechend": 9088,
      "ĠCity": 9089,
      "Software": 9090,
      "ĠnÃ¶tig": 9091,
      "¼hr": 9092,
      "ĠDeko": 9093,
      "Text": 9094,
      "wun": 9095,
      "rgehe": 9096,
      "grÃ¶ÃŁe": 9097,
      "rfahrung": 9098,
      "ĠEvent": 9099,
      "Vera": 9100,
      "check": 9101,
      "ĠAndreas": 9102,
      "nki": 9103,
      "ĠprÃ¤sentiert": 9104,
      "ĠSchnÃ¤ppchen": 9105,
      "mod": 9106,
      "Ġsolcher": 9107,
      "Ġ_": 9108,
      "vin": 9109,
      "ffun": 9110,
      "ĠBur": 9111,
      "Schreib": 9112,
      "ĠWicht": 9113,
      "ĠnÃ¤he": 9114,
      "ĠstÃ¤ndig": 9115,
      "ĠÃ¼berall": 9116,
      "ffung": 9117,
      "ĠKont": 9118,
      "Ġblo": 9119,
      "Sehen": 9120,
      "sicherheit": 9121,
      "sbedingungen": 9122,
      "Ġwirst": 9123,
      "tragen": 9124,
      "leistung": 9125,
      "ralle": 9126,
      "Ġstaa": 9127,
      "ĠÃ¼bergehen": 9128,
      "Test": 9129,
      "ĠKombination": 9130,
      "Ġbesucht": 9131,
      "ibli": 9132,
      "rÃ¼chen": 9133,
      "ĠLang": 9134,
      "ms": 9135,
      "pazi": 9136,
      "Ġintera": 9137,
      "rnd": 9138,
      "ĠInhalten": 9139,
      "Ġuser": 9140,
      "etent": 9141,
      "ĠKamera": 9142,
      "ĠPrÃ¤sident": 9143,
      "wolle": 9144,
      "Schreibe": 9145,
      "erstand": 9146,
      "lfte": 9147,
      "ĠFokus": 9148,
      "ĠStrategie": 9149,
      "llungen": 9150,
      "Ġpraktische": 9151,
      "kes": 9152,
      "Ġachten": 9153,
      "Ġentsteht": 9154,
      "zielt": 9155,
      "orie": 9156,
      "ssin": 9157,
      "ĠAbhÃ¤ngigkeit": 9158,
      "Ġniemand": 9159,
      "Ġvermi": 9160,
      "Ġentschieden": 9161,
      "ĠfrÃ¼her": 9162,
      "Book": 9163,
      "ĠLÃ¤nge": 9164,
      "erreich": 9165,
      "Ġevent": 9166,
      "gema": 9167,
      "gigen": 9168,
      "vention": 9169,
      "iate": 9170,
      "dur": 9171,
      "deck": 9172,
      "ĠRE": 9173,
      "Ġbesitzen": 9174,
      "SchlagwÃ¶rter": 9175,
      "peise": 9176,
      "rbeitende": 9177,
      "rgehen": 9178,
      "mÃ¼": 9179,
      "ĠNÃ¼": 9180,
      "ĠSym": 9181,
      "ĠAL": 9182,
      "rucken": 9183,
      "oord": 9184,
      "Ġtraur": 9185,
      "ĠBrÃ¼": 9186,
      "Ġmarkiert": 9187,
      "ĠJahrhundert": 9188,
      "TS": 9189,
      "ckten": 9190,
      "Unters": 9191,
      "nismus": 9192,
      "ĠjÃ¤hrl": 9193,
      "Id": 9194,
      "mik": 9195,
      "ĠKÃ¼nd": 9196,
      "Ġlokale": 9197,
      "ĠKooperation": 9198,
      "ĠVorteil": 9199,
      "ĠFleisch": 9200,
      "Ġleisten": 9201,
      "sur": 9202,
      ",\"": 9203,
      "Ð¸": 9204,
      "Christ": 9205,
      "Ġbeantra": 9206,
      "gebaut": 9207,
      "spielt": 9208,
      "hÃ¶he": 9209,
      "temberg": 9210,
      "Ġrelevante": 9211,
      "Ġuse": 9212,
      "ĠkÃ¼nft": 9213,
      "!âĢľ": 9214,
      "versammlung": 9215,
      "ĠWeiÃŁ": 9216,
      "ĠCloud": 9217,
      "Ġirgendwie": 9218,
      "YouTube": 9219,
      "Ġunterha": 9220,
      "Ġdenke": 9221,
      "fin": 9222,
      "dro": 9223,
      "ĠZahlungseinstellung": 9224,
      "Ġwichtiger": 9225,
      "Ġtut": 9226,
      "etan": 9227,
      "Ġbeschre": 9228,
      "ĠDonnerstag": 9229,
      "pal": 9230,
      "ĠSemester": 9231,
      "ĠjÃ¤hrli": 9232,
      "fahrer": 9233,
      "chtlich": 9234,
      "ĠjÃ¤hrlich": 9235,
      "Werbung": 9236,
      "¼ter": 9237,
      "Stell": 9238,
      "mieren": 9239,
      "Ġmorgen": 9240,
      "Ġnega": 9241,
      "fassung": 9242,
      "ĠWeiterb": 9243,
      "Ġobwohl": 9244,
      "Ġperfekte": 9245,
      "ĠKompetenz": 9246,
      "ĠKais": 9247,
      "ienstle": 9248,
      "ĠUmsatz": 9249,
      "ĠMÃ¼ller": 9250,
      "nverb": 9251,
      "ĠTrainings": 9252,
      "wan": 9253,
      "Netz": 9254,
      "Ġexk": 9255,
      "schrÃ¤nkt": 9256,
      "ĠDenk": 9257,
      "ĠMannschaft": 9258,
      "ĠHard": 9259,
      "steigend": 9260,
      "ĠGemeinschaft": 9261,
      "Ġverd": 9262,
      "ĠKonkursfall": 9263,
      "emÃ¼se": 9264,
      "ĠRegelungen": 9265,
      "INE": 9266,
      "pann": 9267,
      "tÃ¼cke": 9268,
      "ĠkÃ¶rpe": 9269,
      "einb": 9270,
      "Ġkamen": 9271,
      "ĠNummer": 9272,
      "ĠNatÃ¼rlich": 9273,
      "ĠPre": 9274,
      "ĠUmfrage": 9275,
      "hu": 9276,
      "ĠSchulen": 9277,
      "ĠanschlieÃŁend": 9278,
      "kampf": 9279,
      "Ã¤cht": 9280,
      "ĠnatÃ¼rlichen": 9281,
      "einer": 9282,
      "ĠAustausch": 9283,
      "Ġsieben": 9284,
      "weiterlesen": 9285,
      "glish": 9286,
      "ĠGeschenke": 9287,
      "ngebot": 9288,
      "raturen": 9289,
      "fertigt": 9290,
      "ĠVerstÃ¤nd": 9291,
      "ĠReakt": 9292,
      "ĠMicrosoft": 9293,
      "ĠKasten": 9294,
      "rita": 9295,
      "!!!": 9296,
      "iefert": 9297,
      "ĠwunderschÃ¶": 9298,
      "ĠUnterha": 9299,
      "TL": 9300,
      "Ġweiterlesen": 9301,
      "ĠSet": 9302,
      "Ġgeeig": 9303,
      "ĠCA": 9304,
      "Ġelekt": 9305,
      "ĠPayPal": 9306,
      "Ġoptimal": 9307,
      "RÃ": 9308,
      "nora": 9309,
      "ndem": 9310,
      "ĠRoh": 9311,
      "ĠBlumen": 9312,
      "ngeli": 9313,
      "ĠAN": 9314,
      "ĠVorladung": 9315,
      "TML": 9316,
      "ĠAntrag": 9317,
      "nerg": 9318,
      "felder": 9319,
      "Richtlinie": 9320,
      "iffe": 9321,
      "bieren": 9322,
      "Ġbequem": 9323,
      "rachten": 9324,
      "Ġbegann": 9325,
      "Ġbehandelt": 9326,
      "ĠSal": 9327,
      "ĠKonzept": 9328,
      "Ġgelegen": 9329,
      "ĠRobert": 9330,
      "einflu": 9331,
      "twortet": 9332,
      "ĠStrand": 9333,
      "reative": 9334,
      "ufnahme": 9335,
      "Ġzuzu": 9336,
      "chrichten": 9337,
      "Ġhalb": 9338,
      "ĠInstru": 9339,
      "ĠGru": 9340,
      "pli": 9341,
      "ĠDatenschutzbestimmungen": 9342,
      "euern": 9343,
      "ĠgefÃ¼hrt": 9344,
      "Ġstarke": 9345,
      "wh": 9346,
      "gemÃ¤ÃŁ": 9347,
      "mbol": 9348,
      "Ġweiteres": 9349,
      "ĠHalle": 9350,
      "ollar": 9351,
      "Ġwarten": 9352,
      "rientierung": 9353,
      "hit": 9354,
      "ĠMee": 9355,
      "rnie": 9356,
      "PA": 9357,
      "Ġif": 9358,
      "Ġherunterladen": 9359,
      "Ġconsen": 9360,
      "Inte": 9361,
      "stanz": 9362,
      "Ã¶rd": 9363,
      "ĠGestaltung": 9364,
      "wege": 9365,
      "kant": 9366,
      "ĠAmerika": 9367,
      "imas": 9368,
      "ĠGewerbe": 9369,
      "rtun": 9370,
      "Ġvoller": 9371,
      "Allgemein": 9372,
      "reat": 9373,
      "schuhe": 9374,
      "ura": 9375,
      "pien": 9376,
      "Ġberuflich": 9377,
      "lleine": 9378,
      "cto": 9379,
      "erricht": 9380,
      "Ġerwarten": 9381,
      "iologie": 9382,
      "ĠHandel": 9383,
      "alleine": 9384,
[...]
