{"<|endoftext|>":0,"!":1,"\"":2,"#":3,"$":4,"%":5,"&":6,"'":7,"(":8,")":9,"*":10,"+":11,",":12,"-":13,".":14,"/":15,"0":16,"1":17,"2":18,"3":19,"4":20,"5":21,"6":22,"7":23,"8":24,"9":25,":":26,";":27,"<":28,"=":29,">":30,"?":31,"@":32,"A":33,"B":34,"C":35,"D":36,"E":37,"F":38,"G":39,"H":40,"I":41,"J":42,"K":43,"L":44,"M":45,"N":46,"O":47,"P":48,"Q":49,"R":50,"S":51,"T":52,"U":53,"V":54,"W":55,"X":56,"Y":57,"Z":58,"[":59,"\\":60,"]":61,"^":62,"_":63,"`":64,"a":65,"b":66,"c":67,"d":68,"e":69,"f":70,"g":71,"h":72,"i":73,"j":74,"k":75,"l":76,"m":77,"n":78,"o":79,"p":80,"q":81,"r":82,"s":83,"t":84,"u":85,"v":86,"w":87,"x":88,"y":89,"z":90,"{":91,"|":92,"}":93,"~":94,"¡":95,"¢":96,"£":97,"¤":98,"¥":99,"¦":100,"§":101,"¨":102,"©":103,"ª":104,"«":105,"¬":106,"®":107,"¯":108,"°":109,"±":110,"²":111,"³":112,"´":113,"µ":114,"¶":115,"·":116,"¸":117,"¹":118,"º":119,"»":120,"¼":121,"½":122,"¾":123,"¿":124,"À":125,"Á":126,"Â":127,"Ã":128,"Ä":129,"Å":130,"Æ":131,"Ç":132,"È":133,"É":134,"Ê":135,"Ë":136,"Ì":137,"Í":138,"Î":139,"Ï":140,"Ð":141,"Ñ":142,"Ò":143,"Ó":144,"Ô":145,"Õ":146,"Ö":147,"×":148,"Ø":149,"Ù":150,"Ú":151,"Û":152,"Ü":153,"Ý":154,"Þ":155,"ß":156,"à":157,"á":158,"â":159,"ã":160,"ä":161,"å":162,"æ":163,"ç":164,"è":165,"é":166,"ê":167,"ë":168,"ì":169,"í":170,"î":171,"ï":172,"ð":173,"ñ":174,"ò":175,"ó":176,"ô":177,"õ":178,"ö":179,"÷":180,"ø":181,"ù":182,"ú":183,"û":184,"ü":185,"ý":186,"þ":187,"ÿ":188,"Ā":189,"ā":190,"Ă":191,"ă":192,"Ą":193,"ą":194,"Ć":195,"ć":196,"Ĉ":197,"ĉ":198,"Ċ":199,"ċ":200,"Č":201,"č":202,"Ď":203,"ď":204,"Đ":205,"đ":206,"Ē":207,"ē":208,"Ĕ":209,"ĕ":210,"Ė":211,"ė":212,"Ę":213,"ę":214,"Ě":215,"ě":216,"Ĝ":217,"ĝ":218,"Ğ":219,"ğ":220,"Ġ":221,"ġ":222,"Ģ":223,"ģ":224,"Ĥ":225,"ĥ":226,"Ħ":227,"ħ":228,"Ĩ":229,"ĩ":230,"Ī":231,"ī":232,"Ĭ":233,"ĭ":234,"Į":235,"į":236,"İ":237,"ı":238,"Ĳ":239,"ĳ":240,"Ĵ":241,"ĵ":242,"Ķ":243,"ķ":244,"ĸ":245,"Ĺ":246,"ĺ":247,"Ļ":248,"ļ":249,"Ľ":250,"ľ":251,"Ŀ":252,"ŀ":253,"Ł":254,"ł":255,"Ń":256,"en":257,"er":258,"ch":259,"\":":260,"ei":261,"Ġd":262,"el":263,"un":264,"ie":265,",\"":266,"la":267,"de":268,"st":269,"ro":270,"\":\"":271,"\",\"":272,"in":273,"{\"":274,"on":275,"pro":276,"bel":277,"an":278,"prob":279,"label":280,"},":281,"ll":282,"ar":283,"es":284,"ĠS":285,"ich":286,"at":287,"ein":288,"Ã¼":289,"ung":290,"Ġa":291,"Ġun":292,"Ġs":293,"ge":294,"or":295,"Ġw":296,"},{\"":297,"99":298,"Ã¤":299,"nu":300,"it":301,"ten":302,"sch":303,"null":304,"te":305,"ĠA":306,"Ġv":307,"Ġdie":308,"Ġund":309,"ĠD":310,"al":311,"Ġb":312,"der":313,"Ġm":314,"ĠB":315,"den":316,"hr":317,"ti":318,"Ġz":319,"ur":320,"as":321,"Ġein":322,"Ġder":323,"ter":324,"gen":325,"20":326,"us":327,"ĠM":328,"et":329,"em":330,"Ġi":331,"Ġf":332,"uf":333,"ĠW":334,"ĠE":335,"Ã¶":336,"ĠI":337,"ber":338,"ĠF":339,"Ġin":340,"Ġn":341,"ĠK":342,"ĠG":343,"Ġh":344,"Ġk":345,"ck":346,"lich":347,".\\":348,"ĠP":349,"ra":350,"Ġzu":351,"re":352,"war":353,"ut":354,"ir":355,"ion":356,"sen":357,"eit":358,"Ã¼r":359,",{\"":360,"ier":361,"ĠT":362,"Ġg":363,"ĠV":364,"âĢ":365,"ach":366,"ĠH":367,"Ġ(":368,"Ġ20":369,"um":370,"is":371,"ell":372,"mm":373,"warc":374,"ĠR":375,"uch":376,"ben":377,"ĠL":378,"Ġan":379,"il":380,"ig":381,"Ġer":382,"se":383,"ĠN":384,"Ġdas":385,"Ġver":386,"Ġvon":387,"icht":388,"Ġo":389,"Ġge":390,"ol":391,"Ġ1":392,"Ġauf":393,"ĠfÃ¼r":394,"ĠC":395,"98":396,"ser":397,"ation":398,"Ġden":399,"oo":400,"le":401,"ers":402,"nen":403,"am":404,"Ġmit":405,"isch":406,"ent":407,"00":408,"ĠZ":409,"ÃŁ":410,"eh":411,"rei":412,"con":413,"22":414,"ĠIn":415,"ĠSie":416,"be":417,"Ġist":418,"ĠU":419,"kt":420,"ing":421,"ĠJ":422,"ff":423,"and":424,"ls":425,"eg":426,"om":427,"Ġp":428,"ungen":429,"ann":430,"97":431,"nD":432,"ĠSt":433,"ĠâĢ":434,"ĠVer":435,"eb":436,"di":437,"Ġwir":438,"ĠAn":439,"Ġ201":440,"aten":441,"est":442,"96":443,"95":444,"id":445,"ahr":446,"ft":447,"tent":448,"Ġnicht":449,"Ġso":450,"lan":451,"content":452,"Ã¼ber":453,"Ġim":454,"Ġoder":455,"Ġaus":456,"Ġdes":457,"eich":458,"sp":459,"lo":460,"he":461,"ook":462,"for":463,"ies":464,"nA":465,"Ġwer":466,"ĠSch":467,"ic":468,"utz":469,"ul":470,"Ã¤n":471,"ind":472,"21":473,"ik":474,"94":475,"iel":476,"hl":477,"Ġt":478,"ag":479,"93":480,"eu":481,"Ġsich":482,"ĠO":483,"au":484,"Ġeine":485,"Ġj":486,"11":487,"nS":488,"ehr":489,"och":490,"ungs":491,"Ġl":492,"ad":493,"Ġbei":494,"pe":495,"ĠÃ¼ber":496,"Ã¶n":497,"etz":498,"Ġwerden":499,"ien":500,"ver":501,"23":502,"ort":503,"tif":504,"25":505,"stell":506,"ern":507,"iden":508,"998":509,"Ġsch":510,"ri":511,"esch":512,"kti":513,"wei":514,"gt":515,"Ġauch":516,"24":517,"91":518,"26":519,"Ġum":520,"Ġes":521,"sten":522,"ot":523,"identif":524,"\":{\"":525,"hal":526,"05":527,"pp":528,"27":529,"ĠEin":530,"ĠIhr":531,"hn":532,"omm":533,"Ġdem":534,"nW":535,"ab":536,"Ġst":537,"ech":538,"83":539,"ĠEr":540,"enn":541,"und":542,"Ġsind":543,"86":544,"tz":545,"Ġbe":546,"75":547,"84":548,"85":549,"15":550,"06":551,"13":552,"ĠDaten":553,"ht":554,"03":555,"04":556,"eiter":557,"form":558,"Ġwie":559,"ha":560,"Ã¤r":561,"ist":562,"Ġunser":563,"73":564,"74":565,"16":566,"14":567,"Ġha":568,"eil":569,"tig":570,"Ã¼ck":571,"ĠkÃ¶n":572,"76":573,"ĠDie":574,"wer":575,"all":576,"eine":577,"ĠSp":578,"ess":579,"Ġall":580,"Ġnach":581,"end":582,"ru":583,"tern":584,"urch":585,"Ġ-":586,"Ġals":587,"ger":588,"ty":589,"urn":590,"men":591,"nE":592,"ĠUn":593,"arb":594,"ed":595,"nM":596,"Ã¼n":597,"age":598,"ĠCook":599,"\\\"":600,"ug":601,"08":602,"ieren":603,"ĠkÃ¶nnen":604,"nB":605,"sit":606,"ĠâĢĵ":607,"ick":608,"ĠWeb":609,"Ġvor":610,"rÃ¤":611,"12":612,"nI":613,"ication":614,"scha":615,"oll":616,"uid":617,"ĠPro":618,"Ġdass":619,"type":620,"chen":621,"ts":622,"ĠAr":623,"ep":624,"\":\"<":625,"uuid":626,"identification":627,"},\"":628,"Ġzur":629,"âĢľ":630,"qu":631,"lsh":632,"tlsh":633,"Ġich":634,"iv":635,"Ġwird":636,"996":637,"eiten":638,"Ã¶r":639,"auf":640,"ischen":641,"07":642,"ord":643,"\":[":644,"lin":645,"45":646,"ssen":647,"Ġab":648,"Ġ/":649,"ce":650,"lichen":651,"pf":652,"itt":653,"Ġsein":654,"imm":655,"ark":656,"17":657,"33":658,"to":659,"iert":660,"ische":661,"ww":662,"Ġnu":663,"eite":664,"ps":665,"nN":666,"lie":667,"Ġhat":668,">\",\"":669,"ÂŃ":670,"aus":671,"Ġje":672,"ust":673,"28":674,"ationen":675,"ĠâĢŀ":676,"schutz":677,"Ġunter":678,"Ġent":679,"46":680,"Ġkann":681,"ktion":682,"ss":683,"ran":684,")\\":685,"og":686,"997":687,"Ġsie":688,"55":689,"Ġ3":690,"liche":691,"geb":692,"ate":693,"Ġzum":694,"ub":695,"fÃ¼":696,"ner":697,"Ġhaben":698,"rie":699,"tra":700,"nK":701,"Ġeinen":702,"erk":703,"Ġdurch":704,"Ġuns":705,"ĠAus":706,"nF":707,"Ġda":708,"ĠJahr":709,"Ġam":710,"18":711,"Ġeiner":712,"zen":713,"len":714,"elt":715,"ĠÃ":716,"ĠAb":717,"ĠDe":718,"senten":719,"zi":720,"43":721,"ill":722,"ahl":723,"schaft":724,"eigen":725,"Ã¤t":726,"ĠCookies":727,"nDie":728,"art":729,"ateg":730,"ang":731,"//":732,"eben":733,"nt":734,"ĠBe":735,"Ġihr":736,"://":737,"..":738,"zu":739,"10":740,"ert":741,"pr":742,"che":743,"alit":744,"87":745,"igen":746,"pla":747,"rech":748,"ĠWebsit":749,"ader":750,"nG":751,"995":752,"uss":753,"her":754,"Ġander":755,"erson":756,"hen":757,"fen":758,"ategor":759,"im":760,"09":761,"formationen":762,"Ġr":763,"ings":764,"har":765,"ied":766,"2022":767,":\\":768,"xt":769,"schen":770,"lang":771,"ĠMa":772,"header":773,"44":774,"Ġeinem":775,"vers":776,"36":777,"det":778,"Ã¶g":779,"nP":780,"lei":781,"heit":782,"01":783,"Ġweiter":784,"wen":785,"35":786,"ho":787,"tet":788,"nT":789,"ĠWebsite":790,"tps":791,"nH":792,"Ġwar":793,"keit":794,"Ġmehr":795,"bt":796,"Ġwur":797,"nC":798,"des":799,"gest":800,"bar":801,"ont":802,"Ġbis":803,"os":804,"ige":805,"eck":806,"fahr":807,"nis":808,"amm":809,"ac":810,"Ġnur":811,"ĠBer":812,"ĠIhre":813,"ember":814,"lock":815,"Ġbest":816,"Ġges":817,"Ġdies":818,"ah":819,"get":820,"88":821,"assen":822,"deu":823,"ew":824,"anz":825,"zeit":826,"dern":827,"Ġc":828,"ehen":829,"gel":830,"net":831,"Ã¤hr":832,"Ġman":833,"dem":834,"77":835,"nV":836,"29":837,"Ġdiese":838,"ĠGr":839,"eren":840,"66":841,"fe":842,"mf":843,"ĠAuf":844,"ste":845,"Ġe":846,"34":847,"ak":848,"ail":849,"ster":850,"ata":851,"edi":852,"etzt":853,"ffen":854,"du":855,"Ġnoch":856,"utsch":857,"land":858,"met":859,"https":860,"tar":861,"ob":862,"ken":863,"19":864,"ĠVor":865,"hnen":866,"ommen":867,"elle":868,"Ġ&":869,"mal":870,"ov":871,"ÃŁen":872,"ref":873,"}}":874,"text":875,"rec":876,"alt":877,"ap":878,"65":879,"ant":880,"ĠSo":881,"qualit":882,"unden":883,"90":884,"sha":885,"uri":886,"Ġdu":887,"ne":888,"ges":889,"Ġ4":890,"Ġfin":891,"ef":892,"version":893,"Ġ5":894,"date":895,"nL":896,"gle":897,"Ġsp":898,"ass":899,"Ġneu":900,"ehmen":901,"oogle":902,"Ġ2022":903,"categor":904,"ĠInformationen":905,"fol":906,"ild":907,"ľber":908,"block":909,"Ġviel":910,"per":911,"02":912,"Ġsoll":913,"warn":914,"eln":915,"gth":916,"uage":917,"ĠWir":918,"Ġber":919,"length":920,"language":921,"record":922,"nZ":923,"target":924,"Ã¶glich":925,"quality":926,"plain":927,"categories":928,"Ġlie":929,"conversion":930,"adata":931,"]}}":932,"refers":933,"metadata":934,"headers":935,"digest":936,"mful":937,"warnings":938,"sentence":939,"harmful":940,"identifications":941,"\"},\"":942,"identified":943,"ler":944,"Ġverwen":945,"?\\":946,"dr":947,"gr":948,"lÃ¤":949,"Ġdieser":950,"Ġwenn":951,"lÃ¤r":952,"Ġ2":953,"nR":954,"ĠMit":955,"64":956,"ktiv":957,"\":[{\"":958,"Ġunserer":959,"tion":960,"mmer":961,"iz":962,"Ġaber":963,"op":964,"Ġdar":965,"unktion":966,"me":967,"wie":968,"ĠNutz":969,"}]}}":970,"Ġ|":971,"ĠDas":972,"eitung":973,"\"]":974,"\":[\"":975,"\"],\"":976,"leich":977,"Ġhier":978,"57":979,"54":980,"ÃŁe":981,"esse":982,"nIn":983,"bst":984,"Ġla":985,"rÃ¼":986,"Ġgen":987,"eig":988,"acht":989,"Ġhin":990,"tem":991,"994":992,"halten":993,"ga":994,"erung":995,"hin":996,"Ġpro":997,"ĠRech":998,"ma":999,"ogen":1000,"nU":1001,"Ġbes":1002,"37":1003,"Ġ6":1004,"ĠHer":1005,"weck":1006,"!\\":1007,"rit":1008,"esen":1009,"lle":1010,"trag":1011,"sh":1012,"www":1013,"ink":1014,"ellen":1015,"Ġper":1016,"56":1017,"30":1018,"ast":1019,"atz":1020,"Ã¤l":1021,"ame":1022,"Ġvom":1023,"81":1024,"eld":1025,"ierung":1026,"Ġ\\\"":1027,"lick":1028,"ĠDer":1029,"ookie":1030,"ersonen":1031,"Ġwurde":1032,"od":1033,"akt":1034,"ĠDatenschutz":1035,"47":1036,"Ġre":1037,"nAn":1038,"Ġet":1039,"reich":1040,"hem":1041,"ale":1042,"einen":1043,"mer":1044,"ĠZeit":1045,"ĠFra":1046,"kte":1047,"gesch":1048,"Ã¤ch":1049,"zep":1050,"achen":1051,"hne":1052,"issen":1053,"reis":1054,"stellungen":1055,"80":1056,"Ġalle":1057,"Ã¤hl":1058,"fer":1059,"forder":1060,"ĠReg":1061,"ĠNach":1062,"ĠÃľber":1063,"bie":1064,"ibt":1065,"ichtig":1066,"dig":1067,"tik":1068,"Ġde":1069,"ĠGes":1070,"bez":1071,"ack":1072,"fall":1073,"fÃ¼hr":1074,"ult":1075,"com":1076,"Ġdann":1077,"osten":1078,"Ġwieder":1079,"mitt":1080,"vor":1081,"recht":1082,"ĠIm":1083,"usamm":1084,"eits":1085,"egen":1086,"In":1087,"att":1088,"min":1089,"ĠFor":1090,"ĠÂ":1091,"Ġgel":1092,"olog":1093,"Ġgew":1094,"bes":1095,"Ġbet":1096,"DE":1097,"Ġgro":1098,"92":1099,"ĠBet":1100,"Ġ2021":1101,"ĠUm":1102,"ke":1103,"tigen":1104,"ard":1105,"ĠGesch":1106,"Ã¶ff":1107,"lung":1108,"ost":1109,"67":1110,"Ġâ":1111,"onder":1112,"ohn":1113,"lÃ¤rung":1114,"uchen":1115,"Ġher":1116,"63":1117,"spiel":1118,"inder":1119,"Ġwas":1120,"ay":1121,"),":1122,"uÃŁ":1123,"Ã¶ch":1124,"fach":1125,"gem":1126,"53":1127,"ĠKon":1128,"pt":1129,"adt":1130,"weise":1131,"993":1132,"ow":1133,"ĠInhal":1134,"elbst":1135,"ĠMen":1136,"uro":1137,"ĠAl":1138,"ide":1139,"ĠEnt":1140,"stellen":1141,"Ġgem":1142,"usammen":1143,"Ġunsere":1144,"Ġmir":1145,"eist":1146,"gend":1147,"ober":1148,"Ġeines":1149,"Ã¼hr":1150,"Ġpassen":1151,"Ġ2020":1152,"nah":1153,"ekt":1154,"Ã¼tz":1155,"nCookie":1156,"alen":1157,"einer":1158,"ces":1159,"line":1160,"ĠDeutsch":1161,"urg":1162,"wend":1163,"ĠStÃ¼ck":1164,"itz":1165,"Ġkeine":1166,"Ġfinden":1167,"agen":1168,"ĠEn":1169,"atenschutz":1170,"geben":1171,"Ġimmer":1172,"wor":1173,"ovember":1174,"ia":1175,"Ġgibt":1176,"atur":1177,"Mail":1178,"ive":1179,"ĠBes":1180,"wort":1181,"zeu":1182,"eignet":1183,"Ġsehr":1184,"ĠUnter":1185,"ron":1186,".\",\"":1187,"riff":1188,"ine":1189,"omp":1190,"--":1191,"off":1192,"ok":1193,"ider":1194,"Ġetw":1195,"999":1196,"nJ":1197,"zeigen":1198,"ingen":1199,"ER":1200,"arbeitung":1201,"ĠMedi":1202,"Ĥ¬":1203,"erklÃ¤rung":1204,"alten":1205,"Ġsowie":1206,"lar":1207,"ĠOr":1208,"dien":1209,"bezogen":1210,"71":1211,"ĠArb":1212,"ĠBei":1213,"Ġ2019":1214,"Ġandere":1215,"will":1216,"aly":1217,"tt":1218,"tieren":1219,"ank":1220,"Ġgesch":1221,"ĠIhnen":1222,"short":1223,"chn":1224,"48":1225,"yst":1226,"sentences":1227,"tember":1228,"BB":1229,"ĠCookie":1230,"ĠGoogle":1231,"ĠEs":1232,"stellt":1233,"ĠNovember":1234,"tige":1235,"stÃ¤n":1236,"fra":1237,"Ġle":1238,"Ġzwei":1239,"Ġ2018":1240,"arten":1241,"Ġgeeignet":1242,"Ã¤rz":1243,"br":1244,"ierte":1245,"AC":1246,"Qu":1247,"ĠZu":1248,"wert":1249,"ĠProdu":1250,"wick":1251,"bl":1252,"EN":1253,"zember":1254,"nWir":1255,"uni":1256,"Ġschon":1257,"abei":1258,"Ġeigen":1259,"bieter":1260,"ontakt":1261,"ĠUhr":1262,"unde":1263,"ersonenbezogen":1264,"89":1265,"Ã¤tz":1266,"eng":1267,"sicht":1268,"Ġgegen":1269,"ĠWer":1270,"ĠEuro":1271,"ktober":1272,"iger":1273,"ĠKomm":1274,"Ã¤ÃŁ":1275,"ften":1276,"ĠFunktion":1277,"ater":1278,"Ġwel":1279,"ucht":1280,"ett":1281,"ĠIhrer":1282,"ial":1283,"Ġwen":1284,"ystem":1285,"ec":1286,"Ġgr":1287,"stellung":1288,"ED":1289,"innen":1290,"amit":1291,"row":1292,"zie":1293,"41":1294,"teil":1295,"ph":1296,"igung":1297,"uli":1298,"Ġ2017":1299,"eptember":1300,"echn":1301,"Ġdiesem":1302,"luss":1303,"nDatenschutz":1304,"stag":1305,"ĠWei":1306,"AD":1307,"anu":1308,"âĢ¦":1309,"erv":1310,"alis":1311,"31":1312,"lage":1313,"78":1314,"icher":1315,"Ġte":1316,"weg":1317,"38":1318,"ĠTe":1319,"Ġ10":1320,"St":1321,"ĠZug":1322,"Ġohne":1323,"spr":1324,"ohl":1325,"ternehmen":1326,"ews":1327,"amen":1328,"Ġmich":1329,"reu":1330,"Ġkon":1331,"av":1332,"essen":1333,"bung":1334,"press":1335,"ĠDezember":1336,"ufen":1337,"ĠMon":1338,"ĠIntern":1339,"satz":1340,"itte":1341,"Ġger":1342,"ĠDien":1343,"ktu":1344,"are":1345,"CC":1346,"log":1347,"Ġ2016":1348,"ĠOktober":1349,"ĠLeben":1350,"rag":1351,"eim":1352,"ba":1353,"AB":1354,"49":1355,"enutz":1356,"ugust":1357,"50":1358,"pril":1359,"inter":1360,"ĠmÃ¼":1361,"ĠMai":1362,"Ġversch":1363,"bs":1364,"burg":1365,"ĠSpiel":1366,"ĠTeil":1367,"ice":1368,"eht":1369,"ĠBest":1370,"els":1371,"fahren":1372,"Ġson":1373,"inn":1374,"ren":1375,"ĠWenn":1376,"sche":1377,"Ġwurden":1378,"lÃ¼":1379,"Ġ7":1380,"Ġjede":1381,"ĠSeptember":1382,"40":1383,"ruck":1384,"kzep":1385,"gan":1386,"zin":1387,"anuar":1388,"nO":1389,"zeich":1390,"...\\":1391,"58":1392,"Ġange":1393,"Ġanderen":1394,"nDer":1395,"Ġganz":1396,"seite":1397,"riv":1398,"Ġverwendet":1399,"rat":1400,"EF":1401,"laub":1402,"Ġbeim":1403,"nSt":1404,"ĠJuni":1405,"ebru":1406,"ebruar":1407,"ĠMÃ¤rz":1408,"Ġjeder":1409,"EC":1410,"bau":1411,"licht":1412,"Ġhabe":1413,"ud":1414,").":1415,"DD":1416,"kommen":1417,"peich":1418,"ĠGrund":1419,"ichten":1420,"ĠJuli":1421,"69":1422,"51":1423,"sk":1424,"Ġnutz":1425,"Ġkl":1426,"Ġdi":1427,"tikel":1428,"ĠVers":1429,"haus":1430,"nUn":1431,"oren":1432,"Ġeinfach":1433,"__":1434,"ichte":1435,"nung":1436,"82":1437,"schlie":1438,"ĠmÃ¶ch":1439,"ĠRe":1440,"rechen":1441,"Ġthe":1442,"ĠThem":1443,"ĠZweck":1444,"ritt":1445,"etzen":1446,"ĠJahre":1447,"ĠAugust":1448,"nDas":1449,"wir":1450,"gung":1451,"ĠHa":1452,"ĠBeit":1453,"Ġ2015":1454,"ĠApril":1455,"AF":1456,"rank":1457,"Ã¤hrend":1458,"ebook":1459,"ere":1460,"ĠWeiter":1461,"foo":1462,"ĠâĤ¬":1463,"ou":1464,"ĠSeite":1465,"ĠHand":1466,"lag":1467,"acebook":1468,"EB":1469,"Ġselbst":1470,"Ġerfol":1471,"let":1472,"ĠJanuar":1473,"our":1474,"ĠGer":1475,"Ġex":1476,"DF":1477,"zahl":1478,"iss":1479,"Ã¶ffent":1480,"Ġpersonenbezogen":1481,"atist":1482,"tschaft":1483,"Ġins":1484,"licher":1485,"mb":1486,"ment":1487,"hÃ¶r":1488,"Ġbie":1489,"bed":1490,"ĠTra":1491,"af":1492,"DC":1493,"ĠAut":1494,"Ã¤lt":1495,"bild":1496,"32":1497,"enk":1498,"ĠSpeich":1499,"ĠBesuch":1500,"gra":1501,"ĠDu":1502,"ĠFebruar":1503,"Ã¤ll":1504,"zw":1505,"ĠRei":1506,"footer":1507,"eitet":1508,"Ġerforder":1509,"ĠInter":1510,"Ġgut":1511,"000":1512,"los":1513,"asser":1514,"ĠArt":1515,"ester":1516,"Ġdamit":1517,"60":1518,"auer":1519,"ĠBo":1520,"42":1521,"nSch":1522,"ĠQu":1523,"ĠLie":1524,"rach":1525,"ĠIch":1526,"sam":1527,"Ġmachen":1528,"Ã¤ng":1529,"richt":1530,"ĠmÃ¶glich":1531,"ĠMenschen":1532,"Ġzw":1533,"schei":1534,"ĠMark":1535,"Ġlassen":1536,"ĠPf":1537,"halb":1538,"ionen":1539,"Ġdazu":1540,"ĠMar":1541,"ĠInhalte":1542,"ieden":1543,"keiten":1544,"Ġihre":1545,"/\",\"":1546,"ex":1547,"ĠAu":1548,"ĠAll":1549,"ĠPla":1550,"EE":1551,"olgen":1552,"0000":1553,"Ġgeht":1554,"ĠInternet":1555,"39":1556,"worten":1557,"ĠmÃ¼ssen":1558,"Ġdabei":1559,"ens":1560,"Adr":1561,"immung":1562,"ade":1563,"Ġal":1564,"ĠCo":1565,"ĠOn":1566,"9996":1567,"igkeit":1568,"Ġmuss":1569,"ĠTag":1570,"Ġbeg":1571,"70":1572,"Ġ2014":1573,"dung":1574,"ĠY":1575,"pressum":1576,"rem":1577,"nIm":1578,"ĠPerson":1579,"AA":1580,"ĠRo":1581,"Ġjetzt":1582,"986":1583,"ĠVerarbeitung":1584,"aum":1585,"ischer":1586,"Ġzusammen":1587,"nEin":1588,"72":1589,"olit":1590,"Ġob":1591,"obil":1592,"nVer":1593,"rowser":1594,"itÃ¤t":1595,"entr":1596,"ppen":1597,"ĠFahr":1598,"glie":1599,"ĠUr":1600,"gabe":1601,"ĠKinder":1602,"ĠDatenschutzerklÃ¤rung":1603,"ĠMin":1604,"Ġ16":1605,"stand":1606,"undes":1607,"aupt":1608,"ĠwÃ¤hrend":1609,"ĠDiese":1610,"uche":1611,"fil":1612,"ations":1613,"Ġfrei":1614,"zei":1615,"Ġneue":1616,"rÃ¤ge":1617,"bo":1618,"arbeiten":1619,"enden":1620,"ĠLand":1621,"52":1622,"Ġetwas":1623,"nÃ":1624,"Ã¶s":1625,"ĠGeb":1626,"hol":1627,"Ġmein":1628,"kzeptieren":1629,"eute":1630,"Ġof":1631,"gang":1632,"ian":1633,"unft":1634,"kauf":1635,"unkt":1636,"gew":1637,"aden":1638,"CD":1639,"Ġ8":1640,"79":1641,"man":1642,"ats":1643,"ĠDeutschland":1644,"co":1645,"Ġtechn":1646,"werk":1647,"ĠUnternehmen":1648,"ĠGe":1649,"lagen":1650,"Ġerforderlich":1651,"frei":1652,"ĠNutzer":1653,"halt":1654,"61":1655,"68":1656,"fte":1657,"mus":1658,"cken":1659,"Ã¤nder":1660,"ĠNeu":1661,"9995":1662,"io":1663,"Ġgeben":1664,"Ġerst":1665,"nte":1666,"CB":1667,"rekt":1668,"ĠAngeb":1669,"Ġentsp":1670,"Ġ0":1671,"fern":1672,"grund":1673,"IN":1674,"Ġdiesen":1675,"ilfe":1676,"urz":1677,"wendung":1678,"ĠJahren":1679,"EA":1680,"ĠGew":1681,"Ġbestimm":1682,"ander":1683,"FF":1684,"ute":1685,"ald":1686,"ote":1687,"gleich":1688,"besser":1689,"Ġdan":1690,"9994":1691,"tin":1692,"Ġhel":1693,"ek":1694,"ziell":1695,"ĠKunden":1696,"Ġ2013":1697,"Ġgleich":1698,"uen":1699,"Ġverwenden":1700,"annt":1701,"eting":1702,"ĠHaus":1703,"ĠzurÃ¼ck":1704,"ĠKl":1705,"olle":1706,"ĠZust":1707,"983":1708,"artner":1709,"Ġung":1710,"stoff":1711,"ign":1712,"uÃŁer":1713,"ĠEx":1714,"ĠFall":1715,"fin":1716,"Ġ15":1717,"Ã¤d":1718,"Ġben":1719,"An":1720,"Ã¤hlen":1721,"Ġ18":1722,"Ġmal":1723,"Ġschn":1724,"Ġdieses":1725,"mÃ¤ÃŁ":1726,"ĠÃĸ":1727,"ĠWelt":1728,"DB":1729,"anden":1730,"ĠMus":1731,"Ã¤h":1732,"rauch":1733,"antwort":1734,"9993":1735,"amil":1736,"VO":1737,"ĠTechn":1738,"Ġwichtig":1739,"anst":1740,"dit":1741,"amt":1742,"uer":1743,"ĠCh":1744,"Ġgest":1745,"CH":1746,"ĠStadt":1747,"cher":1748,"Ġweiterhin":1749,"ĠMedien":1750,"tigt":1751,"hÃ¤lt":1752,"berg":1753,"SG":1754,"ym":1755,"las":1756,"ersÃ¶n":1757,"beding":1758,"ĠBenutz":1759,"so":1760,"ĠAd":1761,"ĠUnd":1762,"ierten":1763,"Ġdoch":1764,"ĠVide":1765,"ollen":1766,"CF":1767,"984":1768,"ĠWar":1769,"ĠUS":1770,"aut":1771,"ĠÃĦ":1772,"agt":1773,"59":1774,"nahme":1775,"nWeiter":1776,"iken":1777,"fÃ¼r":1778,"mann":1779,"lass":1780,"unter":1781,"Ġerhalten":1782,"euer":1783,"lug":1784,"Ġkomm":1785,"uten":1786,"9997":1787,"CE":1788,"edoch":1789,"willigung":1790,"zug":1791,"ĠErfahr":1792,"sst":1793,"stÃ¼tz":1794,"ruf":1795,"Ġ2012":1796,"BA":1797,"Ġhelfen":1798,"ube":1799,"Ġho":1800,"ĠMo":1801,"nNach":1802,"eile":1803,"CA":1804,"urs":1805,"atÃ¼r":1806,"Ġon":1807,"li":1808,"zieh":1809,"ĠSpeicherung":1810,"tiert":1811,"orn":1812,"Ġ12":1813,"ĠFÃ¼r":1814,"Ġviele":1815,"Ġerm":1816,"Ġverschieden":1817,"ookies":1818,"ĠOnline":1819,"Ġnutzen":1820,"raft":1821,"BF":1822,"Ġto":1823,"Ġdich":1824,"ĠVerb":1825,"ee":1826,"von":1827,"under":1828,"roffen":1829,"pen":1830,"927":1831,"ĠNutzung":1832,"...":1833,"zel":1834,"ĠAbs":1835,"verb":1836,"ativ":1837,"eicht":1838,"ĠIhrem":1839,"Ã¤uf":1840,"Ġgespeich":1841,"arbeitet":1842,"rÃ¤n":1843,"th":1844,"ppe":1845,"Ġzwischen":1846,"Ġunseren":1847,"ĠSte":1848,"Ã¶l":1849,"Ġbesch":1850,"Ġjedoch":1851,"icherheit":1852,"gramm":1853,"62":1854,"schlieÃŁ":1855,"Ġbek":1856,"stehen":1857,"Ã¤re":1858,"gaben":1859,"mittel":1860,"rom":1861,"Ġfor":1862,"rieb":1863,"Ġ19":1864,"kon":1865,"lossen":1866,"altung":1867,"ĠEinwilligung":1868,"ĠBrowser":1869,"Ġseine":1870,"DA":1871,"if":1872,"Ġseit":1873,"enz":1874,"Ġ*":1875,"ĠWoch":1876,"ĠDies":1877,"ĠBild":1878,"zeug":1879,"ieder":1880,"ĠAm":1881,"falls":1882,"unst":1883,"lus":1884,"ĠArtikel":1885,"9991":1886,"gie":1887,"ĠArbeit":1888,"ahn":1889,"Ġjederzeit":1890,"tic":1891,"Ġbereits":1892,"istr":1893,"Ġdenn":1894,"ium":1895,"Ġaktu":1896,"Ã¤nger":1897,"Ġ9":1898,"ĠKomment":1899,"Ġwelche":1900,"ĠDa":1901,"Ġweitere":1902,"Ġkommen":1903,"orf":1904,"ore":1905,"Ġand":1906,"BE":1907,"nAnt":1908,"oten":1909,"ĠHier":1910,"hop":1911,"ĠZugriff":1912,"ĠFrei":1913,"Ġverbesser":1914,"aa":1915,"Ġbesonder":1916,"reiben":1917,"Ġaller":1918,"tag":1919,"sel":1920,"ĠSchw":1921,"ĠAnaly":1922,"ram":1923,"ologie":1924,"Ġbzw":1925,"ĠZahl":1926,"nisse":1927,"bet":1928,"ĠRecht":1929,"ĠMan":1930,"ultur":1931,"ĠLink":1932,"kunft":1933,"ĠMitt":1934,"die":1935,"Ġja":1936,"Ġanzeigen":1937,"nIch":1938,"ĠSeiten":1939,"Ġ[":1940,"mel":1941,"Ġ11":1942,"Ġeben":1943,"Ġ14":1944,"âĢĵ":1945,"akult":1946,"Ġaktiv":1947,"Ġhatte":1948,"schaften":1949,"Ġbeh":1950,"Ġmeine":1951,"985":1952,"nAlle":1953,"tre":1954,"letter":1955,"Ġalles":1956,"Ġersten":1957,"aff":1958,"hand":1959,"ĠSon":1960,"Sch":1961,"cc":1962,"991":1963,"erne":1964,"ĠZustimmung":1965,"Adresse":1966,"nName":1967,"jekt":1968,"Ġ+":1969,"Ġerk":1970,"wahl":1971,"ubl":1972,"ule":1973,"ende":1974,"lauf":1975,"ĠFr":1976,"ĠBr":1977,"wand":1978,"mpf":1979,"Ġrecht":1980,"Ġdir":1981,"ĠBundes":1982,"hm":1983,"ĠfÃ¼hr":1984,"vent":1985,"FA":1986,"Ġinter":1987,"Ġsondern":1988,"Ġ30":1989,"kehr":1990,"ĠDurch":1991,"setz":1992,"lesen":1993,"up":1994,"schluss":1995,"ĠEl":1996,"Ã¤ft":1997,"Ġfolgen":1998,"gl":1999,"pti":2000,"igit":2001,"umen":2002,"Ġihnen":2003,"ĠWebseite":2004,"weis":2005,"Ġsollte":2006,"lange":2007,"Ã¶ÃŁ":2008,"Ġblei":2009,"Ġkein":2010,"Ġem":2011,"lichkeit":2012,"inde":2013,"raf":2014,"eiÃŁ":2015,"leist":2016,"ĠRechts":2017,"nWenn":2018,"ehÃ¶r":2019,"Ġbin":2020,"ĠGen":2021,"str":2022,"amp":2023,"eiden":2024,"ĠIr":2025,"ĠLauf":2026,"Ġdaneben":2027,"Ġfest":2028,"issenschaft":2029,"punkt":2030,"achten":2031,"sere":2032,"cht":2033,"gehen":2034,"one":2035,"ĠgehÃ¶r":2036,"BD":2037,"Ã¼nst":2038,"Ġletz":2039,"AE":2040,"AN":2041,"Ġpersonenbezogenen":2042,"emester":2043,"Ġwo":2044,"nSie":2045,"ĠEinstellungen":2046,"akultÃ¤t":2047,"ĠDi":2048,"ĠKontakt":2049,"ĠwÃ¼r":2050,"isk":2051,"ĠGem":2052,"ib":2053,"ilder":2054,"Ġverb":2055,"Ġgef":2056,"stit":2057,"Ġneuen":2058,"Ġ2011":2059,"ĠLe":2060,"elef":2061,"tiny":2062,"ĠBesch":2063,"ĠBereich":2064,"ĠWasser":2065,"Ġoben":2066,"yp":2067,"ĠAnt":2068,"rin":2069,"ain":2070,"ax":2071,"Ġsicher":2072,"ĠBuch":2073,"legen":2074,"rieben":2075,"ewsletter":2076,"ca":2077,"ĠForm":2078,"zial":2079,"schein":2080,"Ġ25":2081,"ĠpersÃ¶n":2082,"Ġhoch":2083,"Ġalso":2084,"Ġwill":2085,"ks":2086,"weil":2087,"rad":2088,"Ġ13":2089,"itter":2090,"mbH":2091,"nGoogle":2092,"nehmen":2093,"Ġverbessern":2094,"ĠmÃ¶chten":2095,"dienst":2096,"ĠDes":2097,"eller":2098,"988":2099,"daten":2100,"ĠHin":2101,"ys":2102,"lex":2103,"Ġ#":2104,"ight":2105,"FB":2106,"ĠnatÃ¼r":2107,"ervice":2108,"ĠIhren":2109,"wicklung":2110,"ĠMitglie":2111,"nAr":2112,"div":2113,"ĠBau":2114,"Ġ17":2115,"âĢĿ":2116,"ipp":2117,"mar":2118,"Ġgeb":2119,"ĠBesucher":2120,"987":2121,"omat":2122,"nEr":2123,"âĢŀ":2124,"Ġvoll":2125,"ĠEine":2126,"ĠRÃ¼ck":2127,"da":2128,"ahmen":2129,"ome":2130,"ĠSti":2131,"nMit":2132,"Ġliegen":2133,"undheit":2134,"gestellt":2135,"ĠDienst":2136,"Ġgemein":2137,"ĠVerwendung":2138,"stadt":2139,"ĠMÃ¶glich":2140,"eilen":2141,"nAntworten":2142,"alitÃ¤t":2143,"Ġvers":2144,"az":2145,"urt":2146,"org":2147,"ĠEU":2148,"zt":2149,"einstellungen":2150,"Ġdein":2151,"Ġ21":2152,"uter":2153,"Ġnot":2154,"ennt":2155,"ĠFunktionen":2156,"neh":2157,"ĠGmbH":2158,"arbeit":2159,"na":2160,"rift":2161,"Ã¶glichen":2162,"ĠWohn":2163,"Ġnun":2164,"990":2165,"Ġsol":2166,"SGVO":2167,"Ġkosten":2168,"reise":2169,"lassen":2170,"Ġdrei":2171,"ĠEurop":2172,"ĠKar":2173,"uft":2174,"gar":2175,"aktiv":2176,"kten":2177,"scht":2178,"9975":2179,"Ġbr":2180,"ĠWeitere":2181,"iere":2182,"ĠGro":2183,"ĠAnzeigen":2184,"Ġihrer":2185,"orden":2186,"Ã¤llt":2187,"als":2188,"etail":2189,"ĠgroÃŁe":2190,"reichen":2191,"BC":2192,"ĠPh":2193,"osit":2194,"divid":2195,"isches":2196,"stra":2197,"schn":2198,"FE":2199,"ĠBl":2200,"ON":2201,"ĠBerlin":2202,"9976":2203,"9974":2204,"elefon":2205,"Ã¤ndern":2206,"Ġkannst":2207,"fang":2208,"prÃ¤":2209,"ze":2210,"ĠThema":2211,"Ġsteht":2212,"Ã¶rder":2213,"ĠLebens":2214,"dividu":2215,"hÃ¶":2216,"bb":2217,"ĠPrÃ¤":2218,"Ġessen":2219,"Ver":2220,"Ġerfolgt":2221,"924":2222,"ĠFil":2223,"âĢľ,":2224,"terne":2225,"liches":2226,"mit":2227,"IT":2228,"Ġstatt":2229,"abel":2230,"ĠIP":2231,"tes":2232,"Ġwenig":2233,"schung":2234,"Informationen":2235,"fr":2236,"ĠBeg":2237,"ĠStand":2238,"ĠThe":2239,"arbeiter":2240,"rist":2241,"Ġtra":2242,"ĠTh":2243,"usÃ¤tz":2244,"Die":2245,"Ġaut":2246,"ĠFacebook":2247,"ĠDSGVO":2248,"ko":2249,"bei":2250,").\\":2251,"immer":2252,"Ġwider":2253,"Ã©":2254,"ĠWinter":2255,"echtig":2256,"ttform":2257,"druck":2258,"Ġgespeichert":2259,"achsen":2260,"ST":2261,"lau":2262,"Ġsehen":2263,"iste":2264,"ve":2265,"nKontakt":2266,"zer":2267,"ity":2268,"nahmen":2269,"fo":2270,"ĠSchul":2271,"Ġ22":2272,"ure":2273,"weiter":2274,"ĠFamil":2275,"ix":2276,"Ġkommt":2277,"asst":2278,",\\":2279,"ĠPreis":2280,"ele":2281,"ware":2282,"Ġseiner":2283,"rop":2284,"ĠHo":2285,"Ġakzeptieren":2286,"ellschaft":2287,"iet":2288,"Ġ24":2289,"olitik":2290,"ĠFot":2291,"Ġeinmal":2292,"ruppe":2293,"Ġsei":2294,"Ġbel":2295,"Ġnie":2296,"254":2297,"isten":2298,"ĠName":2299,"ĠErfahrung":2300,"chiv":2301,"aterial":2302,"Ġtechnische":2303,"gemein":2304,"asse":2305,"je":2306,"Ġheute":2307,"ĠSomm":2308,"nWie":2309,"Ein":2310,"ven":2311,"ĠSport":2312,"ĠâĢľ":2313,"ĠÂ»":2314,"Ã¤ten":2315,"ĠBeitrag":2316,"fÃ¼ll":2317,"ress":2318,"aler":2319,"Ġallen":2320,"Ġel":2321,"Ġ2010":2322,"ĠEner":2323,"Ġmacht":2324,"Ġdeut":2325,"ans":2326,"use":2327,"nÃľber":2328,"ĠRahmen":2329,"Ġ100":2330,"ĠZusammen":2331,"Ġdenen":2332,"Ġy":2333,"welt":2334,"eder":2335,"mark":2336,"Ġmark":2337,"973":2338,"ĠSer":2339,"Ġwaren":2340,"ĠGrÃ¼n":2341,"digen":2342,"Ġlang":2343,"iew":2344,"ĠRegel":2345,"9973":2346,"schlieÃŁlich":2347,"835":2348,"Ġstehen":2349,"ĠSicherheit":2350,"Ġetwa":2351,"weit":2352,"975":2353,"eland":2354,"blem":2355,"----":2356,"fort":2357,"nDiese":2358,"bereich":2359,"ĠFre":2360,"arf":2361,"ilt":2362,"Ġallem":2363,"edizin":2364,"âĢĻ":2365,"ĠStu":2366,"itten":2367,"onn":2368,"Ġtun":2369,"fa":2370,"Ġsagt":2371,"sb":2372,"ĠBÃ¼":2373,"ĠWider":2374,"orgen":2375,"Ġunserem":2376,"9998":2377,"ĠDr":2378,"leb":2379,"Ġsetzen":2380,"ĠFin":2381,"ugend":2382,"UN":2383,"nAnbieter":2384,"schied":2385,"ĠHoch":2386,">\"},\"":2387,"Ġx":2388,"ĠVertrag":2389,"ative":2390,"ĠDar":2391,"Ġir":2392,"Ġhand":2393,"ĠWie":2394,"ĠHÃ¤n":2395,"Ġdeine":2396,"ĠArbeits":2397,"Ġdort":2398,"ĠFragen":2399,"cker":2400,"Ġbieten":2401,"ĠLeist":2402,"andes":2403,"Ġschnell":2404,"ond":2405,"heim":2406,"Ġbetroffen":2407,"Pro":2408,"FD":2409,"ganis":2410,"sol":2411,"deut":2412,"plan":2413,"ĠVerfÃ¼":2414,"Ã¤nge":2415,"Ġmitt":2416,"Ã¶rper":2417,"bin":2418,"spruch":2419,"nMehr":2420,"Ġbietet":2421,"inger":2422,"ĠPol":2423,"oc":2424,"ieg":2425,"Ġth":2426,"ĠFakultÃ¤t":2427,"Ġdirekt":2428,"Ġihren":2429,"Ġwirk":2430,"ĠFach":2431,"tigkeit":2432,"Ġbew":2433,"voll":2434,"ĠAuch":2435,"uren":2436,"ĠPar":2437,"ip":2438,"mo":2439,"iele":2440,"ĠAngebot":2441,"ĠKategor":2442,"nImpressum":2443,"tics":2444,"ker":2445,"Ã¤u":2446,"port":2447,"raum":2448,"ĠProz":2449,"ĠermÃ¶glichen":2450,"ĠKunst":2451,"GB":2452,"ĠProdukt":2453,"Ġderen":2454,"____":2455,"nZweck":2456,"Ġweil":2457,"134":2458,"stÃ¼ck":2459,"ĠgrÃ¶ÃŁ":2460,"zielle":2461,"ĠgroÃŁ":2462,"lege":2463,"eister":2464,"anzen":2465,"Ġausge":2466,"Ġspeich":2467,"df":2468,"agement":2469,"976":2470,"tragen":2471,"dige":2472,"buch":2473,"aufen":2474,"ĠTo":2475,"test":2476,"ĠProblem":2477,"sehen":2478,"ĠÃ¤":2479,"ular":2480,"Ġopti":2481,"hÃ¤ng":2482,"ĠLehr":2483,"ese":2484,"Ġgerne":2485,"ĠSa":2486,"kung":2487,"echt":2488,"Ġdarauf":2489,"Ġindem":2490,"haft":2491,"9505":2492,"ĠBenutzer":2493,"acy":2494,"AR":2495,"reg":2496,"ĠStra":2497,"licken":2498,"ly":2499,"etails":2500,"FC":2501,"Ġlesen":2502,"bildung":2503,"ief":2504,"indung":2505,"ĠschÃ¶n":2506,"Ġgilt":2507,"nPro":2508,"ĠIreland":2509,"ĠverfÃ¼":2510,"ĠnÃ¤ch":2511,"ivers":2512,"Ġverarbeitet":2513,"ES":2514,"ĠTer":2515,"ĠEnde":2516,"9633":2517,"Ġor":2518,"old":2519,"ĠBeitrÃ¤ge":2520,"Ġcm":2521,"zuf":2522,"stagram":2523,"aktion":2524,"kosten":2525,"âĢ¦\\":2526,"Ã¼hl":2527,"Ġempf":2528,"ement":2529,"heiten":2530,"ĠdarÃ¼ber":2531,"fÃ¼hrung":2532,"100":2533,"ĠNatur":2534,"Ã¼rger":2535,"ennen":2536,"9320":2537,"ĠDrit":2538,"ĠâĢ¦":2539,"ml":2540,"sy":2541,"ister":2542,"sta":2543,"ĠMet":2544,"eisten":2545,"glich":2546,"Ġspe":2547,"ielen":2548,"rivacy":2549,"ĠOber":2550,"ĠApp":2551,"ions":2552,"âĢľ\\":2553,"ons":2554,"reffen":2555,"lÃ¼ss":2556,"]\\":2557,"ĠVerantwort":2558,"tier":2559,"reiber":2560,"ĠdafÃ¼r":2561,"ziehungs":2562,"mals":2563,"ĠGeschÃ¤ft":2564,"Ġeigenen":2565,"Ã¼nf":2566,"bf":2567,"unk":2568,"geber":2569,"roll":2570,"Ġreg":2571,"9857":2572,"tisch":2573,"Ġihn":2574,"945":2575,"wohl":2576,"Ġ2009":2577,"Ġliegt":2578,"ruppen":2579,"eter":2580,"ĠSta":2581,"annten":2582,"Ġ23":2583,"Ġinform":2584,"Ġkomp":2585,"Ġinner":2586,"Ġgar":2587,"ets":2588,"frage":2589,"Ġht":2590,"Ġentsprechen":2591,"ator":2592,"dd":2593,"ĠBeispiel":2594,"jahr":2595,"ĠJo":2596,"ational":2597,"Ġbitte":2598,"966":2599,"gangen":2600,"ette":2601,"olz":2602,"ĠWeg":2603,"##":2604,"utter":2605,"ĠVideo":2606,"Ġmus":2607,"drÃ¼ck":2608,"atistiken":2609,"Ã¤hlt":2610,"angen":2611,"ĠzusÃ¤tz":2612,"ĠGemein":2613,"Ġletzten":2614,"ĠHilfe":2615,"926":2616,"unik":2617,"ĠUSA":2618,"etten":2619,"icken":2620,"sport":2621,"974":2622,"nEx":2623,"ĠauÃŁer":2624,"904":2625,"ue":2626,"no":2627,"ĠbenÃ¶":2628,"ase":2629,"ĠX":2630,"ĠMod":2631,"Ġperson":2632,"ĠPersonen":2633,"immt":2634,"nEssen":2635,"Ġhttps":2636,"tlich":2637,"blick":2638,"ager":2639,"ĠTeam":2640,"ologien":2641,"stein":2642,"ĠKo":2643,"mÃ¤ÃŁig":2644,"ĠMehr":2645,"Ġus":2646,"ache":2647,"LL":2648,"ĠProdukte":2649,"bla":2650,"hrist":2651,"ĠMusik":2652,"reifen":2653,"916":2654,"rotz":2655,"ĠAls":2656,"ĠVerein":2657,"nten":2658,"angeb":2659,"ĠSystem":2660,"93209505":2661,"9955":2662,"ID":2663,"nDatenschutzerklÃ¤rung":2664,"annen":2665,"nUm":2666,"baren":2667,"ĠStr":2668,"ino":2669,"statt":2670,"ĠTage":2671,"ka":2672,"AT":2673,"978":2674,"ondere":2675,"Ġeh":2676,"ingt":2677,"richten":2678,"980":2679,"anstalt":2680,"ula":2681,"ession":2682,"ĠMal":2683,"entrum":2684,"Ġinteress":2685,"nWas":2686,"utt":2687,"Ġhinter":2688,"nBei":2689,"923":2690,"Ġseinen":2691,"Ġjeden":2692,"cke":2693,"ĠAber":2694,"Ġch":2695,"Ġsonst":2696,"Ġunbe":2697,"wÃ¤hlen":2698,"Ġkurz":2699,"ĠVerfÃ¼gung":2700,"ĠEinige":2701,"ĠEnergie":2702,"ai":2703,"ĠWochen":2704,"Ġvielen":2705,"Ġwollen":2706,"ĠJahres":2707,"Ġgenau":2708,"amer":2709,"bd":2710,"out":2711,"ĠGel":2712,"Ġbesten":2713,"Ġ%":2714,"Ã¼d":2715,"OR":2716,"ĠHaupt":2717,"Ġsel":2718,"rufen":2719,"bedingungen":2720,"inen":2721,"ĠGeld":2722,"Ġkeiner":2723,"aÃŁ":2724,"unt":2725,"ĠDritt":2726,"nAuf":2727,"ĠKom":2728,"tifiz":2729,"ðŁ":2730,"ĠSchn":2731,"nZur":2732,"deutung":2733,"flÃ¤":2734,"Ġmo":2735,"geschlossen":2736,"ĠunterstÃ¼tz":2737,"ĠGesundheit":2738,"aar":2739,"ehl":2740,"954":2741,"Ġrund":2742,"witter":2743,"Â»":2744,"ĠMarketing":2745,"ĠDem":2746,"Ã¤te":2747,"inks":2748,"ĠBar":2749,"produ":2750,"nhttps":2751,"ĠNetz":2752,"ĠBed":2753,"stu":2754,"ĠwÃ¼rde":2755,"Ġirgend":2756,"nAus":2757,"ante":2758,"bc":2759,"Ġgehen":2760,"Ġgesetz":2761,"2021":2762,"ĠTr":2763,"ball":2764,"9945":2765,"cial":2766,"Ġverl":2767,"ĠAuswahl":2768,"iges":2769,"hof":2770,"Ġfindet":2771,"ielt":2772,"sent":2773,"Ġerfahren":2774,"stitut":2775,"ĠWirtschaft":2776,"leben":2777,"ĠFrage":2778,"sw":2779,"dio":2780,"alter":2781,"yn":2782,"Ã¶ffentlicht":2783,"ĠMann":2784,"Ġlit":2785,"ĠReise":2786,"ĠAlle":2787,"Ġro":2788,"nEs":2789,"ichtige":2790,"ĠBlick":2791,"Ġ50":2792,"eider":2793,"Ġeinge":2794,"ae":2795,"les":2796,"lÃ¼ck":2797,"ock":2798,"ĠSchutz":2799,"merk":2800,"ĠBedeutung":2801,"rukt":2802,"Ġbesser":2803,"Ġu":2804,"atung":2805,"Ġwert":2806,"ĠGegen":2807,"own":2808,"ĠTran":2809,"Ã¤m":2810,"ĠImpressum":2811,"ĠAugen":2812,"ina":2813,"ance":2814,"ĠVersand":2815,"ĠThemen":2816,"mÃ¶glich":2817,"fÃ¼hrt":2818,"icherung":2819,"ĠerklÃ¤r":2820,"964":2821,"ĠVol":2822,"ited":2823,"Ġautomat":2824,"Ã¼b":2825,"IS":2826,"Ġkom":2827,"nAb":2828,".,":2829,"sterreich":2830,"gesetzt":2831,"beh":2832,"hre":2833,"bare":2834,"ĠSe":2835,"ĠMill":2836,"ublik":2837,"folgen":2838,"ĠLaufzeit":2839,"haupt":2840,"Ġihm":2841,"stelle":2842,"ftware":2843,"ĠMÃ¼n":2844,"Ġwirklich":2845,"platz":2846,"besondere":2847,"Ġsollten":2848,"9985":2849,"ĠOrt":2850,"98579633":2851,"965":2852,"sse":2853,"Ġ*\\":2854,"uck":2855,"nFÃ¼r":2856,"Ġrech":2857,"bend":2858,"mehr":2859,"9573":2860,"ragen":2861,"meld":2862,"ĠCO":2863,"Ġgrund":2864,"ise":2865,"halte":2866,"nder":2867,"Ġoffen":2868,"ĠMÃ¶glichkeit":2869,"erien":2870,"ĠTechnologien":2871,"Tube":2872,"kl":2873,"lÃ¤ss":2874,"ĠBeh":2875,"992":2876,"Ã¼nd":2877,"Ã¼l":2878,"ĠlÃ¤":2879,"955":2880,"omment":2881,"ĠWas":2882,"Ġstark":2883,"fre":2884,"Ġschw":2885,"Ġdeutsch":2886,"ĠMitarbeiter":2887,"911":2888,"ĠMonat":2889,"arte":2890,"ouTube":2891,"labs":2892,"echs":2893,"liegen":2894,"olf":2895,"ĠGra":2896,"do":2897,"ĠBlog":2898,"ĠInform":2899,"ĠnatÃ¼rlich":2900,"Ġnichts":2901,"ĠwÃ¤re":2902,"dest":2903,"900":2904,"Ġoft":2905,"ĠSu":2906,"Ġverst":2907,"fassen":2908,"Ġspeichern":2909,"setzung":2910,"834":2911,"weisen":2912,"ĠWor":2913,"Ġerfolg":2914,"ĠCon":2915,"Ġgemeinsam":2916,"atei":2917,"ĠKosten":2918,"iell":2919,"ĠausschlieÃŁlich":2920,"orlabs":2921,"Ġfreiwill":2922,"Ġ.":2923,"Ġneben":2924,"Ġbra":2925,"ĠTest":2926,"auen":2927,"ĠWerbung":2928,"steller":2929,"9988":2930,"herap":2931,"Ġ:":2932,"prÃ¼":2933,"ĠAnalytics":2934,"rieg":2935,"Ã¤ter":2936,"ott":2937,"ĠEigen":2938,"977":2939,"Ġlange":2940,"zig":2941,"Ġdavon":2942,"ĠZiel":2943,"Ġhohe":2944,"Ġentwick":2945,"reibung":2946,"einander":2947,"anbieter":2948,"ĠEinsatz":2949,"nehmer":2950,"fest":2951,"html":2952,"ĠFrauen":2953,"ĠWerk":2954,"ĠPat":2955,"ĠNewsletter":2956,"ĠFest":2957,"Ġkonnte":2958,"mon":2959,"ption":2960,"ĠkÃ¶nnte":2961,"123":2962,"8554":2963,"ĠSelbst":2964,"stÃ¤ndig":2965,"ĠSpe":2966,"Ġpersonalis":2967,"ums":2968,"nVor":2969,"ehlen":2970,"sweise":2971,"lech":2972,"ĠNamen":2973,"ĠFir":2974,"stens":2975,"ĠPartner":2976,"ĠÂ§":2977,"dings":2978,"Ġen":2979,"Ġbesteht":2980,"deten":2981,"genommen":2982,"ranken":2983,"ins":2984,"stÃ¤nd":2985,"ismus":2986,"ĠJugend":2987,"Ġhalten":2988,"pol":2989,"nWeitere":2990,"ĠHerzen":2991,"ĠAnbieter":2992,"melden":2993,"view":2994,"ichtet":2995,"ĠLim":2996,"Ġ09":2997,"Ġallein":2998,"Ã¤ts":2999,"ĠBel":3000,"Ġstellen":3001,"ĠService":3002,"sÃ¤tz":3003,"ĠSk":3004,"IE":3005,"egt":3006,"eigt":3007,"pl":3008,"ĠMittel":3009,"Ġbesonders":3010,"ĠGeschichte":3011,"ĠKir":3012,"ĠStre":3013,"nMark":3014,"ĠPer":3015,"Ġeinige":3016,"fass":3017,"Un":3018,"ĠgroÃŁen":3019,"mess":3020,"Ar":3021,"ct":3022,"ĠHÃ¶":3023,"feld":3024,"annte":3025,"nungs":3026,"immen":3027,"ĠRep":3028,"onnen":3029,"Ġzahl":3030,"ĠPlatz":3031,"956":3032,"Ġjeweil":3033,"Ã¼t":3034,"arch":3035,"lose":3036,"ĠauswÃ¤hlen":3037,"946":3038,"ĠKauf":3039,"906":3040,"nSo":3041,"lekt":3042,"Ġby":3043,"Ġbestimmte":3044,"ĠPost":3045,"load":3046,"Â©":3047,"ool":3048,"lieÃŁen":3049,"wertung":3050,"rakti":3051,"ĠMaÃŁ":3052,"ĠErk":3053,"054":3054,"eint":3055,"orb":3056,"Ġ,":3057,"ĠmÃ¶chte":3058,"ika":3059,"ĠSchwei":3060,"ĠlÃ¤sst":3061,"vest":3062,"Ġfunktion":3063,"ĠHot":3064,"US":3065,"affen":3066,"ĠBestell":3067,"ĠProjekt":3068,"ction":3069,"Ġbed":3070,"we":3071,"quem":3072,"rache":3073,"schule":3074,"ĠBas":3075,"Ġ2008":3076,"921":3077,"ry":3078,"nNeu":3079,"2020":3080,"ument":3081,"Ã¼ll":3082,"anken":3083,"Ġausb":3084,"ordnung":3085,"ebsit":3086,"privacy":3087,"Ġwohl":3088,"ĠProf":3089,"Ġverm":3090,"ĠFrank":3091,"9986":3092,"Ġstatist":3093,"Ġteil":3094,"ĠÃ¶ffent":3095,"Ġerste":3096,"âĤ¬":3097,"othe":3098,"Ġ26":3099,"jÃ¤hr":3100,"ĠKre":3101,"swert":3102,"Ġbleiben":3103,"bach":3104,"Ġmeiner":3105,"95738554":3106,"wirtschaft":3107,"itel":3108,"6908":3109,"ĠLandes":3110,"Ġgerade":3111,"Ġ27":3112,"tp":3113,"echtigten":3114,"Ã¶ll":3115,"asch":3116,"**":3117,"915":3118,"seiten":3119,"ath":3120,"Ġbeiden":3121,"gesetz":3122,"Ġalt":3123,"'s":3124,"ĠIde":3125,"Ġhast":3126,"ĠBeruf":3127,"ĠMarkt":3128,"Ġzwar":3129,"Ġindividu":3130,"Ġis":3131,"lenden":3132,"iter":3133,"nDatenschutzeinstellungen":3134,"schlieÃŁen":3135,"ĠBi":3136,"rax":3137,"Wir":3138,"Â«":3139,"Ġuner":3140,"981":3141,"Ã¤chlich":3142,"9276908":3143,"ĠChrist":3144,"Er":3145,"ĠKommentar":3146,"ĠKultur":3147,"nummer":3148,"nSp":3149,"ĠKommunik":3150,"folg":3151,"inar":3152,"\\\",":3153,"ala":3154,"Ġkaufen":3155,"iff":3156,"AL":3157,"Ġca":3158,"erst":3159,"ĠMein":3160,"963":3161,"rona":3162,"nach":3163,"lebnis":3164,"Ġfahr":3165,"Ġinnerhalb":3166,"953":3167,"dc":3168,"ĠGeschÃ¤fts":3169,"Ã¼hren":3170,"Ġseinem":3171,"Ġ28":3172,"Ġunterschied":3173,"ĠBitte":3174,"ĠDo":3175,"ĠErgeb":3176,"Ġat":3177,"905":3178,"serv":3179,"Ġvier":3180,"iebt":3181,"ĠVort":3182,"ĠdÃ¼r":3183,"olge":3184,"Ġmeisten":3185,"ĠFrau":3186,"Ġerg":3187,"nExterne":3188,"itu":3189,"AS":3190,"scheiden":3191,"ĠfrÃ¼":3192,"zÃ¼":3193,"Ġ...\\":3194,"Ġnehmen":3195,"Ġmm":3196,"ĠOb":3197,"Ġessenziell":3198,"mach":3199,"Ġ=":3200,"ĠZahlungs":3201,"sych":3202,"Ġverhin":3203,"Ġstand":3204,"ĠZukunft":3205,"ichtigen":3206,"fragen":3207,"fc":3208,"Ġkeinen":3209,"Ġweiteren":3210,"ielleicht":3211,"Ġwahr":3212,"Ġfreu":3213,"tegr":3214,"Ġget":3215,"Ġanon":3216,"944":3217,"Ġbedeu":3218,"ĠAuto":3219,"zeiten":3220,"ziehen":3221,"riebs":3222,"ange":3223,"lasse":3224,"programm":3225,"Ã¶ÃŁe":3226,"laden":3227,"Ġverschiedenen":3228,"ĠâĤ¬\\":3229,"935":3230,"ttformen":3231,"http":3232,"ebsite":3233,"zept":3234,"Ġbefin":3235,"ichts":3236,"sprech":3237,"ima":3238,"Ġkleine":3239,"Ġ2023":3240,"Ġrichtig":3241,"efÃ¤llt":3242,"ĠComp":3243,"Ġwei":3244,"nDe":3245,"ĠBilder":3246,"lungs":3247,"ĠRa":3248,"deck":3249,"126":3250,"Ġheraus":3251,"ierungs":3252,"racht":3253,"itzen":3254,"system":3255,"Ġleben":3256,"nb":3257,"ente":3258,"standen":3259,"ĠlÃ¶":3260,"Ġinsbesondere":3261,"864":3262,"ĠKommentare":3263,"fÃ¤h":3264,"Ġaufge":3265,"ĠFar":3266,"Ã¤tig":3267,"ĠHam":3268,"ĠPart":3269,"Ġra":3270,"Ġeinzel":3271,"ches":3272,"alien":3273,"Ġsogar":3274,"ĠGroÃŁ":3275,"ĠMe":3276,"wohn":3277,"bedingt":3278,"etter":3279,"akti":3280,"ampf":3281,"meldung":3282,"ruktur":3283,"Ġbereit":3284,"ieb":3285,"Ġlieb":3286,"Ġgute":3287,"anten":3288,"Ġonline":3289,"Ġ>":3290,"Ġgemacht":3291,"par":3292,"Ġeuch":3293,"google":3294,"ĠMund":3295,"967":3296,"Ġschwer":3297,"ĠKÃ¼":3298,"205":3299,"ite":3300,"erner":3301,"Ġganzen":3302,"Ġdigit":3303,"ET":3304,"treten":3305,"hein":3306,"Ġlo":3307,"903":3308,"ĠLÃ¶":3309,"otor":3310,"Ġelekt":3311,"nHier":3312,"ja":3313,"9987":3314,"rigen":3315,"ĠPlan":3316,"unsch":3317,"reiche":3318,"UR":3319,"OS":3320,"ftung":3321,"ĠgehÃ¶ren":3322,"Ġihrem":3323,"ĠNe":3324,"925":3325,"anstaltungen":3326,"Ġsex":3327,"9123":3328,"techn":3329,"edia":3330,"Ġgelten":3331,"936":3332,"ĠImm":3333,"ĠÃ¼berhaupt":3334,"ĠHÃ¤nden":3335,"wagen":3336,"nd":3337,"schlag":3338,"Ġmehrere":3339,"nFacebook":3340,"ĠDank":3341,"ution":3342,"wendig":3343,"yr":3344,"982":3345,"zon":3346,"ĠMitglied":3347,"schul":3348,"ehm":3349,"del":3350,"922":3351,"245":3352,"istor":3353,"ĠMag":3354,"ime":3355,"ĠprÃ¤":3356,"ĠEntschei":3357,"ĠWahl":3358,"passen":3359,"Ã¤us":3360,"rÃ¼f":3361,"9983":3362,"ĠKont":3363,"105":3364,"ĠKÃ¶rper":3365,"nAkzeptieren":3366,"ĠHei":3367,"Ġdaher":3368,"ĠhÃ¤t":3369,"miss":3370,"135":3371,"ĠAngebote":3372,"ĠKraft":3373,"cri":3374,"ĠGarten":3375,"ĠSitz":3376,"943":3377,"Ġverw":3378,"ĠRaum":3379,"ĠYouTube":3380,"Ġwiderrufen":3381,"875":3382,"Ġtrotz":3383,"db":3384,"Ġzie":3385,"ausch":3386,"934":3387,"Ġgek":3388,"nSpeich":3389,"ĠUmf":3390,"EL":3391,"Ġwissen":3392,"langen":3393,"ĠFuÃŁ":3394,"lieÃŁ":3395,"ĠKn":3396,"ĠDabei":3397,"ĠAnfang":3398,"nAll":3399,"ĠInf":3400,"grÃ¼n":3401,"957":3402,"unkte":3403,"lieben":3404,"ĠRegion":3405,"ĠUnivers":3406,"ĠKa":3407,"rivat":3408,"ehler":3409,"hren":3410,"heb":3411,"besch":3412,"947":3413,"1555":3414,"ĠweiÃŁ":3415,"schw":3416,"bark":3417,"ĠNacht":3418,"ĠÃĦnder":3419,"nungen":3420,"Cookies":3421,"ernen":3422,"hle":3423,"rÃ¼ck":3424,"Ã¶sung":3425,"rau":3426,"iko":3427,"jekte":3428,"ĠWeihn":3429,"ĠÃ¤ndern":3430,"klus":3431,"fÃ¼hl":3432,"ĠInteresse":3433,"ret":3434,"ike":3435,"837":3436,"99134":3437,"ĠMonate":3438,"AM":3439,"ormal":3440,"err":3441,"reicht":3442,"ish":3443,"ĠgemÃ¤ÃŁ":3444,"Ġpersonalisierte":3445,"zeichnet":3446,"ĠHerr":3447,"Ġbitten":3448,"straÃŁe":3449,"alz":3450,"ĠAngaben":3451,"Ġintern":3452,"markt":3453,"968":3454,"gegen":3455,"fb":3456,"inner":3457,"ĠWert":3458,"ienen":3459,"lÃ¼ssel":3460,"eichen":3461,"ull":3462,"ĠÃ¤hn":3463,"best":3464,"933":3465,"ĠEuropÃ¤":3466,"ĠAt":3467,"iker":3468,"Ġcookies":3469,"nWer":3470,"ĠSocial":3471,"9946":3472,"ĠpersÃ¶nlichen":3473,"Ġausgew":3474,"Ġkont":3475,"adurch":3476,"Ġausblenden":3477,"nEine":3478,"hilfe":3479,"Ġstellt":3480,"Ġaufs":3481,"ĠInstitut":3482,"ea":3483,"mart":3484,"cen":3485,"arr":3486,"ĠFinanz":3487,"ĠText":3488,"zeigt":3489,"lÃ¶":3490,"ograf":3491,"tische":3492,"ĠLi":3493,"ĠFrÃ¼":3494,"ith":3495,"ranz":3496,"fel":3497,"schrift":3498,"rieden":3499,"ĠUrlaub":3500,"lam":3501,"omit":3502,"ipps":3503,"dre":3504,"9913425":3505,"nWeiterlesen":3506,"ĠMinuten":3507,"hei":3508,"echsel":3509,"ĠLimited":3510,"ĠInhalts":3511,"ĠProgramm":3512,"kurs":3513,"raxis":3514,"ĠRicht":3515,"resse":3516,"ĠnÃ¤chsten":3517,"ĠPass":3518,"Ġgab":3519,"ĠEinzel":3520,"Ġ40":3521,"ĠStunden":3522,"9984":3523,"Ġlinks":3524,"Ġunten":3525,"Ġangeb":3526,"ĠProzent":3527,"ĠGeh":3528,"schnitt":3529,"*\\":3530,"ĠDenn":3531,"ĠKat":3532,"ĠDeutsche":3533,"845":3534,"ĠEv":3535,"sor":3536,"messung":3537,"hoben":3538,"ĠLu":3539,"ĠVideos":3540,"885":3541,"dition":3542,"ĠDesign":3543,"nStatistiken":3544,"Ġverschiedene":3545,"ĠWoche":3546,"913":3547,"Ġjedem":3548,"setzen":3549,"nUnsere":3550,"876":3551,"herapie":3552,"ari":3553,"Ġhinaus":3554,"Ġweniger":3555,"ĠKin":3556,"ĠKap":3557,"ĠPo":3558,"Ġerstellen":3559,"914":3560,"avig":3561,"Ã¶nen":3562,"PR":3563,"fahrt":3564,"223":3565,"kungen":3566,"feren":3567,"php":3568,"preis":3569,"ĠBoard":3570,"Adressen":3571,"Ġregel":3572,"Ġqu":3573,"Ġdarf":3574,"Ġleicht":3575,"813":3576,"ĠIhres":3577,"âĢľ.":3578,"reten":3579,"ĠSh":3580,"ĠAktiv":3581,"874":3582,"semester":3583,"UNG":3584,"iegel":3585,"ĠHe":3586,"-,":3587,"ĠHolz":3588,"orm":3589,"riften":3590,"rÃ¤fte":3591,"achts":3592,"ĠBetrieb":3593,"Ã¤chst":3594,"inge":3595,"ĠâĢ¢":3596,"Ġjeweiligen":3597,"ĠEntwicklung":3598,"tiv":3599,"elles":3600,"ĠKomp":3601,"Ġaufgrund":3602,"emand":3603,"zip":3604,"IG":3605,"ktionen":3606,"tur":3607,"ĠEnd":3608,"91231555":3609,"aur":3610,"846":3611,"ume":3612,"Ġunver":3613,"Ġ29":3614,"Ġweit":3615,"9934":3616,"ĠDienste":3617,"Ġfolgenden":3618,"Sp":3619,"nov":3620,");":3621,"ĠFilm":3622,"Ġ2007":3623,"fd":3624,"Ġverstehen":3625,"ĠerhÃ¤lt":3626,"ĠBÃ¼rger":3627,"Ġbleibt":3628,"bew":3629,"9977":3630,"2019":3631,"dust":3632,"ĠFamilien":3633,"ĠhÃ¶":3634,"leitung":3635,"ungsver":3636,"ĠMaterial":3637,"fasst":3638,"laubnis":3639,"ervic":3640,"ĠNieder":3641,"Ġkleinen":3642,"ĠEmpf":3643,"oph":3644,"ĠspÃ¤ter":3645,"ĠTagen":3646,"senden":3647,"zus":3648,"ĠInhalt":3649,"pflich":3650,"ĠRechte":3651,"Ãľ":3652,"lungen":3653,"son":3654,"nBe":3655,"bahn":3656,"zweck":3657,"ĠHd":3658,"Ġzeigt":3659,"ĠHerz":3660,"ĠDisk":3661,"Pla":3662,"alender":3663,"ĠVert":3664,"ĠJe":3665,"bÃ¼":3666,"ĠausdrÃ¼ck":3667,"barkeit":3668,"ĠTrain":3669,"ĠNord":3670,"ĠSuche":3671,"ĠWebsites":3672,"836":3673,"lu":3674,"alisierung":3675,"Ã¼ler":3676,"Ġersch":3677,"Einstellungen":3678,"ĠDan":3679,"ĠElekt":3680,"Ã¼ndig":3681,"ĠDub":3682,"zub":3683,"reib":3684,"uhe":3685,"ĠServer":3686,"826":3687,"werb":3688,"ĠNicht":3689,"917":3690,"ĠSchla":3691,"Ġeigene":3692,"cd":3693,"nZum":3694,"Ġph":3695,"937":3696,"ĠArchiv":3697,"866":3698,"ĠKategorien":3699,"dium":3700,"Ġebenfalls":3701,"ĠvÃ¶ll":3702,"Ġiden":3703,"865":3704,"zimmer":3705,"Ġfr":3706,"letz":3707,"ling":3708,"ĠðŁ":3709,"Ġunseres":3710,"206":3711,"Ġprof":3712,"ĠSommers":3713,"ogra":3714,"tÃ¼":3715,"Ã¤f":3716,"ĠVon":3717,"Ġhil":3718,"âĸ":3719,"204":3720,"leistungen":3721,"Ġbevor":3722,"duz":3723,"AG":3724,"ĠLog":3725,"frist":3726,"Ġzeigen":3727,"Ġsagen":3728,"Ġfast":3729,"ĠverfÃ¼g":3730,"abil":3731,"Ġerz":3732,"ehn":3733,"Ġperfe":3734,"fallen":3735,"Ġhinweg":3736,"ikan":3737,"ĠFlug":3738,"mazon":3739,"ĠInteressen":3740,"Ġdeutschen":3741,"200":3742,"unge":3743,"ĠWintersemester":3744,"Ġbenutz":3745,"gebenen":3746,"echnet":3747,"ĠDatenver":3748,"ĠVergleich":3749,"Ã¤nd":3750,"ĠgegenÃ¼ber":3751,"freie":3752,"9999":3753,"hel":3754,"atten":3755,"ĠKÃ¶n":3756,"ĠWiderruf":3757,"Ġbekommen":3758,"cf":3759,"inne":3760,"ĠGast":3761,"oder":3762,"ison":3763,"Ġpaar":3764,"nDu":3765,"Ġbestehen":3766,"):":3767,"immungen":3768,"res":3769,"peten":3770,"ĠfÃ¼hren":3771,"Ġmeinen":3772,"igkeiten":3773,"ters":3774,"Ġworden":3775,"aren":3776,"ĠLuft":3777,"ĠLei":3778,"reisen":3779,"ĠAuftrag":3780,"lem":3781,"2671":3782,"ĠPark":3783,"816":3784,"ĠDann":3785,"bi":3786,"ĠZeitpunkt":3787,"ta":3788,"IL":3789,"Ġhandelt":3790,"walt":3791,"970":3792,"Ġunbedingt":3793,"ĠRes":3794,"ĠvÃ¶llig":3795,"ĠWind":3796,"kreis":3797,"803":3798,"ĠLin":3799,"ersonenbezogene":3800,"warz":3801,"ĠRis":3802,"linie":3803,"Ã¼gen":3804,"ochen":3805,"zeitig":3806,"obilien":3807,"ĠTermin":3808,"erweise":3809,"805":3810,"Ġsollen":3811,"ĠGar":3812,"atum":3813,"Ġwww":3814,"844":3815,"ĠTa":3816,"Ġenthalten":3817,"Ġzun":3818,"flÃ¤che":3819,"ĠCorona":3820,"114":3821,"++":3822,"kra":3823,"Ġwelt":3824,"wissenschaft":3825,"Ã¤ren":3826,"ollte":3827,"ĠLiefer":3828,"255":3829,"wÃ¤":3830,"ĠSommersemester":3831,"847":3832,"ĠGesellschaft":3833,"ĠÃľbersicht":3834,"ĠFahrzeug":3835,"zung":3836,"itÃ¤ten":3837,"Ġallerdings":3838,"ierter":3839,"Ã¤llen":3840,"ĠLes":3841,"tseite":3842,"zeichen":3843,"ĠPolitik":3844,"144":3845,"europ":3846,"ĠBay":3847,"zogen":3848,"cb":3849,"abhÃ¤ng":3850,"ĠZwecken":3851,"rich":3852,"mail":3853,"ownload":3854,"nMarketing":3855,"nEssenziell":3856,"Ġgenutz":3857,"tens":3858,"ĠStelle":3859,"8352671":3860,"115":3861,"ĠGrundlage":3862,"ĠFe":3863,"ĠErziehungs":3864,"ox":3865,"gruppe":3866,"960":3867,"Ġhatten":3868,"Ġdeinen":3869,"ĠMÃ¤n":3870,"Ġklar":3871,"ĠAng":3872,"km":3873,"Ġbekannt":3874,"ativen":3875,"ĠNot":3876,"masch":3877,"sver":3878,"Ġcon":3879,"....":3880,"Ġbeispiel":3881,"ĠIs":3882,"ĠDublin":3883,"855":3884,"alk":3885,"nLie":3886,"743":3887,"mitteln":3888,"154":3889,"Ġbestimmten":3890,"ĠNeben":3891,"Ġfre":3892,"Ġbist":3893,"ĠBoden":3894,"scher":3895,"II":3896,"ĠBek":3897,"Ã¤nde":3898,"ternen":3899,"Ġgesam":3900,"ĠGed":3901,"nAls":3902,"lation":3903,"netz":3904,"Ġvia":3905,"lÃ¤uf":3906,"ĠWeib":3907,"ĠRest":3908,"ĠVerbrauch":3909,"ĠUnterstÃ¼tz":3910,"mod":3911,"ĠTÃ¼r":3912,"ĠErlaubnis":3913,"Ġsowohl":3914,"rot":3915,"ĠHaar":3916,"244":3917,"Ġdeaktiv":3918,"Ġsag":3919,"pflicht":3920,"ĠLinks":3921,"9990":3922,"ĠSommer":3923,"ĠTelefon":3924,"Ġpass":3925,"Ġsuchen":3926,"tragung":3927,"ĠÃ¼b":3928,"Ġverarbeiten":3929,"ĠVerkehr":3930,"hang":3931,"lat":3932,"ĠBus":3933,"Ġbeachten":3934,"ĠForum":3935,"ĠMÃ¼nchen":3936,"ĠDruck":3937,"altet":3938,"pack":3939,"fassung":3940,"ĠPflege":3941,"eige":3942,"Ġaktuellen":3943,"275":3944,"liste":3945,"ĠPa":3946,"Ġ31":3947,"ĠZugang":3948,"polic":3949,"EG":3950,"Ġ'":3951,"ary":3952,"ĠdÃ¼rfen":3953,"sph":3954,"igt":3955,"215":3956,"usst":3957,"ĠEltern":3958,"how":3959,"ĠhÃ¤uf":3960,"gelegt":3961,"schriften":3962,"863":3963,"andlung":3964,"ĠPort":3965,"ĠFern":3966,"Ġabge":3967,"EU":3968,"Ġbuchen":3969,"2018":3970,"971":3971,"9965":3972,"Ġmittels":3973,"ĠSam":3974,"ppel":3975,"ĠgewÃ¤hr":3976,"ĠMitglieder":3977,"schrÃ¤n":3978,"ienten":3979,"9966":3980,"reiten":3981,"Ġkostenlos":3982,"ĠRoss":3983,"ĠEUR":3984,"back":3985,"ĠWahr":3986,"ĠWeise":3987,"ĠDir":3988,"Ġoptimal":3989,"ĠSan":3990,"angebot":3991,"fluss":3992,"urf":3993,"wasser":3994,"ĠSchm":3995,"rang":3996,"alte":3997,"box":3998,"216":3999,"ael":4000,"Ġeher":4001,"ĠKind":4002,"Ġkam":4003,"ĠFamilie":4004,"ĠTier":4005,"furt":4006,"Ġkm":4007,"Ġverwendeten":4008,"ĠDiensten":4009,"ĠDigit":4010,"ĠBen":4011,"elche":4012,"nAm":4013,"958":4014,"ĠMaps":4015,"ĠverÃ¶ffentlicht":4016,"bank":4017,"lanzen":4018,"nAktu":4019,"!!":4020,"Ġ{":4021,"Ġeigentlich":4022,"wissen":4023,"ĠBetreiber":4024,"ĠErn":4025,"emp":4026,"833":4027,"ĠWest":4028,"929":4029,"dorf":4030,"ĠgehÃ¶rt":4031,"ĠGesetz":4032,"ĠGrÃ¼":4033,"Ġsolche":4034,"forderungen":4035,"geh":4036,"enkorb":4037,"wehr":4038,"Ġwegen":4039,"116":4040,"ĠMat":4041,"ĠAG":4042,"nJetzt":4043,"256":4044,"gerufen":4045,"auber":4046,"ĠPersonenbezogene":4047,"ĠAutor":4048,"ĠâĨ":4049,"ĠZwei":4050,"ĠSoftware":4051,"haltung":4052,"ĠUmwelt":4053,"ĠheiÃŁ":4054,"nBitte":4055,"medizin":4056,"00003":4057,"igin":4058,"ÌĪ":4059,"Ġ60":4060,"ĠAntworten":4061,"richtung":4062,"angel":4063,"Ġanzu":4064,"ĠTages":4065,"meister":4066,"ĠÃĸsterreich":4067,"Ġregistr":4068,"ĠWe":4069,"225":4070,"zeuge":4071,"Ġnutzt":4072,"HR":4073,"Ġsofort":4074,"Ġward":4075,"nBer":4076,"lob":4077,"int":4078,"Ġbeispielsweise":4079,"Ġgrundlegen":4080,"804":4081,"zur":4082,"ital":4083,"ect":4084,"SS":4085,"teilung":4086,"Ġmarkieren":4087,"Ġentscheiden":4088,"ĠhÃ¶her":4089,"884":4090,"atik":4091,"OL":4092,"226":4093,"ĠMillionen":4094,"ĠLa":4095,"service":4096,"eier":4097,"Ġsozi":4098,"ĠKopf":4099,"zustellen":4100,"stattung":4101,"berechtigten":4102,"oto":4103,"Ġfall":4104,"867":4105,"ĠgelÃ¶":4106,"ĠSicherheits":4107,"854":4108,"blasen":4109,"156":4110,"laus":4111,"856":4112,"Ã¤mpf":4113,"Ġnotwendig":4114,"203":4115,"ĠViel":4116,"lÃ¤tz":4117,"uh":4118,"Ġkennen":4119,"leg":4120,"info":4121,"rÃ¤gt":4122,"224":4123,"ĠFolgen":4124,"ĠFÃ¶rder":4125,"cript":4126,"achte":4127,"ĠTour":4128,"Ġidentifiz":4129,"Ġakzep":4130,"106":4131,"mÃ¶glichkeiten":4132,"ungsk":4133,"Ġfreuen":4134,"ĠHamburg":4135,"Ġbetroffene":4136,"Ġautomatisch":4137,"beg":4138,"ĠNachrichten":4139,"ĠInnen":4140,"arkt":4141,"lim":4142,"ĠDoch":4143,"elev":4144,"ĠWort":4145,"274":4146,"erren":4147,"ĠGener":4148,"ĠWaren":4149,"eta":4150,"ash":4151,"Ġkombin":4152,"ĠSc":4153,"sa":4154,"ĠÂ·":4155,"demie":4156,"wertungen":4157,"ĠAdr":4158,"Ġausgeschlossen":4159,"ĠTwitter":4160,"276":4161,"ĠKlein":4162,"ĠÃ¶":4163,"gien":4164,"mÃ¤ÃŁigen":4165,"Ġzweite":4166,"ĠRat":4167,"eitag":4168,"ĠDetails":4169,"oment":4170,"ĠStar":4171,"ĠRed":4172,"ds":4173,"ĠZwecke":4174,"ĠInternetseite":4175,"inden":4176,"464":4177,"Ġ08":4178,"9933":4179,"Ġern":4180,"104":4181,"lub":4182,"fÃ¤l":4183,"ness":4184,"755":4185,"Ġarbeiten":4186,"9936":4187,"osition":4188,"nKategor":4189,"ĠLicht":4190,"Ġvielleicht":4191,"ĠSozial":4192,"ĠOrganis":4193,"uster":4194,"sie":4195,"kk":4196,"ĠgewÃ¼n":4197,"TE":4198,"754":4199,"Ġpersonenbezogene":4200,"806":4201,"176":4202,"Ġbedeutet":4203,"erin":4204,"ĠSil":4205,"allo":4206,"ritten":4207,"wÃ¤r":4208,"formular":4209,"ĠTeilnehmer":4210,"Ġhei":4211,"ĠDen":4212,"loss":4213,"Ġmeinem":4214,"ĠFolge":4215,"ĠErfolg":4216,"zeige":4217,"umm":4218,"iti":4219,"Ġbringen":4220,"Ġungel":4221,"nZurÃ¼ck":4222,"Ġsofern":4223,"quick":4224,"________":4225,"ĠFerien":4226,"035":4227,"Ġverein":4228,"236":4229,"ĠtÃ¤":4230,"ĠAnalyse":4231,"Ġeng":4232,"145":4233,"9943":4234,"minist":4235,"-/":4236,"246":4237,"ĠSÃ¼d":4238,"Ġklein":4239,"dete":4240,"ĠStimm":4241,"IM":4242,"Ġmeist":4243,"ĠFÃ¼hr":4244,"ĠQualitÃ¤t":4245,"nete":4246,"ĠSol":4247,"Ġjedes":4248,"ĠMich":4249,"Ġsor":4250,"utschen":4251,"schau":4252,"214":4253,"OM":4254,"sto":4255,"ĠDis":4256,"800":4257,"Ġ2006":4258,"mittlung":4259,"Ġpolit":4260,"izei":4261,"Ġanderem":4262,"lauben":4263,"ĠFresse":4264,"ĠNews":4265,"Ġbisher":4266,"ĠDicken":4267,"ĠAmazon":4268,"Ã¶hn":4269,"ĠWein":4270,"por":4271,"ĠStrom":4272,"hÃ¶ren":4273,"ĠKategorie":4274,"linik":4275,"Ġeff":4276,"ĠVertrags":4277,"873":4278,"ĠhÃ¶ch":4279,"Ġbeneiden":4280,"Ġwunder":4281,"ĠBad":4282,"PD":4283,"ĠTop":4284,"upp":4285,"235":4286,"ĠAnfrage":4287,"zeugt":4288,"ĠKranken":4289,"Kon":4290,"756":4291,"017":4292,"Ġbeneidenswert":4293,"ĠErziehungsberechtigten":4294,"146":4295,"ĠChar":4296,"igur":4297,"Ġpar":4298,"Ġaufblasen":4299,"quicklich":4300,"Ã¤den":4301,"ĠExper":4302,"894":4303,"Ġfreiwilligen":4304,"Ġunbequem":4305,"ĠHÃ¶he":4306,"rill":4307,"ĠBa":4308,"9164":4309,"ĠVerbindung":4310,"ĠCar":4311,"036":4312,"IR":4313,"vel":4314,"ĠMont":4315,"stoffe":4316,"ĠFl":4317,"ĠEing":4318,"uÃŁerdem":4319,"kn":4320,"mÃ¶":4321,"Ġabsol":4322,"Ã¤ndert":4323,"ĠGlÃ¼ck":4324,"ĠWissen":4325,"ĠNÃ¤":4326,"ĠZum":4327,"nSuche":4328,"Ġar":4329,"Ġnotwen":4330,"ĠInhaltsmessung":4331,"ferung":4332,"ales":4333,"Ġbetroffenen":4334,"/\\":4335,"gesamt":4336,"Ġerwar":4337,"ĠTex":4338,"Ġsagte":4339,"este":4340,"Der":4341,"ĠVoll":4342,"2016":4343,"ĠBank":4344,"steigen":4345,"tigung":4346,"iga":4347,"elten":4348,"enten":4349,"Ġdeutlich":4350,"tÃ¼mer":4351,"urger":4352,"ĠGu":4353,"Ġungut":4354,"ms":4355,"ĠzusÃ¤tzliche":4356,"halts":4357,"ĠHinter":4358,"207":4359,"over":4360,"Ã¼tzen":4361,"ey":4362,"Ġend":4363,"handen":4364,"Ã¤lle":4365,"Ã¶ffentlich":4366,"Ã¶pf":4367,"ĠHel":4368,"ĠNr":4369,"ervices":4370,"ĠZur":4371,"ĠWebseiten":4372,"Ġne":4373,"apier":4374,"vis":4375,"ĠschÃ¶nen":4376,"TS":4377,"enzen":4378,"Ġstandard":4379,"nZu":4380,"nBeit":4381,"see":4382,"irt":4383,"nRe":4384,"Ġfort":4385,"Ġwerde":4386,"843":4387,"UM":4388,"tiger":4389,"Ã¶rter":4390,"ĠVerantwortlichen":4391,"ĠSteuer":4392,"ĠermÃ¶glich":4393,"Ġunerquicklich":4394,"Ġungeliebt":4395,"ener":4396,"Ġelektron":4397,"esser":4398,"928":4399,"Ġklicken":4400,"verein":4401,"azin":4402,"Â®":4403,"spe":4404,"765":4405,"ood":4406,"DR":4407,"ĠSuch":4408,"cast":4409,"minister":4410,"ĠKlima":4411,"atistik":4412,"Ġsieht":4413,"EM":4414,"tliche":4415,"ĠPhil":4416,"ĠDom":4417,"ĠBla":4418,"ammlung":4419,"treter":4420,"profil":4421,"enntnis":4422,"Ġsolange":4423,"rolle":4424,"ubehÃ¶r":4425,"ĠSchÃ¼ler":4426,"âĸº":4427,"Das":4428,"ĠBon":4429,"reibt":4430,"werte":4431,"174":4432,"ĠHaut":4433,"ĠSen":4434,"Ġzeit":4435,"ministrat":4436,"ĠProfil":4437,"ĠÂ«":4438,"waltung":4439,"ĠfÃ¼hrt":4440,"dauer":4441,"9935":4442,"prÃ¤ch":4443,"Ġwelches":4444,"ĠBox":4445,"ĠlÃ¤nger":4446,"Ġspr":4447,"Ġ...":4448,"ntag":4449,"ĠGest":4450,"Ġkeinerlei":4451,"Ġmin":4452,"ĠbenÃ¶tigen":4453,"Ġdessen":4454,"ork":4455,"Ġdeinem":4456,"2017":4457,"Ã¶ffnet":4458,"908":4459,"Ġteilen":4460,"anstaltung":4461,"ĠHeil":4462,"ĠIns":4463,"aben":4464,"gerÃ¤t":4465,"Ġhervor":4466,"gesehen":4467,"anal":4468,"ĠZw":4469,"zentrum":4470,"ĠBra":4471,"zahlen":4472,"Ġ01":4473,"wiesen":4474,"853":4475,"zess":4476,"OP":4477,"ld":4478,"IP":4479,"zahlung":4480,"ĠMil":4481,"laubt":4482,"weils":4483,"136":4484,"ĠgÃ¼nst":4485,"234":4486,"Ġbehalten":4487,"chten":4488,"rt":4489,"mittelt":4490,"ĠHeim":4491,"897":4492,"ĠNur":4493,"bert":4494,"ĠPrÃ¼f":4495,"ĠÃľ":4496,"Ġres":4497,"ĠMerk":4498,"ode":4499,"Ġyour":4500,"ĠStandard":4501,"ĠSitu":4502,"Ġverfolgen":4503,"004":4504,"ĠOst":4505,"akter":4506,"ĠerhÃ¶":4507,"ĠKur":4508,"alb":4509,"Aus":4510,"883":4511,"264":4512,"ĠAust":4513,"leistung":4514,"ĠUnsere":4515,"ĠWien":4516,"ĠZahn":4517,"Â§":4518,"ĠPreise":4519,"Ġleider":4520,"ĠSpieler":4521,"ire":4522,"ĠausdrÃ¼cklich":4523,"hÃ¤ltnis":4524,"verstanden":4525,"uellen":4526,"iteratur":4527,"173":4528,"kraft":4529,"895":4530,"sprÃ¼":4531,"rick":4532,"srecht":4533,"ĠDiskuss":4534,"--------":4535,".:":4536,"ĠBerg":4537,"ĠWerbe":4538,"ĠKreis":4539,"aby":4540,"ĠInstagram":4541,"ĠMedia":4542,"wachsen":4543,"ĠAntwort":4544,"ĠStart":4545,"ĠÃĸff":4546,"decken":4547,"ĠHotel":4548,"avigation":4549,"ĠTisch":4550,"uper":4551,"ĠhÃ¤tte":4552,"uchten":4553,"istik":4554,"App":4555,"Ġrein":4556,"Ã¤ude":4557,"ĠMaÃŁnahmen":4558,"Ã¤ngen":4559,"ĠUnterstÃ¼tzung":4560,"155":4561,"âĢ¢":4562,"ĠGÃ¤":4563,"UT":4564,"nBesch":4565,"ĠNachricht":4566,"ĠWieder":4567,"nY":4568,"ommt":4569,"745":4570,"ĠgelÃ¶scht":4571,"ennung":4572,"213":4573,"Ad":4574,"verstÃ¤nd":4575,"ĠKr":4576,"siden":4577,"stre":4578,"park":4579,"9980":4580,"Ġniemals":4581,"Ġanonym":4582,"ĠBeweg":4583,"ĠWarenkorb":4584,"ĠÂ»\\":4585,"ĠMobil":4586,"Ġwohn":4587,"ĠGruppe":4588,"Ġblock":4589,"ĠDich":4590,"ĠermÃ¶glicht":4591,"\\\":":4592,"Ġpla":4593,"ĠRad":4594,"Ġzug":4595,"eckt":4596,"265":4597,"geschichte":4598,"907":4599,"neut":4600,"blog":4601,"ĠWill":4602,"Ġempfehlen":4603,"asen":4604,"pa":4605,"ns":4606,"nKomment":4607,"9963":4608,"uhr":4609,".âĢľ\\":4610,"125":4611,"ĠEuropa":4612,"Ġverbunden":4613,"ots":4614,"\\\\":4615,"onnieren":4616,"spar":4617,"ĠPrivat":4618,"ilden":4619,"rage":4620,"hops":4621,"iven":4622,"825":4623,"ĠGef":4624,"ĠDok":4625,"167":4626,"ĠunterstÃ¼tzen":4627,"rief":4628,"ĠSchwer":4629,"ĠSmart":4630,"456":4631,"nWar":4632,"Ġerhoben":4633,"sei":4634,"Ġguten":4635,"ĠDatenverarbeitung":4636,"Ġoff":4637,"ĠHar":4638,"Ã¶sungen":4639,"ĠRegie":4640,"erei":4641,"Ġare":4642,"ĠHy":4643,"065":4644,"Ġgenutzt":4645,"233":4646,"Ġdaran":4647,"ĠIt":4648,"ĠGesamt":4649,"Ġvorher":4650,"Ġanpassen":4651,"ĠComputer":4652,"ĠSor":4653,"Ġjeweils":4654,"Ġganze":4655,"ĠLiebe":4656,"Ġvorhanden":4657,"reite":4658,"funktion":4659,"Ġanaly":4660,"tiere":4661,"losen":4662,"nGesch":4663,"453":4664,"ieÃŁen":4665,"Ġexternen":4666,"policies":4667,"ĠFel":4668,"hann":4669,"ktions":4670,"yer":4671,"Ġsogen":4672,"peratur":4673,"attet":4674,"Ġstatistischen":4675,"rim":4676,"wÃ¼r":4677,"Ã¤ndig":4678,"reuz":4679,"Ġdurchs":4680,"103":4681,"Ġtats":4682,"ake":4683,"ĠAuge":4684,"nHer":4685,"Ġwes":4686,"teilen":4687,"ĠGerÃ¤t":4688,"KT":4689,"wegs":4690,"ana":4691,"165":4692,"046":4693,"ĠDeutschen":4694,"ĠBeratung":4695,"Ãĸ":4696,"maÃŁ":4697,"9925":4698,"9967":4699,"243":4700,"217":4701,"766":4702,"ĠTipps":4703,"hunder":4704,"ĠInfos":4705,"886":4706,"OT":4707,"geld":4708,"Ġschreiben":4709,"ĠVerlag":4710,"versicherung":4711,"vol":4712,"ĠDatei":4713,"ĠBran":4714,"ideo":4715,"IC":4716,"99875":4717,"eiger":4718,"spiele":4719,"ĠMensch":4720,"ĠBaum":4721,"Ġzuf":4722,"ĠOhne":4723,"Ġdeiner":4724,"166":4725,"ichtigung":4726,"Ġentsprechenden":4727,"Ġmax":4728,"ĠUnternehmens":4729,"Ã¤hrung":4730,"Ġgesetzt":4731,"ĠBand":4732,"ĠStreet":4733,"056":4734,"zentr":4735,"Ġeinverstanden":4736,"fter":4737,"Ġgrundlegende":4738,"ĠRom":4739,"ĠStudien":4740,"Ġging":4741,"ĠDieses":4742,"rÃ¤ger":4743,"lecht":4744,"ziellen":4745,"steuer":4746,"263":4747,"Ġur":4748,"eum":4749,"zif":4750,"ĠAktu":4751,"ong":4752,"ĠwÃ¼n":4753,"ĠArch":4754,"ommer":4755,"ĠDieser":4756,"kel":4757,"eisen":4758,"Ġauszu":4759,"Ġweite":4760,"Ġverkauf":4761,"ĠSchweiz":4762,"IV":4763,"Ġfol":4764,"949164":4765,"AP":4766,"767":4767,"Ġmel":4768,"ĠStud":4769,"Ġkonnten":4770,"Ġjemand":4771,"94916475":4772,"erten":4773,"lanz":4774,"266":4775,"ĠWald":4776,"ĠIndust":4777,"ng":4778,"ĠBetriebs":4779,"izien":4780,"ĠLeistungen":4781,"147":4782,"815":4783,"ose":4784,"164":4785,"iki":4786,"ĠFeuer":4787,"unternehmen":4788,"elig":4789,"isiert":4790,"Ġhab":4791,"ritte":4792,"Ġanhand":4793,"006":4794,"Ġberech":4795,"273":4796,"ĠDamit":4797,"ĠWeihnachts":4798,"nIhre":4799,"hil":4800,"117":4801,"Ã¼nstler":4802,"ĠLage":4803,"ĠAbend":4804,"Ġ07":4805,"ĠWand":4806,"\\\"\\":4807,"omas":4808,"ĠInvest":4809,"ane":4810,"nGes":4811,"ĠAlt":4812,"nGefÃ¤llt":4813,"lett":4814,"kennen":4815,"ission":4816,"Ġtrotzdem":4817,"ĠGruppen":4818,"Ġsomit":4819,"9944":4820,"rik":4821,".)":4822,"005":4823,"Ġanders":4824,"Ġ80":4825,"ĠBasis":4826,"nAut":4827,"ĠKurz":4828,"gruppen":4829,"vents":4830,"Ġerreichen":4831,"atter":4832,"Ġnormal":4833,"ĠhÃ¤ufig":4834,"ĠfÃ¼nf":4835,"stellte":4836,"dert":4837,"ecken":4838,"Ġyou":4839,"edizinische":4840,"Ġ03":4841,"amin":4842,"ĠKÃ¶l":4843,"893":4844,"Ġaktivieren":4845,"nUnd":4846,"ĠFen":4847,"972":4848,"734":4849,"fÃ¼hrer":4850,"management":4851,"ICH":4852,"ungsbedingungen":4853,"ĠSau":4854,"Ġhochwer":4855,"einigung":4856,"Ber":4857,"Ġeingeb":4858,"ĠKrit":4859,"ĠHil":4860,"ĠlÃ¶schen":4861,"ĠÂ©":4862,"gebung":4863,"857":4864,"ĠâĢ¦\\":4865,"113":4866,"ĠVoraus":4867,"nAuch":4868,"alyse":4869,"ĠDorf":4870,"ĠBestellung":4871,"Ġverantwort":4872,"ĠSinne":4873,"kir":4874,"ĠTre":4875,"orgung":4876,"177":4877,"go":4878,"tischen":4879,"rechte":4880,"ĠVerfahren":4881,"rock":4882,"ĠdaÃŁ":4883,"acken":4884,"ĠFort":4885,"hard":4886,"imeo":4887,"unction":4888,"TP":4889,"ĠPan":4890,"Ġrichten":4891,"nEigen":4892,"uchte":4893,"ĠWunsch":4894,"Ġentwickelt":4895,"SL":4896,"920":4897,"odcast":4898,"aust":4899,"heber":4900,"Ġdadurch":4901,"bli":4902,"stru":4903,"ĠFirma":4904,"824":4905,"Ġpersonenbezogener":4906,"ĠMÃ¶glichkeiten":4907,"ationale":4908,"Ã¼tzt":4909,"freund":4910,"137":4911,"rÃ¼n":4912,"akte":4913,"ieten":4914,"ichter":4915,"ole":4916,"iness":4917,"indestens":4918,"Ġangezeigt":4919,"ĠMotor":4920,"Ġangem":4921,"ĠKindern":4922,"Ġeinzelnen":4923,"ffff":4924,"ĠTrans":4925,"ĠInformation":4926,"ĠWo":4927,"Ġoptim":4928,"ama":4929,"Media":4930,"ĠVerkauf":4931,"anlage":4932,"Ġerfolgreich":4933,"ĠOption":4934,"bietern":4935,"896":4936,"Ġinformieren":4937,".-":4938,"gessen":4939,"Ã¤user":4940,"asino":4941,"eilung":4942,"schlÃ¤":4943,"124":4944,"045":4945,"ommun":4946,"753":4947,"Ġposit":4948,"Ġmag":4949,"950":4950,"ĠPsych":4951,"ĠHinsicht":4952,"ĠRegistr":4953,"stieg":4954,"Ġfunktioniert":4955,"Ġintegr":4956,"das":4957,"iegelt":4958,"Ġgefunden":4959,"ĠDritten":4960,"TM":4961,"ors":4962,"066":4963,"bringen":4964,"ĠKredit":4965,"ĠAuÃŁerdem":4966,"nHallo":4967,"043":4968,"atte":4969,"rechend":4970,"ĠShop":4971,"ĠheiÃŁt":4972,"fordert":4973,"ĠGewinn":4974,"Ġeinwand":4975,"nNewsletter":4976,"stuhl":4977,"lust":4978,"istische":4979,"735":4980,"nArtikel":4981,"Ġspielen":4982,"erkunft":4983,"ages":4984,"ktive":4985,"####":4986,"ĠEuropÃ¤ischen":4987,"ĠDon":4988,"zufÃ¼hren":4989,"Ġ90":4990,"ĠSchluss":4991,"Ġdeshalb":4992,"nReg":4993,"ition":4994,"ĠerfÃ¼ll":4995,"able":4996,"ehÃ¶rde":4997,"So":4998,"technik":4999,"736":5000,"ĠUN":5001,"827":5002,"Ġwebsite":5003,"Ich":5004,"055":5005,"ĠSpaÃŁ":5006,"iver":5007,"Ġna":5008,"Ġetc":5009,"ĠDort":5010,"Ġverhindern":5011,"spf":5012,"teilt":5013,"ĠMedizin":5014,"133":5015,"ĠWett":5016,"partner":5017,"237":5018,"zeugen":5019,"zum":5020,"verkehr":5021,"Ã¼rf":5022,"ĠGold":5023,"Ġkombiniert":5024,"Ġ45":5025,"ĠWissenschaft":5026,"uchs":5027,"Ġporn":5028,"ags":5029,"ĠunterstÃ¼tzt":5030,"werden":5031,"Ġpriv":5032,"ĠChe":5033,"Ġgegeben":5034,"nQu":5035,"innt":5036,"Ġgeschn":5037,"verbrauch":5038,"prochen":5039,"ĠSchule":5040,"nAl":5041,"9964":5042,"nehm":5043,"ohlen":5044,"Ġfindest":5045,"Ġerneut":5046,"cm":5047,"184":5048,"cking":5049,"nUnser":5050,"ÃĦ":5051,"193":5052,"ooper":5053,"064":5054,"ĠDazu":5055,"Ġmindestens":5056,"ĠAlter":5057,"Ã¤ngt":5058,"stellten":5059,"ĠKurs":5060,"Ã¼rz":5061,"ograph":5062,"springen":5063,"Ġinkl":5064,"OG":5065,"Ġbesuchen":5066,"ĠStellen":5067,"ĠHum":5068,"nVon":5069,"ias":5070,"Ã¼ss":5071,"hung":5072,"xtrem":5073,"tis":5074,"Ġbedarf":5075,"ĠFreund":5076,"ĠenthÃ¤lt":5077,"ĠGleich":5078,"ĠPraxis":5079,"atus":5080,"227":5081,"ĠFa":5082,"ationalen":5083,"ĠSprache":5084,"ics":5085,"Ġkonk":5086,"ĠSonnen":5087,"Ġsetzt":5088,"Ġangeboten":5089,"ĠProbleme":5090,"764":5091,"gef":5092,"isse":5093,"Ġbetreffen":5094,"gemeine":5095,"leidung":5096,"891":5097,"bek":5098,"ĠLÃ¶schung":5099,"ĠTitel":5100,"Ġebenso":5101,"ĠRolle":5102,"enke":5103,"sichtlich":5104,"such":5105,"utschland":5106,"821":5107,"877":5108,"tive":5109,"rig":5110,"wind":5111,"ĠListe":5112,"Ġstimmen":5113,"idenz":5114,"woch":5115,"MS":5116,"ĠwÃ¤hlen":5117,"ĠDein":5118,"anne":5119,"Ġfal":5120,"Ġit":5121,"ĠPrin":5122,"Mit":5123,"Ġakzeptiert":5124,"tritt":5125,"yl":5126,"ĠEssen":5127,"alle":5128,"ĠIT":5129,"ĠErgebnis":5130,"044":5131,"index":5132,"435":5133,"Ġaktuell":5134,"hausen":5135,"rans":5136,"Ġsoweit":5137,"ffer":5138,";\\":5139,"gefÃ¼hrt":5140,"Ã¤ufer":5141,"sein":5142,"Ġ2005":5143,"ĠHouse":5144,"ĠhÃ¶r":5145,"744":5146,"Ġweg":5147,"Ġhilft":5148,"ĠStraÃŁe":5149,"tierung":5150,"by":5151,"ĠSens":5152,"linien":5153,"gericht":5154,"185":5155,"sprechen":5156,"finden":5157,"ĠTel":5158,"Ġbefindet":5159,"abe":5160,"ĠFla":5161,"ĠÃ¼bertragen":5162,"problem":5163,"ĠJob":5164,"Ġprakti":5165,"rachen":5166,"ĠModell":5167,"schieden":5168,"arian":5169,"ĠJahrhunder":5170,"196":5171,"ĠRhein":5172,"Ġentsprechend":5173,"sprung":5174,"pfer":5175,"icro":5176,"ĠrechtmÃ¤ÃŁigen":5177,"ĠEng":5178,"wirkungen":5179,"karte":5180,"814":5181,"087":5182,"cookie":5183,"ĠKommunikations":5184,"neten":5185,"Ġerstellt":5186,"277":5187,"garten":5188,"nern":5189,"europÃ¤":5190,"nHost":5191,"2015":5192,"Ġaktuelle":5193,"Ġsod":5194,"nKategorien":5195,"Ġfolgende":5196,"wach":5197,"ĠFotos":5198,"ĠFoto":5199,"Ġdazuge":5200,"ĠHeraus":5201,"gebiet":5202,"ĠverfÃ¼gbar":5203,"ĠGemeinde":5204,"missionen":5205,"ĠErst":5206,"088":5207,"ĠAp":5208,"aup":5209,"rige":5210,"Ġwelcher":5211,"194":5212,"glichen":5213,"ĠVertreter":5214,"wig":5215,"beit":5216,"ĠSicht":5217,"ĠJetzt":5218,"003":5219,"til":5220,"ĠMutter":5221,"Ġad":5222,"okrat":5223,"ĠMw":5224,"053":5225,"nProdu":5226,"ĠInc":5227,"98326":5228,"Ġbas":5229,"Ġbeste":5230,"ĠPeter":5231,"746":5232,"ĠKonkurs":5233,"Ġkaum":5234,"ava":5235,"PS":5236,"iziert":5237,"itze":5238,"Ġverwalten":5239,"ĠStein":5240,"175":5241,"267":5242,"ĠGut":5243,"Ã¤dag":5244,"eise":5245,"ĠStaats":5246,"ĠReich":5247,"Ġ06":5248,"ĠAdministrat":5249,"pfen":5250,"app":5251,"Ġbelieb":5252,"Ġgenannten":5253,"287":5254,"gut":5255,"ĠZusammenhang":5256,"Ġvergleich":5257,"vertrag":5258,"Ġneues":5259,"ĠUl":5260,"034":5261,"lehnen":5262,"ĠKarten":5263,"nUnter":5264,"Ġgesetzlichen":5265,"9956":5266,"ierungen":5267,"ĠSach":5268,"ĠVeranstaltungen":5269,"ertig":5270,"ziehung":5271,"ĠprÃ¤sen":5272,"ĠRef":5273,"gegeben":5274,"ĠAnmeldung":5275,"ĠImmobilien":5276,"âĢĶ":5277,"Ġrechts":5278,"nmehr":5279,"ĠWiderspruch":5280,"hemen":5281,"fs":5282,"ĠKommunikation":5283,"ĠFrÃ¼h":5284,"Ġdennoch":5285,"gesellschaft":5286,"nTelefon":5287,"ĠTV":5288,"ĠSem":5289,"ummer":5290,"091":5291,"Ġwarum":5292,"struktur":5293,"823":5294,"ĠHerkunft":5295,"Ġmon":5296,"fÃ¼llung":5297,"Ġleich":5298,"336":5299,"ĠKrieg":5300,"ĠOut":5301,"EW":5302,"ĠSonder":5303,"rust":5304,"rund":5305,"153":5306,"ĠBlut":5307,"AQ":5308,"ministr":5309,"ĠServices":5310,"werten":5311,"itÃ¤ts":5312,"2014":5313,"ĠDritte":5314,"volle":5315,"ams":5316,"richtungen":5317,"733":5318,"ĠII":5319,"SB":5320,"nBeschreibung":5321,"ĠLeistung":5322,"usch":5323,"Ġ}":5324,"Ã¤lter":5325,"898":5326,"Ġ[âĢ¦":5327,"Ġdo":5328,"Ġlos":5329,"IK":5330,"othek":5331,"nMen":5332,"Ġerlaubt":5333,"reude":5334,"leit":5335,"9924":5336,"ĠOl":5337,"tim":5338,"ĠStÃ¤d":5339,"uell":5340,"ĠHause":5341,"rifft":5342,"zens":5343,"Ġkor":5344,"253":5345,"gelt":5346,"dieweil":5347,"Ġgestellt":5348,"Ġverpflich":5349,"ĠausgewÃ¤hlt":5350,"kur":5351,"vert":5352,"ĠEntscheidung":5353,"nVers":5354,"ĠDeine":5355,"033":5356,"gn":5357,"pel":5358,"reen":5359,"figur":5360,"ĠWirtschafts":5361,"Ġlernen":5362,"opyr":5363,"isierung":5364,"ammer":5365,"irm":5366,"Ġferner":5367,"ĠBahn":5368,"ĠzunÃ¤chst":5369,"Ã¼rt":5370,"811":5371,"ĠRegen":5372,"Ġentsprechende":5373,"Ġdeutsche":5374,"Press":5375,"wegen":5376,"ates":5377,"ĠAuÃŁen":5378,"ĠGeburt":5379,"sÃ¤tzlich":5380,"ĠFrie":5381,"SV":5382,"stall":5383,"9921":5384,"ĠLeute":5385,"Ġzweiten":5386,"Ã¶gliche":5387,"ĠMwSt":5388,"opyright":5389,"ĠerklÃ¤rt":5390,"ĠÃ¶ffentlichen":5391,"063":5392,"98326254":5393,"stÃ¤nden":5394,"rechts":5395,"alisiert":5396,"ehÃ¶rden":5397,"143":5398,"Ġ200":5399,"Ġerkennen":5400,"Ġdient":5401,"ĠĠ":5402,"dividuelle":5403,"057":5404,"ĠErgebnisse":5405,"alog":5406,"angebote":5407,"763":5408,"ĠTechnik":5409,"ĠIst":5410,"Ġgespeicherten":5411,"Ġgern":5412,"201":5413,"ĠKonto":5414,"930":5415,"verband":5416,"eid":5417,"Ġschm":5418,"grundlage":5419,"eidig":5420,"alif":5421,"Ġverz":5422,"ĠwÃ¼rden":5423,"verhalten":5424,"leiter":5425,"ĠBÃ¼ro":5426,"anger":5427,"schungs":5428,"ĠEi":5429,"ĠPatienten":5430,"757":5431,"9927":5432,"163":5433,"ĠmÃ¶glicherweise":5434,"arbeite":5435,"Ġweitem":5436,"last":5437,"auftrag":5438,"ufe":5439,"ĠQ":5440,"hy":5441,"dia":5442,"Ġeinwandfreie":5443,"arm":5444,"ĠDach":5445,"Ġmeinst":5446,"Se":5447,"Ġhohen":5448,"lÃ¤tze":5449,"195":5450,"Ġgerechnet":5451,"ĠBereit":5452,"Ġnachhal":5453,"Ġalten":5454,"ĠâĨĴ":5455,"aket":5456,"band":5457,"gart":5458,"nWird":5459,"ehe":5460,"werke":5461,"ĠSex":5462,"ĠMart":5463,"was":5464,"Ġas":5465,"ĠPay":5466,"ande":5467,"oot":5468,"ĠGott":5469,"ĠÃĦnderungen":5470,"tend":5471,"umente":5472,"KW":5473,"ĠKÃ¶nig":5474,"lingen":5475,"Ġvergangen":5476,"187":5477,"RO":5478,"ĠAlltag":5479,"dere":5480,"ĠBÃ¼cher":5481,"Ġide":5482,"9923":5483,"âĢĺ":5484,"ĠregelmÃ¤ÃŁig":5485,"wesen":5486,"Ġwenden":5487,"Ġalldieweil":5488,"ĠDauer":5489,"ĠPlat":5490,"gehend":5491,"hnt":5492,"747":5493,"ory":5494,"gf":5495,"ĠErfahrungen":5496,"Ġwerfen":5497,"ĠunabhÃ¤ng":5498,"essary":5499,"ĠAnspruch":5500,"Ġwith":5501,"nDurch":5502,"Ã¼cks":5503,"flug":5504,"orte":5505,"Be":5506,"Ġfinde":5507,"ĠVerhalten":5508,"ĠSchritt":5509,"ssystem":5510,"Ġeinzu":5511,"ĠVolks":5512,"iefer":5513,"IA":5514,"ica":5515,"Ã¤dchen":5516,"ĠEntwick":5517,"beratung":5518,"ĠstÃ¤r":5519,"rÃ¤ch":5520,"dent":5521,"ĠBrem":5522,"ĠSituation":5523,"nEssenzielle":5524,"ĠNew":5525,"ĠEben":5526,"Ab":5527,"Ġwollte":5528,"ĠFenster":5529,"MW":5530,"zepte":5531,"ĠAnzahl":5532,"uk":5533,"ĠMain":5534,"Ġwohnhaft":5535,"gÃ¤nge":5536,"284":5537,"157":5538,"ĠPolizei":5539,"elte":5540,"schuss":5541,"Ġgleichzeitig":5542,"822":5543,"ĠGet":5544,"DU":5545,"eien":5546,"ĠElektro":5547,"9954":5548,"2023":5549,"ux":5550,"077":5551,"Ġgeschlossen":5552,"Vor":5553,"ita":5554,"ĠfÃ¼hl":5555,".âĢľ":5556,"riffe":5557,"Emissionen":5558,"ministration":5559,"ickt":5560,"ows":5561,"940":5562,"Ġ04":5563,"Ġ<":5564,"nDa":5565,"geg":5566,"Ġliebe":5567,"Ġentfern":5568,"Ã¤dagog":5569,"ĠDinge":5570,"aktieren":5571,"formation":5572,"po":5573,"Ġklass":5574,"Ġbringt":5575,"nInstagram":5576,"ĠEinschrÃ¤n":5577,"act":5578,"amera":5579,"RW":5580,"Ġprofession":5581,"ollten":5582,"ĠMenge":5583,"zgl":5584,"ekten":5585,"ĠAc":5586,"Ġdam":5587,"ĠFÃ¤llen":5588,"Ġabgerufen":5589,"plat":5590,"sburg":5591,"Tra":5592,"folge":5593,"2108":5594,"Ġherunter":5595,"186":5596,"ĠbestÃ¤":5597,"ĠkÃ¶nnten":5598,"ĠStraÃŁen":5599,"037":5600,"Ġausgest":5601,"ĠFehler":5602,"ĠschlieÃŁ":5603,"ĠDiskussion":5604,"ymb":5605,"gemeinen":5606,"663":5607,"werbung":5608,"ĠschlieÃŁen":5609,"dro":5610,"nc":5611,"Ġeindeu":5612,"Ġ500":5613,"ĠWh":5614,"fÃ¼hren":5615,"stÃ¤ndigen":5616,"low":5617,"ottes":5618,"urm":5619,"Ġbeziehungs":5620,"ĠFlÃ¼":5621,"ĠÃ¼bern":5622,"ĠMoment":5623,"ĠMonaten":5624,"ĠLieferung":5625,"887":5626,"ĠBerufs":5627,"ĠAnwendung":5628,"sphÃ¤re":5629,"uttgart":5630,"Ġbehand":5631,"ĠBestand":5632,"ordon":5633,"Ġ70":5634,"tennis":5635,"ĠKla":5636,"ĠUnser":5637,"Ġbraucht":5638,"edien":5639,"informationen":5640,"Ġverlangen":5641,"denken":5642,"zwecken":5643,"ĠfrÃ¼her":5644,"grenz":5645,"Ġinsgesamt":5646,"Ġtragen":5647,"nAGB":5648,"ĠAufgaben":5649,"ĠbenÃ¶tigt":5650,"rocken":5651,"127":5652,"9926":5653,"indest":5654,"leisch":5655,"ĠFarben":5656,"ĠZeiten":5657,"ĠMeinung":5658,"ĠPlug":5659,"ene":5660,"ĠInnov":5661,"fan":5662,"Ġblockiert":5663,"zÃ¼glich":5664,"antie":5665,"817":5666,"ĠAusbildung":5667,"pass":5668,"AU":5669,"Ã¼ch":5670,"HL":5671,"nÃĦ":5672,"ĠModer":5673,"Ġeingesetzt":5674,"121":5675,"Ġbeziehungsweise":5676,"9957":5677,"nNutz":5678,"omo":5679,"verfahren":5680,"ĠAbschluss":5681,"kor":5682,"count":5683,"ĠKrÃ¤fte":5684,"ĠMÃ¤nner":5685,"Ġgesehen":5686,"Ġzudem":5687,"Ġgenommen":5688,"tipp":5689,"022":5690,"spir":5691,"zeichnungen":5692,"286":5693,"ĠKÃ¶ln":5694,"ĠFreitag":5695,"Ġ05":5696,"wissenschaften":5697,"pft":5698,"ĠZubehÃ¶r":5699,"way":5700,"ĠUp":5701,"247":5702,"Ã¤um":5703,"Ġdauer":5704,"Ġstets":5705,"HF":5706,"ĠNetzwerk":5707,"riffen":5708,"nDies":5709,"Ġnied":5710,"ĠVerk":5711,"737":5712,"ĠBeginn":5713,"egal":5714,"ĠDatenschutzeinstellungen":5715,"ĠFeld":5716,"Ġtreffen":5717,"ĠSuper":5718,"material":5719,"285":5720,"nÃĸ":5721,"mÃ¶gen":5722,"ĠNÃ¤he":5723,"Ġpf":5724,"067":5725,"Ãĥ":5726,"ĠDrittanbieter":5727,"nFunktion":5728,"name":5729,"osoph":5730,"==":5731,"ĠKaff":5732,"Ġthis":5733,"ĠÃľbertragung":5734,"107":5735,"ĠWÃ¼n":5736,"ĠMetho":5737,"Â°":5738,"dungen":5739,"Ã¼cken":5740,"bewahr":5741,"007":5742,"fl":5743,"lechts":5744,"klusive":5745,"rum":5746,"empf":5747,"Ġeinigen":5748,"ĠMichael":5749,"995123":5750,"ĠRot":5751,"facebook":5752,"Ġtechnisch":5753,"ĠWolf":5754,"ĠKrank":5755,"ulation":5756,"ĠGrÃ¼nden":5757,"ĠAdresse":5758,"Ġthat":5759,"ĠRuss":5760,"Ġbem":5761,"anien":5762,"chmal":5763,"of":5764,"ĠSeit":5765,"257":5766,"haben":5767,"TV":5768,"ĠTab":5769,"294":5770,"Ġwichtige":5771,"ĠtatsÃ¤chlich":5772,"esten":5773,".\\\"":5774,"oss":5775,"Ġgener":5776,"nIndividuelle":5777,"Ġ35":5778,"ĠLÃ¤nder":5779,"ĠRisiko":5780,"ordPress":5781,"OK":5782,"TR":5783,"Ġgeschniegelt":5784,"stal":5785,"Ġmoder":5786,"9953":5787,"ĠKor":5788,"âĤ":5789,"Ã¤tigkeit":5790,"ĠIdeen":5791,"sser":5792,"465":5793,"haber":5794,"ĠGlas":5795,"ĠâĢĶ":5796,"ĠGordon":5797,"ĠRund":5798,"ĠBett":5799,"ĠHig":5800,"ĠNor":5801,"ĠstandardmÃ¤ÃŁig":5802,"Ã¶bel":5803,"Ġfahrenden":5804,"ĠeuropÃ¤":5805,"urnal":5806,"itÃ¤r":5807,"ĠÃĦr":5808,"ars":5809,"047":5810,"Ġech":5811,"Ġkg":5812,"De":5813,"pflege":5814,"ĠBehandlung":5815,"bruch":5816,"ĠVerbraucher":5817,"mack":5818,"iete":5819,"male":5820,"ologische":5821,"gerÃ¤te":5822,"Ġerreicht":5823,"burger":5824,"mut":5825,"807":5826,"nTop":5827,"ano":5828,"ladung":5829,"EO":5830,",_":5831,"ring":5832,"wa":5833,"Ġneuer":5834,"stechn":5835,"orien":5836,"ĠBarrow":5837,"447":5838,"ĠLÃ¶sung":5839,"schlieÃŁend":5840,"ĠWirkung":5841,"ĠLager":5842,"monat":5843,"ĠDienstleistungen":5844,"Ã¤her":5845,"777":5846,"ĠVersicher":5847,"itzt":5848,"ĠAltern":5849,"Ġaufspringen":5850,"ĠPublik":5851,"Ġmusste":5852,"vention":5853,"lÃ¤ufig":5854,"ĠSchÃ¶n":5855,"ĠSatz":5856,"2775":5857,"brechen":5858,"Ġusw":5859,"Ġeingel":5860,"ĠHerbst":5861,"ĠSonntag":5862,"ttp":5863,"anbietern":5864,"DER":5865,"ĠUmgang":5866,"nline":5867,"kraine":5868,"ĠBildung":5869,"Ġgeworden":5870,"wechsel":5871,"Ġgestalten":5872,"ĠZoll":5873,"ĠTem":5874,"GH":5875,"âĤĤ":5876,"tiges":5877,"fernen":5878,"reibe":5879,"ĠFrankfurt":5880,"Ġbeein":5881,"teuer":5882,"Ġnachdem":5883,"ĠJa":5884,"Ġeinzig":5885,"ĠVis":5886,"schafts":5887,"ĠdazugehÃ¶ren":5888,"iner":5889,"108":5890,"202":5891,"ĠEinfluss":5892,"Auf":5893,"Ġ33":5894,"ĠTor":5895,"Ġlaufen":5896,"iten":5897,"ĠIndustrie":5898,"ierende":5899,"ights":5900,"ĠNo":5901,"365":5902,"ĠHom":5903,"437":5904,"99805":5905,"ĠFalle":5906,"ĠMail":5907,"ience":5908,"9292108":5909,"ille":5910,"ĠWetter":5911,"ĠBezug":5912,"Ġanderer":5913,"ĠImmer":5914,"karten":5915,"its":5916,"loud":5917,"ĠMasch":5918,"nEigentÃ¼mer":5919,"ĠVertra":5920,"nIhr":5921,"nab":5922,"Ġnimmt":5923,"ient":5924,"forschung":5925,"blatt":5926,"entlich":5927,"Te":5928,"Ġeingesch":5929,"ĠDre":5930,"ĠImpf":5931,"Ġklick":5932,"Medizinische":5933,"ĠSchlaf":5934,"Ġorganis":5935,"spannen":5936,"yle":5937,"ĠKoll":5938,"napp":5939,"ĠMess":5940,"ĠerklÃ¤ren":5941,"ĠKlick":5942,"ĠPunkt":5943,"itieren":5944,"ĠArzt":5945,"ĠMax":5946,"Ġanalys":5947,"Ġbefinden":5948,"Ġhttp":5949,"ĠEff":5950,"Ġreduz":5951,"ĠSchrift":5952,"Ġmen":5953,"HN":5954,"436":5955,"ĠNational":5956,"ĠVersandkosten":5957,"Re":5958,"ĠGesprÃ¤ch":5959,"nInhalte":5960,"ĠMarken":5961,"9917":5962,"989":5963,"sitzen":5964,"geord":5965,"102":5966,"ĠSprach":5967,"artige":5968,"ĠZus":5969,"ĠAller":5970,"ĠBayern":5971,"aun":5972,"TL":5973,"ĠHersteller":5974,"ĠEinkauf":5975,"Ã¶ÃŁen":5976,"glied":5977,"ĠErd":5978,"spricht":5979,"ĠhÃ¤lt":5980,"SP":5981,"ĠChin":5982,"Ġsenden":5983,"bu":5984,"vÃ¶l":5985,"Ġdienen":5986,"Script":5987,"ĠBern":5988,"ĠAuskunft":5989,"enter":5990,"efin":5991,"weder":5992,"455":5993,"rÃ¤gen":5994,"EI":5995,"Ġsorgen":5996,"ĠTri":5997,"ĠEm":5998,"208":5999,"setzungen":6000,"434":6001,"Ġvergessen":6002,"Ġberechtigt":6003,"zenz":6004,"aser":6005,"spla":6006,"apan":6007,"ĠSchaden":6008,"Ġanmelden":6009,"ĠStatistiken":6010,"9593":6011,"ranzÃ¶s":6012,"irus":6013,"ĠPflanzen":6014,"nSpeichert":6015,"seh":6016,"merzen":6017,"reif":6018,"ĠÃ¼berprÃ¼":6019,"bieten":6020,"Ġsamm":6021,"Ġsinn":6022,"Ġheu":6023,"profile":6024,"ĠGrÃ¶ÃŁe":6025,"ĠGedanken":6026,"293":6027,"ĠKan":6028,"ĠAndre":6029,"itekt":6030,"ĠManagement":6031,"ĠZusammenarbeit":6032,"Ġerf":6033,"ehmer":6034,"ferenzen":6035,"nvon":6036,"holz":6037,"jen":6038,"Ġspannen":6039,"ĠKil":6040,"ĠBis":6041,"Ġru":6042,"piel":6043,"Ġ2004":6044,"zufÃ¼gen":6045,"legt":6046,"ampag":6047,"ĠStoff":6048,"yc":6049,"Plattformen":6050,"bad":6051,"formance":6052,"Ġzehn":6053,"ĠGutsch":6054,"ĠLeip":6055,"wart":6056,"ĠJohann":6057,"schie":6058,"ĠWirk":6059,"XX":6060,"Ġerfassen":6061,"466":6062,"Ġ02":6063,"ĠGrÃ¼ÃŁe":6064,"etzte":6065,"9987587":6066,"ĠSpeichern":6067,"far":6068,"berger":6069,"ĠSchlÃ¼ssel":6070,"itzer":6071,"âĢĭ":6072,"wÃ¶rter":6073,"sÃ¤":6074,"ĠFarb":6075,"ĠFormular":6076,"ĠSaison":6077,"Ġhistor":6078,"nInformationen":6079,"ĠOff":6080,"111":6081,"plattformen":6082,"ĠGÃ¤ste":6083,"ĠAss":6084,"ĠHÃ¶r":6085,"atch":6086,"rÃ¤nkt":6087,"Ġsuper":6088,"nMein":6089,"atis":6090,"ĠGerÃ¤te":6091,"Ġerle":6092,"ĠRichtung":6093,"Details":6094,"Ġlan":6095,"Ġtreiben":6096,"ĠDirekt":6097,"top":6098,"ĠAllgemein":6099,"ĠpersÃ¶nlich":6100,"bericht":6101,"Ġidentifizieren":6102,"Ġmodern":6103,"ĠKlinik":6104,"ĠWÃ¤r":6105,"ĠFuÃŁball":6106,"omie":6107,"Ġansehen":6108,"8198":6109,"Ġgeplan":6110,"ĠVersion":6111,"OLL":6112,"wohner":6113,"nBlog":6114,"petenz":6115,"110":6116,"9970":6117,"ĠGas":6118,"hafte":6119,"ĠDeutschmark":6120,"schÃ¤tz":6121,"ĠGi":6122,"achst":6123,"aufnahme":6124,"ĠSpann":6125,"Ġ55":6126,"hor":6127,"Ġpassiert":6128,"izienz":6129,"Ġrichtige":6130,"phone":6131,"artikel":6132,"Ġkleiner":6133,"weile":6134,"anlagen":6135,"ames":6136,"Ġfand":6137,"ĠLeistungs":6138,"Ġentstehen":6139,"Ġversenden":6140,"ikro":6141,"Ġselber":6142,"Ġentfernt":6143,"achr":6144,"122":6145,"ografie":6146,"sum":6147,"ara":6148,"nOpen":6149,"outube":6150,"ĠDrittanbietern":6151,"Ġerweiter":6152,"Ġbef":6153,"ibel":6154,"Ġschaffen":6155,"ĠPasswort":6156,"Ġkomplett":6157,"ĠMer":6158,"962":6159,"stÃ¤nde":6160,"geln":6161,"rangig":6162,"PT":6163,"Ġwirtschaft":6164,"egenheit":6165,"Ġmaxim":6166,"ĠMeer":6167,"ĠKenntnis":6168,"istischen":6169,"653":6170,"ÃĹ":6171,"news":6172,"ĠZentrum":6173,"immel":6174,"ĠHinweise":6175,"ĠPersonal":6176,"schm":6177,"ĠChem":6178,"rol":6179,"eintrÃ¤ch":6180,"nerstag":6181,"/?":6182,"bus":6183,"ĠRestaur":6184,"931":6185,"prozess":6186,"%\\":6187,"ĠKenn":6188,"Ġreich":6189,"zun":6190,"ĠSek":6191,"ĠRein":6192,"stÃ¤t":6193,"ĠLiteratur":6194,"verlÃ¤ss":6195,"Ġvertra":6196,"ĠHol":6197,"hnung":6198,"ĠAmer":6199,"241":6200,"828":6201,"flÃ¤chen":6202,"ĠHunde":6203,"Ġbein":6204,"9915":6205,"Ġsozialen":6206,"ĠAugenmerk":6207,"Ã¤hlten":6208,"ĠMel":6209,"ĠFirmen":6210,"igten":6211,"nStar":6212,"Ġvorbei":6213,"Ġmanuellen":6214,"8886":6215,"Ġumfassen":6216,"agazin":6217,"fÃ¤higkeit":6218,"ĠBorlabs":6219,"Ġabzu":6220,"Ġ[âĢ¦]\\":6221,"ĠÃ¤h":6222,"allen":6223,"nWarum":6224,"UL":6225,"Ġdeaktivieren":6226,"ktien":6227,"iginal":6228,"ĠUniversitÃ¤t":6229,"979":6230,"ĠbÃ¼nd":6231,"ĠZimmer":6232,"sprache":6233,"ĠEngl":6234,"GefÃ¤llt":6235,"ĠBack":6236,"Ġhierzu":6237,"eils":6238,"ĠSozi":6239,"nNur":6240,"nEnt":6241,"reuung":6242,"910":6243,"ildet":6244,"alismus":6245,"ĠGesundheits":6246,"ena":6247,"Ġbrauchen":6248,"Ġspiel":6249,"ziel":6250,"ada":6251,"sprach":6252,"ili":6253,"ĠEt":6254,"Ġmobil":6255,"ĠGebÃ¤ude":6256,"ĠGrand":6257,"Ġendlich":6258,"onds":6259,"ĠBetroffen":6260,"ION":6261,"Ġbesonderen":6262,"99374":6263,"211":6264,"scheinlich":6265,"letzung":6266,"ĠBereitstellung":6267,"Ġherz":6268,"ierenden":6269,"Ġvert":6270,"ĠLang":6271,"avaScript":6272,"ĠMÃ¼ll":6273,"emal":6274,"ĠReisen":6275,"lot":6276,"ĠOrd":6277,"ĠgroÃŁer":6278,"nutz":6279,"ĠProzess":6280,"obei":6281,"ĠLo":6282,"912":6283,"2013":6284,"leisten":6285,"ĠnÃ¶":6286,"ĠAnzeige":6287,"ĠKirche":6288,"fragt":6289,"zust":6290,"ĠSpiele":6291,"Ġergibt":6292,"Ġverpflichtet":6293,"ĠTon":6294,"Ã¶ffnen":6295,"ĠBewertungen":6296,"ĠSamstag":6297,"Ġgemeins":6298,"ĠEvidenz":6299,"ĠMeter":6300,"gro":6301,"ĠDownload":6302,"Ġweltweit":6303,"legung":6304,"118":6305,"ĠgrÃ¼n":6306,"Ġ2000":6307,"han":6308,"Ġzuvor":6309,"ĠFarbe":6310,"ĠBio":6311,"stitution":6312,"nVerÃ¶ffentlicht":6313,"alerie":6314,"500":6315,"Ġggf":6316,"ĠBrand":6317,"RL":6318,"Ġselten":6319,"unn":6320,"Ġinformiert":6321,"usamment":6322,"Ġderzeit":6323,"nNot":6324,"Innen":6325,"aktionen":6326,"ĠHerren":6327,"bliothek":6328,"ĠThomas":6329,"ĠIdee":6330,"ĠPresse":6331,"Ġzentr":6332,"283":6333,"alitÃ¤ts":6334,"Ġ)":6335,"ĠAnti":6336,"eldet":6337,"ĠAlso":6338,"ruhe":6339,"Ġbegl":6340,"Ġlegen":6341,"samkeit":6342,"System":6343,"neu":6344,"VP":6345,"Ġhinzu":6346,"ĠAntrag":6347,"Al":6348,"ĠVorteile":6349,"Ġdeines":6350,"Ã¤mlich":6351,"lager":6352,"setzt":6353,"Ġgesagt":6354,"gte":6355,"ingungen":6356,"ĠzusÃ¤tzlich":6357,"ĠStaat":6358,"ĠGerman":6359,"Ġoffi":6360,"Ã¤dig":6361,"Ġliefen":6362,"ĠZeichen":6363,"ĠEuch":6364,"ĠWander":6365,"Ġrichtigen":6366,"Ġrelev":6367,"Ġ75":6368,"Ġstimm":6369,"Ġerreich":6370,"atoren":6371,"Ġgesp":6372,"Ġentsperren":6373,"ĠGanz":6374,"183":6375,"tert":6376,"Ġwichtigsten":6377,"hare":6378,"zeichnung":6379,"anke":6380,"901":6381,"nKommentar":6382,"ĠvollstÃ¤ndig":6383,"dik":6384,"wald":6385,"auso":6386,"soft":6387,"fahrung":6388,"nWider":6389,"set":6390,"bereitung":6391,"zwischen":6392,"ymp":6393,"128":6394,"chte":6395,"Ã¼st":6396,"rug":6397,"kom":6398,"ĠKunde":6399,"ĠZudem":6400,"ni":6401,"ĠBewertung":6402,"durch":6403,"ĠVideoplattformen":6404,"ĠVolk":6405,"nDeine":6406,"glieder":6407,"stÃ¤ndige":6408,"ĠEis":6409,"hebung":6410,"Ġanony":6411,"sÃ¤tze":6412,"ĠStell":6413,"ĠStuttgart":6414,"99342775":6415,"*:":6416,"Ġkrit":6417,"ĠSand":6418,"Ġverantwortlich":6419,"teile":6420,"Ã¤nglich":6421,"nBorlabs":6422,"redit":6423,"ĠIN":6424,"ile":6425,"âĨ":6426,"ĠPlattform":6427,"gangs":6428,"nKon":6429,"onym":6430,"Ã¶st":6431,"ĠDienstes":6432,"Ã¤uft":6433,"ĠAdministrator":6434,"dacht":6435,"denburg":6436,"ĠKÃ¼che":6437,"ĠUnion":6438,"wendungen":6439,"Ġerheb":6440,"Ġgenug":6441,"997254":6442,"endet":6443,"ĠCamp":6444,"venz":6445,"ament":6446,"ĠbÃ¼ndeln":6447,"ĠBal":6448,"335":6449,"OW":6450,"454":6451,"938":6452,"hÃ¤user":6453,"komp":6454,"heben":6455,"ĠGraf":6456,"ĠWil":6457,"nCookies":6458,"ĠJan":6459,"9916":6460,"Ġzusamment":6461,"Ġanges":6462,"que":6463,"ĠVeranstaltung":6464,"9911":6465,"Ġbeginnt":6466,"weite":6467,"ĠSalz":6468,"ĠSub":6469,"457":6470,"Ġdank":6471,"ĠItalien":6472,"werbe":6473,"nWo":6474,"LC":6475,"001":6476,"Ġdarin":6477,"742":6478,"ĠReihe":6479,"Ġihres":6480,"99725497":6481,"Ġeinzi":6482,"bas":6483,"heits":6484,"falt":6485,"Ġbestellen":6486,"ĠÃľb":6487,"wo":6488,"eff":6489,"haltigkeit":6490,"ĠBearbeitung":6491,"ĠschÃ¶ne":6492,"150":6493,"Ġinstall":6494,"OV":6495,"Ġfreund":6496,"101":6497,"HE":6498,"otel":6499,"ĠGeschenk":6500,"ferenz":6501,"Ġperfekt":6502,"ĠbeschÃ¤f":6503,"Ġdire":6504,"raucht":6505,"ĠGeige":6506,"echts":6507,"9978":6508,"dungs":6509,"9913":6510,"ĠErwachsen":6511,"steht":6512,"atÃ¼rlich":6513,"444":6514,"aro":6515,"ccess":6516,"ĠOnlin":6517,"Ġgesamten":6518,"interest":6519,"Ph":6520,"viel":6521,"ĠBesonder":6522,"HT":6523,"ĠTante":6524,"pfel":6525,"Ġgeschrieben":6526,"076":6527,"nLiebe":6528,"roh":6529,"Ġober":6530,"irk":6531,"ideos":6532,"Ġgewesen":6533,"Ġ(âĢŀ":6534,"ĠWohnung":6535,"Ġsodass":6536,"ĠauÃŁerdem":6537,"ĠWerden":6538,"Ã¼ren":6539,"918":6540,"Ġmittler":6541,"bestimmungen":6542,"ĠVerkehrs":6543,"flÃ¼":6544,"ĠAngel":6545,"holen":6546,"nNews":6547,"356":6548,"ĠFreizeit":6549,"Ġzahlreiche":6550,"181":6551,"Ġhe":6552,"Ġgesamte":6553,"209":6554,"arbeitungs":6555,"olen":6556,"solvenz":6557,"ĠOder":6558,"nKosten":6559,"Analy":6560,"ĠUmfang":6561,"nborlabs":6562,"Ãľber":6563,"nSpeichern":6564,"Â²":6565,"ĠLive":6566,"ategie":6567,"295":6568,"8198054":6569,"Ġzer":6570,"iser":6571,"Ġ$":6572,"ĠVimeo":6573,"Ġoptimieren":6574,"zÃ¤hl":6575,"ĠpersÃ¶nliche":6576,"Ex":6577,"film":6578,"nTel":6579,"Ġbewachen":6580,"nMan":6581,"ĠAufgabe":6582,"ining":6583,"334":6584,"design":6585,"nTwitter":6586,"ĠSteu":6587,"Ġabonnieren":6588,"kont":6589,"Ġanderes":6590,"ĠzusammenschlieÃŁen":6591,"leister":6592,"ĠBunde":6593,"Ġmusst":6594,"maschinen":6595,"Ġbald":6596,"rise":6597,"ĠHor":6598,"Ġzusammentun":6599,"9937":6600,"948":6601,"sÃ¤chlich":6602,"ĠSÃ¼":6603,"ĠFreunde":6604,"Ġandern":6605,"Ġsorgt":6606,"gern":6607,"ĠProjekte":6608,"Ġlieber":6609,"ĠHinweis":6610,"OC":6611,"Ġbeide":6612,"Ġsechs":6613,"Ġgeschlechts":6614,"gi":6615,"echan":6616,"961":6617,"Ã¡":6618,"ĠmÃ¶glichst":6619,"/\"},\"":6620,"Ġbezeichnet":6621,"ĠDarstellung":6622,"ĠAngst":6623,"180":6624,"ĠnÃ¤mlich":6625,"Ġspielt":6626,"ĠStandort":6627,"ĠUrheber":6628,"ĠPunkte":6629,"nJa":6630,"play":6631,"Ġentfernen":6632,"ĠMartin":6633,"ĠPal":6634,"ĠVerÃ¤nder":6635,"Ġsolchen":6636,"ĠKalender":6637,"ĠAlex":6638,"ĠTraum":6639,"messer":6640,"Ġsprechen":6641,"Ġmehreren":6642,"Ġzusammenspannen":6643,"amilien":6644,"Ġ@":6645,"Ġnotwendige":6646,"afft":6647,"ĠUmgebung":6648,"lÃ¶sung":6649,"jÃ¤hrige":6650,"ĠAufsicht":6651,"ĠÃĦnderung":6652,"555":6653,"geschrieben":6654,"278":6655,"ynam":6656,"Ġdefin":6657,"Ġdiver":6658,"Ã¤lte":6659,"ĠJohn":6660,"âĢľ)":6661,"SC":6662,"uelle":6663,"Ġau":6664,"Ġbesondere":6665,"ometer":6666,"nAnmelden":6667,"liga":6668,"280":6669,"Ġinfo":6670,"ause":6671,"ĠVerpflicht":6672,"\\\".":6673,"Ch":6674,"ĠRegistrierung":6675,"onnement":6676,"9906":6677,"omaten":6678,"ĠSim":6679,"ucher":6680,"empla":6681,"941":6682,"politik":6683,"Pal":6684,"zy":6685,"463":6686,"Ġmelden":6687,"hause":6688,"nStatistik":6689,"ĠErlebnis":6690,"ING":6691,"9905":6692,"zent":6693,"Ġgelesen":6694,"ĠGrÃ¼nde":6695,"stimmung":6696,"rÃ¤f":6697,"ĠAnforderungen":6698,"illa":6699,"281":6700,"mmern":6701,"ĠInt":6702,"nHin":6703,"ĠauÃŁerhalb":6704,"9922":6705,"HA":6706,"nBild":6707,"ĠHann":6708,"ĠLÃ¤ndern":6709,"Ġvergangenen":6710,"maschine":6711,"ĠErfÃ¼llung":6712,"einstellung":6713,"Ġscheint":6714,"onen":6715,"Nach":6716,"Ġporno":6717,"Ġunterschiedlichen":6718,"arn":6719,"mlich":6720,"anc":6721,"Ġgaran":6722,"467":6723,"ĠFreude":6724,"ĠUrsprung":6725,"lern":6726,"ĠFÃ¤h":6727,"Ġentwickeln":6728,"forum":6729,"alitÃ¤ten":6730,"Ġledig":6731,"ĠDamen":6732,"behalten":6733,"stellungs":6734,"deckt":6735,"556":6736,"ĠLehrstuhl":6737,"leger":6738,"projekt":6739,"Stre":6740,"eed":6741,"ris":6742,"ĠFahrrad":6743,"kÃ¼n":6744,"betrieb":6745,"ĠSache":6746,"ypto":6747,"ĠInformations":6748,"9947":6749,"wortet":6750,"shop":6751,"ĠNet":6752,"ĠBedÃ¼rf":6753,"ĠMot":6754,"Ġlaut":6755,"ating":6756,"âĢľ-":6757,"ochter":6758,"elligen":6759,"ĠWohl":6760,"ĠnebensÃ¤chlich":6761,"nBest":6762,"iat":6763,"ival":6764,"ĠTool":6765,"ĠPubl":6766,"bildungs":6767,"ĠKreuz":6768,"Ġschwier":6769,"ĠInterview":6770,"Ġteilweise":6771,"Ġletzte":6772,"Ġangegeben":6773,"ĠProduktion":6774,"9904":6775,"nBeitrag":6776,"zut":6777,"ĠAusgabe":6778,"ĠArten":6779,"ĠbeilÃ¤ufig":6780,"Ġnachrangig":6781,"ĠÐ":6782,"rimin":6783,"ĠKol":6784,"Vers":6785,"Ġlediglich":6786,"Ġbeschrieben":6787,"ternehmer":6788,"Ġstatistische":6789,"ĠBaby":6790,"ĠVertreterin":6791,"Ġform":6792,"ĠAktion":6793,"ĠNov":6794,"ield":6795,"Administration":6796,"ĠCom":6797,"ulen":6798,"splan":6799,"MG":6800,"Reg":6801,"ĠZer":6802,"ĠEp":6803,"Ġzuerst":6804,"ted":6805,"Ġalte":6806,"sitz":6807,"ierend":6808,"557":6809,"ĠKirchen":6810,"ĠPC":6811,"nPreis":6812,"tifik":6813,"chem":6814,"icrosoft":6815,"Euro":6816,"ĠSinn":6817,"ĠTemperatur":6818,"ĠMetall":6819,"ĠÃ¼brigen":6820,"ĠBlock":6821,"zunehmen":6822,"Ġ000":6823,"onnenten":6824,"zert":6825,"Ġbenutzen":6826,"ĠOrganisation":6827,"ski":6828,"023":6829,"ĠFass":6830,"ĠArbeiten":6831,"ĠsÃ¤m":6832,"TA":6833,"ĠmirGefÃ¤llt":6834,"8658":6835,"Im":6836,"fangen":6837,"ĠAusland":6838,"ĠExperten":6839,"ĠOpti":6840,"ola":6841,"linge":6842,"risch":6843,"stallation":6844,"agieren":6845,"ĠViele":6846,"ĠGottes":6847,"ĠPrem":6848,"ĠForen":6849,"barer":6850,"ĠUkraine":6851,"Ġzust":6852,"ĠSing":6853,"fordern":6854,"erseits":6855,"Ġseines":6856,"sprÃ¼n":6857,"ĠWeibs":6858,"tor":6859,"ĠdurchgefÃ¼hrt":6860,"ĠAk":6861,"np":6862,"ĠProfess":6863,"109":6864,"Ã¼hrt":6865,"Ġgenannt":6866,"artet":6867,"tierte":6868,"ĠÃľberblick":6869,"ixel":6870,"Ġaktiviert":6871,"ones":6872,"Sie":6873,"zte":6874,"Ġbekommt":6875,"ĠEinstellung":6876,"026":6877,"ĠGefÃ¼hl":6878,"UF":6879,"ĠWeibsstÃ¼ck":6880,"kultur":6881,"sident":6882,"ĠgewÃ¼nsch":6883,"014":6884,"Ġehemal":6885,"392":6886,"WS":6887,"lab":6888,"MP":6889,"ĠVerantwortung":6890,"337":6891,"ĠBusiness":6892,"ĠJu":6893,"ĠÃ¼bermittelt":6894,"ĠdurchzufÃ¼hren":6895,"ĠEinschrÃ¤nkung":6896,"nweiter":6897,"utton":6898,"ĠID":6899,"ĠMÃ¤r":6900,"9914":6901,"nahm":6902,"ros":6903,"ĠprÃ¼":6904,"Ã¼se":6905,"analyse":6906,"ossen":6907,"ĠCor":6908,"ĠUrs":6909,"Ġrel":6910,"9937474":6911,"Ġberaten":6912,"mand":6913,"Ġfahren":6914,"Ã¤ck":6915,"eiert":6916,"kla":6917,"354":6918,"ĠPersÃ¶n":6919,"nService":6920,"ieÃŁ":6921,"KE":6922,"ĠUntersuch":6923,"ĠLeit":6924,"ĠeinschlieÃŁlich":6925,"Ġstamm":6926,"366":6927,"ĠMy":6928,"dienen":6929,"99773":6930,"333":6931,"igungs":6932,"664":6933,"Ġwissenschaft":6934,"ĠWird":6935,"stÃ¤r":6936,"forderung":6937,"macherei":6938,"ĠInsolvenz":6939,"ĠPflicht":6940,"ĠWeibsen":6941,"ĠbeeintrÃ¤ch":6942,"Alle":6943,"731":6944,"Ġentweder":6945,"ĠErsatz":6946,"drich":6947,"ĠStartseite":6948,"ĠDeshalb":6949,"024":6950,"Ã¶rt":6951,"erspe":6952,"ktiven":6953,"932":6954,"+\\":6955,"Ã¼sseld":6956,"Ġtoll":6957,"verbind":6958,"ĠBedingungen":6959,"Art":6960,"ĠHochzeit":6961,"DS":6962,"bereit":6963,"ĠÃ¼bernehmen":6964,"ĠProdukten":6965,"eins":6966,"ĠMul":6967,"spartner":6968,"ĠTheater":6969,"air":6970,"ĠWL":6971,"OLLOLL":6972,">\\":6973,"TER":6974,"Ã¼hle":6975,"ĠSchlag":6976,"119":6977,"353":6978,"produkte":6979,"ĠKÃ¼nstler":6980,"Ġpasst":6981,"ĠBedarf":6982,"ĠschÃ¼tzen":6983,"stands":6984,"ĠOffen":6985,"Ġdanach":6986,"une":6987,"ĠLeipzig":6988,"laube":6989,"Pf":6990,"ĠDS":6991,"akten":6992,"ppchen":6993,"Ġziehen":6994,"AV":6995,"ĠKampf":6996,"{{":6997,"ĠSensations":6998,"ĠnÃ¤chste":6999,"nTeilen":7000,"ologischen":7001,"nUr":7002,"Ġkla":7003,"952":7004,"Ġtechnischen":7005,"ikon":7006,"nPost":7007,"ĠRÃ¤":7008,"Ġkn":7009,"Ġbequem":7010,"IY":7011,"otos":7012,"ĠLeser":7013,"nMo":7014,"emitt":7015,"iar":7016,"ĠBegriff":7017,"Ġgenauso":7018,"nArchiv":7019,"9928":7020,"120":7021,"Ġunterwegs":7022,"ĠlÃ¤uft":7023,"trÃ¤ge":7024,"665":7025,"ards":7026,"ĠAbsatz":7027,"Ġehr":7028,"rÃ¤ume":7029,"arzt":7030,"Ġausgeb":7031,"Ġ2003":7032,"Ġlok":7033,"8886924":7034,"Ġweder":7035,"ĠSchweizer":7036,"808":7037,"Log":7038,"Ġessenzielle":7039,"015":7040,"Ġphp":7041,"echseln":7042,"Ġabgeschlossen":7043,"ĠSensationsmacherei":7044,"112":7045,"ĠWild":7046,"ĠHund":7047,"ĠÃ¤hnlichen":7048,"jÃ¤hrigen":7049,"hs":7050,"ĠSign":7051,"âĢĶâĢĶ":7052,"094":7053,"Stand":7054,"dessen":7055,"ĠDoppel":7056,"ĠgewÃ¤hrleisten":7057,"415":7058,"obs":7059,"Ġfalls":7060,"Ġvoraus":7061,"enntnisse":7062,"ĠGewalt":7063,"Ġnah":7064,"Ġvertreten":7065,"aaaa":7066,"mie":7067,"ĠDritter":7068,"ĠKer":7069,"Ġbeant":7070,"nStartseite":7071,"820":7072,"ĠBekannt":7073,"ĠgewÃ¼nscht":7074,"aw":7075,"ĠPodcast":7076,"818":7077,"nVersand":7078,"mine":7079,"BS":7080,"ical":7081,"ĠÃĸl":7082,"ius":7083,"baut":7084,"951":7085,"raten":7086,"rand":7087,"kunde":7088,"lichten":7089,"irn":7090,"Ġabw":7091,"Ġnahe":7092,"ley":7093,"Ã¤st":7094,"ĠRab":7095,"halter":7096,"baum":7097,"ĠForschungs":7098,"ĠUnterricht":7099,"page":7100,"aschen":7101,"vin":7102,"Ã¤ne":7103,"PL":7104,"Ġandernfalls":7105,"ildern":7106,"ĠKombin":7107,"IF":7108,"ĠHu":7109,"654":7110,"Ġkontaktieren":7111,"ĠKooper":7112,"ĠJavaScript":7113,"ĠgrundsÃ¤tzlich":7114,"ĠUmstÃ¤nden":7115,"ĠForschung":7116,"ners":7117,"za":7118,"ĠergÃ¤n":7119,"fung":7120,"wurf":7121,"Ġdisk":7122,"sprÃ¼che":7123,"lies":7124,"ĠAben":7125,"ĠBall":7126,"Wer":7127,"ĠGewÃ¤hr":7128,"ses":7129,"Ġentgegen":7130,"ender":7131,"Ġabsolut":7132,"ĠAuss":7133,"666":7134,"Inhalte":7135,"ĠLÃ¶sungen":7136,"werben":7137,"ĠChance":7138,"fÃ¤lle":7139,"****":7140,"075":7141,"nw":7142,"ĠWordPress":7143,"RE":7144,"ror":7145,"iveau":7146,"PA":7147,"rankungen":7148,"Ġeffe":7149,"Ġtyp":7150,"Ġzumindest":7151,"ĠNutzerer":7152,"Ġsucht":7153,"nJe":7154,"Ġhal":7155,"punkte":7156,"spann":7157,"ĠLern":7158,"Ġerh":7159,"verstÃ¤ndlich":7160,"laufen":7161,"ĠAbonnenten":7162,"025":7163,"nNovember":7164,"832":7165,"ĠChristian":7166,"ther":7167,"ĠHÃ¼":7168,"ĠtÃ¤glich":7169,"Ġ300":7170,"ĠÃ¼berwie":7171,"ĠfÃ¤llt":7172,"ĠKern":7173,"8360":7174,"funk":7175,"942":7176,"ĠSqu":7177,"Ġintens":7178,"ĠBildungs":7179,"rauen":7180,"auern":7181,"Ġag":7182,"XL":7183,"Ġwobei":7184,"âĢľ.\\":7185,"Ġunters":7186,"ĠDav":7187,"nWelche":7188,"Ġ36":7189,"Ġschrift":7190,"ĠMas":7191,"mund":7192,"Ġbestimmt":7193,"959344":7194,"VG":7195,"ĠbetrÃ¤gt":7196,"KL":7197,"ĠEdel":7198,"Ġberechtigten":7199,"ĠEndgerÃ¤t":7200,"nk":7201,"umin":7202,"129":7203,"ali":7204,"ĠgrÃ¶ÃŁten":7205,"ĠMitte":7206,"Ġjunge":7207,"lichkeiten":7208,"=\\\"":7209,"Ġseien":7210,"ĠTrend":7211,"Ġzuk":7212,"ĠnatÃ¼rliche":7213,"212":7214,"ĠLebensmittel":7215,"Ġzufrieden":7216,"nWebsite":7217,"datum":7218,"nMeine":7219,"itness":7220,"Ġerfolgen":7221,"vi":7222,"gress":7223,"Ġberuf":7224,"zeichnis":7225,"ĠVit":7226,"ĠRegierung":7227,"waltungs":7228,"ĠInternational":7229,"ĠAlles":7230,"ĠMacht":7231,"PN":7232,"wertet":7233,"ĠSchÃ¤den":7234,"ĠDrei":7235,"bÃ¼cher":7236,"Ġse":7237,"002":7238,"Dien":7239,"ĠTeile":7240,"qualitÃ¤t":7241,"ĠDaher":7242,"artig":7243,"Ġanbieten":7244,"364":7245,"ateien":7246,"merz":7247,"VD":7248,"Ġverlin":7249,"achtet":7250,"030":7251,"ĠSchwarz":7252,"Man":7253,"leiben":7254,"ace":7255,"Ġgeh":7256,"vÃ¶lk":7257,"8658916":7258,"nRecht":7259,"ĠTransport":7260,"461":7261,"Ã¤mm":7262,"schlÃ¤ge":7263,"schlÃ¼ssel":7264,"koll":7265,"onto":7266,"ĠBenutzern":7267,"ĠSpam":7268,"Markt":7269,"Ġerster":7270,"ĠWare":7271,"ĠVorlieben":7272,"nose":7273,"ogel":7274,"ĠâĨĴ\\":7275,"ki":7276,"9886":7277,"ĠFran":7278,"ĠMiss":7279,"Ġextrem":7280,"riebe":7281,"llen":7282,"nThe":7283,"door":7284,"ĠGo":7285,"ĠVater":7286,"nEn":7287,"ĠfrÃ¼h":7288,"ĠAuswirkungen":7289,"ĠkÃ¼":7290,"item":7291,"ini":7292,"ĠAkk":7293,"sequ":7294,"ecessary":7295,"Ġentdecken":7296,"tipps":7297,"ĠAir":7298,"wendungs":7299,"Shop":7300,"anter":7301,"Ã¤hlte":7302,"sf":7303,"Ġ32":7304,"Ġegal":7305,"check":7306,"ĠOper":7307,"ĠFol":7308,"Ġangegebenen":7309,"barung":7310,"wid":7311,"Ges":7312,"nNeueste":7313,"brauch":7314,"242":7315,"Ġgleichen":7316,"Ã¼bung":7317,"ĠAnschluss":7318,"ĠWege":7319,"ĠPress":7320,"ĠManager":7321,"ĠÃ¤lter":7322,"ĠHans":7323,"Ġpsych":7324,"ĠBro":7325,"Ġ65":7326,"ĠDurchfÃ¼hrung":7327,"ĠAktivitÃ¤ten":7328,"2012":7329,"aming":7330,"969":7331,"ĠSw":7332,"ĠRechtsan":7333,"ĠBeim":7334,"ous":7335,"nm":7336,"Ġdigitalen":7337,"Ġtot":7338,"greifen":7339,"''":7340,"ĠmÃ¶chtest":7341,"Ġproduz":7342,"aat":7343,"tr":7344,"Ġ2002":7345,"Ġverloren":7346,"Ġtran":7347,"ĠTraining":7348,"ministerium":7349,"ĠClub":7350,"Richt":7351,"speich":7352,"orts":7353,"dom":7354,"98634":7355,"oom":7356,"AZ":7357,"ĠPrÃ¤ferenzen":7358,"ĠÃĸffent":7359,"ried":7360,"ĠwÃ¼nschen":7361,"HK":7362,"Ġ44":7363,"Ġergeben":7364,"Es":7365,"Ġrei":7366,"staat":7367,"ower":7368,"ĠFlÃ¤":7369,"016":7370,"ĠDokument":7371,"ĠHaftung":7372,"Ã¼ter":7373,"ĠTexte":7374,"Ġwenigen":7375,"ĠPrÃ¼fung":7376,"val":7377,"ĠMorgen":7378,"939":7379,"809":7380,"Ġreicht":7381,"ĠBereichen":7382,"ĠPri":7383,"Ġsolltest":7384,"ĠHuman":7385,"Co":7386,"9992":7387,"Ġversuchen":7388,"lassung":7389,"hÃ¤ngig":7390,"ĠKontaktformular":7391,"1403":7392,"nSchlieÃŁen":7393,"ĠZwischen":7394,"usion":7395,"ĠNutzungs":7396,"liegt":7397,"time":7398,"ommerce":7399,"ĠNeue":7400,"068":7401,"ĠIntegr":7402,"ndie":7403,"The":7404,"jo":7405,"ders":7406,"uz":7407,"ĠDeutschlands":7408,"SE":7409,"83413":7410,"nDetails":7411,"ĠWel":7412,"ĠSchloss":7413,"Ġschwarz":7414,"ĠMÃ¤dchen":7415,"ĠCont":7416,"Ġsammeln":7417,"Produ":7418,"lÃ¤nd":7419,"ĠRoman":7420,"ivil":7421,"9373":7422,"ĠErschein":7423,"ĠUmsetzung":7424,"9903":7425,"reff":7426,"ĠFelder":7427,"ĠgenieÃŁen":7428,"ĠGebrauch":7429,"nicht":7430,"Ġdra":7431,"ĠKlasse":7432,"Ġvorbehalten":7433,"Funktion":7434,"endung":7435,"Ġeinger":7436,"machen":7437,"Ġverlassen":7438,"online":7439,"erken":7440,"rÃ¶":7441,"ĠgeÃ¶ffnet":7442,"sg":7443,"ĠDep":7444,"ĠAlb":7445,"nMeta":7446,"Ġtolle":7447,"klasse":7448,"8360984":7449,"ĠTod":7450,"Ġsicht":7451,"268":7452,"Ġmittel":7453,"Ġhoff":7454,"ĠDro":7455,"aub":7456,"kunden":7457,"Ġfinan":7458,"Ser":7459,"Ã¤hrt":7460,"-\\":7461,"nHome":7462,"ĠverfÃ¼gt":7463,"ĠAufent":7464,"ĠSal":7465,"Ġsonstige":7466,"gewicht":7467,"Ġanzuzeigen":7468,"vÃ¶lkerung":7469,"Ġ49":7470,"554":7471,"ĠHeimat":7472,"ĠPfer":7473,"mens":7474,"Ġ//":7475,"nBes":7476,"ĠCanal":7477,"141":7478,"Ġanonymen":7479,"ĠBestimmungen":7480,"Ġmanchmal":7481,"ĠMiet":7482,"ĠKraftstoff":7483,"Ã¼ndigung":7484,"ĠBaden":7485,"hafen":7486,"fla":7487,"ftungs":7488,"218":7489,"Ġbetreffenden":7490,"919":7491,"regierung":7492,"ĠðŁĺ":7493,"brid":7494,"ĠLiebl":7495,"92483413":7496,"publik":7497,"okus":7498,"lÃ¤nder":7499,"schuhe":7500,"250":7501,"auch":7502,"ommunity":7503,"132":7504,"ĠPap":7505,"ĠRussland":7506,"ĠSP":7507,"knÃ¼":7508,"ĠMeister":7509,"9815":7510,"Ġfehl":7511,"Ġdamals":7512,"Ġdarum":7513,"handel":7514,"Ã¼sseldorf":7515,"bern":7516,"363":7517,"nProdukt":7518,"Ġausgestattet":7519,"ZE":7520,"anzeigen":7521,"edIn":7522,"NG":7523,"rollen":7524,"ĠMaterialien":7525,"xx":7526,"ĠAgen":7527,"deutsch":7528,"Ã¤ss":7529,"Ġladen":7530,"KG":7531,"Ġherr":7532,"iegen":7533,"Ġspeziell":7534,"ĠMass":7535,"DI":7536,"inkl":7537,"ZW":7538,"bindung":7539,"ppt":7540,"ĠSachsen":7541,"ĠphpBB":7542,"ĠWÃ¤hrend":7543,"ĠGeist":7544,"Ġfe":7545,"Ġtief":7546,"nDieser":7547,"Ġerleben":7548,"ĠEisen":7549,"ĠSee":7550,"Ġtelefon":7551,"ĠAnge":7552,"Ġzzgl":7553,"ront":7554,"omen":7555,"ĠMontag":7556,"ĠGeburtstag":7557,"uff":7558,"igungen":7559,"ehlungen":7560,"nTh":7561,"nMenÃ¼":7562,"251":7563,"Ġindividuell":7564,"ĠâĢļ":7565,"841":7566,"temberg":7567,"osophie":7568,"inken":7569,"ĠTÃ¤tigkeit":7570,"ĠAblauf":7571,"2011":7572,"istenz":7573,"ĠRepublik":7574,"ĠDadurch":7575,"ĠHein":7576,"ĠKoch":7577,"ĠFalls":7578,"code":7579,"151":7580,"SA":7581,"nWeb":7582,"nl":7583,"ĠzukÃ¼nf":7584,"Mod":7585,"bedarf":7586,"ernt":7587,"epage":7588,"ĠCasino":7589,"Ġknapp":7590,"UP":7591,"entwicklung":7592,"BL":7593,"ĠWindows":7594,"berichte":7595,"838":7596,"ĠgegrÃ¼n":7597,"onts":7598,"Ġangen":7599,"oga":7600,"ympt":7601,"nBet":7602,"ĠZahlung":7603,"gliche":7604,"nPer":7605,"ĠgefÃ¤hr":7606,"9920":7607,"ĠCam":7608,"ĠTro":7609,"ĠGesicht":7610,"Ġunterschiedliche":7611,"ĠAnlage":7612,"656":7613,"zusetzen":7614,"ĠVerbesser":7615,"249":7616,"Ġgebracht":7617,"Ġbean":7618,"reig":7619,"ĠGelegenheit":7620,"ĠKop":7621,"ĠSÃ¤":7622,"ĠberÃ¼cks":7623,"ĠFrankreich":7624,"ĠBrief":7625,"obert":7626,"Ġziemlich":7627,"Ġbetrach":7628,"grÃ¶ÃŁe":7629,"ĠRelig":7630,"weitergabe":7631,"ktor":7632,"ĠEind":7633,"ĠBez":7634,"Ġ00":7635,"Ġint":7636,"ĠSpezial":7637,"221":7638,"ĠFC":7639,"hÃ¤nge":7640,"Ġdurchaus":7641,"ĠschlieÃŁlich":7642,"ĠKarte":7643,"vollen":7644,"Ã¶se":7645,"ĠUser":7646,"ĠMeine":7647,"ĠBade":7648,"ĠBÃ¤":7649,"versorgung":7650,"tionen":7651,"For":7652,"ĠLux":7653,"Ġfreiwillige":7654,"gÃ¤n":7655,"ĠjÃ¤hr":7656,"ĠCha":7657,"ĠPapier":7658,"Ã¼ltig":7659,"850":7660,"222":7661,"ĠTeilnahme":7662,"Ġeinzelne":7663,"ĠTiere":7664,"DP":7665,"ĠAufzeichnungen":7666,"139":7667,"870":7668,"sex":7669,"nZahl":7670,"Ġbi":7671,"klÃ¤rung":7672,"Ã¤ppchen":7673,"ĠGewicht":7674,"ĠSoSe":7675,"ĠPaul":7676,"8473":7677,"ĠPhys":7678,"ĠHoff":7679,"ĠHintergrund":7680,"ĠÃ¼":7681,"98634017":7682,"292":7683,"WR":7684,"347":7685,"Ġgewinnen":7686,"Ġraus":7687,"itektur":7688,"Ġsozial":7689,"fachen":7690,"ymbol":7691,"ĠSamm":7692,"ĠSeminar":7693,"forms":7694,"862":7695,"Ġfehlen":7696,"HS":7697,"ĠRechtsgrundlage":7698,"Ġfallen":7699,"Ġbeteil":7700,"ĠRechnung":7701,"ĠInfe":7702,"ĠKontrolle":7703,"harma":7704,"verkauf":7705,"ĠUhrzeit":7706,"ĠFolgenden":7707,"ĠBit":7708,"Ġhergestellt":7709,"abet":7710,"wenden":7711,"Ġnieder":7712,"ĠTechnologie":7713,"ump":7714,"Ġ150":7715,"Ġspricht":7716,"browser":7717,"Ġschlech":7718,"nei":7719,"ĠErde":7720,"031":7721,"ĠOptim":7722,"nOnline":7723,"uth":7724,"Ã¤tigung":7725,"Ġfrem":7726,"ĠStad":7727,"vo":7728,"lieb":7729,"Ġabbrechen":7730,"ĠAngabe":7731,"831":7732,"219":7733,"aching":7734,"ĠSquare":7735,"ĠhinzufÃ¼gen":7736,"berater":7737,"ĠGrenz":7738,"sorge":7739,"182":7740,"ĠWettbe":7741,"ĠErnÃ¤hrung":7742,"ĠverfÃ¼gen":7743,"ĠLED":7744,"tum":7745,"HM":7746,"nAd":7747,"ĠApple":7748,"Ġbenutzt":7749,"ĠWechsel":7750,"ated":7751,"ĠkÃ¶nnt":7752,"wende":7753,"pper":7754,"afÃ¼r":7755,"ĠMor":7756,"maÃŁnahmen":7757,"nLink":7758,"ĠDarÃ¼ber":7759,"ilien":7760,"zul":7761,"Ġwelchen":7762,"ĠSchne":7763,"kat":7764,"228":7765,"Ġlieben":7766,"300":7767,"schirm":7768,"ĠWelche":7769,"Ġfunction":7770,"nTer":7771,"ĠBew":7772,"9467":7773,"urlaub":7774,"ĠAnfragen":7775,"2436":7776,"ĠOrts":7777,"gat":7778,"ĠZustand":7779,"ĠRegeln":7780,"ostet":7781,"ĠQualitÃ¤ts":7782,"boden":7783,"steiger":7784,"Ġunmittel":7785,"ĠEntstehen":7786,"Ġabgel":7787,"bald":7788,"Map":7789,"ancen":7790,"Ġvermeiden":7791,"ehlung":7792,"852":7793,"ĠErinner":7794,"ĠRoll":7795,"032":7796,"Ã¶rungen":7797,"nungszeiten":7798,"ĠFakt":7799,"Um":7800,"nwww":7801,"sprechpartner":7802,"ĠLÃ¼":7803,"nSuchen":7804,"detail":7805,"Ð°":7806,"Ġbegeist":7807,"240":7808,"ĠKra":7809,"dis":7810,"ĠMaster":7811,"ĠMÃ¶bel":7812,"ĠÃ¶ffnen":7813,"nTechn":7814,"ĠInsel":7815,"ral":7816,"Ġwirkt":7817,"848":7818,"ĠSchnitt":7819,"Ġfach":7820,"ĠGeheim":7821,"ĠLese":7822,"GVO":7823,"288":7824,"Ġfolgt":7825,"ĠChina":7826,"FakultÃ¤t":7827,"dienste":7828,"hÃ¤nger":7829,"ĠBewegung":7830,"Ġwor":7831,"fli":7832,"ĠGrenzen":7833,"ĠDatenweitergabe":7834,"ĠDel":7835,"ÃĹ\\":7836,"passt":7837,"842":7838,"Ġbeob":7839,"Ġ43":7840,"nTe":7841,"ĠAs":7842,"ĠDenk":7843,"ines":7844,"FS":7845,"ahnen":7846,"131":7847,"nWiderruf":7848,"weisung":7849,"231":7850,"datenschutz":7851,"Ġsparen":7852,"ĠgrÃ¶ÃŁte":7853,"itiative":7854,"the":7855,"fÃ¶rder":7856,"oben":7857,"ĠTherapie":7858,"Ġdunk":7859,"anbieters":7860,"ĠhÃ¶ren":7861,"UG":7862,"ĠGefahr":7863,"Ġfil":7864,"emente":7865,"windigkeit":7866,"iertes":7867,"RT":7868,"nDezember":7869,"gal":7870,"ZT":7871,"ischem":7872,"ĠRedaktion":7873,"fÃ¼hrten":7874,"Ġumfang":7875,"Ġentstanden":7876,"861":7877,"ĠZentr":7878,"gy":7879,"elen":7880,"229":7881,"isierte":7882,"letzt":7883,"sm":7884,"link":7885,"freien":7886,"aratur":7887,"400":7888,"Ġgekommen":7889,"Ġsorg":7890,"nSeit":7891,"egel":7892,"Ġzulassen":7893,"169":7894,"Ġpassenden":7895,"Ġschneller":7896,"ĠStunde":7897,"152":7898,"149":7899,"Ġanalysieren":7900,"ĠNa":7901,"Ã¶rung":7902,"Ġsolcher":7903,"ĠGeschmack":7904,"Sh":7905,"Ġwenige":7906,"fahrer":7907,"ĠVi":7908,"ĠSchiff":7909,"Ġumfasst":7910,"ĠunabhÃ¤ngig":7911,"Ã¶rdert":7912,"erenz":7913,"ĠRÃ¶":7914,"reck":7915,"Ã¼cke":7916,"achel":7917,"ĠSpeicher":7918,"Ġfertig":7919,"ĠArbeitgeber":7920,"Ġmass":7921,"Ġed":7922,"ĠAktien":7923,"ĠVergangen":7924,"bilder":7925,"bett":7926,"Or":7927,"FL":7928,"acke":7929,"ordnungs":7930,"ĠWarum":7931,"ĠRec":7932,"konto":7933,"eilt":7934,"732":7935,"RD":7936,"160":7937,"Ġdenken":7938,"rah":7939,"schauen":7940,"ĠTracking":7941,"ĠglÃ¼ck":7942,"ĠStÃ¤r":7943,"nSchlag":7944,"ĠMikro":7945,"Ġpol":7946,"ĠnÃ¤her":7947,"rib":7948,"140":7949,"AK":7950,"izieren":7951,"Ġstarten":7952,"zern":7953,"Ġnotwendigen":7954,"ikal":7955,"ĠHome":7956,"ï¿":7957,"ĠPil":7958,"ĠerhÃ¤ltlich":7959,"gemÃ¤ÃŁ":7960,"252":7961,"formen":7962,"nKinder":7963,"OB":7964,"ĠBeschwer":7965,"ĠGroup":7966,"schÃ¶n":7967,"ĠlÃ¤ng":7968,"splatz":7969,"liminar":7970,"Ġklicke":7971,"Ġhalt":7972,"denk":7973,"Cookie":7974,"toff":7975,"nBeitrÃ¤ge":7976,"ĠGÃ¶":7977,"Ġinternationalen":7978,"halle":7979,"902":7980,"Ġbisschen":7981,"ĠerfÃ¼llt":7982,"ĠMedik":7983,"Analysen":7984,"ĠPower":7985,"Ġinklusive":7986,"ĠPrÃ¤liminar":7987,"Ġmittlerweile":7988,"mat":7989,"verwaltung":7990,"Ã¼cher":7991,"Ġdigitale":7992,"Ġspeichert":7993,"Ġwichtigen":7994,"filter":7995,"ĠgeschÃ¼tzt":7996,"Ġ94":7997,"ĠMuseum":7998,"aller":7999,"cel":8000,"euten":8001,"ĠInnovation":8002,"eistungs":8003,"Â´":8004,"inkel":8005,"Ġ46":8006,"ĠBeteil":8007,"ĠvielfÃ¤l":8008,"ĠerwÃ¤":8009,"ĠEreig":8010,"Mark":8011,"frastruktur":8012,"________________":8013,"ĠPartei":8014,"ĠWorks":8015,"ĠMi":8016,"Ġglob":8017,"ibil":8018,"part":8019,"nCopyright":8020,"zwei":8021,"ĠSupp":8022,"ĠBeschÃ¤f":8023,"ads":8024,"LS":8025,"schla":8026,"ĠInteress":8027,"Ġschreibt":8028,"rate":8029,"239":8030,"steh":8031,"achtung":8032,"nPresse":8033,"ĠBlack":8034,"IX":8035,"Ġdeaktiviert":8036,"Ġbislang":8037,"Ġstr":8038,"nMai":8039,"9265":8040,"nDr":8041,"ĠVarian":8042,"Ġabgerufenen":8043,"ĠAufbewahr":8044,"hnliche":8045,"Ġvis":8046,"ĠSPD":8047,"ĠMaschinen":8048,"ĠFranz":8049,"tial":8050,"UV":8051,"hoch":8052,"ĠHof":8053,"ico":8054,"unkten":8055,"Ġ34":8056,"Ġsub":8057,"hu":8058,"ĠHandwerk":8059,"EIN":8060,"Ġregion":8061,"imp":8062,"Ġneg":8063,"ĠMarke":8064,"rÃ¼st":8065,"ĠRechtsver":8066,"kohol":8067,"ĠOpen":8068,"pon":8069,"ĠÃ¼berw":8070,"ĠHeiz":8071,"Le":8072,"AX":8073,"Ġjung":8074,"830":8075,"scheidet":8076,"238":8077,"nissen":8078,"ĠWochenende":8079,"ĠBoards":8080,"ĠJes":8081,"ĠSchwerpunkt":8082,"Street":8083,"nAktuelle":8084,"ato":8085,"andid":8086,"ĠHandels":8087,"138":8088,"holung":8089,"ĠMarketingzwecken":8090,"metho":8091,"161":8092,"Techn":8093,"Ġangefordert":8094,"ĠgÃ¼nstig":8095,"162":8096,"ĠFrieden":8097,"Ġallgemeinen":8098,"ĠAch":8099,"ĠzuverlÃ¤ss":8100,"ĠMindest":8101,"ĠRezept":8102,"Ġpost":8103,"ĠGrad":8104,"folgenden":8105,"holt":8106,"leider":8107,"ĠNun":8108,"een":8109,"strahl":8110,"Ã¶rdern":8111,"nur":8112,"KS":8113,"schrank":8114,"nJuli":8115,"rhein":8116,"nOktober":8117,"omin":8118,"ĠHandel":8119,"Ġlief":8120,"ebe":8121,"Ġarbeitet":8122,"Ġtreten":8123,"Ġkre":8124,"Ġwann":8125,"essour":8126,"ĠKG":8127,"Ġinnov":8128,"orie":8129,"-)":8130,"Ġ;":8131,"ĠðŁĻ":8132,"ĠTochter":8133,"ĠhÃ¤tten":8134,"instagram":8135,"ĠRuhe":8136,"Ġregistrieren":8137,"wÃ¼n":8138,"Ġflex":8139,"Ġversucht":8140,"ĠHistor":8141,"ĠverÃ¶ffentlich":8142,"Ġeigener":8143,"ioren":8144,"nSte":8145,"nSeptember":8146,"Ġeiniger":8147,"ĠWeiterlesen":8148,"258":8149,"atsApp":8150,"wal":8151,"wp":8152,"Ġentspricht":8153,"Ġdenk":8154,"142":8155,"9907":8156,"Ġindividuelle":8157,"159":8158,"uls":8159,"ĠKompon":8160,"nNutzungsbedingungen":8161,"sti":8162,"ĠWal":8163,"272":8164,"ĠLaden":8165,"ĠursprÃ¼n":8166,"uchtung":8167,"Ġattra":8168,"Ġsobald":8169,"itzung":8170,"880":8171,"ĠRob":8172,"ĠFo":8173,"coin":8174,"affel":8175,"Ġangemessen":8176,"nKeine":8177,"ugen":8178,"ĠLab":8179,"iertel":8180,"eis":8181,"ĠSpr":8182,"210":8183,"agn":8184,"Ã¤dagogik":8185,"ĠVerwaltung":8186,"krieg":8187,"Ġbewusst":8188,"ĠBot":8189,"nam":8190,"ĠWeihnachten":8191,"282":8192,"Ġdrin":8193,"959":8194,"Ġkostenlose":8195,"nDeutsch":8196,"helm":8197,"schulen":8198,"ffffffff":8199,"ross":8200,"ĠRem":8201,"word":8202,"ĠTyp":8203,"ï¿½":8204,"ĠAufbau":8205,"arif":8206,"wendige":8207,"Ġschlecht":8208,"9896":8209,"NS":8210,"drÃ¼cken":8211,"wirken":8212,"851":8213,"spekt":8214,"ĠCol":8215,"ĠRÃ¼cken":8216,"ĠDomain":8217,"OX":8218,"ĠTim":8219,"Ġgesamm":8220,"98464":8221,"DM":8222,"stahl":8223,"nAber":8224,"Ġank":8225,"ĠLust":8226,"Ġeinsteigen":8227,"Ġverkaufen":8228,"rÃ¤um":8229,"Ġfalsch":8230,"Ġbl":8231,"Aut":8232,"367":8233,"EX":8234,"spielen":8235,"9723":8236,"itle":8237,"opf":8238,"angs":8239,"boten":8240,"9945743":8241,"ĠPrakti":8242,"rael":8243,"itor":8244,"staaten":8245,"NL":8246,"Ġfunktionieren":8247,"rechnung":8248,"oge":8249,"ĠNutzerprofile":8250,"9727":8251,"ĠVerÃ¶ffentlich":8252,"wander":8253,"ĠAusstellung":8254,"Ġmensch":8255,"web":8256,"ĠFÃ¶rderung":8257,"Ġsogenannte":8258,"ĠstÃ¤ndig":8259,"042":8260,"ĠWeiÃŁ":8261,"indust":8262,"Ġguter":8263,"nGe":8264,"Ġprivaten":8265,"158":8266,"folgt":8267,"VB":8268,"ĠSachen":8269,"Ġinvest":8270,"ĠÃľbermittlung":8271,"Ġjur":8272,"WL":8273,"ampe":8274,"ĠKontaktdaten":8275,"lack":8276,"dient":8277,"Ġlangsam":8278,"atze":8279,"Ġkur":8280,"undert":8281,"ĠprÃ¼fen":8282,"Ġweisen":8283,"Ġant":8284,"192":8285,"PC":8286,"udwig":8287,"232":8288,"ĠTher":8289,"ĠBeziehung":8290,"148":8291,"nMar":8292,"nJuni":8293,"771":8294,"timent":8295,"868":8296,"Ġgefallen":8297,"Ġelektronisches":8298,"Ġpassende":8299,"ĠSurf":8300,"ĠKant":8301,"ĠausfÃ¼hr":8302,"Ġtradition":8303,"188":8304,"ĠBonus":8305,"ĠtrÃ¤gt":8306,"Ġruh":8307,"Ġsteigen":8308,"Ġ(*":8309,"sprechend":8310,"zene":8311,"nNicht":8312,"nInter":8313,"ĠAusÃ¼bung":8314,"Ã¤nn":8315,"860":8316,"Ġbestell":8317,"Form":8318,"858":8319,"ĠHÃ¤nd":8320,"ĠDÃ¼sseldorf":8321,"Gesch":8322,"ĠParty":8323,"Ġirgendeiner":8324,"Nr":8325,"ĠNachhaltigkeit":8326,"ĠGrab":8327,"IER":8328,"antas":8329,"beauftrag":8330,"ĠZusatz":8331,"ainer":8332,"ĠAmts":8333,"nKunden":8334,"ĠZuf":8335,"nAugust":8336,"testen":8337,"uminium":8338,"tere":8339,"ĠJung":8340,"ĠNachbar":8341,"261":8342,"sc":8343,"Ġerwarten":8344,"scheint":8345,"Ġalleinigen":8346,"Ġruss":8347,"gas":8348,"ĠZiele":8349,"nApril":8350,"Ent":8351,"beck":8352,"ĠAug":8353,"produkt":8354,"Ġbegren":8355,"StreetMap":8356,"Ġzuletzt":8357,"Service":8358,"ĠKompetenz":8359,"ĠAdvent":8360,"882":8361,"ĠCharakter":8362,"ĠStudium":8363,"ĠAv":8364,"Ġvertrag":8365,"OF":8366,"agegen":8367,"ĠKaffee":8368,"dy":8369,"hlt":8370,"ĠFreiheit":8371,"Ġverurs":8372,"nFor":8373,"Ġausgel":8374,"Ġunber":8375,"ĠEvent":8376,"nX":8377,"ĠAnbieters":8378,"ĠZahlen":8379,"ĠAustausch":8380,"Ã¶sen":8381,"nf":8382,"Ġli":8383,"Ã¤llig":8384,"rip":8385,"ĠPlatforms":8386,"erkonto":8387,"ĠHandy":8388,"lÃ¤uter":8389,"Ġ1000":8390,"ĠsÃ¤mtliche":8391,"Ġjem":8392,"Ġkomplet":8393,"iefert":8394,"ĠFriedrich":8395,"ĠabhÃ¤ngig":8396,"071":8397,"ĠAusstattung":8398,"ordin":8399,"san":8400,"ĠMuster":8401,"888":8402,"178":8403,"obby":8404,"zeh":8405,"ĠDres":8406,"Ġschl":8407,"rete":8408,"Ġerwartet":8409,"ographie":8410,"171":8411,"gid":8412,"IZ":8413,"sendung":8414,"Angeb":8415,"ward":8416,"ĠFer":8417,"ĠDatum":8418,"ĠSur":8419,"ĠSchreib":8420,"Ġsogenannten":8421,"ĠFeed":8422,"ĠMig":8423,"tlichen":8424,"ĠDonnerstag":8425,"Ġverlieren":8426,"Ġexterne":8427,"ĠKlim":8428,"189":8429,"nDieses":8430,"AY":8431,"768":8432,"tete":8433,"ĠMatt":8434,"atterie":8435,"092":8436,"Ġevent":8437,"lament":8438,"Ġindividuellen":8439,"ĠOriginal":8440,"871":8441,"ĠFeuerwehr":8442,"ĠStefan":8443,"ĠDatenÃ¼ber":8444,"hi":8445,"Ġ2001":8446,"ĠUmsatz":8447,"ĠSilber":8448,"ĠStudie":8449,"ĠTurn":8450,"NT":8451,"019":8452,"ĠInternetdienst":8453,"ĠFein":8454,"ĠZeu":8455,"ya":8456,"ĠTermine":8457,"080":8458,"ĠhÃ¤ngt":8459,"kei":8460,"ĠSofern":8461,"ĠRang":8462,"ĠBrÃ¼":8463,"ĠKabel":8464,"Ġstabil":8465,"Ġbearbeiten":8466,"ĠSerie":8467,"upport":8468,"nRechts":8469,"UB":8470,"Ġheutigen":8471,"99905":8472,"krÃ¤fte":8473,"nGew":8474,"Ġsoziale":8475,"sbehÃ¶rde":8476,"ĠVereins":8477,"letzungen":8478,"ĠKeine":8479,"Ġbeginnen":8480,"271":8481,"Ġernst":8482,"ĠModelle":8483,"ESS":8484,"Ġerfasst":8485,"lÃ¼sse":8486,"nVorlieben":8487,"ĠZeitraum":8488,"ĠDigital":8489,"Ġdahin":8490,"andern":8491,"Ġaufgenommen":8492,"Ġ250":8493,"ĠSonne":8494,"ĠPet":8495,"ĠAGB":8496,"ĠmaÃŁ":8497,"008":8498,"ĠPlanung":8499,"nPf":8500,"ĠPosition":8501,"ĠWell":8502,"98464245":8503,"ĠmÃ¼s":8504,"Ġeinfache":8505,"uns":8506,"ĠAbhÃ¤ng":8507,"HG":8508,"ĠSemester":8509,"ommunik":8510,"061":8511,"995126":8512,"130":8513,"nJanuar":8514,"Ġverd":8515,"nAktuelles":8516,"ĠEigenschaften":8517,"8076":8518,"ĠKlass":8519,"ĠFunktionalitÃ¤t":8520,"alisieren":8521,"Ġwahrscheinlich":8522,"ĠZit":8523,"nTra":8524,"Bet":8525,"ollar":8526,"ĠAutoren":8527,"ĠLehrer":8528,"ĠkÃ¶rper":8529,"ĠInternetdienstanbieters":8530,"Ġjungen":8531,"Ġengl":8532,"ĠZÃ¼r":8533,"Ġtut":8534,"Ġentschieden":8535,"ĠWiderrufs":8536,"Ġtrifft":8537,"ave":8538,"Ġverk":8539,"ĠKommunikationsnetz":8540,"nMÃ¤rz":8541,"9894":8542,"rein":8543,"ĠSchei":8544,"si":8545,"ĠJournal":8546,"nSchn":8547,"ĠPop":8548,"ĠPre":8549,"Ġ?":8550,"ĠRegional":8551,"ĠHard":8552,"ĠSonst":8553,"okratie":8554,"ĠArm":8555,"archiv":8556,"ĠAufruf":8557,"8475":8558,"CL":8559,"Ġleisten":8560,"ĠStrand":8561,"ĠVermÃ¶gen":8562,"RG":8563,"heil":8564,"ĠNummer":8565,"ĠVER":8566,"ĠEinrichtung":8567,"ĠAbonnement":8568,"ration":8569,"179":8570,"rab":8571,"357":8572,"versammlung":8573,"gten":8574,"248":8575,"ĠSchl":8576,"Ã¼rttemberg":8577,"ĠCre":8578,"atisch":8579,"Ġliefern":8580,"2010":8581,"ĠRock":8582,"weiÃŁ":8583,"ĠTat":8584,"RM":8585,"Ġeinzige":8586,"ĠSchnÃ¤ppchen":8587,"ĠPDF":8588,"ĠKÃ¼chen":8589,"ĠST":8590,"ymn":8591,"urer":8592,"Ġdep":8593,"rÃ¤umen":8594,"HP":8595,"Ġunterschiedlich":8596,"bran":8597,"ĠAndreas":8598,"ĠCity":8599,"ĠStraf":8600,"ĠRu":8601,"ove":8602,"DL":8603,"loggen":8604,"9875":8605,"rÃ¼cken":8606,"nFebruar":8607,"Ġdaraus":8608,"prÃ¼fung":8609,"lernen":8610,"Ġwelchem":8611,"Ġzahlreichen":8612,"schaffen":8613,"ĠAlten":8614,"gestaltung":8615,"Ġbewegen":8616,"wirk":8617,"ĠKarl":8618,"nSport":8619,"tigten":8620,"RF":8621,"kampf":8622,"Ġerscheint":8623,"iefe":8624,"post":8625,"Ġdre":8626,"auspiel":8627,"ĠPriv":8628,"enken":8629,"878":8630,"ĠSohn":8631,"Ġregistriert":8632,"Daten":8633,"ĠKu":8634,"nLog":8635,"Ġ120":8636,"untain":8637,"761":8638,"ĠKlar":8639,"Ġgeladen":8640,"99805135":8641,"Ġfragen":8642,"ĠKarr":8643,"Ġuser":8644,"una":8645,"ĠFÃ¼hrung":8646,"ĠSprachen":8647,"bis":8648,"ĠAllerdings":8649,"038":8650,"Ġinteressant":8651,"ĠNutzers":8652,"ĠnÃ¶tig":8653,"nRegistr":8654,"kap":8655,"172":8656,"ĠeuropÃ¤ischen":8657,"ding":8658,"HW":8659,"nSon":8660,"CO":8661,"168":8662,"mond":8663,"290":8664,"SM":8665,"izi":8666,"iller":8667,"Ã¤tze":8668,"RK":8669,"agd":8670,"ĠTal":8671,"Ġwesent":8672,"9834":8673,"Ġverhinder":8674,"99998":8675,"Ġanerk":8676,"ĠChr":8677,"uristen":8678,"Ð¸":8679,"istisch":8680,"9865":8681,"ĠðŁĻĤ":8682,"ible":8683,"gebaut":8684,"lein":8685,"ĠÃ¼bergehen":8686,"762":8687,"9885":8688,"ĠSmartphone":8689,"ĠAlters":8690,"Ġentsteht":8691,"567":8692,"Ġbesitzen":8693,"872":8694,"ĠErforder":8695,"spiegel":8696,"058":8697,"TML":8698,"9895":8699,"abl":8700,"fuer":8701,"oden":8702,"99512625":8703,"geschn":8704,"ĠSet":8705,"Ġbesucht":8706,"ichert":8707,"ĠSel":8708,"Ġachten":8709,"ĠBerechtig":8710,"259":8711,"ĠkÃ¼nf":8712,"881":8713,"ĠÃ¼berall":8714,"!\",\"":8715,"ĠÃ¼berra":8716,"ĠFokus":8717,"ritts":8718,"ĠWÃ¼r":8719,"nArch":8720,"kirchen":8721,"Ġtraur":8722,"Ġgering":8723,"Ã¼re":8724,"ĠRet":8725,"Ġwirken":8726,"gs":8727,"Ġfrom":8728,"ĠMilliar":8729,"011":8730,"ĠZahlungseinstellung":8731,"ĠBu":8732,"loser":8733,"pert":8734,"mil":8735,"work":8736,"ronik":8737,"Ã¤rm":8738,"ĠprÃ¤sentiert":8739,"eiern":8740,"ichtigkeit":8741,"ieso":8742,"stanz":8743,"ĠApothe":8744,"Ã¤fts":8745,"ĠCent":8746,"ĠKlassen":8747,"Ġbilden":8748,"DPR":8749,"........":8750,"553":8751,"plÃ¤tze":8752,"ham":8753,"Ã¤lfte":8754,"Ġgeeig":8755,"Google":8756,"nRep":8757,"ĠKombination":8758,"musik":8759,"nGer":8760,"Ð¾":8761,"abend":8762,"ĠInhalten":8763,"zahlt":8764,"ĠKonkursfall":8765,"Konto":8766,"ĠHon":8767,"âĢĿ\\":8768,"ĠtÃ¤tig":8769,"051":8770,"frau":8771,"Ġwichtiger":8772,"ĠMini":8773,"Ġ_":8774,"Ġwarten":8775,"ĠAff":8776,"Ġsieben":8777,"Ġwirst":8778,"Zust":8779,"Ġobwohl":8780,"ona":8781,"ĠInner":8782,"Ġspezif":8783,"ĠRegelungen":8784,"nAllgemein":8785,"Ġmarkiert":8786,"1135":8787,"tags":8788,"emein":8789,"ĠFrem":8790,"sicherheit":8791,"Phone":8792,"nOr":8793,"here":8794,"ĠGeschichten":8795,"ĠPor":8796,"alls":8797,"osme":8798,"Ġweiterlesen":8799,"tierten":8800,"ĠFleisch":8801,"ĠStahl":8802,"9955392":8803,"à¸":8804,"region":8805,"ĠHalb":8806,"ĠSchulen":8807,"organis":8808,"069":8809,"Ġkamen":8810,"Ger":8811,"nFunktional":8812,"olden":8813,"Ġperfekte":8814,"acher":8815,"072":8816,"platte":8817,"uld":8818,"ĠCloud":8819,"UK":8820,"nvor":8821,".)\\":8822,"ĠJahrhundert":8823,"lÃ¶tz":8824,"rucken":8825,"9900":8826,"flus":8827,"ĠBor":8828,"gemeinschaft":8829,"ĠBevÃ¶lkerung":8830,"Ġwechseln":8831,"portal":8832,"sem":8833,"sachsen":8834,"ye":8835,"ĠAbhÃ¤ngigkeit":8836,"079":8837,"ize":8838,"Ġmorgen":8839,"Her":8840,"ĠUnfall":8841,"ĠnatÃ¼rlichen":8842,"ĠUmfrage":8843,"ĠMÃ¼ller":8844,"ĠGlob":8845,"Ġsport":8846,"book":8847,"ird":8848,"beginn":8849,"All":8850,"ĠrÃ¼ck":8851,"Ġaltern":8852,"reichend":8853,"MM":8854,"262":8855,"ĠMicrosoft":8856,"Ã¼rn":8857,"eser":8858,"Fil":8859,"9893":8860,"industrie":8861,"fÃ¤hig":8862,"Ġmil":8863,"ĠMittwoch":8864,"ĠBehinder":8865,"atungs":8866,"Ġvorgesehen":8867,"ĠCas":8868,"IB":8869,"\\\":\\\"":8870,"Ġ48":8871,"ual":8872,"ĠDeb":8873,"ĠVorladung":8874,"Ġbegann":8875,"ble":8876,"Ġbehandelt":8877,"ĠKÃ¼hl":8878,"sinn":8879,"NE":8880,"bezie":8881,"nutzung":8882,"Ġherunterladen":8883,"wirkung":8884,"cal":8885,"9891":8886,"studium":8887,"nin":8888,"leid":8889,"Ã¶ffnung":8890,"ĠJul":8891,"TC":8892,"ĠHan":8893,"ritz":8894,"kar":8895,"Ġjetz":8896,"fertigt":8897,"Ã¤tter":8898,"949":8899,"840":8900,"schreiben":8901,"ĠPayPal":8902,"ĠMed":8903,"nDi":8904,"Ġstra":8905,"ĠSei":8906,"machung":8907,"Ġvorge":8908,"Ġweiteres":8909,"647":8910,"ĠDatenschutzbestimmungen":8911,"8473453":8912,"ĠPlus":8913,"ĠKasten":8914,"ĠKritik":8915,"lands":8916,"ugel":8917,"Ġgelegen":8918,"Ġvoller":8919,"Ġbeweg":8920,"170":8921,"Ã¶rse":8922,"lik":8923,"081":8924,"FG":8925,"nViele":8926,"738":8927,"ĠzÃ¤hlen":8928,"etaill":8929,"essourcen":8930,"stes":8931,"west":8932,"ingung":8933,"ĠRadio":8934,"ĠKommun":8935,"nFr":8936,"Ġmodernen":8937,"ichtete":8938,"okal":8939,"ĠNahr":8940,"Ġexper":8941,"Ġausger":8942,"ĠAusdruck":8943,"ĠYork":8944,"468":8945,"Ġweiterer":8946,"volution":8947,"Ġirgendwie":8948,"8795":8949,"ĠÃ¼berzeugt":8950,"ĠMinister":8951,"ĠHal":8952,"9960":8953,"ci":8954,"279":8955,"ĠAnk":8956,"9747":8957,"ĠKonzept":8958,"fristig":8959,"Ġbeziehen":8960,"wein":8961,"Ġpolitische":8962,"ĠAktionen":8963,"9822":8964,"ged":8965,"Ġschwar":8966,"El":8967,"beweg":8968,"maÃŁen":8969,"ĠLeiter":8970,"vier":8971,"Ġmed":8972,"667":8973,"ĠÃ¶ffentlich":8974,"Ġerleich":8975,"ĠRel":8976,"risten":8977,"ĠUnterschied":8978,"ĠStaaten":8979,"ĠMand":8980,"Ġuse":8981,"Ġerteil":8982,"Ġgutes":8983,"nPass":8984,"RA":8985,"ĠFÃ¼":8986,"ĠBetroffenen":8987,"felder":8988,"nIst":8989,"ĠSein":8990,"048":8991,"Ġsteuer":8992,"Ġbekomm":8993,"Ġzahlen":8994,"ĠLesen":8995,"ĠDafÃ¼r":8996,"essel":8997,"bauen":8998,"nIntern":8999,"droid":9000,"ĠGeschenke":9001,"849":9002,"auert":9003,"sthe":9004,"station":9005,"ĠBur":9006,"nFil":9007,"Ġbessere":9008,"nThemen":9009,"ĠPerspe":9010,"ĠGestaltung":9011,"ĠMethoden":9012,"99963":9013,"ĠWachst":9014,"ĠVorteil":9015,"\\\",\\\"":9016,"752":9017,"9995091":9018,"Ġzeich":9019,"QL":9020,"ringen":9021,"ĠOp":9022,"Ġdauerhaft":9023,"ĠWerte":9024,"jekten":9025,"Spe":9026,"ĠBericht":9027,"PG":9028,"brem":9029,"abrik":9030,"Ġgez":9031,"efrei":9032,"ZG":9033,"modell":9034,"062":9035,"('":9036,"ðĿ":9037,"Ġentf":9038,"wÃ¤rts":9039,"ĠUrlaubs":9040,"ĠLÃ¤nge":9041,"ĠMeld":9042,"ondon":9043,"ĠLieblings":9044,"ĠStÃ¤dte":9045,"Ġgl":9046,"WM":9047,"znei":9048,"gebnisse":9049,"HO":9050,"ĠVoraussetzungen":9051,"artigen":9052,"nNeue":9053,"ĠTablet":9054,"ĠLeiden":9055,"Ġkultur":9056,"IO":9057,"rachte":9058,"rochen":9059,"9883":9060,"ĠKro":9061,"nStand":9062,"gestimmt":9063,"nOb":9064,"Ġif":9065,"Ġkommun":9066,"ĠKooperation":9067,"Ġdenke":9068,"mas":9069,"ĠWol":9070,"ĠanschlieÃŁend":9071,"enne":9072,"ĠDaniel":9073,"Ac":9074,"any":9075,"ĠVerlauf":9076,"WG":9077,"Ġhinweggehen":9078,"recher":9079,"041":9080,"Ġinteressante":9081,"Ġinformation":9082,"arbeitende":9083,"Ġ{{":9084,"ĠEinfach":9085,"----------------":9086,"ĠÃ¼berprÃ¼fen":9087,"ĠgefÃ¼hrt":9088,"ĠTeams":9089,"Ġerscheinen":9090,"zension":9091,"9988837":9092,"ĠRoh":9093,"ĠÃ¤hnlich":9094,"beits":9095,"ĠHeute":9096,"sdaten":9097,"9017":9098,"nDeutschland":9099,"059":9100,"vision":9101,"ĠVerteidig":9102,"nhttp":9103,"nDen":9104,"Ġentnehmen":9105,"falen":9106,"Ġgra":9107,"ĠmÃ¶gliche":9108,"haften":9109,"va":9110,"ĠHannover":9111,"derung":9112,"997223":9113,"nTisch":9114,"ĠGru":9115,"Ġdur":9116,"Ġgebe":9117,"dex":9118,"ires":9119,"ĠLinie":9120,"ĠBier":9121,"2009":9122,"+++":9123,"ĠjÃ¼n":9124,"tigte":9125,"Ġdagegen":9126,"Ġmy":9127,"ĠFormat":9128,"ĠEd":9129,"osk":9130,"stern":9131,"board":9132,"Ġeindeutige":9133,"grÃ¶ÃŁ":9134,"Ġkauf":9135,"Ġallgemein":9136,"ĠFlÃ¼cht":9137,"Ġmiteinander":9138,"bÃ¼rger":9139,"9876":9140,"SCH":9141,"ĠLaut":9142,"438":9143,"ĠBerliner":9144,"DEN":9145,"orben":9146,"ĠFilter":9147,"ton":9148,"839":9149,"HY":9150,"Ġme":9151,"KV":9152,"ĠVerpflichtung":9153,"ĠGeorg":9154,"ĠBundestag":9155,"etzung":9156,"nAngeb":9157,"Ġsc":9158,"ikanischen":9159,"9897":9160,"ĠMotiv":9161,"nFoto":9162,"9874":9163,"Ġ400":9164,"nOpenStreetMap":9165,"Ġvern":9166,"nergie":9167,"ĠPersÃ¶nlichkeit":9168,"ĠAnliegen":9169,"lÃ¤sslich":9170,"irurg":9171,"Str":9172,"ichtigt":9173,"anner":9174,"format":9175,"ĠReifen":9176,"ypen":9177,"ĠErzeugt":9178,"ĠverÃ¤ndert":9179,"Ġexist":9180,"ZX":9181,"ĠIdent":9182,"Ġzeig":9183,"ĠBrowsers":9184,"ĠKlaus":9185,"bereiche":9186,"sonsten":9187,"Ġneuesten":9188,"stoffen":9189,"Richtlinie":9190,"ML":9191,"digt":9192,"ĠgrÃ¶ÃŁer":9193,"ĠGetrÃ¤n":9194,"wege":9195,"ays":9196,"nFolgen":9197,"Neu":9198,"IQ":9199,"ized":9200,"634":9201,"859":9202,"UX":9203,"Ġdisku":9204,"452":9205,"ĠMilch":9206,"ools":9207,"ktiver":9208,"ĠGeneral":9209,"ND":9210,"Ġkommenden":9211,"mung":9212,"93739265":9213,"ject":9214,"Ġused":9215,"Ġgesellschaft":9216,"isierten":9217,"Ġirgendw":9218,"Sport":9219,"betreiber":9220,"Ġphys":9221,"aka":9222,"ĠLandkreis":9223,"dlich":9224,"Ġjahr":9225,"052":9226,"ĠSitzung":9227,"ĠCA":9228,"PO":9229,"ieur":9230,"Ġbeeinflus":9231,"430":9232,"ĠVergangenheit":9233,"ĠAnlagen":9234,"JJ":9235,"Ġren":9236,"win":9237,"lehre":9238,"ĠVerantwortliche":9239,"ĠEmail":9240,"9835":9241,"ĠWasch":9242,"Ġwachsen":9243,"Ã³":9244,"070":9245,"Ġberu":9246,"echte":9247,"\\\".\\":9248,"hes":9249,"ĠAf":9250,"ĠMilliarden":9251,"ĠWÃ¼nsche":9252,"senz":9253,"Ġries":9254,"ura":9255,"Ġeingestellt":9256,"gewiesen":9257,"Ġproblem":9258,"ĠBurg":9259,"ĠTats":9260,"ĠgroÃŁes":9261,"usstsein":9262,"190":9263,"ĠTischtennis":9264,"Ġmachte":9265,"9918":9266,"ĠWorld":9267,"ĠKrankheit":9268,"ĠRie":9269,"94525":9270,"vergleich":9271,"abelle":9272,"Ġherab":9273,"prechen":9274,"269":9275,"ĠTick":9276,"741":9277,"typ":9278,"Ġwidersprechen":9279,"umenten":9280,"Ġjeweilige":9281,"igte":9282,"ria":9283,"99983":9284,"ĠAluminium":9285,"ĠTrotz":9286,"ĠSchalt":9287,"Ã¤mpfen":9288,"pping":9289,"Ã¤testens":9290,"werbs":9291,"Ġauftreten":9292,"nÃĦhnliche":9293,"tex":9294,"arriere":9295,"Che":9296,"nSe":9297,"azit":9298,"osen":9299,"rÃ¼stung":9300,"ody":9301,",-":9302,"Ġgewonnen":9303,"Ġsan":9304,"082":9305,"ĠerhÃ¶ht":9306,"zÃ¼ge":9307,"Ðµ":9308,"Ġconsent":9309,"nHand":9310,"nÃĸff":9311,"ĠSolar":9312,"ĠKrÃ¤":9313,"ĠBenutzung":9314,"ĠgeÃ¤ndert":9315,"Ġpolitischen":9316,"Ġgekenn":9317,"431":9318,"012":9319,"ĠBerichtigung":9320,"ĠPoly":9321,"EV":9322,"jemand":9323,"Ã¼llen":9324,"ĠInstr":9325,"suche":9326,"ĠfÃ¼hrte":9327,"Ġgesucht":9328,"YX":9329,"ĠLernen":9330,"2525":9331,"itar":9332,"Ġpositiv":9333,"ĠNutzungsbedingungen":9334,".\\\"\\":9335,"cy":9336,"SU":9337,"euerung":9338,"Book":9339,"DG":9340,"zeichnen":9341,"hema":9342,"Ġmonat":9343,"040":9344,"772":9345,"HC":9346,"ĠSchreiben":9347,"Ġalleine":9348,"fassungs":9349,"YL":9350,"Ġherum":9351,"ants":9352,"ĠKamera":9353,"Ġcookie":9354,"ĠFerienhaus":9355,"Ġniemand":9356,"arbon":9357,"kinder":9358,"aner":9359,"Ġgegebenen":9360,"Unter":9361,"Ã¤cher":9362,"ĠErfassung":9363,"denten":9364,"ĠBud":9365,"kum":9366,"mittag":9367,"ĠZeitung":9368,"657":9369,"ĠStil":9370,"078":9371,"rennen":9372,"9930":9373,"ĠDanke":9374,"euert":9375,"ĠDresden":9376,"ĠFitness":9377,"reinigung":9378,"ĠBedÃ¼rfnisse":9379,"ĠInstitution":9380,"ĠFahrer":9381,"ĠÃĸffentlichkeit":9382,"ids":9383,"hlen":9384,"EK":9385,"Ġstaat":9386,"ĠAufsichtsbehÃ¶rde":9387,"mt":9388,"ĠgegrÃ¼ndet":9389,"dra":9390,"ĠPoten":9391,"ĠPl":9392,"ĠTools":9393,"nMitt":9394,"ĠBuchsta":9395,"ĠMie":9396,"ĠEngagement":9397,"HV":9398,"mobil":9399,"Ġ42":9400,"nUnternehmen":9401,"ded":9402,"Ġdis":9403,"Ġwasser":9404,"NA":9405,"94672436":9406,"verordnung":9407,"Ġkennt":9408,"rÃ¤der":9409,"nGrund":9410,"ĠSperr":9411,"9873":9412,"ierst":9413,"ĠVerpack":9414,"steigend":9415,"MF":9416,"ĠHerausforderungen":9417,"ĠGutschein":9418,"ĠHÃ¤nde":9419,"spart":9420,"049":9421,"ĠReparatur":9422,"Ġwillst":9423,"breiten":9424,"ĠShow":9425,"ĠDIE":9426,"ĠErklÃ¤rung":9427,"Ġvorliegen":9428,"funktionen":9429,"papier":9430,"mosphÃ¤re":9431,"nBeitrags":9432,"siehe":9433,"ĠDigitalisierung":9434,"ĠEhren":9435,"werken":9436,"563":9437,"ega":9438,"009":9439,"ype":9440,"ĠSchwar":9441,"ninfo":9442,"ĠTrainings":9443,"stÃ¤ndnis":9444,"usik":9445,"Ġspezielle":9446,"iche":9447,"ĠVerwaltungs":9448,"Ġ:\\":9449,"Bild":9450,"DV":9451,"ĠVersicherungs":9452,"ĠVerfÃ¼g":9453,"Ġ37":9454,"apt":9455,"9866":9456,"ĠGran":9457,"aupts":9458,"nDes":9459,"ĠÃ¤uÃŁer":9460,"ĠInstallation":9461,"ĠGrÃ¶ÃŁen":9462,"99794525":9463,"zone":9464,"emin":9465,"Ġbestm":9466,"kern":9467,"nCo":9468,"ĠHotels":9469,"ĠWorte":9470,"regel":9471,"ĠÃľberwach":9472,"kle":9473,"alifiz":9474,"Ġberechtigtes":9475,"ĠPack":9476,"ĠGericht":9477,"ĠCode":9478,"Ġinteressieren":9479,"ĠNRW":9480,"ĠMannschaft":9481,"ĠTi":9482,"regen":9483,"ierefrei":9484,"Ġkrank":9485,"nLiefer":9486,"Ġirgendjemand":9487,"inos":9488,"9884":9489,"Ġinzwischen":9490,"stÃ¼cke":9491,"ĠSession":9492,"ĠÃ¼bernimmt":9493,"050":9494,"ĠbestÃ¤tigen":9495,"ĠRosen":9496,"West":9497,"Ġglaube":9498,"nGeb":9499,"ĠStern":9500,"ecker":9501,"ĠStimme":9502,"rukturen":9503,"ĠJeder":9504,"869":9505,"ĠEvents":9506,"ĠPremium":9507,"459":9508,"089":9509,"geht":9510,"ĠHighl":9511,"060":9512,"ĠVorsitzen":9513,"nLe":9514,"Ġkurze":9515,"lande":9516,"ĠTanz":9517,"omments":9518,"gelassen":9519,"ĠPhilosophie":9520,"ĠFahrzeuge":9521,"gewÃ¶hn":9522,"Ġ38":9523,"}}\\":9524,"ĠKing":9525,"gefÃ¼":9526,"230":9527,"ĠMagazin":9528,"Ġeinz":9529,"ĠDass":9530,"verstÃ¤ndnis":9531,"ĠMisch":9532,"ĠSpanien":9533,"Ġerstmal":9534,"ĠgeprÃ¼":9535,"951403":9536,"isieren":9537,"nHinweis":9538,"Ġlangen":9539,"ĠVerlust":9540,"Test":9541,"Ġtraurig":9542,"95140374":9543,"shaus":9544,"Ġletzt":9545,"ĠDienstag":9546,"Ġablehnen":9547,"ĠNatÃ¼rlich":9548,"9716":9549,"ĠWart":9550,"ĠKollegen":9551,"ĠStress":9552,"ĠhierfÃ¼r":9553,"ĠKÃ¶r":9554,"lings":9555,"ĠfranzÃ¶s":9556,"hÃ¶he":9557,"ZB":9558,"ĠGuK":9559,"ĠHomepage":9560,"Ġsinnvoll":9561,"769":9562,"ĠGrill":9563,"Ġberichtet":9564,"NN":9565,"inanz":9566,"seud":9567,"ĠfÃ¼hlen":9568,"Ġbezahlen":9569,"ĠVorder":9570,"ĠPharma":9571,"ĠTeilen":9572,"ĠgenÃ¼":9573,"riechen":9574,"ĠKlicken":9575,"ora":9576,"YW":9577,"ĠBereiche":9578,"TF":9579,"ĠRos":9580,"ĠRestaurant":9581,"bra":9582,"TB":9583,"usÃ¤tzlich":9584,"Ġrelativ":9585,"ĠerfÃ¼llen":9586,"auschen":9587,"ĠLast":9588,"ĠgewÃ¤hlten":9589,"SO":9590,"Seite":9591,"ĠLeder":9592,"ĠBÃ¶":9593,"schalten":9594,"ĠFisch":9595,"Ã¼rzt":9596,"nSchreibe":9597,"orten":9598,"Ġco":9599,"nEinstellungen":9600,"ĠSat":9601,"spolitik":9602,"ĠMerkmale":9603,"Link":9604,"Ġleiden":9605,"Ġsichere":9606,"SK":9607,",\\\"":9608,"wohnung":9609,"aktivieren":9610,"403":9611,"Ġ64":9612,"dam":9613,"ĠerhÃ¶hen":9614,"ĠVorschriften":9615,"nAntwort":9616,"ĠRoad":9617,"ĠzÃ¤hlt":9618,"stark":9619,"Ġgekauf":9620,"Ġkomplex":9621,"ollow":9622,"nn":9623,"9365":9624,"Ġ99":9625,"Stra":9626,"Ġdata":9627,"ĠBehÃ¶rden":9628,"arbeits":9629,"Ġ--":9630,"ĠOnlines":9631,"Ġsortiert":9632,"Ġsichern":9633,"termin":9634,"AW":9635,"gefÃ¼hl":9636,"Jahr":9637,"astian":9638,"ĠBlu":9639,"ontag":9640,"Ã¤nner":9641,"Ġtrocken":9642,"otherapie":9643,"abdruck":9644,"Ġoption":9645,"werber":9646,"Ġsitzen":9647,"ĠStruktur":9648,"ĠsÃ¼d":9649,"ĠMitteilung":9650,"751":9651,"ĠStor":9652,"9855":9653,"260":9654,"Ġschauen":9655,"ĠOrien":9656,"739":9657,"AND":9658,"Ġerinner":9659,"Ñģ":9660,"748":9661,"ĠFahrt":9662,"kopf":9663,"Ġser":9664,"ehrung":9665,"gemeinde":9666,"zugs":9667,"nDownload":9668,"ĠKilometer":9669,"jenigen":9670,"Ġlive":9671,"oweit":9672,"orgt":9673,"ĠRobert":9674,"kan":9675,"mÃ¤ÃŁige":9676,"Ã¼hm":9677,"Ġprofitieren":9678,"Mo":9679,"758":9680,"SD":9681,"ĠStock":9682,"Ġmore":9683,"ĠTerr":9684,"Eff":9685,"ĠLade":9686,"bereitet":9687,"ĠwÃ¤ren":9688,"ĺħ":9689,"451":9690,"BER":9691,"ĠArtik":9692,"Ġstor":9693,"fi":9694,"Ã¤ndler":9695,"ĠEmpfÃ¤nger":9696,"Ã¤nden":9697,"nKommentare":9698,"ĠStamm":9699,"ĠBetriebssystem":9700,"Ġsk":9701,"ĠKunststoff":9702,"xy":9703,"ĠNutzererlebnis":9704,"Ġpreis":9705,"leistungs":9706,"ĠZÃ¼rich":9707,"ĠGarantie":9708,"ĠGemÃ¼se":9709,"ĠFunktional":9710,"ikanische":9711,"igner":9712,"ĠSchritte":9713,"ĠBlÃ¼":9714,"nBeim":9715,"Ġhierbei":9716,"Ã¤chster":9717,"Ġfehlt":9718,"Ġ1999":9719,"289":9720,"Ġecht":9721,"ĠStiftung":9722,"Datenschutz":9723,"gener":9724,"Ġgemeinsamen":9725,"quar":9726,"seitig":9727,"Ġgesetzliche":9728,"ĠBlumen":9729,"ĠWerkt":9730,"ĠHart":9731,"Ġvirt":9732,"ĠTrainer":9733,"ĠWÃ¤rme":9734,"bares":9735,"ĠlieÃŁ":9736,"tokoll":9737,"atures":9738,"Ġgezeigt":9739,"ras":9740,"Ġunverbind":9741,"ĠEnglisch":9742,"KK":9743,"ĠSchwanger":9744,"spekte":9745,"Ġgeltenden":9746,"spieler":9747,"547":9748,"ischt":9749,"Ġkontroll":9750,"ĠEurope":9751,"weiten":9752,"kÃ¼":9753,"start":9754,"annter":9755,"ĠVerm":9756,"Ġwh":9757,"ayer":9758,"FR":9759,"Ġbetrieben":9760,"ĠfÃ¼rs":9761,"Diese":9762,"432":9763,"ZL":9764,"ĠEinrichtungen":9765,"ĠTemp":9766,"ĠMac":9767,"ĠWeitergabe":9768,"lad":9769,"ĠErstellung":9770,"systeme":9771,"ĠVielzahl":9772,"Ġbeit":9773,"hÃ¤ngen":9774,"anda":9775,"pg":9776,"wi":9777,"add":9778,"Mails":9779,"oÃŁen":9780,"ĠZucker":9781,"ĠFrist":9782,"nSehr":9783,"Ġdarunter":9784,"197":9785,"ĠAutom":9786,"ĠPe":9787,"ĠWohnen":9788,"ĠVerg":9789,"amilie":9790,"Ġsa":9791,"kÃ¼nfte":9792,"Ġextra":9793,"ric":9794,"nBen":9795,"Ġexempla":9796,"veranstaltungen":9797,"ĠVen":9798,"nYouTube":9799,"ÃŃ":9800,"4194":9801,"ĠGebiet":9802,"090":9803,"nBenutz":9804,"ĠSchauspiel":9805,"HB":9806,"UC":9807,"ĠHauptstadt":9808,"isa":9809,"9845":9810,"Ġnack":9811,"Ġzieht":9812,"ĠBremen":9813,"98023":9814,"ĠReserv":9815,"Ġev":9816,"hinweise":9817,"ĠBestellungen":9818,"879":9819,"ĠEss":9820,"Ġaufzu":9821,"ĠerzÃ¤hlt":9822,"ĠSpielen":9823,"ĠFÃ¤lle":9824,"Ġhave":9825,"ĠSupport":9826,"Ġverkauft":9827,"preise":9828,"ior":9829,"ĠgrÃ¶ÃŁere":9830,"ĠMio":9831,"esto":9832,"HJ":9833,"erkennung":9834,"ĠMir":9835,"aker":9836,"ĠBildern":9837,"ĠSound":9838,"Par":9839,"ĠRichtlinien":9840,"emen":9841,"ĠPrinzip":9842,"ĠlÃ¤ngst":9843,"Ġkostenlosen":9844,"wirtschafts":9845,"ĠRabatt":9846,"sprÃ¼chen":9847,"ĠBetreuung":9848,"folgend":9849,"ĠÃ¶sterreich":9850,"Hand":9851,"Ġgehalten":9852,"abt":9853,"HD":9854,"UE":9855,"ayern":9856,"rinken":9857,"nInhalt":9858,"Ġdritten":9859,"ĠDra":9860,"ĠUnited":9861,"ĠKlo":9862,"ĠBelast":9863,"Ġerheben":9864,"Ġlag":9865,"Zustimmung":9866,"geteilt":9867,"ĠBeschwerden":9868,"Ġeinst":9869,"730":9870,"Ġhandeln":9871,"Ġinternationale":9872,"ĠgewÃ¼nschten":9873,"Ġangemeldet":9874,"hte":9875,"462":9876,"ella":9877,"ĠVerbr":9878,"eden":9879,"ĠzusÃ¤tzlichen":9880,"668":9881,"mÃ¶glichkeit":9882,"Ġbeantworten":9883,"ĠunberÃ¼hrt":9884,"ĠBund":9885,"Ġumgehend":9886,"ettbe":9887,"ieht":9888,"WÃ¼rttemberg":9889,"ĠÃ¼bermitteln":9890,"Ġdargestellt":9891,"ĠLudwig":9892,"pal":9893,"ĠÃ¼brigens":9894,"ĠMonats":9895,"kunst":9896,"Ġpoten":9897,"ĠAg":9898,"achelor":9899,"ĠKomfort":9900,"nes":9901,"td":9902,"fred":9903,"ĠKart":9904,"Sti":9905,"ĠEuropÃ¤ische":9906,"ustom":9907,"270":9908,"ĠKrypto":9909,"ĠSenioren":9910,"tifizierung":9911,"search":9912,"ĠLondon":9913,"759":9914,"ĠJose":9915,"rankung":9916,"KM":9917,"arl":9918,"tÃ¤":9919,"Ġvergleichen":9920,"Ġbekannte":9921,"Ġmoderne":9922,"dresse":9923,"ĠFle":9924,"ĠLeg":9925,"nKlicken":9926,"Ġplan":9927,"ĠSchmuck":9928,"ĠSieg":9929,"ĠÃ¶ffentliche":9930,"stechnik":9931,"Ġheim":9932,"99884":9933,"NC":9934,"Ġgefragt":9935,"ĠStreit":9936,"ĠMesse":9937,"ĠHimmel":9938,"413":9939,"nChrist":9940,"ordnen":9941,"enkt":9942,"Ġfein":9943,"ĠVielleicht":9944,"Ã¤hrungs":9945,"ĠMode":9946,"########":9947,"zellen":9948,"??":9949,"ĠUnternehmer":9950,"ĠWa":9951,"reitet":9952,"Port":9953,"ĠZuhause":9954,"ĠGeneration":9955,"ĠOptimierung":9956,"Ġpraktisch":9957,"039":9958,"Ġgarantiert":9959,"ĠVerbesserung":9960,"WE":9961,"eilungen":9962,"ifest":9963,"ĠHÃ¤lfte":9964,"eistungen":9965,"778":9966,"ĠGR":9967,"Ġhochwertige":9968,"ĠJunge":9969,"Ġsauber":9970,"Ġnatur":9971,"nVielen":9972,"770":9973,"Ġschnelle":9974,"onus":9975,"nec":9976,"ICHT":9977,"weist":9978,"Ġ978":9979,"HQ":9980,"ĠPS":9981,"ĠNutzen":9982,"ĠHumanmedizin":9983,"ĠEntscheidungen":9984,"(\\\"":9985,"iguren":9986,"fos":9987,"Ġmussten":9988,"99996":9989,"ĠSympt":9990,"ĠverstÃ¤r":9991,"VC":9992,"scheinlichkeit":9993,"Ġout":9994,"ĠBrust":9995,"Ġinteressiert":9996,"Ġzugleich":9997,"749":9998,"ĠNutzern":9999,"Ġgesetzlich":10000,"ĠSpielers":10001,"ĠAfr":10002,"}\\":10003,"ĠInfo":10004,"Ġexemplarisch":10005,"Ġkorrekt":10006,"Wh":10007,"Ã¼rgen":10008,"ziplin":10009,"cha":10010,"schiff":10011,"pul":10012,"rische":10013,"Ġfreue":10014,"Ã¼hlen":10015,"Ġnochmal":10016,"ĠDE":10017,"urity":10018,"freiheit":10019,"ĠfÃ¶rdern":10020,"Ġacht":10021,"ĠSchon":10022,"ĠMountain":10023,"nAlles":10024,"baden":10025,"ichtung":10026,"ubil":10027,"ray":10028,"9833":10029,"Ġ95":10030,"museum":10031,"ĠBranchen":10032,"ĠAlternative":10033,"nDaten":10034,"Ġleer":10035,"ĠVorstand":10036,"reut":10037,"ĠHerrn":10038,"Ġvorstellen":10039,"nNotwendige":10040,"melde":10041,"itionen":10042,"421":10043,"9846":10044,"nFahr":10045,"Ġstud":10046,"Ġbestehende":10047,"9888":10048,"Ġlock":10049,"Ġleichter":10050,"ĠbestÃ¤tigt":10051,"99891":10052,"191":10053,"ĠVerstÃ¤ndnis":10054,"ĠVertrauen":10055,"760":10056,"Ġprivate":10057,"ĠMinute":10058,"Ġstarken":10059,"aszin":10060,"ĠSpitzen":10061,"Ã¤chs":10062,"ĠDetail":10063,"ĠDarm":10064,"nFrei":10065,"onie":10066,"krit":10067,"9808475":10068,"not":10069,"acc":10070,"irmen":10071,"Ġmaximal":10072,"YG":10073,"Ġausreichend":10074,"9908":10075,"/-":10076,"agentur":10077,"Ġthese":10078,"ungsverfahren":10079,"ony":10080,"Ġbesitzt":10081,"ĠPaket":10082,"ĠBrenn":10083,"ĠEhe":10084,"ommission":10085,"ĠAnf":10086,"spannung":10087,"hai":10088,"ĠHTML":10089,"nArchive":10090,"ĠKatzen":10091,"pers":10092,"ĠFehl":10093,"Ġrechtlichen":10094,"ĠBehand":10095,"ense":10096,"ooth":10097,"Up":10098,"ĠCenter":10099,"MB":10100,"Ġempfohlen":10101,"utin":10102,"nDanke":10103,"unterricht":10104,"nHa":10105,"europa":10106,"ĠJapan":10107,"80761135":10108,"ohnt":10109,"ĠBef":10110,"nAnzeige":10111,"ĠInternetseiten":10112,"9825":10113,"ĠgefÃ¤llt":10114,"icke":10115,"Ġreduzieren":10116,"renz":10117,"âĤ¬\\":10118,"Â¤":10119,"Ġ39":10120,"ĠFormen":10121,"Ġsah":10122,"Ġlebt":10123,"probieren":10124,"ĠplÃ¶tz":10125,"WF":10126,"anstaltungs":10127,"ĠJust":10128,"IJ":10129,"Ġstellte":10130,"PP":10131,"inu":10132,"ADE":10133,"Ġerlauben":10134,"Ġamer":10135,"ĠSpenden":10136,"ĠHochschule":10137,"ZQ":10138,"Out":10139,"ichael":10140,"ĠUrteil":10141,"ĠRen":10142,"ĠJahrhunderts":10143,"wendet":10144,"Ġverhindert":10145,"ĠRunde":10146,"ĠTaschen":10147,"ĠOpfer":10148,"Best":10149,"Ġvieles":10150,"ĠbeschÃ¤ftigt":10151,"ĠverÃ¤ndern":10152,"ĠFrÃ¼hstÃ¼ck":10153,"ĠLizenz":10154,"ehme":10155,"Ġvereinbaren":10156,"itation":10157,"ĠPandemie":10158,"ĠDeinem":10159,"Ġplatz":10160,"itemap":10161,"bart":10162,"Ġdro":10163,"ĠQuelle":10164,"Finger":10165,"9806":10166,"Ġglauben":10167,"ĠBayer":10168,"ĠVo":10169,"proz":10170,"Am":10171,"ĠArznei":10172,"ush":10173,"Ġherzlich":10174,"2008":10175,"iefen":10176,"Ġgetroffen":10177,"ĠWellness":10178,"Ġ!":10179,"uc":10180,"Ġerstmals":10181,"Ste":10182,"list":10183,"angebotes":10184,"spor":10185,"gebiete":10186,"ĠGlauben":10187,"ĠNeues":10188,"ĠElement":10189,"ĠAnsprechpartner":10190,"ĠGewerbe":10191,"ĠselbstverstÃ¤ndlich":10192,"ĠOrdnung":10193,"wiki":10194,"9700":10195,"bibliothek":10196,"ĠWunder":10197,"schl":10198,"ĠMedikamen":10199,"euern":10200,"Ġeure":10201,"Con":10202,"ĠErwachsene":10203,"ĠEinfÃ¼hrung":10204,"spflicht":10205,"ĠVerÃ¶ffentlichung":10206,"Ġvertrau":10207,"Ġjeg":10208,"ronen":10209,"Ġup":10210,"Bl":10211,"3545":10212,"Ġkostet":10213,"ĠDeck":10214,"schlÃ¼sse":10215,"652":10216,"ĠWall":10217,"ĠHierzu":10218,"ĠEntwicklungs":10219,"nTischtennis":10220,"Ã¶rsen":10221,"teste":10222,"Ġgegebenenfalls":10223,"ĠNÃ¼rn":10224,"arben":10225,"leitungen":10226,"ĠAndere":10227,"442":10228,"vider":10229,"liver":10230,"441":10231,"verzeichnis":10232,"ĠVerletzung":10233,"ĠMiner":10234,"ĠMÃ¼":10235,"âĢĵâĢĵ":10236,"nDigit":10237,"rost":10238,"Ġeigenes":10239,"ĠJugendliche":10240,"ĠJahrzeh":10241,"Ġniedrig":10242,"458":10243,"ĠProfessur":10244,"Software":10245,"nKraft":10246,"ĠgewÃ¤hlt":10247,"roller":10248,"Ġerhobenen":10249,"Ġaufweisen":10250,"nAutor":10251,"alth":10252,"Ġno":10253,"ZJ":10254,"Team":10255,"ĠSn":10256,"beln":10257,"Komp":10258,"brit":10259,"Ġmont":10260,"scheidung":10261,"MC":10262,"Ġ66":10263,"ĠKommission":10264,"schte":10265,"ĠSysteme":10266,"rend":10267,"ĠCan":10268,"nCh":10269,"Ġeins":10270,"ĠZut":10271,"macht":10272,"ĠSpiegel":10273,"ĠKri":10274,"Ġabges":10275,"ĠCoron":10276,"kirche":10277,"ĠDreh":10278,"legal":10279,"emple":10280,"ĠSehen":10281,"ĠLiter":10282,"Ġverwand":10283,"nHoch":10284,"Ġnahm":10285,"bezÃ¼":10286,"ĠAbstimmung":10287,"afÃ©":10288,"dar":10289,"ĠArchitektur":10290,"utet":10291,"waren":10292,"ĠVier":10293,"Laden":10294,"geschÃ¤ft":10295,"Ġgeraten":10296,"RP":10297,"ĠSicher":10298,"Ġgeboren":10299,"Ġlohnt":10300,"ĵ\\":10301,"fur":10302,"dateien":10303,"abine":10304,"ĠVerkÃ¤ufer":10305,"ĠView":10306,"nHersteller":10307,"zugreifen":10308,"Ġsichtbar":10309,"schritt":10310,"ĠCheck":10311,"Ġfrag":10312,"ĠUSB":10313,"ĠVal":10314,"ĠVorgaben":10315,"fernung":10316,"ĠBoo":10317,"Ã¨":10318,"OY":10319,"ungsf":10320,"reme":10321,"nSchlagwÃ¶rter":10322,"ĠUND":10323,"herr":10324,"ĠAka":10325,"cont":10326,"ĠWohnungs":10327,"ĠzurÃ¼ckziehen":10328,"Ġexemple":10329,"eihn":10330,"glas":10331,"1534":10332,"ĠVerhÃ¤ltnis":10333,"anwalt":10334,"ergie":10335,"nPartner":10336,"idt":10337,"5784":10338,"ĠYoutube":10339,"HX":10340,"kÃ¶rper":10341,"ĠSekunden":10342,"planung":10343,"ĠPinterest":10344,"Ġhabt":10345,"ocument":10346,"ĠlÃ¶sen":10347,"schmerzen":10348,"---":10349,"UJ":10350,"Ã¶ffentlichen":10351,"ĠDavid":10352,"ĠKein":10353,"folio":10354,"agel":10355,"90098023":10356,"ĠzulÃ¤ss":10357,"ĠMÃ¼nster":10358,"469":10359,"ĠKarriere":10360,"Du":10361,"nBel":10362,"iren":10363,"ĠauÃŁen":10364,"fÃ¼llt":10365,"ĠRou":10366,"ĠiPhone":10367,"strom":10368,"Ġkleines":10369,"Ġlegt":10370,"News":10371,"Ġ85":10372,"MA":10373,"ĠbeeintrÃ¤chtigt":10374,"map":10375,"750":10376,"Ġcategor":10377,"Icon":10378,"ĠEngel":10379,"ĠAbenteuer":10380,"Ġerreichbar":10381,"Ġhinten":10382,"Ġschla":10383,"KB":10384,"illen":10385,"99836":10386,"losigkeit":10387,"Ġapp":10388,"affe":10389,"UQ":10390,"ĠContent":10391,"ĠWeil":10392,"betten":10393,"ĠParis":10394,"ĠNormal":10395,"',":10396,"99806":10397,"zo":10398,"Ġgeist":10399,"ĠSchnell":10400,"iliate":10401,"600":10402,"Ġkonkrete":10403,"nweiterlesen":10404,"nLand":10405,"ettel":10406,"ĠGolf":10407,"ĠPerformance":10408,"NF":10409,"Ġeinsetzen":10410,"Ġkonzentr":10411,"NX":10412,"ĠÃ¤uÃŁ":10413,"9856":10414,"Ġinspir":10415,"ACH":10416,"Wenn":10417,"ĠRessourcen":10418,"ĠGDPR":10419,"schaff":10420,"ĠFÃ¤higkeit":10421,"Des":10422,"hÃ¶rigen":10423,"ero":10424,"produktion":10425,"ĠShops":10426,"ĠErhebung":10427,"ampagne":10428,"Ġeingeben":10429,"Ġste":10430,"nVideo":10431,"Ġinternational":10432,"Ġehemaligen":10433,"Ġstarke":10434,"020":10435,"ĠSyn":10436,"ĠErweiter":10437,"uliert":10438,"projekte":10439,"team":10440,"Ġfinanz":10441,"90411":10442,"ĠMut":10443,"ĠPixel":10444,"Ġbreit":10445,"gebnis":10446,"IW":10447,"ĠZivil":10448,"Ġ47":10449,"kw":10450,"situ":10451,"pedia":10452,"Ġeinfachen":10453,"zieht":10454,"nPasswort":10455,"Ġeignet":10456,"416":10457,"wissenschaftliche":10458,"Ġsystem":10459,"betrag":10460,"fÃ¶rderung":10461,"En":10462,"Ġbauen":10463,"021":10464,"anen":10465,"etzwerk":10466,"9982":10467,"ĠFlex":10468,"Ġwe":10469,"ĠKÃ¤":10470,"ZV":10471,"Blog":10472,"ĠCa":10473,"889":10474,"nich":10475,"osmetik":10476,"Ġgratis":10477,"emark":10478,"ĠKonzert":10479,"cer":10480,"SR":10481,"nKann":10482,"ĠMad":10483,"agiert":10484,"ĠEinblick":10485,"person":10486,"ocial":10487,"ĠmÃ¶glichen":10488,"ĠBauch":10489,"ĠStellung":10490,"upload":10491,"ĠDat":10492,"Ã¤use":10493,"Ã¼ndigt":10494,"ĠRisiken":10495,"Ġweich":10496,"rahmen":10497,"ĠBeschwerde":10498,"ua":10499,"ĠVerÃ¤nderungen":10500,"nEmail":10501,"schreibung":10502,"odell":10503,"ĠSpielerbild":10504,"wahr":10505,"9564":10506,"platten":10507,"99786":10508,"ĠFlughafen":10509,"Ã¼tt":10510,"ĠzustÃ¤ndigen":10511,"ENT":10512,"ĠUni":10513,"ĠTur":10514,"langt":10515,"schÃ¤tzung":10516,"Ġhinein":10517,"ĠRohr":10518,"figurieren":10519,"istan":10520,"Ġbegeistert":10521,"rÃ¼fung":10522,"ĠBrot":10523,"ĠHessen":10524,"ĠAnlass":10525,"ĠIll":10526,"Sc":10527,"9816":10528,"ĠFans":10529,"UCH":10530,"nNeben":10531,"ĠBedien":10532,"offer":10533,"ental":10534,"ĠCDU":10535,"utlich":10536,"ĠOrgan":10537,"ĠspÃ¤testens":10538,"Ġschrieb":10539,"Land":10540,"ĠschÃ¶nsten":10541,"Ã¤sser":10542,"ĠKriterien":10543,"Li":10544,"ĠmuÃŁ":10545,"ĠÃ¼bernommen":10546,"Ġsog":10547,"TX":10548,"begriff":10549,"ask":10550,"kter":10551,"ally":10552,"ĠKal":10553,"ĠHerstellung":10554,"icy":10555,"ĠPR":10556,"stufe":10557,"ĠbezÃ¼glich":10558,"Ġhoher":10559,"ĠAndroid":10560,"Ġintegriert":10561,"ĠGrundlagen":10562,"haut":10563,"worte":10564,"ĠBesonders":10565,"asi":10566,"eda":10567,"Programm":10568,"nVerarbeitende":10569,"9017088":10570,"Ġtest":10571,"ĠErforderliche":10572,"Ġaufnehmen":10573,"90411663":10574,"Ġfreie":10575,"Ġmet":10576,"99886":10577,"ĠEinkommen":10578,"itis":10579,"ĠFeedback":10580,"Ġmeines":10581,"Ġaust":10582,"ĠKolle":10583,"schech":10584,"ĠKrankenhaus":10585,"col":10586,"bund":10587,"9864":10588,"nFAQ":10589,"ĠAnteil":10590,"seller":10591,"hungen":10592,"nReise":10593,"KR":10594,"ĠMontage":10595,"ĠSeine":10596,"ĠHaust":10597,"ĠRub":10598,"ĠAutomat":10599,"OD":10600,"Ġvs":10601,"ĠGl":10602,"aster":10603,"ĠunverzÃ¼glich":10604,"gu":10605,"Ġhiermit":10606,"undation":10607,"hopping":10608,"ĠVerst":10609,"To":10610,"ĠausschlieÃŁen":10611,"779":10612,"nAllgemeine":10613,"tour":10614,"stoÃŁ":10615,"anstalter":10616,"Ġgeplant":10617,"lach":10618,"ĠHÃ¤ndler":10619,"menge":10620,"Ġoptimales":10621,"YQ":10622,"star":10623,"ĠBeitrags":10624,"Haus":10625,"innern":10626,"Ġret":10627,"ovid":10628,"GE":10629,"ronomie":10630,"worben":10631,"Ġbrauch":10632,"()":10633,"pi":10634,"Ġjen":10635,"NB":10636,"eitig":10637,"lichem":10638,"behandlung":10639,"ftet":10640,"nSitzung":10641,"99883":10642,"9848795":10643,"Ġdatenschutz":10644,"ĠApps":10645,"klÃ¤r":10646,"448":10647,"ï¸":10648,"nWh":10649,"Ġplanen":10650,"ĠChancen":10651,"\\\")":10652,"Ġbeeindruck":10653,"bildungen":10654,"Ġarbeite":10655,"ĠVielfalt":10656,"down":10657,"ĠWin":10658,"Ã¤rt":10659,"Ġta":10660,"482":10661,"wÃ¤sche":10662,"ĠTodes":10663,"nAu":10664,"ĠTreffen":10665,"ikes":10666,"ĠRing":10667,"kasse":10668,"fÃ¼g":10669,"ĠerlÃ¤uter":10670,"worfen":10671,"ĠKarls":10672,"ĠVerd":10673,"icker":10674,"deckung":10675,"ĠRenn":10676,"rechtlichen":10677,"direkt":10678,"ĠGute":10679,"ĠÃĦrzte":10680,"obilie":10681,"ĠRezepte":10682,"richtet":10683,"Pan":10684,"Ġneuem":10685,"ĠOptionen":10686,"YJ":10687,"Ġerhielt":10688,"Ġhilf":10689,"99475":10690,"ĠMaria":10691,"Ġgelungen":10692,"9836":10693,"9839":10694,"ĠStatistik":10695,"ĠLam":10696,"Ġhol":10697,"lieferung":10698,"Ġak":10699,"8378":10700,"ĠIden":10701,"ĠWerke":10702,"ĠBewerb":10703,"Ġunterliegen":10704,"ree":10705,"MT":10706,"Ġvergeben":10707,"ĠSurfverhalten":10708,"ĠInternetbrowser":10709,"ĠInformatik":10710,"ĠBestandteil":10711,"ebastian":10712,"ĠSollten":10713,"merksam":10714,"tx":10715,"9821":10716,"LG":10717,"sung":10718,"bringung":10719,"Spiel":10720,"epar":10721,"ĠkÃ¼rz":10722,"420":10723,"ĠGeschÃ¤ftsbedingungen":10724,"ĠPsychologie":10725,"ĠSachver":10726,"sack":10727,"Ġgenannte":10728,"Nutz":10729,"auty":10730,"richtlinie":10731,"ĠParteien":10732,"ĠbegrÃ¼":10733,"decke":10734,"Ã¤dt":10735,"elbe":10736,"oires":10737,"348":10738,"istent":10739,"ĠSto":10740,"ĠInfrastruktur":10741,"laut":10742,"lehr":10743,"359":10744,"ĠAusnahme":10745,"ĠAlexander":10746,"ĠChemie":10747,"annien":10748,"Ġhingegen":10749,"ppelt":10750,"ĠMak":10751,"Ġbekannten":10752,"ulieren":10753,"Ġplus":10754,"Ġkinder":10755,"Ġ)\\":10756,"ĠThis":10757,"ĠÃ¼bermittel":10758,"nVerk":10759,"utel":10760,"439":10761,"sal":10762,"fas":10763,"ĠAufnahme":10764,"ĠTradition":10765,"stÃ¤tten":10766,"rÃ¤uchen":10767,"stehenden":10768,"pflanzen":10769,"bÃ¼ro":10770,"ADD":10771,"Ge":10772,"ĠSum":10773,"ikation":10774,"itch":10775,"450":10776,"Â¼":10777,"ĠEindruck":10778,"ĠAnleitung":10779,"Ġwillkommen":10780,"quelle":10781,"Ġged":10782,"Ġzertifiz":10783,"ĠVogel":10784,"ĠYoga":10785,"ĠKapital":10786,"ĠÃ¼berzeugen":10787,"nGr":10788,"flikt":10789,"Ġ1998":10790,"ives":10791,"ialog":10792,"Ġerschienen":10793,"schlei":10794,"ĠCommunity":10795,"Ġoffenen":10796,"Ġzerst":10797,"ĠHigh":10798,"ney":10799,"Ġ.\\":10800,"ĠAst":10801,"ĠAnder":10802,"atische":10803,"ĠNein":10804,"atast":10805,"ĠPublikum":10806,"Commerce":10807,"ĠZuge":10808,"99454194":10809,"Ġausges":10810,"luft":10811,"oche":10812,"ĠWolfgang":10813,"ĠNerv":10814,"TH":10815,"haltet":10816,"ĠIII":10817,"inten":10818,"Ġmedizin":10819,"PI":10820,"cam":10821,"Ġgesammelt":10822,"ĠIntegration":10823,"ĠFinger":10824,"SW":10825,"verk":10826,"ĠTourismus":10827,"ĠHafen":10828,"ĠSchlieÃŁ":10829,"ĠKann":10830,"idar":10831,"Ġvorgeschrieben":10832,"Ġbildet":10833,"fahrten":10834,"beschreibung":10835,"avirus":10836,"Ġvorgenommen":10837,"Ã¼sse":10838,"gehende":10839,"ĠðŁĻĤ\\":10840,"ĠLLC":10841,"antwortung":10842,"Ġtop":10843,"Ġlei":10844,"stÃ¤tte":10845,"Ġnennen":10846,"Ġletzter":10847,"ĠStaffel":10848,"ĠJohannes":10849,"omet":10850,"ZZ":10851,"ĠObst":10852,"ampagnen":10853,"gru":10854,"ĠBeschluss":10855,"Ġgleiche":10856,"Ġfreien":10857,"mes":10858,"ĠzugÃ¤nglich":10859,"9755":10860,"ĠAudio":10861,"ĠOster":10862,"familien":10863,"ĠErscheinungs":10864,"ebens":10865,"ĠĠĠĠ":10866,"ĠHierbei":10867,"ĠOs":10868,"ĠGemeinden":10869,"740":10870,"umfang":10871,"farbe":10872,"gestellten":10873,"ĠVerz":10874,"berlin":10875,"ĠMinder":10876,"nBuch":10877,"ĠRester":10878,"ĠKontaktaufnahme":10879,"details":10880,"ĠGrabbel":10881,"Ġherabgesetzt":10882,"analy":10883,"99995":10884,"ĠDemokratie":10885,"ĠVerbind":10886,"Ġtollen":10887,"kammer":10888,"Ġkurzen":10889,"irr":10890,"Ġfehler":10891,"ĠBauer":10892,"ĠFreunden":10893,"igem":10894,"ĠGrabbeltisch":10895,"nEmpf":10896,"britannien":10897,"220":10898,"ĠSchmerzen":10899,"ĠFrÃ¼hl":10900,"anti":10901,"ĠResterampe":10902,"ĠGemeinschaft":10903,"99833":10904,"Ġwest":10905,"Ġ1990":10906,"ĠSeele":10907,"nAbonnieren":10908,"nGen":10909,"bauer":10910,"ĠWahrheit":10911,"Ġverlinkten":10912,"316":10913,"nv":10914,"Ġentlang":10915,"Ġset":10916,"801":10917,"ĠerÃ¶ffnet":10918,"ĠeingeschrÃ¤nkt":10919,"temperatur":10920,"562":10921,"ĠRett":10922,"ĠOne":10923,"uchtigkeit":10924,"ĠEdelstahl":10925,"ĠDortmund":10926,"EST":10927,"ĠRand":10928,"ĠFund":10929,"ungsmittel":10930,"VV":10931,"nBis":10932,"ĠgÃ¤ng":10933,"ĠSterne":10934,"ĠprÃ¤sentieren":10935,"nNe":10936,"spezif":10937,"PU":10938,"nNecessary":10939,"itat":10940,"ĠWÃ¶rter":10941,"ositionen":10942,"99716":10943,"ĠCD":10944,"meldungen":10945,"Ġangesehen":10946,"Ã¤usern":10947,"title":10948,"ĠGrÃ¼nen":10949,"ommunikation":10950,"9977377":10951,"hoff":10952,"gier":10953,"Ã¤tzen":10954,"ĠHall":10955,"echnung":10956,"Univers":10957,"ĠBenachr":10958,"ĠEIN":10959,"198":10960,"Ġzugreifen":10961,"Ġverg":10962,"Ġtotal":10963,"433":10964,"Ġmach":10965,"ĠKÃ¤ufer":10966,"oth":10967,"gebÃ¤ude":10968,"ĠAtmosphÃ¤re":10969,"mÃ¤r":10970,"99923":10971,"folgung":10972,"ĠGenehm":10973,"ii":10974,"ĠOt":10975,"Ġgu":10976,"ĠWebsiteb":10977,"ĠFahrzeugs":10978,"ecke":10979,"geleg":10980,"ĠAtem":10981,"Ġliefert":10982,"schlÃ¼sselung":10983,"ĠLinkedIn":10984,"entwick":10985,"nh":10986,"stik":10987,"OJ":10988,"ĠFeder":10989,"ĠCHF":10990,"cts":10991,"Ġgeschieht":10992,"Ġgestattet":10993,"otion":10994,"ĠSehr":10995,"ĠKreativ":10996,"Ġteilnehmen":10997,"ecurity":10998,"ĠArg":10999,"ĠCamping":11000,"kontakt":11001,"rats":11002,"ĠMatth":11003,"ĠGÃ¼ter":11004,"abilitÃ¤t":11005,"ĠKÃ¼r":11006,"ĠBesuchern":11007,"ĠFakten":11008,"99846":11009,"ĠAlp":11010,"9757":11011,"Ġgetr":11012,"namen":11013,"9814":11014,"Navigation":11015,"ila":11016,"411":11017,"sprecher":11018,"Ġeingelog":11019,"99924":11020,"ĠSpannbreiten":11021,"Ġdel":11022,"uploads":11023,"ĠExpress":11024,"Ġ41":11025,"licherweise":11026,"ĠWies":11027,"291":11028,"Ġgedacht":11029,"ĠBMW":11030,"isst":11031,"NY":11032,"meter":11033,"Ġzweit":11034,"ĠWaffen":11035,"ection":11036,"nSa":11037,"mmobilien":11038,"perrt":11039,"368":11040,"verbrÃ¤uchen":11041,"ĠWen":11042,"Ġcom":11043,"erschein":11044,"ĠFaktoren":11045,"ĠJesus":11046,"ĠFischer":11047,"ĠDateien":11048,"ĠDER":11049,"ĠBir":11050,"ĠsÃ¼":11051,"ĠModul":11052,"Ġverdienen":11053,"ehnt":11054,"reuen":11055,"ĠHost":11056,"atastrop":11057,"ady":11058,"fÃ¤llen":11059,"FZ":11060,"Ġfu":11061,"9818":11062,"hose":11063,"ĠDatenbank":11064,"Ġbereitgestellt":11065,"Ġeinstellen":11066,"ĠGrÃ¼nder":11067,"lÃ¤ser":11068,"Ġeinfacher":11069,"Ġoptimale":11070,"ĠOrientierung":11071,"Bei":11072,"ĠSoft":11073,"ĠQuellen":11074,"Ġ600":11075,"ips":11076,"kind":11077,"541":11078,"99915":11079,"Ġklassischen":11080,"PrÃ¤":11081,"ĠFunktionalitÃ¤ten":11082,"VID":11083,"Ġsicheren":11084,"merksamkeit":11085,"9826":11086,"Ġinteressanter":11087,"460":11088,"Ġsehe":11089,"tec":11090,"nKurz":11091,"ĠBenutzers":11092,"ela":11093,"Ġlink":11094,"ĠWachstum":11095,"usste":11096,"âĢĿ,":11097,"nAndere":11098,"ĠAlkohol":11099,"leswig":11100,"ĠBru":11101,"ĠBeschreibung":11102,"finanz":11103,"nKraftstoff":11104,"ĠnÃ¼tz":11105,"9950":11106,"ĠAllgemeinen":11107,"ĠGeg":11108,"ĠMassen":11109,"oy":11110,"ĠAnwendungen":11111,"TW":11112,"Ã¼bersicht":11113,"ĠBitcoin":11114,"abs":11115,"829":11116,"ĠHaushalt":11117,"ĠgÃ¼l":11118,"Ġunterscheiden":11119,"361":11120,"nAktiv":11121,"99945784":11122,"Ġfot":11123,"ision":11124,"irurgie":11125,"ibilitÃ¤t":11126,"651":11127,"ĠGerade":11128,"ĠEle":11129,"Ġgesundheit":11130,"ĠKle":11131,"ĠRum":11132,"Ã¼tung":11133,"Ġlust":11134,"ĠPolen":11135,"nShare":11136,"Ġvermutlich":11137,"ĠBeratungs":11138,"Wi":11139,"470":11140,"ĠAusgang":11141,"ersatz":11142,"anhÃ¤nge":11143,"ĠWes":11144,"feuer":11145,"ĠPlay":11146,"anzlei":11147,"wirt":11148,"ĠOutdoor":11149,"Partner":11150,"TG":11151,"ĠStatus":11152,"ĠCopyright":11153,"EIT":11154,"Ġsicherlich":11155,"ĠSki":11156,"ĠVersicherung":11157,"nDo":11158,"Ġgemeinsame":11159,"magazin":11160,"nFach":11161,"ĠGerichts":11162,"farben":11163,"ĠStrategie":11164,"enker":11165,"republik":11166,"ĠDeinen":11167,"ĠConsent":11168,"leun":11169,"Tag":11170,"ilber":11171,"larm":11172,"ĠPlugin":11173,"Ġgeschaffen":11174,"QQ":11175,"urts":11176,"heimer":11177,"sv":11178,"ĠbÃ¼rger":11179,"heriger":11180,"ĠIrland":11181,"Ġbedeuten":11182,"Th":11183,"Ġans":11184,"Mon":11185,"ĠMotto":11186,"nQuelle":11187,"ellschaften":11188,"ĠWLTP":11189,"Ġstattfinden":11190,"nStellen":11191,"ĠFilme":11192,"Ã¶gen":11193,"ĠAnsicht":11194,"ÃŁt":11195,"reiter":11196,"ĠâĨĵ\\":11197,"Ġhar":11198,"function":11199,"retung":11200,"ART":11201,"RB":11202,"297":11203,"Ġbehaup":11204,"99796":11205,"imano":11206,"Ġmeistens":11207,"Ġbegleiten":11208,"nFax":11209,"ĠGreen":11210,"Ġcan":11211,"ĠAutos":11212,"indet":11213,"nKommen":11214,"UW":11215,"cedes":11216,"Ġsprach":11217,"ĠðŁĺī":11218,"KJ":11219,"ents":11220,"Ġholen":11221,"ĠGep":11222,"Ġrichtet":11223,"Ġerforderlichen":11224,"315":11225,"99904":11226,"ely":11227,"ĠVerband":11228,"obald":11229,"azier":11230,"8715":11231,"360":11232,"itts":11233,"ĠbestmÃ¶gliche":11234,"nz":11235,"ĠAnpass":11236,"296":11237,"phan":11238,"ehrt":11239,"ĠKaffe":11240,"ĠErgÃ¤n":11241,"kaufen":11242,"Ġprodu":11243,"irma":11244,"ĠRechner":11245,"ĠGebÃ¤u":11246,"Ġstartet":11247,"nDar":11248,"ĠBalkon":11249,"ĠForums":11250,"bereiten":11251,"ĠVerf":11252,"99885":11253,"abschluss":11254,"Ġ[...":11255,"nHeute":11256,"Ġcomp":11257,"ĠFlor":11258,"ĠCap":11259,"9794":11260,"Ġdrauf":11261,"nr":11262,"ÑĢ":11263,"Ġweitergegeben":11264,"geordnet":11265,"ĠKÃ¶nnen":11266,"ĠLaufe":11267,"wandel":11268,"Ġselb":11269,"lÃ¤ger":11270,"EFZ":11271,"362":11272,"Ġill":11273,"ĠVerarbeitungs":11274,"Fingerabdruck":11275,"Ġunent":11276,"Ġml":11277,"ĠCy":11278,"ĠRede":11279,"ĠArme":11280,"jpg":11281,"ichteten":11282,"Ġunglaub":11283,"nGro":11284,"Ġinhalt":11285,"gestalten":11286,"ĠLandschaft":11287,"Ġschafft":11288,"Ġbundes":11289,"ĠAlpen":11290,"ĠSchok":11291,"ï¸ı":11292,"ĠLeider":11293,"ĠLeitung":11294,"99876":11295,"Ð½":11296,"Di":11297,"arkasse":11298,"ostÃ¼":11299,"option":11300,"orno":11301,"nDien":11302,"Ġdigital":11303,"99877":11304,"81364":11305,"ĠverfÃ¼gbaren":11306,"gnor":11307,"ĠSchuld":11308,"ĠFertig":11309,"tal":11310,"Ġhinsichtlich":11311,"wolle":11312,"Ġersetzt":11313,"lÃ¶sen":11314,"VJ":11315,"day":11316,"ĠgrÃ¶ÃŁeren":11317,"chtung":11318,"ĠWilhelm":11319,"ology":11320,"ĠBele":11321,"ĠBonn":11322,"ĠRatgeber":11323,"ĠPr":11324,"717":11325,"Ġweb":11326,"brand":11327,"ago":11328,"mak":11329,"nHerz":11330,"ĠFR":11331,"ziehungen":11332,"Ã¶pfe":11333,"ichtigungen":11334,"nHaus":11335,"ditionen":11336,"ĠAgentur":11337,"ziele":11338,"Ġverab":11339,"ĠJahreszeit":11340,"ĠTief":11341,"Ġgestern":11342,"tritts":11343,"unken":11344,"ĠThese":11345,"ĠMulti":11346,"bewertung":11347,"anspruch":11348,"veranstaltung":11349,"ĠKaiser":11350,"Ġgekauft":11351,"ĠHaushalts":11352,"kre":11353,"lers":11354,"Ġ|\\":11355,"ierer":11356,"utzut":11357,"ĠLeidenschaft":11358,"lor":11359,"ĠInstitutionen":11360,"ĠEinhaltung":11361,"ĠAuswertung":11362,"Ġvorne":11363,"schÃ¤den":11364,"Ġblo":11365,"Ġspeziellen":11366,"lÃ¤sst":11367,"lÃ¤nger":11368,"utzutage":11369,"Ġgekennzeichnet":11370,"MD":11371,"ausend":11372,"Ġwiederum":11373,"ĠBrun":11374,"kategor":11375,"ĠNorden":11376,"9867":11377,"bef":11378,"ĠSchlei":11379,"zeitung":11380,"ĠLandwirtschaft":11381,"352":11382,"ican":11383,"ĠâĢº":11384,"Ġtesten":11385,"ĠRollen":11386,"Ġhart":11387,"fÃ¼hrungen":11388,"ĠMr":11389,"9844":11390,"ĠVerordnung":11391,"ymnas":11392,"ĠTipp":11393,"nKat":11394,"horn":11395,"arbe":11396,"ĠFoundation":11397,"ĠLogin":11398,"..\\":11399,"adrat":11400,"ĠIsrael":11401,"638":11402,"ĠGrundstÃ¼ck":11403,"QJ":11404,"erkt":11405,"ĠVom":11406,"Ã¼rk":11407,"Ġbewerten":11408,"ĠBesten":11409,"9887":11410,"orgungs":11411,"uble":11412,"ĠFonts":11413,"deutschland":11414,"ĠPir":11415,"OLLOLLOLLOLL":11416,"einformationen":11417,"Ġgestaltet":11418,"pdf":11419,"lank":11420,"weisungen":11421,"9669":11422,"99984":11423,"nWerbung":11424,"ĠOrganisationen":11425,"ĠSy":11426,"ĠSpieltag":11427,"ADC":11428,"ĠAspekte":11429,"versicher":11430,"nMarke":11431,"Ġblieb":11432,"jahres":11433,"agnost":11434,"ellung":11435,"missions":11436,"deaktivieren":11437,"verlust":11438,"ĠOrte":11439,"Ã¶he":11440,"ĠEigentum":11441,"341":11442,"ĠRegionen":11443,"Ġdesto":11444,"spreis":11445,"stÃ¤ndigkeit":11446,"ĠEmpfehlungen":11447,"ups":11448,"nAnaly":11449,"ĠverknÃ¼":11450,"ĠgeprÃ¼ft":11451,"ĠBundesregierung":11452,"ĠVersorgung":11453,"obe":11454,"Ġstruktur":11455,"imal":11456,"ĠBewegungs":11457,"Ġlog":11458,"abellen":11459,"ĠFremd":11460,"99894":11461,"selben":11462,"BBB":11463,"Ġpubl":11464,"ĠDDR":11465,"Ġaufmerksam":11466,"fekt":11467,"92381364":11468,"9971":11469,"ĠKlimaschutz":11470,"2457":11471,"NJ":11472,"ĠIslam":11473,"dule":11474,"rÃ¤g":11475,"99906":11476,"99903":11477,"ĠTarif":11478,"99921":11479,"Ġbehandeln":11480,"349":11481,"9853":11482,"ĠBeste":11483,"nKraftstoffverbrauch":11484,"ury":11485,"9803":11486,"ĠPrivatsphÃ¤re":11487,"ĠPfarr":11488,"ĠInnenstadt":11489,"ĠBanken":11490,"Ġvielmehr":11491,"perten":11492,"Ġbrit":11493,"zwecke":11494,"nEl":11495,"vorschriften":11496,"reihe":11497,"ĠFlÃ¤chen":11498,"ĠVortrag":11499,"Ã¶t":11500,"ĠAngeboten":11501,"ĠplÃ¶tzlich":11502,"gÃ¤nger":11503,"Ġlebens":11504,"nPla":11505,"garn":11506,"lugin":11507,"arg":11508,"Ġhy":11509,"dios":11510,"ĠAkku":11511,"812":11512,"ĠArbeitnehmer":11513,"ĠNoch":11514,"311":11515,"ÑĤ":11516,"Ã§":11517,"ĠLohn":11518,"ĠAllgemeine":11519,"ĠVereinbarung":11520,"372":11521,"ĠSchweden":11522,"Ġhaus":11523,"Ġtelefonisch":11524,"ĠTom":11525,"909":11526,"GL":11527,"810":11528,"Ġhistorischen":11529,"Ġtrans":11530,"nDauer":11531,"Ġrec":11532,"endorf":11533,"ĠBerechtigungen":11534,"TO":11535,"ĠberÃ¼hm":11536,"Ġko":11537,"Institut":11538,"ĠMethode":11539,"ACC":11540,"nVeranstaltungen":11541,"Ġwid":11542,"2007":11543,"</":11544,"Ġideal":11545,"oler":11546,"ĠAufenthalt":11547,"Ġerteilt":11548,"club":11549,"onstr":11550,"nFÃ¶rder":11551,"giene":11552,"uchst":11553,"achter":11554,"ĠSCH":11555,"ZY":11556,"itiv":11557,"ĠKeller":11558,"Ġsiehe":11559,"ĠUntersuchung":11560,"nGesundheit":11561,"Ġvar":11562,"ADA":11563,"MX":11564,"Ã¶ger":11565,"stellers":11566,"ĠBre":11567,"Ã¤fte":11568,"WC":11569,"Ġneun":11570,"JÃ¤hr":11571,"Ġbrowser":11572,"Ġschwierig":11573,"Grund":11574,"grad":11575,"wÃ¼rdig":11576,"99873":11577,"9981":11578,"afel":11579,"Ġmanche":11580,"ĠBauern":11581,"ĠSind":11582,"riech":11583,"ban":11584,"Ġvolle":11585,"nZeit":11586,"99900":11587,"igh":11588,"ĠMilitÃ¤r":11589,"Ġdauert":11590,"Ġpur":11591,"iler":11592,"VI":11593,"Ġauseinander":11594,"leistet":11595,"ĠMehrwert":11596,"ĠFan":11597,"ĠServern":11598,"aschinen":11599,"assel":11600,"ices":11601,"ny":11602,"ingend":11603,"zeption":11604,"ĠAccess":11605,"ĠKÃ¼ndigung":11606,"gesprÃ¤ch":11607,"99926":11608,"geschaltet":11609,"immst":11610,"013":11611,"Ġweib":11612,"727":11613,"tein":11614,"ĠRuf":11615,"QX":11616,"Welt":11617,"Ġeinheit":11618,"Â·":11619,"illusion":11620,"VR":11621,"Ã¤hle":11622,"ATEN":11623,"nMedi":11624,"Ã¤ger":11625,"ĠThÃ¼r":11626,"ĠStimmen":11627,"mein":11628,"weiz":11629,"Ġkat":11630,"beitrag":11631,"nJo":11632,"nZahlungs":11633,"ĠSerien":11634,"center":11635,"ĠGegensatz":11636,"Wirtschaft":11637,"edt":11638,"rimieren":11639,"ious":11640,"ĠAufmerksamkeit":11641,"zeichnete":11642,"ĠEch":11643,"ĠNachdem":11644,"ZR":11645,"sert":11646,"ĠZeug":11647,"prÃ¤che":11648,"2006":11649,"414":11650,"Ġstore":11651,"ĠOberflÃ¤che":11652,"ueber":11653,"ĠEvangel":11654,"iehlt":11655,"ÃľR":11656,"etze":11657,"erte":11658,"esearch":11659,"ĠStudenten":11660,"Ġhoffe":11661,"Ġeiniges":11662,"ĠMarkus":11663,"ĠAnsprÃ¼che":11664,"ĠYou":11665,"stock":11666,"ologisch":11667,"nKl":11668,"Ġdirekte":11669,"Ġitalien":11670,"hematik":11671,"ĠZusch":11672,"treffen":11673,"ĠSystems":11674,"sentation":11675,"tl":11676,"Ġinstallieren":11677,"ricks":11678,"ĠBahnhof":11679,"Ġverbinden":11680,"ĠDiag":11681,"Wie":11682,"ĠWM":11683,"Ġungew":11684,"regeln":11685,"ĠLogistik":11686,"ĠPatient":11687,"ERS":11688,"latt":11689,"sprÃ¤":11690,"ĠWichtig":11691,"EP":11692,"UY":11693,"ĠÃ¶k":11694,"nehmung":11695,"KO":11696,"runde":11697,"ĠPrivate":11698,"FP":11699,"ĠArbeitsplatz":11700,"ĠWerkzeug":11701,"Ġjener":11702,"Dienst":11703,"dor":11704,"iance":11705,"lÃ¤tzen":11706,"CHA":11707,"9863":11708,"9854":11709,"99922":11710,"ĠKirch":11711,"Ġdamen":11712,"sidenten":11713,"9805":11714,"fit":11715,"ĠTrink":11716,"uÃŁball":11717,"ĠsorgfÃ¤l":11718,"pfung":11719,"ĠVitamin":11720,"ĠInternationale":11721,"urst":11722,"Ã¤rten":11723,"swÃ¼r":11724,"ĠZeich":11725,"ĠVerkaufs":11726,"ĠVerteidigung":11727,"ninkl":11728,"nzur":11729,"511":11730,"ĠAuftragsver":11731,"ĠUmfeld":11732,"ĠGermany":11733,"ĠHilfs":11734,"371":11735,"Ġangepasst":11736,"nMobil":11737,"sicher":11738,"Ġbeobachten":11739,"Ġpre":11740,"FT":11741,"ĠglÃ¼cklich":11742,"ĠGlÃ¼cks":11743,"information":11744,"egan":11745,"99855":11746,"ĠStÃ¤dten":11747,"ĠOhr":11748,"ĠErb":11749,"ĠstÃ¤rker":11750,"Ġdr":11751,"ĠUmzug":11752,"nund":11753,">>":11754,"ĠDanach":11755,"ĠBesitz":11756,"ĠKe":11757,"ĠIntelligen":11758,"ĠEbene":11759,"99775":11760,"ategien":11761,"027":11762,"Ġkap":11763,"Ġentscheidet":11764,"Ġumgesetzt":11765,"ĠSollte":11766,"struktion":11767,"ĠGefÃ¼":11768,"ĠVertrieb":11769,"Ġbegleitet":11770,"ĠDist":11771,"Ġerinnern":11772,"ych":11773,"Ġac":11774,"Mar":11775,"orge":11776,"624":11777,"job":11778,"Ġprivat":11779,"uppen":11780,"Ġhervorragen":11781,"Ġgenerell":11782,"ĠParlament":11783,"ĠLot":11784,"steine":11785,"9824":11786,"NW":11787,"nitz":11788,"Ġabs":11789,"ĠImmun":11790,"nHilfe":11791,"comp":11792,"stunden":11793,"Ġnachhaltig":11794,"rid":11795,"ĠLande":11796,"ĠgewÃ¤hrleistet":11797,"âľ":11798,"azz":11799,"9843":11800,"Ġbetten":11801,"ĠAbteilung":11802,"aper":11803,"ĠAnalysen":11804,"wuchs":11805,"Ġbeschlossen":11806,"99893":11807,"ĠKino":11808,"ĠZurÃ¼ck":11809,"ĠDokumente":11810,"ĠHandeln":11811,"irks":11812,"308":11813,"ĠEingabe":11814,"ĠAmt":11815,"rachten":11816,"Ġentdeckt":11817,"schiede":11818,"ĠBreite":11819,"ĠgeprÃ¤":11820,"rauÃŁen":11821,"Ġ56":11822,"Ġsonstigen":11823,"ĠdÃ¼rfte":11824,"medi":11825,"bestand":11826,"ĠFal":11827,"ĠAutob":11828,"Ġref":11829,"links":11830,"Ġgesund":11831,"status":11832,"ĠBeob":11833,"nMontag":11834,"99896":11835,"ĠSter":11836,"ettings":11837,"338":11838,"ĠFÃ¤higkeiten":11839,"Ġschmuck":11840,"99994":11841,"ĠAmb":11842,"Ġdesillusion":11843,"nStadt":11844,"ĠVielen":11845,"Hol":11846,"anzler":11847,"ading":11848,"git":11849,"ï»":11850,"verhÃ¤ltnis":11851,"gebracht":11852,"ulti":11853,"Ġorden":11854,"ĠMitgliedern":11855,"ĠEck":11856,"Ġblau":11857,"ĠJugendlichen":11858,"ĠFinanzierung":11859,"ĠURL":11860,"Fahr":11861,"ĠFlie":11862,"user":11863,"Web":11864,"890":11865,"ĠHoffnung":11866,"ĠMore":11867,"ĠKindes":11868,"ï»¿":11869,"nLinks":11870,"riegelt":11871,"ĠwunderschÃ¶n":11872,"ĠÃ¼berwiegend":11873,"Ġ52":11874,"nRef":11875,"ĠverÃ¶ffentlichten":11876,"irl":11877,"QG":11878,"ieben":11879,"reibungen":11880,"angaben":11881,"ulare":11882,"Ġkomfort":11883,"ĠNÃ¼rnberg":11884,"Ġspezi":11885,"macher":11886,"insel":11887,"Ġti":11888,"2225":11889,"317":11890,"ĠSchwier":11891,"ĠTests":11892,"klar":11893,"ĠMitgliedstaaten":11894,"ĠbedrÃ¼cken":11895,"Ġonly":11896,"ĠVoraussetzung":11897,"ĠNachtruhe":11898,"ĠEinwohner":11899,"umpe":11900,"engl":11901,"ativer":11902,"BM":11903,"ĠDatener":11904,"ÃŁer":11905,"nSofern":11906,"KX":11907,"ilde":11908,"ĠGala":11909,"Ġwesentlich":11910,"ĠWiki":11911,"9351":11912,"pekt":11913,"zÃ¼g":11914,"99874":11915,"Ġ54":11916,"nRÃ¼ck":11917,"ĠReinigung":11918,"ĠAllein":11919,"Ġbestehenden":11920,"Ġ77":11921,"cs":11922,"Ġkomplette":11923,"Ġwollten":11924,"AFA":11925,"99821":11926,"ĠButton":11927,"files":11928,"99927":11929,")\",\"":11930,"Ġgelangen":11931,"ĠÃĸk":11932,"rohr":11933,"utschein":11934,"Ġfrisch":11935,"449":11936,"98673":11937,"ĠAnnahme":11938,"nVimeo":11939,"ĠMc":11940,"350":11941,"Ġbegeg":11942,"Ġreal":11943,"Sa":11944,"skalender":11945,"ĠBestÃ¤tigung":11946,"zehn":11947,"Ġbestimmen":11948,"grÃ¼nden":11949,"ĠHack":11950,"nLogin":11951,"nUrlaub":11952,"99925":11953,"Ġdeprimieren":11954,"ĠFlo":11955,"ĠFavor":11956,"Ġdesillusionieren":11957,"ĠBy":11958,"472":11959,"ielten":11960,"ĠRichtigkeit":11961,"Ġverzichten":11962,"ĠPlugins":11963,"ausschuss":11964,"774":11965,"ĠdÃ¼n":11966,"ĠDez":11967,"ashion":11968,"NP":11969,"Ġgenauer":11970,"nSpiel":11971,"ĠAbwicklung":11972,"ĠAusfÃ¼hrung":11973,"ĠKapit":11974,"Ġgepf":11975,"Ġles":11976,"ĠDienstleister":11977,"ĠdiesbezÃ¼":11978,"jenige":11979,"ĠUpdate":11980,"Ġpositive":11981,"ĠWahrscheinlichkeit":11982,"ĠMittelpunkt":11983,"ku":11984,"9827":11985,"Ġzusammenge":11986,"nArt":11987,"gebir":11988,"ĠbemÃ¼":11989,"ĠBeziehungen":11990,"sieht":11991,"ĠBewerbung":11992,"9813":11993,"ĠschlieÃŁt":11994,"Ġ180":11995,"332":11996,"Ġexperience":11997,"elden":11998,"Ġmotiv":11999,"EBB":12000,"305":12001,"scheid":12002,"ĠerlÃ¤utert":12003,"ĠBÃ¼hne":12004,"ĠAns":12005,"Ġmache":12006,"9784":12007,"ĠEinen":12008,"strasse":12009,"ĠWandel":12010,"nDann":12011,"ĠZiff":12012,"amb":12013,"ĠBeitrÃ¤gen":12014,"Ġgelegt":12015,"gesetzes":12016,"weich":12017,"Ġexklus":12018,"mi":12019,"ĠBrandenburg":12020,"echer":12021,"fenster":12022,"ĠhÃ¶chste":12023,"ĠKamer":12024,"ĠRich":12025,"ĠIdentitÃ¤t":12026,"ĠÃ¼bersch":12027,"Ġangek":12028,"Ġangefangen":12029,"umb":12030,"Ġnew":12031,"ĠgrÃ¼":12032,"Ġsteigt":12033,"state":12034,"Weiter":12035,"700":12036,"ĠCOVID":12037,"bauten":12038,"rauben":12039,"ĠBegeg":12040,"....\\":12041,"99706":12042,"Ġfestgelegt":12043,"Ġinc":12044,"Ã¼gelt":12045,"nÃľbersicht":12046,"802":12047,"ĠBast":12048,"ĠgewÃ¶hn":12049,"Ġbestellt":12050,"ague":12051,"klass":12052,"necessary":12053,"nNoch":12054,"713":12055,"ĠReligion":12056,"ĠKomponenten":12057,"pre":12058,"ĠWeiteren":12059,"keln":12060,"723":12061,"bogen":12062,"Ġunmittelbar":12063,"ĠGriff":12064,"krÃ¤f":12065,"auto":12066,"ĠLau":12067,"ĠÃ¼berwiegen":12068,"ĠAccount":12069,"lehnung":12070,"Ġtritt":12071,"nProf":12072,"422":12073,"swÃ¼rdig":12074,"Ġzuzugreifen":12075,"ĠPhot":12076,"ĠDeiner":12077,"studien":12078,"331":12079,"bridge":12080,"RS":12081,"ship":12082,"Ġfreut":12083,"ennis":12084,"Ġchar":12085,"ĠRechnungs":12086,"nFolge":12087,"lickt":12088,"ferien":12089,"ĠHalle":12090,"ĠSIE":12091,"Ã¼tte":12092,"AED":12093,"amstag":12094,"ĠBab":12095,"ĠHerausforderung":12096,"hst":12097,"steil":12098,"ĠConversion":12099,"ĠBranche":12100,"ĠBill":12101,"ĠhÃ¶here":12102,"fu":12103,"ĠVÃ¶l":12104,"ĠFernseh":12105,"flÃ¼ge":12106,"ĠbegrÃ¼n":12107,"alisierte":12108,"ĠJobs":12109,"nWohn":12110,"Ġkommentiere":12111,"9786":12112,"blÃ¼":12113,"okument":12114,"listen":12115,"ĠProduktions":12116,"ierbar":12117,"FÃ¼r":12118,"9800":12119,"83781534":12120,"ĠÃ¼berprÃ¼ft":12121,"ĠMenÃ¼":12122,"ĠkÃ¶nne":12123,"Ġdurchschnitt":12124,"arbeiteten":12125,"Ġkostenfrei":12126,"YY":12127,"ĠhÃ¶chsten":12128,"378":12129,"ationaler":12130,"Ġeingeloggt":12131,"Ġbetreiben":12132,"methoden":12133,"Ġbestimmter":12134,"rede":12135,"Ã¤chte":12136,"ĠSortiment":12137,"ĠRÃ¼st":12138,"lanze":12139,"unkel":12140,"nApp":12141,"stige":12142,"Ġ89":12143,"brief":12144,"born":12145,"fahrzeuge":12146,"Ġproduziert":12147,"ĠdurchfÃ¼hren":12148,"9838":12149,"Ã¼ndung":12150,"ĠMotorrad":12151,"ĠAbstand":12152,"ĠInsbesondere":12153,"Ġpo":12154,"nSeite":12155,"aktor":12156,"atives":12157,"379":12158,"Ġfordert":12159,"Ġ800":12160,"views":12161,"Projekt":12162,"Ġunder":12163,"Was":12164,"fot":12165,"ckt":12166,"ugh":12167,"Ġvorgestellt":12168,"ĠModerator":12169,"ĠRheinland":12170,"ept":12171,"ĠPortug":12172,"Ã¶mm":12173,"ords":12174,"ĠverÃ¶ffentlichen":12175,"309":12176,"habe":12177,"ĠNEFZ":12178,"amens":12179,"Ġschicken":12180,"ĠUrsache":12181,"ĠVerbrauchs":12182,"9773":12183,"ĠHÃ¶ch":12184,"ĠTextdateien":12185,"ĠSV":12186,"lebnisse":12187,"fiz":12188,"programme":12189,"aptcha":12190,"ĠZusÃ¤tzlich":12191,"Ġaufgebaut":12192,"Ġbeinhaltet":12193,"Ġ53":12194,"ĠCons":12195,"ĠKriegs":12196,"ĠBetrag":12197,"576":12198,"ĠRek":12199,"futter":12200,"FO":12201,"ĠLat":12202,"eignen":12203,"udie":12204,"Ġerlebt":12205,"reift":12206,"begl":12207,"kasten":12208,"Ġempfiehlt":12209,"Ġdeutschsprach":12210,"Ã¼ben":12211,"Ġglaub":12212,"ĠInitiative":12213,"ĠObjekt":12214,"Ġvornehmen":12215,"Ġgehe":12216,"ĠMaler":12217,"rolog":12218,"nSocial":12219,"efÃ¤hr":12220,"Tracking":12221,"ĠSchmerz":12222,"iente":12223,"ĠWerb":12224,"BCB":12225,"Ġtrain":12226,"339":12227,"Ġeingetragen":12228,"ĠQuar":12229,"Ġjuristische":12230,"BG":12231,"Ġfair":12232,"Ġerkenn":12233,"nKategorie":12234,"niveau":12235,"99866":12236,"ZC":12237,"schwer":12238,"beruf":12239,"ĠSÃ¼den":12240,"onia":12241,"Ġinnen":12242,"tage":12243,"urr":12244,"ĠerhÃ¤ltst":12245,"ĠGramm":12246,"Ġzeigte":12247,"ĠÃ¤hnliche":12248,"ĠhÃ¶chst":12249,"Ġreduziert":12250,"âĢ¦âĢ¦":12251,"Ġgeleckt":12252,"Ġreichen":12253,"Stadt":12254,"Ġeffektiv":12255,"imer":12256,"ĠgebÃ¼gelt":12257,"quellen":12258,"Ġveran":12259,"misch":12260,"ĠFett":12261,"einsatz":12262,"Kreis":12263,"ĠWurz":12264,"440":12265,"9823":12266,"ĠWeiterbildung":12267,"Ġ96":12268,"rott":12269,"ĠKurse":12270,"personen":12271,"ĠElemente":12272,"spflichten":12273,"rue":12274,"ĠKleidung":12275,"ĠSoweit":12276,"677":12277,"adel":12278,"VL":12279,"DJ":12280,"406":12281,"nElekt":12282,"eistung":12283,"inuier":12284,"ĠAngriff":12285,"ĠMissbrauch":12286,"ĠExtra":12287,"lip":12288,"Ġeingebunden":12289,"Ġdiverse":12290,"Ur":12291,"nEuro":12292,"sid":12293,"99911":12294,"99895":12295,"304":12296,"ektor":12297,"tigem":12298,"99826":12299,"ĠKonkur":12300,"abr":12301,"552":12302,"Ġrenomm":12303,"kompl":12304,"ĠLtd":12305,"Zeit":12306,"9910":12307,"ĠAufwand":12308,"RC":12309,"pat":12310,"ĠProzesse":12311,"Ġ51":12312,"ĠFassung":12313,"ĠEingang":12314,"Ġland":12315,"Ġverstanden":12316,"position":12317,"ĠGebÃ¼hren":12318,"ĠNiedersachsen":12319,"infe":12320,"rischen":12321,"ĠTee":12322,"ĠAudi":12323,"EFA":12324,"Ġgleicher":12325,"nRed":12326,"Ġgelernt":12327,"99976":12328,"aug":12329,"FAB":12330,"568":12331,"kas":12332,"Ġrot":12333,"Ġprofessionelle":12334,"Ġstammt":12335,"gleichen":12336,"fonds":12337,"ĠjÃ¤hrlich":12338,"order":12339,"Ġhochwertigen":12340,"Ġinstalliert":12341,"ĠCann":12342,"ĠlÃ¤dt":12343,"351":12344,"ĠWLAN":12345,"ieber":12346,"nReply":12347,"ebt":12348,"nArtikelnummer":12349,"ĠBeispiele":12350,"rÃ¤t":12351,"ĠPause":12352,"369":12353,"Ġhinterlassen":12354,"zensionen":12355,"nRead":12356,"2005":12357,"schlagen":12358,"emitteilung":12359,"97343":12360,"Ġcontent":12361,"mÃ¶bel":12362,"Ġkonkreten":12363,"sheim":12364,"Ġverlei":12365,"306":12366,"Ġangenehm":12367,"Ã¼chtig":12368,"Ġheil":12369,"âĢĭ\\":12370,"riechenland":12371,"Ġseiten":12372,"andt":12373,"Ðº":12374,"anzeige":12375,"Ġechte":12376,"ĠLabor":12377,"ĠCentre":12378,"PM":12379,"ĠModeratoren":12380,"ĠJack":12381,"Ã¤ngern":12382,"ĠErwart":12383,"esp":12384,"Ġvollen":12385,"ĠGrafik":12386,"ĠSteuern":12387,"quenz":12388,"Ġter":12389,"Strom":12390,"nDamit":12391,"514":12392,"ĠVorlage":12393,"delberg":12394,"wunsch":12395,"iam":12396,"ĠWork":12397,"insen":12398,"ĠSperrung":12399,"versand":12400,"Ġetabl":12401,"Ġgestriegelt":12402,"fz":12403,"99828":12404,"ĠAction":12405,"9783":12406,"ĠSammlung":12407,"athie":12408,"nSpe":12409,"Account":12410,"eigern":12411,"ĠKul":12412,"ĠanschlieÃŁen":12413,"ĠErkrankungen":12414,"471":12415,"99813":12416,"ĠVorbereitung":12417,"this":12418,"ZM":12419,"spruchs":12420,"ĠHell":12421,"ĠWesten":12422,"ĠListen":12423,"Ġcool":12424,"358":12425,"ĠZÃ¤":12426,"LE":12427,"ĠÂ°":12428,"fferenz":12429,"bÃ¤":12430,"340":12431,"ĠMuskel":12432,"ĠRichtlinie":12433,"CCC":12434,"diese":12435,"ĠErnst":12436,"99845":12437,"NM":12438,"gemÃ¤":12439,"irst":12440,"ĠEinheit":12441,"oman":12442,"Ġerzielen":12443,"Ġgeliefert":12444,"nSelbst":12445,"ĠSoll":12446,"Do":12447,"Ġhalb":12448,"Inter":12449,"ĠChef":12450,"Ġnavig":12451,"ĠheiÃŁen":12452,"Ġfordern":12453,"ĠerwÃ¤hnt":12454,"Ġnahezu":12455,"ORT":12456,"9978982":12457,"Geb":12458,"ĠauÃŁergewÃ¶hn":12459,"istin":12460,"SBN":12461,"nArbeits":12462,"Zu":12463,"ĠBildschirm":12464,"inare":12465,"SI":12466,"ĠNachfrage":12467,"ĠCal":12468,"ĠEuropas":12469,"642":12470,"ĠVersuch":12471,"Ġerweitert":12472,"9877":12473,"ĠGenau":12474,"nKarriere":12475,"chester":12476,"ĠRost":12477,"Ġentstand":12478,"ĠKontra":12479,"nDan":12480,"Ġour":12481,"Ġfern":12482,"nteilen":12483,"ĠBerater":12484,"ĠSlo":12485,"KY":12486,"gast":12487,"Ġaufgel":12488,"anfrage":12489,"ension":12490,"ĠBachelor":12491,"Ġnachvoll":12492,"kg":12493,"Ġordnungs":12494,"var":12495,"ĠErz":12496,"Ġanti":12497,"party":12498,"ures":12499,"klinik":12500,"ĠFestival":12501,"Ġumwelt":12502,"AJ":12503,"ĠAusbildungs":12504,"Ġmusikal":12505,"551":12506,"ĠTelefonnummer":12507,"einrichtungen":12508,"99993":12509,"ĠGre":12510,"ift":12511,"Ġsicherzustellen":12512,"ĠBerÃ¼cks":12513,"training":12514,"ĠFrÃ¼hjahr":12515,"Ġmay":12516,"ging":12517,"ĠSchnee":12518,"ĠAkademie":12519,"ĠShimano":12520,"Ġgegangen":12521,"ĠIV":12522,"ĠHab":12523,"Ġnachhaltige":12524,"Ġgebaut":12525,"Ġkeinem":12526,"stimm":12527,"ĠHandlungs":12528,"ĠSchatten":12529,"ĠTextil":12530,"nMichael":12531,"relev":12532,"intern":12533,"geschnitten":12534,"ĠNewsletters":12535,"Ġbegonnen":12536,"ĠImmobilie":12537,"issenschaften":12538,"!!!":12539,"ktieren":12540,"Ġwind":12541,"spunkt":12542,"ĠZentral":12543,"email":12544,"derne":12545,"478":12546,"Ġunbek":12547,"Ġfeiern":12548,"ĠMatomo":12549,"ĠAbschnitt":12550,"ĠVan":12551,"Ġzugeordnet":12552,"476":12553,"ĠKandid":12554,"ĠMitarbeitern":12555,"Ġheia":12556,"nWirtschaft":12557,"Ġjedenfalls":12558,"426":12559,"ĠKund":12560,"ments":12561,"ppich":12562,"FBB":12563,"ĠHyp":12564,"konzept":12565,"ery":12566,"nÃĸffnungszeiten":12567,"Ã¤ufig":12568,"sperren":12569,"asing":12570,"zubehÃ¶r":12571,"ĠPferde":12572,"weig":12573,"ĠGeschÃ¤ftsfÃ¼hrer":12574,"VM":12575,"ĠGesetzes":12576,"ĠerzÃ¤hlen":12577,"Code":12578,"9695":12579,"praxis":12580,"FEB":12581,"ĠSchÃ¼lerinnen":12582,"adaten":12583,"zusehen":12584,"ĠOnlineangebotes":12585,"aul":12586,"Ġvieler":12587,"Ġschul":12588,"swissenschaft":12589,"Ġvoran":12590,"Ġjetzigen":12591,"cks":12592,"Ġgetan":12593,"Ġthem":12594,"Ant":12595,"Ġbrachte":12596,"schnitts":12597,"Ġdenkbar":12598,"ĠberÃ¼cksichtigt":12599,"iritu":12600,"roman":12601,"ĠKrise":12602,"Ġfarb":12603,"9746":12604,"sek":12605,"gerichts":12606,"ĠLesezeichen":12607,"ĠAlbum":12608,"sper":12609,"ĠAusgaben":12610,"Ġverlie":12611,"ollt":12612,"stÃ¤d":12613,"mode":12614,"nacht":12615,"611":12616,"ĠPaar":12617,"ziger":12618,"330":12619,"ĠReh":12620,"ĠGeltend":12621,"Ġstill":12622,"Ġerinnert":12623,"Server":12624,"Ġkr":12625,"ida":12626,"99823":12627,"Ġgeblieben":12628,"Ġgrob":12629,"Stu":12630,"ĠAutomobil":12631,"641":12632,"ĠPortal":12633,"LZ":12634,"Ġdamal":12635,"ransport":12636,"ĠUnterlagen":12637,"gewinn":12638,"Ġgesonder":12639,"Ġintensiv":12640,"678":12641,"Marketing":12642,"ĠhÃ¶heren":12643,"Ġverschw":12644,"nNÃ¤chster":12645,"EAB":12646,"Ġanzub":12647,"Ġzus":12648,"allel":12649,"ĠBewohner":12650,"ĠGeltendmachung":12651,"Â«\\":12652,"ĠDennoch":12653,"BR":12654,"Ġbisherigen":12655,"Ġoffiziellen":12656,"ĠCow":12657,"handlungen":12658,"Ã¶lf":12659,"media":12660,"âĦ":12661,"nPosted":12662,"Ġkommer":12663,"ĠBord":12664,"ĠKartoff":12665,"Ġvorzu":12666,"Ġbau":12667,"Ġdetaill":12668,"ĠAnna":12669,"Fr":12670,"Ġâľ":12671,"afr":12672,"342":12673,"Ġei":12674,"Ġeleg":12675,"Ġbeliebtesten":12676,"ĠScience":12677,"!âĢľ":12678,"ĠStudio":12679,"ĠPrÃ¤sident":12680,"rufe":12681,"9766":12682,"sub":12683,"ĠSpitze":12684,"ĠCarbon":12685,"asten":12686,"ĠAuft":12687,"ĠMieter":12688,"gesundheit":12689,"ĠSteuerung":12690,"ĠSchwangerschaft":12691,"ĠSpar":12692,"asche":12693,"nTeil":12694,"handlung":12695,"ĠAuflage":12696,"Ġendg":12697,"ĠAussagen":12698,"ĠJubil":12699,"nKultur":12700,"Ġkurzer":12701,"ĠIngen":12702,"asy":12703,"99824":12704,"Ġeventuell":12705,"ĠKanton":12706,"Ġwirksam":12707,"sprÃ¼fung":12708,"hÃ¶rige":12709,"vorgÃ¤nge":12710,"ĠBook":12711,"ktivitÃ¤t":12712,"erenzen":12713,"bewegung":12714,"emann":12715,"ĠGang":12716,"Ġelektronischen":12717,"9940":12718,"303":12719,"Effizienz":12720,"sparenz":12721,"Preis":12722,"Ġunbegrenz":12723,"fÃ¼llen":12724,"ĠAnwendungs":12725,"branche":12726,"nLesen":12727,"ĠKapitel":12728,"Ġschlimm":12729,"vertis":12730,"Ġheutzutage":12731,"rufbar":12732,"findung":12733,"Ġspannende":12734,"418":12735,"red":12736,"fÃ¶r":12737,"nAlso":12738,"425":12739,"ĠRenten":12740,"geschlagen":12741,"Ã¼tter":12742,"Ġgesperrt":12743,"ausbildung":12744,"eget":12745,"automaten":12746,"ĠSus":12747,"ĠDialog":12748,"nJobs":12749,"nJahr":12750,"ĠEmissions":12751,"rechtlich":12752,"nOrt":12753,"ĠChat":12754,"ĠFront":12755,"ĠPublish":12756,"gent":12757,"egenheiten":12758,"pos":12759,"ĠBarb":12760,"data":12761,"Ġerstes":12762,"ĠZauber":12763,"ĠOpt":12764,"ĠVerÃ¤nderung":12765,"ĠBenutzerkonto":12766,"Ġvari":12767,"SH":12768,"wirtschaftslehre":12769,"ĠTrends":12770,"716":12771,"ĠFantas":12772,"ĠStich":12773,"Ġaktualisiert":12774,"Ġbetrifft":12775,"ĠHeinrich":12776,"NQ":12777,"zettel":12778,"Ġmeint":12779,"zahlungen":12780,"Links":12781,"put":12782,"Ġgewisse":12783,"nStart":12784,"stitute":12785,"liebe":12786,"ĠKingdom":12787,"street":12788,"UD":12789,"Ġfaszin":12790,"Ġdritte":12791,"ĠSomit":12792,"antast":12793,"ĠWohnungen":12794,"ĠVariante":12795,"ĠStrecke":12796,"ĠergÃ¤nzen":12797,"Ġreden":12798,"ĠSpur":12799,"Ġleistungs":12800,"eger":12801,"ĠBerichte":12802,"âĺħ":12803,"KQ":12804,"9404":12805,"Ã¤nemark":12806,"lehen":12807,"nMat":12808,"782":12809,"9996415":12810,"ĠKlin":12811,"etooth":12812,"mp":12813,"ĠEN":12814,"weet":12815,"ĠWorkshop":12816,"nMon":12817,"anisch":12818,"ĠmÃ¼sste":12819,"YC":12820,"424":12821,"427":12822,"423":12823,"ĠFreiburg":12824,"mension":12825,"Buch":12826,"sens":12827,"ĠklÃ¤r":12828,"631":12829,"ĠFernsehen":12830,"SX":12831,"Ġirgendwann":12832,"Ġerb":12833,"327":12834,"9796":12835,"ĠfÃ¼hlt":12836,".[":12837,"323":12838,"ĠspÃ¤teren":12839,"Ġoper":12840,"EZ":12841,"attel":12842,"greif":12843,"ĠReaktion":12844,"99935":12845,"Bes":12846,"Met":12847,"Ã¶ren":12848,"ĠGeschlecht":12849,"fleisch":12850,"550":12851,"Ġstimmt":12852,"99814":12853,"Ġbereitzustellen":12854,"ĠErwachsenen":12855,"Ã¤hrungen":12856,"Â»\\":12857,"hÃ¶rer":12858,"traum":12859,"kÃ¤":12860,"582":12861,"abwicklung":12862,"9839669":12863,"js":12864,"314":12865,"schaden":12866,"ĠComm":12867,"Ġausgezeichnet":12868,"lÃ¶sungen":12869,"WJ":12870,"tischer":12871,"Ġbla":12872,"belehrung":12873,"ĠNie":12874,"Ġbeendet":12875,"99804":12876,"Ġgelang":12877,"Ġchron":12878,"fÃ¼hrte":12879,"odurch":12880,"umpen":12881,"ifestyle":12882,"ĠSzen":12883,"Jugend":12884,"nzum":12885,"nShop":12886,"Ġchrist":12887,"Ġschweren":12888,"TT":12889,"99997":12890,"ĠGla":12891,"category":12892,"Ġpassieren":12893,"Ġbun":12894,"host":12895,"313":12896,"Ġerteilen":12897,"Ġsepar":12898,"ĠGalerie":12899,"325":12900,"ymnasium":12901,"ahren":12902,"9745":12903,"klassen":12904,"pil":12905,"Ġsh":12906,"2004":12907,"Ġdeutschland":12908,"ycling":12909,"Ġpri":12910,"ĠergÃ¤nzt":12911,"ĠVorstellung":12912,"ĠverlÃ¤nger":12913,"99975":12914,"Ġaussehen":12915,"Ġabsolv":12916,"VX":12917,"Ġsteckt":12918,"ĠLieb":12919,"ĠSymptome":12920,"Ġhundert":12921,"gebÃ¼hren":12922,"arget":12923,"Ġsens":12924,"Ġstimme":12925,"ĠStimmung":12926,"nBau":12927,"ĠSeg":12928,"99856":12929,"mitglied":12930,"dach":12931,"Ġzuge":12932,"ĠSituationen":12933,"ĠBatterie":12934,"Ġcasino":12935,"Ġberichten":12936,"Ã¤tigkeiten":12937,"ĠFerner":12938,"nBundes":12939,"nNein":12940,"institut":12941,"KA":12942,"KP":12943,"Ġidentifiziert":12944,"ĠEnergien":12945,"ĠFried":12946,"Ġverbind":12947,"dann":12948,"FM":12949,"ĠBem":12950,"Ġoffiziell":12951,"ĠProp":12952,"ĠBerÃ¼cksichtigung":12953,"testet":12954,"irche":12955,"ĠSendung":12956,"ĠBÃ¼r":12957,"nTermine":12958,"schafter":12959,"stehende":12960,"Ġnormalerweise":12961,"Ġversehen":12962,"Ġgespielt":12963,"nAndre":12964,"Ġverf":12965,"strÃ¤ger":12966,"ĠHÃ¶hen":12967,"tzeit":12968,"475":12969,"ĠAnsatz":12970,"ĠPassen":12971,"ĠFutter":12972,"ussball":12973,"ĠKrie":12974,"7728":12975,"nPolitik":12976,"Ã¤mpfung":12977,"ĠBÃ¼nd":12978,"99827":12979,"Ġvorab":12980,"Ġerheblich":12981,"ĠGestalt":12982,"Ġorganisiert":12983,"nTags":12984,"ĠErinnerung":12985,"ĠDekor":12986,"gst":12987,"326":12988,"geblich":12989,"640":12990,"Ãľbersicht":12991,"ĠAngebots":12992,"ĠKlang":12993,"Ġanst":12994,"auben":12995,"nStu":12996,"velop":12997,"639":12998,"ĠSonstiges":12999,"Ġqualit":13000,"ĠAbo":13001,"inform":13002,"ĠberÃ¼cksichtigen":13003,"ĠTrip":13004,"Ã¶schen":13005,"8197343":13006,"lohn":13007,"Ġkompeten":13008,"aktik":13009,"ĠNamens":13010,"Ġgelingt":13011,"ĠEffekt":13012,"Ġmonths":13013,"gesetzten":13014,"99897":13015,"berechtig":13016,"chern":13017,"Newsletter":13018,"hagen":13019,"Ġerw":13020,"Ġzugelassen":13021,"98911":13022,"nFrage":13023,"nLetzte":13024,"mente":13025,"Ġwirtschaftlichen":13026,"entsprechend":13027,"ĠAufgrund":13028,"Ġmessen":13029,"ĠAffiliate":13030,"ĠGumm":13031,".),":13032,"stÃ¶rungen":13033,"Ġverbessert":13034,"531":13035,"âĢĶâĢĶâĢĶâĢĶ":13036,"rsg":13037,"ĠGB":13038,"UZ":13039,"Ġkontinuier":13040,"oker":13041,"892":13042,"542":13043,"ĠkÃ¼nst":13044,"rille":13045,"ĠClass":13046,"Ġverursacht":13047,"Ġmiss":13048,"Ġrechten":13049,"getreten":13050,"ĠHals":13051,"9898":13052,"ĠCoach":13053,"Ġhilfreich":13054,"hÃ¶hung":13055,"706":13056,"rechtliche":13057,"ĠGemeinsam":13058,"ĠDateianhÃ¤nge":13059,"ussion":13060,"swÃ¼rdigkeiten":13061,"rect":13062,"ĠAussage":13063,"Ġverdient":13064,"emm":13065,"ĠSchmidt":13066,"479":13067,"AAB":13068,"ACD":13069,"FH":13070,"Ðĵ":13071,"ĠReihen":13072,"ĠEinzelfall":13073,"99825":13074,"319":13075,"405":13076,"ĠSignatur":13077,"ĠGeschwindigkeit":13078,"ĠBundesliga":13079,"fÃ¼gen":13080,"GG":13081,"819":13082,"Ġfrauen":13083,"cla":13084,"Ġâĸ":13085,"ĠSteck":13086,"ĠMos":13087,"sparen":13088,"presse":13089,"ĠCambridge":13090,"brÃ¼":13091,"nSitemap":13092,"ĠPosts":13093,"haf":13094,"99822":13095,"assten":13096,"ĠNote":13097,"ookiel":13098,"Ġbearbeitet":13099,"ĠNeuigkeiten":13100,"OQ":13101,"owered":13102,"].":13103,"anking":13104,"eligi":13105,"ĠdrauÃŁen":13106,"ĠVorgehen":13107,"Ġgezogen":13108,"dienstleister":13109,"Ġanfordern":13110,"ĠAmerika":13111,"Ġfer":13112,"reibungs":13113,"âĨĳ":13114,"Ã¼ro":13115,"ĠBÃ¼rgermeister":13116,"9185":13117,"itiert":13118,"Ġfestgestellt":13119,"greifende":13120,"aufbau":13121,"Ġreichlich":13122,"nSicherheit":13123,"folger":13124,"ĠWiderrufsrecht":13125,"ĠWillkommen":13126,"Ġerleichtern":13127,"grenzen":13128,"Ġsodann":13129,"antel":13130,"ĠWiener":13131,"aktivitÃ¤t":13132,"ĠKiel":13133,"ausstattung":13134,"ĠEintrag":13135,"arning":13136,"aaaaaaaa":13137,"ĠRichter":13138,"474":13139,"âĦ¢":13140,"Ġbezahlt":13141,"Ġwunderbar":13142,"ĠHat":13143,"ĠEintrÃ¤ge":13144,"ĠbeeintrÃ¤chtigen":13145,"Ġgeringer":13146,"ĠTu":13147,"plant":13148,"nEngl":13149,"Pol":13150,"prof":13151,"ĠUniversitÃ¤ts":13152,"ĠMagen":13153,"Ġdurchsuchen":13154,"Ã¤ndige":13155,"ĠReal":13156,"Ġpart":13157,"99800":13158,"TD":13159,"max":13160,"ĠTouren":13161,"9714":13162,"773":13163,"Ġbesseren":13164,"wel":13165,"ĠEntwicklungen":13166,"Ġgeltend":13167,"Ġdiejenigen":13168,"policy":13169,"Ġversteht":13170,"Ġverschiedener":13171,"serie":13172,"9837":13173,"Ġignor":13174,"ĠWhatsApp":13175,"ĠPool":13176,"45674":13177,"server":13178,"Ġwodurch":13179,"nWeihn":13180,"9795":13181,"ĠJuden":13182,"9736":13183,"ĠTÃ¼rkei":13184,"Star":13185,"ĠFonds":13186,"ĠCovid":13187,"ĠEntz":13188,"nSearch":13189,"atien":13190,"Ġbeantragen":13191,"EFB":13192,"Ġerfolgreichen":13193,"nNun":13194,"Ġfreiwillig":13195,"Ġzustimmen":13196,"nBilder":13197,"Ġverletzt":13198,"uttons":13199,"ĠÃľberra":13200,"ĠKontroll":13201,"ulÃ¤r":13202,"ĠAktivierung":13203,"Ġbasiert":13204,"nFalls":13205,"Schn":13206,"su":13207,"emon":13208,"ĠLok":13209,"ĠJer":13210,"Ġcategory":13211,"ĠstÃ¤rken":13212,"ĠVersch":13213,"itekten":13214,"KI":13215,"tel":13216,"nBerlin":13217,"Ġbill":13218,"Ġzwingend":13219,"ĠEntfernung":13220,"KN":13221,"Ġerzeug":13222,"ĠHalt":13223,"Artikel":13224,"syl":13225,"):\\":13226,"KC":13227,"ĠÃľbrigen":13228,"ĠSchau":13229,"schnitte":13230,"ĠwÃ¼nsche":13231,"ĠkÃ¼nftig":13232,"ookielaw":13233,"onnerstag":13234,"akete":13235,"ĠKÃ¶":13236,"ĠNavigation":13237,"ĠFunk":13238,"558":13239,"banken":13240,"card":13241,"hls":13242,"VW":13243,"ĠHub":13244,"betreuung":13245,"prozesse":13246,"Ġfra":13247,"efeld":13248,"Feed":13249,"661":13250,"Rei":13251,"PX":13252,"Ġbetrachtet":13253,"ELL":13254,"krÃ¤":13255,"AEC":13256,"ĠGelÃ¤nde":13257,"nWÃ¤hrend":13258,"ĠausgewÃ¤hlte":13259,"ĠDollar":13260,"ĠEhr":13261,"ema":13262,"ookielawinfo":13263,"ĠGefahren":13264,"nImmer":13265,"daktion":13266,"lampe":13267,"nEnergie":13268,"utr":13269,"ĠBestehen":13270,"ĠBehÃ¶rde":13271,"aters":13272,"Ġaufgerufen":13273,"404":13274,"ĠCB":13275,"fahrzeug":13276,"schaltung":13277,"ĠEinverstÃ¤ndnis":13278,"726":13279,"tragt":13280,"nGemein":13281,"93652457":13282,"ape":13283,"ĠfrÃ¼hen":13284,"ĠSingle":13285,"rillen":13286,"ĠFeiert":13287,"ĠDisplay":13288,"Ġwarm":13289,"9775":13290,"FX":13291,"97345674":13292,"zeugung":13293,"mu":13294,"ĠLock":13295,"rÃ¤glich":13296,"98673105":13297,"Ġunkompl":13298,"iers":13299,"ĠFluss":13300,"oter":13301,"ĠtatsÃ¤ch":13302,"ĠSchuhe":13303,"Ġdringend":13304,"petenzen":13305,"Ã¤ndigen":13306,"Ġbeliebt":13307,"echselt":13308,"ĠBig":13309,"ditions":13310,"ĠPreisen":13311,"ĠSorgen":13312,"ettet":13313,"ĠIng":13314,"pool":13315,"plemen":13316,"ncookielawinfo":13317,"agra":13318,"9316":13319,"Westfalen":13320,"laf":13321,"9774":13322,"Ġqualifiz":13323,"lÃ¤ufe":13324,"Name":13325,"ittern":13326,"ĠSchleswig":13327,"99843":13328,"Ġgerecht":13329,"ĠAtom":13330,"ĠAusflug":13331,"Ġgesprochen":13332,"leiten":13333,"ertal":13334,"ĠMach":13335,"bit":13336,"99865":13337,"atischen":13338,"ĠTrauer":13339,"ĠEurovon":13340,"ĠGenuss":13341,"Ġ1996":13342,"775":13343,"etreiber":13344,"spunkte":13345,"074":13346,"lÃ¤ub":13347,"stil":13348,"ĠStÃ¤rke":13349,"ĠGutscheine":13350,"Ġdirekten":13351,"ĠSong":13352,"zelt":13353,"hotel":13354,"nAuto":13355,"beteil":13356,"ffffffffffffffff":13357,"516":13358,"mber":13359,"krain":13360,"Ġ+++":13361,"ĠPflichten":13362,"ĠHD":13363,"ĠDenken":13364,"ĠErhalt":13365,"ĠGetrÃ¤nke":13366,"Ġallgemeine":13367,"usiness":13368,"ĠSebastian":13369,"atar":13370,"Ġteuer":13371,"Ġorien":13372,"ĠRauch":13373,"fÃ¼hrende":13374,"ĠNiveau":13375,"ĠKontakte":13376,"ĠTemperaturen":13377,"Ġverbringen":13378,"ĠEinheiten":13379,"stage":13380,"itur":13381,"Ġ(Â§":13382,"Ġmitten":13383,"Ġdementsprechend":13384,"9804":13385,"Ġrelevante":13386,"ĠRecher":13387,"ĠTank":13388,"polit":13389,"ĠSchÃ¤":13390,"Ã¶rg":13391,"622":13392,"99803":13393,"ĠPharmazie":13394,"Ġfolgender":13395,"Ġerworben":13396,"elf":13397,"ĠungefÃ¤hr":13398,"isierter":13399,"Ã¶nnen":13400,"nHinter":13401,"ziale":13402,"ideen":13403,"CAPT":13404,"AAA":13405,"Ġerschien":13406,"nHaben":13407,"ofen":13408,"BAB":13409,"IEN":13410,"organisation":13411,"Ġmg":13412,"ĠTelek":13413,"999614":13414,"Ġ76":13415,"675":13416,"elekt":13417,"ĠErste":13418,"Ġemotion":13419,"345":13420,"ĠtÃ¤glichen":13421,"ĠkÃ¼mmern":13422,"BED":13423,"99816":13424,"473":13425,"baus":13426,"384":13427,"Pandemie":13428,"nPress":13429,"Ġrechtz":13430,"ordnet":13431,"sekten":13432,"ĠHobby":13433,"Ġzog":13434,"ĠAds":13435,"ĠEich":13436,"ĠEgal":13437,"Ġ73":13438,"ACE":13439,"Ġdarstellen":13440,"ĠKons":13441,"ĠWÃ¤rm":13442,"9787":13443,"nWill":13444,"RY":13445,"Ġperman":13446,"BEIT":13447,"Ġhell":13448,"oni":13449,"9765":13450,"ĠBarr":13451,"ĠKrisen":13452,"konom":13453,"bedÃ¼rf":13454,"nDein":13455,"ĠMay":13456,"445":13457,"CAPTCHA":13458,"ĠOver":13459,"ĠZy":13460,"izient":13461,"Ġmobile":13462,"Pad":13463,"dl":13464,"FJ":13465,"Pfalz":13466,"phones":13467,"ĠÃľbungen":13468,"ĠBuchung":13469,"ĠIndividu":13470,"Ġliefer":13471,"ĠHÃ¤":13472,"orname":13473,"nFrank":13474,"anteil":13475,"Ġanf":13476,"DEA":13477,"ĠEu":13478,"786":13479,"ĠEink":13480,"Ġvermitteln":13481,"ĠWettbewerb":13482,"adies":13483,"ohne":13484,"ĠDec":13485,"ĠOlymp":13486,"medien":13487,"Men":13488,"breite":13489,"eiz":13490,"ĠBetracht":13491,"ced":13492,"amburg":13493,"aj":13494,"Ġtr":13495,"ĠVerfÃ¼gbarkeit":13496,"ehle":13497,"Ġinvestieren":13498,"Ġums":13499,"Ã¶m":13500,"ĠBegrÃ¼n":13501,"ĠRestaurants":13502,"Ġmithilfe":13503,"heizung":13504,"99793":13505,"Ġersetzen":13506,"ĠmÃ¤nn":13507,"Ġ63":13508,"ĠOffice":13509,"ĠBasel":13510,"ĠProfession":13511,"lÃ¤ndern":13512,"zenten":13513,"ĠgemÃ¼t":13514,"ĠKlÃ¤ger":13515,"ĠDipl":13516,"Ġschnellen":13517,"Ġerfolgreiche":13518,"Ġansprechen":13519,"9604":13520,"Ġok":13521,"ternehm":13522,"geschichten":13523,"Ġverboten":13524,"Ã¤le":13525,"unen":13526,"521":13527,"woche":13528,"ĠEmo":13529,"VZ":13530,"ringe":13531,"ĠPlattformen":13532,"nÃ¶":13533,"mÃ¤ÃŁigkeit":13534,"Ġdato":13535,"richter":13536,"Ġschau":13537,"073":13538,"wender":13539,"angt":13540,"reicher":13541,"Ġnormalen":13542,"neter":13543,"9820":13544,"ralien":13545,"Ġdeutscher":13546,"ĠUrheberrecht":13547,"nGast":13548,"ĠSm":13549,"ĠEbenso":13550,"AFF":13551,"Ġunentgelt":13552,"Ġmar":13553,"99724":13554,"ndas":13555,"deutsche":13556,"OZ":13557,"nMeinen":13558,"ĠKalenderjahr":13559,"nein":13560,"ouren":13561,"anischen":13562,"Ã¶ne":13563,"ĠEntscheidungs":13564,"0372":13565,"Ġ160":13566,"373":13567,"spot":13568,"ĠFlÃ¼ss":13569,"nj":13570,"Ġbezogen":13571,"Ã¶sterreich":13572,"muster":13573,"âĢī":13574,"Ġangest":13575,"TJ":13576,"ĠPhilipp":13577,"ĠChamp":13578,"...\",\"":13579,"721":13580,"99794":13581,"oos":13582,"ĠÃ¤uÃŁerst":13583,"mitglieder":13584,"verlag":13585,"WB":13586,"Ġmedi":13587,"705":13588,"ĠCoaching":13589,"Ġ59":13590,"tsam":13591,"ĠDos":13592,"715":13593,"Ġsign":13594,"EEB":13595,"9626":13596,"ĠIsb":13597,"Ġsetzte":13598,"ĠGegner":13599,"538":13600,"ĠKuchen":13601,"561":13602,"tensiv":13603,"nEinfach":13604,"rix":13605,"stab":13606,"bio":13607,"stÃ¤rke":13608,"99774":13609,"Ġfanden":13610,"orial":13611,"ĠverstÃ¤nd":13612,"Ã¤cht":13613,"pan":13614,"ĠWiesbaden":13615,"ĠEinstieg":13616,"dt":13617,"ĠVarianten":13618,"Ġficken":13619,"Ġ1997":13620,"checkbox":13621,"Ġintelligen":13622,"ĠJungen":13623,"nJede":13624,"laudia":13625,"ĠHamburger":13626,"nNID":13627,"Ġziel":13628,"ĠGeburts":13629,"ĠZen":13630,"arrierefrei":13631,"1387":13632,"ĠKrankheiten":13633,"ĠUltra":13634,"ĠMathematik":13635,"loch":13636,"ĠgenÃ¼gend":13637,"Ġberechnet":13638,"9785":13639,"Ġselben":13640,"ĠGerÃ¤ten":13641,"ĠErkenntnis":13642,"Ġlautet":13643,"nProdukte":13644,"ĠâĤ¬*\\":13645,"kabel":13646,"tifikat":13647,"aktivitÃ¤ten":13648,"ĠerklÃ¤rte":13649,"rome":13650,"ĠVin":13651,"ilian":13652,"rose":13653,"ĠAussicht":13654,"Ġlecker":13655,"Ġjapan":13656,"Ġbegrenzt":13657,"ĠBeam":13658,"ĠschÃ¶ner":13659,"Ġstimmst":13660,"prakti":13661,"ĠBam":13662,"Ġrechnen":13663,"Ġerkennt":13664,"plor":13665,"ĠTum":13666,"536":13667,"98814":13668,"Ġreagieren":13669,"Ġrechtliche":13670,"679":13671,"CM":13672,"Ġverlangt":13673,"ado":13674,"auger":13675,"nKont":13676,"91960":13677,"derungen":13678,"Fi":13679,"Ġnacht":13680,"ĠMarc":13681,"515":13682,"ĠRegierungs":13683,"fal":13684,"dates":13685,"Ġ74":13686,"ĠErfahrungs":13687,"wohnungen":13688,"633":13689,"ĠArzneimittel":13690,"Ġweshalb":13691,"Ġklingt":13692,"Ġrob":13693,"99811":13694,"wetten":13695,"ĠGrÃ¼ndung":13696,"ĠBull":13697,"ĠFinanzen":13698,"ehmend":13699,"BEB":13700,"321":13701,"ĠJÃ¼rgen":13702,"ĠUnterkunft":13703,"CDC":13704,"RX":13705,"ĠBart":13706,"aÃŁnahmen":13707,"nPrivacy":13708,"ĠAlte":13709,"ĠRÃ¤ume":13710,"99776":13711,"ais":13712,"376":13713,"ĠLiebes":13714,"9735":13715,"ndern":13716,"nAbo":13717,"avas":13718,"355":13719,"417":13720,"9749839":13721,"ĠNeum":13722,"632":13723,"Profil":13724,"register":13725,"522":13726,"ĠViertel":13727,"ĠAuseinander":13728,"nLauf":13729,"Ġkeines":13730,"ĠWebsitebetreiber":13731,"Ã¤b":13732,"vort":13733,"637":13734,"ĠVeranstaltungs":13735,"He":13736,"otheken":13737,"TY":13738,"hÃ¤ltnisse":13739,"zustand":13740,"verbindung":13741,"PJ":13742,"Ġ88":13743,"Ġkop":13744,"\\\"-":13745,"ãĢ":13746,"Bereich":13747,"Ġ58":13748,"ĠChristoph":13749,"ĠzuverlÃ¤ssig":13750,"irts":13751,"084":13752,"EHR":13753,"Ġ-\\":13754,"ĠTax":13755,"ĠWerktage":13756,"ĠKÃ¼nst":13757,"Ġabgeb":13758,"ĠKrebs":13759,"becken":13760,"ĠZuschauer":13761,"ebst":13762,"ĠTÃ¼ren":13763,"dress":13764,"728":13765,"Ġeingeladen":13766,"Ġvereinbart":13767,"einheit":13768,"9644":13769,"Werk":13770,"8311":13771,"658":13772,"ĠMB":13773,"ĠZahnmedizin":13774,"vgl":13775,"ĠausgefÃ¼hrt":13776,"WX":13777,"ĠCr":13778,"Ġsow":13779,"Ã¶gel":13780,"ĠAblehnung":13781,"rÃ¼h":13782,"hilfen":13783,"9722":13784,"Ġbewerben":13785,"324":13786,"Ġklassische":13787,"9811":13788,"99784":13789,"ĠMedikamente":13790,"99815":13791,"ĠCoronavirus":13792,"Ġweist":13793,"ABB":13794,"oli":13795,"riedenheit":13796,"ĠKolleg":13797,"ĠDatenschutzbeauftrag":13798,"ĠschlÃ¤":13799,"Ġverbindet":13800,"ĠVereinigten":13801,"anleitung":13802,"ADB":13803,"ĠPerspektive":13804,"Ġreserv":13805,"Ġvorbereitet":13806,"ĠRegionalwissenschaften":13807,"âĢİ":13808,"nDoch":13809,"sicherung":13810,"506":13811,"ĠNordrhein":13812,"ĠTrocken":13813,"Ġgesetzlicher":13814,"ĠAtt":13815,"light":13816,"nQ":13817,"modus":13818,"725":13819,"ĠLoc":13820,"Ġangenommen":13821,"ĠHinblick":13822,"ĠRealitÃ¤t":13823,"Ġentwickelte":13824,"ĠPen":13825,"blut":13826,"ĠDIN":13827,"99835":13828,"ĠNeubau":13829,"ĠBlatt":13830,"Box":13831,"furter":13832,"tv":13833,"Ġauss":13834,"ĠGÃ¼":13835,"9901":13836,"mag":13837,"ĠBoch":13838,"ĠBlau":13839,"616":13840,"ĠData":13841,"ĠTob":13842,"Ġach":13843,"ĠAkt":13844,"erer":13845,"Ġmoment":13846,"ĠErkrankung":13847,"hÃ¤ndler":13848,"99820":13849,"Kompon":13850,"Ã¼ndigen":13851,"ĠWerkstatt":13852,"2000":13853,"SJ":13854,"91960144":13855,"Ã¤hler":13856,"ĠGÃ¶tt":13857,"ality":13858,"ĠAuftraggeber":13859,"key":13860,"673":13861,"lÃ¤ngerung":13862,"programmen":13863,"ĠSchwimm":13864,"Ġleichte":13865,"usen":13866,"569":13867,"Ã¼ltigkeit":13868,"ĠZutaten":13869,"ĠNotfall":13870,"willigen":13871,"Ġberuht":13872,"Ġgetragen":13873,"Ã¶sser":13874,"pÃ¤dagogik":13875,"ĠSha":13876,"aktiere":13877,"nModell":13878,"ĠGroÃŁbritannien":13879,"leiste":13880,"ĠBlÃ¼ten":13881,"iment":13882,"mieter":13883,"StraÃŁe":13884,"ĠHas":13885,"ĠRass":13886,"camp":13887,"ĠOberflÃ¤chen":13888,"show":13889,"513":13890,"636":13891,"ĠQuer":13892,"Ġverfolgt":13893,"ĠUrsachen":13894,"621":13895,"ĠWagen":13896,"Online":13897,"HH":13898,"Ġbekomme":13899,"99783":13900,"nTag":13901,"605":13902,"ĠDirektwerbung":13903,"704":13904,"ausstellung":13905,"ĠSportback":13906,"RI":13907,"ragend":13908,"eingang":13909,"Ġmehrfach":13910,"Ġany":13911,"landschaft":13912,"GV":13913,"9808":13914,"Holstein":13915,"Ġvideo":13916,"stunde":13917,"ĠVertragsschluss":13918,"urse":13919,"ĪĴ":13920,"655":13921,"ohr":13922,"ĠJede":13923,"auptsÃ¤chlich":13924,"ĠBenutzernamen":13925,"ĠStatt":13926,"kehrt":13927,"ĠWahrnehmung":13928,"ĠAktuell":13929,"ĠFranken":13930,"ĠDJ":13931,"INE":13932,"ĠTrÃ¤ger":13933,"9027":13934,"nSk":13935,"gebÃ¼hr":13936,"Ġbeteiligt":13937,"nVorname":13938,"nRSS":13939,"ĠTun":13940,"Ġ57":13941,"Ġoffene":13942,"werfen":13943,"ĠBewusstsein":13944,"schicken":13945,"affung":13946,"gau":13947,"ĠNetzwerke":13948,"RJ":13949,"materialien":13950,"zubauen":13951,"ĠPrint":13952,"ĠWeltkrieg":13953,"ĠMittag":13954,"ĠGrenze":13955,"machungen":13956,"pflichtig":13957,"ĠFakult":13958,"ĠKonflikt":13959,"ĠZun":13960,"ĠFord":13961,"ĠBibel":13962,"566":13963,"ĠInhaber":13964,"Ġgetestet":13965,"ĠSchaltflÃ¤che":13966,"ĠRathaus":13967,"ĠSSL":13968,"ĠHen":13969,"Gew":13970,"375":13971,"ĠDid":13972,"estern":13973,"ffe":13974,"532":13975,"probleme":13976,"ĠBeide":13977,"Ġgebraucht":13978,"ĠProfiling":13979,"DAB":13980,"Ġfiel":13981,"uelles":13982,"samt":13983,"Ġbestens":13984,"Ġspringen":13985,"skon":13986,"ĠEier":13987,"ĠSoWi":13988,"9725":13989,"ĠlÃ¤ngere":13990,"atterien":13991,"Ġproblemlos":13992,"kurse":13993,"1286":13994,"seudonym":13995,"riger":13996,"Ġflexibel":13997,"ĠBGB":13998,"99920":13999,"776":14000,"behÃ¶rde":14001,"ungsrecht":14002,"ĠAnn":14003,"Video":14004,"ĠHaltung":14005,"ji":14006,"ĠSchlafzimmer":14007,"ĠInspir":14008,"ĠKrÃ¤uter":14009,"99969727":14010,"ĠKÃ¶nigreich":14011,"aint":14012,"geleitet":14013,"676":14014,"ĠProbe":14015,"ĠAufbewahrung":14016,"auschal":14017,"Ġvermittelt":14018,"ĠjÃ¼d":14019,"ĠHaft":14020,"nCon":14021,"emburg":14022,"ĠCou":14023,"ĠGehirn":14024,"Ã¼ge":14025,"diz":14026,"535":14027,"gefÃ¼gt":14028,"724":14029,"hyth":14030,"Min":14031,"674":14032,"Ġlokalen":14033,"Ġanzubieten":14034,"Ã¼tze":14035,"783":14036,"){":14037,"hardt":14038,"ĠausgewÃ¤hlten":14039,"etzten":14040,"ĠBestimmung":14041,"freundlich":14042,"Ġumge":14043,"383":14044,"AEA":14045,"ĠSauer":14046,"ason":14047,"ĠJagd":14048,"Ġexp":14049,"********":14050,"ĠRuhr":14051,"verantwort":14052,"ĠFÃľR":14053,"mass":14054,"ĠzulÃ¤ssig":14055,"ĠFax":14056,"ĠTheorie":14057,"ĠLag":14058,"verbot":14059,"Ġangebotenen":14060,"eten":14061,"ĠStau":14062,"ĠTit":14063,"Ã¤digung":14064,"484":14065,"sing":14066,"gesp":14067,"ĠGewinnspiel":14068,"inal":14069,"ĠHead":14070,"gerecht":14071,"ĠSchu":14072,"ĠBezirk":14073,"Ġanderwei":14074,"99791":14075,"Ġimm":14076,"Ġermittelt":14077,"501":14078,"Ġinteragieren":14079,"Ġchines":14080,"Ġhum":14081,"oper":14082,"gewand":14083,"tentwicklung":14084,"!)":14085,"room":14086,"ĠDuft":14087,"ĠkrÃ¤f":14088,"packt":14089,"verarbeitung":14090,"99864":14091,"ĠDefin":14092,"azitÃ¤t":14093,"hauptstadt":14094,"Ġhoffen":14095,"trager":14096,"Ġvol":14097,"ĠLiv":14098,"hÃ¼":14099,"Ġfree":14100,"stedt":14101,"ĠKonzer":14102,"ĠÃľberein":14103,"Ġ72":14104,"ĠAussehen":14105,"ĠBegriffe":14106,"ĠLife":14107,"ĠWi":14108,"ĠBuchstaben":14109,"nRegistrieren":14110,"ĠUniversity":14111,"ĠNahrung":14112,"Ġendet":14113,"028":14114,"nachrichten":14115,"amik":14116,"ĠfÃ¤hrt":14117,"lendet":14118,"Ġdauern":14119,"ĠVereine":14120,"Rep":14121,"ĠEmissionswerte":14122,"9776":14123,"nVorheriger":14124,"Ġausreichen":14125,"ĠAusbau":14126,"Ġabend":14127,"landes":14128,"aturen":14129,"99963754":14130,"ĠPrei":14131,"kleber":14132,"tist":14133,"Ġ!\\":14134,"wetter":14135,"ĠAmph":14136,"teten":14137,"ĠKey":14138,"Ġnord":14139,"Ġautomatische":14140,"Ġgewerb":14141,"Ġeinzeln":14142,"ĠProblemen":14143,"WW":14144,"VQ":14145,"dat":14146,"ĠgewÃ¼nschte":14147,"eminar":14148,"Gruppe":14149,"Ġoffenbar":14150,"nDem":14151,"rechner":14152,"ĠMaus":14153,"ĠJungs":14154,"hÃ¤":14155,"Eine":14156,"ĠKleine":14157,"nBewertung":14158,"ĠAfD":14159,"9828":14160,"ĠKonsequ":14161,"gert":14162,"Ġfla":14163,"ĠKundenservice":14164,"lÃ¤uft":14165,"anische":14166,"9793":14167,"Element":14168,"Mehr":14169,"Ġverhinderte":14170,"gibt":14171,"ĠKas":14172,"DEB":14173,"stel":14174,"99908":14175,"Bundes":14176,"Frei":14177,"8977728":14178,"ĠServic":14179,"9555":14180,"ecklen":14181,"ĠHaftungs":14182,"Ġnachfolgenden":14183,"SF":14184,"Ġstammen":14185,"ĠMatthias":14186,"ĠAnleger":14187,"ĠPartnern":14188,"ĠkÃ¼nstler":14189,"ford":14190,"Ġ69":14191,"nummern":14192,"alf":14193,"ĠAnhÃ¤nger":14194,"ĠBehinderung":14195,"Ġvollkommen":14196,"628":14197,"Ġauszugestalten":14198,"amerika":14199,"ĠVerbreitung":14200,"fÃ¶rm":14201,"ĠAnmelde":14202,"ĠPhysik":14203,"EY":14204,"ĠPhase":14205,"ĠCyber":14206,"freunde":14207,"ĠIDs":14208,"stant":14209,"Ġuntersucht":14210,"Ġlinken":14211,"ĠMom":14212,"ĠSin":14213,"Ġrufen":14214,"603":14215,"AEB":14216,"olade":14217,"wirkt":14218,"ticle":14219,"ĠBibliothek":14220,"echtigkeit":14221,"505":14222,"Ġgarantieren":14223,"623":14224,"griffen":14225,"ATION":14226,"Ġbetrachten":14227,"aken":14228,"ĠEmpfehlung":14229,"jektiv":14230,"Ġzunehmend":14231,"ĠFreundin":14232,"rev":14233,"Ġmanchen":14234,"ĠHir":14235,"fÃ¤ll":14236,"ĠEigentÃ¼mer":14237,"711":14238,"ear":14239,"AAD":14240,"ĠAkte":14241,"ĠFlÃ¤che":14242,"bremse":14243,"HZ":14244,"ĠColl":14245,"Ġermitteln":14246,"393":14247,"Ġzweck":14248,"EJ":14249,"nmit":14250,"cle":14251,"regungen":14252,"Ġallzu":14253,"Ġjene":14254,"ature":14255,"verschluss":14256,"ĠtÃ¶":14257,"Ġcomment":14258,"391":14259,"ĠKryptow":14260,"ĠerklÃ¤rst":14261,"322":14262,"095":14263,"VerschlÃ¼sselung":14264,"Ġnackt":14265,"png":14266,"ĠGerne":14267,"ĠEreignis":14268,"9685":14269,"575":14270,"Ġbeschreibt":14271,"539":14272,"psych":14273,"9666":14274,"ĠRud":14275,"ĠTiefe":14276,"Ġ86":14277,"iano":14278,"Ġgeschafft":14279,"apter":14280,"iode":14281,"Ġstarte":14282,"Ġ1945":14283,"Ġtem":14284,"ĠNachweis":14285,"571":14286,"mor":14287,"speicher":14288,"vorsitzen":14289,"BAC":14290,"indern":14291,"086":14292,"lance":14293,"ĠmilitÃ¤r":14294,"Ġspielte":14295,"Ġnennt":14296,"Per":14297,"olta":14298,"Inhalten":14299,"werkstatt":14300,"KD":14301,"Ġeindeutig":14302,"ĠFi":14303,"Ġvereinbar":14304,"galerie":14305,"ĠLap":14306,"ĠSchicht":14307,"ĠBereits":14308,"TQ":14309,"auswahl":14310,"093":14311,"kÃ¼hl":14312,"Kinder":14313,"liessen":14314,"Bahn":14315,"Ġul":14316,"bro":14317,"625":14318,"ĠGÃ¼n":14319,"nMitglied":14320,"{\\\"":14321,"kolle":14322,"ĠSchulter":14323,"Ġ93":14324,"Ġvors":14325,"ĠTatsache":14326,"nZitat":14327,"wechs":14328,"entin":14329,"443":14330,"weitern":14331,"ĠKohlen":14332,"winkel":14333,"ĠWorkshops":14334,"Ġstre":14335,"Ġanspruchs":14336,"ĠScheiben":14337,"ĠEdition":14338,"beutel":14339,"Ġschlagen":14340,"bergen":14341,"lechter":14342,"ĠKult":14343,"Ġrest":14344,"Ġdok":14345,"tages":14346,"ĠGrafiken":14347,"quote":14348,"ĠVirus":14349,"489":14350,"ĠgÃ¤ngigen":14351,"wall":14352,"Version":14353,"ĠKarlsruhe":14354,"ĠBesuchs":14355,"ĠFu":14356,"LP":14357,"schicht":14358,"ĠArbeiter":14359,"âĨĲ":14360,"lÃ¤nge":14361,"401":14362,"578":14363,"malen":14364,"Jo":14365,"Ġ61":14366,"9726":14367,"Ġ1980":14368,"ĠAufenthalts":14369,"geschwindigkeit":14370,"Ter":14371,"ĠBehandlungs":14372,"ĠMusiker":14373,"Ġderartige":14374,"streetmap":14375,"574":14376,"Ġentscheidend":14377,"NO":14378,"faser":14379,"ĠFranzÃ¶s":14380,"ĠStory":14381,"ĠBeton":14382,"ĠLou":14383,"ĠNeuer":14384,"zeichneten":14385,"Ġgearbeitet":14386,"Ġehren":14387,"683":14388,"geschoss":14389,"Ġseid":14390,"fried":14391,"ebung":14392,"Ġerwerben":14393,"DBB":14394,"nimmt":14395,"9947523":14396,"filme":14397,"TZ":14398,"schÃ¶pf":14399,"533":14400,"Ġbedienen":14401,"Ã¤ufe":14402,"722":14403,"Ġberechnen":14404,"ĠHÃ¤user":14405,"nect":14406,"428":14407,"ehren":14408,"ĠOkt":14409,"Ġalter":14410,"ĠTrag":14411,"ami":14412,"KZ":14413,"ĠvorÃ¼ber":14414,"9878":14415,
[...]
