{
  "version": "1.0",
  "truncation": null,
  "padding": null,
  "added_tokens": [
    {
      "id": 0,
      "content": "<eos>",
      "single_word": false,
      "lstrip": false,
      "rstrip": false,
      "normalized": false,
      "special": true
    },
    {
      "id": 1,
      "content": "<unk>",
      "single_word": false,
      "lstrip": false,
      "rstrip": false,
      "normalized": false,
      "special": true
    },
    {
      "id": 2,
      "content": "<pad>",
      "single_word": false,
      "lstrip": false,
      "rstrip": false,
      "normalized": false,
      "special": true
    }
  ],
  "normalizer": {
    "type": "NFKC"
  },
  "pre_tokenizer": {
    "type": "Metaspace",
    "replacement": "▁",
    "prepend_scheme": "always",
    "split": true
  },
  "post_processor": null,
  "decoder": {
    "type": "Metaspace",
    "replacement": "▁",
    "prepend_scheme": "always",
    "split": true
  },
  "model": {
    "type": "BPE",
    "dropout": null,
    "unk_token": "<unk>",
    "continuing_subword_prefix": null,
    "end_of_word_suffix": null,
    "fuse_unk": false,
    "byte_fallback": false,
    "ignore_merges": false,
    "vocab": {
      "<eos>": 0,
      "<unk>": 1,
      "<pad>": 2,
      "\t": 3,
      "\n": 4,
      "!": 5,
      "\"": 6,
      "#": 7,
      "$": 8,
      "%": 9,
      "&": 10,
      "'": 11,
      "(": 12,
      ")": 13,
      "*": 14,
      "+": 15,
      ",": 16,
      "-": 17,
      ".": 18,
      "/": 19,
      "0": 20,
      "1": 21,
      "2": 22,
      "3": 23,
      "4": 24,
      "5": 25,
      "6": 26,
      "7": 27,
      "8": 28,
      "9": 29,
      ":": 30,
      ";": 31,
      "<": 32,
      "=": 33,
      ">": 34,
      "?": 35,
      "@": 36,
      "A": 37,
      "B": 38,
      "C": 39,
      "D": 40,
      "E": 41,
      "F": 42,
      "G": 43,
      "H": 44,
      "I": 45,
      "J": 46,
      "K": 47,
      "L": 48,
      "M": 49,
      "N": 50,
      "O": 51,
      "P": 52,
      "Q": 53,
      "R": 54,
      "S": 55,
      "T": 56,
      "U": 57,
      "V": 58,
      "W": 59,
      "X": 60,
      "Y": 61,
      "Z": 62,
      "[": 63,
      "\\": 64,
      "]": 65,
      "^": 66,
      "_": 67,
      "`": 68,
      "a": 69,
      "b": 70,
      "c": 71,
      "d": 72,
      "e": 73,
      "f": 74,
      "g": 75,
      "h": 76,
      "i": 77,
      "j": 78,
      "k": 79,
      "l": 80,
      "m": 81,
      "n": 82,
      "o": 83,
      "p": 84,
      "q": 85,
      "r": 86,
      "s": 87,
      "t": 88,
      "u": 89,
      "v": 90,
      "w": 91,
      "x": 92,
      "y": 93,
      "z": 94,
      "{": 95,
      "|": 96,
      "}": 97,
      "~": 98,
      "¡": 99,
      "£": 100,
      "¥": 101,
      "§": 102,
      "«": 103,
      "°": 104,
      "±": 105,
      "·": 106,
      "»": 107,
      "À": 108,
      "Á": 109,
      "Ä": 110,
      "Å": 111,
      "Æ": 112,
      "Ç": 113,
      "É": 114,
      "Í": 115,
      "Î": 116,
      "Ó": 117,
      "Ö": 118,
      "×": 119,
      "Ø": 120,
      "Ú": 121,
      "Ü": 122,
      "Þ": 123,
      "ß": 124,
      "à": 125,
      "á": 126,
      "â": 127,
      "ã": 128,
      "ä": 129,
      "å": 130,
      "æ": 131,
      "ç": 132,
      "è": 133,
      "é": 134,
      "ê": 135,
      "ë": 136,
      "ì": 137,
      "í": 138,
      "î": 139,
      "ï": 140,
      "ð": 141,
      "ñ": 142,
      "ò": 143,
      "ó": 144,
      "ô": 145,
      "õ": 146,
      "ö": 147,
      "ø": 148,
      "ù": 149,
      "ú": 150,
      "û": 151,
      "ü": 152,
      "ý": 153,
      "þ": 154,
      "Ā": 155,
      "ā": 156,
      "ă": 157,
      "ą": 158,
      "Ć": 159,
      "ć": 160,
      "Č": 161,
      "č": 162,
      "Đ": 163,
      "đ": 164,
      "ē": 165,
      "ė": 166,
      "ę": 167,
      "ě": 168,
      "ğ": 169,
      "ħ": 170,
      "ĩ": 171,
      "ī": 172,
      "İ": 173,
      "ı": 174,
      "Ł": 175,
      "ł": 176,
      "ń": 177,
      "ņ": 178,
      "ň": 179,
      "ŋ": 180,
      "Ō": 181,
      "ō": 182,
      "ŏ": 183,
      "ő": 184,
      "œ": 185,
      "ř": 186,
      "Ś": 187,
      "ś": 188,
      "Ş": 189,
      "ş": 190,
      "Š": 191,
      "š": 192,
      "ţ": 193,
      "ť": 194,
      "ũ": 195,
      "ū": 196,
      "ŭ": 197,
      "ů": 198,
      "ź": 199,
      "Ż": 200,
      "ż": 201,
      "Ž": 202,
      "ž": 203,
      "ơ": 204,
      "ư": 205,
      "ǎ": 206,
      "Ș": 207,
      "ș": 208,
      "Ț": 209,
      "ț": 210,
      "ə": 211,
      "ʻ": 212,
      "ʼ": 213,
      "ʾ": 214,
      "ʿ": 215,
      "ː": 216,
      "́": 217,
      "Α": 218,
      "Γ": 219,
      "Δ": 220,
      "Ε": 221,
      "Ι": 222,
      "Κ": 223,
      "Μ": 224,
      "Ο": 225,
      "Π": 226,
      "Σ": 227,
      "Τ": 228,
      "ά": 229,
      "έ": 230,
      "ή": 231,
      "ί": 232,
      "α": 233,
      "β": 234,
      "γ": 235,
      "δ": 236,
      "ε": 237,
      "η": 238,
      "θ": 239,
      "ι": 240,
      "κ": 241,
      "λ": 242,
      "μ": 243,
      "ν": 244,
      "ο": 245,
      "π": 246,
      "ρ": 247,
      "ς": 248,
      "σ": 249,
      "τ": 250,
      "υ": 251,
      "φ": 252,
      "χ": 253,
      "ω": 254,
      "ό": 255,
      "ύ": 256,
      "А": 257,
      "Б": 258,
      "В": 259,
      "Г": 260,
      "Д": 261,
      "Е": 262,
      "З": 263,
      "И": 264,
      "К": 265,
      "Л": 266,
      "М": 267,
      "Н": 268,
      "О": 269,
      "П": 270,
      "Р": 271,
      "С": 272,
      "Т": 273,
      "У": 274,
      "Ф": 275,
      "Х": 276,
      "а": 277,
      "б": 278,
      "в": 279,
      "г": 280,
      "д": 281,
      "е": 282,
      "ж": 283,
      "з": 284,
      "и": 285,
      "й": 286,
      "к": 287,
      "л": 288,
      "м": 289,
      "н": 290,
      "о": 291,
      "п": 292,
      "р": 293,
      "с": 294,
      "т": 295,
      "у": 296,
      "ф": 297,
      "х": 298,
      "ц": 299,
      "ч": 300,
      "ш": 301,
      "щ": 302,
      "ъ": 303,
      "ы": 304,
      "ь": 305,
      "э": 306,
      "ю": 307,
      "я": 308,
      "і": 309,
      "ї": 310,
      "ա": 311,
      "ե": 312,
      "ի": 313,
      "ն": 314,
      "ո": 315,
      "ր": 316,
      "א": 317,
      "ב": 318,
      "ד": 319,
      "ה": 320,
      "ו": 321,
      "י": 322,
      "ל": 323,
      "מ": 324,
      "נ": 325,
      "ע": 326,
      "ר": 327,
      "ש": 328,
      "ת": 329,
      "ا": 330,
      "ب": 331,
      "ة": 332,
      "ت": 333,
      "ج": 334,
      "ح": 335,
      "خ": 336,
      "د": 337,
      "ر": 338,
      "ز": 339,
      "س": 340,
      "ش": 341,
      "ع": 342,
      "ف": 343,
      "ق": 344,
      "ك": 345,
      "ل": 346,
      "م": 347,
      "ن": 348,
      "ه": 349,
      "و": 350,
      "ي": 351,
      "َ": 352,
      "ک": 353,
      "ی": 354,
      "ं": 355,
      "क": 356,
      "ग": 357,
      "ज": 358,
      "त": 359,
      "द": 360,
      "न": 361,
      "प": 362,
      "म": 363,
      "य": 364,
      "र": 365,
      "ल": 366,
      "व": 367,
      "स": 368,
      "ह": 369,
      "ा": 370,
      "ि": 371,
      "ी": 372,
      "ु": 373,
      "े": 374,
      "ो": 375,
      "्": 376,
      "র": 377,
      "া": 378,
      "্": 379,
      "க": 380,
      "ி": 381,
      "்": 382,
      "്": 383,
      "ก": 384,
      "ง": 385,
      "น": 386,
      "ม": 387,
      "ย": 388,
      "ร": 389,
      "ล": 390,
      "ว": 391,
      "ส": 392,
      "อ": 393,
      "ั": 394,
      "า": 395,
      "ิ": 396,
      "เ": 397,
      "่": 398,
      "้": 399,
      "်": 400,
      "ა": 401,
      "ი": 402,
      "ḍ": 403,
      "Ḥ": 404,
      "ḥ": 405,
      "ṃ": 406,
      "ṇ": 407,
      "ṣ": 408,
      "ṭ": 409,
      "ạ": 410,
      "ả": 411,
      "ấ": 412,
      "ầ": 413,
      "ậ": 414,
      "ắ": 415,
      "ế": 416,
      "ễ": 417,
      "ệ": 418,
      "ị": 419,
      "ọ": 420,
      "ố": 421,
      "ồ": 422,
      "ộ": 423,
      "ớ": 424,
      "ờ": 425,
      "ứ": 426,
      "‐": 427,
      "–": 428,
      "—": 429,
      "‘": 430,
      "’": 431,
      "“": 432,
      "”": 433,
      "„": 434,
      "†": 435,
      "‡": 436,
      "•": 437,
      "′": 438,
      "⁄": 439,
      "€": 440,
      "₹": 441,
      "→": 442,
      "−": 443,
      "∞": 444,
      "≤": 445,
      "─": 446,
      "│": 447,
      "▁": 448,
      "、": 449,
      "《": 450,
      "》": 451,
      "い": 452,
      "と": 453,
      "の": 454,
      "ア": 455,
      "イ": 456,
      "ク": 457,
      "シ": 458,
      "ス": 459,
      "ト": 460,
      "マ": 461,
      "ラ": 462,
      "リ": 463,
      "ル": 464,
      "ン": 465,
      "・": 466,
      "ー": 467,
      "一": 468,
      "三": 469,
      "中": 470,
      "乡": 471,
      "人": 472,
      "公": 473,
      "南": 474,
      "国": 475,
      "大": 476,
      "天": 477,
      "子": 478,
      "学": 479,
      "家": 480,
      "小": 481,
      "山": 482,
      "州": 483,
      "年": 484,
      "文": 485,
      "新": 486,
      "日": 487,
      "本": 488,
      "李": 489,
      "村": 490,
      "校": 491,
      "氏": 492,
      "海": 493,
      "王": 494,
      "田": 495,
      "的": 496,
      "街": 497,
      "西": 498,
      "道": 499,
      "金": 500,
      "镇": 501,
      "이": 502,
      "▁t": 503,
      "he": 504,
      "in": 505,
      "▁a": 506,
      "er": 507,
      "on": 508,
      "▁the": 509,
      "or": 510,
      "an": 511,
      "en": 512,
      "es": 513,
      "ed": 514,
      "at": 515,
      "▁o": 516,
      "is": 517,
      "▁s": 518,
      "ar": 519,
      "al": 520,
      "▁w": 521,
      "it": 522,
      "▁of": 523,
      "▁in": 524,
      "nd": 525,
      "▁f": 526,
      "▁c": 527,
      "re": 528,
      "ic": 529,
      "▁b": 530,
      "as": 531,
      "▁p": 532,
      "ing": 533,
      "▁and": 534,
      "ion": 535,
      "ro": 536,
      "le": 537,
      "\n\n": 538,
      "▁S": 539,
      "▁to": 540,
      "▁m": 541,
      "▁d": 542,
      "▁C": 543,
      "ou": 544,
      "▁A": 545,
      "il": 546,
      "ent": 547,
      "▁1": 548,
      "▁T": 549,
      "▁h": 550,
      "am": 551,
      "▁M": 552,
      "om": 553,
      "ol": 554,
      "el": 555,
      "st": 556,
      "▁(": 557,
      "ur": 558,
      "▁B": 559,
      "ct": 560,
      "▁l": 561,
      "ad": 562,
      "▁P": 563,
      ".\n\n": 564,
      "▁2": 565,
      "et": 566,
      "iv": 567,
      "ch": 568,
      "ers": 569,
      "▁H": 570,
      "ir": 571,
      "▁was": 572,
      "▁re": 573,
      "ation": 574,
      "▁I": 575,
      "▁n": 576,
      "ig": 577,
      "ot": 578,
      "id": 579,
      "▁R": 580,
      "▁th": 581,
      "▁for": 582,
      "us": 583,
      "▁e": 584,
      "ce": 585,
      "ay": 586,
      "▁on": 587,
      "▁D": 588,
      "▁L": 589,
      "ist": 590,
      "ly": 591,
      "im": 592,
      "▁19": 593,
      "▁F": 594,
      "ut": 595,
      "▁g": 596,
      "ra": 597,
      "▁is": 598,
      "▁G": 599,
      "▁as": 600,
      "ter": 601,
      "em": 602,
      "▁20": 603,
      "▁N": 604,
      "▁The": 605,
      "ow": 606,
      "un": 607,
      "th": 608,
      "▁W": 609,
      "ith": 610,
      "her": 611,
      "and": 612,
      "▁st": 613,
      "▁be": 614,
      "ul": 615,
      "▁J": 616,
      "▁E": 617,
      "▁with": 618,
      "▁by": 619,
      "ag": 620,
      "▁al": 621,
      "est": 622,
      "um": 623,
      "os": 624,
      "rom": 625,
      "'s": 626,
      "▁r": 627,
      "op": 628,
      "▁at": 629,
      "ac": 630,
      "ver": 631,
      "ri": 632,
      "▁O": 633,
      "▁wh": 634,
      "▁an": 635,
      "oc": 636,
      "ian": 637,
      "▁from": 638,
      "▁con": 639,
      "▁he": 640,
      "▁K": 641,
      "s,": 642,
      "▁de": 643,
      "ia": 644,
      "all": 645,
      "ber": 646,
      "▁v": 647,
      "ain": 648,
      "ity": 649,
      "▁that": 650,
      "ies": 651,
      "▁U": 652,
      "ess": 653,
      "od": 654,
      "▁\"": 655,
      "art": 656,
      "av": 657,
      "▁com": 658,
      "ab": 659,
      "if": 660,
      "ate": 661,
      "ill": 662,
      "▁pro": 663,
      "▁se": 664,
      "up": 665,
      "ort": 666,
      "ew": 667,
      "ard": 668,
      "s\n": 669,
      "ud": 670,
      "pe": 671,
      "▁pl": 672,
      "▁St": 673,
      "19": 674,
      "ub": 675,
      "ak": 676,
      "▁it": 677,
      "e,": 678,
      "ip": 679,
      "igh": 680,
      "▁his": 681,
      "ov": 682,
      "ich": 683,
      "ary": 684,
      "ated": 685,
      "ld": 686,
      "ap": 687,
      "ant": 688,
      "▁In": 689,
      "qu": 690,
      "▁or": 691,
      "▁Ch": 692,
      "ish": 693,
      "ment": 694,
      "oun": 695,
      "00": 696,
      "fer": 697,
      "mer": 698,
      "ug": 699,
      "our": 700,
      "▁V": 701,
      "end": 702,
      "ong": 703,
      "▁\n": 704,
      "og": 705,
      "ear": 706,
      "▁201": 707,
      "ces": 708,
      "ial": 709,
      "se": 710,
      "▁ch": 711,
      "ive": 712,
      "s.": 713,
      "und": 714,
      "▁|": 715,
      "ast": 716,
      "▁ex": 717,
      "ell": 718,
      "ere": 719,
      "▁are": 720,
      "The": 721,
      ")\n": 722,
      "ust": 723,
      "ge": 724,
      "ep": 725,
      "ction": 726,
      "ine": 727,
      "so": 728,
      "ord": 729,
      "▁were": 730,
      "ran": 731,
      "uc": 732,
      "▁||": 733,
      "▁200": 734,
      "ame": 735,
      "ical": 736,
      "ore": 737,
      "ight": 738,
      "▁le": 739,
      "),": 740,
      "ost": 741,
      "ign": 742,
      "tern": 743,
      "▁He": 744,
      "▁Un": 745,
      "ork": 746,
      "ie": 747,
      "ue": 748,
      "▁also": 749,
      "ric": 750,
      "▁which": 751,
      "▁play": 752,
      "▁comp": 753,
      "cl": 754,
      "▁k": 755,
      "rit": 756,
      "▁sh": 757,
      "ther": 758,
      "▁18": 759,
      "res": 760,
      "▁y": 761,
      "ack": 762,
      "y,": 763,
      "ok": 764,
      "ff": 765,
      "▁–": 766,
      "ure": 767,
      "20": 768,
      "feren": 769,
      "Re": 770,
      "irst": 771,
      "port": 772,
      "ount": 773,
      "ire": 774,
      "man": 775,
      "ition": 776,
      "ass": 777,
      "ous": 778,
      "▁3": 779,
      "▁un": 780,
      "ry": 781,
      "age": 782,
      "▁ar": 783,
      "erv": 784,
      "iz": 785,
      "ational": 786,
      "▁had": 787,
      "ond": 788,
      "▁cl": 789,
      "te": 790,
      "hed": 791,
      "▁te": 792,
      "sh": 793,
      "▁Y": 794,
      "ang": 795,
      "▁It": 796,
      "ican": 797,
      "orn": 798,
      "land": 799,
      "per": 800,
      "ult": 801,
      "ferences": 802,
      "▁first": 803,
      "own": 804,
      "amp": 805,
      "▁not": 806,
      "▁res": 807,
      "ide": 808,
      ".\n": 809,
      "fter": 810,
      "▁has": 811,
      "References": 812,
      "▁ro": 813,
      "ib": 814,
      "ave": 815,
      "▁whe": 816,
      "ater": 817,
      "ory": 818,
      "a,": 819,
      "pl": 820,
      "▁Al": 821,
      "ice": 822,
      "In": 823,
      "ect": 824,
      "ome": 825,
      "wo": 826,
      "▁cont": 827,
      "ach": 828,
      "ilm": 829,
      "▁Th": 830,
      "ph": 831,
      "▁Ar": 832,
      "ec": 833,
      "ople": 834,
      "▁ad": 835,
      "ens": 836,
      "ates": 837,
      "▁part": 838,
      "pt": 839,
      "ree": 840,
      "▁us": 841,
      "▁who": 842,
      "ru": 843,
      "ey": 844,
      "▁her": 845,
      "ited": 846,
      "▁j": 847,
      "ember": 848,
      "▁199": 849,
      "▁their": 850,
      "to": 851,
      "▁Mar": 852,
      "aw": 853,
      "▁ap": 854,
      "merican": 855,
      "▁its": 856,
      "\n|": 857,
      "ubl": 858,
      "ound": 859,
      "ath": 860,
      "ivers": 861,
      "out": 862,
      "ball": 863,
      "ik": 864,
      "ool": 865,
      "References\n\n": 866,
      "ild": 867,
      "over": 868,
      "ace": 869,
      "eople": 870,
      "oll": 871,
      "cc": 872,
      "es,": 873,
      "▁ab": 874,
      "iss": 875,
      "ers\n": 876,
      "inal": 877,
      "clud": 878,
      "ee": 879,
      "▁but": 880,
      "ence": 881,
      "▁year": 882,
      "oot": 883,
      "▁4": 884,
      "old": 885,
      "ugh": 886,
      "for": 887,
      "ile": 888,
      "▁ag": 889,
      "eg": 890,
      "▁one": 891,
      "ime": 892,
      "ng": 893,
      "ark": 894,
      "▁rec": 895,
      "ould": 896,
      "are": 897,
      "ations": 898,
      "pr": 899,
      "▁New": 900,
      "▁per": 901,
      "▁(19": 902,
      "uring": 903,
      "ward": 904,
      "ual": 905,
      "▁sc": 906,
      "wn": 907,
      "oin": 908,
      "ite": 909,
      "▁\n\n": 910,
      "▁two": 911,
      "▁man": 912,
      "▁includ": 913,
      "ink": 914,
      "ade": 915,
      "▁des": 916,
      "les": 917,
      "act": 918,
      "er,": 919,
      "ased": 920,
      "▁bec": 921,
      "oy": 922,
      "ied": 923,
      "chool": 924,
      "io": 925,
      "▁have": 926,
      "urn": 927,
      "▁en": 928,
      "▁work": 929,
      "ob": 930,
      "▁film": 931,
      "▁this": 932,
      "vel": 933,
      "▁-": 934,
      "ton": 935,
      "▁all": 936,
      "ail": 937,
      "▁Com": 938,
      "ason": 939,
      "eb": 940,
      "ss": 941,
      "▁comm": 942,
      "▁198": 943,
      "▁5": 944,
      "▁been": 945,
      "ision": 946,
      "ind": 947,
      "outh": 948,
      "ted": 949,
      "▁after": 950,
      "▁other": 951,
      "gh": 952,
      "▁dis": 953,
      "ents": 954,
      "▁De": 955,
      "ft": 956,
      "we": 957,
      "▁Le": 958,
      "▁American": 959,
      "iversity": 960,
      "uch": 961,
      "ished": 962,
      "▁im": 963,
      "ah": 964,
      ".\n\nThe": 965,
      "ral": 966,
      "▁off": 967,
      "gan": 968,
      "oh": 969,
      "ts": 970,
      "▁pr": 971,
      "▁people": 972,
      "able": 973,
      "18": 974,
      "▁she": 975,
      "▁serv": 976,
      "ase": 977,
      "ely": 978,
      "ren": 979,
      "ance": 980,
      "orld": 981,
      "▁out": 982,
      "pec": 983,
      "▁up": 984,
      "ood": 985,
      "ctor": 986,
      "cted": 987,
      "▁over": 988,
      "cent": 989,
      "ootball": 990,
      "ury": 991,
      "▁197": 992,
      "rib": 993,
      "ock": 994,
      "olog": 995,
      "▁ev": 996,
      "▁und": 997,
      "▁An": 998,
      "ram": 999,
      "way": 1000,
      "▁Sh": 1001,
      "ship": 1002,
      "▁ele": 1003,
      "Ex": 1004,
      "▁ra": 1005,
      "▁new": 1006,
      "ck": 1007,
      "ne": 1008,
      "olle": 1009,
      "ron": 1010,
      "▁6": 1011,
      "▁sp": 1012,
      "▁they": 1013,
      "ook": 1014,
      "ick": 1015,
      "▁into": 1016,
      "▁loc": 1017,
      "▁tra": 1018,
      "orth": 1019,
      "▁gro": 1020,
      "eral": 1021,
      "che": 1022,
      "ternal": 1023,
      "ings": 1024,
      "▁att": 1025,
      "▁link": 1026,
      "ough": 1027,
      "ex": 1028,
      "ames": 1029,
      "▁pre": 1030,
      "▁United": 1031,
      "▁sec": 1032,
      "son": 1033,
      "ale": 1034,
      "ict": 1035,
      "amil": 1036,
      "du": 1037,
      "▁Z": 1038,
      "az": 1039,
      "▁bu": 1040,
      "▁University": 1041,
      "▁Con": 1042,
      "s\n\n": 1043,
      ".\n\nIn": 1044,
      "one": 1045,
      "▁under": 1046,
      "200": 1047,
      "iel": 1048,
      "▁pol": 1049,
      "▁can": 1050,
      "▁196": 1051,
      ").": 1052,
      "▁Ind": 1053,
      "vi": 1054,
      "ix": 1055,
      "rough": 1056,
      "rans": 1057,
      "ince": 1058,
      "ident": 1059,
      "ose": 1060,
      "▁team": 1061,
      "rad": 1062,
      "oci": 1063,
      "ake": 1064,
      "red": 1065,
      "ors": 1066,
      "oth": 1067,
      "▁kn": 1068,
      "▁publ": 1069,
      "▁reg": 1070,
      "a\n": 1071,
      "External": 1072,
      "▁Pro": 1073,
      "ll": 1074,
      "▁season": 1075,
      ".\n\nS": 1076,
      "eat": 1077,
      "inn": 1078,
      "form": 1079,
      "▁ass": 1080,
      "▁bet": 1081,
      "▁him": 1082,
      "aj": 1083,
      "emb": 1084,
      "ank": 1085,
      "ans": 1086,
      "ities": 1087,
      "ollow": 1088,
      "air": 1089,
      "reat": 1090,
      "duc": 1091,
      "ann": 1092,
      "▁would": 1093,
      "▁7": 1094,
      "ever": 1095,
      "ober": 1096,
      "▁est": 1097,
      "iving": 1098,
      "1,": 1099,
      "usic": 1100,
      "resent": 1101,
      "▁again": 1102,
      ".\n\nA": 1103,
      "abl": 1104,
      "round": 1105,
      "ween": 1106,
      "▁cent": 1107,
      "▁op": 1108,
      "ions": 1109,
      "overn": 1110,
      "▁when": 1111,
      "use": 1112,
      "ced": 1113,
      "att": 1114,
      "ier": 1115,
      "▁during": 1116,
      "raph": 1117,
      "▁ind": 1118,
      "eries": 1119,
      "ife": 1120,
      "▁ret": 1121,
      "▁cons": 1122,
      "▁football": 1123,
      "▁where": 1124,
      "▁co": 1125,
      "ative": 1126,
      "arly": 1127,
      "▁more": 1128,
      "bum": 1129,
      "\nA": 1130,
      "es.": 1131,
      "▁Cl": 1132,
      "ional": 1133,
      "▁sub": 1134,
      "▁194": 1135,
      "arl": 1136,
      "▁Sc": 1137,
      "▁stud": 1138,
      "▁gen": 1139,
      "▁She": 1140,
      "ing,": 1141,
      "▁Eng": 1142,
      "▁sup": 1143,
      "▁qu": 1144,
      "ouse": 1145,
      "▁form": 1146,
      "▁act": 1147,
      "▁States": 1148,
      "enn": 1149,
      "▁Count": 1150,
      "ress": 1151,
      "▁time": 1152,
      "▁found": 1153,
      "▁bir": 1154,
      "2,": 1155,
      "▁spec": 1156,
      "▁rele": 1157,
      "ons": 1158,
      "der": 1159,
      "▁fl": 1160,
      "ohn": 1161,
      "rict": 1162,
      "iam": 1163,
      "ash": 1164,
      "▁art": 1165,
      "▁17": 1166,
      "▁8": 1167,
      "▁between": 1168,
      "201": 1169,
      "▁only": 1170,
      "▁rel": 1171,
      "▁202": 1172,
      "opul": 1173,
      "▁195": 1174,
      "▁ed": 1175,
      "ific": 1176,
      "pro": 1177,
      "erman": 1178,
      "▁me": 1179,
      "▁sy": 1180,
      "a.": 1181,
      ".\n\nReferences\n\n": 1182,
      "▁about": 1183,
      "o,": 1184,
      "ev": 1185,
      "en's": 1186,
      "ics": 1187,
      "▁three": 1188,
      "▁inter": 1189,
      "inist": 1190,
      "▁acc": 1191,
      "▁War": 1192,
      "▁dist": 1193,
      "0,": 1194,
      "ague": 1195,
      "▁most": 1196,
      "5,": 1197,
      "▁follow": 1198,
      "any": 1199,
      "ett": 1200,
      "▁ac": 1201,
      "ield": 1202,
      "▁birth": 1203,
      "▁rem": 1204,
      "erson": 1205,
      "3,": 1206,
      "▁sing": 1207,
      "▁later": 1208,
      "\nS": 1209,
      "ement": 1210,
      "▁album": 1211,
      "▁For": 1212,
      "ten": 1213,
      "▁made": 1214,
      "▁through": 1215,
      "▁end": 1216,
      "ived": 1217,
      "ept": 1218,
      "4,": 1219,
      "▁second": 1220,
      "ograph": 1221,
      "▁On": 1222,
      "istory": 1223,
      "ating": 1224,
      "\n\nReferences\n\n": 1225,
      "hen": 1226,
      "▁9": 1227,
      "arg": 1228,
      "▁writ": 1229,
      "▁them": 1230,
      "uss": 1231,
      "▁Fran": 1232,
      "▁dire": 1233,
      "▁there": 1234,
      "▁mov": 1235,
      "cess": 1236,
      "▁num": 1237,
      "▁then": 1238,
      "ern": 1239,
      "▁famil": 1240,
      "▁def": 1241,
      "▁Q": 1242,
      "▁This": 1243,
      "une": 1244,
      "▁med": 1245,
      "▁Sp": 1246,
      "velop": 1247,
      "ists": 1248,
      "▁(b": 1249,
      "▁World": 1250,
      "erm": 1251,
      "▁Is": 1252,
      "▁National": 1253,
      "6,": 1254,
      ".\n\nC": 1255,
      "mp": 1256,
      "ines": 1257,
      "ampion": 1258,
      "▁May": 1259,
      "▁Comm": 1260,
      "▁inv": 1261,
      "fore": 1262,
      "ari": 1263,
      "▁John": 1264,
      "▁record": 1265,
      "▁used": 1266,
      "▁players\n": 1267,
      "▁Jan": 1268,
      "▁trans": 1269,
      "▁Aust": 1270,
      "ject": 1271,
      ".\n\nH": 1272,
      "▁known": 1273,
      "ai": 1274,
      "▁prov": 1275,
      "ural": 1276,
      "uro": 1277,
      "▁school": 1278,
      "▁ent": 1279,
      "\",": 1280,
      "stit": 1281,
      "▁establ": 1282,
      "▁became": 1283,
      "▁so": 1284,
      "iver": 1285,
      "▁Ph": 1286,
      "pos": 1287,
      "▁such": 1288,
      "ower": 1289,
      "ina": 1290,
      "ism": 1291,
      "▁inc": 1292,
      "▁am": 1293,
      "▁ph": 1294,
      "▁As": 1295,
      "ins": 1296,
      "▁Bl": 1297,
      "ternational": 1298,
      "ed,": 1299,
      "als": 1300,
      "ve": 1301,
      "ax": 1302,
      "▁&": 1303,
      "y.": 1304,
      "▁four": 1305,
      "tain": 1306,
      "▁lead": 1307,
      "urch": 1308,
      "▁mon": 1309,
      "▁Brit": 1310,
      "let": 1311,
      "▁193": 1312,
      "▁series": 1313,
      "\nM": 1314,
      "▁popul": 1315,
      "▁being": 1316,
      "▁than": 1317,
      "7,": 1318,
      "til": 1319,
      "▁bl": 1320,
      "▁some": 1321,
      "▁Ju": 1322,
      "▁pos": 1323,
      "eth": 1324,
      "arn": 1325,
      "▁At": 1326,
      "▁School": 1327,
      "pear": 1328,
      "▁York": 1329,
      "▁Can": 1330,
      "other": 1331,
      "ution": 1332,
      "▁song": 1333,
      "▁Pl": 1334,
      "▁including": 1335,
      "▁against": 1336,
      "ia,": 1337,
      "▁call": 1338,
      "▁years": 1339,
      "▁South": 1340,
      "▁group": 1341,
      "arri": 1342,
      "ley": 1343,
      "▁death": 1344,
      "ugust": 1345,
      "8,": 1346,
      "ather": 1347,
      "▁well": 1348,
      "▁count": 1349,
      "uary": 1350,
      "▁Nov": 1351,
      "overnment": 1352,
      "\nP": 1353,
      "▁do": 1354,
      "eptember": 1355,
      "i,": 1356,
      "ures": 1357,
      "amed": 1358,
      "\nC": 1359,
      "=\"": 1360,
      "istor": 1361,
      "▁German": 1362,
      "▁int": 1363,
      "▁Ad": 1364,
      "rid": 1365,
      "▁rece": 1366,
      "ctober": 1367,
      "ull": 1368,
      "stem": 1369,
      "rist": 1370,
      "ike": 1371,
      "▁offic": 1372,
      ".\"": 1373,
      "▁10": 1374,
      "areer": 1375,
      "▁polit": 1376,
      "ute": 1377,
      "▁add": 1378,
      "▁while": 1379,
      "▁16": 1380,
      "▁August": 1381,
      "very": 1382,
      "ise": 1383,
      "▁sur": 1384,
      "uk": 1385,
      "▁wom": 1386,
      "▁before": 1387,
      "ont": 1388,
      "enc": 1389,
      "aid": 1390,
      "▁sign": 1391,
      "▁bro": 1392,
      "▁Or": 1393,
      "eng": 1394,
      "▁September": 1395,
      "▁build": 1396,
      "▁dec": 1397,
      "▁March": 1398,
      "ered": 1399,
      "▁show": 1400,
      "-cent": 1401,
      "▁(1": 1402,
      ".\n\nP": 1403,
      "▁develop": 1404,
      "on,": 1405,
      "ys": 1406,
      "pril": 1407,
      "lev": 1408,
      "ation,": 1409,
      "le,": 1410,
      "fess": 1411,
      "▁go": 1412,
      "▁oper": 1413,
      "▁15": 1414,
      "▁October": 1415,
      "▁cap": 1416,
      "ae": 1417,
      "elf": 1418,
      "▁until": 1419,
      "\n\nS": 1420,
      "▁music": 1421,
      "ers,": 1422,
      "▁Pr": 1423,
      "mber": 1424,
      "rand": 1425,
      "▁appear": 1426,
      "anc": 1427,
      "ient": 1428,
      "▁Cent": 1429,
      "▁may": 1430,
      "ampionship": 1431,
      "its": 1432,
      "▁own": 1433,
      "owever": 1434,
      "▁no": 1435,
      "ef": 1436,
      "000": 1437,
      "▁births\n": 1438,
      "▁rep": 1439,
      "ty": 1440,
      "▁main": 1441,
      "\nThe": 1442,
      "lish": 1443,
      "▁January": 1444,
      "▁high": 1445,
      "▁mod": 1446,
      "▁orig": 1447,
      "▁Ge": 1448,
      "ior": 1449,
      "-century": 1450,
      "ized": 1451,
      "▁played": 1452,
      "▁July": 1453,
      "ator": 1454,
      "▁back": 1455,
      "▁both": 1456,
      "by": 1457,
      "ired": 1458,
      "–1": 1459,
      "uth": 1460,
      "▁number": 1461,
      "my": 1462,
      "ission": 1463,
      "▁Austral": 1464,
      "▁(born": 1465,
      "cember": 1466,
      "▁char": 1467,
      "▁many": 1468,
      "ott": 1469,
      "▁April": 1470,
      "ital": 1471,
      "itt": 1472,
      "▁released": 1473,
      "ments": 1474,
      "▁cre": 1475,
      "▁June": 1476,
      "▁em": 1477,
      "▁Car": 1478,
      "isc": 1479,
      "▁Wh": 1480,
      "▁day": 1481,
      "yl": 1482,
      "▁Te": 1483,
      "▁ann": 1484,
      "▁former": 1485,
      "▁won": 1486,
      "▁Man": 1487,
      "gram": 1488,
      "ox": 1489,
      "▁Ass": 1490,
      "▁desc": 1491,
      "–19": 1492,
      "icip": 1493,
      "▁gu": 1494,
      "ium": 1495,
      "▁sever": 1496,
      "▁November": 1497,
      "olor": 1498,
      "▁mat": 1499,
      "▁design": 1500,
      "por": 1501,
      "▁North": 1502,
      "ajor": 1503,
      "ris": 1504,
      "cept": 1505,
      "ently": 1506,
      "▁British": 1507,
      "\nB": 1508,
      "On": 1509,
      "9,": 1510,
      "▁Euro": 1511,
      "ird": 1512,
      "▁start": 1513,
      "▁Re": 1514,
      "▁organ": 1515,
      "▁Pol": 1516,
      "resident": 1517,
      "▁December": 1518,
      "embers": 1519,
      "ret": 1520,
      "ese": 1521,
      "▁open": 1522,
      "21": 1523,
      "▁League": 1524,
      "ract": 1525,
      "▁City": 1526,
      "ives": 1527,
      "oint": 1528,
      "▁Gu": 1529,
      "▁feat": 1530,
      "▁name": 1531,
      "\".": 1532,
      "▁family": 1533,
      "▁—": 1534,
      "the": 1535,
      "ved": 1536,
      "ask": 1537,
      "rop": 1538,
      "au": 1539,
      "▁colle": 1540,
      "fl": 1541,
      "▁links\n": 1542,
      "ple": 1543,
      "0.": 1544,
      "arm": 1545,
      "▁State": 1546,
      "ebru": 1547,
      "▁dif": 1548,
      "▁run": 1549,
      "ebruary": 1550,
      "..": 1551,
      "-s": 1552,
      "▁produ": 1553,
      "ven": 1554,
      "ilt": 1555,
      "led": 1556,
      "apan": 1557,
      "ung": 1558,
      "o.": 1559,
      "▁Ed": 1560,
      "▁Reg": 1561,
      "▁state": 1562,
      "▁public": 1563,
      "ross": 1564,
      "urr": 1565,
      "▁ext": 1566,
      "▁Rep": 1567,
      "ped": 1568,
      "▁Cal": 1569,
      "levision": 1570,
      "▁sm": 1571,
      "▁long": 1572,
      "ular": 1573,
      "▁Colle": 1574,
      "vent": 1575,
      "▁II": 1576,
      "yn": 1577,
      "oard": 1578,
      "▁final": 1579,
      "▁dr": 1580,
      "▁Af": 1581,
      "▁ob": 1582,
      "▁system": 1583,
      "owever,": 1584,
      "inc": 1585,
      "▁All": 1586,
      "eter": 1587,
      "▁Will": 1588,
      "▁fin": 1589,
      "amb": 1590,
      "▁12": 1591,
      "ually": 1592,
      "ilit": 1593,
      "view": 1594,
      "▁following": 1595,
      "▁city": 1596,
      "ivision": 1597,
      "▁life": 1598,
      "▁Canad": 1599,
      "▁same": 1600,
      "ets": 1601,
      "▁list": 1602,
      "▁will": 1603,
      "▁return": 1604,
      "▁child": 1605,
      "ports": 1606,
      ".\n\nB": 1607,
      "rench": 1608,
      "▁commun": 1609,
      "▁ne": 1610,
      "lor": 1611,
      "▁February": 1612,
      "▁called": 1613,
      "▁Bro": 1614,
      "▁class": 1615,
      "yle": 1616,
      "af": 1617,
      "▁King": 1618,
      "▁several": 1619,
      "▁near": 1620,
      "▁compet": 1621,
      "▁produc": 1622,
      "▁book": 1623,
      ".\n\nD": 1624,
      ")\n\n": 1625,
      "chn": 1626,
      "ause": 1627,
      "ology": 1628,
      "▁Am": 1629,
      "er.": 1630,
      "ography": 1631,
      "▁min": 1632,
      "ctions": 1633,
      "con": 1634,
      "ility": 1635,
      "com": 1636,
      "aking": 1637,
      "▁town": 1638,
      "ially": 1639,
      "stru": 1640,
      "ars": 1641,
      "▁tim": 1642,
      "▁suc": 1643,
      "▁club": 1644,
      "ival": 1645,
      "▁early": 1646,
      "▁result": 1647,
      "▁Be": 1648,
      "▁air": 1649,
      "▁contin": 1650,
      "reen": 1651,
      "▁government": 1652,
      "▁dep": 1653,
      "▁Europe": 1654,
      "sp": 1655,
      "ourn": 1656,
      "▁192": 1657,
      "▁Par": 1658,
      "▁since": 1659,
      "oman": 1660,
      "ful": 1661,
      "\nF": 1662,
      "ally": 1663,
      "angu": 1664,
      "ham": 1665,
      "▁career": 1666,
      "ert": 1667,
      "▁Dist": 1668,
      "ured": 1669,
      "els": 1670,
      "uck": 1671,
      "▁place": 1672,
      "▁named": 1673,
      "▁head": 1674,
      "atic": 1675,
      "▁par": 1676,
      "ke": 1677,
      "▁game": 1678,
      "ised": 1679,
      "-b": 1680,
      "ience": 1681,
      "▁vill": 1682,
      "▁bel": 1683,
      "ove": 1684,
      "▁held": 1685,
      "erg": 1686,
      "ended": 1687,
      "▁disc": 1688,
      "▁began": 1689,
      "aint": 1690,
      "▁191": 1691,
      "▁tit": 1692,
      "▁original": 1693,
      "0s": 1694,
      "▁member": 1695,
      "S.": 1696,
      "▁\n|": 1697,
      "-l": 1698,
      "▁Ex": 1699,
      "▁prom": 1700,
      "par": 1701,
      "ided": 1702,
      "an,": 1703,
      "▁11": 1704,
      "ants": 1705,
      "▁event": 1706,
      "▁program": 1707,
      "▁based": 1708,
      "▁describ": 1709,
      "ued": 1710,
      "ues": 1711,
      "▁land": 1712,
      "▁They": 1713,
      "▁Bar": 1714,
      "▁any": 1715,
      "ible": 1716,
      "▁support": 1717,
      "▁Award": 1718,
      "▁14": 1719,
      "orm": 1720,
      "ality": 1721,
      "ounc": 1722,
      "▁Geor": 1723,
      "ington": 1724,
      "eek": 1725,
      "ange": 1726,
      "▁Championship": 1727,
      "▁comple": 1728,
      "▁'": 1729,
      "▁13": 1730,
      "▁West": 1731,
      "augh": 1732,
      "ze": 1733,
      "▁(200": 1734,
      "▁established": 1735,
      "▁Part": 1736,
      "right": 1737,
      "ages": 1738,
      "ety": 1739,
      "▁remain": 1740,
      "▁Japan": 1741,
      "ony": 1742,
      "▁Sw": 1743,
      "▁we": 1744,
      "\nT": 1745,
      "▁along": 1746,
      "▁Har": 1747,
      "▁eng": 1748,
      "▁After": 1749,
      "▁And": 1750,
      "en,": 1751,
      "▁eff": 1752,
      "▁His": 1753,
      "alth": 1754,
      "adem": 1755,
      "▁these": 1756,
      "urg": 1757,
      "▁El": 1758,
      "▁located": 1759,
      "ician": 1760,
      "ble": 1761,
      "▁met": 1762,
      "ourt": 1763,
      "-d": 1764,
      "▁English": 1765,
      "▁Christ": 1766,
      "▁law": 1767,
      "ed.": 1768,
      "▁pass": 1769,
      "ublic": 1770,
      "▁Air": 1771,
      "▁tr": 1772,
      "▁Col": 1773,
      "pect": 1774,
      "▁did": 1775,
      "▁area": 1776,
      "▁occ": 1777,
      "▁US": 1778,
      "ford": 1779,
      "ically": 1780,
      "▁Se": 1781,
      "▁str": 1782,
      "▁Afric": 1783,
      "▁Mc": 1784,
      "oss": 1785,
      "▁set": 1786,
      "aster": 1787,
      "▁served": 1788,
      "▁charact": 1789,
      "▁Gen": 1790,
      "▁Ab": 1791,
      "aced": 1792,
      "▁took": 1793,
      ".\n\nF": 1794,
      "lymp": 1795,
      "▁each": 1796,
      "▁Co": 1797,
      "row": 1798,
      "iness": 1799,
      "▁born": 1800,
      "▁use": 1801,
      "2.": 1802,
      "ata": 1803,
      "ious": 1804,
      "oung": 1805,
      "ica": 1806,
      "rem": 1807,
      "▁profess": 1808,
      "▁national": 1809,
      "\nL": 1810,
      "▁En": 1811,
      "▁(S": 1812,
      "▁bus": 1813,
      "▁sim": 1814,
      "ster": 1815,
      "▁Russ": 1816,
      "sk": 1817,
      "▁person": 1818,
      ".\n\nT": 1819,
      "uthor": 1820,
      "▁District": 1821,
      ".\n\nM": 1822,
      "ices": 1823,
      "ane": 1824,
      "▁members": 1825,
      "aving": 1826,
      "rew": 1827,
      "ociation": 1828,
      "▁(18": 1829,
      "▁small": 1830,
      "▁band": 1831,
      "▁major": 1832,
      "rick": 1833,
      "▁inst": 1834,
      "▁190": 1835,
      "ing.": 1836,
      "illion": 1837,
      "▁French": 1838,
      "▁William": 1839,
      "▁exp": 1840,
      "▁Lond": 1841,
      "▁house": 1842,
      ":\n\n": 1843,
      "▁received": 1844,
      "▁local": 1845,
      "▁join": 1846,
      "▁station": 1847,
      "▁deb": 1848,
      "med": 1849,
      "▁car": 1850,
      "▁population": 1851,
      "ign=": 1852,
      "▁species": 1853,
      "▁leg": 1854,
      "th-century": 1855,
      "iet": 1856,
      "▁published": 1857,
      ".S.": 1858,
      "▁Her": 1859,
      "▁Med": 1860,
      "▁sl": 1861,
      "▁general": 1862,
      "▁manag": 1863,
      "▁Cup": 1864,
      "1.": 1865,
      "▁vari": 1866,
      "-f": 1867,
      "▁Art": 1868,
      "\n\nReferences\n\nExternal": 1869,
      "▁television": 1870,
      "estern": 1871,
      "int": 1872,
      "ino": 1873,
      "ature": 1874,
      "ined": 1875,
      "umn": 1876,
      "ilitary": 1877,
      "▁built": 1878,
      "▁X": 1879,
      "aul": 1880,
      "ays": 1881,
      "▁vi": 1882,
      "▁$": 1883,
      "▁Wal": 1884,
      "in,": 1885,
      "ffic": 1886,
      "▁due": 1887,
      "▁appro": 1888,
      "ouncil": 1889,
      "ording": 1890,
      "earch": 1891,
      "▁world": 1892,
      "▁could": 1893,
      "ief": 1894,
      "raft": 1895,
      "▁High": 1896,
      "ode": 1897,
      "▁award": 1898,
      "▁po": 1899,
      "▁Ro": 1900,
      "▁home": 1901,
      "▁(A": 1902,
      "▁.": 1903,
      "▁County": 1904,
      "ified": 1905,
      "▁Indian": 1906,
      "omin": 1907,
      "▁around": 1908,
      "▁educ": 1909,
      "ummer": 1910,
      "▁Ital": 1911,
      "\n19": 1912,
      "▁app": 1913,
      "que": 1914,
      "▁Park": 1915,
      "aus": 1916,
      ".\n\nE": 1917,
      "▁vers": 1918,
      "▁Br": 1919,
      "ien": 1920,
      "tal": 1921,
      "-1": 1922,
      "artment": 1923,
      "▁old": 1924,
      "aces": 1925,
      "▁2020": 1926,
      "▁,": 1927,
      "reet": 1928,
      "ner": 1929,
      "▁down": 1930,
      "rol": 1931,
      "▁marri": 1932,
      "press": 1933,
      "▁Sy": 1934,
      "▁2019": 1935,
      "tt": 1936,
      "American": 1937,
      "ocial": 1938,
      "▁term": 1939,
      "ument": 1940,
      "▁rest": 1941,
      "▁right": 1942,
      "side": 1943,
      "▁hel": 1944,
      "hem": 1945,
      "hip": 1946,
      "arge": 1947,
      "▁present": 1948,
      "▁company": 1949,
      "▁represent": 1950,
      "▁Sec": 1951,
      "umb": 1952,
      "ia.": 1953,
      "vers": 1954,
      "▁189": 1955,
      "3.": 1956,
      "▁age": 1957,
      "▁six": 1958,
      "▁Dav": 1959,
      "▁games": 1960,
      "▁left": 1961,
      "aim": 1962,
      "▁last": 1963,
      "iod": 1964,
      "yp": 1965,
      "▁Rec": 1966,
      "▁la": 1967,
      "▁died": 1968,
      "oph": 1969,
      "hes": 1970,
      "▁ep": 1971,
      "▁said": 1972,
      "▁success": 1973,
      "▁top": 1974,
      "▁Tr": 1975,
      "▁(C": 1976,
      "idd": 1977,
      "▁Cor": 1978,
      "ored": 1979,
      "▁camp": 1980,
      "\nH": 1981,
      "ization": 1982,
      "van": 1983,
      "▁County,": 1984,
      "▁single": 1985,
      "▁La": 1986,
      "▁now": 1987,
      "ruct": 1988,
      "\nR": 1989,
      "▁Ang": 1990,
      "▁described": 1991,
      "ion,": 1992,
      "\nD": 1993,
      "▁Sup": 1994,
      "Living": 1995,
      "ille": 1996,
      "▁within": 1997,
      "▁Comp": 1998,
      "5.": 1999,
      "ery": 2000,
      "▁tri": 2001,
      "▁Res": 2002,
      "▁north": 2003,
      "ether": 2004,
      "ately": 2005,
      "▁short": 2006,
      "▁det": 2007,
      "ling": 2008,
      "▁Phil": 2009,
      "ats": 2010,
      "ene": 2011,
      "▁women": 2012,
      "▁report": 2013,
      "ration": 2014,
      "iven": 2015,
      "Un": 2016,
      "ele": 2017,
      "4.": 2018,
      "▁five": 2019,
      "urther": 2020,
      "▁mark": 2021,
      "▁third": 2022,
      "color": 2023,
      "▁district": 2024,
      "▁red": 2025,
      "ers.": 2026,
      "uf": 2027,
      "sc": 2028,
      "r.": 2029,
      "▁village": 2030,
      "oyal": 2031,
      "▁post": 2032,
      "▁histor": 2033,
      "▁International": 2034,
      "ison": 2035,
      "▁films\n": 2036,
      "work": 2037,
      "▁include": 2038,
      "7.": 2039,
      ".\n\nReferences\n\nExternal": 2040,
      "ides": 2041,
      "▁order": 2042,
      "▁(201": 2043,
      "▁children": 2044,
      "iforn": 2045,
      "▁style": 2046,
      "ference": 2047,
      "e.": 2048,
      "ground": 2049,
      "6.": 2050,
      "anguage": 2051,
      "ana": 2052,
      "▁line": 2053,
      "▁announ": 2054,
      "reg": 2055,
      "▁differ": 2056,
      "▁adm": 2057,
      "▁election": 2058,
      "▁included": 2059,
      "vious": 2060,
      "▁San": 2061,
      "▁ref": 2062,
      "ament": 2063,
      "▁However,": 2064,
      "▁Mon": 2065,
      "▁requ": 2066,
      "▁Olymp": 2067,
      "▁south": 2068,
      "▁building": 2069,
      "▁col": 2070,
      "rack": 2071,
      "▁Mal": 2072,
      "rag": 2073,
      "▁cr": 2074,
      "useum": 2075,
      "i-": 2076,
      "us,": 2077,
      "▁Me": 2078,
      "▁consid": 2079,
      "riend": 2080,
      "uman": 2081,
      "▁war": 2082,
      "▁arch": 2083,
      "▁dem": 2084,
      "▁Dep": 2085,
      "though": 2086,
      "▁Mich": 2087,
      "▁larg": 2088,
      "osp": 2089,
      "▁history": 2090,
      "ches": 2091,
      "▁Gl": 2092,
      "ideo": 2093,
      "▁because": 2094,
      "▁stat": 2095,
      "omb": 2096,
      "▁(M": 2097,
      "▁England": 2098,
      "▁stand": 2099,
      "ript": 2100,
      "ched": 2101,
      "▁cor": 2102,
      "▁U.S.": 2103,
      "conom": 2104,
      "▁College": 2105,
      "▁allow": 2106,
      "akes": 2107,
      "▁crit": 2108,
      "▁Californ": 2109,
      "▁addition": 2110,
      "▁London": 2111,
      "▁House": 2112,
      "▁men's": 2113,
      "ext": 2114,
      "▁author": 2115,
      "▁activ": 2116,
      "▁188": 2117,
      "iter": 2118,
      "▁Sch": 2119,
      "▁Ag": 2120,
      "rain": 2121,
      "\n|-": 2122,
      "8.": 2123,
      "▁male": 2124,
      "inning": 2125,
      "▁large": 2126,
      "▁Ac": 2127,
      "alf": 2128,
      "is,": 2129,
      "ency": 2130,
      "adio": 2131,
      "▁non": 2132,
      "▁There": 2133,
      "▁water": 2134,
      "urs": 2135,
      "▁round": 2136,
      "▁iss": 2137,
      ".\n\nL": 2138,
      "▁player": 2139,
      "▁just": 2140,
      "▁period": 2141,
      "▁kill": 2142,
      "▁resp": 2143,
      "aff": 2144,
      "▁position": 2145,
      "▁perform": 2146,
      "▁arr": 2147,
      "▁repl": 2148,
      "▁refer": 2149,
      "ies,": 2150,
      "▁vis": 2151,
      "▁(199": 2152,
      "lin": 2153,
      "ournal": 2154,
      "ote": 2155,
      "cer": 2156,
      "▁trad": 2157,
      "▁curr": 2158,
      "ipp": 2159,
      "ara": 2160,
      "of": 2161,
      "▁moved": 2162,
      "alk": 2163,
      "▁1,": 2164,
      "▁sk": 2165,
      "▁power": 2166,
      "▁million": 2167,
      "▁different": 2168,
      "\nE": 2169,
      "▁incre": 2170,
      "▁Per": 2171,
      "▁father": 2172,
      "▁2000": 2173,
      "\nG": 2174,
      "▁led": 2175,
      "itor": 2176,
      "hern": 2177,
      "▁Gro": 2178,
      "▁Island": 2179,
      ".\n\nSee": 2180,
      "▁fem": 2181,
      "50": 2182,
      "ily": 2183,
      "ribut": 2184,
      "▁win": 2185,
      "▁East": 2186,
      "oon": 2187,
      "arch": 2188,
      "▁those": 2189,
      "▁km": 2190,
      "▁like": 2191,
      "▁field": 2192,
      "▁fac": 2193,
      "▁another": 2194,
      "▁debut": 2195,
      "▁del": 2196,
      "▁international": 2197,
      "\nN": 2198,
      "dom": 2199,
      "epend": 2200,
      "uel": 2201,
      "▁politician": 2202,
      "ps": 2203,
      "▁exper": 2204,
      "▁announced": 2205,
      "▁\n|-": 2206,
      "▁director": 2207,
      "▁compos": 2208,
      "▁equ": 2209,
      "▁still": 2210,
      "iber": 2211,
      "ones": 2212,
      "gcolor": 2213,
      "-t": 2214,
      "ivil": 2215,
      "ring": 2216,
      "atch": 2217,
      "otes": 2218,
      "▁Minist": 2219,
      "▁project": 2220,
      "▁if": 2221,
      "▁Port": 2222,
      "arian": 2223,
      "-S": 2224,
      "ald": 2225,
      "▁century": 2226,
      "▁Em": 2227,
      "▁hand": 2228,
      "▁best": 2229,
      "▁el": 2230,
      "▁establish": 2231,
      "▁week": 2232,
      "▁port": 2233,
      "▁sold": 2234,
      "ister": 2235,
      "▁River": 2236,
      "ugg": 2237,
      "▁son": 2238,
      "▁France": 2239,
      "▁2009": 2240,
      "▁186": 2241,
      "Ch": 2242,
      "ation.": 2243,
      "▁Mor": 2244,
      "-w": 2245,
      "anish": 2246,
      "▁Amer": 2247,
      "▁constru": 2248,
      "xt": 2249,
      "unicip": 2250,
      "esc": 2251,
      "\n\nA": 2252,
      "-y": 2253,
      ".\n\nOn": 2254,
      "ush": 2255,
      "▁track": 2256,
      "▁attack": 2257,
      "ains": 2258,
      "▁business": 2259,
      "field": 2260,
      "▁2010": 2261,
      "gin": 2262,
      "iment": 2263,
      "▁month": 2264,
      "ole": 2265,
      "▁Church": 2266,
      "▁service": 2267,
      "▁cult": 2268,
      "ested": 2269,
      "read": 2270,
      "▁av": 2271,
      "▁Roman": 2272,
      "raw": 2273,
      "ael": 2274,
      "▁nov": 2275,
      "▁previous": 2276,
      "▁bgcolor": 2277,
      "▁make": 2278,
      "olution": 2279,
      "▁Bel": 2280,
      "lex": 2281,
      "▁Division": 2282,
      "▁Sm": 2283,
      "orthern": 2284,
      "\nW": 2285,
      "▁players": 2286,
      "▁sett": 2287,
      "ively": 2288,
      "abor": 2289,
      "▁ship": 2290,
      "eal": 2291,
      "ize": 2292,
      "off": 2293,
      "▁very": 2294,
      "-c": 2295,
      "▁Party": 2296,
      "▁among": 2297,
      "app": 2298,
      "C.": 2299,
      "back": 2300,
      "▁Act": 2301,
      "ander": 2302,
      "avy": 2303,
      "-19": 2304,
      "atri": 2305,
      "▁links\n\n": 2306,
      "▁level": 2307,
      "forman": 2308,
      "ians": 2309,
      "omm": 2310,
      "ody": 2311,
      "ape": 2312,
      "▁web": 2313,
      "na": 2314,
      "ought": 2315,
      "▁bas": 2316,
      "▁mag": 2317,
      "▁30": 2318,
      "oor": 2319,
      "ead": 2320,
      "▁Nor": 2321,
      "olic": 2322,
      "▁invol": 2323,
      "▁read": 2324,
      "▁Council": 2325,
      "▁deaths\n": 2326,
      "▁187": 2327,
      "▁written": 2328,
      "ridge": 2329,
      "▁Rober": 2330,
      "▁professional": 2331,
      "astern": 2332,
      "2)": 2333,
      "▁late": 2334,
      "ploy": 2335,
      "▁title": 2336,
      "▁25": 2337,
      "umni": 2338,
      "▁grad": 2339,
      "ay,": 2340,
      "ists\n": 2341,
      "▁aff": 2342,
      "▁Qu": 2343,
      "▁expl": 2344,
      "▁often": 2345,
      "▁adv": 2346,
      "▁Thom": 2347,
      "▁align=": 2348,
      "ler": 2349,
      "ellow": 2350,
      "as,": 2351,
      "ained": 2352,
      "ivid": 2353,
      "▁2011": 2354,
      "rap": 2355,
      "irc": 2356,
      "ering": 2357,
      "imes": 2358,
      "reek": 2359,
      "▁Char": 2360,
      "▁Pal": 2361,
      "ense": 2362,
      "▁techn": 2363,
      ".\n\nW": 2364,
      "▁Royal": 2365,
      "▁train": 2366,
      "▁Army": 2367,
      "val": 2368,
      "cast": 2369,
      "▁2008": 2370,
      "▁young": 2371,
      "▁Que": 2372,
      "ront": 2373,
      ".\n\nHistory": 2374,
      "▁epis": 2375,
      "▁clos": 2376,
      "▁\nThe": 2377,
      "▁fe": 2378,
      "▁Val": 2379,
      "▁produced": 2380,
      "▁official": 2381,
      "attle": 2382,
      "▁side": 2383,
      "▁poss": 2384,
      "oe": 2385,
      "▁General": 2386,
      "▁total": 2387,
      "-m": 2388,
      "▁European": 2389,
      "\nIn": 2390,
      "\n\nThe": 2391,
      "▁init": 2392,
      "▁country": 2393,
      "▁started": 2394,
      "▁created": 2395,
      "empt": 2396,
      "▁import": 2397,
      "ves": 2398,
      "▁even": 2399,
      "outher": 2400,
      "itect": 2401,
      "ords": 2402,
      "▁spe": 2403,
      "▁Ap": 2404,
      "▁struct": 2405,
      "ean": 2406,
      "▁Street": 2407,
      "▁role": 2408,
      "▁chang": 2409,
      "ointed": 2410,
      "▁came": 2411,
      "▁went": 2412,
      "▁James": 2413,
      "▁\"The": 2414,
      "▁community": 2415,
      "ij": 2416,
      "itte": 2417,
      "▁Mount": 2418,
      "▁cover": 2419,
      "▁every": 2420,
      "▁turn": 2421,
      "▁engine": 2422,
      "outhern": 2423,
      "▁character": 2424,
      "▁joined": 2425,
      "▁sit": 2426,
      "▁development": 2427,
      "rote": 2428,
      "▁conc": 2429,
      "▁given": 2430,
      "▁val": 2431,
      "ym": 2432,
      "istic": 2433,
      "▁Bra": 2434,
      "ocal": 2435,
      "omet": 2436,
      "irl": 2437,
      "▁pres": 2438,
      "▁2006": 2439,
      "▁political": 2440,
      "▁\"S": 2441,
      "▁Paul": 2442,
      "▁married": 2443,
      "▁pat": 2444,
      "▁George": 2445,
      "▁effect": 2446,
      "▁Sen": 2447,
      "▁fre": 2448,
      "lect": 2449,
      "-p": 2450,
      "hold": 2451,
      "bert": 2452,
      "▁worked": 2453,
      ".\n\nN": 2454,
      "▁rail": 2455,
      "▁President": 2456,
      "▁Fl": 2457,
      "itions": 2458,
      "self": 2459,
      "wards": 2460,
      "▁By": 2461,
      "▁production": 2462,
      "\n\nP": 2463,
      "▁sw": 2464,
      "▁point": 2465,
      "iron": 2466,
      "▁Hol": 2467,
      "ico": 2468,
      "▁what": 2469,
      "▁conf": 2470,
      "▁(P": 2471,
      "▁pe": 2472,
      "▁various": 2473,
      "ness": 2474,
      "line": 2475,
      "urb": 2476,
      "▁Rich": 2477,
      "▁Lou": 2478,
      "▁(d": 2479,
      "a's": 2480,
      "itar": 2481,
      "ards": 2482,
      "30": 2483,
      "stitute": 2484,
      "asket": 2485,
      "bor": 2486,
      "ared": 2487,
      "▁tw": 2488,
      "▁military": 2489,
      "ological": 2490,
      "rant": 2491,
      "hib": 2492,
      "▁prote": 2493,
      "▁Australian": 2494,
      "ius": 2495,
      "▁2012": 2496,
      "ream": 2497,
      "ached": 2498,
      "▁fact": 2499,
      "▁One": 2500,
      "erb": 2501,
      "ociety": 2502,
      "▁St.": 2503,
      "▁president": 2504,
      "ocr": 2505,
      "▁having": 2506,
      "▁special": 2507,
      "ogn": 2508,
      "▁claim": 2509,
      "▁next": 2510,
      "▁2007": 2511,
      "▁Sal": 2512,
      "shire": 2513,
      "eh": 2514,
      "▁bre": 2515,
      "ops": 2516,
      "▁sent": 2517,
      "▁Red": 2518,
      "▁Dem": 2519,
      "▁much": 2520,
      "ged": 2521,
      "▁become": 2522,
      ".\n\nR": 2523,
      "▁host": 2524,
      "▁pri": 2525,
      "▁100": 2526,
      "▁21": 2527,
      ".\n\nG": 2528,
      "▁David": 2529,
      "▁Kh": 2530,
      "▁elect": 2531,
      "posed": 2532,
      "▁miss": 2533,
      "\nJ": 2534,
      "E9": 2535,
      "▁24": 2536,
      "▁site": 2537,
      "hel": 2538,
      "9.": 2539,
      "co": 2540,
      "era": 2541,
      "▁match": 2542,
      "i.": 2543,
      "▁intro": 2544,
      "▁prim": 2545,
      "▁(N": 2546,
      "serv": 2547,
      "▁using": 2548,
      "▁compan": 2549,
      "▁church": 2550,
      "▁ant": 2551,
      "▁common": 2552,
      "▁2016": 2553,
      "▁tem": 2554,
      "22": 2555,
      "3)": 2556,
      "aur": 2557,
      "’s": 2558,
      "ly,": 2559,
      "▁Ber": 2560,
      "▁Jos": 2561,
      ":\n": 2562,
      "▁novel": 2563,
      "▁2014": 2564,
      "▁actor": 2565,
      "'t": 2566,
      "ividual": 2567,
      "▁version": 2568,
      "▁returned": 2569,
      "▁mult": 2570,
      "site": 2571,
      "▁links": 2572,
      "arliam": 2573,
      "▁Histor": 2574,
      "ge,": 2575,
      "al,": 2576,
      "ales": 2577,
      "▁performan": 2578,
      "▁Pe": 2579,
      "eration": 2580,
      "formation": 2581,
      "▁take": 2582,
      "▁infl": 2583,
      "ney": 2584,
      "▁[": 2585,
      "arliament": 2586,
      "▁Australia": 2587,
      "▁(B": 2588,
      "▁beh": 2589,
      "ilar": 2590,
      "▁()": 2591,
      "etwork": 2592,
      "▁process": 2593,
      "sequ": 2594,
      "▁few": 2595,
      "▁video": 2596,
      "berg": 2597,
      "ories": 2598,
      "▁fun": 2599,
      "▁Stud": 2600,
      "-M": 2601,
      "ours": 2602,
      "▁particip": 2603,
      "▁gl": 2604,
      "▁vol": 2605,
      "ashington": 2606,
      "▁Prov": 2607,
      "▁During": 2608,
      "rab": 2609,
      "▁Mary": 2610,
      "▁births\nLiving": 2611,
      "ges": 2612,
      "▁Association": 2613,
      "ibr": 2614,
      "rian": 2615,
      "▁2013": 2616,
      "▁Academ": 2617,
      "▁Hall": 2618,
      "ama": 2619,
      "▁Mart": 2620,
      "10": 2621,
      "ccording": 2622,
      "asketball": 2623,
      "▁Vir": 2624,
      "▁2015": 2625,
      "iction": 2626,
      "▁Hen": 2627,
      "aughter": 2628,
      "isl": 2629,
      "ecut": 2630,
      "ances": 2631,
      "▁(w": 2632,
      "estival": 2633,
      "▁Mex": 2634,
      "unt": 2635,
      "stitut": 2636,
      "aken": 2637,
      "itz": 2638,
      "olit": 2639,
      "▁Club": 2640,
      "ention": 2641,
      "ateg": 2642,
      "▁administ": 2643,
      "CA": 2644,
      "▁2018": 2645,
      "ases": 2646,
      "▁List": 2647,
      "▁hous": 2648,
      "▁friend": 2649,
      "ittle": 2650,
      "▁Union": 2651,
      "ources": 2652,
      "iy": 2653,
      "▁Black": 2654,
      "-A": 2655,
      "▁hig": 2656,
      "▁opened": 2657,
      "▁Court": 2658,
      "▁1.": 2659,
      "▁Road": 2660,
      "uit": 2661,
      "▁Games": 2662,
      "iography": 2663,
      "▁brother": 2664,
      "▁social": 2665,
      "▁Des": 2666,
      ".\n\nO": 2667,
      "yd": 2668,
      "▁road": 2669,
      "ests": 2670,
      "BC": 2671,
      "▁Music": 2672,
      "atter": 2673,
      "aign": 2674,
      "ena": 2675,
      "▁pract": 2676,
      "▁Town": 2677,
      "▁beg": 2678,
      "▁alumni": 2679,
      "▁Sl": 2680,
      "▁Mag": 2681,
      "▁without": 2682,
      "▁half": 2683,
      "▁research": 2684,
      "▁wrote": 2685,
      "ership": 2686,
      "▁ter": 2687,
      "▁Canadian": 2688,
      "▁way": 2689,
      "▁coach": 2690,
      "▁(198": 2691,
      "center": 2692,
      "▁mid": 2693,
      "rated": 2694,
      "▁lost": 2695,
      "▁popular": 2696,
      ".,": 2697,
      "▁2017": 2698,
      "urk": 2699,
      "▁full": 2700,
      "▁need": 2701,
      "▁squ": 2702,
      "nect": 2703,
      "▁(D": 2704,
      "23": 2705,
      "day": 2706,
      "▁Law": 2707,
      "▁appointed": 2708,
      "tar": 2709,
      "ying": 2710,
      "▁hon": 2711,
      "wood": 2712,
      "▁Robert": 2713,
      "▁completed": 2714,
      "▁broad": 2715,
      "▁California": 2716,
      "▁My": 2717,
      "ending": 2718,
      "▁Pri": 2719,
      "unn": 2720,
      "▁great": 2721,
      "ek": 2722,
      "alt": 2723,
      "\n\nC": 2724,
      "▁Kingdom": 2725,
      "▁directed": 2726,
      "▁elected": 2727,
      "iddle": 2728,
      "▁aver": 2729,
      "▁invest": 2730,
      "▁African": 2731,
      "▁attempt": 2732,
      "▁partic": 2733,
      "▁Mad": 2734,
      "ination": 2735,
      "▁sol": 2736,
      "rd": 2737,
      "burg": 2738,
      "▁First": 2739,
      "cher": 2740,
      "ine,": 2741,
      "now": 2742,
      "▁comb": 2743,
      "▁indust": 2744,
      "▁continued": 2745,
      "ictor": 2746,
      ".C.": 2747,
      "ston": 2748,
      "▁Washington": 2749,
      "20th-century": 2750,
      "cy": 2751,
      "ule": 2752,
      "▁ident": 2753,
      "ries": 2754,
      "▁star": 2755,
      "ming": 2756,
      "▁inf": 2757,
      "ype": 2758,
      "ope": 2759,
      "▁Summer": 2760,
      "▁race": 2761,
      "▁Olympic": 2762,
      "17": 2763,
      "▁Group": 2764,
      "▁examp": 2765,
      "▁econom": 2766,
      "=#": 2767,
      "▁India": 2768,
      "craft": 2769,
      "▁lim": 2770,
      "▁control": 2771,
      "4)": 2772,
      "-year": 2773,
      "▁Cath": 2774,
      "▁Sam": 2775,
      "▁review": 2776,
      "▁promot": 2777,
      "▁signed": 2778,
      "||": 2779,
      ".\n\nHe": 2780,
      "▁Flor": 2781,
      "▁region": 2782,
      "▁These": 2783,
      "thlet": 2784,
      "▁When": 2785,
      "▁story": 2786,
      "▁proper": 2787,
      "apt": 2788,
      "▁founded": 2789,
      "▁Che": 2790,
      "eph": 2791,
      "el,": 2792,
      "used": 2793,
      "ani": 2794,
      "inese": 2795,
      "ump": 2796,
      "▁Miss": 2797,
      "uff": 2798,
      "▁bgcolor=#": 2799,
      "atural": 2800,
      "It": 2801,
      "▁Central": 2802,
      "▁Department": 2803,
      "▁further": 2804,
      "▁Russian": 2805,
      "▁ren": 2806,
      "ago": 2807,
      "–0": 2808,
      "▁/": 2809,
      "▁rock": 2810,
      "5)": 2811,
      "aut": 2812,
      "▁coll": 2813,
      "\n\nSee": 2814,
      "▁deg": 2815,
      "▁Serv": 2816,
      "▁caus": 2817,
      "▁Arch": 2818,
      "199": 2819,
      "▁Museum": 2820,
      "▁recorded": 2821,
      "▁find": 2822,
      "ms": 2823,
      "▁Zeal": 2824,
      "▁Ne": 2825,
      "▁considered": 2826,
      "▁individual": 2827,
      "ising": 2828,
      "▁Italian": 2829,
      "rig": 2830,
      "-h": 2831,
      "▁real": 2832,
      "▁tog": 2833,
      "▁Don": 2834,
      "▁Tex": 2835,
      "▁Grand": 2836,
      "▁Hill": 2837,
      "▁185": 2838,
      "▁Zealand": 2839,
      "▁Angel": 2840,
      "▁dest": 2841,
      "▁guitar": 2842,
      "▁priv": 2843,
      "-g": 2844,
      "arth": 2845,
      "rish": 2846,
      "▁together": 2847,
      "▁medal": 2848,
      "▁Football": 2849,
      "▁J.": 2850,
      "▁hold": 2851,
      "▁Jack": 2852,
      "▁We": 2853,
      "idence": 2854,
      "▁works": 2855,
      "▁surv": 2856,
      "▁Rail": 2857,
      "▁similar": 2858,
      "▁view": 2859,
      "▁Film": 2860,
      "ma": 2861,
      "ots": 2862,
      "▁Japanese": 2863,
      "▁22": 2864,
      "omp": 2865,
      "▁23": 2866,
      "▁Sing": 2867,
      "id=": 2868,
      "▁Best": 2869,
      "▁2.": 2870,
      "▁Alex": 2871,
      "▁gradu": 2872,
      "▁assist": 2873,
      "ification": 2874,
      "▁men": 2875,
      "ha": 2876,
      "▁league": 2877,
      "▁tourn": 2878,
      "oul": 2879,
      "▁(L": 2880,
      "\n\"": 2881,
      "▁ten": 2882,
      "40": 2883,
      "men": 2884,
      "▁Franc": 2885,
      "▁mother": 2886,
      "▁influ": 2887,
      "or,": 2888,
      "▁Republic": 2889,
      "▁No.": 2890,
      "▁cer": 2891,
      "▁Op": 2892,
      "odes": 2893,
      "▁meet": 2894,
      "ies.": 2895,
      "▁base": 2896,
      "▁human": 2897,
      "▁2005": 2898,
      "ederal": 2899,
      "▁\"A": 2900,
      "1)": 2901,
      "▁“": 2902,
      "ospital": 2903,
      "60": 2904,
      "\n\nF": 2905,
      "▁ins": 2906,
      "▁Cong": 2907,
      "▁east": 2908,
      "▁(T": 2909,
      "▁Sk": 2910,
      "▁reported": 2911,
      "▁cond": 2912,
      "er\n": 2913,
      "▁laun": 2914,
      "▁my": 2915,
      "▁\n|-id=": 2916,
      "▁Met": 2917,
      "mon": 2918,
      "ights": 2919,
      "icle": 2920,
      "▁architect": 2921,
      "ittee": 2922,
      "▁teams": 2923,
      "▁tradition": 2924,
      "▁goal": 2925,
      "▁phot": 2926,
      "▁0": 2927,
      "rest": 2928,
      "▁help": 2929,
      "▁align=right": 2930,
      "▁Western": 2931,
      "▁z": 2932,
      "▁Scott": 2933,
      "▁A.": 2934,
      "▁rank": 2935,
      "reland": 2936,
      "▁Thomas": 2937,
      "▁With": 2938,
      "▁TV": 2939,
      "arter": 2940,
      "▁Leg": 2941,
      "▁aut": 2942,
      "▁cast": 2943,
      "▁website": 2944,
      "6)": 2945,
      "▁Cro": 2946,
      "▁grow": 2947,
      "▁Cap": 2948,
      "iles": 2949,
      "▁appeared": 2950,
      "▁Commun": 2951,
      "▁important": 2952,
      "-B": 2953,
      "▁2,": 2954,
      "▁working": 2955,
      "▁Green": 2956,
      "▁black": 2957,
      "▁2004": 2958,
      "▁Kore": 2959,
      "ication": 2960,
      "▁Carol": 2961,
      "▁style=\"": 2962,
      "▁Great": 2963,
      "▁municip": 2964,
      "-C": 2965,
      "▁fail": 2966,
      "itted": 2967,
      "\n\nM": 2968,
      "▁Rev": 2969,
      "lo": 2970,
      "▁doc": 2971,
      "▁west": 2972,
      "▁Charles": 2973,
      "▁making": 2974,
      "25": 2975,
      "ray": 2976,
      "duced": 2977,
      "cial": 2978,
      "esh": 2979,
      "ither": 2980,
      "▁Virgin": 2981,
      "▁Institute": 2982,
      "acy": 2983,
      "...": 2984,
      "▁appl": 2985,
      "leg": 2986,
      "▁Christian": 2987,
      "▁good": 2988,
      "▁Gold": 2989,
      "▁=": 2990,
      "oz": 2991,
      "▁daughter": 2992,
      "oints": 2993,
      "ependent": 2994,
      "▁You": 2995,
      "▁phys": 2996,
      "▁services": 2997,
      "▁fund": 2998,
      "▁\"B": 2999,
      "emor": 3000,
      "viron": 3001,
      "▁mot": 3002,
      "d6": 3003,
      "▁offer": 3004,
      "▁lo": 3005,
      "▁di": 3006,
      "▁journal": 3007,
      "▁28": 3008,
      "▁27": 3009,
      "iqu": 3010,
      "▁less": 3011,
      "▁time,": 3012,
      "itive": 3013,
      "▁Mark": 3014,
      "▁direct": 3015,
      "▁rev": 3016,
      "roll": 3017,
      "▁recogn": 3018,
      "▁Sim": 3019,
      "▁areas": 3020,
      "mar": 3021,
      "▁employ": 3022,
      "▁Ben": 3023,
      "▁Year": 3024,
      "olk": 3025,
      "▁(R": 3026,
      "▁decl": 3027,
      "▁ground": 3028,
      "▁should": 3029,
      "▁formed": 3030,
      "▁qual": 3031,
      "▁mar": 3032,
      "▁vict": 3033,
      "▁developed": 3034,
      "▁26": 3035,
      "ville": 3036,
      "▁Mer": 3037,
      "▁mater": 3038,
      "iting": 3039,
      "▁typ": 3040,
      "▁Michael": 3041,
      "▁(20": 3042,
      "▁Jew": 3043,
      "▁Im": 3044,
      "▁sports": 3045,
      "7)": 3046,
      "▁Catholic": 3047,
      "▁(197": 3048,
      "▁himself": 3049,
      "▁fire": 3050,
      "▁campaign": 3051,
      "uz": 3052,
      "age,": 3053,
      "er's": 3054,
      "▁party": 3055,
      "sy": 3056,
      "olf": 3057,
      "lear": 3058,
      "ishing": 3059,
      "▁rul": 3060,
      "▁events": 3061,
      "iding": 3062,
      "15": 3063,
      "▁Mac": 3064,
      "▁anim": 3065,
      "▁exist": 3066,
      "▁eight": 3067,
      "imately": 3068,
      "rim": 3069,
      "usical": 3070,
      "▁Mont": 3071,
      "▁live": 3072,
      "▁artist": 3073,
      "▁Louis": 3074,
      "overnor": 3075,
      "▁also\n": 3076,
      "▁across": 3077,
      "pite": 3078,
      "▁Pat": 3079,
      "▁avail": 3080,
      "duction": 3081,
      "idae": 3082,
      "16": 3083,
      "ique": 3084,
      "zil": 3085,
      "elt": 3086,
      "ishop": 3087,
      "▁Society": 3088,
      "atre": 3089,
      "–18": 3090,
      "▁paint": 3091,
      "▁low": 3092,
      "▁living": 3093,
      "21st": 3094,
      "andid": 3095,
      "et,": 3096,
      "▁becom": 3097,
      "edy": 3098,
      "▁Academy": 3099,
      "▁average": 3100,
      "▁dram": 3101,
      "▁students": 3102,
      "ensive": 3103,
      "▁2021": 3104,
      "▁tro": 3105,
      "aper": 3106,
      "▁tournament": 3107,
      "▁(F": 3108,
      "▁Company": 3109,
      "▁winn": 3110,
      "▁plant": 3111,
      "anding": 3112,
      "uild": 3113,
      "▁education": 3114,
      "ux": 3115,
      "ceed": 3116,
      "▁division": 3117,
      "▁how": 3118,
      "here": 3119,
      "igned": 3120,
      "▁Bill": 3121,
      "och": 3122,
      "▁modern": 3123,
      "▁From": 3124,
      "▁UK": 3125,
      "▁critic": 3126,
      "▁office": 3127,
      "people": 3128,
      "▁light": 3129,
      "ure,": 3130,
      "▁Ter": 3131,
      "asc": 3132,
      "▁Bay": 3133,
      "▁Pet": 3134,
      "▁et": 3135,
      "udd": 3136,
      "lement": 3137,
      "▁fight": 3138,
      "son,": 3139,
      "oviet": 3140,
      "vironment": 3141,
      "▁does": 3142,
      "me": 3143,
      "▁Trans": 3144,
      "▁Wom": 3145,
      "▁Dan": 3146,
      "play": 3147,
      "-st": 3148,
      "ning": 3149,
      "▁female": 3150,
      "▁Frank": 3151,
      "▁Cont": 3152,
      "less": 3153,
      "iff": 3154,
      "\n\nB": 3155,
      "his": 3156,
      "▁(E": 3157,
      "▁playing": 3158,
      "gress": 3159,
      "▁court": 3160,
      "unk": 3161,
      "▁footballers\n": 3162,
      "▁der": 3163,
      "ibrary": 3164,
      "eck": 3165,
      "▁viol": 3166,
      "ate,": 3167,
      "chie": 3168,
      "21st-century": 3169,
      "ential": 3170,
      "▁\"M": 3171,
      "ethod": 3172,
      "ably": 3173,
      "▁competition": 3174,
      "left": 3175,
      "board": 3176,
      "ockey": 3177,
      "▁Tor": 3178,
      "▁never": 3179,
      "ger": 3180,
      "▁finished": 3181,
      "ry,": 3182,
      "▁data": 3183,
      "▁Chinese": 3184,
      "▁(s": 3185,
      "▁belie": 3186,
      "rel": 3187,
      "aval": 3188,
      "ini": 3189,
      "▁Richard": 3190,
      "▁separ": 3191,
      "ida": 3192,
      "▁Germany": 3193,
      "icles": 3194,
      "▁relation": 3195,
      "▁release": 3196,
      "▁associ": 3197,
      "▁radio": 3198,
      "▁acqu": 3199,
      "▁construction": 3200,
      "▁household": 3201,
      "▁bar": 3202,
      "ways": 3203,
      "▁Minister": 3204,
      "▁Democr": 3205,
      "head": 3206,
      "▁case": 3207,
      "▁Lat": 3208,
      "uation": 3209,
      "▁prot": 3210,
      "ili": 3211,
      "▁Wil": 3212,
      "▁184": 3213,
      "aly": 3214,
      "▁gave": 3215,
      "▁cross": 3216,
      "hood": 3217,
      "▁successful": 3218,
      "▁Tom": 3219,
      "▁strong": 3220,
      "most": 3221,
      "▁performed": 3222,
      "▁days": 3223,
      "▁foc": 3224,
      "▁condu": 3225,
      "s\nS": 3226,
      "▁Spanish": 3227,
      "▁board": 3228,
      "rael": 3229,
      "ranch": 3230,
      "▁sele": 3231,
      "▁performance": 3232,
      "▁away": 3233,
      "▁inj": 3234,
      "bour": 3235,
      "utch": 3236,
      "▁establishments": 3237,
      "▁times": 3238,
      "▁Victor": 3239,
      "band": 3240,
      "rey": 3241,
      "Ind": 3242,
      "II": 3243,
      "▁free": 3244,
      "8)": 3245,
      "▁Georg": 3246,
      "ells": 3247,
      "▁Offic": 3248,
      "▁2022": 3249,
      "▁tour": 3250,
      "9)": 3251,
      "▁though": 3252,
      "▁Vol": 3253,
      "▁Los": 3254,
      "▁Sant": 3255,
      "▁Ireland": 3256,
      "acher": 3257,
      "198": 3258,
      "ache": 3259,
      "▁available": 3260,
      "aud": 3261,
      "▁Sur": 3262,
      "▁Penn": 3263,
      "\nO": 3264,
      "▁2003": 3265,
      "▁contract": 3266,
      "roy": 3267,
      "▁health": 3268,
      "24": 3269,
      "ilities": 3270,
      "embly": 3271,
      "▁dam": 3272,
      "▁ide": 3273,
      "▁(l": 3274,
      "▁although": 3275,
      "▁jud": 3276,
      "▁Pres": 3277,
      "eep": 3278,
      "hest": 3279,
      "▁2002": 3280,
      "▁Inter": 3281,
      "atriate": 3282,
      "ificant": 3283,
      "\"\n|": 3284,
      "itch": 3285,
      "▁test": 3286,
      "▁films": 3287,
      "ume": 3288,
      "ensus": 3289,
      "▁Mel": 3290,
      "▁hom": 3291,
      "▁sen": 3292,
      "▁agre": 3293,
      "nel": 3294,
      "▁awarded": 3295,
      "▁places": 3296,
      "▁cost": 3297,
      "ugby": 3298,
      "atory": 3299,
      "▁Smith": 3300,
      "▁America": 3301,
      "▁wife": 3302,
      "▁Center": 3303,
      "▁Peter": 3304,
      "▁Dire": 3305,
      "oice": 3306,
      "▁points": 3307,
      "▁mix": 3308,
      "▁To": 3309,
      "▁taken": 3310,
      "imate": 3311,
      "ows": 3312,
      "-P": 3313,
      "sec": 3314,
      "▁Book": 3315,
      "atives": 3316,
      "▁Ob": 3317,
      "▁season,": 3318,
      "▁(G": 3319,
      "▁Min": 3320,
      "▁sil": 3321,
      "\"|": 3322,
      "▁circ": 3323,
      "aries": 3324,
      "▁includes": 3325,
      ".\n\nReferences": 3326,
      "▁Rock": 3327,
      "s\nA": 3328,
      "▁seven": 3329,
      "▁island": 3330,
      "\n\nT": 3331,
      "▁Swed": 3332,
      "▁bank": 3333,
      "ras": 3334,
      "▁basketball": 3335,
      "▁respons": 3336,
      "▁Saint": 3337,
      "▁companies": 3338,
      "elling": 3339,
      "▁civil": 3340,
      "▁carri": 3341,
      "▁29": 3342,
      "E9E9": 3343,
      "ift": 3344,
      "ators": 3345,
      "an.": 3346,
      ",000": 3347,
      "▁put": 3348,
      "ios": 3349,
      "▁impro": 3350,
      "▁front": 3351,
      "gy": 3352,
      "▁material": 3353,
      "▁designed": 3354,
      "▁\"T": 3355,
      "urity": 3356,
      "▁Henry": 3357,
      "▁originally": 3358,
      "▁relig": 3359,
      "▁wid": 3360,
      "▁stage": 3361,
      "▁50": 3362,
      "▁forces": 3363,
      "ender": 3364,
      "iro": 3365,
      "▁language": 3366,
      "mb": 3367,
      "\n\nN": 3368,
      "▁ill": 3369,
      "▁sound": 3370,
      "-in": 3371,
      "▁current": 3372,
      "ón": 3373,
      "ribution": 3374,
      "ar,": 3375,
      "▁model": 3376,
      "▁lab": 3377,
      "vert": 3378,
      "▁Texas": 3379,
      "▁imp": 3380,
      "▁Win": 3381,
      "▁scored": 3382,
      "▁Ol": 3383,
      "▁featured": 3384,
      "▁earn": 3385,
      "▁once": 3386,
      "▁product": 3387,
      "▁2001": 3388,
      "▁reb": 3389,
      "▁access": 3390,
      "People": 3391,
      "▁Mass": 3392,
      "icated": 3393,
      "▁Force": 3394,
      "▁cy": 3395,
      "▁Chic": 3396,
      "▁significant": 3397,
      "▁remained": 3398,
      "▁\nA": 3399,
      "12": 3400,
      "14": 3401,
      "▁Super": 3402,
      "u,": 3403,
      "▁fall": 3404,
      "iers": 3405,
      "▁polic": 3406,
      "▁execut": 3407,
      "▁(H": 3408,
      "▁dev": 3409,
      "▁Jun": 3410,
      "70": 3411,
      "ror": 3412,
      "▁leading": 3413,
      "▁magaz": 3414,
      "▁command": 3415,
      "ula": 3416,
      "iple": 3417,
      "▁mount": 3418,
      "▁dou": 3419,
      "▁bo": 3420,
      "▁Tra": 3421,
      "road": 3422,
      "aught": 3423,
      "▁episode": 3424,
      "▁Province": 3425,
      "▁largest": 3426,
      "▁aircraft": 3427,
      "ource": 3428,
      "de": 3429,
      "▁(f": 3430,
      "▁followed": 3431,
      "▁market": 3432,
      "▁sem": 3433,
      "▁vot": 3434,
      "▁Camp": 3435,
      "▁Commission": 3436,
      "\nPeople": 3437,
      "▁however,": 3438,
      "▁stri": 3439,
      "▁Play": 3440,
      "▁enc": 3441,
      "▁candid": 3442,
      "▁gold": 3443,
      "▁Up": 3444,
      "▁stated": 3445,
      "erous": 3446,
      "pring": 3447,
      "▁liter": 3448,
      "▁Turk": 3449,
      "ks": 3450,
      "▁transfer": 3451,
      "iences": 3452,
      "▁But": 3453,
      "mpire": 3454,
      "ka": 3455,
      "lant": 3456,
      "▁cou": 3457,
      "ergy": 3458,
      "▁buildings": 3459,
      "bur": 3460,
      "rup": 3461,
      "ducation": 3462,
      "▁association": 3463,
      "▁document": 3464,
      "▁Del": 3465,
      "▁consist": 3466,
      "▁chart": 3467,
      "▁Cast": 3468,
      "▁listed": 3469,
      "▁plan": 3470,
      "▁throughout": 3471,
      "▁Scot": 3472,
      "\nK": 3473,
      "cle": 3474,
      "▁park": 3475,
      "▁must": 3476,
      "▁M.": 3477,
      "13": 3478,
      "▁network": 3479,
      "▁press": 3480,
      "▁you": 3481,
      "stitution": 3482,
      ".\n\nCareer": 3483,
      "▁bi": 3484,
      "▁subsequ": 3485,
      "nglish": 3486,
      "▁(J": 3487,
      "▁Historic": 3488,
      "▁groups": 3489,
      "▁Rob": 3490,
      "retary": 3491,
      "▁body": 3492,
      "▁\"W": 3493,
      "aged": 3494,
      "ella": 3495,
      "▁capt": 3496,
      "aker": 3497,
      "aching": 3498,
      "▁killed": 3499,
      "▁Festival": 3500,
      "▁Mill": 3501,
      "▁0.": 3502,
      "▁features": 3503,
      "0s,": 3504,
      "west": 3505,
      "go": 3506,
      "▁Day": 3507,
      "▁Parliament": 3508,
      "▁sugg": 3509,
      "▁Pan": 3510,
      "bb": 3511,
      "kn": 3512,
      "▁Lake": 3513,
      "\n\nIn": 3514,
      "▁earl": 3515,
      "▁fourth": 3516,
      "▁involved": 3517,
      "▁Second": 3518,
      "▁Gra": 3519,
      "▁information": 3520,
      "▁transl": 3521,
      "▁Mil": 3522,
      "atal": 3523,
      "ength": 3524,
      "▁year,": 3525,
      "onn": 3526,
      "▁action": 3527,
      "▁via": 3528,
      "▁div": 3529,
      "ription": 3530,
      "▁\"I": 3531,
      "urt": 3532,
      "ist,": 3533,
      "▁Go": 3534,
      "▁interest": 3535,
      "land,": 3536,
      "▁Order": 3537,
      "▁#": 3538,
      "▁police": 3539,
      "▁Kn": 3540,
      "▁treat": 3541,
      "text": 3542,
      "▁Carl": 3543,
      "▁eventually": 3544,
      "▁entire": 3545,
      "▁study": 3546,
      "ened": 3547,
      "FC": 3548,
      "▁able": 3549,
      "ala": 3550,
      "▁\n\nThe": 3551,
      "writ": 3552,
      "▁Ann": 3553,
      "eated": 3554,
      "▁Records": 3555,
      "▁Just": 3556,
      "▁wind": 3557,
      "▁care": 3558,
      "▁White": 3559,
      "▁proble": 3560,
      "▁past": 3561,
      "▁Ros": 3562,
      "ih": 3563,
      "▁central": 3564,
      "gar": 3565,
      "▁stations": 3566,
      "ylvan": 3567,
      "▁Ma": 3568,
      "▁private": 3569,
      "▁Ill": 3570,
      "▁S.": 3571,
      "▁Squ": 3572,
      "ving": 3573,
      "▁seen": 3574,
      "▁Mus": 3575,
      "\n\nD": 3576,
      "▁conv": 3577,
      "s'": 3578,
      "umm": 3579,
      "▁student": 3580,
      "▁replaced": 3581,
      "▁nomin": 3582,
      "▁183": 3583,
      "-L": 3584,
      "ufact": 3585,
      "oid": 3586,
      "▁least": 3587,
      "▁minist": 3588,
      "urd": 3589,
      "▁aud": 3590,
      "orpor": 3591,
      "ularly": 3592,
      "▁prem": 3593,
      "annel": 3594,
      "porary": 3595,
      "▁respect": 3596,
      "-G": 3597,
      "▁centur": 3598,
      "\n|-\n|": 3599,
      "7)\n": 3600,
      "▁space": 3601,
      "28": 3602,
      "▁key": 3603,
      "▁(in": 3604,
      "▁Brown": 3605,
      "▁vocal": 3606,
      "▁sch": 3607,
      "ability": 3608,
      "abit": 3609,
      "ola": 3610,
      "6)\n": 3611,
      "asing": 3612,
      "gen": 3613,
      "▁exhib": 3614,
      "▁Brazil": 3615,
      "ya": 3616,
      "ection": 3617,
      "▁staff": 3618,
      "▁Its": 3619,
      "AS": 3620,
      "▁railway": 3621,
      "mercial": 3622,
      "▁ser": 3623,
      "▁es": 3624,
      "ilms": 3625,
      "▁Soviet": 3626,
      "▁discover": 3627,
      "ado": 3628,
      "▁introduced": 3629,
      "▁Pre": 3630,
      "▁currently": 3631,
      "▁see": 3632,
      "▁championship": 3633,
      "idents": 3634,
      "amm": 3635,
      "75": 3636,
      "ano": 3637,
      "▁1st": 3638,
      "▁Land": 3639,
      "▁fig": 3640,
      "▁states": 3641,
      "▁Canada": 3642,
      "▁poet": 3643,
      "▁China": 3644,
      "medi": 3645,
      "▁organization": 3646,
      "uture": 3647,
      "▁Tim": 3648,
      "rial": 3649,
      "▁Tour": 3650,
      "ipl": 3651,
      "▁reached": 3652,
      "ity,": 3653,
      "▁Sir": 3654,
      "uter": 3655,
      "ibl": 3656,
      "utes": 3657,
      "▁songs": 3658,
      "▁express": 3659,
      "ota": 3660,
      "rought": 3661,
      "sych": 3662,
      "▁section": 3663,
      "▁While": 3664,
      "▁Israel": 3665,
      "29": 3666,
      "ice,": 3667,
      "lam": 3668,
      "▁get": 3669,
      "▁missing": 3670,
      "be": 3671,
      "▁travel": 3672,
      "agu": 3673,
      "▁fav": 3674,
      "▁History": 3675,
      "▁cour": 3676,
      "yr": 3677,
      "▁Government": 3678,
      "gent": 3679,
      "aps": 3680,
      "▁40": 3681,
      "▁learn": 3682,
      "▁pur": 3683,
      "▁broadcast": 3684,
      "ita": 3685,
      "▁accept": 3686,
      "▁white": 3687,
      "▁No": 3688,
      "▁edition": 3689,
      ".\n\nRe": 3690,
      "\n\nExternal": 3691,
      "▁Public": 3692,
      "uty": 3693,
      "▁night": 3694,
      "aves": 3695,
      "-language": 3696,
      "ricket": 3697,
      "▁placed": 3698,
      "vil": 3699,
      "▁close": 3700,
      "mark": 3701,
      "▁schools": 3702,
      "▁provided": 3703,
      "2)\n": 3704,
      "stant": 3705,
      "▁college": 3706,
      "rative": 3707,
      "-T": 3708,
      "▁subject": 3709,
      "FA": 3710,
      "▁Er": 3711,
      "ros": 3712,
      "▁(196": 3713,
      "▁women's": 3714,
      "▁C.": 3715,
      "ura": 3716,
      "azz": 3717,
      "▁degree": 3718,
      ".\n\nEarly": 3719,
      "▁(I": 3720,
      "80": 3721,
      "adium": 3722,
      "ees": 3723,
      "▁\"C": 3724,
      "▁either": 3725,
      "▁3,": 3726,
      "ublican": 3727,
      "▁Bo": 3728,
      "sel": 3729,
      "ware": 3730,
      "11": 3731,
      "▁want": 3732,
      "▁According": 3733,
      "▁saw": 3734,
      "▁movement": 3735,
      "isher": 3736,
      "▁:": 3737,
      "▁pot": 3738,
      "▁attended": 3739,
      "-D": 3740,
      "s\nM": 3741,
      "▁contribut": 3742,
      "▁Do": 3743,
      "▁(\"": 3744,
      "▁capital": 3745,
      "▁\"the": 3746,
      "ona": 3747,
      "▁type": 3748,
      "▁Den": 3749,
      "▁achie": 3750,
      "AR": 3751,
      "ein": 3752,
      "aying": 3753,
      "align": 3754,
      "▁upon": 3755,
      "▁sex": 3756,
      "▁cur": 3757,
      "face": 3758,
      "▁training": 3759,
      "▁draw": 3760,
      "▁media": 3761,
      "ental": 3762,
      "▁cop": 3763,
      "uke": 3764,
      "ception": 3765,
      "▁Techn": 3766,
      "▁added": 3767,
      "str": 3768,
      "▁Science": 3769,
      "ements": 3770,
      "ultural": 3771,
      "▁\"L": 3772,
      "ude": 3773,
      "▁God": 3774,
      "0,000": 3775,
      "▁fif": 3776,
      "▁collection": 3777,
      "sylvan": 3778,
      "▁decision": 3779,
      "▁gun": 3780,
      "FL": 3781,
      "26": 3782,
      "–200": 3783,
      "3)\n": 3784,
      "▁unit": 3785,
      "▁(t": 3786,
      "▁meas": 3787,
      "ton,": 3788,
      "eleb": 3789,
      "▁mean": 3790,
      "▁Oh": 3791,
      "man,": 3792,
      "-up": 3793,
      "▁Bank": 3794,
      "▁connect": 3795,
      "ollowing": 3796,
      "▁actress": 3797,
      "▁Dr": 3798,
      "enth": 3799,
      "▁fir": 3800,
      "▁(c": 3801,
      "▁decided": 3802,
      "ic,": 3803,
      "▁defeated": 3804,
      "▁Irish": 3805,
      "▁Paris": 3806,
      "fic": 3807,
      "▁Mos": 3808,
      "▁neigh": 3809,
      "lim": 3810,
      "▁approx": 3811,
      "uan": 3812,
      "-H": 3813,
      "▁1999": 3814,
      ".\n\nAfter": 3815,
      "\n\nR": 3816,
      "4)\n": 3817,
      "nder": 3818,
      "▁range": 3819,
      "▁studio": 3820,
      "▁Star": 3821,
      "stra": 3822,
      "ive,": 3823,
      "▁previously": 3824,
      "s:": 3825,
      "▁che": 3826,
      "known": 3827,
      "▁er": 3828,
      "ada": 3829,
      "5)\n": 3830,
      "▁Empire": 3831,
      "▁reve": 3832,
      "▁Team": 3833,
      "▁Uk": 3834,
      "▁occup": 3835,
      "▁Northern": 3836,
      "▁Rh": 3837,
      "▁grand": 3838,
      "igan": 3839,
      "▁Hon": 3840,
      "▁know": 3841,
      "▁\"D": 3842,
      "▁Arab": 3843,
      "▁rights": 3844,
      "▁Found": 3845,
      "aled": 3846,
      "▁investig": 3847,
      "▁du": 3848,
      "utt": 3849,
      "▁far": 3850,
      "▁pain": 3851,
      "har": 3852,
      "▁above": 3853,
      "▁effort": 3854,
      "▁farm": 3855,
      "▁natural": 3856,
      "▁tre": 3857,
      "▁account": 3858,
      "▁Navy": 3859,
      "▁Sil": 3860,
      "olar": 3861,
      "ply": 3862,
      "▁months": 3863,
      "▁chair": 3864,
      "heast": 3865,
      "▁Joseph": 3866,
      "cel": 3867,
      "▁years,": 3868,
      "▁ball": 3869,
      "27": 3870,
      "▁change": 3871,
      "rade": 3872,
      "▁represented": 3873,
      "▁3.": 3874,
      "▁Some": 3875,
      "▁look": 3876,
      "▁(W": 3877,
      "▁(U": 3878,
      "▁creat": 3879,
      "▁arg": 3880,
      "▁Class": 3881,
      "reme": 3882,
      "▁winning": 3883,
      "▁scient": 3884,
      "▁loss": 3885,
      "▁instead": 3886,
      "action": 3887,
      "order": 3888,
      "▁Off": 3889,
      "incip": 3890,
      "▁Register": 3891,
      "90": 3892,
      "▁plann": 3893,
      "▁Pac": 3894,
      "ingu": 3895,
      "position": 3896,
      "▁usually": 3897,
      "▁(the": 3898,
      "▁lik": 3899,
      "▁Greek": 3900,
      "▁whose": 3901,
      "ion.": 3902,
      "\"\n": 3903,
      "St": 3904,
      "▁Mod": 3905,
      "▁Gall": 3906,
      "chan": 3907,
      "arily": 3908,
      "▁Liber": 3909,
      "cient": 3910,
      "▁Congress": 3911,
      "▁method": 3912,
      "▁Fin": 3913,
      "▁arm": 3914,
      "▁Work": 3915,
      "▁Pennsylvan": 3916,
      "inated": 3917,
      "▁shows": 3918,
      "\nV": 3919,
      "▁relationship": 3920,
      "▁syn": 3921,
      "ems": 3922,
      "▁primary": 3923,
      "▁Ram": 3924,
      "n,": 3925,
      "▁mass": 3926,
      "▁seat": 3927,
      "▁Assembly": 3928,
      "▁active": 3929,
      "▁Gar": 3930,
      "▁behind": 3931,
      "istan": 3932,
      "▁Spain": 3933,
      "▁northern": 3934,
      "▁southern": 3935,
      "▁Columb": 3936,
      "▁Arm": 3937,
      "▁hit": 3938,
      "▁shot": 3939,
      "▁Old": 3940,
      "▁tax": 3941,
      "▁neg": 3942,
      "well": 3943,
      "▁room": 3944,
      "▁imm": 3945,
      "▁Two": 3946,
      "clus": 3947,
      "▁provide": 3948,
      "▁pred": 3949,
      "▁academ": 3950,
      "▁Series": 3951,
      "ette": 3952,
      "BA": 3953,
      "▁Stev": 3954,
      "▁opt": 3955,
      "amily": 3956,
      "ites": 3957,
      "background": 3958,
      "lad": 3959,
      "▁text": 3960,
      "▁gam": 3961,
      "▁purch": 3962,
      "▁FC": 3963,
      "align=": 3964,
      "▁\"P": 3965,
      "igital": 3966,
      "ato": 3967,
      "▁function": 3968,
      "▁Arts": 3969,
      "▁musical": 3970,
      "▁re-": 3971,
      "ugu": 3972,
      "▁Fort": 3973,
      "▁\"H": 3974,
      "▁Alb": 3975,
      "▁Board": 3976,
      "▁newsp": 3977,
      "▁sus": 3978,
      "▁Committee": 3979,
      "en.": 3980,
      "\nAmerican": 3981,
      "45": 3982,
      "▁defeat": 3983,
      "\n\nReferences": 3984,
      "oma": 3985,
      "▁coast": 3986,
      "▁scor": 3987,
      "8)\n": 3988,
      "▁singer": 3989,
      "oir": 3990,
      "▁brought": 3991,
      "iger": 3992,
      "erve": 3993,
      "▁Wood": 3994,
      "hi": 3995,
      "teg": 3996,
      "d6d6": 3997,
      "▁commission": 3998,
      "▁girl": 3999,
      "ter,": 4000,
      "▁lower": 4001,
      "▁Bas": 4002,
      "▁Director": 4003,
      "▁2018,": 4004,
      "▁singles": 4005,
      "ulty": 4006,
      "▁2019,": 4007,
      "▁ste": 4008,
      "ID": 4009,
      "▁Oper": 4010,
      "1)\n": 4011,
      "▁stop": 4012,
      "▁hard": 4013,
      "▁Kar": 4014,
      "tained": 4015,
      "▁Ha": 4016,
      "▁31": 4017,
      "-American": 4018,
      "▁regular": 4019,
      "ancial": 4020,
      "▁rather": 4021,
      "▁Boy": 4022,
      "ications": 4023,
      "▁deal": 4024,
      "▁others": 4025,
      "imb": 4026,
      "▁manufact": 4027,
      "▁Space": 4028,
      "▁Belg": 4029,
      "▁wood": 4030,
      "▁Ser": 4031,
      "▁Battle": 4032,
      "▁Bur": 4033,
      "▁Other": 4034,
      "▁reading": 4035,
      "▁Edward": 4036,
      "79": 4037,
      "cell": 4038,
      "gl": 4039,
      "▁\nIn": 4040,
      "▁4,": 4041,
      "▁Virginia": 4042,
      "▁force": 4043,
      "▁Ant": 4044,
      "pecially": 4045,
      "ends": 4046,
      "isk": 4047,
      "▁Fred": 4048,
      "▁block": 4049,
      ":#": 4050,
      "▁2017,": 4051,
      "▁prison": 4052,
      "oo": 4053,
      "eign": 4054,
      "▁outside": 4055,
      "▁reason": 4056,
      "airs": 4057,
      "wa": 4058,
      "▁(193": 4059,
      "▁esc": 4060,
      "▁regard": 4061,
      "han": 4062,
      "▁Profess": 4063,
      "velopment": 4064,
      "▁gener": 4065,
      "▁Service": 4066,
      "▁1990": 4067,
      "inary": 4068,
      "sw": 4069,
      "▁2010,": 4070,
      "▁Research": 4071,
      "ometimes": 4072,
      "-based": 4073,
      "icro": 4074,
      "\nUn": 4075,
      "▁Sub": 4076,
      "▁ran": 4077,
      "▁years.": 4078,
      "▁Def": 4079,
      "▁units": 4080,
      "▁Sar": 4081,
      "▁launched": 4082,
      "▁2020,": 4083,
      "▁editor": 4084,
      "▁2016,": 4085,
      "▁H.": 4086,
      "▁object": 4087,
      "▁complet": 4088,
      "▁1998": 4089,
      "▁almost": 4090,
      "usband": 4091,
      "\n\nE": 4092,
      "itiz": 4093,
      "–3": 4094,
      "▁stor": 4095,
      "▁Chief": 4096,
      "▁2011,": 4097,
      "▁(195": 4098,
      "ounter": 4099,
      "▁den": 4100,
      "▁Martin": 4101,
      "▁length": 4102,
      "▁Iran": 4103,
      "▁transport": 4104,
      "▁Atlant": 4105,
      "▁plat": 4106,
      "▁ge": 4107,
      "oke": 4108,
      "▁2012,": 4109,
      "\")": 4110,
      "▁river": 4111,
      "▁Fre": 4112,
      "▁Dou": 4113,
      "fect": 4114,
      "rich": 4115,
      "urder": 4116,
      "NA": 4117,
      "▁nar": 4118,
      "78": 4119,
      "▁territ": 4120,
      "lands": 4121,
      "▁Young": 4122,
      "adron": 4123,
      "▁screen": 4124,
      "▁occur": 4125,
      "ecess": 4126,
      "▁frequ": 4127,
      "▁genus": 4128,
      "▁standard": 4129,
      "▁towards": 4130,
      "▁determ": 4131,
      "ension": 4132,
      "etic": 4133,
      "▁according": 4134,
      "▁pers": 4135,
      "▁mission": 4136,
      "▁Sun": 4137,
      "ongs": 4138,
      "▁2013,": 4139,
      "▁environment": 4140,
      "▁senior": 4141,
      "ansas": 4142,
      "▁enter": 4143,
      "▁independent": 4144,
      "▁ask": 4145,
      "▁Hot": 4146,
      "▁F.C.": 4147,
      "▁Haw": 4148,
      "▁ben": 4149,
      "▁personal": 4150,
      "▁drama": 4151,
      "▁taking": 4152,
      "▁food": 4153,
      "▁allowed": 4154,
      "▁2014,": 4155,
      "n't": 4156,
      "▁2015,": 4157,
      "▁hor": 4158,
      "▁approximately": 4159,
      "2),": 4160,
      "wan": 4161,
      "▁Bus": 4162,
      "▁science": 4163,
      "ients": 4164,
      "iano": 4165,
      "▁How": 4166,
      "▁whom": 4167,
      "▁Democratic": 4168,
      "ises": 4169,
      "ault": 4170,
      "ww": 4171,
      "▁Spec": 4172,
      "▁Poland": 4173,
      "\nI": 4174,
      "▁Not": 4175,
      "ady": 4176,
      "-F": 4177,
      "ić": 4178,
      "▁remov": 4179,
      "▁mer": 4180,
      "-e": 4181,
      "▁1996": 4182,
      "▁Pak": 4183,
      "▁Ox": 4184,
      "▁break": 4185,
      "▁Love": 4186,
      "▁organiz": 4187,
      "▁concern": 4188,
      "pected": 4189,
      "▁spent": 4190,
      "ibility": 4191,
      "▁destroy": 4192,
      "▁Americ": 4193,
      "▁don": 4194,
      "▁Main": 4195,
      "emic": 4196,
      "achus": 4197,
      "▁phil": 4198,
      "▁2021,": 4199,
      "▁Engine": 4200,
      "▁cred": 4201,
      "▁veh": 4202,
      "ations,": 4203,
      "▁observ": 4204,
      "ennis": 4205,
      "iga": 4206,
      "ences": 4207,
      "za": 4208,
      "enced": 4209,
      "▁Social": 4210,
      "▁box": 4211,
      "▁Jo": 4212,
      "▁pay": 4213,
      "▁CD": 4214,
      "z,": 4215,
      "▁center": 4216,
      "▁Jim": 4217,
      "aria": 4218,
      "▁2nd": 4219,
      "▁Bul": 4220,
      "alled": 4221,
      "▁ever": 4222,
      "kin": 4223,
      "▁additional": 4224,
      "▁Mat": 4225,
      "▁complex": 4226,
      "s)": 4227,
      "▁department": 4228,
      "▁Vi": 4229,
      "▁Civil": 4230,
      "▁Tro": 4231,
      "▁Camb": 4232,
      "▁R.": 4233,
      "▁O'": 4234,
      "▁multiple": 4235,
      "ny": 4236,
      "▁Out": 4237,
      "ador": 4238,
      "▁chief": 4239,
      "▁owned": 4240,
      "▁Big": 4241,
      "▁self": 4242,
      "▁lived": 4243,
      "▁B.": 4244,
      "▁W.": 4245,
      "▁celeb": 4246,
      "▁Southern": 4247,
      "9)\n": 4248,
      "▁Tw": 4249,
      "ky": 4250,
      "▁Chicago": 4251,
      "▁families": 4252,
      "\n\nG": 4253,
      "▁Asian": 4254,
      "▁III": 4255,
      "–201": 4256,
      "lay": 4257,
      "▁ord": 4258,
      "▁related": 4259,
      "▁summer": 4260,
      "ero": 4261,
      "▁beginning": 4262,
      "▁sat": 4263,
      "uffer": 4264,
      "▁Railway": 4265,
      "▁focus": 4266,
      "lying": 4267,
      "▁minor": 4268,
      "▁union": 4269,
      "▁possible": 4270,
      "▁ended": 4271,
      "acing": 4272,
      "ulture": 4273,
      "▁lif": 4274,
      "▁commercial": 4275,
      "▁Prem": 4276,
      "▁Mah": 4277,
      "▁highest": 4278,
      "rang": 4279,
      "▁Francisc": 4280,
      "▁Je": 4281,
      "▁3:": 4282,
      "war": 4283,
      "▁writing": 4284,
      "▁Hel": 4285,
      "ria": 4286,
      "Year": 4287,
      "▁king": 4288,
      "ify": 4289,
      "▁Mexico": 4290,
      "t.": 4291,
      "▁non-": 4292,
      "4),": 4293,
      "▁Vill": 4294,
      "▁itself": 4295,
      "aining": 4296,
      "▁quest": 4297,
      "ersey": 4298,
      "▁Press": 4299,
      "▁Bor": 4300,
      "▁closed": 4301,
      "▁Ohio": 4302,
      "inem": 4303,
      "▁changed": 4304,
      "i\n": 4305,
      "▁Dutch": 4306,
      "3),": 4307,
      "▁studied": 4308,
      "▁husband": 4309,
      "▁season.": 4310,
      "▁let": 4311,
      "▁E.": 4312,
      "emporary": 4313,
      "▁cal": 4314,
      "pon": 4315,
      "▁cell": 4316,
      "▁Inc": 4317,
      "▁bur": 4318,
      "ready": 4319,
      "–20": 4320,
      "▁plays": 4321,
      "▁Cam": 4322,
      "▁below": 4323,
      "▁especially": 4324,
      "7),": 4325,
      "\n\nL": 4326,
      "bon": 4327,
      "▁Jer": 4328,
      "▁selected": 4329,
      "▁higher": 4330,
      "i's": 4331,
      "het": 4332,
      "▁Championships": 4333,
      "ersonal": 4334,
      "▁soon": 4335,
      "obal": 4336,
      "▁Jul": 4337,
      "▁McC": 4338,
      "▁interview": 4339,
      "▁Britain": 4340,
      "▁size": 4341,
      "▁D.": 4342,
      "les,": 4343,
      "-0": 4344,
      "▁leader": 4345,
      "▁traditional": 4346,
      "▁parts": 4347,
      "▁Kent": 4348,
      "▁culture": 4349,
      "76": 4350,
      "iled": 4351,
      "▁los": 4352,
      "va": 4353,
      "uten": 4354,
      "▁little": 4355,
      "▁noted": 4356,
      "amous": 4357,
      "add": 4358,
      "▁appearance": 4359,
      "▁Conference": 4360,
      "▁Gal": 4361,
      "▁entered": 4362,
      "▁Illino": 4363,
      "▁(p": 4364,
      "▁Represent": 4365,
      "▁contains": 4366,
      "▁Tri": 4367,
      "burgh": 4368,
      "▁wall": 4369,
      "▁Jud": 4370,
      "35": 4371,
      "▁Philipp": 4372,
      "rown": 4373,
      "inct": 4374,
      "▁batt": 4375,
      "▁\"F": 4376,
      "\n\nH": 4377,
      "▁Lord": 4378,
      "irt": 4379,
      "emorial": 4380,
      "▁Pacific": 4381,
      "▁(O": 4382,
      "▁Angeles": 4383,
      "▁prof": 4384,
      "▁2009,": 4385,
      "▁Long": 4386,
      "▁emer": 4387,
      "rt": 4388,
      "▁prior": 4389,
      "▁names": 4390,
      "▁Di": 4391,
      "ley,": 4392,
      "▁Africa": 4393,
      "▁dom": 4394,
      "ulation": 4395,
      "▁Health": 4396,
      "▁surround": 4397,
      "▁Ver": 4398,
      "▁associated": 4399,
      "▁runs": 4400,
      "▁lack": 4401,
      "▁People": 4402,
      "at,": 4403,
      "▁Places": 4404,
      "-R": 4405,
      "▁opening": 4406,
      "▁Republican": 4407,
      "▁word": 4408,
      "mond": 4409,
      "▁Wales": 4410,
      "▁Most": 4411,
      "▁management": 4412,
      "▁collabor": 4413,
      "▁colon": 4414,
      "▁quarter": 4415,
      "-time": 4416,
      "▁competed": 4417,
      "ina,": 4418,
      "ao": 4419,
      "▁medical": 4420,
      "▁required": 4421,
      "▁score": 4422,
      "▁rad": 4423,
      "▁Lee": 4424,
      "▁Massachus": 4425,
      "▁centre": 4426,
      "▁5,": 4427,
      "196": 4428,
      "▁activities": 4429,
      "arden": 4430,
      "▁Radio": 4431,
      "▁legisl": 4432,
      "▁emb": 4433,
      "▁becoming": 4434,
      "ard,": 4435,
      "ye": 4436,
      "▁professor": 4437,
      "▁MP": 4438,
      "yan": 4439,
      "aches": 4440,
      "▁industry": 4441,
      "▁adop": 4442,
      "▁CO": 4443,
      "▁soft": 4444,
      "agn": 4445,
      "usc": 4446,
      "▁certain": 4447,
      "1),": 4448,
      "\n\nW": 4449,
      "▁books": 4450,
      "alys": 4451,
      "▁later,": 4452,
      "hile": 4453,
      "▁countries": 4454,
      "▁Mo": 4455,
      "▁structure": 4456,
      "▁Library": 4457,
      "▁Adm": 4458,
      "▁Women's": 4459,
      "ritish": 4460,
      "▁super": 4461,
      "▁Hung": 4462,
      "▁future": 4463,
      "▁suffer": 4464,
      "▁rap": 4465,
      "A.": 4466,
      "onom": 4467,
      "▁Luc": 4468,
      "▁municipality": 4469,
      "▁initially": 4470,
      "▁grant": 4471,
      "ia\n": 4472,
      "▁retired": 4473,
      "gypt": 4474,
      "ographic": 4475,
      "▁Italy": 4476,
      "▁writer": 4477,
      "ho": 4478,
      "▁teacher": 4479,
      "▁keep": 4480,
      "▁2008,": 4481,
      "▁1980": 4482,
      "▁Az": 4483,
      "ment,": 4484,
      "▁Although": 4485,
      "▁legal": 4486,
      "▁trib": 4487,
      "▁pen": 4488,
      "ustom": 4489,
      "▁cas": 4490,
      "▁Governor": 4491,
      "48": 4492,
      "iana": 4493,
      "ta": 4494,
      "▁1997": 4495,
      "▁Bal": 4496,
      "hat": 4497,
      "▁Are": 4498,
      "overs": 4499,
      "▁Inf": 4500,
      "▁magazine": 4501,
      "▁ens": 4502,
      "p.": 4503,
      "▁already": 4504,
      "▁Charl": 4505,
      "▁economic": 4506,
      "on.": 4507,
      "omen": 4508,
      "▁expatriate": 4509,
      "ulpt": 4510,
      "▁route": 4511,
      "ograp": 4512,
      "▁caused": 4513,
      "▁pie": 4514,
      "▁2022,": 4515,
      "▁council": 4516,
      "▁increased": 4517,
      "▁Sand": 4518,
      "stitu": 4519,
      "▁operated": 4520,
      "▁Final": 4521,
      "▁western": 4522,
      "-se": 4523,
      "▁Bob": 4524,
      "s\nC": 4525,
      "▁Fer": 4526,
      "rying": 4527,
      "▁Lu": 4528,
      "▁(n": 4529,
      "igg": 4530,
      "owers": 4531,
      "▁1995": 4532,
      "▁Ur": 4533,
      "la": 4534,
      "▁equip": 4535,
      "adel": 4536,
      "cing": 4537,
      "▁annual": 4538,
      "▁Bost": 4539,
      "nes": 4540,
      "▁Lab": 4541,
      "▁Over": 4542,
      "▁2023": 4543,
      "inent": 4544,
      "rat": 4545,
      "ids": 4546,
      "▁means": 4547,
      "▁saf": 4548,
      "ua": 4549,
      "▁serving": 4550,
      "▁indic": 4551,
      "iance": 4552,
      "down": 4553,
      "▁woman": 4554,
      "s\nThe": 4555,
      "rast": 4556,
      "vey": 4557,
      "▁running": 4558,
      "▁Ak": 4559,
      "irit": 4560,
      "abeth": 4561,
      "▁diffic": 4562,
      "▁come": 4563,
      "▁numerous": 4564,
      "▁sometimes": 4565,
      "▁Life": 4566,
      "ider": 4567,
      "▁1992": 4568,
      "org": 4569,
      "plement": 4570,
      "-align": 4571,
      "▁Scottish": 4572,
      "▁characters": 4573,
      "▁Jewish": 4574,
      "▁Bang": 4575,
      "▁federal": 4576,
      "▁victory": 4577,
      "ora": 4578,
      "▁Rou": 4579,
      "▁Mot": 4580,
      "▁cut": 4581,
      "▁Coast": 4582,
      "▁gra": 4583,
      "-align:": 4584,
      "t,": 4585,
      "▁Journal": 4586,
      "▁Matt": 4587,
      "▁threat": 4588,
      "inet": 4589,
      "▁university": 4590,
      "▁Kong": 4591,
      "▁money": 4592,
      "▁hockey": 4593,
      "vement": 4594,
      "aug": 4595,
      "▁Cross": 4596,
      "span": 4597,
      "ieuten": 4598,
      "akh": 4599,
      "▁thought": 4600,
      "aring": 4601,
      "▁align": 4602,
      "▁Fed": 4603,
      "state": 4604,
      "▁Theatre": 4605,
      "▁comedy": 4606,
      "▁(m": 4607,
      "▁abs": 4608,
      "▁Prince": 4609,
      "NE": 4610,
      "rief": 4611,
      "▁Jon": 4612,
      "▁murder": 4613,
      "riz": 4614,
      "ping": 4615,
      "SA": 4616,
      "6),": 4617,
      "ulf": 4618,
      "–2": 4619,
      "ance,": 4620,
      "▁prob": 4621,
      "▁feature": 4622,
      "▁(K": 4623,
      "▁musician": 4624,
      "▁drop": 4625,
      "orporated": 4626,
      "▁Centre": 4627,
      "▁Record": 4628,
      "anded": 4629,
      "▁180": 4630,
      "ades": 4631,
      "▁studies": 4632,
      "▁generally": 4633,
      "|-": 4634,
      "change": 4635,
      "ias": 4636,
      "▁ded": 4637,
      "▁champion": 4638,
      "▁su": 4639,
      "occer": 4640,
      "uments": 4641,
      "▁That": 4642,
      "eld": 4643,
      "s\nB": 4644,
      "▁too": 4645,
      "▁Jac": 4646,
      "▁1920": 4647,
      "▁majority": 4648,
      "▁Bre": 4649,
      "anda": 4650,
      "s.\n": 4651,
      "▁footballer": 4652,
      "▁hot": 4653,
      "▁overall": 4654,
      "▁Under": 4655,
      "▁battle": 4656,
      "49": 4657,
      "▁discuss": 4658,
      "▁\"G": 4659,
      "▁pil": 4660,
      "▁Ev": 4661,
      "▁Since": 4662,
      "▁thus": 4663,
      "▁date": 4664,
      "▁trade": 4665,
      "standing": 4666,
      "▁forced": 4667,
      "▁Eastern": 4668,
      "▁museum": 4669,
      "ie,": 4670,
      "antry": 4671,
      "▁shoot": 4672,
      "▁hospital": 4673,
      "uj": 4674,
      "▁artists": 4675,
      "▁Creek": 4676,
      "nam": 4677,
      "55": 4678,
      "ence,": 4679,
      "▁uses": 4680,
      "▁Field": 4681,
      "▁Sol": 4682,
      "▁better": 4683,
      "▁structures": 4684,
      "▁personnel": 4685,
      "▁2007,": 4686,
      "center|": 4687,
      "ills": 4688,
      "▁System": 4689,
      "▁practice": 4690,
      "een": 4691,
      "▁county": 4692,
      "▁1994": 4693,
      "▁Dr.": 4694,
      "▁Polish": 4695,
      "▁Bow": 4696,
      "struction": 4697,
      "▁immedi": 4698,
      "▁religious": 4699,
      "oper": 4700,
      "▁Oxford": 4701,
      "▁Ok": 4702,
      "▁honor": 4703,
      "▁communities": 4704,
      "▁Albert": 4705,
      "▁subsequently": 4706,
      "▁limited": 4707,
      "▁earned": 4708,
      "ieutenant": 4709,
      "zech": 4710,
      "▁prevent": 4711,
      "▁instr": 4712,
      "▁chall": 4713,
      "▁claimed": 4714,
      "▁supported": 4715,
      "▁Jean": 4716,
      "▁create": 4717,
      "▁recording": 4718,
      "▁descent": 4719,
      "▁boy": 4720,
      "\n200": 4721,
      "▁earlier": 4722,
      "▁goals": 4723,
      "▁L.": 4724,
      "▁results": 4725,
      "▁Middle": 4726,
      "\n!": 4727,
      "▁(3": 4728,
      "▁d'": 4729,
      "▁P.": 4730,
      "▁nine": 4731,
      "▁College,": 4732,
      "▁langu": 4733,
      "▁partn": 4734,
      "▁6,": 4735,
      "▁detail": 4736,
      "▁som": 4737,
      "▁regional": 4738,
      "▁Van": 4739,
      "▁appearances": 4740,
      "▁evidence": 4741,
      "▁location": 4742,
      "▁love": 4743,
      "▁Lim": 4744,
      "ers'": 4745,
      "s\n\nReferences\n\n": 4746,
      "AC": 4747,
      "▁historical": 4748,
      "▁Valley": 4749,
      "is.": 4750,
      "▁raised": 4751,
      "▁presented": 4752,
      "▁youth": 4753,
      "lav": 4754,
      "onic": 4755,
      "▁Post": 4756,
      "ki": 4757,
      "▁Argent": 4758,
      "▁move": 4759,
      "▁So": 4760,
      "▁Cr": 4761,
      "ali": 4762,
      "▁census": 4763,
      "▁platform": 4764,
      "▁job": 4765,
      "ociet": 4766,
      "▁lic": 4767,
      "99": 4768,
      "▁income": 4769,
      "▁Step": 4770,
      "▁wide": 4771,
      "▁occas": 4772,
      "▁Die": 4773,
      "ronic": 4774,
      "AT": 4775,
      "▁mostly": 4776,
      "▁percent": 4777,
      "▁ice": 4778,
      "▁Ell": 4779,
      "▁Web": 4780,
      ").\n": 4781,
      "▁Far": 4782,
      "s\nP": 4783,
      "▁Major": 4784,
      "▁Po": 4785,
      "▁fle": 4786,
      "▁Dis": 4787,
      "▁going": 4788,
      "ko": 4789,
      "▁century,": 4790,
      "▁passed": 4791,
      "▁\n\nA": 4792,
      "umber": 4793,
      "▁Education": 4794,
      "reater": 4795,
      "▁sequ": 4796,
      "enty": 4797,
      "46": 4798,
      "▁confir": 4799,
      "▁insp": 4800,
      "chen": 4801,
      "min": 4802,
      "▁altern": 4803,
      "▁bomb": 4804,
      "▁Line": 4805,
      "▁Stan": 4806,
      "▁shown": 4807,
      "venue": 4808,
      "▁\nS": 4809,
      "▁meeting": 4810,
      "▁foreign": 4811,
      "▁concept": 4812,
      "▁forward": 4813,
      "▁give": 4814,
      "os,": 4815,
      "izing": 4816,
      "▁Russia": 4817,
      "▁sport": 4818,
      "▁color": 4819,
      "▁Secretary": 4820,
      "▁manager": 4821,
      "▁Sa": 4822,
      "imum": 4823,
      "▁Regiment": 4824,
      "▁pick": 4825,
      "ca": 4826,
      "▁particularly": 4827,
      "▁Open": 4828,
      "▁army": 4829,
      "den": 4830,
      "onto": 4831,
      "▁Sat": 4832,
      "▁Good": 4833,
      "-W": 4834,
      "▁Egypt": 4835,
      "rance": 4836,
      "▁dise": 4837,
      "▁bound": 4838,
      "5%": 4839,
      "77": 4840,
      "ken": 4841,
      "▁charg": 4842,
      "itors": 4843,
      "▁7,": 4844,
      "put": 4845,
      "▁Jersey": 4846,
      "▁Univers": 4847,
      "▁Hong": 4848,
      "▁complete": 4849,
      "itage": 4850,
      "▁Bern": 4851,
      "▁Islam": 4852,
      "▁mention": 4853,
      "▁Adam": 4854,
      "▁matches": 4855,
      "▁particular": 4856,
      "▁baseball": 4857,
      "uer": 4858,
      "ouri": 4859,
      "▁promoted": 4860,
      "rill": 4861,
      "▁Anton": 4862,
      "):": 4863,
      "▁Scotland": 4864,
      "▁got": 4865,
      "▁Wall": 4866,
      "osoph": 4867,
      "38": 4868,
      "asy": 4869,
      "▁time.": 4870,
      "▁Os": 4871,
      "▁helped": 4872,
      "▁issue": 4873,
      "▁sched": 4874,
      "urban": 4875,
      "▁Wild": 4876,
      "ker": 4877,
      "▁von": 4878,
      "enz": 4879,
      "án": 4880,
      "▁Top": 4881,
      "▁Tre": 4882,
      "▁master": 4883,
      "▁acquired": 4884,
      "▁financial": 4885,
      "▁and,": 4886,
      "▁\"a": 4887,
      "▁cle": 4888,
      "vis": 4889,
      "▁princip": 4890,
      "AF": 4891,
      "▁psych": 4892,
      "▁course": 4893,
      "▁step": 4894,
      "▁Tem": 4895,
      "▁ver": 4896,
      "aseball": 4897,
      "ina\n": 4898,
      "bury": 4899,
      "▁eastern": 4900,
      "oud": 4901,
      "▁categ": 4902,
      "▁Times": 4903,
      "▁Later": 4904,
      "agement": 4905,
      "▁Michigan": 4906,
      "s\"": 4907,
      "▁specific": 4908,
      "▁1988": 4909,
      "▁takes": 4910,
      "text-align:": 4911,
      "▁Mid": 4912,
      "elled": 4913,
      "▁crew": 4914,
      "▁happ": 4915,
      "ity.": 4916,
      "innes": 4917,
      "▁middle": 4918,
      "▁officer": 4919,
      "unc": 4920,
      "▁province": 4921,
      "▁60": 4922,
      "▁operations": 4923,
      "\n\nO": 4924,
      "▁property": 4925,
      "ographer": 4926,
      "▁Blue": 4927,
      "▁assistant": 4928,
      "▁citiz": 4929,
      "thur": 4930,
      "▁Card": 4931,
      "▁graduated": 4932,
      "▁School,": 4933,
      "▁Corpor": 4934,
      "▁remains": 4935,
      "▁composed": 4936,
      "ronze": 4937,
      "▁news": 4938,
      ".\n\nIt": 4939,
      "ining": 4940,
      "aun": 4941,
      "▁class=\"": 4942,
      "▁quick": 4943,
      "osh": 4944,
      "▁Hospital": 4945,
      "▁status": 4946,
      "ifying": 4947,
      "▁mach": 4948,
      "▁Night": 4949,
      "//": 4950,
      "▁confl": 4951,
      "▁Eliz": 4952,
      "▁referred": 4953,
      "▁leaving": 4954,
      "▁co-": 4955,
      "▁Max": 4956,
      "▁10,": 4957,
      "▁producer": 4958,
      "▁Syd": 4959,
      "▁1993": 4960,
      "level": 4961,
      "▁changes": 4962,
      "▁eth": 4963,
      "al.": 4964,
      "▁Cat": 4965,
      "class": 4966,
      "▁1991": 4967,
      "▁(a": 4968,
      "▁\"s": 4969,
      "ics,": 4970,
      "itation": 4971,
      "ession": 4972,
      "47": 4973,
      "▁Pennsylvania": 4974,
      "onse": 4975,
      "▁latter": 4976,
      "▁Av": 4977,
      "▁Latin": 4978,
      "▁1970": 4979,
      "iat": 4980,
      "▁style=\"background": 4981,
      "▁targ": 4982,
      "imated": 4983,
      "awa": 4984,
      "▁Korean": 4985,
      "▁cat": 4986,
      "▁Conserv": 4987,
      "▁Cy": 4988,
      "▁Enter": 4989,
      "edd": 4990,
      "▁Mu": 4991,
      "▁amount": 4992,
      "\nCh": 4993,
      "aily": 4994,
      "▁carried": 4995,
      "▁diss": 4996,
      "▁increase": 4997,
      "▁starting": 4998,
      "▁15,": 4999,
      "▁believed": 5000,
      "ands": 5001,
      "▁prepar": 5002,
      "igr": 5003,
      "eds": 5004,
      "58": 5005,
      "weg": 5006,
      "\n\n19": 5007,
      "TV": 5008,
      "▁bring": 5009,
      "▁BC": 5010,
      "5),": 5011,
      "▁Water": 5012,
      "ore,": 5013,
      "▁Brook": 5014,
      "▁pra": 5015,
      "▁cultural": 5016,
      "▁Ash": 5017,
      "▁Raj": 5018,
      "▁Bol": 5019,
      "not": 5020,
      "▁Development": 5021,
      "▁Senate": 5022,
      "▁Broad": 5023,
      "adian": 5024,
      "▁lay": 5025,
      "33": 5026,
      "▁Andrew": 5027,
      "▁table": 5028,
      "▁row": 5029,
      "▁comment": 5030,
      "▁hum": 5031,
      "▁themsel": 5032,
      "▁cricket": 5033,
      "isation": 5034,
      "▁Time": 5035,
      "▁tow": 5036,
      "▁chem": 5037,
      "hew": 5038,
      "▁famous": 5039,
      "▁Wind": 5040,
      "▁writers\n": 5041,
      "▁prop": 5042,
      "▁Sund": 5043,
      "ried": 5044,
      "▁native": 5045,
      "▁Their": 5046,
      "▁Ray": 5047,
      "ira": 5048,
      "▁18,": 5049,
      "▁cities": 5050,
      "▁Official": 5051,
      "it,": 5052,
      "▁8,": 5053,
      "▁appears": 5054,
      "ela": 5055,
      "▁fifth": 5056,
      "tainment": 5057,
      "▁sn": 5058,
      "\n201": 5059,
      "cean": 5060,
      ".com": 5061,
      "▁condition": 5062,
      "▁Det": 5063,
      "▁Ele": 5064,
      "▁surface": 5065,
      "▁2006,": 5066,
      "▁Serb": 5067,
      "▁Int": 5068,
      "▁Gr": 5069,
      "ow,": 5070,
      "▁longer": 5071,
      "▁Head": 5072,
      "▁deliver": 5073,
      "ism,": 5074,
      "▁log": 5075,
      "▁norm": 5076,
      "anth": 5077,
      "ology,": 5078,
      "▁sea": 5079,
      "▁Olympics": 5080,
      "ii": 5081,
      "▁issues": 5082,
      "▁Batt": 5083,
      "▁brand": 5084,
      "▁Child": 5085,
      "▁Lem": 5086,
      "▁Rom": 5087,
      "▁Ep": 5088,
      "vention": 5089,
      "▁cases": 5090,
      "▁passeng": 5091,
      "iot": 5092,
      "▁3rd": 5093,
      "▁Kenn": 5094,
      "▁mountain": 5095,
      "▁G.": 5096,
      "▁album,": 5097,
      "▁Hor": 5098,
      "rupt": 5099,
      "▁remaining": 5100,
      "▁Corn": 5101,
      "://": 5102,
      "▁merg": 5103,
      "win": 5104,
      "▁Office": 5105,
      "▁Ul": 5106,
      "▁oil": 5107,
      "▁1989": 5108,
      "▁Mountain": 5109,
      "▁Queen": 5110,
      "▁Ly": 5111,
      "enge": 5112,
      "aka": 5113,
      "BS": 5114,
      "▁Press,": 5115,
      "adelph": 5116,
      "▁dyn": 5117,
      "▁\"N": 5118,
      "▁integ": 5119,
      "▁inn": 5120,
      "▁consists": 5121,
      "▁problem": 5122,
      "▁Girl": 5123,
      "▁Daniel": 5124,
      "▁spl": 5125,
      "book": 5126,
      "▁Athlet": 5127,
      ");": 5128,
      "▁athlet": 5129,
      "▁year.": 5130,
      "▁transferred": 5131,
      "weight": 5132,
      "▁clubs": 5133,
      "ustral": 5134,
      "▁sculpt": 5135,
      "▁sal": 5136,
      "▁Bir": 5137,
      "▁albums": 5138,
      "▁Common": 5139,
      "▁adj": 5140,
      "▁Mov": 5141,
      "▁Gh": 5142,
      "▁proposed": 5143,
      "cul": 5144,
      "icted": 5145,
      "▁Special": 5146,
      "▁fort": 5147,
      "▁experience": 5148,
      "ption": 5149,
      "▁Little": 5150,
      "ais": 5151,
      "itting": 5152,
      "hy": 5153,
      "▁example": 5154,
      "▁fellow": 5155,
      "ellig": 5156,
      "43": 5157,
      "CC": 5158,
      "tario": 5159,
      "▁nam": 5160,
      "▁har": 5161,
      "IS": 5162,
      "▁compl": 5163,
      "▁dra": 5164,
      "▁F.": 5165,
      "▁Ken": 5166,
      "▁4.": 5167,
      "▁Color": 5168,
      "▁mem": 5169,
      "▁Rod": 5170,
      "ech": 5171,
      "▁12,": 5172,
      "house": 5173,
      "▁Viet": 5174,
      "▁example,": 5175,
      "s\nF": 5176,
      "▁\"R": 5177,
      ".\n\nAs": 5178,
      "-N": 5179,
      "▁peak": 5180,
      "▁ess": 5181,
      "▁larger": 5182,
      "rovers": 5183,
      "▁Cop": 5184,
      "aya": 5185,
      "▁Song": 5186,
      "▁i": 5187,
      "▁terms": 5188,
      "ite,": 5189,
      "▁deep": 5190,
      "ide,": 5191,
      "▁If": 5192,
      "▁alongside": 5193,
      "▁temper": 5194,
      "▁University,": 5195,
      "uated": 5196,
      "▁continu": 5197,
      "light": 5198,
      "o's": 5199,
      "▁difficult": 5200,
      "▁heavy": 5201,
      "\nList": 5202,
      "▁serve": 5203,
      "▁surn": 5204,
      "▁Four": 5205,
      "▁mainly": 5206,
      "iscons": 5207,
      "▁demon": 5208,
      "teen": 5209,
      "ologist": 5210,
      "▁online": 5211,
      "▁succeed": 5212,
      "▁offered": 5213,
      "▁Earth": 5214,
      "▁179": 5215,
      "▁despite": 5216,
      "▁foot": 5217,
      "59": 5218,
      "▁Nether": 5219,
      "▁silver": 5220,
      "in.": 5221,
      "▁Rel": 5222,
      "▁Ministry": 5223,
      "▁brief": 5224,
      "▁(2": 5225,
      "▁participated": 5226,
      "▁Bet": 5227,
      "▁executive": 5228,
      "▁(or": 5229,
      "▁Peak": 5230,
      "▁source": 5231,
      "▁Les": 5232,
      "▁District,": 5233,
      "▁separate": 5234,
      "▁affect": 5235,
      "ati": 5236,
      "▁align=\"": 5237,
      "mission": 5238,
      "ibliography": 5239,
      "▁require": 5240,
      "secut": 5241,
      "▁£": 5242,
      "▁Ott": 5243,
      ".\nThe": 5244,
      "bre": 5245,
      "mann": 5246,
      "▁drum": 5247,
      "56": 5248,
      "▁face": 5249,
      "▁response": 5250,
      "▁Alexander": 5251,
      "ione": 5252,
      "vest": 5253,
      "resp": 5254,
      "▁failed": 5255,
      "ez": 5256,
      "▁Police": 5257,
      "▁arrived": 5258,
      "▁Est": 5259,
      "quart": 5260,
      "opher": 5261,
      "▁administrative": 5262,
      "▁reduc": 5263,
      "\n|align=": 5264,
      "▁Rog": 5265,
      "▁Illinois": 5266,
      "▁mechan": 5267,
      "▁Supreme": 5268,
      "▁meaning": 5269,
      "▁sail": 5270,
      ".\n\nExternal": 5271,
      "▁Bab": 5272,
      "▁institut": 5273,
      "▁11,": 5274,
      "▁lawy": 5275,
      "–6": 5276,
      "▁constitu": 5277,
      "▁Bh": 5278,
      "eneral": 5279,
      "▁corn": 5280,
      "▁Carolina": 5281,
      "ampions": 5282,
      "room": 5283,
      "▁BBC": 5284,
      "aylor": 5285,
      "▁Of": 5286,
      "▁ven": 5287,
      "inals": 5288,
      "agon": 5289,
      "▁custom": 5290,
      "44": 5291,
      "illy": 5292,
      "▁rugby": 5293,
      "▁amb": 5294,
      "▁Bell": 5295,
      "▁provides": 5296,
      "▁extended": 5297,
      "▁jun": 5298,
      "▁neighbor": 5299,
      "▁featuring": 5300,
      "▁variety": 5301,
      "▁Jr.": 5302,
      "▁card": 5303,
      "▁always": 5304,
      "▁Ke": 5305,
      "▁makes": 5306,
      "▁responsible": 5307,
      "▁anti-": 5308,
      "▁Ham": 5309,
      "chestra": 5310,
      ".\n\nJ": 5311,
      "ube": 5312,
      "▁capac": 5313,
      "-n": 5314,
      "opulated": 5315,
      "\nAl": 5316,
      "obile": 5317,
      "▁background": 5318,
      "▁issued": 5319,
      "sen": 5320,
      "▁rate": 5321,
      "▁bod": 5322,
      "36": 5323,
      "pose": 5324,
      "▁\n\n19": 5325,
      "▁double": 5326,
      "▁turned": 5327,
      "▁univers": 5328,
      "amin": 5329,
      "▁Johnson": 5330,
      "▁States.": 5331,
      "▁depart": 5332,
      "wegian": 5333,
      "▁65": 5334,
      "ja": 5335,
      "▁24,": 5336,
      "ires": 5337,
      "ent,": 5338,
      "▁electric": 5339,
      "▁19th": 5340,
      "ctoral": 5341,
      "▁Ontario": 5342,
      "▁CE": 5343,
      "▁municipal": 5344,
      "▁9,": 5345,
      "▁Elizabeth": 5346,
      ".\n\nSt": 5347,
      "ings,": 5348,
      "▁Way": 5349,
      "▁poor": 5350,
      "▁races": 5351,
      "▁to:\n\n": 5352,
      "bl": 5353,
      "▁Awards": 5354,
      "peror": 5355,
      "88": 5356,
      "▁label": 5357,
      "edom": 5358,
      "▁Swedish": 5359,
      "acc": 5360,
      "▁Band": 5361,
      "▁firm": 5362,
      "encies": 5363,
      "▁Francisco": 5364,
      "▁\n\nIn": 5365,
      "olitan": 5366,
      "▁Minnes": 5367,
      "sky": 5368,
      "lympic": 5369,
      "emeter": 5370,
      "▁City,": 5371,
      "▁managed": 5372,
      "▁Mir": 5373,
      "▁Es": 5374,
      "lem": 5375,
      "undred": 5376,
      "▁Brig": 5377,
      "▁Tok": 5378,
      "▁stay": 5379,
      "▁operation": 5380,
      "39": 5381,
      "▁Stadium": 5382,
      "▁van": 5383,
      "▁FI": 5384,
      "ue,": 5385,
      ".\n\nBiography": 5386,
      "▁inh": 5387,
      "▁might": 5388,
      "ties": 5389,
      "▁our": 5390,
      "–9": 5391,
      "▁Aff": 5392,
      "▁candidate": 5393,
      "▁settlement": 5394,
      "▁Coll": 5395,
      "establ": 5396,
      "▁Revolution": 5397,
      "▁except": 5398,
      "▁Pen": 5399,
      "▁(with": 5400,
      "▁energy": 5401,
      "▁1960": 5402,
      "nic": 5403,
      "▁told": 5404,
      "▁Premier": 5405,
      "▁resident": 5406,
      "▁impact": 5407,
      "ledge": 5408,
      "astic": 5409,
      "▁Prime": 5410,
      "▁systems": 5411,
      "▁Econom": 5412,
      "▁constructed": 5413,
      "▁clear": 5414,
      "▁(al": 5415,
      "phy": 5416,
      "▁Spe": 5417,
      "omot": 5418,
      "▁renamed": 5419,
      "itzer": 5420,
      "Al": 5421,
      "▁rural": 5422,
      "ropical": 5423,
      "▁voc": 5424,
      "▁recent": 5425,
      "▁ult": 5426,
      "▁benef": 5427,
      "▁nature": 5428,
      "ously": 5429,
      "▁it.": 5430,
      "ville,": 5431,
      "-J": 5432,
      "▁redu": 5433,
      "▁heart": 5434,
      "▁End": 5435,
      "▁likely": 5436,
      "▁births\n19": 5437,
      "▁Federal": 5438,
      "onym": 5439,
      ".\n\nPersonal": 5440,
      "▁security": 5441,
      "▁(living": 5442,
      "▁covered": 5443,
      "▁sister": 5444,
      "▁Florida": 5445,
      "▁street": 5446,
      "E9E9E9": 5447,
      "▁players\nS": 5448,
      "▁path": 5449,
      "▁Guard": 5450,
      "▁academic": 5451,
      "enness": 5452,
      "▁dead": 5453,
      "ils": 5454,
      "▁Jeff": 5455,
      "igen": 5456,
      "▁Prize": 5457,
      "▁+": 5458,
      "▁here": 5459,
      "▁Ba": 5460,
      "▁Clark": 5461,
      "▁inform": 5462,
      "▁20th": 5463,
      "He": 5464,
      "▁Lew": 5465,
      "uy": 5466,
      "▁drug": 5467,
      "▁nearly": 5468,
      "▁Ven": 5469,
      "▁pit": 5470,
      "est,": 5471,
      "▁Wiscons": 5472,
      "▁Many": 5473,
      "▁16,": 5474,
      "▁Light": 5475,
      "▁listing": 5476,
      "▁Hal": 5477,
      "▁Toronto": 5478,
      "▁Asia": 5479,
      "▁cycl": 5480,
      "town": 5481,
      "▁News": 5482,
      "▁floor": 5483,
      "▁done": 5484,
      "▁enough": 5485,
      "▁subs": 5486,
      "▁Jones": 5487,
      "perial": 5488,
      "▁susp": 5489,
      "▁14,": 5490,
      "▁Boston": 5491,
      "▁Home": 5492,
      "am,": 5493,
      "English": 5494,
      "▁Att": 5495,
      "▁asked": 5496,
      "▁Township": 5497,
      "▁Queens": 5498,
      "▁influence": 5499,
      "1%": 5500,
      "vanced": 5501,
      "2%": 5502,
      "▁necess": 5503,
      "aters": 5504,
      "▁Georgia": 5505,
      "–199": 5506,
      "▁Elect": 5507,
      "▁walk": 5508,
      "▁Berlin": 5509,
      "ima": 5510,
      "▁conducted": 5511,
      "\nOn": 5512,
      "▁him.": 5513,
      "▁lines": 5514,
      "ening": 5515,
      "range": 5516,
      "one,": 5517,
      "dd": 5518,
      "ensis": 5519,
      "▁2:": 5520,
      "ila": 5521,
      "▁Joe": 5522,
      "umed": 5523,
      "bec": 5524,
      "▁Muslim": 5525,
      "ully": 5526,
      "▁officially": 5527,
      "▁Harris": 5528,
      "▁scen": 5529,
      "▁1984": 5530,
      "amber": 5531,
      "▁parish": 5532,
      "▁policy": 5533,
      "▁pan": 5534,
      "▁(,": 5535,
      "rice": 5536,
      "an's": 5537,
      ".\n\nV": 5538,
      "istics": 5539,
      "▁talk": 5540,
      "▁chap": 5541,
      "stein": 5542,
      "▁aim": 5543,
      "▁direction": 5544,
      "▁bridge": 5545,
      "▁Tai": 5546,
      "ompan": 5547,
      "▁Sciences": 5548,
      "RA": 5549,
      ".\n\nK": 5550,
      "▁Bad": 5551,
      "▁ancient": 5552,
      "FF": 5553,
      "rog": 5554,
      "▁winner": 5555,
      ".\n\nPl": 5556,
      "▁Dec": 5557,
      "ingham": 5558,
      "D.": 5559,
      "▁Chap": 5560,
      "▁ang": 5561,
      "▁consider": 5562,
      "▁progress": 5563,
      "▁display": 5564,
      "▁wanted": 5565,
      "▁style=\"text-align:": 5566,
      "▁Spring": 5567,
      "heim": 5568,
      "73": 5569,
      "▁Airport": 5570,
      "▁Ah": 5571,
      "▁Han": 5572,
      "▁ly": 5573,
      "verse": 5574,
      "▁primarily": 5575,
      "▁analys": 5576,
      "-to": 5577,
      "▁movie": 5578,
      "▁Id": 5579,
      "▁Som": 5580,
      "k,": 5581,
      "▁regist": 5582,
      "ocated": 5583,
      "roup": 5584,
      "abb": 5585,
      "▁address": 5586,
      "iginal": 5587,
      "▁(V": 5588,
      "▁finally": 5589,
      "▁channel": 5590,
      "▁theory": 5591,
      "▁numb": 5592,
      "reng": 5593,
      "▁increasing": 5594,
      "▁Legisl": 5595,
      "▁initial": 5596,
      "▁sources": 5597,
      "▁Cas": 5598,
      "▁Professor": 5599,
      "wide": 5600,
      "▁Der": 5601,
      "illa": 5602,
      "▁Bishop": 5603,
      "▁belong": 5604,
      "▁Sports": 5605,
      "▁think": 5606,
      "▁speed": 5607,
      "ian,": 5608,
      "▁revealed": 5609,
      "ctors": 5610,
      "ares": 5611,
      "▁Hind": 5612,
      "▁directly": 5613,
      "▁article": 5614,
      "▁literature": 5615,
      "▁discovered": 5616,
      "▁13,": 5617,
      "▁Santa": 5618,
      "▁Li": 5619,
      "▁Game": 5620,
      "▁Czech": 5621,
      "▁Fore": 5622,
      "▁minutes": 5623,
      "▁Cub": 5624,
      "▁Philadelph": 5625,
      "▁replace": 5626,
      "▁ships": 5627,
      "unct": 5628,
      "▁withd": 5629,
      "▁Stephen": 5630,
      ".\n\nDuring": 5631,
      "illed": 5632,
      "atively": 5633,
      "▁\nM": 5634,
      "▁4:": 5635,
      "o\n": 5636,
      "ighter": 5637,
      "▁cause": 5638,
      "▁Brad": 5639,
      "▁today": 5640,
      "▁Show": 5641,
      "ricts": 5642,
      "▁strateg": 5643,
      "▁grew": 5644,
      "▁forms": 5645,
      "▁Colon": 5646,
      "▁Program": 5647,
      "▁dedicated": 5648,
      "▁Justice": 5649,
      "▁medalists": 5650,
      "▁Indones": 5651,
      "▁spread": 5652,
      "portun": 5653,
      "▁page": 5654,
      "▁whether": 5655,
      "▁leave": 5656,
      "▁States,": 5657,
      "▁nearby": 5658,
      "rical": 5659,
      "erc": 5660,
      "ely,": 5661,
      "500": 5662,
      "mas": 5663,
      "▁touch": 5664,
      "▁Jackson": 5665,
      "▁Both": 5666,
      "▁solo": 5667,
      "▁Human": 5668,
      "▁Sher": 5669,
      "rate": 5670,
      "ensity": 5671,
      "▁Station": 5672,
      "▁dark": 5673,
      "▁Publ": 5674,
      "▁positive": 5675,
      "▁Ste": 5676,
      "istance": 5677,
      "pan": 5678,
      "▁Add": 5679,
      "▁1987": 5680,
      "▁Nic": 5681,
      "rin": 5682,
      "ips": 5683,
      "▁domin": 5684,
      "▁parents": 5685,
      "-old": 5686,
      "iant": 5687,
      "-day": 5688,
      "▁troops": 5689,
      "▁houses": 5690,
      "col": 5691,
      "▁Following": 5692,
      "ogue": 5693,
      "iral": 5694,
      "▁bass": 5695,
      "▁marriage": 5696,
      "▁Three": 5697,
      "▁recover": 5698,
      "▁Dar": 5699,
      "rolled": 5700,
      "▁Bi": 5701,
      "▁notable": 5702,
      "aging": 5703,
      "▁Anth": 5704,
      "chester": 5705,
      "▁prominent": 5706,
      "74": 5707,
      "-E": 5708,
      "resh": 5709,
      "▁Joh": 5710,
      "\nU": 5711,
      "▁London,": 5712,
      "ributed": 5713,
      "▁kind": 5714,
      "▁Medal": 5715,
      "▁1986": 5716,
      ".\n\nAt": 5717,
      "▁(),": 5718,
      "respond": 5719,
      "tra": 5720,
      "▁reform": 5721,
      "um,": 5722,
      "uts": 5723,
      "3%": 5724,
      "force": 5725,
      "▁Route": 5726,
      "▁bird": 5727,
      "▁Kir": 5728,
      "▁purs": 5729,
      "▁17,": 5730,
      "▁plans": 5731,
      "s.\"": 5732,
      "▁flight": 5733,
      "▁green": 5734,
      "▁implement": 5735,
      "▁wrest": 5736,
      "▁historic": 5737,
      "▁parliament": 5738,
      "raq": 5739,
      "▁Barb": 5740,
      "greg": 5741,
      "▁conserv": 5742,
      "▁crim": 5743,
      "▁branch": 5744,
      "▁Kim": 5745,
      "▁45": 5746,
      "eather": 5747,
      "rass": 5748,
      "raine": 5749,
      "▁Fair": 5750,
      "▁Master": 5751,
      "▁Fall": 5752,
      "▁Foundation": 5753,
      "▁Aut": 5754,
      "▁Organ": 5755,
      "▁illust": 5756,
      "▁potential": 5757,
      "▁35": 5758,
      "▁Project": 5759,
      "▁Network": 5760,
      "▁elections": 5761,
      "\n20th-century": 5762,
      "▁ordered": 5763,
      "▁)": 5764,
      "▁hosted": 5765,
      "▁uns": 5766,
      "▁extra": 5767,
      "ary,": 5768,
      "iplom": 5769,
      "-3": 5770,
      "▁2005,": 5771,
      "ois": 5772,
      "SS": 5773,
      "ropolitan": 5774,
      "▁Ca": 5775,
      "▁Duke": 5776,
      "watch": 5777,
      "th,": 5778,
      "▁hours": 5779,
      "▁25,": 5780,
      "▁weap": 5781,
      "▁instrument": 5782,
      "vin": 5783,
      "▁Sus": 5784,
      "▁maintain": 5785,
      "▁20,": 5786,
      "ulated": 5787,
      "ée": 5788,
      "isted": 5789,
      "▁Municip": 5790,
      "ell,": 5791,
      "▁Tod": 5792,
      "▁initi": 5793,
      "ibb": 5794,
      "▁Missouri": 5795,
      "▁Hay": 5796,
      "▁continue": 5797,
      "▁adult": 5798,
      "▁\"E": 5799,
      "▁technology": 5800,
      "▁Columbia": 5801,
      "oral": 5802,
      "▁digital": 5803,
      "▁episodes": 5804,
      "y's": 5805,
      "▁Military": 5806,
      "4%": 5807,
      "▁Hous": 5808,
      "ydro": 5809,
      "icine": 5810,
      "89": 5811,
      "▁voice": 5812,
      "66": 5813,
      "-2": 5814,
      "▁Acc": 5815,
      "▁Down": 5816,
      "apers": 5817,
      "▁Sydney": 5818,
      "▁Junior": 5819,
      "▁\"d": 5820,
      "▁Lady": 5821,
      "▁Moh": 5822,
      "iang": 5823,
      "yal": 5824,
      "▁assigned": 5825,
      "▁intended": 5826,
      "▁attend": 5827,
      "LA": 5828,
      "▁weeks": 5829,
      "iest": 5830,
      "▁Mun": 5831,
      "▁Indust": 5832,
      "Rec": 5833,
      "▁T.": 5834,
      "▁Sea": 5835,
      "cting": 5836,
      "eography": 5837,
      "▁Kal": 5838,
      "▁bgcolor=\"": 5839,
      "itude": 5840,
      "▁ut": 5841,
      "▁whole": 5842,
      ".\n\nPro": 5843,
      "▁share": 5844,
      "iring": 5845,
      "▁pal": 5846,
      "ão": 5847,
      "-K": 5848,
      "▁architecture": 5849,
      "▁Mur": 5850,
      "onia": 5851,
      "get": 5852,
      "▁unknown": 5853,
      "▁agric": 5854,
      "▁Winter": 5855,
      "▁(194": 5856,
      "anadian": 5857,
      "ce,": 5858,
      "▁median": 5859,
      "▁Form": 5860,
      "▁scholar": 5861,
      "▁1979": 5862,
      "▁letter": 5863,
      "▁behav": 5864,
      "\nSt": 5865,
      "▁disp": 5866,
      "▁Sev": 5867,
      "▁sens": 5868,
      "▁contest": 5869,
      "▁wing": 5870,
      "ackground": 5871,
      "▁divided": 5872,
      "▁swim": 5873,
      "iform": 5874,
      "iced": 5875,
      "▁Corps": 5876,
      "▁Baron": 5877,
      "▁themselves": 5878,
      "▁Victoria": 5879,
      "▁conference": 5880,
      "▁border": 5881,
      "all,": 5882,
      "7%": 5883,
      "▁vote": 5884,
      "▁mixed": 5885,
      "edia": 5886,
      "EC": 5887,
      "▁stories": 5888,
      "▁Mexican": 5889,
      "▁Chris": 5890,
      "▁Pers": 5891,
      "erick": 5892,
      "▁seasons": 5893,
      "▁1985": 5894,
      "eder": 5895,
      "▁titled": 5896,
      "▁parties": 5897,
      "▁Dam": 5898,
      "▁conne": 5899,
      "▁repe": 5900,
      ".\n\nI": 5901,
      "▁cerem": 5902,
      "aped": 5903,
      "▁upper": 5904,
      "▁Jes": 5905,
      "uilding": 5906,
      "▁Week": 5907,
      "▁target": 5908,
      "ski": 5909,
      "An": 5910,
      "▁reserv": 5911,
      "▁\nB": 5912,
      "▁Captain": 5913,
      "▁Mike": 5914,
      "▁agreement": 5915,
      "▁gas": 5916,
      "▁controvers": 5917,
      "▁Taylor": 5918,
      "▁origin": 5919,
      "ase,": 5920,
      "▁counter": 5921,
      "ymn": 5922,
      "▁squad": 5923,
      "▁purchased": 5924,
      "▁planned": 5925,
      "OS": 5926,
      "athan": 5927,
      "▁favor": 5928,
      "▁lies": 5929,
      "▁Oreg": 5930,
      "▁Ut": 5931,
      "m.": 5932,
      "▁becomes": 5933,
      "▁administration": 5934,
      "estic": 5935,
      "▁feel": 5936,
      "▁Budd": 5937,
      "▁value": 5938,
      "▁Arthur": 5939,
      "us.": 5940,
      "▁19,": 5941,
      "CAA": 5942,
      "▁1918": 5943,
      "0%": 5944,
      "▁newspaper": 5945,
      "E9E9E9\n|": 5946,
      "▁Rad": 5947,
      "▁Alf": 5948,
      "▁More": 5949,
      "▁forest": 5950,
      "stone": 5951,
      "ür": 5952,
      "▁saying": 5953,
      "ctive": 5954,
      "imal": 5955,
      "ternet": 5956,
      "▁motor": 5957,
      "▁Medical": 5958,
      "▁Circ": 5959,
      "on's": 5960,
      "▁contact": 5961,
      "ucky": 5962,
      "uv": 5963,
      "▁opportun": 5964,
      "▁records": 5965,
      "▁facilities": 5966,
      "▁Naz": 5967,
      "ión": 5968,
      "▁21,": 5969,
      "▁concert": 5970,
      "alle": 5971,
      "▁(;": 5972,
      "▁hop": 5973,
      "▁pair": 5974,
      "emy": 5975,
      "itled": 5976,
      "▁highly": 5977,
      "▁Mr": 5978,
      "ager": 5979,
      "▁defend": 5980,
      "-18": 5981,
      "▁Str": 5982,
      "▁programs": 5983,
      "▁Golden": 5984,
      "▁†": 5985,
      "▁fish": 5986,
      "andon": 5987,
      "▁Hu": 5988,
      "▁day,": 5989,
      "▁habit": 5990,
      "ixed": 5991,
      "ambig": 5992,
      "▁wor": 5993,
      "▁bgcolor=#E9E9E9\n|": 5994,
      "▁articles": 5995,
      "▁organized": 5996,
      "▁EP": 5997,
      "▁Williams": 5998,
      "▁inside": 5999,
      "▁pop": 6000,
      "esult": 6001,
      "▁Sav": 6002,
      "▁Slov": 6003,
      "▁1968": 6004,
      "▁doub": 6005,
      "▁treatment": 6006,
      "▁tracks": 6007,
      "▁max": 6008,
      "▁moving": 6009,
      "▁physical": 6010,
      "▁bronze": 6011,
      "rec": 6012,
      "▁beat": 6013,
      "▁reach": 6014,
      "▁...": 6015,
      "▁1983": 6016,
      "ependence": 6017,
      "fort": 6018,
      "▁elev": 6019,
      "▁lyric": 6020,
      "▁festival": 6021,
      "▁Community": 6022,
      "▁captain": 6023,
      "▁pet": 6024,
      "▁autom": 6025,
      "▁36": 6026,
      "▁Bu": 6027,
      "s\n\nS": 6028,
      "▁symb": 6029,
      "agh": 6030,
      "rainian": 6031,
      "▁seek": 6032,
      "▁Command": 6033,
      "▁conver": 6034,
      "▁produce": 6035,
      "uled": 6036,
      "akers": 6037,
      "▁question": 6038,
      "▁Wel": 6039,
      "▁Dor": 6040,
      "incial": 6041,
      "72": 6042,
      "bourne": 6043,
      "▁5.": 6044,
      "▁approach": 6045,
      "▁(190": 6046,
      "-year-old": 6047,
      "▁perman": 6048,
      "je": 6049,
      "omer": 6050,
      "▁distribution": 6051,
      "VID": 6052,
      "ols": 6053,
      "▁Sab": 6054,
      "MA": 6055,
      "olid": 6056,
      "▁Chair": 6057,
      "ant,": 6058,
      "oration": 6059,
      "▁Beach": 6060,
      "▁Tal": 6061,
      "orph": 6062,
      "quarters": 6063,
      "itter": 6064,
      "kins": 6065,
      "▁nuc": 6066,
      "▁Nations": 6067,
      "▁York,": 6068,
      "▁22,": 6069,
      "gn": 6070,
      "▁compared": 6071,
      "▁elim": 6072,
      "▁leadership": 6073,
      "IA": 6074,
      "eath": 6075,
      "▁Zh": 6076,
      "▁wa": 6077,
      "United": 6078,
      "▁computer": 6079,
      "▁\"f": 6080,
      "▁Mosc": 6081,
      "▁30,": 6082,
      "▁1972": 6083,
      "▁lives": 6084,
      "thing": 6085,
      "▁Kitt": 6086,
      "▁Despite": 6087,
      "▁captured": 6088,
      "▁nation": 6089,
      "▁(The": 6090,
      "▁rat": 6091,
      "▁ability": 6092,
      "▁2023,": 6093,
      "▁peace": 6094,
      "▁Tenness": 6095,
      "▁streng": 6096,
      "wealth": 6097,
      "▁1978": 6098,
      "▁Norway": 6099,
      "▁Prim": 6100,
      "Ar": 6101,
      "▁residents": 6102,
      "▁estimated": 6103,
      "▁Marsh": 6104,
      "outheast": 6105,
      "ré": 6106,
      "mad": 6107,
      "▁Lind": 6108,
      "▁cab": 6109,
      "unte": 6110,
      "▁giving": 6111,
      "▁yet": 6112,
      "▁poll": 6113,
      "ading": 6114,
      "ighth": 6115,
      "▁Region": 6116,
      "▁Disc": 6117,
      "▁operating": 6118,
      "▁occurred": 6119,
      "–4": 6120,
      "-class": 6121,
      "▁Kel": 6122,
      "lah": 6123,
      "▁comes": 6124,
      "▁stream": 6125,
      "SC": 6126,
      "▁Highway": 6127,
      "▁confirmed": 6128,
      "▁declared": 6129,
      "86": 6130,
      "▁California,": 6131,
      "ancy": 6132,
      "▁Squadron": 6133,
      "ambiguation": 6134,
      "▁1982": 6135,
      "▁joint": 6136,
      "▁conclud": 6137,
      "aven": 6138,
      "portspeople": 6139,
      "▁(for": 6140,
      "▁23,": 6141,
      "cott": 6142,
      "▁Earl": 6143,
      "orney": 6144,
      "▁commonly": 6145,
      "▁stra": 6146,
      "-sh": 6147,
      "▁USA": 6148,
      "▁Member": 6149,
      "▁Vo": 6150,
      "▁flag": 6151,
      "▁documentary": 6152,
      "▁Hamp": 6153,
      "▁attra": 6154,
      "ife,": 6155,
      "left|": 6156,
      "aith": 6157,
      "▁summ": 6158,
      "▁metal": 6159,
      "▁immediately": 6160,
      "▁sevent": 6161,
      "▁faculty": 6162,
      "▁Mr.": 6163,
      "▁Conf": 6164,
      "▁mill": 6165,
      "53": 6166,
      "▁bad": 6167,
      "lov": 6168,
      "▁gained": 6169,
      "oto": 6170,
      "0)\n": 6171,
      "▁Power": 6172,
      "▁Rang": 6173,
      "▁Maria": 6174,
      "▁govern": 6175,
      "iver,": 6176,
      "▁recon": 6177,
      "▁1976": 6178,
      "▁nominated": 6179,
      "cest": 6180,
      "▁Fire": 6181,
      "▁4th": 6182,
      "▁elements": 6183,
      "arp": 6184,
      "8%": 6185,
      "izes": 6186,
      "0)": 6187,
      "▁Forest": 6188,
      "▁idea": 6189,
      "▁sportspeople": 6190,
      "▁quickly": 6191,
      "▁serves": 6192,
      "▁(dis": 6193,
      "▁blood": 6194,
      "lan": 6195,
      "▁vess": 6196,
      "ging": 6197,
      "▁28,": 6198,
      "▁Mic": 6199,
      "▁cens": 6200,
      "ban": 6201,
      "▁adopted": 6202,
      "▁500": 6203,
      "▁premier": 6204,
      "rator": 6205,
      "▁\"O": 6206,
      "▁Pier": 6207,
      "▁Marc": 6208,
      "lub": 6209,
      "fficial": 6210,
      "▁Div": 6211,
      "▁historian": 6212,
      "▁Ariz": 6213,
      "▁Niger": 6214,
      "▁quality": 6215,
      "▁element": 6216,
      "inity": 6217,
      "▁correspond": 6218,
      "▁affili": 6219,
      "tic": 6220,
      "▁that,": 6221,
      "aph": 6222,
      "s\nT": 6223,
      "aded": 6224,
      "▁2004,": 6225,
      "▁Ball": 6226,
      "alion": 6227,
      "orne": 6228,
      "osa": 6229,
      "▁suffered": 6230,
      "▁Mas": 6231,
      "▁educated": 6232,
      "▁growth": 6233,
      "▁labor": 6234,
      "▁mathem": 6235,
      "Exp": 6236,
      "▁officers": 6237,
      "▁contemporary": 6238,
      "▁performances": 6239,
      "▁prec": 6240,
      "▁older": 6241,
      "▁Lo": 6242,
      "▁coin": 6243,
      "▁26,": 6244,
      "jan": 6245,
      "▁governor": 6246,
      "▁Memorial": 6247,
      "bot": 6248,
      "▁ir": 6249,
      "cts": 6250,
      "▁Avenue": 6251,
      "worth": 6252,
      "▁Administ": 6253,
      "ova": 6254,
      "kh": 6255,
      "▁Business": 6256,
      "▁Francis": 6257,
      "ussian": 6258,
      "▁smaller": 6259,
      "71": 6260,
      "▁retire": 6261,
      "▁\"c": 6262,
      "ipe": 6263,
      "▁x": 6264,
      "▁interp": 6265,
      "▁Spacewatch": 6266,
      "onald": 6267,
      "▁Review": 6268,
      "▁rule": 6269,
      "anks": 6270,
      "▁dance": 6271,
      "hedral": 6272,
      "▁theor": 6273,
      "▁Iraq": 6274,
      "▁Baseball": 6275,
      "▁removed": 6276,
      "▁footballers": 6277,
      "▁hundred": 6278,
      "ures,": 6279,
      "rie": 6280,
      "▁Hy": 6281,
      "▁organizations": 6282,
      "▁lin": 6283,
      "▁urban": 6284,
      "grad": 6285,
      "ubb": 6286,
      "water": 6287,
      "▁shop": 6288,
      "▁27,": 6289,
      "▁minister": 6290,
      "▁(disambiguation": 6291,
      "▁charge": 6292,
      "ier,": 6293,
      "▁fast": 6294,
      "▁coming": 6295,
      "▁accepted": 6296,
      "▁Robin": 6297,
      "inger": 6298,
      "▁buried": 6299,
      "▁Malays": 6300,
      "acter": 6301,
      "▁soldiers": 6302,
      "uls": 6303,
      "▁typically": 6304,
      "▁column": 6305,
      "▁exc": 6306,
      "▁software": 6307,
      "no": 6308,
      "zy": 6309,
      "▁II,": 6310,
      "▁paper": 6311,
      "▁sexual": 6312,
      "oti": 6313,
      "▁2000,": 6314,
      "met": 6315,
      "▁expected": 6316,
      "etts": 6317,
      "▁Rem": 6318,
      "ustralian": 6319,
      "▁Wat": 6320,
      "▁recomm": 6321,
      "▁Greg": 6322,
      "▁weight": 6323,
      "-I": 6324,
      "▁big": 6325,
      "▁Ho": 6326,
      "▁resulted": 6327,
      "▁format": 6328,
      "ibly": 6329,
      "54": 6330,
      "▁Cur": 6331,
      "Films": 6332,
      "▁Men": 6333,
      "▁COVID": 6334,
      "elevision": 6335,
      "▁concent": 6336,
      "▁industrial": 6337,
      "▁abandon": 6338,
      "▁Ret": 6339,
      "HL": 6340,
      "▁Pit": 6341,
      "▁Ta": 6342,
      "▁style=\"background:#": 6343,
      "▁ending": 6344,
      "▁Representatives": 6345,
      "69": 6346,
      "▁1919": 6347,
      "mouth": 6348,
      "MS": 6349,
      "last": 6350,
      "hite": 6351,
      "oted": 6352,
      "illery": 6353,
      "▁largely": 6354,
      "▁attention": 6355,
      "▁memb": 6356,
      "uh": 6357,
      "▁probably": 6358,
      "▁Ast": 6359,
      "▁agreed": 6360,
      "▁identified": 6361,
      "▁Lemmon": 6362,
      "ounded": 6363,
      "ordin": 6364,
      "▁classical": 6365,
      "orter": 6366,
      "▁rom": 6367,
      "▁newly": 6368,
      "▁ranked": 6369,
      "▁conflict": 6370,
      "▁cam": 6371,
      "▁Florid": 6372,
      "▁recognized": 6373,
      "▁combined": 6374,
      "▁billion": 6375,
      "elected": 6376,
      "ishes": 6377,
      "▁starring": 6378,
      "▁critical": 6379,
      "emetery": 6380,
      "▁laws": 6381,
      "▁Atlantic": 6382,
      "ates,": 6383,
      "itness": 6384,
      "▁Polit": 6385,
      "▁felt": 6386,
      "▁stone": 6387,
      "esign": 6388,
      "',": 6389,
      "▁Stat": 6390,
      "ate.": 6391,
      "▁Stock": 6392,
      "Further": 6393,
      "▁Cons": 6394,
      "▁founder": 6395,
      "GB": 6396,
      "▁them.": 6397,
      "s\nN": 6398,
      "▁vocals": 6399,
      "▁roles": 6400,
      "▁Sri": 6401,
      "▁search": 6402,
      "▁Compan": 6403,
      "▁pack": 6404,
      "▁chairman": 6405,
      "orning": 6406,
      "▁theatre": 6407,
      "mitted": 6408,
      "▁.\n": 6409,
      "▁bal": 6410,
      "▁taught": 6411,
      "▁\nP": 6412,
      "▁Leon": 6413,
      "▁adapt": 6414,
      "▁Fox": 6415,
      "▁Bos": 6416,
      "–8": 6417,
      "▁Wilson": 6418,
      "da": 6419,
      "▁alle": 6420,
      "▁secret": 6421,
      "-off": 6422,
      "▁experiment": 6423,
      "ores": 6424,
      "▁them,": 6425,
      "▁authorities": 6426,
      "uguese": 6427,
      "▁victim": 6428,
      "can": 6429,
      "▁losing": 6430,
      "▁challeng": 6431,
      "▁exhibition": 6432,
      "efef": 6433,
      "▁housing": 6434,
      "▁scene": 6435,
      "6%": 6436,
      "▁Ren": 6437,
      "▁1981": 6438,
      "li": 6439,
      "▁types": 6440,
      "▁Nav": 6441,
      "▁propos": 6442,
      "ori": 6443,
      "▁Philip": 6444,
      "e\n|": 6445,
      "▁presence": 6446,
      "vard": 6447,
      "gg": 6448,
      "edal": 6449,
      "▁trial": 6450,
      "▁encou": 6451,
      "▁1969": 6452,
      "oln": 6453,
      "▁\"m": 6454,
      "▁\nC": 6455,
      "osen": 6456,
      "▁widely": 6457,
      "▁store": 6458,
      "▁Wisconsin": 6459,
      "TA": 6460,
      "▁Hart": 6461,
      ":00": 6462,
      "rak": 6463,
      "▁coal": 6464,
      "▁Also": 6465,
      "gu": 6466,
      "▁people,": 6467,
      "present": 6468,
      "▁content": 6469,
      "▁mess": 6470,
      "▁Associ": 6471,
      "▁wild": 6472,
      "ething": 6473,
      "▁Pakistan": 6474,
      "▁follows": 6475,
      "▁numbers": 6476,
      "▁Steve": 6477,
      "▁Sem": 6478,
      "uate": 6479,
      "▁risk": 6480,
      "▁ec": 6481,
      "▁1974": 6482,
      "like": 6483,
      "▁Gil": 6484,
      "▁Rome": 6485,
      "▁prin": 6486,
      "▁Dev": 6487,
      "▁pp.": 6488,
      "▁Bru": 6489,
      "ocese": 6490,
      "▁resulting": 6491,
      "uildings": 6492,
      "▁scoring": 6493,
      "▁figure": 6494,
      "▁surrounding": 6495,
      "▁Iow": 6496,
      "ogen": 6497,
      "▁Heart": 6498,
      "▁Turkey": 6499,
      "claim": 6500,
      "▁capacity": 6501,
      "▁nort": 6502,
      "urches": 6503,
      "▁loan": 6504,
      "keep": 6505,
      "▁Brother": 6506,
      "uge": 6507,
      "▁fell": 6508,
      "▁Ty": 6509,
      "place": 6510,
      "▁say": 6511,
      "▁Gree": 6512,
      "▁secondary": 6513,
      "▁Norwegian": 6514,
      "etting": 6515,
      "▁Kansas": 6516,
      "▁Technology": 6517,
      "▁rules": 6518,
      "▁hall": 6519,
      "▁series,": 6520,
      "▁Sound": 6521,
      "ally,": 6522,
      "ruit": 6523,
      "▁task": 6524,
      "▁Bat": 6525,
      "▁titles": 6526,
      "▁map": 6527,
      "▁spons": 6528,
      "elligence": 6529,
      "▁surname": 6530,
      "▁Foreign": 6531,
      "lyn": 6532,
      "eline": 6533,
      "\n199": 6534,
      "▁strugg": 6535,
      "▁recently": 6536,
      "▁acting": 6537,
      "▁crime": 6538,
      "▁p.": 6539,
      "▁finish": 6540,
      "▁\nT": 6541,
      "▁hour": 6542,
      "▁Connect": 6543,
      "apore": 6544,
      "-pro": 6545,
      "\n\nNotes": 6546,
      "▁Ark": 6547,
      ".\n\nAl": 6548,
      "ateur": 6549,
      "▁flow": 6550,
      "rell": 6551,
      "▁him,": 6552,
      "rik": 6553,
      "▁mentioned": 6554,
      "d6\n|": 6555,
      "d6d6d6\n|": 6556,
      "▁Chile": 6557,
      "▁Ra": 6558,
      "ba": 6559,
      "ch,": 6560,
      "olved": 6561,
      "wick": 6562,
      "▁29,": 6563,
      "▁it,": 6564,
      "▁Ts": 6565,
      "▁disestabl": 6566,
      "track": 6567,
      "▁1975": 6568,
      "▁unc": 6569,
      "▁draft": 6570,
      "▁thous": 6571,
      "▁restaur": 6572,
      "arry": 6573,
      "▁society": 6574,
      "▁spirit": 6575,
      "▁engineer": 6576,
      "▁granted": 6577,
      "\n21st-century": 6578,
      "▁offers": 6579,
      "▁destroyed": 6580,
      "▁territory": 6581,
      "▁32": 6582,
      "zh": 6583,
      "▁@": 6584,
      "68": 6585,
      "▁distinct": 6586,
      "▁leaders": 6587,
      "▁spot": 6588,
      "▁Country": 6589,
      "▁Federation": 6590,
      "escription": 6591,
      "▁painting": 6592,
      "▁library": 6593,
      "▁Bah": 6594,
      "▁bgcolor=#d6d6d6\n|": 6595,
      "rac": 6596,
      "hich": 6597,
      "▁Fellow": 6598,
      "▁Cape": 6599,
      "▁COVID-19": 6600,
      "▁Washington,": 6601,
      ".\n\nBackground": 6602,
      "▁providing": 6603,
      "▁bgcolor=#f": 6604,
      "▁micro": 6605,
      "efefe\n|": 6606,
      "▁Abd": 6607,
      "▁couple": 6608,
      "▁Vietnam": 6609,
      "▁efforts": 6610,
      "▁showed": 6611,
      "▁effects": 6612,
      "icut": 6613,
      "▁Son": 6614,
      "▁graph": 6615,
      "▁Billboard": 6616,
      "▁Media": 6617,
      "▁rid": 6618,
      ".\n\nThere": 6619,
      "▁burn": 6620,
      "▁expanded": 6621,
      "▁1977": 6622,
      ")\n|": 6623,
      "▁pattern": 6624,
      "▁Toky": 6625,
      "ika": 6626,
      "▁formerly": 6627,
      "57": 6628,
      "ottom": 6629,
      "▁(4": 6630,
      "▁bill": 6631,
      "▁Lt": 6632,
      "▁\"w": 6633,
      ".\n\nAn": 6634,
      "▁pict": 6635,
      "▁Another": 6636,
      "idi": 6637,
      "9%": 6638,
      "▁accident": 6639,
      "▁towns": 6640,
      "\nFilms": 6641,
      "▁conditions": 6642,
      "hol": 6643,
      "▁paid": 6644,
      "▁bgcolor=#fefefe\n|": 6645,
      "achelor": 6646,
      "igrants": 6647,
      "▁Cambridge": 6648,
      "▁Barn": 6649,
      "m,": 6650,
      "le.": 6651,
      "▁(now": 6652,
      "▁awards": 6653,
      "▁1945": 6654,
      "pool": 6655,
      "▁Bridge": 6656,
      "pur": 6657,
      "Men's": 6658,
      "-val": 6659,
      "s\nD": 6660,
      "▁rang": 6661,
      "▁receive": 6662,
      "bro": 6663,
      "▁War,": 6664,
      "▁Management": 6665,
      "▁miles": 6666,
      "▁century.": 6667,
      "▁Colomb": 6668,
      "joy": 6669,
      "▁designated": 6670,
      "▁vide": 6671,
      "▁equipment": 6672,
      "rum": 6673,
      "▁wear": 6674,
      "ictional": 6675,
      "iling": 6676,
      "ía": 6677,
      "Expatriate": 6678,
      "▁votes": 6679,
      "▁younger": 6680,
      "▁suppl": 6681,
      "ania": 6682,
      "ancing": 6683,
      "or.": 6684,
      ".\n\nU": 6685,
      "▁liber": 6686,
      "▁Switzer": 6687,
      "▁respectively": 6688,
      "▁fiction": 6689,
      "▁Fe": 6690,
      ";\n": 6691,
      "▁obtained": 6692,
      ".\n\nShe": 6693,
      "▁square": 6694,
      "mun": 6695,
      "▁Balt": 6696,
      "▁leaves": 6697,
      "▁needed": 6698,
      "▁Ot": 6699,
      "▁appar": 6700,
      "▁Hard": 6701,
      "▁individuals": 6702,
      "oster": 6703,
      "SP": 6704,
      "▁Labor": 6705,
      "▁Trust": 6706,
      "▁fr": 6707,
      "s\nR": 6708,
      "▁kept": 6709,
      "▁dial": 6710,
      "ikh": 6711,
      "1st": 6712,
      "pet": 6713,
      "▁Nar": 6714,
      "ansion": 6715,
      ")\nS": 6716,
      "▁Well": 6717,
      "▁reduced": 6718,
      "▁diplom": 6719,
      "▁1973": 6720,
      "▁inspired": 6721,
      "▁twenty": 6722,
      "▁guest": 6723,
      "rage": 6724,
      "▁Eth": 6725,
      "uther": 6726,
      "▁heav": 6727,
      "i-f": 6728,
      "rot": 6729,
      "▁problems": 6730,
      "Indian": 6731,
      "▁damage": 6732,
      "ashion": 6733,
      "▁Jam": 6734,
      ".\n\nCast": 6735,
      "▁marked": 6736,
      "▁levels": 6737,
      "▁Gi": 6738,
      "\n18": 6739,
      "ga": 6740,
      "▁Infantry": 6741,
      "▁align=\"center": 6742,
      "▁however": 6743,
      "▁distance": 6744,
      "▁Hou": 6745,
      ".\n\nCh": 6746,
      "▁serious": 6747,
      "enez": 6748,
      "real": 6749,
      "otable": 6750,
      "▁basis": 6751,
      "▁1900": 6752,
      "unes": 6753,
      "▁Survey": 6754,
      "▁stars": 6755,
      "▁Beng": 6756,
      "▁opposition": 6757,
      "▁Corporation": 6758,
      "itional": 6759,
      "▁sites": 6760,
      "▁protest": 6761,
      "g.": 6762,
      "ava": 6763,
      "anna": 6764,
      "▁‘": 6765,
      "▁pilot": 6766,
      "▁Design": 6767,
      "ici": 6768,
      "TC": 6769,
      "viation": 6770,
      "oths": 6771,
      "▁print": 6772,
      "lers": 6773,
      "ar.": 6774,
      "ilation": 6775,
      "▁preserv": 6776,
      "ureau": 6777,
      "▁Women": 6778,
      "▁1964": 6779,
      "▁1971": 6780,
      "▁portray": 6781,
      "and,": 6782,
      "▁Bon": 6783,
      "▁sixth": 6784,
      "52": 6785,
      "mph": 6786,
      "▁6.": 6787,
      "▁People's": 6788,
      "▁Ukraine": 6789,
      "▁film,": 6790,
      "▁Alab": 6791,
      "▁estate": 6792,
      "▁density": 6793,
      "inus": 6794,
      "▁Live": 6795,
      "-ch": 6796,
      "▁slight": 6797,
      "▁Short": 6798,
      "▁2003,": 6799,
      "▁Nap": 6800,
      "▁33": 6801,
      "erry": 6802,
      "▁appe": 6803,
      "▁scientific": 6804,
      "▁Cab": 6805,
      "s\nW": 6806,
      "▁br": 6807,
      "▁committee": 6808,
      "▁addition,": 6809,
      "olished": 6810,
      "▁split": 6811,
      "▁animal": 6812,
      "▁bow": 6813,
      "▁creation": 6814,
      "▁journalist": 6815,
      "▁gives": 6816,
      "▁Nev": 6817,
      "▁metres": 6818,
      "▁Free": 6819,
      "orge": 6820,
      "▁traffic": 6821,
      "▁suggest": 6822,
      "▁dism": 6823,
      "▁Forces": 6824,
      "▁sum": 6825,
      "lywood": 6826,
      "▁K.": 6827,
      "▁relations": 6828,
      "VD": 6829,
      "42": 6830,
      "oles": 6831,
      "▁Staff": 6832,
      "▁visit": 6833,
      "▁suit": 6834,
      "▁suggested": 6835,
      "▁regul": 6836,
      "hens": 6837,
      "▁\n\nP": 6838,
      "▁blue": 6839,
      "▁Gord": 6840,
      "hil": 6841,
      ";\"|": 6842,
      "▁entry": 6843,
      "organ": 6844,
      "▁Writ": 6845,
      "uerto": 6846,
      "▁NCAA": 6847,
      "▁Nik": 6848,
      "ecause": 6849,
      "▁Magaz": 6850,
      "▁arrang": 6851,
      "▁actually": 6852,
      "▁Tit": 6853,
      "▁compon": 6854,
      "olis": 6855,
      "▁exam": 6856,
      "▁Test": 6857,
      "▁yellow": 6858,
      "41": 6859,
      "▁greater": 6860,
      "▁Ten": 6861,
      "▁Croat": 6862,
      "bo": 6863,
      "related": 6864,
      "▁Point": 6865,
      "▁Prix": 6866,
      "▁facility": 6867,
      "bra": 6868,
      "▁Hand": 6869,
      "ented": 6870,
      "▁allowing": 6871,
      "aver": 6872,
      "▁royal": 6873,
      "▁Hur": 6874,
      "▁oppos": 6875,
      "▁Anderson": 6876,
      "▁Armen": 6877,
      "▁Dun": 6878,
      "▁lot": 6879,
      "▁agent": 6880,
      "▁invas": 6881,
      "▁succeeded": 6882,
      "▁mom": 6883,
      "▁Drag": 6884,
      "▁cert": 6885,
      "▁Holy": 6886,
      "aki": 6887,
      "▁connected": 6888,
      ".\n\nNotes": 6889,
      "▁script": 6890,
      "▁ce": 6891,
      "▁stock": 6892,
      "▁hy": 6893,
      "erald": 6894,
      "▁earth": 6895,
      "▁disease": 6896,
      "ER": 6897,
      "▁tells": 6898,
      "▁etc": 6899,
      "▁Ky": 6900,
      "▁Lank": 6901,
      "▁programming": 6902,
      "▁1950": 6903,
      "issipp": 6904,
      "▁activity": 6905,
      "▁begins": 6906,
      "▁Pass": 6907,
      "sey": 6908,
      "▁pressure": 6909,
      "▁applied": 6910,
      "▁products": 6911,
      "s\nL": 6912,
      "as.": 6913,
      "▁Su": 6914,
      "▁IV": 6915,
      "▁racing": 6916,
      "▁Oak": 6917,
      "ji": 6918,
      "▁1967": 6919,
      "▁advanced": 6920,
      "▁folk": 6921,
      "51": 6922,
      "▁Ins": 6923,
      "antic": 6924,
      "▁Burn": 6925,
      "▁formation": 6926,
      "-and": 6927,
      "▁Tennessee": 6928,
      "▁doctor": 6929,
      "elle": 6930,
      "inguished": 6931,
      "▁Fle": 6932,
      "▁Pop": 6933,
      "▁Walter": 6934,
      "▁Nag": 6935,
      "rait": 6936,
      "▁existing": 6937,
      "▁gall": 6938,
      "▁bord": 6939,
      "▁fully": 6940,
      "usion": 6941,
      "▁incident": 6942,
      "\nAn": 6943,
      "▁tried": 6944,
      "ante": 6945,
      "▁pian": 6946,
      "Olympic": 6947,
      "ables": 6948,
      "▁Portug": 6949,
      "▁code": 6950,
      ",\"": 6951,
      "ecutive": 6952,
      "▁piano": 6953,
      "▁Turkish": 6954,
      "▁Colorado": 6955,
      "▁ple": 6956,
      "▁(se": 6957,
      "▁cannot": 6958,
      "▁fair": 6959,
      "ivity": 6960,
      "▁mut": 6961,
      "eman": 6962,
      "▁lett": 6963,
      ".\n\nGeography": 6964,
      "▁launch": 6965,
      "▁continues": 6966,
      "▁Pict": 6967,
      "▁returning": 6968,
      "pression": 6969,
      "▁(also": 6970,
      "▁workers": 6971,
      "cadem": 6972,
      "▁Oklah": 6973,
      "▁Jacob": 6974,
      "▁80": 6975,
      "▁supply": 6976,
      "iti": 6977,
      "wich": 6978,
      "▁situated": 6979,
      "▁Linc": 6980,
      "▁allows": 6981,
      "▁Turn": 6982,
      "ladesh": 6983,
      "▁(died": 6984,
      "▁words": 6985,
      "urer": 6986,
      "▁true": 6987,
      "▁eas": 6988,
      "▁Train": 6989,
      "▁tal": 6990,
      "▁Regional": 6991,
      "▁magn": 6992,
      "▁(track": 6993,
      "▁engineering": 6994,
      "▁owner": 6995,
      "aling": 6996,
      "▁vice": 6997,
      "▁178": 6998,
      "-value": 6999,
      "▁publication": 7000,
      "▁Nick": 7001,
      "awn": 7002,
      "▁projects": 7003,
      "▁narrow": 7004,
      "span=": 7005,
      "▁Philadelphia": 7006,
      "oslav": 7007,
      "iya": 7008,
      "▁application": 7009,
      "oly": 7010,
      "-20": 7011,
      "▁Ec": 7012,
      "▁Du": 7013,
      "▁Lead": 7014,
      "▁Harry": 7015,
      "▁Ross": 7016,
      "▁\n\nS": 7017,
      "▁Senior": 7018,
      "▁Transport": 7019,
      "▁70": 7020,
      "abad": 7021,
      "▁districts": 7022,
      "▁Tan": 7023,
      "▁Us": 7024,
      "▁Domin": 7025,
      "▁knowledge": 7026,
      "ounds": 7027,
      "w.": 7028,
      "▁friends": 7029,
      "▁growing": 7030,
      "cluding": 7031,
      "▁villages": 7032,
      "▁ast": 7033,
      "▁image": 7034,
      "▁Kat": 7035,
      "▁stre": 7036,
      "▁Ford": 7037,
      "▁spring": 7038,
      "▁flood": 7039,
      "ami": 7040,
      "▁Lor": 7041,
      "▁consum": 7042,
      "▁7.": 7043,
      "ooth": 7044,
      "pson": 7045,
      "▁area.": 7046,
      "▁Abb": 7047,
      "▁Finn": 7048,
      "▁Studies": 7049,
      "inth": 7050,
      "▁aired": 7051,
      "▁Ocean": 7052,
      "▁cart": 7053,
      "▁$1": 7054,
      "-O": 7055,
      "▁Connecticut": 7056,
      "▁\"J": 7057,
      "pass": 7058,
      "western": 7059,
      "▁Ltd": 7060,
      "anga": 7061,
      "pedition": 7062,
      "ples": 7063,
      "▁Sport": 7064,
      "▁Tar": 7065,
      "▁films\nFilms": 7066,
      "▁Labour": 7067,
      "▁teaching": 7068,
      "▁\"b": 7069,
      "▁Emperor": 7070,
      "▁Engineering": 7071,
      "▁Jane": 7072,
      "▁tree": 7073,
      "ructure": 7074,
      "▁oldest": 7075,
      "▁McG": 7076,
      "▁analysis": 7077,
      "▁Commonwealth": 7078,
      "▁Security": 7079,
      "▁Il": 7080,
      "▁arrested": 7081,
      "▁protection": 7082,
      "IC": 7083,
      "enh": 7084,
      ".\n\nTrack": 7085,
      "▁slow": 7086,
      "▁mayor": 7087,
      "▁corpor": 7088,
      "▁Plan": 7089,
      "▁survey": 7090,
      "▁mis": 7091,
      "▁election,": 7092,
      "▁Front": 7093,
      "pri": 7094,
      "▁Pap": 7095,
      "▁Family": 7096,
      "▁Dal": 7097,
      "▁Your": 7098,
      "ra,": 7099,
      "▁global": 7100,
      "▁samp": 7101,
      "▁contain": 7102,
      "▁Television": 7103,
      "▁campus": 7104,
      "rank": 7105,
      "▁twice": 7106,
      "▁France,": 7107,
      "▁5th": 7108,
      "▁neighborhood": 7109,
      "▁this,": 7110,
      "▁\nD": 7111,
      "▁Oregon": 7112,
      "8),": 7113,
      "▁meant": 7114,
      "ét": 7115,
      "orb": 7116,
      "▁son,": 7117,
      "▁nob": 7118,
      "vo": 7119,
      "▁Massachusetts": 7120,
      "▁Dougl": 7121,
      "▁commissioned": 7122,
      "▁Hamil": 7123,
      "▁Maryland": 7124,
      "aux": 7125,
      "▁playoff": 7126,
      "▁Hun": 7127,
      "-sort": 7128,
      "everal": 7129,
      "ina.": 7130,
      "▁philosoph": 7131,
      "▁Mit": 7132,
      "▁install": 7133,
      "▁Alexand": 7134,
      "▁Moscow": 7135,
      "▁guard": 7136,
      "▁bought": 7137,
      "▁climate": 7138,
      "icy": 7139,
      "▁Tony": 7140,
      "–198": 7141,
      "▁Ir": 7142,
      "▁unique": 7143,
      "▁judge": 7144,
      "▁commander": 7145,
      "▁goes": 7146,
      "▁promotion": 7147,
      "37": 7148,
      "▁Naval": 7149,
      "stitutional": 7150,
      "▁sales": 7151,
      "▁Entertainment": 7152,
      "a)": 7153,
      "32": 7154,
      "io,": 7155,
      "▁purpose": 7156,
      "▁Winn": 7157,
      "▁resear": 7158,
      "alo": 7159,
      "▁rapid": 7160,
      "s\nAmerican": 7161,
      "anning": 7162,
      "▁Six": 7163,
      "▁underst": 7164,
      "▁Modern": 7165,
      "▁Castle": 7166,
      "▁representing": 7167,
      "▁roll": 7168,
      "▁Gab": 7169,
      "▁qualified": 7170,
      "eller": 7171,
      "▁measure": 7172,
      "-sort-value": 7173,
      "▁Leb": 7174,
      "▁Od": 7175,
      "▁Tel": 7176,
      "▁proceed": 7177,
      "▁Christmas": 7178,
      "▁reference": 7179,
      "▁Stand": 7180,
      "▁visited": 7181,
      "▁data-sort-value": 7182,
      "atus": 7183,
      "▁Davis": 7184,
      "▁Jord": 7185,
      "▁Each": 7186,
      ";\"\n|": 7187,
      "oli": 7188,
      "▁pun": 7189,
      "▁Quebec": 7190,
      "▁receiving": 7191,
      "▁2002,": 7192,
      "uccess": 7193,
      "▁therefore": 7194,
      "▁consisted": 7195,
      "New": 7196,
      "▁roof": 7197,
      "▁achieved": 7198,
      "▁Kaz": 7199,
      "▁1966": 7200,
      "▁Nich": 7201,
      "olitical": 7202,
      "▁lect": 7203,
      "I.": 7204,
      "ifically": 7205,
      "▁Brun": 7206,
      "▁area,": 7207,
      "31": 7208,
      "▁defin": 7209,
      "isa": 7210,
      "▁Sin": 7211,
      "▁enjoy": 7212,
      "▁resources": 7213,
      "▁holds": 7214,
      "▁inters": 7215,
      "omy": 7216,
      ")\nM": 7217,
      "▁Champion": 7218,
      "▁cancer": 7219,
      "▁advert": 7220,
      "ress,": 7221,
      "▁data-sort-value=\"": 7222,
      "▁Morris": 7223,
      "▁bishop": 7224,
      "uing": 7225,
      "urance": 7226,
      "▁attempted": 7227,
      "▁inhabit": 7228,
      "▁Aud": 7229,
      "▁creating": 7230,
      "▁Wolf": 7231,
      "▁audience": 7232,
      "time": 7233,
      "▁Na": 7234,
      "▁Kam": 7235,
      "▁sector": 7236,
      "ques": 7237,
      "secutive": 7238,
      "▁thir": 7239,
      "andy": 7240,
      "Qu": 7241,
      "▁Anne": 7242,
      "▁speak": 7243,
      "▁presidential": 7244,
      "▁beaut": 7245,
      "▁dynast": 7246,
      "▁locomot": 7247,
      "▁Liter": 7248,
      "▁Roy": 7249,
      "▁portion": 7250,
      "\n\nCh": 7251,
      "▁rain": 7252,
      "▁1965": 7253,
      "▁unable": 7254,
      "▁Park,": 7255,
      "ages,": 7256,
      "▁Jay": 7257,
      "▁aged": 7258,
      "▁1940": 7259,
      "▁Queensland": 7260,
      "▁children's": 7261,
      "▁completely": 7262,
      "▁NY": 7263,
      "▁Fame": 7264,
      "\n\n|-": 7265,
      "elve": 7266,
      "et.": 7267,
      "▁yards": 7268,
      "print": 7269,
      "▁fought": 7270,
      "▁Catal": 7271,
      "▁reject": 7272,
      "cha": 7273,
      "ttp": 7274,
      "▁containing": 7275,
      "ctic": 7276,
      "▁Ale": 7277,
      "▁highway": 7278,
      "▁Buck": 7279,
      "▁aspect": 7280,
      "▁game,": 7281,
      "▁Marine": 7282,
      "▁Author": 7283,
      "▁injury": 7284,
      "orough": 7285,
      "idae.": 7286,
      "ade,": 7287,
      "▁Belgium": 7288,
      "P)": 7289,
      "▁chosen": 7290,
      "▁kick": 7291,
      "▁Prin": 7292,
      "▁vs.": 7293,
      "under": 7294,
      "▁institutions": 7295,
      "▁respond": 7296,
      "▁Whit": 7297,
      "dam": 7298,
      "AA": 7299,
      "mes": 7300,
      "▁claims": 7301,
      "▁cho": 7302,
      "▁settled": 7303,
      "ttp://": 7304,
      "▁begin": 7305,
      "▁Cost": 7306,
      "▁\"p": 7307,
      "▁approved": 7308,
      "▁god": 7309,
      "ridge,": 7310,
      "▁subsequent": 7311,
      ".\n\nPlot": 7312,
      "▁2001,": 7313,
      "▁Singapore": 7314,
      "▁criminal": 7315,
      "leep": 7316,
      "▁Hockey": 7317,
      "ives,": 7318,
      "▁Danish": 7319,
      "▁Patrick": 7320,
      "▁Lieutenant": 7321,
      "▁scheduled": 7322,
      "▁languages": 7323,
      "▁(189": 7324,
      "aro": 7325,
      "▁jur": 7326,
      "▁dat": 7327,
      "▁Lewis": 7328,
      "▁38": 7329,
      "▁principal": 7330,
      "eding": 7331,
      "34": 7332,
      "olas": 7333,
      "▁vent": 7334,
      "▁oppon": 7335,
      "sex": 7336,
      "▁notes": 7337,
      "▁cours": 7338,
      "▁jazz": 7339,
      "▁Native": 7340,
      "cles": 7341,
      "▁Brazilian": 7342,
      "▁Melbourne": 7343,
      "▁Frederick": 7344,
      "rip": 7345,
      "▁touchdown": 7346,
      ".\n\nDescription": 7347,
      "▁positions": 7348,
      "▁Mississipp": 7349,
      "rav": 7350,
      "▁Gre": 7351,
      "▁inaug": 7352,
      "gi": 7353,
      "▁broke": 7354,
      "▁É": 7355,
      "▁recip": 7356,
      "▁Kl": 7357,
      "ghan": 7358,
      "▁straight": 7359,
      "urrent": 7360,
      "▁Legislative": 7361,
      "▁(as": 7362,
      "▁exclus": 7363,
      "▁recognition": 7364,
      "▁representative": 7365,
      "▁actresses": 7366,
      "▁Massachusett": 7367,
      "▁height": 7368,
      "▁appoint": 7369,
      "rowd": 7370,
      "▁frequently": 7371,
      "▁Swiss": 7372,
      "gor": 7373,
      "▁team,": 7374,
      "▁exchange": 7375,
      "▁Wars": 7376,
      "▁Youth": 7377,
      "▁consult": 7378,
      "▁Territ": 7379,
      "▁Amb": 7380,
      "▁simply": 7381,
      "▁converted": 7382,
      "rm": 7383,
      "illiam": 7384,
      "ionally": 7385,
      ".)": 7386,
      "▁Dream": 7387,
      "▁90": 7388,
      "mit": 7389,
      "▁Wy": 7390,
      "aine": 7391,
      "\nHe": 7392,
      "▁Karl": 7393,
      "rov": 7394,
      "▁spect": 7395,
      "▁Album": 7396,
      "▁NFL": 7397,
      "▁focused": 7398,
      "▁storm": 7399,
      "▁Puerto": 7400,
      "rif": 7401,
      "▁Vin": 7402,
      "▁literary": 7403,
      "▁theme": 7404,
      "65": 7405,
      "▁gather": 7406,
      "▁relatively": 7407,
      "▁Chall": 7408,
      "▁decor": 7409,
      "▁1944": 7410,
      "▁Sweden": 7411,
      "▁domestic": 7412,
      "ieval": 7413,
      "▁lit": 7414,
      "▁Low": 7415,
      "▁Brian": 7416,
      "▁Cer": 7417,
      "inburgh": 7418,
      "▁mm": 7419,
      "evin": 7420,
      "▁Dick": 7421,
      "▁horse": 7422,
      "▁founding": 7423,
      "opter": 7424,
      "▁avoid": 7425,
      "▁profile": 7426,
      "uties": 7427,
      "▁Denmark": 7428,
      "▁shared": 7429,
      "ford,": 7430,
      "writer": 7431,
      "▁negoti": 7432,
      "▁vehicles": 7433,
      "▁Inn": 7434,
      "▁attacked": 7435,
      "▁trust": 7436,
      "▁headquarters": 7437,
      "▁Bureau": 7438,
      "▁seats": 7439,
      "▁connection": 7440,
      "▁IS": 7441,
      "clos": 7442,
      "▁occupied": 7443,
      "▁Berg": 7444,
      "▁Margar": 7445,
      "fall": 7446,
      "\n|\n|": 7447,
      "fficient": 7448,
      "▁faced": 7449,
      "▁\nF": 7450,
      "▁resc": 7451,
      "▁Roll": 7452,
      "▁soccer": 7453,
      "ague,": 7454,
      ".\n\nReferences\n\n19": 7455,
      "re,": 7456,
      "▁reports": 7457,
      "▁Gram": 7458,
      "▁Ern": 7459,
      "▁school,": 7460,
      "▁consecutive": 7461,
      "▁(and": 7462,
      "bit": 7463,
      "▁Ger": 7464,
      "▁seem": 7465,
      "el.": 7466,
      "▁tennis": 7467,
      "▁Real": 7468,
      "▁artists\n": 7469,
      "▁Ukrainian": 7470,
      "www.": 7471,
      "▁alleged": 7472,
      "▁Silver": 7473,
      "▁dog": 7474,
      "asters": 7475,
      "una": 7476,
      "▁Channel": 7477,
      "▁shortly": 7478,
      "▁defined": 7479,
      "▁advance": 7480,
      "oyd": 7481,
      "▁Eric": 7482,
      "igration": 7483,
      "anian": 7484,
      "▁Brand": 7485,
      "▁institution": 7486,
      "▁Honor": 7487,
      "iques": 7488,
      "weet": 7489,
      "▁Dak": 7490,
      "odox": 7491,
      "ism.": 7492,
      "ui": 7493,
      "▁airport": 7494,
      "▁films\n19": 7495,
      "▁father,": 7496,
      "▁Reb": 7497,
      "▁census,": 7498,
      "▁Tig": 7499,
      "ito": 7500,
      "▁Korea": 7501,
      "▁Simon": 7502,
      "▁Phys": 7503,
      "▁alone": 7504,
      "▁winners": 7505,
      "fit": 7506,
      "imens": 7507,
      "ailway": 7508,
      "▁Lin": 7509,
      "▁composition": 7510,
      "▁1:": 7511,
      "▁situation": 7512,
      "▁Portuguese": 7513,
      "▁maximum": 7514,
      "illages": 7515,
      "igenous": 7516,
      "▁Doctor": 7517,
      "▁fighting": 7518,
      "▁boat": 7519,
      "▁harm": 7520,
      "ly.": 7521,
      "▁internal": 7522,
      "iab": 7523,
      "▁journ": 7524,
      "stan": 7525,
      "▁trains": 7526,
      "▁Dubl": 7527,
      "▁cinem": 7528,
      "election": 7529,
      "▁tele": 7530,
      "▁31,": 7531,
      "▁rival": 7532,
      "iversary": 7533,
      "▁painter": 7534,
      "scape": 7535,
      "▁parent": 7536,
      "roit": 7537,
      "irus": 7538,
      "▁says": 7539,
      "talian": 7540,
      "▁Soc": 7541,
      "▁Las": 7542,
      "▁temple": 7543,
      "▁pand": 7544,
      "oms": 7545,
      "▁\nL": 7546,
      "IT": 7547,
      "▁ultimately": 7548,
      "▁Fern": 7549,
      "▁plants": 7550,
      "eason": 7551,
      "▁combat": 7552,
      "pa": 7553,
      "▁non-f": 7554,
      "▁killing": 7555,
      "\nUniversity": 7556,
      "▁seg": 7557,
      "▁(state": 7558,
      "▁necessary": 7559,
      "▁convers": 7560,
      "phas": 7561,
      "▁Eag": 7562,
      "▁vo": 7563,
      "▁herself": 7564,
      "▁establishment": 7565,
      "\n20": 7566,
      "▁Mand": 7567,
      "aga": 7568,
      "ović": 7569,
      "▁compar": 7570,
      "▁Dom": 7571,
      "▁\"K": 7572,
      "▁kil": 7573,
      "zen": 7574,
      "▁Children": 7575,
      "oured": 7576,
      "▁collected": 7577,
      "adow": 7578,
      "▁sust": 7579,
      "▁officials": 7580,
      "incorporated": 7581,
      "seud": 7582,
      "▁Palest": 7583,
      "lease": 7584,
      "i.e.": 7585,
      "ors,": 7586,
      "roduction": 7587,
      "eatt": 7588,
      "▁Philippines": 7589,
      "\n\nSt": 7590,
      "oen": 7591,
      "▁Khan": 7592,
      "▁Dur": 7593,
      "▁contributed": 7594,
      "ayan": 7595,
      "GBT": 7596,
      "ootballers": 7597,
      "▁societ": 7598,
      "u.": 7599,
      "▁merch": 7600,
      "▁Vice": 7601,
      "▁Lincoln": 7602,
      "▁opposed": 7603,
      "▁Bou": 7604,
      "▁300": 7605,
      "ardo": 7606,
      "▁technical": 7607,
      "enna": 7608,
      "▁Ban": 7609,
      "▁vehicle": 7610,
      "ham,": 7611,
      "ontin": 7612,
      "▁speech": 7613,
      "iar": 7614,
      "▁Studios": 7615,
      "▁performing": 7616,
      "▁effective": 7617,
      "▁LI": 7618,
      "▁compris": 7619,
      "olley": 7620,
      "lack": 7621,
      "▁rein": 7622,
      "▁Greece": 7623,
      "ST": 7624,
      "▁permanent": 7625,
      "▁Hop": 7626,
      "▁something": 7627,
      "▁Buddh": 7628,
      "▁Sel": 7629,
      "▁vac": 7630,
      "▁figures": 7631,
      "▁Israeli": 7632,
      "ise,": 7633,
      "▁also\nList": 7634,
      "▁environmental": 7635,
      "▁san": 7636,
      "▁Hans": 7637,
      "–5": 7638,
      "acent": 7639,
      "▁bul": 7640,
      "▁candidates": 7641,
      "▁Samuel": 7642,
      "▁Bry": 7643,
      "-200": 7644,
      "▁refused": 7645,
      "ocratic": 7646,
      "▁onto": 7647,
      "▁hero": 7648,
      "▁Prot": 7649,
      "▁Bangladesh": 7650,
      "▁entitled": 7651,
      "▁1962": 7652,
      "ah,": 7653,
      "▁powerful": 7654,
      "▁Trib": 7655,
      "ai,": 7656,
      "oring": 7657,
      "▁your": 7658,
      "▁Pot": 7659,
      "–present": 7660,
      "▁1948": 7661,
      "▁Gard": 7662,
      "▁dropped": 7663,
      "▁39": 7664,
      "▁marg": 7665,
      "▁Islamic": 7666,
      "ine.": 7667,
      "▁Ric": 7668,
      "▁(which": 7669,
      ".\n\nHistory\nThe": 7670,
      "▁junior": 7671,
      "▁comput": 7672,
      "▁virt": 7673,
      "\nMembers": 7674,
      "ifications": 7675,
      "▁decre": 7676,
      "stream": 7677,
      "▁Anthony": 7678,
      "iation": 7679,
      "▁fuel": 7680,
      "▁composer": 7681,
      "▁Minnesota": 7682,
      "▁bey": 7683,
      "▁Singh": 7684,
      "ouses": 7685,
      "▁daily": 7686,
      "uilt": 7687,
      "▁models": 7688,
      "▁township": 7689,
      "ears": 7690,
      "\nAs": 7691,
      ".\n\nOther": 7692,
      "9),": 7693,
      "ournament": 7694,
      "▁arts": 7695,
      "▁Phill": 7696,
      "lig": 7697,
      "64": 7698,
      "▁brown": 7699,
      "▁iron": 7700,
      "PA": 7701,
      "▁Cra": 7702,
      "▁supporting": 7703,
      "-like": 7704,
      "▁Maur": 7705,
      "▁Like": 7706,
      "s\nG": 7707,
      "-th": 7708,
      "▁N.": 7709,
      "\nEnglish": 7710,
      "▁Vis": 7711,
      "apanese": 7712,
      "ery,": 7713,
      "▁secretary": 7714,
      "ormer": 7715,
      "▁covers": 7716,
      "ographical": 7717,
      "▁Street,": 7718,
      "▁1963": 7719,
      "▁detect": 7720,
      "▁schem": 7721,
      "enny": 7722,
      "enezuel": 7723,
      "▁mand": 7724,
      "▁Independent": 7725,
      "▁lake": 7726,
      "▁England,": 7727,
      "▁versions": 7728,
      "▁holding": 7729,
      "EA": 7730,
      "SR": 7731,
      "uct": 7732,
      ";\"": 7733,
      "▁Conc": 7734,
      "▁Third": 7735,
      "▁Fil": 7736,
      "▁Da": 7737,
      "▁attempts": 7738,
      "ti": 7739,
      "▁\"h": 7740,
      "▁UN": 7741,
      "icians": 7742,
      "olo": 7743,
      "redited": 7744,
      "▁franch": 7745,
      "▁overs": 7746,
      "▁partnership": 7747,
      "▁Rid": 7748,
      "▁Edinburgh": 7749,
      "▁1942": 7750,
      "▁cars": 7751,
      "▁Hungarian": 7752,
      "▁spok": 7753,
      "orf": 7754,
      "▁extensive": 7755,
      "▁Sud": 7756,
      "▁Howard": 7757,
      "ithuan": 7758,
      "▁reign": 7759,
      "▁partner": 7760,
      "▁Pun": 7761,
      "▁Liberal": 7762,
      "▁expressed": 7763,
      "tsburgh": 7764,
      "▁Lanc": 7765,
      "heastern": 7766,
      "▁ey": 7767,
      "▁work,": 7768,
      "burn": 7769,
      "▁34": 7770,
      "bell": 7771,
      "▁fram": 7772,
      "▁Among": 7773,
      "▁bud": 7774,
      "ocation": 7775,
      "▁Tamil": 7776,
      "▁contrast": 7777,
      "istry": 7778,
      "▁Orchestra": 7779,
      "-4": 7780,
      "ory,": 7781,
      "▁Heritage": 7782,
      "▁statement": 7783,
      "▁beyond": 7784,
      ".\nA": 7785,
      "▁driver": 7786,
      "▁selection": 7787,
      "▁ox": 7788,
      "▁educational": 7789,
      "▁employed": 7790,
      "▁invited": 7791,
      "▁finishing": 7792,
      "▁pieces": 7793,
      "▁piece": 7794,
      "mith": 7795,
      "box": 7796,
      "▁sought": 7797,
      "▁Bowl": 7798,
      "▁49": 7799,
      "▁statistic": 7800,
      "ayer": 7801,
      "part": 7802,
      "▁expansion": 7803,
      "▁data-sort-value=\"0.": 7804,
      "▁rot": 7805,
      "▁visual": 7806,
      "▁18th": 7807,
      "PS": 7808,
      "▁José": 7809,
      "▁Rey": 7810,
      "▁writers": 7811,
      "▁Fac": 7812,
      "▁About": 7813,
      "▁fresh": 7814,
      "▁Ali": 7815,
      "▁praised": 7816,
      "rence": 7817,
      "▁400": 7818,
      "▁keyboard": 7819,
      "▁Mach": 7820,
      "▁Switzerland": 7821,
      "▁Andre": 7822,
      "ryst": 7823,
      "▁Thail": 7824,
      "▁Fund": 7825,
      "\"),": 7826,
      "▁players\nC": 7827,
      "ines,": 7828,
      "▁Islands": 7829,
      "▁category": 7830,
      "▁alternative": 7831,
      "▁Lang": 7832,
      "iny": 7833,
      "gency": 7834,
      "▁wins": 7835,
      "▁Lam": 7836,
      "ake,": 7837,
      "stead": 7838,
      "▁memory": 7839,
      "Le": 7840,
      "▁merged": 7841,
      "▁(16": 7842,
      "urope": 7843,
      "▁regarding": 7844,
      "▁Pa": 7845,
      "▁Hawai": 7846,
      "▁determined": 7847,
      "▁1943": 7848,
      "▁Sunday": 7849,
      "▁provision": 7850,
      "▁Imperial": 7851,
      "▁Executive": 7852,
      "▁premiered": 7853,
      "istant": 7854,
      ".\n\nFrom": 7855,
      "▁death,": 7856,
      "▁deploy": 7857,
      "▁1956": 7858,
      "thodox": 7859,
      "chell": 7860,
      "▁Tur": 7861,
      "-V": 7862,
      "▁Ped": 7863,
      "ín": 7864,
      "▁defense": 7865,
      "▁rear": 7866,
      "atics": 7867,
      "unction": 7868,
      "▁schol": 7869,
      "▁Rugby": 7870,
      "apted": 7871,
      "▁system,": 7872,
      "▁Oblast": 7873,
      "▁Juan": 7874,
      "▁safety": 7875,
      "▁Now": 7876,
      "s\n\nReferences\n\nExternal": 7877,
      "▁drive": 7878,
      "▁advis": 7879,
      "rete": 7880,
      "▁Temple": 7881,
      "▁Hom": 7882,
      "▁mind": 7883,
      "▁impl": 7884,
      "▁wealth": 7885,
      "pecies": 7886,
      "▁1930": 7887,
      "▁Back": 7888,
      "▁Cook": 7889,
      "▁encourag": 7890,
      "▁protein": 7891,
      "▁attacks": 7892,
      "▁regiment": 7893,
      "▁AD": 7894,
      "burg,": 7895,
      "borough": 7896,
      "▁wife,": 7897,
      "▁Ry": 7898,
      "▁Pas": 7899,
      "▁Story": 7900,
      "▁stadium": 7901,
      "stic": 7902,
      "▁Call": 7903,
      "▁rough": 7904,
      "▁Rose": 7905,
      "▁photograph": 7906,
      "▁Cru": 7907,
      "iful": 7908,
      "s\nH": 7909,
      "▁deaths": 7910,
      "▁Communist": 7911,
      "▁voted": 7912,
      "▁Miam": 7913,
      "▁Antonio": 7914,
      "field,": 7915,
      "▁entrance": 7916,
      "rect": 7917,
      "▁Austrian": 7918,
      "▁Report": 7919,
      "▁Province,": 7920,
      "▁Australia,": 7921,
      "▁mal": 7922,
      "▁corner": 7923,
      "▁tank": 7924,
      "uri": 7925,
      "lass": 7926,
      "▁(17": 7927,
      "▁winter": 7928,
      "▁try": 7929,
      "▁normal": 7930,
      "aints": 7931,
      "ersh": 7932,
      "▁ethnic": 7933,
      ".\n\nReception": 7934,
      "-on": 7935,
      "▁1999,": 7936,
      "▁Prefect": 7937,
      "▁finds": 7938,
      "-sc": 7939,
      "▁hair": 7940,
      "▁family,": 7941,
      "▁Kentucky": 7942,
      "▁Dark": 7943,
      "▁comic": 7944,
      "▁sac": 7945,
      "▁successfully": 7946,
      "aska": 7947,
      "inder": 7948,
      "▁Bud": 7949,
      "▁volume": 7950,
      "▁clin": 7951,
      "▁1961": 7952,
      "▁Lyn": 7953,
      "▁(5": 7954,
      "▁squadron": 7955,
      "▁align=center|": 7956,
      "▁Rural": 7957,
      "ices,": 7958,
      "▁researcher": 7959,
      "▁setting": 7960,
      "iamond": 7961,
      "▁refers": 7962,
      "note": 7963,
      "▁hyp": 7964,
      "▁generation": 7965,
      "ington,": 7966,
      "RC": 7967,
      "ivate": 7968,
      "▁advant": 7969,
      "▁occurs": 7970,
      "allel": 7971,
      "term": 7972,
      "▁AC": 7973,
      "ently,": 7974,
      "ów": 7975,
      "▁hotel": 7976,
      "▁derived": 7977,
      "osis": 7978,
      "▁aid": 7979,
      "ransport": 7980,
      "▁Stew": 7981,
      "erbai": 7982,
      "▁developing": 7983,
      "▁1939": 7984,
      "▁sist": 7985,
      "umes": 7986,
      ".\nS": 7987,
      "▁opera": 7988,
      "▁temperature": 7989,
      "▁Nel": 7990,
      "▁nuclear": 7991,
      "▁Ay": 7992,
      "▁involving": 7993,
      "s\nIn": 7994,
      "otic": 7995,
      "▁8.": 7996,
      "▁sand": 7997,
      "prise": 7998,
      "appear": 7999,
      "ous,": 8000,
      "▁da": 8001,
      "▁hired": 8002,
      "ials": 8003,
      "▁protect": 8004,
      "▁authority": 8005,
      "ello": 8006,
      "▁feet": 8007,
      "▁(b.": 8008,
      "s\n19": 8009,
      "▁FM": 8010,
      "issance": 8011,
      "▁era": 8012,
      "▁reviews": 8013,
      "zz": 8014,
      "illeg": 8015,
      "ugoslav": 8016,
      "▁advoc": 8017,
      "▁slightly": 8018,
      "▁causing": 8019,
      "▁1952": 8020,
      "▁someone": 8021,
      "aron": 8022,
      "-Ch": 8023,
      "▁emphas": 8024,
      "age.": 8025,
      "▁gar": 8026,
      "▁machine": 8027,
      "▁Cow": 8028,
      "▁Farm": 8029,
      "▁incorporated": 8030,
      "▁regions": 8031,
      "▁Prad": 8032,
      "ste": 8033,
      "▁people)\n": 8034,
      ".\n\nLife": 8035,
      "▁Deputy": 8036,
      "▁mel": 8037,
      "▁war,": 8038,
      "▁Pope": 8039,
      "▁Key": 8040,
      "▁Gon": 8041,
      "▁Ka": 8042,
      "usal": 8043,
      "▁behavior": 8044,
      "▁Stone": 8045,
      "▁Bart": 8046,
      "▁escape": 8047,
      "▁team.": 8048,
      "▁varian": 8049,
      "▁Gam": 8050,
      "▁Brigade": 8051,
      "▁registered": 8052,
      "lock": 8053,
      "po": 8054,
      "▁trav": 8055,
      "▁solid": 8056,
      "cycl": 8057,
      "ridges": 8058,
      "▁Afghan": 8059,
      "▁backing": 8060,
      "s\n\nC": 8061,
      "▁retirement": 8062,
      "▁Garden": 8063,
      "▁simple": 8064,
      "▁Om": 8065,
      "▁Ow": 8066,
      "▁sets": 8067,
      "▁resigned": 8068,
      "ing\n": 8069,
      "85": 8070,
      "▁Matthew": 8071,
      "▁Ottoman": 8072,
      "▁Manchester": 8073,
      "▁Through": 8074,
      "occ": 8075,
      "▁Johann": 8076,
      "assador": 8077,
      "▁6th": 8078,
      "▁limit": 8079,
      "▁mart": 8080,
      "▁\"t": 8081,
      "▁accompan": 8082,
      "e's": 8083,
      "▁Dh": 8084,
      "▁actors": 8085,
      "▁Friend": 8086,
      "shire,": 8087,
      "equ": 8088,
      "avid": 8089,
      "▁laid": 8090,
      "▁influenced": 8091,
      "▁Information": 8092,
      "ams": 8093,
      "adi": 8094,
      "agen": 8095,
      "▁Architect": 8096,
      "▁Services": 8097,
      "▁Before": 8098,
      "▁plot": 8099,
      "while": 8100,
      "▁Global": 8101,
      "▁Ga": 8102,
      "il,": 8103,
      ".\n\nThis": 8104,
      "nold": 8105,
      "▁shape": 8106,
      "▁Moon": 8107,
      "agan": 8108,
      "▁Clin": 8109,
      "ni": 8110,
      "67": 8111,
      "▁Champions": 8112,
      "▁Beat": 8113,
      "rican": 8114,
      "▁hands": 8115,
      "load": 8116,
      "amic": 8117,
      "▁basic": 8118,
      "arc": 8119,
      "ler,": 8120,
      "▁fan": 8121,
      "▁drivers": 8122,
      "▁warn": 8123,
      "▁pione": 8124,
      "▁1946": 8125,
      "▁Laur": 8126,
      "▁cris": 8127,
      "▁strike": 8128,
      "isf": 8129,
      "▁House,": 8130,
      "▁2010.": 8131,
      "▁cru": 8132,
      "▁Douglas": 8133,
      "▁Fal": 8134,
      "▁joining": 8135,
      "umbent": 8136,
      "▁poly": 8137,
      "istrict": 8138,
      "▁Iron": 8139,
      "▁tower": 8140,
      "ranged": 8141,
      "▁nom": 8142,
      "▁symbol": 8143,
      "▁period,": 8144,
      "▁drink": 8145,
      "▁1958": 8146,
      "actions": 8147,
      "▁superv": 8148,
      "▁priest": 8149,
      "▁passenger": 8150,
      "▁Societ": 8151,
      "▁resign": 8152,
      "▁opin": 8153,
      "▁Deb": 8154,
      "lines": 8155,
      "▁contained": 8156,
      "axa": 8157,
      "chest": 8158,
      "▁anth": 8159,
      "▁Hug": 8160,
      "▁purpos": 8161,
      "▁watch": 8162,
      "▁bgcolor=\"#": 8163,
      "▁Hunt": 8164,
      "▁1941": 8165,
      "▁acid": 8166,
      "▁injured": 8167,
      "igious": 8168,
      "active": 8169,
      "▁consisting": 8170,
      "▁Historical": 8171,
      "▁compete": 8172,
      "▁analy": 8173,
      "▁Welsh": 8174,
      "▁Alan": 8175,
      "▁licens": 8176,
      "▁extrem": 8177,
      "▁poem": 8178,
      "''": 8179,
      "▁Environment": 8180,
      "▁write": 8181,
      "ivals": 8182,
      "las": 8183,
      "▁Alfred": 8184,
      "▁constant": 8185,
      "come": 8186,
      "▁equal": 8187,
      "▁promote": 8188,
      "aire": 8189,
      "ersonnel": 8190,
      "▁dates": 8191,
      "eland": 8192,
      "▁tend": 8193,
      "▁Prote": 8194,
      "▁Kan": 8195,
      "▁Affairs": 8196,
      "art,": 8197,
      "▁Donald": 8198,
      "▁passing": 8199,
      "▁Knight": 8200,
      "sch": 8201,
      "inian": 8202,
      "▁batter": 8203,
      "▁possess": 8204,
      "a\nM": 8205,
      "▁;": 8206,
      "▁sides": 8207,
      "▁learning": 8208,
      "olph": 8209,
      "▁1959": 8210,
      "set": 8211,
      "▁obtain": 8212,
      "▁Meg": 8213,
      "▁McK": 8214,
      "ov,": 8215,
      "lace": 8216,
      "▁UC": 8217,
      "▁lyrics": 8218,
      "▁America,": 8219,
      "▁Diego": 8220,
      "▁assess": 8221,
      "riev": 8222,
      "heel": 8223,
      "▁locality": 8224,
      "▁carry": 8225,
      "▁sty": 8226,
      "▁shell": 8227,
      "▁Sn": 8228,
      "▁classes": 8229,
      "▁inher": 8230,
      "▁Fight": 8231,
      "▁Dall": 8232,
      "a\nS": 8233,
      "▁tor": 8234,
      "▁Grant": 8235,
      "▁animated": 8236,
      "▁properties": 8237,
      "▁Railroad": 8238,
      "▁hydro": 8239,
      "-of": 8240,
      "▁quant": 8241,
      "▁Place": 8242,
      "erk": 8243,
      "▁Lov": 8244,
      "▁pull": 8245,
      "run": 8246,
      "▁Mayor": 8247,
      "▁sense": 8248,
      "–7": 8249,
      "▁formal": 8250,
      "▁Germany,": 8251,
      "▁stating": 8252,
      "▁Metropolitan": 8253,
      "▁injur": 8254,
      "▁Athletic": 8255,
      "ist.": 8256,
      "▁reflect": 8257,
      "▁Vol.": 8258,
      "▁volunte": 8259,
      "▁life,": 8260,
      "thes": 8261,
      "▁deleg": 8262,
      "és": 8263,
      "▁instru": 8264,
      "▁archae": 8265,
      "▁weather": 8266,
      "▁dang": 8267,
      "BI": 8268,
      "▁ahead": 8269,
      "lora": 8270,
      "▁seventh": 8271,
      "boy": 8272,
      "▁Pad": 8273,
      "olleyball": 8274,
      "▁citizen": 8275,
      "intend": 8276,
      "olt": 8277,
      "▁rating": 8278,
      "▁specifically": 8279,
      "▁chemical": 8280,
      "-related": 8281,
      "▁introduction": 8282,
      "▁150": 8283,
      "▁Shah": 8284,
      "wise": 8285,
      "▁reaching": 8286,
      "▁ment": 8287,
      "▁7th": 8288,
      "▁citizens": 8289,
      "▁Palace": 8290,
      "E.": 8291,
      ".\n\nHis": 8292,
      "▁Harvard": 8293,
      "▁Church,": 8294,
      "▁rout": 8295,
      ".\n\nDem": 8296,
      "ill,": 8297,
      "angel": 8298,
      "uscript": 8299,
      "▁rise": 8300,
      "▁toward": 8301,
      "fully": 8302,
      "EFA": 8303,
      "▁\n\nC": 8304,
      "▁Veg": 8305,
      "idel": 8306,
      "▁request": 8307,
      "▁Nep": 8308,
      "style": 8309,
      "▁Hamilton": 8310,
      "▁accused": 8311,
      "▁Race": 8312,
      "▁Micro": 8313,
      "62": 8314,
      "car": 8315,
      "▁Co.": 8316,
      "▁reality": 8317,
      "▁advent": 8318,
      "orro": 8319,
      "▁trying": 8320,
      "iva": 8321,
      "ers\nS": 8322,
      "▁Run": 8323,
      "▁AM": 8324,
      "life": 8325,
      "▁translated": 8326,
      "▁investigation": 8327,
      "▁Rio": 8328,
      "▁northeast": 8329,
      "▁trained": 8330,
      "▁Age": 8331,
      "▁Glas": 8332,
      "otte": 8333,
      "▁Canada,": 8334,
      "illing": 8335,
      "▁cells": 8336,
      "▁1998,": 8337,
      "ailed": 8338,
      "▁matter": 8339,
      "atin": 8340,
      "▁ends": 8341,
      "▁gain": 8342,
      "▁argued": 8343,
      "▁interior": 8344,
      "iverpool": 8345,
      "icide": 8346,
      "▁engaged": 8347,
      "▁Rick": 8348,
      "▁marine": 8349,
      "▁I'": 8350,
      "▁violence": 8351,
      "▁convent": 8352,
      "▁Jess": 8353,
      "▁improve": 8354,
      "63": 8355,
      "▁Tak": 8356,
      "iop": 8357,
      "▁phase": 8358,
      "\nAr": 8359,
      "▁electronic": 8360,
      "▁48": 8361,
      "icts": 8362,
      "anton": 8363,
      "▁1921": 8364,
      "▁CEO": 8365,
      "ando": 8366,
      "▁Mem": 8367,
      "▁Rub": 8368,
      "span=\"": 8369,
      "▁Early": 8370,
      "▁Row": 8371,
      "▁Last": 8372,
      "▁Only": 8373,
      "▁Chamber": 8374,
      "▁1957": 8375,
      "ad,": 8376,
      "▁Round": 8377,
      "▁Wrest": 8378,
      "▁illeg": 8379,
      "▁Cemetery": 8380,
      "▁things": 8381,
      "file": 8382,
      "▁failure": 8383,
      "▁degre": 8384,
      "key": 8385,
      "▁transform": 8386,
      "alymp": 8387,
      "▁Area": 8388,
      "ang,": 8389,
      "▁heavily": 8390,
      "▁clas": 8391,
      "▁doing": 8392,
      "▁throw": 8393,
      "DA": 8394,
      "▁Dave": 8395,
      "▁arms": 8396,
      "▁steam": 8397,
      "▁comed": 8398,
      "▁actions": 8399,
      "▁tropical": 8400,
      "▁Express": 8401,
      "nik": 8402,
      "ista": 8403,
      "\n\nRe": 8404,
      ".\nM": 8405,
      "OR": 8406,
      "antasy": 8407,
      "▁Log": 8408,
      "▁acts": 8409,
      "▁Municipality": 8410,
      "én": 8411,
      "▁Tam": 8412,
      "▁lov": 8413,
      "▁Hollywood": 8414,
      "▁concluded": 8415,
      "▁revolution": 8416,
      "▁University.": 8417,
      "ale,": 8418,
      "onomy": 8419,
      "▁publisher": 8420,
      "▁Nob": 8421,
      "ritical": 8422,
      "▁brick": 8423,
      "hr": 8424,
      "2010": 8425,
      "▁\n\nM": 8426,
      "▁passes": 8427,
      "▁abandoned": 8428,
      "ivalent": 8429,
      "▁adapted": 8430,
      "III": 8431,
      "hibition": 8432,
      "\"\n\"": 8433,
      "▁Bull": 8434,
      "▁DVD": 8435,
      "▁divers": 8436,
      "▁line,": 8437,
      "ive.": 8438,
      "▁materials": 8439,
      "eless": 8440,
      "▁calls": 8441,
      "▁fans": 8442,
      "clusion": 8443,
      "vant": 8444,
      "▁Taiwan": 8445,
      "▁Neb": 8446,
      "father": 8447,
      "▁maintained": 8448,
      "▁twelve": 8449,
      "ushed": 8450,
      "▁ere": 8451,
      "ia's": 8452,
      "-yard": 8453,
      "▁pap": 8454,
      "▁1947": 8455,
      "-re": 8456,
      "▁Commander": 8457,
      "agues": 8458,
      "ampton": 8459,
      "▁pros": 8460,
      "▁1936": 8461,
      "▁nick": 8462,
      "▁describes": 8463,
      "▁Mission": 8464,
      "▁Due": 8465,
      "▁Because": 8466,
      "\nNational": 8467,
      "▁locations": 8468,
      "▁Guine": 8469,
      "▁Patri": 8470,
      "▁Season": 8471,
      "▁deputy": 8472,
      "▁Kevin": 8473,
      "▁steel": 8474,
      "▁copies": 8475,
      "▁Crown": 8476,
      "▁residence": 8477,
      "pen": 8478,
      "jo": 8479,
      "▁Paris,": 8480,
      "▁lat": 8481,
      "▁armed": 8482,
      "▁crowd": 8483,
      "▁fashion": 8484,
      "ches,": 8485,
      "▁Gallery": 8486,
      "▁glass": 8487,
      "▁milit": 8488,
      "\t\t": 8489,
      "2nd": 8490,
      "▁band's": 8491,
      "▁impr": 8492,
      "oes": 8493,
      "cess,": 8494,
      "▁upd": 8495,
      "▁2011.": 8496,
      "\n|align=center|": 8497,
      "▁\nH": 8498,
      "▁males": 8499,
      "▁Chen": 8500,
      "hing": 8501,
      "▁37": 8502,
      "ures.": 8503,
      "nia": 8504,
      "in'": 8505,
      "Villages": 8506,
      "▁countri": 8507,
      "ogy": 8508,
      "▁River,": 8509,
      "▁ruled": 8510,
      "ain,": 8511,
      "aved": 8512,
      "▁Internet": 8513,
      "▁exerc": 8514,
      "▁households,": 8515,
      "▁Senator": 8516,
      "▁Square": 8517,
      "night": 8518,
      "▁Pur": 8519,
      "▁independence": 8520,
      "iac": 8521,
      "61": 8522,
      "▁Gran": 8523,
      "▁Anna": 8524,
      "▁Further": 8525,
      "idden": 8526,
      "▁Vik": 8527,
      "ishment": 8528,
      "▁agricultural": 8529,
      "M.": 8530,
      "▁MPs": 8531,
      "▁calling": 8532,
      "▁chose": 8533,
      "▁lock": 8534,
      "▁ban": 8535,
      "▁Treat": 8536,
      "▁invasion": 8537,
      "rong": 8538,
      "\nYear": 8539,
      "onder": 8540,
      "\n\nJ": 8541,
      "▁1955": 8542,
      "▁Venezuel": 8543,
      "▁\n\nB": 8544,
      "▁Sky": 8545,
      "▁Arkansas": 8546,
      "▁dress": 8547,
      "–10": 8548,
      "▁Morgan": 8549,
      "ists,": 8550,
      "▁Margaret": 8551,
      "▁Administration": 8552,
      "▁Peters": 8553,
      "▁edited": 8554,
      "▁Rot": 8555,
      "▁funding": 8556,
      "▁constituency": 8557,
      "▁colonial": 8558,
      "IV": 8559,
      "▁Bak": 8560,
      "▁Fried": 8561,
      "owned": 8562,
      "▁Indiana": 8563,
      "▁\n|-\n|": 8564,
      "▁Fel": 8565,
      "▁Nad": 8566,
      "▁closely": 8567,
      "▁collaboration": 8568,
      "▁translation": 8569,
      "▁proved": 8570,
      "▁Peace": 8571,
      "▁methods": 8572,
      "▁Disney": 8573,
      "ulate": 8574,
      "▁northwest": 8575,
      "▁rare": 8576,
      "▁Gian": 8577,
      "rama": 8578,
      "▁Company,": 8579,
      "100": 8580,
      "-8": 8581,
      "▁Player": 8582,
      "▁Building": 8583,
      "▁emot": 8584,
      "▁planning": 8585,
      "▁heard": 8586,
      "rett": 8587,
      "-10": 8588,
      "University": 8589,
      "▁Ran": 8590,
      "▁reception": 8591,
      "▁ru": 8592,
      "▁importance": 8593,
      "▁ring": 8594,
      "▁align=\"center\"": 8595,
      "▁lands": 8596,
      "▁Netherlands": 8597,
      "iterran": 8598,
      "wed": 8599,
      "▁habitat": 8600,
      "▁reduce": 8601,
      "▁DC": 8602,
      "lets": 8603,
      "▁sym": 8604,
      "▁competitions": 8605,
      "▁crown": 8606,
      "▁Original": 8607,
      "uma": 8608,
      "▁I,": 8609,
      "▁Defense": 8610,
      "P.": 8611,
      "▁Gordon": 8612,
      "▁Ll": 8613,
      "ogether": 8614,
      "les.": 8615,
      "▁Agric": 8616,
      "▁tall": 8617,
      "▁brig": 8618,
      "▁Jews": 8619,
      "▁Collection": 8620,
      "▁negative": 8621,
      "▁I.": 8622,
      "ourse": 8623,
      "▁Seatt": 8624,
      "▁\nW": 8625,
      "lection": 8626,
      "aza": 8627,
      "▁producing": 8628,
      "▁knock": 8629,
      "▁trail": 8630,
      "▁\"Y": 8631,
      "in's": 8632,
      "urring": 8633,
      "anned": 8634,
      "▁committed": 8635,
      "▁Dyn": 8636,
      "▁shall": 8637,
      "icit": 8638,
      "atherine": 8639,
      "hard": 8640,
      "▁letters": 8641,
      "▁window": 8642,
      "▁Nort": 8643,
      "▁Cre": 8644,
      "▁Corp": 8645,
      "fessional": 8646,
      "▁Colonel": 8647,
      "rone": 8648,
      "mat": 8649,
      "kes": 8650,
      "more": 8651,
      "ommod": 8652,
      "▁dismiss": 8653,
      "▁Economic": 8654,
      "▁freedom": 8655,
      "▁Netherland": 8656,
      "▁soundtrack": 8657,
      "fore,": 8658,
      "▁bra": 8659,
      "▁Alliance": 8660,
      "▁observed": 8661,
      "iley": 8662,
      "thm": 8663,
      "▁churches": 8664,
      "▁players\nB": 8665,
      "P,": 8666,
      "▁debuted": 8667,
      "▁pup": 8668,
      "▁neighbour": 8669,
      "ur,": 8670,
      "▁affected": 8671,
      "ropod": 8672,
      "ester": 8673,
      "usk": 8674,
      "entially": 8675,
      "▁proced": 8676,
      "-the": 8677,
      "▁Census": 8678,
      "▁reaction": 8679,
      "iments": 8680,
      "▁getting": 8681,
      "▁favour": 8682,
      "▁FA": 8683,
      "▁Officer": 8684,
      "▁arrest": 8685,
      "▁Pittsburgh": 8686,
      "▁installed": 8687,
      "▁Saf": 8688,
      "▁ped": 8689,
      "▁reserve": 8690,
      ".\n\nFor": 8691,
      "▁Clevel": 8692,
      "cademic": 8693,
      "▁Trump": 8694,
      "lon": 8695,
      "▁poetry": 8696,
      "▁Nam": 8697,
      "exual": 8698,
      "ations.": 8699,
      "▁Rud": 8700,
      "IN": 8701,
      "▁Even": 8702,
      "▁Detroit": 8703,
      "▁2012.": 8704,
      "osm": 8705,
      "▁Miller": 8706,
      ".\n\nNotable": 8707,
      "▁Arizona": 8708,
      "▁aer": 8709,
      "▁kid": 8710,
      "lete": 8711,
      "▁result,": 8712,
      "▁myth": 8713,
      "▁Between": 8714,
      "▁Baltim": 8715,
      "▁career,": 8716,
      "▁family.": 8717,
      "▁What": 8718,
      "▁Allen": 8719,
      "▁ancest": 8720,
      "▁railroad": 8721,
      "▁Tournament": 8722,
      "▁1997,": 8723,
      "▁assault": 8724,
      "▁trip": 8725,
      "rine": 8726,
      "▁Death": 8727,
      "▁prize": 8728,
      "▁tail": 8729,
      "▁India,": 8730,
      "hu": 8731,
      "▁possibly": 8732,
      "▁needs": 8733,
      "▁SC": 8734,
      "▁Sac": 8735,
      "▁NAS": 8736,
      "▁her.": 8737,
      "▁Invest": 8738,
      "▁briefly": 8739,
      "oni": 8740,
      "US": 8741,
      "▁Azerbai": 8742,
      "▁enl": 8743,
      "▁1996,": 8744,
      "▁fear": 8745,
      "s\nJ": 8746,
      "▁Orthodox": 8747,
      "▁defeating": 8748,
      "▁garden": 8749,
      "▁Mak": 8750,
      "chang": 8751,
      "▁regarded": 8752,
      "oom": 8753,
      "▁l'": 8754,
      "fe": 8755,
      "▁Roc": 8756,
      "▁2009.": 8757,
      "▁Metro": 8758,
      "panish": 8759,
      "▁mist": 8760,
      "ienced": 8761,
      "break": 8762,
      "▁(6": 8763,
      "▁bottom": 8764,
      "agg": 8765,
      "die": 8766,
      "▁1954": 8767,
      "▁survived": 8768,
      "▁believe": 8769,
      "▁standing": 8770,
      "▁Houston": 8771,
      "▁Pear": 8772,
      "▁Carn": 8773,
      "bach": 8774,
      "▁Natural": 8775,
      "▁city.": 8776,
      "▁Marie": 8777,
      ".\n\nTh": 8778,
      "rastructure": 8779,
      "di": 8780,
      "▁Wa": 8781,
      "▁Mexic": 8782,
      "▁Leban": 8783,
      "▁drawn": 8784,
      "estyle": 8785,
      "▁Kon": 8786,
      "▁Gri": 8787,
      "▁(Ch": 8788,
      "s\nE": 8789,
      "▁mole": 8790,
      "▁Advent": 8791,
      "▁Christopher": 8792,
      "ities,": 8793,
      "▁restaurant": 8794,
      "▁witness": 8795,
      "▁Madrid": 8796,
      "▁session": 8797,
      "▁flu": 8798,
      "ferred": 8799,
      "umin": 8800,
      "▁Basketball": 8801,
      "▁really": 8802,
      "▁Mes": 8803,
      "▁Rand": 8804,
      "▁Chem": 8805,
      "▁Thailand": 8806,
      "▁leads": 8807,
      "▁feed": 8808,
      "-level": 8809,
      "▁10.": 8810,
      "▁copy": 8811,
      "▁consequ": 8812,
      "coming": 8813,
      "▁Finland": 8814,
      "▁Dod": 8815,
      "icket": 8816,
      "▁entirely": 8817,
      "uration": 8818,
      "▁defensive": 8819,
      "▁ax": 8820,
      "▁Bed": 8821,
      "▁demonstr": 8822,
      "▁Ori": 8823,
      ".\n\nAccording": 8824,
      "▁YouT": 8825,
      "ions,": 8826,
      "▁games,": 8827,
      "▁sole": 8828,
      "chi": 8829,
      "▁1949": 8830,
      "friend": 8831,
      "pir": 8832,
      "▁substant": 8833,
      "▁England.": 8834,
      "-9": 8835,
      "▁repeated": 8836,
      "▁imprison": 8837,
      "ellite": 8838,
      "▁mort": 8839,
      "▁renov": 8840,
      "▁quite": 8841,
      "▁McD": 8842,
      "ology.": 8843,
      "ahn": 8844,
      "▁Liverpool": 8845,
      "▁Wright": 8846,
      "▁strip": 8847,
      "▁fly": 8848,
      "▁ham": 8849,
      "▁adjacent": 8850,
      "▁17th": 8851,
      "igation": 8852,
      "▁enemy": 8853,
      "▁Village": 8854,
      "▁indu": 8855,
      "cuss": 8856,
      "▁also\n\n": 8857,
      "ships": 8858,
      "▁Tokyo": 8859,
      "▁belief": 8860,
      "▁castle": 8861,
      "▁Maj": 8862,
      "TS": 8863,
      "hatt": 8864,
      ")\nC": 8865,
      "▁1951": 8866,
      "▁Local": 8867,
      "▁Constitution": 8868,
      "▁context": 8869,
      "▁Pir": 8870,
      "▁patients": 8871,
      "▁182": 8872,
      "▁Digital": 8873,
      "▁Beck": 8874,
      "▁colour": 8875,
      "▁sons": 8876,
      "h,": 8877,
      "▁Murr": 8878,
      "▁V.": 8879,
      "▁Americans": 8880,
      "▁Lib": 8881,
      "▁1953": 8882,
      "▁2013.": 8883,
      "▁brothers": 8884,
      "▁5:": 8885,
      "▁2008.": 8886,
      "▁worldwide": 8887,
      "ör": 8888,
      "bar": 8889,
      "▁Lawrence": 8890,
      "▁Hend": 8891,
      "▁Ryan": 8892,
      "▁worth": 8893,
      "anny": 8894,
      "▁check": 8895,
      "▁African-American": 8896,
      "ney,": 8897,
      "▁existence": 8898,
      "▁Lithuan": 8899,
      "obb": 8900,
      "itionally,": 8901,
      "▁Princess": 8902,
      "▁graduate": 8903,
      "roc": 8904,
      "▁Bomb": 8905,
      "▁provincial": 8906,
      "▁FIFA": 8907,
      "▁guitar,": 8908,
      "▁premi": 8909,
      "▁cancell": 8910,
      "▁LINE": 8911,
      "▁veter": 8912,
      "▁releg": 8913,
      "▁exact": 8914,
      "▁combination": 8915,
      "otan": 8916,
      "▁Ever": 8917,
      "inter": 8918,
      "▁children,": 8919,
      "▁seed": 8920,
      "▁sell": 8921,
      "▁distributed": 8922,
      "uly": 8923,
      "▁Gun": 8924,
      "Ne": 8925,
      "king": 8926,
      "atche": 8927,
      "▁extension": 8928,
      "▁sale": 8929,
      ".\n\nEducation": 8930,
      "▁system.": 8931,
      "▁identity": 8932,
      "▁Reserve": 8933,
      "▁Buff": 8934,
      "▁isol": 8935,
      "LC": 8936,
      "▁edge": 8937,
      "▁Europe,": 8938,
      "▁Our": 8939,
      "▁offices": 8940,
      "ultan": 8941,
      "▁southeast": 8942,
      ")\nB": 8943,
      "09": 8944,
      "▁tack": 8945,
      "▁Element": 8946,
      "▁parallel": 8947,
      "▁resistance": 8948,
      "▁flat": 8949,
      "▁females": 8950,
      "hab": 8951,
      "▁44": 8952,
      "▁earliest": 8953,
      "▁strength": 8954,
      "▁Nord": 8955,
      "▁criticized": 8956,
      "▁Magazine": 8957,
      "▁medium": 8958,
      "▁improved": 8959,
      "s\n\nA": 8960,
      "▁hors": 8961,
      "▁Roberts": 8962,
      "▁flying": 8963,
      "▁Hotel": 8964,
      "R.": 8965,
      "▁v.": 8966,
      "▁scale": 8967,
      ".\n\nBy": 8968,
      "▁Educ": 8969,
      ")\"": 8970,
      "▁alt": 8971,
      "ceived": 8972,
      "ucc": 8973,
      "▁10th": 8974,
      "▁LINEAR": 8975,
      "▁terror": 8976,
      "▁Dance": 8977,
      "▁fleet": 8978,
      "pis": 8979,
      "dale": 8980,
      "inner": 8981,
      "▁teen": 8982,
      "▁pow": 8983,
      "▁compilation": 8984,
      "▁Rac": 8985,
      "▁regularly": 8986,
      "▁demand": 8987,
      "ads": 8988,
      "▁Hell": 8989,
      "▁Bird": 8990,
      "▁Ko": 8991,
      "itable": 8992,
      "▁gets": 8993,
      "ot,": 8994,
      "▁coache": 8995,
      "▁War.": 8996,
      "▁interpret": 8997,
      "▁Jesus": 8998,
      "wright": 8999,
      "▁181": 9000,
      "▁Rights": 9001,
      "ting": 9002,
      "▁Camer": 9003,
      "▁opportunity": 9004,
      "▁Socorro": 9005,
      ")\nP": 9006,
      "▁chain": 9007,
      "haps": 9008,
      "▁memorial": 9009,
      "▁morning": 9010,
      "-born": 9011,
      "▁Let": 9012,
      "▁actual": 9013,
      "GA": 9014,
      "mm": 9015,
      "▁alleg": 9016,
      "ment.": 9017,
      "▁Utah": 9018,
      "▁athletes": 9019,
      "leased": 9020,
      "▁households": 9021,
      "▁insc": 9022,
      "▁Nash": 9023,
      "going": 9024,
      "▁history,": 9025,
      "▁9.": 9026,
      "▁Dog": 9027,
      "▁naval": 9028,
      "▁16th": 9029,
      "▁participate": 9030,
      "▁hill": 9031,
      "▁southwest": 9032,
      "▁Mississippi": 9033,
      "▁rivers": 9034,
      "▁Movement": 9035,
      "fted": 9036,
      "▁showing": 9037,
      "▁foundation": 9038,
      "▁1938": 9039,
      "▁valley": 9040,
      "▁controlled": 9041,
      "▁India.": 9042,
      "▁clean": 9043,
      "▁repair": 9044,
      "▁admitted": 9045,
      "▁residential": 9046,
      "Or": 9047,
      "▁submar": 9048,
      "▁Battalion": 9049,
      "–17": 9050,
      "▁Moore": 9051,
      "▁Roger": 9052,
      "obe": 9053,
      "avalry": 9054,
      "▁orders": 9055,
      "emble": 9056,
      "▁life.": 9057,
      "bishop": 9058,
      "▁programme": 9059,
      "onian": 9060,
      "▁moment": 9061,
      "▁operate": 9062,
      "▁danc": 9063,
      "▁Ivan": 9064,
      "▁contra": 9065,
      "▁world.": 9066,
      "econd": 9067,
      "eget": 9068,
      "▁Gulf": 9069,
      "▁ceremony": 9070,
      "▁settle": 9071,
      "-color": 9072,
      "▁starts": 9073,
      "▁\nG": 9074,
      "▁heat": 9075,
      "▁alter": 9076,
      "amo": 9077,
      "ifer": 9078,
      "▁monument": 9079,
      ".\n\nFilm": 9080,
      "▁Rap": 9081,
      "ues,": 9082,
      "▁racial": 9083,
      "ouver": 9084,
      "coh": 9085,
      "▁egg": 9086,
      "▁factor": 9087,
      "▁day.": 9088,
      "▁factory": 9089,
      "i)": 9090,
      "▁delay": 9091,
      "▁2007.": 9092,
      "▁1970s": 9093,
      "Is": 9094,
      "▁musicians": 9095,
      "▁(from": 9096,
      "▁Verm": 9097,
      "▁attached": 9098,
      "▁1980s": 9099,
      "▁Lud": 9100,
      "AM": 9101,
      "▁Wol": 9102,
      "aptist": 9103,
      "▁1995,": 9104,
      "▁qualifying": 9105,
      "▁contributions": 9106,
      "▁Belgian": 9107,
      "▁Chand": 9108,
      "▁climb": 9109,
      "lie": 9110,
      "▁Woman": 9111,
      "▁deaths\nPeople": 9112,
      "▁Pradesh": 9113,
      "▁choice": 9114,
      "▁Py": 9115,
      "resents": 9116,
      "au,": 9117,
      "▁signal": 9118,
      "icial": 9119,
      "▁answ": 9120,
      "▁politicians": 9121,
      "▁remark": 9122,
      "avan": 9123,
      "▁driving": 9124,
      "argo": 9125,
      "▁Psych": 9126,
      "▁renew": 9127,
      "ins,": 9128,
      "▁Dead": 9129,
      "▁Chart": 9130,
      "▁endemic": 9131,
      "efunct": 9132,
      "▁name,": 9133,
      "▁2014.": 9134,
      "▁Yugoslav": 9135,
      "▁pandemic": 9136,
      "▁restrict": 9137,
      "ecution": 9138,
      "yll": 9139,
      "lected": 9140,
      "▁delivered": 9141,
      "▁(including": 9142,
      "▁protected": 9143,
      "▁greatest": 9144,
      "abase": 9145,
      "▁seems": 9146,
      "▁politics": 9147,
      ".\nIn": 9148,
      "top": 9149,
      "▁Lower": 9150,
      "▁Box": 9151,
      "2020": 9152,
      "▁Operation": 9153,
      "ing\"": 9154,
      "enberg": 9155,
      "▁Rain": 9156,
      "▁painted": 9157,
      "▁funds": 9158,
      "▁suff": 9159,
      "▁Equ": 9160,
      "▁LGBT": 9161,
      "▁accommod": 9162,
      "outs": 9163,
      "ivodes": 9164,
      "▁Emer": 9165,
      "▁membership": 9166,
      "▁Portugal": 9167,
      "▁capture": 9168,
      "▁Eston": 9169,
      "▁Kings": 9170,
      "▁core": 9171,
      "▁jump": 9172,
      "▁trees": 9173,
      "▁D.C.": 9174,
      "▁Lan": 9175,
      "▁rich": 9176,
      "▁Cathedral": 9177,
      "arus": 9178,
      "▁Confeder": 9179,
      "08": 9180,
      "audi": 9181,
      "▁Jose": 9182,
      "▁Method": 9183,
      "\n\nK": 9184,
      "EE": 9185,
      "▁zone": 9186,
      "ire,": 9187,
      "▁recept": 9188,
      "▁8th": 9189,
      "uses": 9190,
      "▁determine": 9191,
      "▁Bush": 9192,
      "br": 9193,
      "▁Sax": 9194,
      "▁Birming": 9195,
      "L.": 9196,
      "▁impress": 9197,
      "▁hunt": 9198,
      "▁circum": 9199,
      "▁theater": 9200,
      "▁1914": 9201,
      "▁inhabitants": 9202,
      "▁charged": 9203,
      "▁credited": 9204,
      "▁Scient": 9205,
      "rust": 9206,
      "▁pool": 9207,
      "▁Bruce": 9208,
      "opal": 9209,
      "▁commune": 9210,
      "▁Ord": 9211,
      "▁1928": 9212,
      "oa": 9213,
      "▁\"In": 9214,
      "ivodeship": 9215,
      "▁Pakist": 9216,
      "▁opposite": 9217,
      "eenth": 9218,
      "▁dry": 9219,
      "▁older.": 9220,
      "iph": 9221,
      "eness": 9222,
      "▁Kum": 9223,
      "▁faith": 9224,
      "▁budget": 9225,
      "▁manuscript": 9226,
      "▁buy": 9227,
      "▁price": 9228,
      "▁legend": 9229,
      "▁description": 9230,
      "are,": 9231,
      "▁AT": 9232,
      "▁Michel": 9233,
      "▁cited": 9234,
      "▁save": 9235,
      "'re": 9236,
      "erse": 9237,
      "ivated": 9238,
      "▁Carlos": 9239,
      "▁(9": 9240,
      "▁Ent": 9241,
      "ator,": 9242,
      "▁accompanied": 9243,
      "net": 9244,
      "▁Angl": 9245,
      "▁causes": 9246,
      "▁Institut": 9247,
      "▁it's": 9248,
      "▁semi-f": 9249,
      "▁select": 9250,
      "▁anniversary": 9251,
      "oca": 9252,
      "▁typical": 9253,
      "Bibliography": 9254,
      "▁fine": 9255,
      "mund": 9256,
      "son's": 9257,
      "▁animals": 9258,
      "lin,": 9259,
      "ologies": 9260,
      "▁broken": 9261,
      "isd": 9262,
      "eam": 9263,
      "▁Non": 9264,
      "\nNew": 9265,
      "rome": 9266,
      "▁tries": 9267,
      "▁electoral": 9268,
      "▁book,": 9269,
      "s\n20th-century": 9270,
      "inces": 9271,
      "▁Kit": 9272,
      "ompl": 9273,
      "▁Horn": 9274,
      "itud": 9275,
      "▁bond": 9276,
      "▁Orle": 9277,
      "▁Soccer": 9278,
      "▁cous": 9279,
      "orrow": 9280,
      "▁functions": 9281,
      "\nBritish": 9282,
      "ugar": 9283,
      "▁\n\nT": 9284,
      "▁organis": 9285,
      "▁1994,": 9286,
      "▁arranged": 9287,
      "▁64": 9288,
      "ishops": 9289,
      "pha": 9290,
      "▁Several": 9291,
      "hai": 9292,
      "▁sed": 9293,
      "▁rob": 9294,
      "rob": 9295,
      "▁2015.": 9296,
      "▁stood": 9297,
      "▁experienced": 9298,
      "vements": 9299,
      "5,000": 9300,
      "▁Mort": 9301,
      "▁1937": 9302,
      "▁represents": 9303,
      "\nAfter": 9304,
      "orial": 9305,
      "▁Lev": 9306,
      "ules": 9307,
      "iterranean": 9308,
      "▁Bernard": 9309,
      "▁Finnish": 9310,
      "▁starred": 9311,
      "abled": 9312,
      "uzz": 9313,
      "\nY": 9314,
      "opulation": 9315,
      "▁Gill": 9316,
      "▁nor": 9317,
      "▁Ward": 9318,
      "▁Capital": 9319,
      "▁util": 9320,
      "-term": 9321,
      "▁assumed": 9322,
      "▁1960s": 9323,
      "▁Upper": 9324,
      "▁publishing": 9325,
      "isition": 9326,
      "▁operates": 9327,
      "a\nP": 9328,
      "▁caught": 9329,
      "▁honour": 9330,
      "▁PC": 9331,
      "▁Secret": 9332,
      "ically,": 9333,
      "▁Five": 9334,
      "RS": 9335,
      "▁retail": 9336,
      "▁headed": 9337,
      "uropean": 9338,
      "▁Pow": 9339,
      "▁Track": 9340,
      "ilk": 9341,
      "plete": 9342,
      "▁lap": 9343,
      "▁Chairman": 9344,
      "▁Voivodeship": 9345,
      "ün": 9346,
      "▁Parish": 9347,
      "▁communication": 9348,
      "▁well-": 9349,
      "▁kilomet": 9350,
      "▁die": 9351,
      "▁Has": 9352,
      "▁people.": 9353,
      "▁recordings": 9354,
      "\n\n200": 9355,
      "etime": 9356,
      "▁Aqu": 9357,
      "▁bran": 9358,
      "▁Vic": 9359,
      "▁reput": 9360,
      "▁synd": 9361,
      "▁Tob": 9362,
      "▁demonst": 9363,
      "–16": 9364,
      "▁players\nP": 9365,
      "▁unsuccess": 9366,
      "▁separated": 9367,
      "▁suburb": 9368,
      "▁coordin": 9369,
      "able,": 9370,
      "▁Vas": 9371,
      "▁mid-19": 9372,
      "▁Sarah": 9373,
      "gers": 9374,
      "▁Hig": 9375,
      "▁doll": 9376,
      "▁Dean": 9377,
      "jab": 9378,
      "uster": 9379,
      "cyclop": 9380,
      "▁Neg": 9381,
      "elli": 9382,
      "▁carrying": 9383,
      "▁formally": 9384,
      "▁Ku": 9385,
      "▁purchase": 9386,
      "▁credit": 9387,
      "▁Medicine": 9388,
      "▁company,": 9389,
      "ON": 9390,
      "▁See": 9391,
      "▁Tun": 9392,
      "roke": 9393,
      "▁arrival": 9394,
      "▁paintings": 9395,
      "\nJohn": 9396,
      "s\n21st-century": 9397,
      "▁Jimmy": 9398,
      "▁fra": 9399,
      "▁Dub": 9400,
      "▁Lad": 9401,
      "▁Island,": 9402,
      "▁12th": 9403,
      "low": 9404,
      "ages.": 9405,
      "ES": 9406,
      "▁investment": 9407,
      "▁c.": 9408,
      "rix": 9409,
      "▁intelligence": 9410,
      "▁views": 9411,
      "▁Oklahoma": 9412,
      "othing": 9413,
      "os.": 9414,
      "▁Hit": 9415,
      "ives.": 9416,
      "▁door": 9417,
      "style=\"": 9418,
      "▁game.": 9419,
      "▁films\nAmerican": 9420,
      "urday": 9421,
      "▁Volume": 9422,
      "omen's": 9423,
      "▁Mack": 9424,
      "ocol": 9425,
      "▁\"g": 9426,
      "▁conqu": 9427,
      "▁\nOn": 9428,
      "▁scenes": 9429,
      "▁grade": 9430,
      "▁Hungary": 9431,
      "y\"": 9432,
      "orus": 9433,
      "▁Energy": 9434,
      "▁femal": 9435,
      "▁1917": 9436,
      "ework": 9437,
      "itime": 9438,
      "▁people\nPeople": 9439,
      "▁episod": 9440,
      "▁looking": 9441,
      "▁bodies": 9442,
      "▁agency": 9443,
[...]
