#version: 0.2
Ð µ
Ð °
Ð ¸
Ð ½
Ñ Ĥ
¾ Ð
Ð ¾Ð
Ñ ģ
Ñ Ģ
Ð »
Ð º
Ð ²
Ð ¿
Ð ¼
Ñ ĥ
" :
Ð ´
Ñ ı
Ñ ĭ
Ñ Į
Ġ Ð¿
Ñģ ÑĤ
Ð ·
, "
Ðµ Ð½
Ñ ĩ
": "
Ġ Ð²
" ,"
Ġ Ñģ
ÑĢ Ð°
Ð¾Ð ²
l a
{ "
Ð ±
r o
r u
Ð½ Ð°
e l
Ð ³
p ro
Ġ Ð¸
b el
pro b
la bel
} ,
Ð ¹
Ñ ħ
n Ð
}, {"
ÑĢ Ðµ
Ġ Ðº
Ð½ Ð¸
9 9
Ðµ ÑĤ
Ġ Ð´
Ð¾Ð »
Ð½ Ñĭ
¾ ÑĤ
¾ ÑĢ
Ð ¾ÑĢ
Ð¾Ð ´
Ð ¾ÑĤ
Ð» Ð¸
Ð ¶
Ñ İ
Ð¾Ð ¼
Ð½ Ð
Ð½Ð ¾
ÑĤ Ðµ
Ñ Ĩ
Ñ Ī
Ġ Ð¼
Ð¾Ð ³
Ñģ Ðº
ÑĢ Ð¸
Ð½ Ðµ
Ġ Ð½Ð°
Ð» ÑĮ
Ð¾Ð ±
ÑĤ ÑĮ
Ð» Ð°
ÐµÐ½ Ð¸
Ð· Ð°
Ð¾Ð ¹
Ðµ ÑĢ
ÑĤ Ð°
Ðº Ð°
Ġ Ð±
Ñ ī
Ñ Ħ
Ð² Ð°
¾ Ñģ
Ð ¾Ñģ
Ġ Ñĥ
Ð» Ðµ
. \
Ñģ Ñı
ÑĨ Ð¸
Ð» Ñı
¾ Ð½
Ð ¾Ð½
ÑĤ Ð¸
Ġ Ð½Ðµ
n t
Ðº Ð¸
u l
ÑĤ Ð
ÑĤÐ ¾
Ġ Ð³
ÑĢ Ñĥ
Ð ¡
Ð¾Ð³ Ð
Ð¾Ð³Ð ¾
Ġ Ð·Ð°
Ðµ Ð¼
a r
ul l
n ull
Ð¾Ð² Ð°
¾ ÑģÑĤ
Ð ¾ÑģÑĤ
ĠÐ¿ ÑĢ
2 0
Ð¾Ð º
Ġ Ñĩ
Ð¼ Ð¸
Ð´ Ð°
Ġ ÑĢÐ°
Ð Ł
Ñ į
ÑģÑĤ Ð²
Ġ ÑĤ
Ð Ĵ
Ð¾Ð ¶
Ð ļ
Ġ Ð°
Ġ Ð¾Ð±
Ð ŀ
Ġ Ð¾ÑĤ
Ð¾Ð ¿
Ð Ĳ
Ð° Ð½
Ġ Ñį
Ð¾Ð» ÑĮ
e nt
Ñĩ Ðµ
Ġ ÐŁ
â Ģ
w ar
Ð´ Ðµ
Ð² Ð¸
ÐµÐ½Ð¸ Ñı
Ġ ÑģÑĤ
Ġ Ð¡
9 8
ĠÐ¿ ÑĢÐ¸
Ð Ŀ
Ð¼ Ð°
Ġ (
Ġ ÐĴ
ĠÐº Ð°
Ð½Ñĭ Ðµ
Ð ł
Ñĩ Ð¸
Ñģ Ð¸
Ð ľ
Ð¾Ð ·
ĠÐ¿ Ð
ĠÐ¿Ð ¾
ÑģÑĤ Ð¸
Ð½Ñĭ Ñħ
war c
Ġ 1
0 0
ÑģÐº Ð¸
Â »
ĠÐ² Ñĭ
Ñĩ Ð°
Ġ Ðļ
c o
Ð ĺ
, {"
Ñģ Ð¿
Ð½ Ð¾Ð¹
Ð½Ñĭ Ð¹
Ð´ Ð¸
ÑĤÐµ Ð»ÑĮ
Ð ¢
Ġ âĢ
Ðµ Ð¹
a t
i d
e r
ÐµÐ½Ð¸ Ðµ
Ġ ÑĢÐµ
Ð Ķ
Ð½ Ð¾Ð³Ð¾
9 7
Ð½ Ñĥ
ĠÐ´ Ð»Ñı
Ð¶ Ðµ
Ġ Ðµ
Ð¼ ÐµÐ½
ÑĢÐµ Ð´
ĠÐ¸ Ð·
Ġ Ðľ
Ñī Ð¸
Ġ ÑĦ
Ð° ÑĢ
ÑĪ Ð¸
2 2
Ñİ ÑĤ
Ñģ Ðµ
Ð³ Ð
Ð³Ð ¾
Ġ ÐĿ
ÑģÑĤ ÑĮ
9 6
Ð» Ñĥ
Â «
Ġ ÑĤÐµ
Ġ Ðł
nÐ Ł
Ġ Ðŀ
99 8
Ð¶ Ð¸
ÑĤ Ñĭ
Ðº Ñĥ
Ð ĳ
Ð³ Ð°
9 5
¾ Ð¸
Ð ¾Ð¸
Ġ ÐĲ
ĠÐ¿ Ð¾Ð´
o n
Ðµ ÑĢÐµ
i n
Ð¾Ð´ Ð¸
¾ Ðµ
Ð ¾Ðµ
Ð» Ñİ
Ġ Â«
ÑĢ Ñĭ
Ð¿ Ð°
ÐµÑĤ ÑģÑı
Ġ ÑĤÐ°
Ð½Ð° Ñı
Ð³ Ð¸
Ð° Ð²
Ð° Ð¼
Ġ 20
ĠÑĢÐ° Ð·
e n
Ð´ Ñĥ
Ð ķ
ÑĨÐ¸ Ð¸
Ð½Ð¸ Ñı
Ð¼ Ðµ
9 4
Ġ ÐĶ
1 5
1 2
ĠÑĩ ÑĤÐ¾
99 7
Ðº ÑĤ
ÑģÐº Ð°
Ñī Ðµ
ĠÑģ Ð²
Ð ĵ
9 3
ĠÐ¼ Ð°
ĠÐ¿ Ð¾Ð»
e s
Ġ Ð·
Ñģ Ð°
Ð¿ Ð¸
nÐ Ĵ
ÑĢ Ð¾Ð²
Ñĭ Ðµ
Ðº Ð
s h
ÐºÐ ¾
¾ Ñĩ
Ð ¾Ñĩ
co nt
ĠÐ± Ñĭ
ÑĪ Ðµ
Ð² Ðµ
cont ent
\ "
1 7
Ġ Ð¢
1 4
1 6
Ñģ ÑĮ
Ġ Ðĺ
1 3
Ð½ Ð¾Ð²
Ð½Ð¸ Ðµ
Ð· Ð¸
Ð» Ð
Ð»Ð ¾
Ð Ľ
Ðº Ð¾Ð²
ĠÐ¸ Ð½
Ġ Ñħ
i on
u r
1 0
2 5
nÐ ¡
1 8
Ð½Ð¾ Ðµ
ĠÐº Ð¾ÑĤ
Ð» ÐµÐ½
Ġ Ðĳ
Ġ -
¾ Ð½Ð°
Ð ¾Ð½Ð°
Ð¾Ð´ Ð°
ÑĤ Ñĥ
Ð½ Ñı
Ð £
Ð° Ð»ÑĮ
o r
2 3
ÑĢÐ° Ð²
Ð± Ð¾ÑĤ
ÑĤ Ð¾Ð¼
2 4
9 0
Ð» Ð¾Ð²
t y
2 6
ĠÐ¼ Ðµ
ĠÐ¿ ÑĢÐµÐ´
f i
ĠÐ¼ Ð¾Ð¶
Ġ Ð»Ð¸
ĠÐº Ð¾Ð¼
er s
99 6
Ð ¤
2 7
a d
Ð Ĺ
nÐ ļ
ÑĢ Ð¾Ð²Ð°
c at
Ġ Ñı
Ñĭ Ñħ
Ð½ Ð¾Ð¼
ÑĨ Ðµ
ÑĤÑĮ ÑģÑı
3 5
ĠÐºÐ¾ÑĤ Ð¾ÑĢ
ÑģÐºÐ¸ Ð¹
Ðµ Ð·
Ñ ĳ
Ð° Ð¹
e t
ÑĤ Ð¾ÑĢ
8 4
ĠÑĤÐ° Ðº
8 6
ĠÐ¸ Ð»Ð¸
Ð½Ð¾ ÑģÑĤÐ¸
i fi
Ñĥ Ð´
Ñĭ Ð¹
id ent
ĠÐ´ Ðµ
": {"
nÐ ŀ
ident ifi
Ġ Ðĵ
ĠÐºÐ° Ðº
Ð° Ðº
ĠâĢ Ķ
Ð½Ð¾ ÑģÑĤÑĮ
0 4
Ð½Ñĭ Ð¼
Ð² ÐµÑĤ
Ð° Ð»
r e
8 7
ï ¿
ï¿ ½
ĠÐ² ÑģÐµ
0 7
Ð· Ð¾Ð²Ð°
ĠâĢ ĵ
ÑģÑĤÐ² ÐµÐ½
8 5
0 5
ĠÐº Ð¾Ð½
Ñģ Ñģ
ÑģÑĤ Ð²Ð°
ÑĨÐ¸ Ñı
3 6
3 4
ÑĦ Ð¸
Ð± Ð¸
Ðµ Ðº
Ġ Ð¾Ð¿
ĠÑģ Ð¸
0 6
ÑĢÐ° Ð½
ĠÑģ Ð¿
ÑĢ Ñı
ĠÐ¿ÑĢ Ð
ĠÐ¿ÑĢÐ ¾
Ð¶ Ð°
ÑģÐº Ð¾Ð¹
nÐ Ŀ
Ð· Ñĭ
ÐµÐ½ ÑĮ
ĠÐ² Ð°
a l
4 5
Ñĥ ÑĢ
99 5
Ġ Ð¾Ñģ
1 1
Ðº Ðµ
ÑģÐºÐ° Ñı
Ð¾Ð³ Ð¸
ÑģÑĤÐ² Ð
ÑģÑĤÐ²Ð ¾
ï¿½ ï¿½
3 7
¾ Ñı
Ð ¾Ñı
ÑģÑĤ Ð°
. .
ĠÐ¿ Ð¾Ñģ
Ð² ÐµÑĢ
Ñĥ Ñİ
ÐµÐ½ ÑĤ
Ð¾ÑĢ Ð¸
Ñĥ ÑĤ
Ñģ Ð»Ð¸
ÑĢ Ð¾Ñģ
ÑĢ Ð
ÑĢÐ ¾
ĠÐ² Ð¾Ð·
4 4
Ð Ń
ÑĩÐµ ÑģÐºÐ¸
p e
Ġ ÑĢÑĥ
ÑĪ Ð°
Ġ Ð½Ð¸
Ð¾Ðº Ð°
ĠÑį ÑĤÐ¾
Ð¾Ð» Ð¸
Ġ Ð½Ð¾
ĠÐ² Ð¸
Ð» ÐµÐ½Ð¸Ñı
Ñħ Ð¾Ð´Ð¸
ÐµÑĤ Ðµ
Ġ Ð£
ĠÐ¿ ÐµÑĢÐµ
Ġ ÐĽ
Ġ ÑĨ
ĠÑĢÐ° Ð±Ð¾ÑĤ
0 8
ĠÐ¼ Ð¸
ÑĦ Ð¾ÑĢ
2 8
Ġ 3
ur n
Ð¾Ð»ÑĮ ÐºÐ¾
t l
ĠÐ² Ðµ
ĠÐ¸ ÑģÐ¿
Ġ ÐĹ
Ð §
Ð¾Ð» Ðµ
cat ion
ty pe
Ñĥ Ð±
2 1
Ð¾ÑģÑĤ Ð¸
Ġ Ð¤
u id
: \
nÐ Ķ
ÑģÐº Ð¾Ð³Ð¾
7 6
":" <
identifi cation
u uid
} ,"
Ġ Ðķ
e d
tl sh
Ð· Ñĥ
Ð¼ Ñĥ
4 6
ÑĤ ÑģÑı
Ð¾Ð»ÑĮ Ð·Ð¾Ð²Ð°
h e
ĠÐ¿ ÑĢÐµ
Ð»Ðµ Ð¹
ĠÐ¾Ð± ÑĢÐ°
Ðº Ð¾Ð¼
Ñī Ð°
Ñİ ÑīÐ¸
7 5
Ð½Ñĥ Ñİ
0 3
Ð¾Ð± Ñĭ
ÑĨ Ð°
Ð¼ Ñĭ
ÑĤÐ¸ Ð²
": [
ĠÐ´ Ð
ĠÐ´Ð ¾
Ġ Ð¶Ð¸
Ġ ÑĢ
Ġ ÑĪ
ĠÑģ Ðµ
Ð± Ðµ
ÑİÑĤ ÑģÑı
Ġ Ð»Ñİ
Ð¼ ÐµÑĢ
ÑģÑĤÐ² Ð¸
ĠÑĩ Ð°
Ð¾ÑģÑĤ Ð°Ð²
h t
Ð¶ Ð´
Ġ ÑĤÐ¾
Ðµ ÑĢÐ°
Ġ Ð¶Ðµ
ĠÐ¿ Ð¾Ð¼
1 9
Ñħ Ð¾Ð´
a n
> ","
5 5
Ðµ Ð²
ĠÐ¿ ÐµÑĢ
ÐµÐ½Ð¸ Ð¸
Ñ Ĭ
ĠÐ° Ð²
ÑĢÐµ Ð¼
8 3
t o
Ġ ÐŃ
Ð» ÐµÑĤ
ĠÐ´ Ð°
nÐ ľ
ÑĤ Ð¾Ð²
Ð°Ð½ Ð¾Ð²
c e
Ñĥ Ð¿
t e
ÑĢÐ° Ð²Ð¸
nÐ ł
¾ ÑĢÐ°
ÑĤÐµ ÑĢÐ¸
Ð ¾ÑĢÐ°
ÑģÑĤ ÑĢÐ°
ĠÑģ Ð°Ð¼
Ġ \"
l o
ĠÐ´ ÑĢÑĥ
Ð¾Ñģ ÑģÐ¸
ĠÐµ Ð³Ð¾
Ð½Ð¸ Ð¸
Ð ¥
20 22
Ð¾Ð ¾Ð
Ð ¯
ĠÐ¾Ð± Ð»Ð°
Ð¾Ð´ Ñĥ
Ð½Ð¸ Ð¼Ð°
4 7
Ñı ÑĤ
ĠÑģÑĤ Ð°
Ðµ Ð´
ĠÑģ Ð
ĠÑģÐ ¾
ĠÐĿ Ð°
Ġ Ð½
s ent
6 6
Ġ Ð¾Ð´
Ð¾Ð³ ÑĢÐ°
Ġ 2
ÐµÐ½Ð¸ Ð¹
ĠÐ´ Ð¸
Ð» ÐµÐ½Ð¸Ðµ
sent en
Ġ 5
; \
/ /
Ð¾Ð± Ð¸
Ñģ Ñĭ
a g
4 3
ÑĤÐµ ÑĢ
in g
Ð¾Ð¾Ð ±
Ð¾ÑģÑĤ Ð°
Ð½Ñĭ Ð¼Ð¸
Ġ S
Ðµ ÑģÐ¿
ĠÐ± Ð¾Ð»ÑĮ
Ġ Ð¾Ð½
t h
ĠÐ¿Ð¾Ð» Ñĥ
Ġ Ð§
ĠÐ¼Ð¾Ð¶ Ð½Ð¾
ĠÑį ÑĤ
Ð¸ Ð½
6 5
Ð» Ð¾Ð¶
ĠÐ± ÐµÐ·
ĠÐ¿ Ðµ
Ð½Ð¸ ÐºÐ°
ĠÐ´ Ð¾Ð»
Ġ Ð½Ð¾Ð²
Ġ Ð»Ðµ
Ð¾Ð¸ Ð·
Ð± Ð°
ĠÑģ Ð»Ñĥ
i g
Ð¶ ÐµÐ½
Ð² Ñĭ
ĠÐ¿ Ð°
t p
ĠÐł Ð¾ÑģÑģÐ¸
nÐ Ĳ
nÐ ĺ
Ð ¨
8 8
Ñĥ Ñģ
ĠÐ´ Ð°Ð½
Ð¼ Ð¾Ð¶
ht tp
: //
c k
0 9
- -
7 7
Ð»Ðµ Ð´
Ð¼ Ð¾ÑĤ
Ð½Ð¸ Ðº
nÐ ¢
Ð¿ ÑĢÐ°Ð²
Ġ Ð¾ÑĢ
ÑĤ Ð¾Ð±Ñĭ
ĠÑģ Ñĥ
ĠÐ¿ Ð»Ð°
Ðº Ð¾Ð½
ĠÐ³ Ð¾ÑĢ
¾ Ð½Ð¸
) \
Ð¾Ð³ Ð´Ð°
Ð ¾Ð½Ð¸
ÑĢ Ð¾Ð¼
ÐµÑĤ Ð¸
ĠÐ² ÑĢÐµÐ¼
he ad
ĠÐ· Ð½Ð°
ĠÑĦ Ð¸
0 1
Ð¾Ð» Ð¾Ð³Ð¸
0 2
en g
Ġ C
ÐµÑĤ Ð°
Ð½Ð¸ Ð¹
ĠÐ± ÑĥÐ´
e g
Ġ 4
ĠÐ¿ Ð¾ÑĤ
Ð³ Ñĥ
Ðº Ð¾Ð¹
Ð²Ð° ÑĤÑĮ
ĠÐ¸ Ð³
ĠÑĩ Ðµ
es t
Ð¸ ÑĤÐ°
p p
ĠÐ¿ Ð¾Ð²
3 3
ÑĢ ÐµÐ½
ÐºÐ° Ð·Ð°
Ñĩ Ð½Ð¾
ĠÐ¿ÑĢ Ð¾Ð²
ĠÑģ Ð°Ð¹
Ġ Ð¾Ðº
ĠÑĤ Ð¾Ð»ÑĮÐºÐ¾
ĠÐ¼Ð¾Ð¶ ÐµÑĤ
Ñħ Ð°
Ð¾Ð½Ð° Ð»ÑĮ
ÑĦÐ¾ÑĢ Ð¼Ð°
ĠÑĥ Ñģ
s t
ÑĢÐµ Ñģ
Ð¼ Ð
99 9
Ð¼Ð ¾
ÑĤÐµ Ð»Ñı
ĠÐº Ñĥ
Ð° Ð·
ĠÐ¸ Ñħ
Ð° Ñģ
Ð½Ðµ Ð¹
Ð¾ÑĤ Ð¾Ð²
Ð¾ÑģÑĤ ÑĮ
Ð» Ñĭ
ĠÑģ Ð¾Ð²
ÑĤÐµÐ»ÑĮ Ð½Ð¾
ÑĨÐ¸ Ð°Ð»ÑĮ
n g
99 4
Ñĥ Ð½
Ð¾Ð´ Ðµ
ĠÑĥ ÑģÑĤ
Ð² Ð»Ñı
Ð¾ÑĢ Ð
Ð¾ÑĢÐ ¾
i es
Ð¶ Ð½Ð¾
Ġ Â»
q u
ĠÑĦ Ð¾ÑĢ
B D
Ð¿ ÑĢÐ¸
Ð¾ÑĤ Ð¸
Ð»Ð° Ð²
Ð´ Ñĭ
5 6
ĠÐ¼ Ñĭ
Ð¿ Ñĥ
ĠÐ± Ñĥ
Ġ A
ag e
Ð»Ðµ Ðº
Ð¿ Ð¾Ð»
Ð»Ðµ ÐºÑĤ
ÑĢ ÑĮ
Ðº Ð»Ñİ
B E
at e
ÐµÐ¼ Ñĥ
p la
ÑĢÐµ Ð±
Ñĩ ÐµÐ½
¾ ÑģÐº
Ð ¾ÑģÐº
Ð° Ð»Ð¸
co n
ÑĨÐ¸ Ð¾Ð½
ĠÑĤÐ°Ðº Ð¶Ðµ
D E
al i
Ð± Ð
Ð±Ð ¾
Ñģ Ð¾Ð²
Ð± Ð¾ÑĢ
Ðµ Ð»
ĠÐº Ð¾ÑĢ
Ð¹ ÑĤÐµ
nÐ Ĺ
? \
at a
ĠÐº ÑĢÐ°
Ð± Ñĭ
ĠÑģÑĤ ÑĢÐ°
x t
Ð ¦
Ġ M
Ð² Ð¾Ð´
ĠÑģ Ð¾Ð±
Ð¾Ð»Ðµ Ðµ
h ar
Ġ Ð½Ñĥ
b lo
ĠÑĩ ÑĤÐ¾Ð±Ñĭ
ÑĢÐ° Ðº
ĠÐ¼ Ñĥ
m et
Ð½ Ð³
ru s
E F
Ġ â
t ar
Ġ P
Ñı Ð·Ð°
Ñĩ ÐµÐ½Ð¸Ðµ
Ð´ ÐµÑĢ
ĠÐ¿ÑĢ Ð¾Ð¸Ð·
} }
g et
2 9
ĠÐ±ÑĥÐ´ ÐµÑĤ
ĠÐ³ Ð¾Ð´Ð°
co r
re f
Ñĩ ÐµÐ½Ð¸Ñı
Ð¾Ð¼ Ñĥ
Ð· Ð½Ð°
Ġ Ð¥
ur i
eg or
v ers
7 4
cat egor
sh a
ÑĤÐ¸ Ñı
nÐ ĵ
te xt
l eng
ing s
6 4
Ð¸ ÑĤÑĮ
B C
nÐĿ Ð°
blo ck
ĠÑĢÐ° Ñģ
leng th
ĠÐ° Ðº
nÐ ĳ
ĠÐºÐ¾ÑĤÐ¾ÑĢ ÑĭÐµ
d ate
m f
ÐµÐ½Ð¸ Ñİ
cor d
Ġ |
3 8
d ig
ĠÐ´ Ð¾Ð¼
ÐµÐ½ Ð°
ĠÐ²ÑĢÐµÐ¼ Ñı
ali ty
Ðº ÑĢÐ°
ÑĨÐ¸ Ñİ
la ng
3 0
tar get
http s
vers ion
re cord
qu ality
u age
categor ies
pla in
war n
dig est
ad ata
head ers
] }}
lang uage
met adata
con version
senten ce
warn ings
mf ul
har mful
ref ers
identification s
" },"
ĠÐ¿ Ð¾Ð·
ÑĨ Ñĭ
Ðº ÑĢÑĭ
identifi ed
ĠÐļ Ð°
ÑģÑĤ ÐµÐ¼
ÑĢ Ð¾Ðº
ÑĮ Ñİ
Ð´Ð° ÑĢ
B F
ĠÑĤÐµ Ñħ
Ð¿ Ðµ
ÑģÑĤÐ² Ñĥ
ÑģÑĤ Ð°Ð²
ĠÐ¸ÑģÐ¿ Ð¾Ð»ÑĮÐ·Ð¾Ð²Ð°
) ,
ÑĢ Ð¾Ð¹
Ð¸ Ð¼
":[ {"
ĠÐ¼ Ð¾Ð³
ĠÐµ ÑģÐ»Ð¸
ÑĢÐ° Ð¶
Ð½Ðµ Ðµ
.. .\
Ð¼ÐµÐ½ ÑĤÐ°
ĠÐ¾ÑĢ Ð³Ð°
ï¿½ï¿½ ï¿½ï¿½
} ]}}
ĠÐ¿ Ð¸
ĠÐĹ Ð°
ÐµÐ½Ð¸ ÐµÐ¼
Ð³ Ð¾Ð´
Ð² Ñĥ
Ġ 6
ĠÐŁ ÑĢÐ¸
¾ Ð½Ðµ
Ð ¾Ð½Ðµ
5 4
Ð» ÑģÑı
ĠÑģ ÑĢÐµÐ´
ĠÑį ÑĤÐ¾Ð¼
ÑĤÐµ Ð»ÐµÐ¹
Ð¾Ð± ÑħÐ¾Ð´Ð¸
Ð¾ÑģÑĤ Ð¾Ñı
ĠÐ¿ Ð¾Ðº
Ñģ Ñĥ
¾ Ñī
Ðº Ð»Ð°
ĠÐ±Ñĭ ÑĤÑĮ
8 0
ĠÐ² Ð
ĠÐ²Ð ¾
Ñı Ð±
ĠÐ¾Ð± ÑĬ
ÑĥÐ± Ð»Ð¸
ĠÐ² Ñģ
ĠÐ¼ ÐµÐ½
Ð ¾Ñī
ĠÐ¸ Ð¼
Ñģ ÑģÐ¸
ĠÐ¿ Ð¾ÑĢ
nÐ £
Ð·Ñĭ Ð²Ð°
ÑĢÐ° Ð»ÑĮ
i l
6 7
Ġ T
ĠÐ¸Ð½ ÑĦÐ¾ÑĢÐ¼Ð°
ĠÐĴ Ñĭ
Â» ,
c h
ĠÐ¼Ð° ÑĤÐµÑĢÐ¸
Ð ĸ
ĠÐºÐ¾Ð¼ Ð¿
Ð½Ð¸ ÐºÐ¸
ĠÐ°Ð² ÑĤÐ¾Ð¼
Ġ Ð¯
Ð´Ðµ Ð»Ð°
ĠÑį Ðº
ÑĢÑĥ Ð¿
Ð»Ðµ Ð´Ñĥ
" ]
":[ "
"] ,"
Ñħ Ð¸
i t
ĠÐ½Ðµ Ð¾Ð±ÑħÐ¾Ð´Ð¸
a m
_ _
ĠÐ»Ñİ Ð±
ĠÑĢÑĥ Ð±
ĠÑı Ð²Ð»Ñı
ÑĦ Ðµ
6 8
ÐºÐ¸ Ðµ
9 2
Ð¾Ð¼ Ð¸
ÑģÑĤ ÑĢÑĥ
ĠÑģÐ»Ñĥ ÑĩÐ°
ĠÑģÐ¿ Ðµ
Ð» Ð¾Ñģ
ĠÐ¸ Ð¼Ðµ
nÐ §
Ð»Ð¸ ÑģÑĮ
ÑĤ ÑĢÐ°
ÑģÐº Ð¾Ðµ
Ġ B
5 7
Ð¾Ð¶ Ð¸
ĠÐ¿ Ð¾Ð¿
ÑĤÐµ Ð»Ð¸
Ð¾Ð· Ð´Ð°
ĠÐ¿ÑĢ Ð¾ÑģÑĤ
Ð´ ÐµÐ½
ĠÐ²Ð¾Ð· Ð¼Ð¾Ð¶
ÑĢ Ð¾Ð´
ĠÑģÐ¸ ÑģÑĤÐµÐ¼
Ð»Ñĥ Ñĩ
ĠÐłÐ¾ÑģÑģÐ¸ Ð¸
D F
ĠÑģÐ² Ð¾Ð¸
o o
Ð¾Ð» Ñı
ĠÑģ Ð°
Ġ Ð»ÐµÑĤ
6 3
) .
nÐŀ ÑĤ
Ñĭ Ð¼
5 3
ĠÐµ ÑģÑĤÑĮ
! \
ĠÐ² ÐµÑĢ
ÑĤ ÑĢÐ¸
ĠÐ¾ÑĢÐ³Ð° Ð½Ð¸
ÑĢÐµ Ð´Ðµ
ĠÐºÐ° ÑĢ
ĠÐ± Ð¾Ð»ÐµÐµ
ĠÐºÐ¾Ð¼ Ð¿Ð°
¾ Ñħ
Ġ I
99 3
Ġ Ð¨
Ñī ÐµÐ½Ð¸Ñı
Ġ Ð¾Ñĩ
ÑĢÐ° ÑĤÑĮ
ÑĩÐµÑģÐºÐ¸ Ðµ
Ð´ Ð¾Ð²
Ð¾Ñģ Ð¾Ð±
ĠÑĩÐµ Ð»Ð¾Ð²
ÑĢÐ¾Ð²Ð° Ð½
ĠÐ´ÑĢÑĥ Ð³Ð¸
4 8
ÑģÑĤ Ð
4 0
Ġ20 22
ÑģÑĤÐ ¾
Ð¾Ð¿ ÑĢÐ¾Ñģ
Ġ1 0
ÑģÐºÐ¸ Ðµ
Ñı Ð²
ĠÑĢÐ° ÑģÐ¿
ÑĪ ÐµÐ½Ð¸Ñı
ĠÐ½Ð° ÑĩÐ°
Ñģ Ð¾Ðº
Ð¾ÐºÐ° Ð·Ð°
Ð¾Ð³ Ð°
ÐµÐ½ Ñĭ
ĠÑĥ ÑĩÐ°
ĠÐ´ ÐµÑĤ
Ð¾Ð³ Ð»Ð°
ĠÑĤÐµ Ð¼
ĠÑģ Ð¾Ð¾Ð±
Ġ ÑĨÐµ
Ð³ Ð¾Ð²
ÑĢÐµ Ð¼ÐµÐ½
Ð¸ Ñģ
Ñı Ñħ
Ð½Ð¸ ÐºÐ¾Ð²
9 1
ĠÑģ ÐµÑĢ
ÑĢ Ð¾Ð±
ÑģÑĤ Ðµ
l e
ĠÐ° Ð´
Ð¾Ð²Ð° Ð½Ð¸Ñı
ĠÐ¼ ÐµÑĤ
or t
ÑĢ Ð¾Ð¸
ĠÐ± Ð¸
Ġ R
Ð¾Ñģ Ñĥ
ĠÐ½Ð° ÑģÑĤ
ĠÐ¿Ð¾Ñģ Ð»Ðµ
Ð¾ÑĢ Ð¾Ð²
98 5
Ġ 7
ĠÐ¾Ð±Ð»Ð° ÑģÑĤÐ¸
ÐºÐ¸ Ñħ
Ġ G
Ġ Ð¾Ð½Ð¸
Ñĩ ÐµÑĤ
ĠÐŀ Ð±
ĠÐ¿ ÑĢÐ°Ð²
Ð¹ Ð½
ĠÑģÐ² Ð
ĠÑģÐ²Ð ¾
Ð¾Ðº Ñĥ
Ð² Ð¾Ð´Ð¸
Ð»Ð¾Ð² Ð¸
ĠÐ¿ Ð°ÑĢ
ÑĪÐ¸ Ñħ
i s
ĠÐ´ ÐµÐ¹
ĠÐ¼ Ð½
Ð¾Ð»ÑĮ Ð·Ñĥ
Ð¾Ð ¾ÑĤ
Ð½ ÑĮ
ĠÑĥ Ð¶Ðµ
ĠÐ¿ Ñĥ
ĠÐ¾Ñĩ ÐµÐ½ÑĮ
Ġ /
ĠÐ¿ ÑĢÐ°Ð²Ð¸
ĠÑģ Ð¾Ð·Ð´Ð°
Ð³ Ð¾ÑĤÐ¾Ð²
ĠÐºÐ° ÑĩÐµ
F E
Ð»Ð¸ ÑĩÐ¸
ÑĢ Ð¾Ð¿
ĠÐ¿ÐµÑĢ Ð²
Ð ¾Ñħ
Ð»ÑĮ ÑĤÐ°
ĠÑĩ ÐµÐ¼
7 3
ÑĢÑĥ Ð´
ÑĩÐµÑģÐºÐ¸ Ñħ
ÑģÐºÐ¸ Ñħ
ĠÐ´ ÐµÐ½ÑĮ
Ð¼ ÐµÑĤ
i c
ÑĢÐµ Ð´Ð¸
ĠÑĤ Ð¾Ð¼
ÑĪ ÐµÐ½
Ð»Ð° ÑģÑĮ
Ġ L
Ð²Ð° ÐµÑĤ
8 2
Ð» Ð¾Ð¼
ĠÐľ Ð°
Ð¶ Ð´Ñĥ
ĠÑĤ Ð¾Ð³Ð¾
Ð»ÑĮ Ð½Ð¾
ÐºÐ° Ð¼Ð¸
Ġ D
4 2
Ðµ Ð»ÑĮ
Ħ ĸ
ÑĢÐ° Ð·
ÑĨÐ¸ Ð¹
ĠÐ½Ð° Ñģ
Ð½ ÐµÑĤ
Â Ń
w w
Ðµ Ð´Ðµ
nÐ ķ
ĠÐ¼Ð¾Ð³ ÑĥÑĤ
Ð¾ÑĢ ÑĤ
Ð¾Ð³ÑĢÐ° Ð¼
ĠÐľ Ð¸
00 00
ĠÐ² Ð¾Ð¿ÑĢÐ¾Ñģ
ĠÑģ Ð»ÐµÐ´Ñĥ
Ð»Ð° ÑĤ
ĠÑį ÑĤÐ¸
ĠÐ´Ðµ Ð»Ð°
ĠÐ¶Ð¸ Ð·
Ð»Ð¸ Ñĩ
m a
ÑĢ Ð¾Ð½
Ð¼Ð¸ Ð½Ð¸
Ð²Ð° ÑĢ
ĠÑįÑĤ Ð¾Ð³Ð¾
Ð¾Ð´ Ñĭ
ĠÑģ Ðº
ĠÐ± Ð°
ĠÑĢÐµ Ð³Ð¸
Ð ®
E E
Ð²Ðµ Ð´
ÑĤÐ¾ ÑĢÐ°
5 8
ĠÑį Ð»ÐµÐºÑĤ
Ġ Ð¦
ÑĢÐ° Ð±Ð¾ÑĤ
Ð»Ð¾Ñģ ÑĮ
Ġ F
Ð¾Ð³ Ð¾Ð²
ÑĩÐ¸ ÑĤÑĮ
r a
ÑģÑĤÐ² Ðµ
ĠÐ¿ Ð¾ÑģÑĤ
Ð² Ð
Ð²Ð ¾
nÐĹ Ð°
ĠÐ² Ð¾Ñģ
ĠÐ±Ñĭ Ð»Ð¾
ĠÐķ ÑģÐ»Ð¸
ĠÐĴ Ð°
Ð»Ð¸ Ñı
Ð½ Ð¾Ð²Ð°
ĠÐ½Ñĥ Ð¶Ð½Ð¾
ÑĩÐ¸ ÑĤÐ°
Ð¿ ÑĢÐµ
ĠÐ¾ÑĤ Ð½Ð¾
Ġ Ð¶
ÑĪ ÐµÐ¹
Ġ N
ĠÐ¿Ð¾ Ñĩ
Ġ E
Ð° ÑĤ
00 0
Ð¾Ð¶ Ðµ
ÑģÐº Ð¾Ð¼
Ð½Ð¾Ð¼ Ñĥ
ĠÐµ Ðµ
c es
Ð²Ð¸ ÑĤÑĮ
ÑĢÐ¸ Ñı
ĠÑģÐ¿ Ð¾ÑģÐ¾Ð±
d e
Ġ H
ĠÐºÐ¾ÑĤÐ¾ÑĢ ÑĭÐ¹
ĠÐ¿ÑĢÐ¾ ÑĨÐµ
ĠÑĨ Ð²ÐµÑĤ
ÑĢÐ¾Ð²Ð° ÑĤÑĮ
4 1
Ð½Ð¾ÑģÑĤÑĮ Ñİ
8 1
ĠÑĢÐ°Ð±Ð¾ÑĤ Ð°
Ð²Ð° Ð½Ð¸Ñı
ÑĦ ÐµÑĢ
ÑĪ ÐµÐ½Ð¸Ðµ
ĠÐ½Ð° Ð´
ĠÐĿ Ðµ
Ð¼Ð¸Ð½Ð¸ ÑģÑĤÑĢÐ°
Ð¾ÑĤ Ð°
ĠÑĥÑģÑĤ Ð°Ð½Ð¾Ð²
Ġâ Ħĸ
Ġ Ð»ÑĥÑĩ
ĠÑĤ Ð¾Ð²Ð°
ÐºÐ° Ñħ
ÑīÐµ ÑģÑĤÐ²
ĠÑģ Ð´ÐµÐ»Ð°
ĠÐľ Ð¾ÑģÐº
Ð¾ÑģÑĥ Ð´Ð°ÑĢ
ĠÐ¸ ÑģÑĤ
ÑİÑīÐ¸ Ðµ
ĠÐº Ð¾Ð³Ð´Ð°
5 0
ÑĮ Ñı
ĠÐ¾Ñģ Ð½Ð¾Ð²
Ð¿ ÐµÑĢ
ĠÐ´ Ð¾ÑģÑĤ
ÑĤÐ¾ÑĢ Ð¸
Ð± Ñı
Ð»Ð° Ð½
Ð¾Ð¾ÑĤ Ð²ÐµÑĤ
ĠÐ¾Ð¿ ÑĢÐµÐ´Ðµ
ĠÐĺ Ð½
ĠÐ¿ÑĢ Ð¾Ðµ
ĠÑĢÐ° Ð¹
ĠÑģÑĤ Ð¾Ð¸
Ñī ÐµÐ¹
ĠÑĢÐ°Ð±Ð¾ÑĤ Ñĭ
âĢ ¦
Ð¾Ð½ ÑĤÐ°
nÐŁ ÑĢÐ¸
ĠÐ¾ÑĤ Ð²ÐµÑĤ
ÐµÑĢÐµ Ð·
ÐºÐ° Ð·
Ð¾Ð²Ð° Ñı
ĠÑıÐ²Ð»Ñı ÐµÑĤÑģÑı
Ð½Ðµ Ñģ
ÐµÐ½ ÑĤÐ°
ĠÐĿ Ð¾Ð²
ÑĢÐ° Ñģ
Ð» Ð¾Ðº
ĠÐºÐ° Ð¶Ð´
ÐºÐ° Ð½
nÐ Ń
Ð´Ðµ Ð¹
ĠÐ² Ð°Ð¼
Ñĥ Ð¼
Ð¾Ð» Ð¾Ð²
Ġ 0
c t
Ġ 8
ĠÐ¿ÑĢ Ð¾Ð±
Ñı ÑĤÑĮ
nÐ Ľ
Ð½Ð¸ Ñİ
Ð´Ð¸ Ð½
ĠÐŃ ÑĤÐ¾
ĠÐ¿Ð¾Ð» Ð¸
nÐļ Ð°Ðº
ĠÐµ ÑīÐµ
ÑĩÐµ ÑģÐºÐ¸Ð¹
Ð»Ðµ Ð¼
ÑĪ ÐºÐ¸
Ðµ ÐºÐ°
Ð³ ÑĢÐ°
Ð¾Ð¿ Ð¾Ð»
Ġ Ð¾ÑģÑĤ
ĠÐ²Ð¸ Ð´Ðµ
Ð «
Ð¾ÑģÑĤÐ°Ð² Ð»Ñı
ĠÑĤ ÑĢÐµÐ±
ĠÐ¿ÐµÑĢ Ñģ
Ð± Ñĥ
ĠÐ¿ Ð¾Ð»ÑĮÐ·Ð¾Ð²Ð°
Â» .
ÑĪÐµ Ð³Ð¾
Ð·Ð° ÑĨÐ¸Ð¸
Ñĥ Ð¿Ð°
u s
3 9
ĠÑĥÑģ Ð»Ð¾Ð²Ð¸
ĠÑģÐ² Ñı
3 1
ĠÐ·Ð° ÑīÐ¸
D A
ÑĪ ÑĮ
ĠÐ² Ð·
Ð¾Ð´ ÐµÑĢ
Ġ s
ÑĨ ÐµÐ½
ĠÐ´Ð°Ð½ Ð½ÑĭÑħ
98 7
ĠÐ¸Ð½ ÑĤÐµÑĢ
ĠÐ¿ÑĢ Ð¾Ð´Ñĥ
Ð½Ð¾ ÑģÑĤ
ĠÑģ Ð¾Ð³Ð»Ð°
ĠÑĤÐµ Ð»Ðµ
ĠÐ±Ñĥ Ð´Ñĥ
ĠÐ¸Ð½ ÑĤÐµ
nÐ ¤
ĠÐº Ð¾Ð»
ĠÑģ Ð¾Ð¾ÑĤÐ²ÐµÑĤ
sh ort
ÑİÑīÐ¸ Ñħ
Ġ Ðĸ
Ð»ÐµÐº Ñģ
ĠÐº Ð»Ð¸
ÑģÑĤ ÐµÑĢ
ĠÐ´Ð¾Ð» Ð¶
Ð½Ñĥ ÑĤ
F A
ĠÐ´ Ð¾Ð±
Ñī ÐµÐ½Ð¸Ðµ
senten ces
ĠÐ¾Ð±Ð»Ð° ÑģÑĤÑĮ
Ðº ÑĨÐ¸Ð¸
ÑĩÐµ ÑģÐºÐ¾Ð¹
ĠÐĿ Ð
ĠÐĿÐ ¾
ĠÐ½ ÐµÑĤ
Ð²Ð° ÐµÑĤÑģÑı
o l
Ð²Ð° Ñı
Ġ ÑĢÑĭ
Ðº Ð¾Ð»
6 2
a s
ĠÑĢÐ°Ð· Ð²Ð¸
ĠÑĤÐµ ÑĢ
ĠÑģ Ð¼
ĠÐ± ÐµÑģÐ¿
3 2
ĠÑģÑĤÐ° ÑĤÑĮ
Ġ Ð»Ð°
Ð´ ÐµÑĤ
ÑıÐ± ÑĢÑı
Ð»Ð° Ð¹Ð½
B A
Ð»ÑĮ Ð½ÑĭÐ¹
ÑĪÐ¸ Ðµ
Ñī ÐµÐ½
Ð½Ðµ ÑĢ
99 93
Ð¶ Ð´Ð°
ĠÐº Ð»Ð°
Ñĥ Ð¼Ð°
ĠÂ» Â»
99 95
Ð¾Ð· Ð½Ð°
ÑīÐµ Ð³Ð¾
ĠÐ±Ñĭ Ð»
Ð³ Ð¾ÑĢ
Ġ p
co m
ĠÐ¿Ð¾Ð· Ð²
Ġ W
ĠÐ° ÑĢ
ĠÐ½Ðµ ÑģÐº
ĠÐŀ ÑĤ
ÑģÑĤÐ²Ð¸ Ñı
ĠÐ³ Ð¸
t er
Ð²Ð° ÑİÑĤ
Ð» ÐºÐ¸
Ð¿Ð¸ ÑĤÑĮ
¾ ÑĢÐµ
ÑģÑĤ ÑĢÐµ
ĠÐ¸ÑģÐ¿ Ð¾Ð»ÑĮÐ·Ñĥ
Ð ¾ÑĢÐµ
ÐµÐ½ Ðµ
ĠÐĶ Ð»Ñı
99 96
ĠÐ¸ ÑģÐº
Ð» ÐºÐ°
. ","
Ġ Ð»
98 6
ĠÐŁ Ð
Ð¾ÑĤÐ¸ Ð²
5 2
ĠÐ¿ÑĢ Ð¾Ð³ÑĢÐ°Ð¼
ĠÑģ ÐµÐ¼
ĠÐŁÐ ¾
ĠÐ¿ÑĢ Ð¾Ð´
ĠÑħ Ð¾ÑĢÐ¾
8 9
Ð¾ÑĤ Ð¾ÑĢ
ÑĤÐ¾Ð¼ Ñĥ
ÑĢÐµ ÑĤÑĮ
Ð¾Ð»Ð¸ ÑĩÐµ
Ñı Ð½
Ñħ Ð¾Ð²
ĠÑĩ ÐµÑĢÐµÐ·
ĠÐ´Ð° Ð¶Ðµ
ÑħÐ¾Ð´Ð¸ ÑĤ
ÑĤ ÑĢ
Ð¿Ð¸ ÑģÐ°
5 9
Ð¾Ð²Ð° ÑĤÑĮ
ĠÑĤ Ñĭ
ĠÐ´Ð¾Ð¼ Ð°
99 94
Ð½Ð¸ ÑĤÐµÐ»ÑĮ
Ġ Ð¾Ð½Ð°
4 9
Ð¾Ð²Ð° Ð½Ð¸Ðµ
C A
ĠÐ¾Ñģ Ð¾Ð±
ĠÐ²ÑģÐµ Ñħ
ĠÐ²ÑģÐµ Ð³Ð¾
nÐŁ Ð¾Ð´
Ġ ÑĤÐ¸
ĠÐ² Ð»Ð°
ĠÐĿ Ð¸
ĠÐ¼Ð¾Ð¶ ÐµÑĤÐµ
a b
Ð´Ð° Ð½
âĢ Ķ
Ð¼ Ð¾ÑģÑĤÐ¸
E A
ÑĢÐ° ÑĤ
Ð²Ð° Ð½Ð¸Ðµ
Ñį ÑĤÐ¾Ð¼Ñĥ
ĠÑĥÑģ Ð»Ñĥ
6 0
ĠÑģÐ»ÑĥÑĩÐ° Ðµ
ĠÑĥ Ð´Ð°
Ð° ÑĤÐ°
ÑĢ Ð¾ÑģÑĤ
Ð¿ Ð»Ð°
Ð½Ð¸ ÑĤÑĮ
ĠÐ³ Ð¾Ð´
6 1
F F
Ð»Ñı ÑĢ
o v
ÑĩÐµ ÑģÐºÐ¾Ð³Ð¾
ĠÐ±Ð¾Ð»ÑĮ ÑĪÐµ
Ġ t
Ð»Ð¸ Ð½
) .\
ĠÐ³ Ð¾ÑģÑĥÐ´Ð°ÑĢ
Ð¾ÑĤ Ð
ĠÐ³ ÑĢÐ°
Ð¾ÑĤÐ ¾
ÑģÑĤ Ñĭ
ĠÐº Ð¸
ĠÐ¾Ð± ÑıÐ·Ð°
ĠÐ½Ðµ Ð´
ĠÐ¾ÑĤ ÐºÑĢÑĭ
ÑīÐ¸ Ðµ
r i
Ð¾ÑĤ Ðµ
ĠÐĴ ÑģÐµ
Ġ1 5
ÐµÑģÐ¿ Ðµ
ÐµÑĤ Ñĭ
7 8
Ġ [
Ð² Ð¾ÑĢ
Ðº ÑĤÑĭ
Ð½Ð° Ð»Ð¸
Ð°Ð½ Ð´
Ġ Ð¾Ð´Ð¸
Ġ Ð¶ÐµÐ½
ĠÑĢÐ° ÑģÑģ
ÑīÐ° Ñı
ĠÐ³ Ð¾Ð´Ñĥ
ÑĨÐµ Ð²
7 1
Ð¼ÐµÐ½ÑĤÐ° ÑĢÐ¸
ĠÐ·Ð° ÐºÐ¾Ð½
ÐºÐ»Ñİ ÑĩÐ°
ĠÐ³ Ð°
ĠÐ¿Ð¾Ð¼ Ð¾Ñī
ĠÐ¼ Ð°ÑĢ
ĠÐ´ Ð¾ÐºÑĥ
Ġ V
ĠÐ¼Ðµ Ð¶Ð´Ñĥ
ÐºÑĤ Ð¾Ð²
ÑīÐ¸ Ñħ
.. .
Ð¡ Ð¢
Ð¾Ð» Ð¾Ñģ
Ð¿ Ñĭ
nÐĴ Ñĭ
ÑĩÐ¸ Ð½Ð°
ÐºÐ¸ Ð¹
ÑĦ ÐµÐº
ÑĤÐ¸ Ðµ
Ð¹ ÑĤÐ¸
ĠÐ´ÑĢÑĥ Ð³
ĠÐ¾ÑĤ Ð´Ðµ
nÐŀ Ð±
Ð² Ð¾Ð·
ĠÐ¿ÑĢ Ð¾Ñģ
ĠÐ²Ñĭ Ð¿Ð¾Ð»
ĠÐ³ Ð´Ðµ
ĠÑĦ Ð°
ĠÐ¾Ð± ÐµÑģÐ¿Ðµ
Ð¸ ÑĤ
ĠÐ¾Ð±ÑĢÐ° Ð·Ð¾Ð²Ð°
Ð½Ð¸ ÐµÐ¼
Ð³ Ðµ
ĠÐ¤ ÐµÐ´Ðµ
ĠÐ¿ÑĢÐ¸ Ð¼ÐµÐ½
ĠÐ²Ð° Ñģ
ÐºÑĤ Ñĥ
Ð²Ð¸ ÑģÐ¸
ÐºÐ¸ Ð¼
o m
99 90
ÐºÐ° Ñı
Ð»ÑĮ Ð½ÑĭÐµ
Ð¼ ÐµÐ½Ð¸
¾ ÑĦÐ¸
ĠÑģ Ð»
ĠÐ¼ÐµÐ½ Ñı
ÑģÐ¿ Ðµ
Ð° ÑĢÐ°Ðº
Ð»ÑĮ Ð½Ð¾Ð³Ð¾
ĠÐ¼ Ð¾Ð»
ĠÐ¢ Ð°Ðº
Ð½ Ð¾Ð»Ð¾Ð³Ð¸
Ð ¾ÑĦÐ¸
ĠÑģÐµ Ð±Ñı
Ġ Ñİ
ÑĤÐ¸ ÐºÐ°
Ð³Ð° Ð·Ð¸
Ð·Ñĥ Ð»ÑĮÑĤÐ°
ÑĦ Ð¾Ð½
Ð Ļ
ĠÐ¿ÐµÑĢÑģ Ð¾Ð½Ð°Ð»ÑĮ
ÑģÑĤ ÑĢÐ¸
ĠÑĤ ÑĢÑĥ
i e
ĠÑĢÐµ Ð·ÑĥÐ»ÑĮÑĤÐ°
ĠÐ²Ñĭ ÑģÐ¾Ðº
ÑĢÑĥ Ð·
Ð¼ÐµÐ½ ÑĤ
Ñı Ð¼
ÐºÑĤ Ð¾ÑĢ
Â» \
5 1
Ġ Ð®
Ð´ ÑĮ
ÑĩÐµ ÑģÐºÐ°Ñı
Ð ¬
ÑĨ Ñĥ
99 97
98 8
ĠÐ´ Ð²Ð¸
ĠÑĨ ÐµÐ½ÑĤ
b e
Ð¾Ð¿ Ð¸
ĠÐ¿ÑĢÐµÐ´ ÑģÑĤÐ°Ð²
Ñģ Ð»Ñĥ
. ,
6 9
ĠÐ³ Ð¾Ð²
Ġ1 2
Ð¶ ÐµÐ½Ð¸Ñı
ĠÑĦ ÑĥÐ½
Ð² Ð¾Ð¹
u k
Ð²Ðµ ÑģÑĤ
ĠÑĥ Ð³
Ð¿ ÐµÑĢÐ°
ĠÑģÑĤ Ð°Ð½
Ð° ÑĤÐ¸
ĠÐ³ ÑĢÑĥÐ¿
ĠÐ·Ð° Ð±
-- --
Ð½Ð¸ Ð¼
Ġ +
ĠÐ¾Ð± Ð¾ÑĢ
ĠÑĤ Ñĥ
ÑģÑĤ Ð°Ð½
ÑģÑĤÐ²Ð¸ Ðµ
ĠÑĥÑĩÐ° ÑģÑĤ
ĠÑĤ Ð¾ÑĢ
Ñĥ Ñĩ
ĠÐ¿Ð¾Ñģ Ð»ÐµÐ´
ĠÐł Ð°
ÑĤÐ¾ Ñĩ
Ð½ ÐµÐ½Ð¸Ñı
ĠÐ½Ð¸ Ñħ
Ġ ÑĢÐ¸
ĠÑģ Ð¾Ð´ÐµÑĢ
ĠÑĥ Ð¿ÑĢÐ°Ð²
ĠÐ¾Ð½ Ð»Ð°Ð¹Ð½
ÑİÑīÐ¸ Ð¹
ÑĩÐ° ÑĤÑĮ
ÑīÐµ Ðµ
Ġ ÑĨÐ¸
ĠÑģÑĤ Ð¸
ĠÐ½ÐµÐ¾Ð±ÑħÐ¾Ð´Ð¸ Ð¼Ð¾
Ð¾Ð¶ Ð´
ĠÐ¼ Ð½Ð¾Ð³Ð¾
ĠÐ¼Ð°ÑĤÐµÑĢÐ¸ Ð°
Ð½Ð¸ ÑĨÐ°
Ð¿ ÑĢ
ÑĨÐ¸ Ð°Ð»Ð¸
ÑĢÑĥ Ð³
ĠâĢ ¦
ĠÐļ Ð°Ðº
ÑĤ Ð²ÐµÑĢ
ĠÐ¿ÑĢÐ¾ÑģÑĤ Ð
ĠÐ¿ÑĢÐ¾ÑģÑĤÐ ¾
ĠÐŁ Ð¾Ð´
ĠÐº Ð¾Ð»Ð¸ÑĩÐµ
ĠÑĤ ÑĢÐ°Ð½
ÑĢÐ¸ Ð°Ð½
Ð²Ð° ÐµÐ¼
Ð½Ð¸ Ñħ
ÑĪÐ¸ Ð¹
ÐµÑĢ Ñħ
ĠÑģ Ð¾ÑģÑĤÐ¾Ñı
Ðµ Ð»Ð¸
Ġ ÑĪÐ¸
Ð´ Ð¾ÑĢÐ¾Ð²
ÑĢÐ¾Ð¸ ÑĤÐµÐ»ÑĮ
B B
7 2
ĠÐ³Ð¾ÑĢ Ð¾Ð´
ĠÑĩ Ñĥ
ÑģÑĤ Ð¾Ð²
ĠÑģÐ°Ð¹ ÑĤÐ°
ĠÐ¿ Ð»Ð¾
Ðº ÑĤÐ°
ÑĪ ÐµÐ¼
ĠÐºÐ¾Ð¼Ð¿Ð° Ð½Ð¸Ð¸
ĠÑģÐ°Ð¹ ÑĤÐµ
Ð½Ðµ Ð²
l i
ĠÑģ Ð¿Ð¸
Ð¾Ð¿ Ð°Ñģ
a c
ÐµÐ½ Ð½Ð¾
7 0
o t
ĠÐ°Ð²ÑĤÐ¾Ð¼ Ð¾Ð±Ð¸
C E
Ð¸ Ñĩ
ĠÑģÐ² Ð¾Ð¹
ĠÐ¿Ðµ ÑĢÐµÐ´
Ñı Ð²Ð¸
ÑģÑĤÐ²Ñĥ ÐµÑĤ
ĠÐ»Ðµ Ð³
ĠÐ± Ð»Ð°
ÑģÑĤÐ² ÑĥÑİ
ĠÑĥ ÑĢÐ¾Ð²
Ð° Ð´
A A
Ðµ Ð¿
ĠÐ²Ñĭ Ð±
Ġ Ð¾ÑģÑĤÐ°
Ġ 25
D D
ÑĮ Ðµ
o f
Ð¼ Ð¾ÑģÑĤÑĮ
Ġ f
ĠÐ¸Ð· Ð¼ÐµÐ½
Ð½ Ð´
ÐĿ Ðĺ
ĠÐ± Ð°Ð½
ĠÐ¿ÑĢÐ¾Ð¸Ð· Ð²Ð¾Ð´
Ð² Ð»Ðµ
ÑħÐ¾Ð´ Ñı
¾ ÑĩÐµ
Ð¸ Ð·
ĠÐ³ Ð»Ð°
Ð¼ÐµÐ½ ÑĤÑĭ
Ð° Ð³
__ __
ĠÑħ Ð°ÑĢÐ°Ðº
ĠÐ¼Ð° Ñģ
ĠÐ´ ÑĢ
Ð» Ð¾Ð³
Ġ Ġ
u n
Ð²Ð° Ð»Ð¸
ÑģÑĤÐ² Ð¾Ð¼
Ñı Ñģ
ĠÑģÐ² Ð¾Ðµ
y a
Ð± ÑĥÑĢ
ĠÐ±ÐµÑģÐ¿ Ð»Ð°ÑĤ
Ñĳ Ð½
ĠÐ¾Ñģ Ñĥ
ĠÐ½ÐµÑģÐº Ð¾Ð»ÑĮÐºÐ¾
ĠÑĥ Ð´
ĠÐ±Ñĭ Ð»Ð¸
ĠÐ¸Ð½ÑĤÐµ ÑĢÐµÑģ
Ðµ Ð´Ð¸
ĠÐ¼Ðµ ÑģÑı
ĠÐ¾Ð´Ð¸ Ð½
Ð³ Ð´Ð°
ĠÐ¿Ð¾Ð´ Ð´ÐµÑĢ
Ð ¾ÑĩÐµ
ĠÐ¿ÑĢ Ð¾ÑĤÐ¸Ð²
ĠÐ¸ÑģÑĤ Ð¾ÑĢÐ¸
Ġ 9
Ð¹ ÑģÐºÐ¾Ð¹
ĠÑįÑĤ Ð¾Ð¹
Ð¾Ð¶ Ð°
98 4
ĠÐ¿ÑĢ Ð¾Ð´Ð°
ĠÐ¡ Ð°
ĠÐ´ Ñĥ
ÑĤ ÐµÐ½
ĠÐ¾Ð±ÑĢÐ° Ð·
Ġ1 8
Ð´ Ð¶
Ð½Ðµ Ð³Ð¾
Ð¸ Ð½Ð°
ÑĢÑı Ð´
ĠÐł Ðµ
ĠÑįÐº ÑģÐ¿
ĠÐ´ Ð¾ÑĢ
7 9
Ðº ÑĢÐµ
Ġ3 0
Ġ O
ĠÑĥ ÐºÐ°Ð·Ð°
ĠÑį ÑĤÐ°
ĠÑį ÑĦ
ÐºÐ¾Ð½ Ð¾Ð¼Ð¸
d a
Ġ20 21
ĠÐ¼ Ð½Ðµ
ĠÐ¶Ð¸Ð· Ð½Ð¸
Ñ ĸ
ĠÐł Ð¤
ĠÐ¿Ð¾Ð»Ñĥ ÑĩÐ¸
Ð» Ð¾ÑĤ
ÑĪÐ¸ Ð¼
F C
Ñı Ð´
ĠÐ² Ð½Ðµ
99 0
ĠÐ¿Ð¾Ð¼ Ðµ
ÑĢÐ¾Ð²Ð° Ð½Ð¸Ðµ
ĠÑįÑĤ Ð¾ÑĤ
Ð½Ð¸ Ñĩ
ÑĤÐ¸ Ð½
ÑĤÐ¾ÑĢ Ñĭ
i m
ĠÐĲ Ð²
nÐķ ÑģÐ»Ð¸
ÑĤ ÐºÐ¸
Ð´Ðµ ÑģÑĮ
ĠÐĶ Ð°
Ġ1 1
Ð¾Ð¿ Ñĥ
ÑģÑĤ ÑĢÐ¾
ĠÐ² Ð¾Ð´
ĠÐ´ Ð¾Ð¿Ð¾Ð»
ĠÐ¾Ð±ÑĢÐ° Ð±Ð¾ÑĤ
997 5
ĠÐ¿ÑĢÐ¾Ð¸Ð· Ð²Ð¾Ð´Ð¸
ÑīÐ¸ Ð¹
Ġ m
ĠÐ½Ðµ Ð¿
ĠÐĲ ÑĢ
Ð¿ÑĢÐ¸ Ð¼ÐµÑĢ
ĠÐ± Ðµ
Ð± Ð»Ð¸
ĠÑĩ Ð¸Ñģ
Ðº ÑģÐ¸
ÑĤÐ¸ Ð¹
ĠÐ¡ ÑĤÐ°
n e
Ġ ÑĢÐ¾Ñģ
ĠÑģ Ð¾ÑĤ
ĠÑģÐ¾Ð± ÑģÑĤÐ²ÐµÐ½
Ð¾Ð³ÑĢÐ° ÑĦÐ¸
ĠâĢ¦ \
ĠÐ¿Ðµ ÑĢÐ¸
Ð¾ÑĢÐ° Ñı
ÐµÐ½ÑĤ Ð¾Ð²
ĠÐº ÑĥÑĢ
ÑĢÐ°Ðº ÑĤÐ¸
ĠÐŁ ÑĢ
ĠÐ° Ð½
Ð² ÑĢÐ°
ĠÐ²Ð° ÑĢÐ¸Ð°Ð½
Ð¸ Ð»Ð¸
Ġ ,
Ð»ÑĮ Ð½ÑĭÑħ
Ð³Ð¾Ð´ Ð½Ñı
ĠÐ² Ð½Ð¸Ð¼Ð°
ĠÐ¾Ð± ÑīÐµ
Â» .\
u t
k a
ÑĦÐ¸ ÐºÐ°
Ðº Ð¾Ð²Ð°
ĠÑĩÐµÐ»Ð¾Ð² ÐµÐº
ĠÐ¿ÐµÑĢÑģÐ¾Ð½Ð°Ð»ÑĮ Ð½ÑĭÑħ
ÐµÑģÐ¿ ÑĥÐ±Ð»Ð¸
d o
Ð¶ ÐµÐ½Ð¸Ðµ
Ð¼ÐµÐ½ Ð½Ð¾
ĠÐºÐ¾ÑĤ Ð¾ÑĢÐ°Ñı
Ð» ÐµÐ½Ð¸Ð¸
ĠÐ±Ð¾Ð»ÑĮ ÑĪ
ĠÑĢÐµ Ð±
Ðº ÑĨÐ¸Ñı
ĠÐ¾Ð± Ñĭ
ĠÑĢÐ°Ð· Ð¼Ðµ
f oo
ĠÐ¼Ð° ÑĪÐ¸
ĠÐ´ Ð²Ñĥ
ĠÐ½Ðµ Ðº
ĠÑĥ Ñĩ
ĠÐ² ÑĢÐ°
Ġ Ð¾ÑĦÐ¸
ÑĦÐµ ÑģÑģÐ¸
Ñı ÑĤÐµÐ»ÑĮ
ĠÑģÐ´ÐµÐ»Ð° ÑĤÑĮ
ĠÐ¼ Ð¾Ð´Ðµ
ĠÐŀ Ð½
Ð¼ ÐµÑĤÐ¸
ĠÑĥ Ð¿
Ð½Ð¸ ÑĨÐ¸
ÑĨÐ¸ Ð¾Ð½Ð°Ð»ÑĮ
ĠÐ¼Ðµ ÑģÑĤ
nÐĶ Ð»Ñı
Ð² ÑĭÐµ
ĠÐ¼Ð°ÑĤÐµÑĢÐ¸ Ð°Ð»
ĠÐ´Ð¾ÑģÑĤ ÑĥÐ¿
ÑĤÐ¸ ÑĤÑĮ
ĠÐº ÑĤÐ¾
ÑĢÐ¾Ð²Ð° Ð½Ð¸Ñı
âĢ ĵ
ĠÐºÐ¾ÑĤÐ¾ÑĢ ÑĭÑħ
ĠÐ¾Ð±Ð¾ÑĢ ÑĥÐ´
Ð»Ð° Ð´Ð¸
ĠÐ°Ð´ Ð¼Ð¸Ð½Ð¸ÑģÑĤÑĢÐ°
ĠÐ¸Ð¼Ðµ ÐµÑĤ
ĠÐļ Ð¾Ð¼
Ñģ ÑĥÑĤ
/ ","
ÑĦÐµÑĢ ÐµÐ½
Ġ1 9
Ð¸ Ð»
ÐºÐ¾Ð¼ ÐµÐ½
ĠÐ¿ Ð¾Ð½
ĠÐ¿Ð¾Ð·Ð² Ð¾Ð»Ñı
Ð»ÑĮ ÑĤÑĥ
ĠÐ¼ Ð¾Ð¼
foo ter
ĠÐ·Ð° Ð´Ð°
ÑĤÐµ Ð¼
ĠÑģÐ¿Ðµ ÑĨÐ¸Ð°Ð»ÑĮ
ĠÐ±Ñĭ Ð»Ð°
ÑĢÐ° ÑĨÐ¸Ð¸
Ð»ÑĮ Ð½Ð¾Ð¹
ÑĩÐ° Ñģ
ĠÐ¢ Ð°
Ġ Ð¾Ð³
ĠÐ´ÑĢÑĥÐ³Ð¸ Ñħ
Ġ1 6
Ð½Ð° ÐºÐ¾
Ð½Ð° Ð»
nÐĺ Ð½
Ð²Ðµ ÑģÑĤÐ¸
nÐĿ Ð¾Ð²
an d
ĠÐº Ð
ĠÐºÐ ¾
Ð´Ðµ Ð»Ð¸
ÐµÑĢ Ñĭ
Ðł Ðŀ
ĠÐ¿ Ð¾ÐºÐ°
ĠÐ¢ Ðµ
ww w
ĠÑĤ ÑĢÐ°
ĠÐ±ÐµÐ· Ð¾Ð¿Ð°Ñģ
ĠÐ±ÑĥÐ´Ñĥ ÑĤ
Ð· Ð¼
ĠÑĢÐ° ÑģÑĤ
ĠÐ¼Ðµ Ð´Ð¸
ĠÑĩÐ° ÑģÑĤÐ¸
Ġ1 4
i a
ÑĤÐµ ÑģÑĮ
99 2
ĠÐ¿ ÑĢÐ°
ÑĪ ÐºÐ°
Ðº ÑĤÐ¸
ÑĢÐµ Ð¹
ÑĢÐµ Ð²
Ġ K
ĠÐ½Ð° Ð¿ÑĢÐ°Ð²
Ð± Ð¾Ð»ÑĮ
Ð·Ð° ÑĨÐ¸Ñı
Ðº Ñģ
ÑĨÐ¸ ÐµÐ¹
ĠÐļ Ð¸
Ð¼ Ð¾Ð½
ĠÐ¶Ð¸ Ð²
ĠÐŁ Ð¾Ñģ
Ð»ÑĮ Ð½Ð°Ñı
ĠÑĨ ÐµÐ½
Ñĥ Ð·
ĠÐ·Ð° Ð²Ð¸ÑģÐ¸
ÐµÐ¼ Ð°
ĠÐ³ Ð»Ð°Ð²
ĠÐ³ Ð¾ÑĤÐ¾Ð²
ĠÐ½Ð° Ð¿
\" ,
ÐµÐ¼ Ð¸
ĠÐ²ÑģÐµ Ð³Ð´Ð°
ĠÑĢÐµÐ³Ð¸ ÑģÑĤÑĢÐ°
ĠÐ¿ Ð¾ÐºÐ°Ð·Ð°
ĠÑģÐ¸ÑģÑĤÐµÐ¼ Ñĭ
ĠÐ³Ð¾ÑģÑĥÐ´Ð°ÑĢ ÑģÑĤÐ²ÐµÐ½
Ð²Ð°ÑĢ ÑĤÐ¸
ĠÐ·Ð° Ð¿
Ð» Ð¾Ð½
ĠÐ¡ Ðµ
Ð½Ð¸ ÑĨÑĭ
ĠÑĤÐµÑħ Ð½Ð¾Ð»Ð¾Ð³Ð¸
ÑģÑĤ Ð°Ð½Ð¾Ð²
ĠÑĢÐ¾Ñģ ÑģÐ¸
Ð¾ÑĢ ÑĤÐ°
ÑĤÐµ ÑĢÐ°
Ð² Ñı
ĠÐ¸Ð½ ÑģÑĤÑĢÑĥ
ĠÐ¾Ð¿ ÐµÑĢÐ°
ĠÑģ ÑĩÐ¸ÑĤÐ°
ĠÑĩÐ° ÑģÑĤ
ĠÐ»Ð¸ Ñĩ
ĠÐļ Ð¾Ð½
ma il
Ñĳ ÑĤ
w s
ĠÐ½Ð° Ð¼
ĠÐ¾ÑģÑĥ ÑīÐµÑģÑĤÐ²
Ñĩ Ñĥ
Ñı Ð¼Ð¸
Ð¸ Ð´
ĠÑģÑĤ Ð°ÑĢ
ĠÐ¿ÑĢ Ð¾Ð¸
Ð»Ð° Ð³Ð°
Ġ w
Ð»Ðµ Ðµ
e b
Ð½ ÐµÐ½
ĠÐ³Ð¾ÑĢ Ð¾Ð´Ð°
ĠÐ»ÑĥÑĩ ÑĪÐµ
ÐµÐ¹ ÑĩÐ°Ñģ
ĠÑĢÐµ ÐºÐ¾Ð¼ÐµÐ½
ĠÐ¼ Ð¼
ĠÐ¸ÑģÐ¿Ð¾Ð»ÑĮÐ·Ð¾Ð²Ð° ÑĤÑĮ
¾ ÑĩÐ¸
ĠÑģ ÑģÑĭ
Ð¾Ð· Ð°
ĠÐ´ ÐµÑĢÐµ
ĠÐł ÐµÑģÐ¿ÑĥÐ±Ð»Ð¸
ĠÑĢÐ°Ð· Ð»Ð¸Ñĩ
Ð½Ð° Ð´
ĠÑı Ð·Ñĭ
ĠÐĽ Ð¸
nÐļ Ð°
ĠÐºÐ¾Ð¼ Ð¼ÐµÐ½ÑĤÐ°ÑĢÐ¸
ĠÐ²Ñĭ Ñģ
ĠÑģ Ð»Ð¾Ð¶
Ġ20 20
ĠÐĺ Ð·
Ð¾ÑĤ Ñı
ÑģÑģ Ð»ÐµÐ´
ĠÐ»Ð¸ ÑĨ
ĠÐ½Ð° ÑĢÑĥ
Ð¾ÑĢ Ð¼Ð°
Ðµ ÑĢÐ¸
ĠÑģÐ¿Ðµ ÑĨÐ¸Ð°Ð»Ð¸
ĠÐ½Ð°ÑģÑĤ Ð¾Ñı
D B
t in
Ð½Ñı Ñı
Ð½Ðµ Ð¼
Ð¼Ð¾ÑĤ ÑĢÐµÑĤÑĮ
Ð½Ñı ÑĤÑĮ
o k
ÐµÑĤ ÑĮ
nÐ ¦
ÑģÑĤÐ²ÐµÐ½ Ð½Ð¾
ĠÐ´Ðµ ÑıÑĤÐµÐ»ÑĮ
nÐĿ Ðµ
Ð¼ Ð°Ð½
o s
Ð»Ñı ÑĤÑĮ
Ð¿Ð° ÑĢÐ°
ĠÐ²ÑĢÐµÐ¼ ÐµÐ½Ð¸
Ġ1 3
ĠÐ´ Ð¾ÑģÑĤÐ°
ÑĢÐ¸ ÑĤÐ¾ÑĢÐ¸
ĠÐ¿ÑĢÐ¾Ð± Ð»Ðµ
Ð»ÐµÐºÑģ Ð°Ð½Ð´
ÑıÐ± ÑĢÑĮ
Ġ 24
ĠÐº ÑĢÐµ
head er
i v
ÑĦ Ð°
ĠÐ³ ÑĢÐ°Ð¶
ĠÐ´ Ð¾Ð²
ÐºÐ»Ð° Ð´
ÑģÑĤÐ²Ð¸ Ð¸
97 6
ĠÐ¿ Ð¾Ð±
ÑĪÐ° Ñı
ĠÐ¿ ÑĢÐ°ÐºÑĤÐ¸
ĠÐ½ÐµÐº Ð¾ÑĤÐ¾ÑĢ
Ð¾Ð² Ð¾Ð¹
Ð½Ñĥ ÑĤÑĮ
Ġ =
Ġ c
ĠÐ· ÐµÐ¼
ĠÐº Ð½Ð¸
ÑĢÐµ Ð¶Ð´
ĠÐĴ Ð¸
Ð³ Ð¾ÑĢÐ¸
ĠÐ½Ð° Ð»Ð¸ÑĩÐ¸
ĠÐ¿Ð¾Ð¼Ð¾Ñī ÑĮÑİ
Ðł ÐĲ
Ġ b
ÑĤÐµÐ»ÑĮ Ð½ÑĭÐµ
ĠÑĢÐ°Ñģ ÑģÐºÐ°
Ð¾ÑĢ Ð¾Ð½
ĠÑģÐ² ÑıÐ·Ð°
ĠÐ´ÐµÑĤ ÐµÐ¹
ĠÑģÐ¾Ð´ÐµÑĢ Ð¶Ð°
ÑģÐº ÑĥÑİ
ĠÑģ ÐºÐ°
u m
ÑģÑĤÐ° Ð²Ð¸
Ġ Ð½Ð¾Ð¼
Ð´Ð° ÑĤÑĮ
ĠÐ´ Ð¾ÑģÑĤÐ°Ð²
Ð·Ð¸ Ð½Ð¾
ĠÑģÑĤ ÑĢÐ¾Ð¸ÑĤÐµÐ»ÑĮ
Ð»ÐµÐ½ Ð°
a v
ĠÑĩ ÐµÑĢ
ĠÐ¼Ñĥ Ð¶
Ð³ Ð»Ñı
Ñĳ Ð¼
Ð»Ñı ÐµÑĤÑģÑı
ÑģÐ¸ Ð¸
Ġ1 00
nÐł Ðµ
ÑĩÐµ ÑģÐºÐ¾Ðµ
Ġ U
ĠÑģ ÑĥÐ´
ĠÐ¿ÑĢÐ¾Ð² ÐµÐ´
Ñĭ ÑĪ
Ð ¾ÑĩÐ¸
Ġ i
ĠÐ³Ð¾Ð² Ð¾ÑĢÐ¸
ĠÐ¿ÑĢÐµÐ´ Ð¿ÑĢÐ¸
ĠÐ¡ ÐµÑĢ
ÑĮ ÑĤÐµ
ĠÑģÑĤÐ¾Ð¸ ÑĤ
9 15
Ñĭ Ð¼Ð¸
Ñģ ÑģÐ°
Ð· Ð¾ÑĢ
Ð¼ÐµÐ½ ÑĤÐ¾Ð²
ĠÐ·Ð° Ð¿Ð¸
Ð¾Ð± ÑĢÐ°
Ð»Ñı ÐµÑĤ
ÑĤÐµÐ»ÑĮ ÑģÑĤÐ²Ð°
ĠÐ·Ð° ÑıÐ²
ĠÐ°Ðº ÑĤÐ¸Ð²
Ñĩ ÐºÐ¸
ĠÐ£ ÐºÑĢÐ°
nÐŁ ÑĢ
a f
ĠÑģ ÐºÐ°Ð·Ð°
nÐŀÑĤ Ð²ÐµÑĤ
ĠÐ·Ð½Ð° ÑĩÐ¸
ĠÑĩÐµÐ»Ð¾Ð² ÐµÐºÐ°
ĠÑģ Ð¿Ð°
tin y
ĠÐ¾Ð± Ñĥ
Ġ1 7
Ġ 22
ĠÑĥÐ´ Ð¾Ð±
ÑĤÐ¾ ÑĩÐ½Ð¾
ÑģÐ¸ Ñı
Ñĩ Ð½Ð¾Ð¹
ĠÐ¿Ð¾ ÑįÑĤÐ¾Ð¼Ñĥ
Ñĩ ÑĮ
¾ Ð½Ñĭ
Ð ¾Ð½Ñĭ
Ð² ÑĢÐ¾Ð¿
ÑģÐº Ðµ
ĠÐ· Ð´Ð¾ÑĢÐ¾Ð²
Ð± ÑĢÑĮ
ĠÐĳ Ð°
ÐĿ Ðŀ
) ;
ÑĢÐ¾Ð¼ Ðµ
ĠÐŀ Ð´
Ð»Ð¸ Ð²
Ð¾ÑĤ Ñĭ
ĠÑģÐµ Ð±Ðµ
ĠÐ½Ð° Ð·
98 9
98 3
ĠÐ¿ÑĢÐ¾ ÑĦÐµÑģÑģÐ¸
ĠÐ¸ Ñİ
Ð¾Ð» Ð°
Ð¾Ð» Ð¾Ð¶
¾ ÑĦÐ¾ÑĢ
Ð½Ð¸ÑĨÐ¸ Ð¿Ð°
ĠÐ² Ð¾Ð¹
ĠÐ´ Ð²Ð°
ĠÐ¿ÑĢÐµÐ´ Ð»Ð¾Ð¶
ĠÐľ Ñĭ
ĠÑĦÐ¸ Ð»ÑĮ
ĠÑĤÐµÑĢ ÑĢÐ¸ÑĤÐ¾ÑĢÐ¸
ĠÐ²Ð¸ Ð´
Ð³Ð¾Ð´ Ð°ÑĢ
ĠÐľ Ð°ÑĢ
ĠÑĥÑģÑĤ ÑĢÐ¾Ð¹
ĠÑģÐ¾Ð² ÐµÑĢ
Ð¾Ð» ÐµÐ·
ï¿½ï¿½ï¿½ï¿½ ï¿½ï¿½ï¿½ï¿½
ĠÐ² Ð¼Ðµ
ĠÐºÐ¾Ð½ ÑĤÑĢ
997 7
ĠÐ¶ÐµÐ½ ÑīÐ¸
Ð ¾ÑĦÐ¾ÑĢ
Ð²Ð¸ Ð´
o p
ĠÐ´Ð¾Ð»Ð¶ Ð½Ñĭ
Ð» ÐµÑĢ
ĠÐ¼Ð½ Ð¾Ð³Ð¸
Ð½Ð° Ð½
ÑĪ Ñĥ
Ð»Ð° Ð´
ÑĢ ÑĤ
ÑĨÐµ Ð¿
ĠÐ´ÑĢ Ð¾Ð±Ð¸
Ġ X
Ġ ÑĪÐ°
ĠÐ¾Ð¿ Ð»Ð°
ĠÑĩÐ° ÑģÑĤÑĮ
Ð³Ð¾ÑĢ Ð¾Ð´
ĠÑģ Ñĭ
ÑĢÐ¾Ð± Ð½ÐµÐµ
ĠÐ¿ÑĢ Ð¾Ð¼
ĠÑģÐ¾ÑĤ ÑĢÑĥÐ´
Ġ 23
ĠÐ½Ð° ÑħÐ¾Ð´Ð¸
97 5
Ð»Ñĥ Ð±
ĠÐ½Ð° Ñĥ
99 1
Ð¾Ð± ÑĢÐµ
ĠÑģÐ»Ñĥ Ð¶
ÑģÑĤ Ð¾Ñı
ĠÐ² ÑģÑĤÑĢÐµ
ĠÐ´ÑĢÑĥÐ³Ð¸ Ðµ
ÑĤÐ° Ð¼Ð¸
Ġ .
ĠÑĩ Ð¸
ĠÑĤÐµ Ð¿
nÐ ¥
ĠÐļ Ñĥ
Ð¾Ð² ÑĭÐµ
ĠÑĢÐµÐ± ÐµÐ½
ĠÑģÐ»ÐµÐ´Ñĥ ÐµÑĤ
ĠÐ¸Ð³ ÑĢÐ¾Ð²
ĠÐ½Ðµ Ð³Ð¾
ĠÐ¿ÑĢÐ¾ÑĨÐµ ÑģÑģ
ĠÐ¼Ð° Ð³Ð°Ð·Ð¸
nÐĴ Ð°
ĠÑģ Ð¼Ðµ
Ġ e
Ñĭ ÑĤÐ°
Ðº Ð¾ÑĢ
ÑĤÐµ Ð»ÐµÐ¼
ĠÐłÐ¾ÑģÑģÐ¸ Ð¹ÑģÐºÐ¾Ð¹
ĠÐ° Ð¿
ĠÐ¿Ð¾Ð»Ñĥ ÑĩÐ°
nÐļ Ð¾Ð¼
Ġ20 19
ĠÐ·Ð° ÐºÐ°Ð·
ÑĦÐµÐº ÑĤÐ¸Ð²
ÑīÐµ ÑģÑĤÐ²Ð°
Ð¿ Ð
Ð¿Ð ¾
ĠÐº ÑĢÐ¸
Ð²Ð° ÑİÑĤÑģÑı
b a
Ġ Ð¾Ñħ
ĠÐ¶Ðµ Ð»Ð°
nÐĴ ÑģÐµ
ÑĢÐµ Ð³Ð¸
Ð±Ð¸ ÑĢÐ°
ĠÐ»Ñİ Ð´ÐµÐ¹
ĠÑĢÐ°Ð· ÑĢÐµ
Ð½ Ð½ÑĭÐµ
Ð´Ð¸ Ð²Ð¸
ĠÑĤÑĢÐµÐ± Ñĥ
ĠÐºÐ¾Ð½ ÑĦÐµÑĢÐµÐ½
ÑĨÐ¸ Ð½
ĠÑģÑĢÐµÐ´ ÑģÑĤÐ²Ð°
ÑĤ Ñı
ĠÐ² ÑĤÐ¾ÑĢ
o d
ĠÐ¡ Ð¾Ð²
ĠÐĲ Ð´
ÑĤÑĥ Ð°
Ðļ ÐĲ
ĠÐľ Ðµ
ÐºÐ° Ð¼
Ġ Ð¾ÑĦÐ¾ÑĢ
Ð¾ÑĢ Ð¾Ð¶
Ñħ Ð¾Ð´Ð°
i k
ĠÐ¿ÑĢÐ¾Ð¸ Ñģ
ĠÐ»Ð¸ Ð±Ð¾
ÑĢÐ¸ Ð¸
ĠÑĢÑĥÐ± Ð»ÐµÐ¹
Ġ Ð¾Ð³ÑĢÐ°
Ðº Ð¾Ð³Ð¾
ĠÐŁ ÐµÑĢ
Ð¶Ð° ÑĤÑĮ
ĠÐļ ÑĢÐ°Ñģ
ĠÑĢÑĭ Ð½
Ð»Ð¸ ÑĤÑĮ
ĠÑĥ Ð²Ðµ
n R
Ñģ Ð½Ð¾
Ð½ Ñİ
ÑĪ Ð
A E
ÑĪÐ ¾
Ð¿Ð¸ ÑĤÐ°
ĠÑģ ÑĢÐ¾Ðº
ĠÑģ Ð¾ÑģÑĤÐ°Ð²
ÑĤÐµÐ»ÑĮ Ð½ÑĭÐ¹
Ð½Ñĥ ÑĤÑĮÑģÑı
ĠÐ´ÐµÐ¹ ÑģÑĤÐ²Ð¸
ĠÐº Ð²Ð°ÑĢÑĤÐ¸
ĠÐ¤ÐµÐ´Ðµ ÑĢÐ°ÑĨÐ¸Ð¸
ĠÐ´ Ð½ÐµÐ¹
ĠÐ´ Ð¾Ð³Ð¾Ð²
Â» Â»
Ġ 000
ĠÑģÑĥ Ð¼
ĠÐ½Ðµ Ð¼
ĠÐ°Ð´ ÑĢÐµÑģ
ĠÑģÐ¾Ð² ÑĢÐµÐ¼ÐµÐ½
Ð½ ÐµÐ½Ð¸Ðµ
ÐºÐ° ÑĢ
Ð± ÑĢÑı
Ð´ Ð
Ð´Ð ¾
ĠÐ¸Ð· Ð²ÐµÑģÑĤ
ÑģÐ¿ Ð¾ÑĢÑĤ
ĠÐ²Ð¾Ð·Ð¼Ð¾Ð¶ Ð½Ð¾ÑģÑĤÑĮ
âĢ Ŀ
Ð´Ð¸ ÑĤÐµ
Ð»ÐµÐ½ Ñĭ
ĠÑĤÐ°Ðº Ð¾Ð¹
ĠÑĤ ÑĢÐ¸
ÑĢÑĥ ÐµÑĤ
ĠÐ¸Ð½ÑĦÐ¾ÑĢÐ¼Ð° ÑĨÐ¸Ð¸
ĠÐ¿Ð¾ Ð¸
ĠÐ¿Ð¾Ð² Ñĭ
ÑĤÐµÐ»ÑĮ Ð½ÑĭÑħ
ĠÑį Ð»Ðµ
ĠÑģÐ²Ñı Ð·Ð¸
ĠÑģÐ¾ ÑĨÐ¸Ð°Ð»ÑĮ
ĠÐ¿ÐµÑĢÐµ Ð´Ð°
ĠÐ¾Ðº ÑĢÑĥ
ĠÐ±Ð¸ Ð·
Ð¿ÐµÑĢÐ° ÑĤÑĥ
ĠÑģÐ¾ Ñħ
998 5
Ġt he
. )
ĠÑģÐ²Ð¾ ÐµÐ¹
ĠÑĢÑĥ Ñģ
ÑĪÐ¸ Ð½
998 7
nÐŁ Ð¾Ñģ
\ \
ĠÐ¼ ÐµÑĢ
n o
Ñģ Ð¾Ð¼
nÐ¢ Ðµ
ĠÑģÐ°Ð¹ ÑĤ
97 7
Ñİ ÑīÐµÐ¹
ĠÑģÐ» Ð¾Ð²Ð°
ĠÐ± Ð»Ð¸
Ġ of
Ñĩ Ð½ÑĭÐµ
ÑĩÐµ Ð¹
ÐµÑĤ ÐµÑĢ
76 7
Ñĩ Ð½ÑĭÐ¹
ĠÑĤÐµÑħ Ð½Ð¸
ÑĤ Ð¾Ð¹
ÑģÑĤ ÑĢÐ¾Ð¹
E B
ĠÐ½Ð° ÑĩÐ¸Ð½Ð°
f f
ÑĢÐ° Ð·Ñĥ
m l
ÑģÐ¸ ÑĤ
8 00
ĠÑĤ ÑĢÐµ
Ð¸ Ð±
Ð¾ÑĢÐ¾ Ð½Ñĭ
Ġ 21
Ð¾ÑģÑĤÐ¾Ñı Ð½
ĠÐ·Ð°Ð± Ð¾Ð»Ðµ
Ð³ Ð°Ð½
i r
Ð½ Ð¾Ð¿
ĠÑģ ÐµÐº
ĠÐ¿ÑĢÐ¸ ÑĩÐ¸
ĠÐ¿Ð¾Ð¿ Ñĥ
Ð¨ ÐĲ
Ð³ Ð»Ð°
Ñī ÐµÐ½Ð¸Ð¹
Ð¾Ð· Ñı
ĠÑį ÐºÐ¾Ð½Ð¾Ð¼Ð¸
nÐ ¯
n a
998 6
ÑģÑĤ Ñĥ
Ġ d
ÑĢÐ¸ ÑĤÐµ
ĠÑįÐ»ÐµÐºÑĤ ÑĢÐ¾Ð½
ð Ł
ĠÐ¿ÑĢÐ° Ð²Ð°
ĠÐ²Ð¾Ð· Ð´Ñĥ
ĠÐº ÑĢÐ¾Ð²
ĠÐ°Ð² ÑĤ
20 21
Ġ #
ĠÑģÐ²Ð¾ Ñİ
ĠÐ¸ ÑģÑģÐ»ÐµÐ´
ĠÐ´ Ð°Ð²
ĠÐ´Ð²Ñĥ Ñħ
ĠÐ¸ÑģÐ¿ Ð¾Ð»
Ð¾Ð· Ð¸
ÑĢÐ° Ð¼
Ð´Ðµ Ð»ÑĮ
ĠÐ¾ÑĤ Ð»Ð¸
ĠÐł Ð°Ð·
ĠÐ³ Ð°Ð·
ĠÐ¿ÑĢÐ¸ Ð·Ð½Ð°
e c
ĠÐ¸ Ð´Ðµ
Ðµ Ðµ
ĠÐ¿ÑĢÐ¾Ð´ Ð¾Ð»
ĠÐ¼Ñĥ Ð½Ð¸ÑĨÐ¸Ð¿Ð°
99 98
ĠÐ¼Ðµ ÑģÑĤÐ¾
Ð¾Ð½ Ð¾Ð²
ĠÐ¡ Ð¸
ĠÐºÑĥ Ð»ÑĮÑĤÑĥ
ĠÐ¸ Ð¼ÐµÐ½Ð½Ð¾
ÑĩÐµ Ð³Ð¾
Ð²Ð° ÑĤÑĮÑģÑı
ĠÐ¿ Ð¸ÑĤÐ°
ĠÐ¿Ð¾Ð² ÐµÑĢÑħ
ĠÐ¿Ð»Ð¾ ÑīÐ°
ĠÐ´Ðµ ÐºÐ°
Ð³ ÑĢÑĥÐ·
ĠÐ´Ð¾Ð» Ð¶ÐµÐ½
ĠÐ¾Ð± Ð»
ĠÐĲ Ð»ÐµÐºÑģÐ°Ð½Ð´
ĠÑĢÐµ Ð¶Ð¸
ĠÐ¿Ð° ÑĢÐ°
Ġ J
ÐºÑĥ ÑĢ
ĠÐ· Ð´ÐµÑģÑĮ
ĠÐ²Ð° Ð¶
ĠÐ¿ ÑĥÐ±Ð»Ð¸
Ð½Ð° Ð¼Ð¸
94 4
8 07
ĠÐ´Ð¾Ð¿Ð¾Ð» Ð½Ð¸ÑĤÐµÐ»ÑĮ
ĠÑģÐ¸ ÑĤÑĥÐ°
Ñī Ñĳ
Ð¿ÐµÑĢ ÑĮ
Ñī ÐµÐ¼
ĠÐ¸Ð½ÑĤÐµÑĢ Ð½ÐµÑĤ
Ġ5 0
27 7
ÑĩÐ° ÑĤ
ĠÐĴ Ð»Ð°Ð´Ð¸
Ð¾Ð»Ð¾Ð³Ð¸ Ñı
ĠÐ¿Ð¾Ð»Ñĥ ÑĩÐ¸ÑĤÑĮ
ÑģÑĤÐ° Ð½Ð°
ĠÑĢÐµ Ð³Ñĥ
Ð¿ Ð¾Ð´
96 5
Ðµ Ñģ
ĠÐ´Ð°Ð½ Ð½ÑĭÐµ
Ġ20 18
ĠÐ¿ÑĢÐ¾Ð² ÐµÑĢ
Ð¾Ð² ÑĭÑħ
ĠÐ·Ð° Ð½Ð¸Ð¼Ð°
nÐł Ð°
ĠÑģÐ² ÐµÑĤ
Ðº ÐµÑĤ
ĠÐ¸ÑģÐº Ð»Ñİ
ĠÐ´ Ð°Ð»ÑĮ
! !
ĠÑĢÐµ Ð·
Ð½ Ð²Ð°
ĠÐ¼ÐµÑĤ Ð°Ð»
Ð»ÐµÐ½ Ð½ÑĭÑħ
nÐ ¨
Ð²Ð° Ð½
n S
ĠÑģ Ð½Ð¸
ĠÐ¿ÑĢÐ¸ Ð½Ñı
Ð½Ð¸ Ð²ÐµÑĢ
ĠÐ±ÐµÑģÐ¿Ð»Ð°ÑĤ Ð½Ð¾
ĠÐºÐ¾Ð»Ð¸ÑĩÐµ ÑģÑĤÐ²Ð¾
Ð¶ Ñĥ
Ð¸ÑĤÐ° ÑĤÑĮ
ĠÐ´ Ð½Ñı
ĠÑģÐ¸ Ð¼
p h
ÑĤÐµ Ð³Ð¾ÑĢÐ¸
Ð¢ Ðŀ
nÐł Ð°Ð·
Ð²Ð° ÑĢÐ¸
ĠÑĢÐ°Ð· Ð¼ÐµÑĢ
ĠÐ¼Ð°ÑĤÐµÑĢÐ¸Ð° Ð»Ð¾Ð²
ĠÑĢÐ°Ð· Ð´Ðµ
Ð½Ð° ÑĢÐ¾Ð´
ĠÐ»Ñİ Ð±Ð¸
ĠÐ¿Ð¾ÑĢ ÑıÐ´
Ġ ÐµÐ¼Ñĥ
ÑĢÐ¸ Ð½Ð°
ÑģÑģ Ñĥ
Ð» Ð»Ð¸
Ð· Ð¼Ð°
Ġ in
95 6
ĠÑĢ Ð¾Ð´Ð¸
9 26
ĠÑĤÐµÐ¼ Ð¿ÐµÑĢÐ°ÑĤÑĥ
ÑĢÐµÐ³Ð¸ ÑģÑĤÑĢÐ¸
ĠÐº ÑĢÑĥÐ¿
ĠÐŁ Ð°
ÑĢÐµ Ð·
C F
ĠÐ± ÐµÑĢÐµ
ĠÐºÑĢÐ° Ñģ
ĠÑģÐ¾Ð± Ð¾Ð¹
ĠÑĤÐµ Ðº
97 4
ĠÐ³ ÑĢÑĥ
Ð¿ ÑĢÐ°Ð²Ð¸
ÑĤÐµÐ»ÑĮ Ð½Ð¾Ð¹
Ġ :
ĠÐŀ Ñģ
ÑĤÐµ Ð¹
1 20
Ġ Ð¾ÑĩÐµ
Ñĭ ÑĤ
ĠÐ¿ÑĢÐµÐ´ Ð»Ð°Ð³Ð°
ÐµÑĢ ÑĤ
ĠÐ³ Ð¾Ð»Ð¾Ð²
ĠÐ¼ Ð
ĠÐ¼Ð ¾
ĠâĢ ľ
Ðµ Ð»ÐµÐ½
Ð»ÑĮ Ð½Ð¾Ðµ
ĠÑĥ ÑģÐ¿Ðµ
ĠÐ´Ð¾Ð± Ð°Ð²
ht ml
ĠÐ² ÐºÐ»ÑİÑĩÐ°
ĠÐ½Ð° Ð´Ðµ
ĠÐ¼ Ð»
ĠÐ½Ð¾ ÑıÐ±ÑĢÑı
in e
ĠÑĢÐ°Ð· ÑĢÐ°Ð±Ð¾ÑĤ
Ġ ...\
s e
Ġ20 17
Ð¹ ÑģÐºÐ¸Ð¹
Ðŀ Ðŀ
ĠÐ¾ÑĤ Ð·Ñĭ
ĠÐ¿ÑĢÐ¸ Ð½Ð¸Ð¼Ð°
b b
ÑĪ Ð»Ð¸
ĠÐ½Ðµ Ñģ
Ð» ÐµÐ½Ð¸ÐµÐ¼
ĠÐ²Ð¾Ð· ÑĢÐ°
ĠÐ² Ð¾ÑĤ
Ð· Ð¾Ð²
Ñĩ ÐµÑĢ
ĠÐºÐ¾ÑĤÐ¾ÑĢ Ð¾Ð¹
ĠÐ¿ÑĢÐµÐ´ ÑģÑĤÐ°Ð²Ð¸
Ð°ÑĢ Ñĭ
Ð¼Ðµ ÑĢÐ¸
Ð½ÑĥÑĤ ÑĢÐµÐ½
ÑĩÐ° ÐµÑĤ
Ðµ Ð»Ð°
ĠÑį Ð½ÐµÑĢ
Ð°ÑĢ ÑĤÐ°
Ð½Ð° Ñħ
Ð»ÐµÐ½ Ð½ÑĭÐµ
20 20
ĠÐ¿ Ð¾ÑģÑĤÐ¾ÑıÐ½
, \
ĠÐºÐ¾Ð½ ÑģÑĤÑĢÑĥ
ĠÑģ Ð¾ÑģÑĤÐ°Ð²Ð»Ñı
ĠÐ° Ð»
nÐĲ Ð²
ÑİÑīÐ¸ Ð¼
ĠÐ² Ð¾Ð´Ñĭ
ÑģÐº Ð¾Ð²
Ñĥ Ð´Ð¸
ĠÐºÐ°ÑĩÐµ ÑģÑĤÐ²Ðµ
ĠÐ¼Ðµ ÑģÑĤÐ°
E D
ÑĢ Ñİ
ĠÐ²Ñĭ Ð¿Ñĥ
Ð·Ð° Ð´
ĠÑģ ÐµÐ¹ÑĩÐ°Ñģ
Ð¾Ð± Ð°
ĠÑĥ ÑĩÐ¸
ĠÐŁ Ñĥ
ĠÑĦÐ¸ Ð½Ð°Ð½
ĠÐ´ Ð»Ð¸
Ġ a
96 4
ĠÐ½Ðµ Ð¹
ÑĤÐ¸ Ð¸
ĠÑģÐµ Ð³Ð¾Ð´Ð½Ñı
ÑģÐ¸ Ñħ
Ġ v
Ðļ Ðŀ
Ð²Ð° Ð»
ĠÐ²Ñĭ ÑĪÐµ
ÑĢÐ¸ Ð½
ĠÑģÑĢÐµÐ´ ÑģÑĤÐ²
96 6
Ñı Ð²Ð»Ñı
Ð°Ð»ÑĮ Ð½ÑĭÐµ
ĠÑįÑĦ ÑĦÐµÐºÑĤÐ¸Ð²
ÑĩÐµ Ð±
Ð¼ Ñı
Ð¾ÑĢ Ñĭ
Ð±ÑĥÑĢ Ð³
ĠÑħ Ð¾Ð»
ĠÑģ ÑĩÐµÑĤ
Ġ Ð¾Ð·Ð½Ð°
Ñİ ÑīÐ°Ñı
ĠÐ²Ñģ ÐµÐ¼
nÐĴ ÐµÑĢ
Ġ h
ĠÐ¿Ð¾Ð´Ð´ÐµÑĢ Ð¶
ĠÐ¿Ð¾Ð´ Ð³Ð¾ÑĤÐ¾Ð²
ĠÐºÑĢÐ° Ð¹
ĠÑĢÐ°Ð¹ Ð¾Ð½Ð°
ĠÐ± ÐµÐ»
Ð½Ð¾ÑģÑĤ ÐµÐ¹
ÑĤÐµÐ»ÑĮ Ð½Ð¾Ð³Ð¾
Ð´ ÑĢÐ°Ð²
ĠÐ´ÐµÐ»Ð° ÑĤÑĮ
ĠÑģÐ²Ð¾Ð¸ Ñħ
996 7
ĠÐ¿Ð¾ÑĤ ÑĢÐµÐ±
ĠÐ½Ðµ Ð±Ð¾Ð»ÑĮ
ĠÐ¿Ð¾Ð»Ð¸ ÑĤÐ¸
Ð¡ Ð¡
ĠÐ´ Ð¾ÑģÑĤÐ¸
Ġ co
ĠÐ² Ð¾Ð»
997 6
nÐŁ Ð
nÐŁÐ ¾
ĠÑĢÐ° Ð±Ð¾
Ð»ÑĮ Ñı
ĠÐ¿Ð¾Ð¿Ñĥ Ð»ÑıÑĢ
Ð¾ÑĢ ÑĤÐ¸
ĠÐ¾Ð±ÑĢÐ°Ð· Ð¾Ð¼
ĠÑĤÐµÐ»Ðµ ÑĦÐ¾Ð½
ĠÐ° Ð³
ÑĤÑĭ Ð¹
ÑĢÐ°Ð· Ð´
ÑĨ ÐµÐ½ÑĤ
ĠÑĤÐµ ÑĩÐµÐ½Ð¸Ðµ
ĠÑĢÐ°Ð·Ð²Ð¸ ÑĤÐ¸Ñı
ĠÑĤÐ°Ðº Ð¾Ðµ
1 00
ĠÑĢÑĥ ÐºÐ¾Ð²
ĠÑĤÐ° Ð¼
ĠÐ¿Ð¾Ð» Ð¾Ð¶
Ð¾Ð¼ Ð°
ÑĩÐ° ÑģÑĤ
> "},"
Ñĥ Ð»
Ðķ Ðł
ĠÐ´ÐµÐ½ÑĮ Ð³Ð¸
n A
f e
Ð¾ÑĢ Ð¾Ð´
ĠÐ²Ð½Ð¸Ð¼Ð° Ð½Ð¸Ðµ
ĠÑĢÐ°Ð±Ð¾ÑĤ Ñĥ
nÐŀÑĤÐ²ÐµÑĤ Ð¸ÑĤÑĮ
Ð¶ Ð½ÑĭÐµ
ĠÐ½ÐµÐ¾Ð±ÑħÐ¾Ð´Ð¸ Ð¼
ÑģÐºÐ¸ Ð¼
f a
ĠÐ°Ð½ ÑĤÐ¸
nÐ¡ ÑĤÐ°
l y
ĠÑĩÐ° ÑģÑĤÐ¾
ĠÑĤÐ° ÐºÐ¸Ðµ
Ð¾ÑĢ Ñı
ĠÐ¿ÑĢÐ¸ Ð¼ÐµÑĢ
ĠÑĦ Ð¾ÑĤÐ¾
ĠÐ¿ÑĢÐ¸ Ð¾Ð±ÑĢÐµ
ĠÐ¿Ð¾Ðº ÑĢÑĭ
Ñģ ÐµÑĢ
ĠÑĩÑĥ Ð²
¾ ÑīÐ¸
ĠÑĥÑĩÐ° ÑģÑĤÐ¸
Ð ¾ÑīÐ¸
Ġ20 16
Ð´ ÑĭÑħ
ĠÐ´Ð¸ Ð·Ð°
ĠÐºÐ° Ð·Ð¸Ð½Ð¾
ĠÐ¿Ð¾Ð·Ð²Ð¾Ð»Ñı ÐµÑĤ
Ð´Ð° Ð½Ð¸Ñı
ĠÑĢÐµ Ð¼Ð¾Ð½
ĠÐ¡ Ð¨ÐĲ
ĠÐ°Ð²ÑĤÐ¾Ð¼ Ð°
ĠÑĤ Ñı
Ġ 27
Ð¾Ð¶Ð´ ÐµÐ½Ð¸Ñı
F D
u b
ÑĨ Ð¾Ð²
Ð´Ð° ÐµÑĤ
Ð½ Ð½ÑĭÑħ
Ð² Ð»Ð¸
Ñı ÑĤÑģÑı
ĠÐ¾ÑĢÐ³Ð°Ð½Ð¸ Ð·Ð°ÑĨÐ¸Ð¸
ĠÐ± ÑĢÐ°
ĠÐ²Ñĭ Ð±Ð¾ÑĢ
ÐµÐ½ ÑĤÐ¸
ÑĢÐ°Ð½ ÐµÐ½Ð¸Ñı
ĠÐ»Ð¸ ÑĪÑĮ
ĠÐ´Ð¾ÑģÑĤÐ° ÑĤÐ¾ÑĩÐ½Ð¾
ĠÐ²Ñģ Ñĳ
ĠÐ¿ÑĢÐµ ÐºÑĢÐ°
DF BC
ĠÐ´ Ð²Ðµ
ĠÐ¾Ñģ Ð½Ð¾Ð²Ð°
10 5
ĠÑĦÐ¸ Ð·Ð¸
Ð¼ÐµÐ½ ÑĮ
ĠÐ·Ð° ÐºÐ°Ð·Ð°
ĠÐ¿ÑĢÐ¸ Ð½
Ð¾Ð» Ñĥ
nÐ ĸ
Ġ ÑĪÐµ
ĠÑħÐ¾ÑĢÐ¾ ÑĪÐ¾
ĠÐ£ÐºÑĢÐ° Ð¸
Ġ Ð¾ÐºÐ°Ð·Ð°
ÑĤÐµÑĢÐ¸ ÑģÑĤÐ¸
ĠÑĢÐµÐ³Ð¸ÑģÑĤÑĢÐ° ÑĨÐ¸Ð¸
Ð²Ð¸ Ñĩ
ĠÑģÐµÑĢ Ð²Ð¸
ĠÑĦ Ð¾ÑĤ
8 13
f o
ÐµÐ½ Ð½ÑĭÐµ
Ð·ÑĭÐ²Ð° ÐµÑĤ
Ð¸ Ð¼Ñĥ
nÐĵ Ð»Ð°Ð²
ĠÐ´ÐµÐºÐ° Ð±ÑĢÑı
Ð¾Ñĩ Ð½ÑĭÐµ
998 4
ĠÐĶ Ð¸
ÐµÐ½ Ð½ÑĭÑħ
ĠÐĲ Ð½
ar t
ĠÑĤ Ð¾Ð¶Ðµ
ÑĦÐ¸ ÑĨÐ¸
Ð¸ ÑģÐ°
ĠÑĦÑĥÐ½ Ðº
ĠÐ²Ñĭ ÑĢÐ°
ĠÐ¿Ð¾Ð´ Ð¾Ð±
ĠÐŀ Ð½Ð¸
95 5
Ġ *
es s
Ð¾Ñĩ ÐºÐ¸
ĠÑģ Ð¾Ð¿
ĠÐ¾Ð±ÑĬ Ðµ
Ð¶Ð¸ ÑĤ
Ð½Ð¸ ÑĤÐµ
ĠÐ²Ð¾Ð¿ÑĢÐ¾Ñģ Ñĭ
a y
Ð³Ð¸ Ð¸
ĠÐºÑĥ Ð¿Ð¸ÑĤÑĮ
Ð±Ðµ Ð»ÑĮ
o st
ĠÐŁ ÑĢÐµ
ĠÑĢÐ°Ð¹ Ð¾Ð½
o g
ĠÐ¾ÑĤ Ð¿ÑĢÐ°Ð²
ĠÑģÐ¾Ð¾Ð± ÑīÐµÐ½Ð¸Ñı
ĠÐ¿ÑĢÐ¾Ð² Ð¾Ð´Ð¸
ÐºÐ¾Ð» Ð°
ĠÐ²Ð¸Ð´Ðµ Ð
ĠÐ²Ð¸Ð´ÐµÐ ¾
ĠÐ´ÐµÑĢÐµ Ð²
ĠÐ´Ð²Ð¸ Ð³Ð°
Ð¼Ðµ ÑĩÐ°
ĠÐ½ Ð¾ÑĢÐ¼Ð°
nÐ§ ÑĤÐ¾
ĠÐ¾ÑĦÐ¾ÑĢ Ð¼
Ð¾Ñģ Ð¸
ĠÐĲÐ´ Ð¼Ð¸Ð½Ð¸ÑģÑĤÑĢÐ°
Ñĩ Ð½ÑĭÑħ
ĠÑģÑĤÐ°ÑĤÑĮ Ð¸
e e
Ð½Ð¸ ÑĨ
Ġ $
ÑģÑĤ ÑĢ
ĠÑĢÐ° Ð²
ĠÐ¸ÑģÐ¿Ð¾Ð»ÑĮÐ·Ð¾Ð²Ð° Ð½Ð¸Ñı
ĠÑĥ Ð»
ĠÐ¿Ð¾Ð´ ÑĤÐ²ÐµÑĢ
u p
9 25
Ð¼ÐµÐ½ Ð°
ĠÑĢÐ° Ð´Ð¸
ĠÑĤÐ° ÐºÐ¸Ñħ
Ð» ÐµÐ½Ð¸Ð¹
ÑģÑĤ ÑĥÐ¿
C B
Ð¿ Ð¾Ð²
ĠÐĺ Ñİ
99 43
ÑĢÐ° Ð´
Ġ20 15
ĠÐ±Ñĭ ÑģÑĤÑĢÐ¾
Ð½Ð° ÑĤ
ĠÐ·Ð° Ð½Ñı
Ð±Ð¸ Ð½
ĠÐ³ÑĢÐ°Ð¶ Ð´Ð°Ð½
95 4
ĠÐº ÑĢÐµÐ´Ð¸
ÐĽ Ð¬
ĠÐľÐ¸ Ð½Ð¸
ĠÑĥ Ð·Ð½Ð°
ĠÐ¾Ð±ÑĢÐ°Ð·Ð¾Ð²Ð° Ð½Ð¸Ñı
nÐļ Ñĥ
ÐĿ Ð°
ÐĿ ÐĲ
b c
\" \
ĠÑĥÑģÐ»Ð¾Ð²Ð¸ ÑıÑħ
Ð½Ð¸ ÑĤ
ÑĤÐµÐ»Ñı Ð¼
ĠÑģÑĥ ÑīÐµ
ĠÐ¿Ð¾Ð» Ð½Ð¾ÑģÑĤÑĮÑİ
s s
ĠÐ½Ð° Ð·Ð½Ð°
Ñħ Ð½Ð¸
ĠÑįÑĤÐ¸ Ñħ
ĠÑĩÐµ Ð³Ð¾
ĠÑĢÐµ Ð°Ð»Ð¸
ĠÑģÐ¸ÑģÑĤÐµÐ¼ Ð°
ĠÐ¼ÐµÐ½ ÐµÐµ
Ð¾Ð» Ð
Ð¾Ð»Ð ¾
ĠÐ»ÑİÐ± Ð¾Ð¹
ÑģÐ»Ñĥ Ð¶Ð¸
ĠÐ¿ÐµÑĢÐ¸ Ð¾Ð´
ĠÐº Ð¾Ð½Ðµ
nÐĿÐ¾Ð² Ð¾ÑģÑĤÐ¸
ĠÐºÐ¾Ð¼Ð¿ ÑĮÑİ
ĠÐ¸Ð³ ÑĢÑĭ
ĠÐ½Ðµ Ð·Ð°
ĠÑĢÐµ ÐºÐ»Ð°
ĠÑģÑĤ Ð¾ÑĢÐ¾Ð½Ñĭ
Ð»Ð¸ ÑĤ
ÑģÑĤÐ²ÐµÐ½ Ð½ÑĭÐ¹
ĠÑĢÐ¾ÑģÑģÐ¸ Ð¹
ĠÐ»Ð¸ ÑĨÐ°
ĠÑĢÐµ ÑĪÐ¸
ĠÐ° Ð½Ð°Ð»Ð¸
ĠÐ½Ð° Ð±
ĠÐ½Ð°Ð´ Ð
ĠÐ½Ð°Ð´Ð ¾
ĠÐ´ÐµÑıÑĤÐµÐ»ÑĮ Ð½Ð¾ÑģÑĤÐ¸
Ð¼ Ð¾Ð²
Ð¼Ð° ÑĤÐ¸
ĠÐ¿Ð¾Ðº ÑĥÐ¿
Ð³Ð¾Ð´Ð°ÑĢ Ñı
ĠÐ² Ð½ÑĥÑĤÑĢÐµÐ½
ĠâĢ ¢
Ð² Ð¾Ðµ
Ġ Â
ĠÐºÐ°Ð¶Ð´ ÑĭÐ¹
ĠÐ½Ñĥ Ð¶
ĠÐ¡ Ð°Ð½
ĠÐ¿ÑĢ Ð¾Ð³
âĢ¦ \
ĠÐ¸Ð½ÑĦÐ¾ÑĢÐ¼Ð° ÑĨÐ¸Ñİ
ĠÐ¾ÑĦÐ¸ ÑĨÐ¸Ð°Ð»ÑĮ
Ġ to
ÑħÐ° Ð½Ð¸
ÑĤÐ¾ÑĢ Ð¾Ð²
Ðº Ð¾Ð»ÑĮ
Ġ 26
998 3
ĠÐ¿Ð¾Ð´ Ð°
ĠÑĢÐ°ÑģÐ¿ ÑĢÐ¾ÑģÑĤ
ĠÐĴÐ»Ð°Ð´Ð¸ Ð¼Ð¸
ÑīÐ¸ Ð¼
ÐºÑĥ Ñİ
ĠÑĥ ÐºÑĢÐ°
e m
ĠÑģÑĤ ÐµÐ½
ĠÐ²Ð½Ðµ ÑĪ
ĠÐ¸Ð½ÑĦÐ¾ÑĢÐ¼Ð° ÑĨÐ¸Ñı
ĠÐĽ Ñİ
ĠÑħ Ð¸
97 8
ĠÐ¸ Ñģ
ÐĴ ÐĲ
ĠÐ§ Ðµ
ĠÑĩÐ¸Ñģ Ð»Ðµ
ÑģÑĤÐ²ÐµÐ½ Ð½ÑĭÑħ
94 5
ĠÐłÐµÑģÐ¿ÑĥÐ±Ð»Ð¸ ÐºÐ¸
ĠÐ¾Ð³ÑĢÐ° Ð½Ð¸
ĠÑĢÐ°ÑģÐ¿ Ð¾Ð»Ð¾Ð¶
Ð¾Ð¿ ÑĢÐ¸Ñı
96 7
ÑĩÐ¸ Ñģ
Ð»Ðµ Ð·
ĠÐ¿ ÑĥÐ½
ĠÐ¶Ð¸Ð· Ð½ÑĮ
ĠÑĥÑģÐ»Ñĥ Ð³Ð¸
ĠÐ² Ð¾Ð»Ð¾Ñģ
nÐľ Ð°
ĠÐ¾Ð´ Ð½Ð¾Ð¹
ĠÐ¿ÑĢ Ñı
ĠÐ¼Ð¸ Ð½ÑĥÑĤ
ÑħÐ¾Ð´ ÑıÑĤ
ĠÐº Ð¾Ñģ
ĠÐ½Ð° ÑģÐµ
i z
ĠÑģ ÑĥÐ±
ĠÐ¼Ð¸ Ð½Ð¸
ĠÐ´ ÐµÐ½Ðµ
ĠÑĤ Ð¾Ð½
ĠÐ¿ÑĢÐ¾ ÑĦÐ¸
¾ Ð½Ð¾
ĠÐ·Ð° Ð¿Ð°
ÐµÐ½ ÑĤÑĭ
Ñī ÑĥÑİ
Ð ¾Ð½Ð¾
ĠÑģÐ¾Ð¾ÑĤÐ²ÐµÑĤ ÑģÑĤÐ²Ð¸Ð¸
ÐĿ Ð«
ÑĮ ÐµÑĢ
ĠÐ¿Ð¾ÑĤ Ð¾Ð¼Ñĥ
ĠÑĥÑģÐ»Ñĥ Ð³
Ð ©
95 7
ÑĪÐ° ÑĤÑĮ
ĠÑĤ ÑĢÑĥÐ´
Ñĩ ÐµÐ½ÑĮ
c a
b d
ĠÐ± Ð¾ÑĢ
ĠÐ² ÑĢÐµÐ¼ÐµÐ½
99 46
Ð¾Ð·Ñı Ð¹
ĠÐĴ Ð¾Ð»
ÑĢ ÐµÐ½Ð¸Ñı
20 0
Ðº Ð¾ÑģÑĤÑĮ
Ð» ÑĭÑħ
ĠÐ½Ð° Ð¹ÑĤÐ¸
Ðµ ÑģÑĤÐ¸
ĠÐ¼Ð°ÑĤÐµÑĢÐ¸Ð°Ð» Ñĭ
998 8
ĠÐ¼ Ñı
ĠÑģ ÑĢÐ°Ð·Ñĥ
ÑĩÐµÑģÐºÐ¸ Ð¼
o u
17 4
ĠÐ½Ð¸ Ðº
ÑģÑĤÐ²ÐµÐ½ Ð½Ð¾Ð¹
99 45
ĠÐº ÑĢÑĭ
Ð» ÐµÐ½Ð¸Ñİ
ĠÐ¿Ð¾Ñģ Ðµ
ÑĪ ÐµÐ½Ð¸Ð¸
ĠÑģ Ð¼Ð¾Ð¶
Ðľ Ðĺ
Ð¾Ð» ÐµÑĤ
Ð² ÑĭÐ¹
ĠÐĴ Ð°Ð¼
95 3
Ð» Ð¾Ð¿
ĠÐ¿Ð»Ð° ÑģÑĤÐ¸
ĠÑģÐº Ð¾ÑĢ
ÑĩÐ¸ Ðº
ĠÐ¿Ð¾ Ð½Ð¸Ð¼Ð°
ĠÑģÐ¾Ð² ÐµÑĤ
Ð° Ð±
ĠÑıÐ²Ð»Ñı ÑİÑĤÑģÑı
on e
ĠÐºÐ¾ÑĤÐ¾ÑĢ Ð¾Ðµ
ĠÑĥÐ¿ÑĢÐ°Ð² Ð»ÐµÐ½Ð¸Ñı
ĠÐ±ÐµÐ·Ð¾Ð¿Ð°Ñģ Ð½Ð¾ÑģÑĤÐ¸
ĠÐ¼Ð° ÐºÑģÐ¸
ĠÐ² ÐºÑĥ
Ġ 28
ÑĬ ÐµÐ¼
ĠÐ¿Ð¾Ðº ÑĥÐ¿Ð°
97 3
ÑĢÐ° Ñħ
ÑģÐº Ñĥ
Ð·Ð¸ Ð¸
ĠÑĢÐµÐºÐ¾Ð¼ÐµÐ½ Ð´Ñĥ
Ð¸Ð± Ð¾Ð»ÐµÐµ
o b
Ñı ÑĤÐ¸
ĠÐ»Ñİ Ð´Ð¸
Ð´Ð¸Ð²Ð¸ Ð´Ñĥ
ĠÑģÑĤ Ð°Ð²
¾ ÑĦ
ÑīÐ° ÐµÑĤ
ĠÐºÐ¾Ð½ÑĦÐµÑĢÐµÐ½ ÑĨÐ¸Ð¸
ĠÐ¿ÑĢÐ¾ ÑĪ
ĠÐ¿Ð¾Ð» ÐµÐ·
s k
Ð´ÐµÑĤ ÑĮ
20 5
ĠÑģ Ð±Ð¾ÑĢ
Ð¼ÐµÐ½Ð¸ ÑĤÑĮ
Ñģ ÐµÐ¼
Ð¹ÑĤÐµ ÑģÑĮ
ĠÐ²Ð° ÑĪ
ĠÐ± Ñİ
ĠÐ¾Ð±ÐµÑģÐ¿Ðµ ÑĩÐ¸
Ð½ Ð¾Ðº
ĠÐ¿ Ð¾Ð³
Ð· Ñı
Ð ¾ÑĦ
Ð² ÑĭÑħ
Ð°Ð»ÑĮ Ð½Ð¾
ĠÐ½Ð° Ð¿ÑĢÐ¸Ð¼ÐµÑĢ
n P
Ð¾Ð¹ ÑĤÐ¸
ĠÑİ ÑĢÐ¸
ĠÑĢÐµ Ð´Ð°
C D
Ð´ ÐºÐ¸
ÑģÑĤÐ²ÐµÐ½ Ð½Ð¾Ð³Ð¾
ĠÐ¿ÑĢÐ¸ Ð»Ð¾Ð¶
ÑģÑĤÐ²Ñĥ ÑİÑĤ
nÐŀ Ñģ
ĠÐ¼Ð¾Ð¼ ÐµÐ½ÑĤ
4 13
96 3
ÑĤÐ¾ÑĢ Ð¾Ð¼
n d
n Ð¿
ĠÐŀÐ´ Ð½Ð°ÐºÐ¾
ĠÑĦÐ¾ÑĢ Ð¼Ð°
ÑĢÐ° Ð¼Ð¸
ÑģÑĤÐ¸ ÑĤÑĮ
Ġ20 14
Ð¾Ð»Ð¸ ÑĤ
985 767
Ð¾Ñĩ Ð½ÑĭÐ¹
ĠÐºÐ¾Ð¼ Ð°Ð½
ĠÐ½Ð¾Ð¼ ÐµÑĢ
ĠÐ¡ ÑĤ
ĠÑģ Ð¾Ð»
ĠÑĩÐ° ÑģÐ¾Ð²
ĠÐŁ ÑĢÐ¾
ĠÑĤÑĭ ÑģÑı
ĠÐµ Ñĳ
a e
nÐĴÐµÑĢ Ð½ÑĥÑĤÑĮÑģÑı
ÑĪ ÐµÐ½Ð¸Ð¹
ĠÐ¾Ðº ÑĤ
] \
Ð¾Ð ¾ÑĢ
90 4
ĠÐ³ Ð¾Ð»Ð¾Ñģ
ĠÑģÐ² Ð¾Ð±
ĠÐ¾ÑģÐ¾Ð± ÐµÐ½
Ñĩ Ð½Ð¾Ð³Ð¾
Ð¾Ñı ÑĤ
¾ ÑĪÐ¸
ĠÑĤÐ¾ÑĢ Ð³Ð¾Ð²
Ðµ ÑĨ
ĠÐŁ ÑĢÐµÐ´
ĠÐĳ Ñĥ
ĠÑģÐ²Ð¾Ðµ Ð³Ð¾
Ð ¾ÑĪÐ¸
¾ ÑĨÐµÐ½
ĠÐºÐ¾ÑĤÐ¾ÑĢ Ð¾Ð³Ð¾
8 12
Ð´ Ð¾Ð¼
Ð±Ð° ÑĤÑĭ
n C
ÑĨÐ¸Ð¾Ð½ Ð½ÑĭÑħ
Ð» Ð¾Ð¹
ĠÑģÐ¾Ð¾ÑĤÐ²ÐµÑĤ ÑģÑĤÐ²ÑĥÑİ
ĠÐºÐ¾Ð¼Ð¿Ð° Ð½Ð¸Ñı
ĠÑĤ ÑĢ
ĠÐ´ÐµÐ¹ ÑģÑĤÐ²Ð¸Ñı
ÑĤÐµÐ»ÑĮ Ð½Ð¾Ðµ
ĠÑĤÐµÑĢÑĢÐ¸ÑĤÐ¾ÑĢÐ¸ Ð¸
ÑĪÐµ Ðµ
Ð³ ÑĢÑĭ
90 6
Ð»ÐµÐ½ Ð
Ð»ÐµÐ½Ð ¾
Ġ ÑĢÑıÐ´
ĠÐ¿Ð¾Ð¼ Ð¾ÑīÐ¸
ĠÐ¼ Ð¾Ñī
ĠÐ¿Ð¾ Ñħ
ĠÐº Ð³
ĠÐĿ Ð¾Ñı
ĠÑģÑĤ Ð°Ð½Ð¾Ð²
ÑģÑĤÐ² Ð¾Ð²Ð°ÑĤÑĮ
ĠÐ¶Ð¸Ð² Ð¾ÑĤ
ÑģÐ¸ Ð±Ð¾
ÑĤÑĥ ÑĢ
Ñİ ÑīÐµÐ³Ð¾
Ðķ ÐĿ
ÑĢ Ð¾Ð·
Ð° Ð¼Ð¸
ĠÐ¿ ÑĢÐ°Ð·Ð´
ÑĤÑĮ Ñı
ĠÐ¾ÑĤÐ²ÐµÑĤ ÑģÑĤÐ²ÐµÐ½
ĠÑĥ Ð½Ð¸Ð²ÐµÑĢ
ĠÐ¸Ð¼Ðµ ÑİÑĤ
20 17
Ġ }
ĠÐŁÐ¾Ñģ Ð»Ðµ
9 14
EF BC
Ñĩ ÐµÐ¼
ĠÑģ Ð»Ð¾Ð²
ĠÐ± Ð»Ð¾Ðº
Ð¾Ð± ÑĢÐ°Ð¶
b f
c c
ÑģÐ¸ ÑĤÑĮ
ÑĤÐ° Ð¼
ĠÐ¼ Ð¾Ð±Ð¸
Ð´Ñĥ ÑĤ
Ð¸ ÑĢ
15 6
I I
ĠÐ·Ð° ÐºÑĢÑĭ
ĠÑĦ Ð°Ð¹
ĠÐ¿ÑĢÐ¾ÑĦÐµÑģÑģÐ¸ Ð¾Ð½Ð°Ð»ÑĮ
ĠÑģ Ð¼Ð°
ÐµÐ¼ ÑĭÐµ
ĠÐłÐ¾ÑģÑģÐ¸ Ñı
¾ Ñİ
d d
Ð ¾Ñİ
ĠÑģ Ð»Ð¸
Ð¶ Ð½ÑĭÑħ
98 2
ĠÐ¾ÑĤ ÑģÑĥÑĤ
ĠÐ¿ Ð¾ÑģÑĤÐ°Ð²
ĠÐ¿Ð¾ ÑıÐ²Ð¸
9 13
Ñĩ ÐµÐ½Ð¸Ð¸
99 99
Ð± ÐµÑĢ
ĠÑĤ Ð¾Ð¿
ĠÐ½Ð° Ð·ÑĭÐ²Ð°
9 16
m ent
ÑģÑĥ Ð»ÑĮÑĤÐ°
ĠÐ¾ÑĢÐ³Ð°Ð½Ð¸ Ð·Ð°
ĠÐ¿ ÐµÐ½
ĠÐ¼Ð¸ Ðº
ĠÐ³Ð° ÑĢÐ°Ð½
ĠÐĽ Ðµ
ĠÐ½Ð¾Ð² Ð¾ÑģÑĤÐ¸
Ð»ÐµÐ½ ÑĮ
ĠÐ¼ Ð¾ÑĢ
ĠÑģÑĤÐ¾Ð¸ Ð¼Ð¾ÑģÑĤÑĮ
ĠÑĤ Ð¾Ð»
ĠÐ¼ÐµÐ´Ð¸ ÑĨÐ¸Ð½
ĠÑģÑĤ Ð¾Ð»
ÑģÑģ Ñĭ
ĠÑĢÐµ Ñģ
ĠÐļ Ð°ÑĢ
93 6
ĠÐ²ÑĭÐ± ÑĢÐ°ÑĤÑĮ
8 08
94 6
9 24
ĠÐ¿Ð¸ ÑģÑĮ
10 4
ĠÐŁ Ð¾Ð»ÑĮÐ·Ð¾Ð²Ð°
ĠÐ± Ð¾Ð»ÐµÐ·
ÐµÐ½ Ð½ÑĭÐ¹
ĠÑħ Ð¾ÑĤ
ĠÑĢ Ð¾Ð´
ĠÐŀ ÐºÑĤ
Ð»Ñı ÑİÑĤ
ĠÐº ÑĢÑĥ
ÑĪÐ° ÐµÑĤ
ÑĢÑĥ Ñģ
18 4
ĠÑħ Ð¾Ñĩ
ÑģÐº Ð¾Ð¼Ñĥ
ĠÐºÑĢÐ° ÑģÐ¸
ĠÑĥ Ð»Ð¸
ÑģÑĤÐ°Ð½Ð° Ð²Ð»Ð¸
ÑĤÑĥ ÑĢÐ°
Ð¾Ð½ Ñĥ
ĠÑģÑĤ Ð¾ÑĢÐ¾Ð½
ĠÑģ Ð½Ð°
ĠÐº Ð½Ð¾Ð¿
Ġ Ð¾ÑĢÐ¸
ÐµÑĢ ÐºÐ°
ĠÐºÐ¾Ð¼Ð¿ Ð»ÐµÐº
ĠÐ¿ÑĢÐ°Ð² Ð
ĠÐ¿ÑĢÐ°Ð²Ð ¾
ĠÐ³ ÐµÑĢ
ĠÐ§ ÑĤÐ¾
nÐĺ Ð·
17 7
Ðļ Ð°
ĠÑģÐ°Ð¼ ÑĭÑħ
n y
ĠÐ² Ð»Ð¸Ñı
ĠÑĢ Ð¾Ð·
ĠÑģ Ð¾Ñģ
ĠÑĢÐ° Ð¼
ĠÑģ ÑĢÐ°Ð²
Ð¸ Ð»ÑĮ
ĠÐºÐ°Ðº Ð¾Ð¹
9 23
ÑĤÑĭ Ðµ
ĠÐºÐ¾Ð½ ÑĦÐ¸
ĠÐ´Ð¾Ð» Ð¶Ð½Ð¾
ĠÐ°Ð²ÑĤÐ¾Ð¼ Ð°ÑĤÐ¸
ĠÐ¡ Ñĥ
ĠÐ¿ Ð°Ð¼
e p
ĠÑĢÐ°Ð±Ð¾ÑĤ Ðµ
Ðļ Ðĺ
ĠÐļ Ð¾ÑĢ
¾ ÑĪ
ÑģÑĤÐ²ÐµÐ½ Ð½ÑĭÐµ
ĠÐ¸Ð· Ð³Ð¾ÑĤÐ¾Ð²
ĠÐ¸ÑģÐº ÑĥÑģ
Ð²Ð»Ðµ ÐºÐ°
ĠÐ¿ÑĢÐµÐ´ Ð¾ÑģÑĤÐ°Ð²
ĠÐ¼Ð¸ ÑĢÐ°
Ð ¾ÑĪ
997 4
99 34
Ð ¾ÑĨÐµÐ½
ÐµÐ½ ÐµÑĢÐ°
ÐµÐ¼ Ð¾Ð½
e a
ĠÐ´Ð¾Ð»Ð¶ Ð½Ð°
Ġ4 0
Ð¢ ÐĲ
ĠÐľÐ¸Ð½Ð¸ ÑģÑĤÐµÑĢ
____ ____
Ð¾ÑģÑĤ Ð¾Ð²
ÑĢÐ¸ Ð¹
Ð¼Ð° Ñı
Ð» ÑĭÐ¹
ĠÐ¼ÐµÑĢ Ð¾Ð¿ÑĢÐ¸Ñı
ĠÐ½Ð° Ð·Ð°Ð´
ĠÐºÐ° ÑĤÐµÐ³Ð¾ÑĢÐ¸
ĠÑģÐ¾Ñħ ÑĢÐ°
ÑĤÐ° Ñħ
n T
15 5
ÑīÐµ ÑģÑĤÐ²Ð¾
ĠÐ½Ð°Ð»Ð¸ÑĩÐ¸ Ð¸
ĠÑĥ ÑĤÐ²ÐµÑĢ
n E
ÐĴ Ðŀ
b er
ĠÐ¸ÑģÑĤ Ð¾Ñĩ
99 26
A D
90 5
98 0
ĠÐ·Ð° ÑĢÐµÐ³Ð¸ÑģÑĤÑĢÐ¸
8 04
ĠÐ·Ð°ÐºÐ¾Ð½ Ð¾Ð´Ð°
ĠÐŁÐ¾ ÑįÑĤÐ¾Ð¼Ñĥ
ĠÑģ ÐµÑĤÐ¸
Ð¼Ð° ÑĤÑĢÐ¸
10 6
ÑģÑĤ Ð¾Ð¹
Ð¶ Ð½Ð¾Ð¹
ÐºÐ¸ Ð¼Ð¸
93 7
ÑĤÐ¸Ð² Ð½ÑĭÐµ
ÐŁ ÐµÑĤÐµÑĢ
ĠÐ¾ÑĤÐ»Ð¸ ÑĩÐ°
Ð²Ðµ Ð·
4 23
Ð¿Ñĥ ÑĤÐ°
ÑĤ Ð¾ÑĤ
ĠÑĦÐ¸Ð½Ð°Ð½ ÑģÐ¾Ð²
ÑĢÑĭ Ð¹
Ð»Ñİ Ð´
Ġ Ð¾ÑĪÐ¸
9 00
Ð¾Ð¶ ÐµÑĤ
ĠÑģÑĤ Ð°Ð»
ĠÑģ ÐµÐ½ÑĤ
ĠÑģÑĤ ÑĢ
Ð¾ÑĢÐ¸ Ñı
ĠÑģÐ°Ð¼ Ð¾ÑģÑĤÐ¾Ñı
Ð² Ð¾Ð»
ĠÐ¸Ð³ ÑĢÐ°
996 6
9 18
Ñĩ Ð½Ð°Ñı
ĠÐ½Ð¸ ÐºÐ°
99 44
ĠÑģÑĤÐ°Ð½ Ð´Ð°ÑĢ
9 27
at ion
Ð¾Ð»ÑĮ Ð½Ð¾
ĠÐ·Ð° Ð¿ÑĢÐµ
s p
ĠÐ° Ð±
ĠÐ½Ð°ÑħÐ¾Ð´Ð¸ ÑĤÑģÑı
Ġ20 13
Ð¶Ð´ ÐµÐ½Ð¸Ñı
ĠÐ´Ð¾Ð¼Ð° ÑĪ
ĠÐ·Ð° Ð´
ĠÐºÐ°ÑĩÐµ ÑģÑĤÐ²Ð°
ĠÐ¤ÐµÐ´Ðµ ÑĢÐ°Ð»ÑĮ
36 6
ĠÐ¿ÑĢÐµÐ´ Ð¾ÑģÑĤÐ°Ð²Ð»Ñı
ĠÐ½Ð¸ Ð·
Ð¸ Ñħ
nÐľ Ñĭ
Ð»Ñı Ñħ
ĠÐ¼ ÐµÐ½ÑĮ
Ñģ ÑģÐµ
ĠÐ²Ð¼Ðµ ÑģÑĤÐµ
ĠÐ¾ÑĩÐµ ÑĢÐµÐ´
ĠÐĺ ÑģÐ¿
ÑĨÐ¸Ð¾Ð½ Ð½ÑĭÐµ
ÑĢÑĥ ÐµÑĤÑģÑı
ĠÐ½Ð° ÑĪÐµÐ¹
93 5
Ġ and
d f
ĠÑħÐ°ÑĢÐ°Ðº ÑĤÐµÑĢÐ¸ÑģÑĤÐ¸
ĠÐ¿ÑĢÐµÐ´Ð¿ÑĢÐ¸ Ñı
Ðµ Ð²Ð°
Ð¾Ð»ÑĮ ÐºÑĥ
Ð¾Ð¼Ð¸ Ð½Ð°
Ð²Ð¸ Ð¶Ð¸
ĠÐŁ Ðŀ
ĠÐ¿ÑĢÐ¸Ð¼ÐµÐ½ Ñı
ÑĭÑĪ Ð»ÐµÐ½
ĠÑģÐµ Ð»ÑĮ
ĠÐ¾Ðº Ð¾Ð½
Ð»Ðµ Ð³
Ð»Ð¸ Ð½Ð°
ÐµÐ¼ ÑĭÑħ
ÑĢÐ¾Ð² ÐºÐ¸
ÑıÐ² Ð»ÐµÐ½Ð¸Ñı
ĠÐµ ÑīÑĳ
ÑģÑĤÐ¸ ÑĤÑĥ
ĠÐ¿ÑĢÐ°Ð²Ð¸ Ð»Ð°
a k
ĠÐ² ÐºÐ»Ñİ
ĠÐľ Ñĥ
ĠÐ´ÑĢÑĥÐ³ Ð¾Ð¹
ĠÐ¸Ð½ Ð´Ð¸Ð²Ð¸Ð´Ñĥ
ĠÑĢÐµÐ±ÐµÐ½ ÐºÐ°
ĠÐľÐ¾ÑģÐº Ð²Ð°
ÑĤÐ° ÑĢ
ÑģÐ¸ Ð»Ð¸
ĠÐ´ ÐµÑĢ
e f
ĠÐ½Ð° ÑĢÐ¾Ð´
Ġ Ð¾ÑĨÐµÐ½
Ð²Ð¸ Ð³Ð°
ĠÑģÐ²Ð¾Ð¸ Ð¼Ð¸
ĠÐ½Ð°ÑĩÐ° Ð»Ñĥ
ĠÑģ Ñħ
Ð°Ð»ÑĮ Ð½ÑĭÑħ
ĠÑģÑĤ ÑĢÑĥ
23 07
ĠÑĤ ÐºÐ°
20 4
ĠÐ½Ð¸ Ð¼
ĠÑĥ Ð¼
or e
n M
Ġ Ð»Ñĥ
8 23
Ĥ ½
ÐµÑĢ Ð¾Ð²
ĠÑı ÑĢ
Ġ {
12 5
ĠÐ½Ð° ÑĪ
ĠÐ¾Ðº Ð¾Ð»Ð¾
z h
oo k
FA B
ÑĪÐµ Ð»
Ð½Ðµ ÑĨ
Ð¾Ð»Ð¾Ð³Ð¸ Ð¸
20 19
Ð» Ð¾Ð³Ð¾
ĠÐ¢Ð°Ðº Ð¶Ðµ
17 5
Ñģ ÐµÐ½
i te
ĠÐºÐ¾Ð½ ÐºÑĥÑĢ
ÑĤ Ð½ÑĭÐµ
Ð¾Ð½ÑĤÐ° ÐºÑĤÑĭ
ĠÐ¾ÑĤÐ½Ð¾ ÑģÐ¸
996 5
ĠÐ¼Ð°ÐºÑģÐ¸ Ð¼Ð°
ĠÐ¼Ð° ÑĤ
ĠÑĪÐ¸ ÑĢÐ¾Ðº
Ð½Ð° Ð¼
Ð½Ð¸ ÑĨÑĥ
ĠÐ¿Ð¾Ð´ Ð¿Ð¸
ĠÐ¾ÑĤ Ð´ÑĭÑħ
ĠÐ»ÐµÐ³ ÐºÐ¾
ĠÐ¿ÑĢÐ¾ÑĨÐµ Ð´Ñĥ
Ð° Ð³Ð°
ĠÐ¿ÑĢÐµÐ´ ÑĥÑģ
ĠÑģ Ð¾Ð±Ñĭ
ĠÐ¿ÑĢÐµ Ð¿Ð°ÑĢÐ°
Ð»Ñİ Ð´Ð°
ĠÐľÐ¾ÑģÐº Ð²Ðµ
ĠÐĲ Ð»
ĠÐ·Ð°Ð²Ð¸ÑģÐ¸ Ð¼Ð¾ÑģÑĤÐ¸
Ð¼Ð¾Ð¶ Ð½Ð¾
ÑĩÐ¸ Ð½
Ð³Ð¸ Ñı
ĠÐ¼Ð¾Ð´Ðµ Ð»Ð¸
ĠÐ´Ð° Ð»ÐµÐµ
ÑĤ Ð¾Ðº
Ñĩ ÐºÐ°
ĠÐ¾Ð´ Ðµ
ĠÐ¾Ð´ Ð½Ð¾Ð³Ð¾
ĠÐ¿ ÑģÐ¸Ñħ
ÑĨÐ¸Ð¾Ð½ Ð½ÑĭÐ¹
ĠÐ¼Ð°ÑĤÐµÑĢÐ¸Ð° Ð»Ð°
nÐĴ Ð¸
I N
ĠÐ°Ð²ÑĤÐ¾Ð¼Ð° ÑĤÑĭ
Ð± Ð¾ÑĢÐ°
Ð½ Ð¾Ð´
99 37
ÑĤÑĭ Ñħ
ÑĤ Ð¾Ð½
ĠÐ²Ð¾Ð·Ð¼Ð¾Ð¶ Ð½Ð¾ÑģÑĤÐ¸
ĠÐºÐ¾Ð¼ Ð½Ð°
ĠÑĤ Ð¾ÑĤ
ĠÐ¿Ð¾Ð¼ Ð¾Ð³Ð°
Ð¸ Ð¿
Ð½Ð¸ ÐºÐ¾Ð¼
ĠÐ¼Ðµ ÑħÐ°Ð½Ð¸
ĠÑĤÐ¸ Ð¿Ð°
ĠÐ¿Ð¾Ð»Ñĥ ÑĩÐµÐ½Ð¸Ñı
ĠÐ²Ðµ ÑģÑĮ
Ð¾Ð²Ð° Ð»
ĠÑĢÐµÑģ ÑĥÑĢ
ĠÐºÐ° ÐºÐ¸Ðµ
o w
ÑĩÐµ Ðº
ĠÐ¾Ð±ÑĬ ÐµÐº
ÑĤÐµÐ»ÑĮ ÑģÑĤÐ²Ð¾
Ð¾Ðº ÑĢÐ°
ĠÐ²Ð¾Ð·Ð¼Ð¾Ð¶ Ð½Ð¾
ĠÐ½Ð¾Ð² ÑĭÐµ
Ð´Ð¸ Ð¸
nÐŁÐ¾Ð´ ÑĢÐ¾Ð±Ð½ÐµÐµ
Ð¾Ð²Ð° Ð½
ĠÐ¿Ð¾ÑĤ Ð¾Ð¼
ÑĮ Ð¸
Ġ g
n Ñģ
ÐºÐ»Ð° Ð´Ñĭ
Ġ Ð¾ÐºÐ°
ĠÑģÑĤÑĢÐ° Ð½Ñĭ
ĠÑĤÐ¾Ð²Ð° ÑĢÐ°
ĠÐ¼Ð½ Ð¾Ð³
¾ Ñĥ
Ġ- -
ĠÑĢÐ°Ð±Ð¾ÑĤÐ° ÐµÑĤ
ĠÐ¿ÑĢÐ¾Ðµ ÐºÑĤ
ĠÑģÑĤ ÐµÐº
Ð½Ð¸ ÑĨÐµ
ĠÐ½Ð° ÑĢ
Ð ¾Ñĥ
ĠÐ·Ð° Ð³
ÑģÐµ ÑģÑģÑĥ
ĠÐĵ ÐµÑĢ
ĠÐ¶ ÑĥÑĢ
18 6
Ð³Ð¸ ÑģÑĤÑĢÐ°
ĠÐ¾ÑĪÐ¸ Ð±
ÑĢÐ¾Ð² ÐºÐ°
10 1
ĠÐ½Ð¾Ð² ÑĭÑħ
ÑĤÐµÐ»Ñı Ð¼Ð¸
ĠÑĢÐµ ÑĪÐµÐ½Ð¸Ñı
12 6
90 8
ĠÑĥ Ð²Ð¸
E R
Ġ 35
Ð´Ðµ Ð±
Ð²Ñĭ Ð¼
Ð´Ð¸ Ñı
ĠÐ¿ÑĢÐ¾Ð¸Ð·Ð²Ð¾Ð´ ÑģÑĤÐ²Ð°
ÑĥÐ±Ð»Ð¸ ÐºÐ¾Ð²Ð°
ĠÐ±Ñİ Ð´Ð¶
ĠÑģÑĤ ÑĢÐµ
Ð¾ÑĤ ÑĢÐµÐ±
9 22
ĠÐ¼Ð¾Ð» Ð¾Ð´
ĠÑģ Ð¾Ðµ
Ð·Ð° Ñħ
ĠÐ¾Ð±Ð¾ÑĢÑĥÐ´ Ð¾Ð²Ð°Ð½Ð¸Ðµ
Ð½Ð³ ÑĢÐ°Ð´
ĠÑģÐ² Ðµ
p t
ĠÑĥÐ²Ðµ Ð»Ð¸ÑĩÐ¸
Ð»ÑĮ Ð½ÑĭÐ¼
ĠÐľ Ð°Ð¹
Ġ20 12
ÐĽ ÐĲ
Ð½Ñĥ ÑĤÑĢÐ¸
Ðº ÑĤÐµ
Ð»Ð° Ð²Ð°
ĠÐ½Ð¾Ð² ÑĭÐ¹
A B
ĠÐ´ÑĢÐ¾Ð±Ð¸ Ð»ÐºÐ°
17 6
ĠÑį ÑĤÑĥ
9975 2307
ĠÐ· Ð²
Ñİ ÑīÐµÐµ
ĠÑįÐºÑģÐ¿ Ð»Ñĥ
Ġ '
ĠÑģÑĤÐ° Ð»Ð¸
ĠÑĢÐµ ÑĪÐµÐ½Ð¸Ðµ
0000 3
14 5
ÐĹ Ð°
14 6
ĠÑĢÐµÐ¼Ð¾Ð½ ÑĤ
al l
Ð´ÐµÐ½ ÑĨÐ¸Ð°Ð»ÑĮ
Ð¿Ð° Ð½Ð¸Ñı
( '
Ðł Ðĺ
ĠÐ½ÐµÐ´ Ð¾ÑģÑĤÐ°
Ð¸ ÑĤÑģÑı
ÐĽ Ðĺ
Ð³Ð¸ Ð½Ð°
nt er
99 47
ĠÐ²Ñĭ Ð´Ð°
ĠÑĥ Ð»ÑĥÑĩ
ĠÐ¿Ð°ÑĢ ÑĤ
ÑĪÐ¸ ÑĤÑĮ
ĠÑĦÐ¾ÑĢ Ð¼Ñĥ
Ð»Ñĥ Ð¹
ĠÑģÐ¿ Ð¾ÑĢ
99 35
ĠÐºÐ¾ÑĤÐ¾ÑĢ Ð¾Ð¼
\" .
ĠÐ¸ ÑĤ
ĠÐ²Ð¾Ð· Ð½Ð¸Ðº
Ð´Ð¸ ÑĤÑĮ
84 0
Ð» ÑĭÐµ
Ð¢ Ðķ
ĠÐ¸Ð·Ð¼ÐµÐ½ ÐµÐ½Ð¸Ñı
Ð¾Ð³ Ð¾ÑĢ
ĠÐ¾Ð± ÑģÐ»ÑĥÐ¶Ð¸
ĠÑģÐ¾Ð²ÐµÑĢ ÑĪÐµÐ½
Ð· Ðµ
07 5
ÑĢÐµ Ð²Ð°
A C
ĠÐ±Ñĥ Ð¼Ð°
Ð¾Ñĩ ÐµÐ¼Ñĥ
15 4
ÑĤ Ð½Ð¾Ð¹
a a
ĠÐºÐ¾ÑĢ Ð·Ð¸
ĠÑĤÑĢÐµÐ± Ð¾Ð²Ð°Ð½Ð¸Ñı
Ðº Ð¾Ðµ
ĠÐ¾Ð±ÑĢÐ° ÑĤÐ¸
ĠÐĴ Ð¾Ð·
93 4
Ð· ÑĮ
Ðĵ Ðŀ
ĠÐŁ ÐµÑĢÐµ
ct ion
ĠÐ¿ÑĢÐ¸ Ð³Ð¾ÑĤÐ¾Ð²
ĠÑĩ Ð¸ÑĤÐ°
ĠÐ¡ Ð°Ð¼
nÐ¢ Ð°Ðº
ĠÐ¿ÑĢÐ¾Ðµ ÐºÑĤÐ°
ĠÑĤ Ð¾Ð³Ð´Ð°
ĠÐ½Ð° Ð¸Ð±Ð¾Ð»ÐµÐµ
ÑĤÐµÐ»ÑĮ Ð½Ð°Ñı
ĠÑĨ ÐµÐ½Ð°
ĠÑģ ÑĦ
ĠÐ¿Ð»Ð° Ð½Ð¸
ĠÐ´Ð¾ÐºÑĥ Ð¼ÐµÐ½ÑĤÐ°
ĠÐ³ÑĢÑĥÐ¿ Ð¿Ñĭ
ĠÐ· ÑĥÐ±
ĠÐ¾Ð´ Ð½Ð¾
Ð¾Ñģ Ð¿
Ð· ÐµÑĢ
ĠÐ¼Ñĥ Ð·Ñĭ
997 3
ĠÐºÐ° Ð¼
Ð¾Ð» Ð¾Ð³
ĠÐ¼Ð¸ ÑĢ
ĠÐ½Ð° Ð»
Ð½Ð° Ð·Ð½Ð°
ĠÑĢÐ°Ð·Ð»Ð¸Ñĩ Ð½ÑĭÑħ
Ñĳ ÑĢ
ÑĩÐµ ÑģÑĤÐ²Ð¾
ĠÐ´Ðµ Ð»Ð¾
ĠÑĢÐ°ÑģÑģÐºÐ° Ð·Ð°
Ð·Ð¸ Ñı
Ð°Ð»ÑĮ Ð½Ð¾Ð¹
ÐµÐ½ Ð
87 5
ÐµÐ½Ð ¾
ĠÐºÐ° ÑĤÐ°
ĠÐ¿ÑĢÐ°Ð²Ð¸ Ð»ÑĮÐ½Ð¾
ĠÐĳ ÐµÐ»
Ġ y
Ð³ Ð¾Ñģ
Ġ Ð¾ÑĩÐ¸
Ð° Ð»Ð°
ĠÐ¾ÐºÑĤ ÑıÐ±ÑĢÑı
ĠÑįÑĤÐ¸ Ð¼
ĠÐĺÐ½ ÑĤÐµÑĢ
Ġ //
ĠÐ¿ÑĢÐ¾Ð±Ð»Ðµ Ð¼Ñĭ
ĠÐŁ ÐµÑĤ
ĠÐ²Ðµ Ð´ÑĮ
ĠÑĥÑģÐ»Ð¾Ð²Ð¸ Ñı
O N
86 5
ĠÐŁ ÑĢÐ°Ð²Ð¸
ĠÐ¿Ð¾Ñĩ ÑĤÐ¸
ĠÑģÑģÑĭ Ð»
ĠÐ½Ð¸ ÑĩÐµÐ³Ð¾
Ð¼ Ð¾Ð¹
ÑĢÑĥ Ð¶Ð¸
ÑĤÐµÐ»ÑĮ Ð½Ð¾ÑģÑĤÑĮ
ĠÐ¿ÑĢÐ¾Ð¸Ñģ ÑħÐ¾Ð´Ð¸ÑĤ
ĠÐĿÐ¾Ñı Ð±ÑĢÑĮ
ĠÑħ ÑĢÐ°
Ð¶ Ð½ÑĭÐ¹
86 4
Ð¾ÑģÑĤÐ° Ð²Ð¸
16 6
ĠÑĨ ÐµÐ½Ñĭ
99 25
ÑĪ ÐµÑĤ
ĠÐ´ Ð¾Ð¿Ñĥ
ĠÐ²Ð°ÑĢÐ¸Ð°Ð½ ÑĤ
ĠÐĶ Ð¶
ĠÐ±Ñĥ Ðº
Ð¾Ð¶ Ð½Ð¾
ĠÐŁ Ðµ
ĠÐ¸Ð³ ÑĢÐ°ÑĤÑĮ
ĠÐ¿Ð° ÑĨÐ¸
A F
ĠÐľÐ¾ÑģÐº Ð¾Ð²
ĠÐ½Ð¸ Ð¶Ðµ
ĠÑĩÐµÐ»Ð¾Ð² Ðµ
ĠÐ¿ÑĢÐ¾Ð± Ð»ÐµÐ¼
ĠÑģ ÑĢÐµÐ´Ð¸
ĠÐ´ ÑĥÐ¼Ð°
Ð¼Ð¸ Ð½
ĠÑĤÑĢÐ°Ð½ ÑģÐ¿Ð¾ÑĢÑĤ
ĠÐĳ Ð¾Ð»ÑĮ
Ð¶ ÐµÐ½Ð¸Ð¸
ĠÐ¢ Ñĥ
nÐŁ ÐµÑĢÐµ
ĠÐļ ÑĥÑĢ
ĠÑĢÐ°Ð· Ð½ÑĭÑħ
ĠÐ¼Ð¸ ÑĢÐµ
99 36
E C
ĠÐķ Ð²ÑĢÐ¾Ð¿
ĠÐĴ Ð°Ñģ
ĠÐºÐ¾Ð¼ Ð¼Ñĥ
Ð²ÐµÐ´ ÐµÐ½Ð¸Ñı
ĠÐł Ñĥ
Ð¼Ð¾ÑĤ ÑĢÐµÐ½
ĠÐ¸Ð¼ Ñı
96 8
ĠÑģ Ð»ÐµÐ´
Ð´Ð° Ð½Ð¸Ðµ
ĠÐºÐ¾Ð» Ð»ÐµÐº
ĠÐºÐ¾Ð½ ÑĤÐ°
ĠÐ¾Ð³ ÑĢÐ¾Ð¼
d c
Ð¾Ð¾Ð± ÑīÐµ
Ð²Ð¸ Ð°
Ð²Ð¸Ð´ ÐµÑĤÐµ
Ñī ÐµÐ½Ð¸Ð¸
ĠÐºÑĢÐµ Ð¿
Ġ2 9
Ð± ÑĢÐ°
r am
ĠÐº Ð»Ñİ
94 7
Ð²Ð° Ð¹ÑĤÐµ
ĠÑĤ Ð²Ð¾ÑĢ
Ð± Ð¾Ð²
ĠĠ ĠĠ
997 8
ĠÐŁ Ð¾Ð»Ð¸
ÑĨ ÐµÐ½Ð¸
Ð±Ð¾ÑĤ Ð°
ÑĤ Ð½ÑĭÐ¹
ĠÐ±Ð¾Ð»ÑĮÑĪ Ð¾Ð¹
ÑĤÐµÐ»ÑĮ Ð½ÑĭÐ¼
ĠÐ¿ÑĢÐ¾Ð³ÑĢÐ°Ð¼ Ð¼Ñĭ
ĠÐ±Ð¸Ð· Ð½ÐµÑģ
Ð°Ð½ Ðº
Ġâ Ĩ
ĠÐ³ Ð¾Ð»
ÑĦÐ¾ÑĢ Ð¼Ð¸
ĠÐ½Ð°Ð¿ ÑĢÑı
nÐĵÐ»Ð°Ð² Ð½Ð°Ñı
Ð¸ Ð¹
ĠÐŀÐºÑĤ ÑıÐ±ÑĢÑĮ
37 5
ĠÐĲ Ð½Ð´
Ð° Ñħ
16 4
Ð¼Ð° ÑĢ
ÑģÑĤ ÑĥÐ¿Ð°
Ð³ Ð¾ÑĤ
---- ----
ĠÐ¾Ð±ÑıÐ·Ð° ÑĤÐµÐ»ÑĮÐ½Ð¾
ĠÐ¿Ð¾Ð»ÑĮÐ·Ð¾Ð²Ð° ÑĤÐµÐ»ÐµÐ¹
13 5
ĠÑģÐ²Ð¾Ð¸ Ð¼
ĠÐ¿ÐµÑĢÐ² ÑĭÐ¹
Ðº Ð¾ÑģÑĤÐ¸
Ġ Ð¾Ð¶Ð¸
ÐĽ Ðķ
87 4
ĠÐ·Ð°ÑīÐ¸ ÑĤÑĭ
.. ..
ĠÐ± Ð°Ð»
ĠÐ½Ð° Ð¿Ð¸ÑģÐ°
16 5
ĠÑĢÐ° ÑģÐº
Ð» Ð¾Ð²Ð°
Ð¶ Ð´Ðµ
ĠÑħ Ð¾Ð·ÑıÐ¹
ĠÐŀ Ð½Ð°
Ð¸ÑĤÐ° Ð¹
ÑĢÐ° Ð¹
Ð² Ð¾Ð´Ð°
nÐĶ Ð°
ĠÐ±Ð¾Ð»ÑĮ ÑĪÐ¸Ð½
ĠÐ¼ÑĥÐ½Ð¸ÑĨÐ¸Ð¿Ð° Ð»ÑĮÐ½Ð¾Ð³Ð¾
s u
Ð¾Ð¶Ð° Ð»ÑĥÐ¹
ÑĢÑĥ ÑİÑĤ
ĠÐľ Ð¸Ð½
13 6
ĠÐ¾Ð¿ Ð°Ñģ
ĠÑģÐ¾Ð¾Ð± ÑīÐ¸
ĠÐ·Ð° ÑıÐ²Ð¸
ĠÐ¿ÑĢÐ¸ ÐµÐ¼
ĠÐ·Ð°Ð¿ ÑĢÐ¾Ñģ
ĠÐ¼Ðµ ÑģÑĤÐµ
Ð½ ÑģÐºÐ¸Ð¹
ĠÐ½Ð° ÑĪÐµÐ¼
Ð¾Ñĩ ÑĮ
ÐµÐ´ Ð¶
ph p
94 3
ĠÐ¿ÑĢ Ð¾Ðº
20 1
ĠÐ¾ÑģÐ½Ð¾Ð² Ðµ
20 18
ĠÐ·Ð° Ð¿Ñĥ
ĠÐºÐ¾Ð½ÑĦÐ¸ Ð´ÐµÐ½ÑĨÐ¸Ð°Ð»ÑĮ
ĠÐ·Ð°Ð²Ð¸ÑģÐ¸ ÑĤ
ĠÑĩ ÐµÑĤ
Ð»ÑĮ ÑĤÐ¸
ĠÐ¿Ð»Ð° Ð½
ĠÑĥ ÑĩÐµÑĤ
22 6
ĠÐ° Ð¿ÑĢÐµ
ĠÐ²Ð¾Ð· Ð²ÑĢÐ°
Ð¼Ð¸ ÑĤÐµ
ĠÐ¼Ð° Ð»ÐµÐ½ÑĮ
Ð¾Ð½ Ð´
ĠÐ¸Ð· Ð¾Ð±ÑĢÐ°Ð¶
ĠÐ¡Ð°Ð½ ÐºÑĤ
ÑĢÐ¾Ð² Ð¾Ð¹
i st
Ð±Ðµ ÑĢÐ¸ÑĤÐµ
Ð°Ð»ÑĮ Ð½ÑĭÐ¹
ĠÐ²Ð° ÑĪÐµÐ³Ð¾
ĠÑı Ð½Ð²Ð°
ĠÐ§ Ð°
ĠÐķ Ð²
ĠÐ¡Ð¾Ð² ÐµÑĤ
ĠÐ½Ð°ÑĩÐ° Ð»Ð°
Ð¾Ð¿ Ð°
ĠÑĤÐµ Ð¿ÐµÑĢÑĮ
ĠÐ·Ð° Ð¼
ĠÑįÐºÑģÐ¿Ð»Ñĥ Ð°ÑĤÐ°
Ð¿ÑĢÐ°Ð²Ð¸ ÑĤÑĮ
Ð¶Ð´ ÐµÐ½Ð¸Ðµ
ĠÐ²Ñĭ ÑħÐ¾Ð´
Ð¾Ð» Ð¾ÑĤ
Ð¾Ð² Ð¸
ĠÐ· Ð²Ñĥ
nÐŁ ÑĢÐµÐ´
Ð·Ð° Ð¸Ð¼
ĠÑħ Ð¾ÑĤÑı
Ð»Ñı ÐµÐ¼
ÑĩÐ¸ Ðµ
n Ð²
ĠÑĤÐ¾Ð²Ð° ÑĢÐ¾Ð²
ÐµÐ½ Ð½Ð¾Ð¹
ĠÐ·Ð° ÑĤÐµÐ¼
ĠÑģ ÐµÑĤ
1 96
Ð¼ Ð¼
ĠÑģ Ð¾Ñĩ
ĠÐ´Ðµ Ð²Ñĥ
ÑĤÐ¸ ÑĦÐ¸ÐºÐ°
Ġco ok
Ð´Ð° Ð²
ĠÐ¿Ð¾Ð· Ð¸
ĠÐ·Ð° Ð²ÐµÑĢ
nÐĲ ÑĢ
Ð³Ð° Ð½Ð¸
ĠÐ¦ ÐµÐ½ÑĤ
ĠÑģ ÑĥÐ¿
Ðľ ÐĲ
20 6
nÐļ Ð¾Ð½
f c
ĠÑĢÐµÐ·ÑĥÐ»ÑĮÑĤÐ° ÑĤÐµ
ĠÐ¾Ð±ÑĬ ÐµÐ¼
18 5
ĠÑĥÑĩ ÑĢÐµÐ¶Ð´
12 4
ĠÐ¿ÑĢÐ¸Ð½ ÑĨÐ¸
ĠÑģÐ¾Ð² Ð¼Ðµ
Ð°Ð³ Ð½Ð¾ÑģÑĤÐ¸
Ð¾ÑģÑĤÐ°Ð² ÐºÐ°
ĠÑĥ Ð¿Ð°
Ð¶Ð´ Ñĭ
* *
ÑĩÐ° Ð¹
ĠÐ²ÐµÑĢ Ñħ
ĠÑģ ÐµÐ·
Ð°Ð» Ñĭ
Ðµ ÑĪÑĮ
ĠÐĺ Ð³
ĠÐ¼Ð¸ Ð»Ð»Ð¸
ÑĤÐµ Ð»Ñİ
D BF
Ġ6 0
ĠÐ²Ñģ ÐµÐ¹
ÑģÐºÐ° ÑĤÑĮ
Ġ Y
ĠÐŀ ÑĢ
ĠÐ·Ð° ÐºÐ»Ñİ
ĠÐ´Ð¸Ð·Ð° Ð¹
A N
ÐµÐ½ Ð½Ð¾Ð³Ð¾
ĠÐŀ ÐŀÐŀ
ĠÐ¸ Ð¼Ñĥ
ĠÐ¾ÑģÐ¾Ð± ÐµÐ½Ð½Ð¾
ĠÑģÐ¾Ð³Ð»Ð° ÑģÐ¸
ÑĢ Ð¾ÐºÐ°
Ð¼Ñĭ Ñģ
Ġâ Ĥ½
Ð¾Ñĩ ÐºÐ°
Ð¾Ð´ Ð¾Ð²
Ð¿ Ð»Ð¸
Ġ on
Ðº Ð²Ð¸
ĠÐ°Ð² Ð³Ñĥ
ĠÐ²Ð¾Ñģ ÑģÑĤÐ°Ð½Ð¾Ð²
ĠÐ½Ð° Ð¹
Ð¾ÑĢ Ð¾ÑĤ
ÑĪ ÐºÐ¾Ð¼
ĠÐ¼Ð° Ñı
1 95
ĠÑĨÐµ Ð»ÑĮ
ĠÐ§ ÐµÑĢ
9 17
Ð±Ð¸ ÑĢ
Ð¶ ÐºÐ¸
90 3
ĠÐ·Ð° Ð¿Ð¾Ð»
r y
ĠÑĤ ÑĥÑĤ
ĠÐ¾Ð±Ñĭ ÑĩÐ½Ð¾
ĠÐºÐ»Ð° ÑģÑģÐ¸
ÑĪÐµ Ðº
Ġ ÑīÐµ
e v
998 0
ĠÑĢÐ°Ñģ ÑĪÐ¸
ĠÑģ Ð¼Ð¾ÑĤ
ĠÑİÑĢÐ¸ Ð´Ð¸
i o
Ð¾ÑģÑĤ ÐµÐ¹
Ð¾ÑĤÐ¸ ÑĤÐµ
ĠÐ¾Ð±Ð¾ÑĢÑĥÐ´ Ð¾Ð²Ð°Ð½Ð¸Ñı
Ð»Ðµ Ð²
ĠÐ¿ÑĢÐµÐ´ Ð½Ð°Ð·Ð½Ð°
ÑĢÐµÐ¼ Ñı
ĠÐ¸ÑģÑĤÐ¾ÑĢÐ¸ Ð¸
ĠÐ¾Ð´ Ð½Ð°
Ð´ Ð½ÐµÐ²
Ð± Ð¾Ð¹
ĠÑģÐµÐ½ÑĤ ÑıÐ±ÑĢÑı
ĠÐĶ Ðµ
âĢ ¢
ÑĦ Ð¾Ð½Ð°
ĠÑĤÑı Ð¶Ðµ
ĠÐ¿ Ð¾Ð¶
97 0
ĠÐ¾Ð±ÑĢÐ°Ð±Ð¾ÑĤ ÐºÐ¸
ĠÐ½Ð° ÑĪÐ¸
13 4
Ð³ ÐµÐ¹
Ð¾Ð½ Ð¾Ð¼
ÑĦ Ñĭ
Ð°ÑĢ Ð¾Ð²
Ð¾Ð´Ðµ Ð»Ð¸
ĠÐ²Ð° Ð¶Ð½Ð¾
ÑĢÐ° Ð·Ð¸
ĠÐ¼Ð¸ Ð½Ñĥ
k i
Ð¾ÑģÑĤ Ð¾Ð¸
ĠÐ¼ÐµÐ¶Ð´Ñĥ Ð½Ð°ÑĢÐ¾Ð´
ĠÐ·Ð°Ð¿Ð¸ ÑģÐ¸
ĠÑĢÐ°Ð±Ð¾ÑĤÐ° ÑĤÑĮ
ĠÑĤÑĥ ÑĢÐ¸
ĠÑĤ ÑĢÐµÑĤÑĮ
ĠÐ´ ÐµÑĤÐ°
u d
ĠÐ²Ðµ Ð»Ð¸
Ð¾Ñĩ Ð½Ð¾Ð¹
ĠÑģ Ð»Ð°
15 7
ÑĤÐµ ÑĢÐµÑģ
12 3
ÐµÐ´Ðµ ÑĢÐ°Ð»ÑĮ
10 7
ne ws
ĠÑģÐ° Ð¼Ð¸
ĠÐ¾Ð± Ð½Ð°
ÑģÑı ÑĤ
Ðŀ Ð±
93 3
ĠÑĨÐ¸ ÑĦ
ĠÑĦÐ¾ÑĢ Ð¼Ð¸
Ð¶ ÐµÐ¼
ĠÑĤÐ¾Ð²Ð° ÑĢ
ĠÐºÐ¾ÑĤÐ¾ÑĢ ÑĥÑİ
12 7
ĠÐ¿ÑĢÐ¾Ð³ÑĢÐ°Ð¼ Ð¼
ÑĤÐ° Ð½
ÐºÑĢÐµ Ð¿
nÐ§ Ð¸ÑĤÐ°ÑĤÑĮ
ĠÐ²Ðµ Ð±
Ð¢ Ðĺ
ĠÐ½Ð° ÑħÐ¾Ð´Ñı
ĠÐ¿Ð¾Ð¼Ð¾Ñī ÑĮ
ÑĢÐ¸ ÐºÐ¸
Ð¾Ñĩ Ð½ÑĭÑħ
Ð¾Ð±Ð° Ð²Ð¸ÑĤÑĮ
Ġ Ð¾Ð²
ĠÑĩÐ¸ ÑģÑĤ
ig ht
ĠÐ¶Ð¸ Ð´
996 4
Ġ >
ÑĤÐ¸Ð² Ð½ÑĭÑħ
nÐŁ ÑĢÐ¾
Ð»Ð¸ Ð¸
Ð¶ Ð½Ð°Ñı
ĠÑĨÐ²ÐµÑĤ Ð°
Ð½Ð° Ð»Ð°
Ð²ÐµÐ´ Ð¾Ð¼
ĠÐ§ ÑĤÐ¾Ð±Ñĭ
ĠÐ¼ Ð¾Ð½ÑĤÐ°
ÑģÑĤÐ²ÐµÐ½ Ð½Ð°Ñı
ĠÐ¾ÑĤ Ð¼ÐµÑĤÐ¸
ĠÐ¼Ðµ Ð´
ĠÐ²Ðµ Ñģ
ĠÐĵ Ð»Ð°Ð²
Ð¸ ÑĤÑĮÑģÑı
ĠÐ°ÑĢ ÑħÐ¸
Ð¼Ð¾ÑĤ ÑĢ
ĠÐ¾Ð¿ Ð¸ÑģÐ°
ĠÑĦ ÐµÐ²
ĠÐ¾Ð¿ ÑĤÐ¸
ÐµÑĤÐµ ÑģÑĮ
Ð² Ð¾Ð²
Ð¾Ð¸Ð· Ð²Ð¾Ð´Ð¸
ĠÐ´ÑĢÑĥ Ð·
ĠÑĦÐ¾ÑĢ Ð¼Ðµ
ĠÑĥÑĢÐ¾Ð² ÐµÐ½ÑĮ
ĠÐµ Ð´Ð¸
Ð½Ñı ÐµÑĤÑģÑı
ĠÐ½ÐµÑģÐº Ð¾Ð»ÑĮ
ĠÐ¿ÑĢÐ°ÐºÑĤÐ¸ ÑĩÐµÑģÐºÐ¸
ĠÐ¾Ð¿ ÑĭÑĤ
nÐĺ ÑģÑĤ
Ġ5 00
ÑĢÐ¸ ÑĤ
ÑĩÐ¸ Ð²
96 0
ĠÐºÐ¾Ð¼Ð¼ÐµÐ½ÑĤÐ°ÑĢÐ¸ Ð¹
ĠÑģÑĤ ÑĢÐ°Ð½
Ġ n
ĠÐ´Ð¾ÑģÑĤÐ°Ð² ÐºÐ¸
a p
ĠÐ¼ Ð¾Ð¸
ÐĽ Ðŀ
84 6
ĠÐ¾Ð± Ð½Ð¾Ð²
ĠÐ¿Ð¾Ñģ ÐµÑĤÐ¸
ĠÑħÐ°ÑĢÐ°Ðº ÑĤÐµÑĢ
I D
ĠÑĥÑĩÐ°ÑģÑĤÐ¸ Ðµ
ÑģÐ¿ ÐµÐº
ĠÑĤ ÑĥÑĢ
ĠÐºÐ°Ð¶Ð´ Ð¾Ð³Ð¾
ĠÑĢÐ°Ñģ ÑħÐ¾Ð´
ĠÑĤ Ð¾Ð¼Ñĥ
ĠÑĥ ÑģÑĤÐ°Ð½Ð°Ð²Ð»Ð¸
ĠÐ¼Ð½Ð¾Ð³Ð¸ Ðµ
87 6
Ð´ÐµÑĢ Ð¶Ð¸
ĠÑĥ Ð²ÐµÑĢ
ĠÐ² ÑģÑı
ÐºÐ¾ Ð½Ð°
ÑĨÐ¸Ð¾Ð½ Ð½Ð¾Ð¹
Ð´Ðµ Ð»
ĠÑĪ ÑĤ
ĠÐ¿Ð¾Ñĩ ÐµÐ¼Ñĥ
ĠÐ¿Ð¾ÑĢ ÑĤÐ°
O R
Ð·Ð¸ ÑĢÐ¾Ð²Ð°Ð½
Ð´ ÐµÐ¼Ð¸
ĠÐº Ð¸Ñģ
ĠÑĤÑĢÐ° Ð´Ð¸
ÑĢÐ¾ Ð½Ð¸
ĠÐ¿ÑĢÐµ Ð¸Ð¼Ñĥ
ĠÑĦ Ð°Ðº
ĠÑĥÑģÑĤÑĢÐ¾Ð¹ ÑģÑĤÐ²Ð°
ĠÑĤÐ°Ðº Ð¾Ð³Ð¾
ĠÐĴ ÐµÐ»Ð¸
ĠÐ²Ð¾Ð· Ð´ÐµÐ¹
ÑĩÐµ ÑģÑĤÐ²Ð°
ĠÐĿ ÐĲ
Ð½ Ð¾Ð·
ÑĩÐµ ÑģÐºÑĥÑİ
ĠÐ³ ÑĢÐ¸
ÑĢÐµ Ð·Ð°
Ð´ ÐºÐ°
ĠÐ³ Ðµ
ĠÐ° ÑĤ
ĠÑĢÐµÐ³Ñĥ Ð»Ð¸
a i
A R
14 7
ĠÐ½ÐµÐ´ Ð²Ð¸Ð¶Ð¸
14 4
Ð¼Ñĥ Ð»Ñı
ĠÑĢÐ°Ð¼ ÐºÐ°Ñħ
ĠÑĤÐ¾ Ñĩ
84 5
ÑĤÐµ ÑĪÐµ
Ð»Ð¸ Ð±Ð¾
ĠÐ¸ÑģÐ¿Ð¾Ð»ÑĮÐ·Ð¾Ð²Ð° Ð½Ð¸Ðµ
ĠÑĦÐ¾ÑĢ ÑĥÐ¼Ð°
ĠÑĤ ÑĢÐ°Ð²
ĠÐ¿Ð¾ ÑģÐº
ÐºÐ° Ð·ÑĭÐ²Ð°
ĠÐĴ Ð
ÑĬ Ðµ
ĠÐ¿Ð¾Ð´ ÐºÐ»Ñİ
ĠÑĥ Ð´Ð¾Ð²
ĠÑģÐ²Ð¾Ð± Ð¾Ð´
ÑĢÐ¾Ð²Ð° ÑĤÑĮÑģÑı
99 23
85 5
Ð¾Ð²Ð° Ð½Ð¸Ð¹
Ð´Ð¸ ÑĤ
ĠÐ¾ÑĤÐ½Ð¾ ÑĪÐµÐ½Ð¸Ñı
d b
Ð´Ðµ Ð»Ð¸Ñı
Ð½Ð¸ Ð½
n L
ĠP ro
ĠÐ² Ð°Ð½
Ðŀ Ðł
ĠÐ¿Ð¾Ð¿ Ð°
84 4
ĠÐ¿ÑĢÐ¾Ð²ÐµÐ´ ÐµÐ½Ð¸Ñı
ÑģÑĤÐ²ÐµÐ½ Ð½Ð¾Ðµ
Ð¿Ð° Ð´
ĠÑģ ÑĥÑĤ
95 8
ĠÐĽ Ñĥ
o ur
ĠÐ»Ðµ ÑĩÐµÐ½Ð¸Ñı
ĠÐĴÐ ¾
ĠÐ² Ð·Ð°Ð¸Ð¼
ÑģÐ° Ð¹
996 3
Ð»ÑĮ Ð·Ñı
Ð¾Ð³ ÑĥÑĤ
ĠÐ¿ Ð»
ĠÑĨÐµÐ½ÑĤ ÑĢ
Ð¾Ð³ Ñĥ
ĠÐ¿Ð¾Ð´ Ð°ÑĢ
99 24
ÑĩÐ¸ ÐºÐ°
Ð²Ðµ Ð´ÐµÐ½
ĠÐ½ÐµÐ¼ Ð½Ð¾Ð³Ð¾
ÑĩÐ° Ð»Ð°
ĠÐļ Ð¾Ð»
nÐļ Ð¾Ð½ÑĤÐ°ÐºÑĤÑĭ
Ð»Ðµ Ð¶Ð°
ĠÐºÐ¾Ð¼ ÑĦÐ¾ÑĢ
ĠÐºÐ¾Ð½Ðµ ÑĩÐ½Ð¾
20 15
a z
Ð²ÐµÑĢ Ð´
Ð¦ Ðĺ
d u
nÐ ¾ÑĤ
ĠÐ¡ Ð°Ð¹
ĠÑģ Ð¾Ð±Ð¸
ĠÑģÐ¾ÑģÑĤÐ°Ð²Ð»Ñı ÐµÑĤ
ĠÐ¼Ð° ÑģÑĤÐµÑĢ
ĠÐ¿Ð¸ ÑģÐ°
ĠÐ¼ÐµÑģÑı ÑĨÐµÐ²
ĠÐ¼Ð½ Ð¾Ð¶Ðµ
ÑģÐ¸ Ð²
ĠÐ¼ Ð¾Ð´
Ð²Ð¸Ð´ÐµÑĤÐµ Ð»ÑĮ
995 6
Â ©
ĠÐ¡ Ð¿
ĠÑĢÐ¸ Ñģ
Ð»ÐµÐ½ Ð½ÑĭÐ¹
Ð´Ð° ÑİÑĤ
ĠÐµ Ð¶Ðµ
ĠÂ»Â» Â»
Ð¾Ð¸ ÑģÐº
26 5
Ñĩ ÐµÐ½Ð¸ÐµÐ¼
10 3
ĠÐ¼Ð° ÑģÑģ
ĠÐ¼Ð°ÑĢ ÑĤÐ°
Ġ ðŁ
ĠÐ¾Ð± ÑģÑĥ
ĠÐ¸Ð· Ñĥ
99 27
ĠÐ½Ð° ÑĪÐ¸Ñħ
ĠÐ¸Ð³ÑĢÐ¾Ð² ÑĭÐµ
ÑģÐµÑģÑģÑĥ Ð°ÑĢÑĭ
Ġ Ð¾Ñī
ĠÑĦÐ¾ÑĤ Ð¾Ð³ÑĢÐ°ÑĦÐ¸
ĠÐ·Ð½Ð° ÐºÐ¾Ð¼
ĠÐļ ÑĢÐ¾Ð¼Ðµ
ĠÐ½Ðµ Ð´Ðµ
ĠÐ´Ð¾ÐºÑĥ Ð¼ÐµÐ½ÑĤÐ¾Ð²
Ġ20 0
O S
C C
ĠÐ½Ð° Ð¿Ð¸
ĠÐ´Ð¾Ð± Ð°
ĠÐ± Ð°Ð·
ĠÐ½Ðµ Ð»ÑĮÐ·Ñı
ĠÑģÐ»ÑĥÐ¶ Ð±Ñĭ
ĠÑįÐ»ÐµÐºÑĤ ÑĢÐ¸
Ð¿ ÑĤÐ¾Ð¼
18 7
ĠÐ² Ð¾Ð¾Ð±ÑīÐµ
Ð¾Ñģ ÑĮ
ÑĩÐµÐ½ Ñĭ
90 7
20 16
ĠÑģÐµÑĢ ÑĮ
ĠÑħ ÑĥÐ´
Ñī ÐµÐ½Ñĭ
ĠÐ·Ð°Ð±Ð¾Ð»Ðµ Ð²Ð°Ð½Ð¸Ñı
Ġ20 11
ĠÐ½Ð° Ðº
ĠÐ¿Ð»Ð° ÑĤÐµ
Ð¶ ÐµÑĤÑģÑı
ĠÑĤÑĭÑģÑı Ñĩ
ĠÐº Ð¾Ð»Ðµ
ĠÑģÑĤ ÐµÐ¿
ĠÐ¿ÑĢÐ¸ ÑĢÐ¾Ð´
ĠÑĤÐ° ÐºÐ¸Ð¼
c i
% \
ĠÐ¿Ð¾ÑĤ Ð¾Ð»
ĠÐ² Ð´
ĠÐºÐ¾Ð½ ÑģÑĥÐ»ÑĮÑĤÐ°
ĠÐºÐ¾Ð½ÑĦÐ¸Ð´ÐµÐ½ÑĨÐ¸Ð°Ð»ÑĮ Ð½Ð¾ÑģÑĤÐ¸
ĠÐ² Ð¿
86 6
ĠÐ¼ Ð¾Ð½
ĠÐľ Ð°Ðº
ĠÐŁ Ð¸
n et
ĠÑĦÐ¾ÑĢ Ð¼Ñĭ
ĠÐºÐ¾Ð½ ÐºÑĢÐµ
ĠÐ¿ÑĢÐ¾ÑģÑĤ ÑĢÐ°Ð½
Ð¼ÐµÑĢÐ¸ ÐºÐ°Ð½
ĠÐľÐ¸Ð½Ð¸ÑģÑĤÐµÑĢ ÑģÑĤÐ²Ð¾
ĠÐĳ Ð¸
ĠÐ²Ñĭ Ð³Ð»Ñı
ĠÐ¼ÐµÑģÑı ÑĨ
ĠÐ¿Ð¾ÑģÐº Ð¾Ð»ÑĮÐºÑĥ
ĠÐĺ Ð²Ð°
Ġf or
9 20
b g
Ð³Ð¾ Ðµ
22 5
ĠÐ¿ÑĢÐ¸ Ñģ
ÑĦÐ¾ÑĢÐ¼Ð° ÑĨÐ¸Ñı
Ġ ï¿½ï¿½ï¿½ï¿½
Ð¾Ð² ÑĭÐ¹
93 35
996 8
Ñı ÑģÑĮ
c f
ÑĢÐµ Ð±Ð¸
Ð¾Ð³Ð¸ Ðµ
995 5
997 0
ÐºÐ¾ ÑĢÐ°
nÐļÑĥ Ð¿Ð¸ÑĤÑĮ
ÐºÐ¾Ð² Ð
ĠÐ½Ð° ÑĪÐµÐ³Ð¾
Ġ th
ÐºÐ¾Ð²Ð ¾
ĠÐº Ð¾Ð¶
Ð¼Ð¸ ÑĤÑĢÐ¸
ĠÐ¿ÑĢÐµÐ´ Ð¼ÐµÑĤ
ÑĢÐ¸ ÑĤÑĮ
ĠÐ°Ð²ÑĤÐ¾Ð¼Ð¾Ð±Ð¸ Ð»Ñı
87 7
m o
Ġ* \
ĠÑĥÐºÐ°Ð·Ð° Ð½
ĠÐ½Ðµ Ð¿ÑĢÐ¸
995 7
Ð¶Ð° ÐµÑĤ
ĠÐ²Ð¸ Ð´Ð°
ÑĪ Ð¾Ð¹
ÐºÐ¸ Ð½
ĠÑĤÑĢÑĥ Ð´Ð°
ĠÐº Ð¼
ÐºÐ¾Ð² ÑĭÐµ
ÑĢÐµ ÑģÑģ
Ð´ ÑĨÐ°
98 1
ÑĢÐµÐ¼ÐµÐ½ Ð½Ð¾
ĠÐ¿Ð¾Ð´ ÑĢÐ¾Ð±
ar d
ĠÑģ Ð¼ÐµÑĢ
ĠÑĢÐµ ÑĨÐµÐ¿
Ð° ÑĢÐ°
ĠÑĪ ÐºÐ¾Ð»
ĠÐĿ Ñĥ
Ñĩ ÐµÑĤÐ°
Ðł Ðķ
ĠÐ¿Ð° ÑĤ
Ð´ ÐµÑĤÑģÑı
16 7
Ðĺ Ð½
ÑĪ ÑĥÑİ
ĠÑĥ Ð·
ĠÑĢÑĥ ÐºÐ°Ð¼Ð¸
Ð·Ð¸ Ð½
n B
ĠÐ²Ð¾Ð· Ð½Ð¸ÐºÐ°
Ð°Ð»ÑĮ Ð½Ð¾Ð³Ð¾
F B
ĠÑģÐ°Ð¼Ð¾ÑģÑĤÐ¾Ñı ÑĤÐµÐ»ÑĮÐ½Ð¾
or d
999 2
m e
ĠÐ´Ð¾Ð² Ð¾Ð»ÑĮÐ½Ð¾
ĠÐ½ÐµÐºÐ¾ÑĤÐ¾ÑĢ ÑĭÐµ
Ð¾ÑĢÐ¾ Ð½Ðµ
- %
ÐºÐ° ÑĤÐµÑĢÐ¸
Ð¾ÑģÐº Ð¾Ð²
Ñħ Ð
n i
ÑħÐ ¾
ĠÐĴ Ðµ
ĠÐ¸ÑģÐ¿Ð¾Ð»ÑĮÐ·Ñĥ ÐµÑĤÑģÑı
ĠÐºÑĥ Ñħ
ĠÑĤÑĢÐµ Ñħ
ĠÐ±Ð»Ð° Ð³Ð¾Ð´Ð°ÑĢÑı
ĠÐº Ð¾Ð´
ĠÐ¿Ð¸ÑĤÐ° Ð½Ð¸Ñı
) ;\
Ð¾Ð¾ÑĢ Ñĥ
ĠÑĥÑĢÐ¾Ð² Ð½Ñı
87 3
ÑīÐ° ÑĤÑĮ
98 86
ĠÐ¾ÑĤ Ðº
Ð¡ ÐŁ
Ð¾Ð¶Ð°Ð»ÑĥÐ¹ ÑģÑĤÐ°
ĠÐºÐ¾ÑĢ Ð¿
ĠÐ¿ÑĥÐ±Ð»Ð¸ ÐºÐ°
ĠÐ±ÐµÑĢÐµ Ð¼ÐµÐ½
ĠÐ°Ð² ÑĤÐ¾
ĠÐ¸Ð¼ ÐµÑĤÑĮ
nÐŃ ÑĤÐ¾
Ġ 45
ĠÑĩ ÐµÑĤÑĭ
Ñİ ÑģÑĮ
97 25
Ð½Ð¾ÑģÑĤ ÑĢÐ°Ð½
Ð¿Ð»Ð° ÑĤÐ°
ĠÐ¿ÑĢÐ¾Ð¼ ÑĭÑĪÐ»ÐµÐ½
85 4
ÑĩÐ¸ ÐºÐ¾Ð²
ÑĢÐ¸ Ðº
Ð½Ñı ÐµÑĤ
ĠÐ²Ñĭ ÑģÑĤÐ°Ð²
ÐµÐ· Ð´
ÑĩÐ¸ ÐºÐ¸
94 8
ĠÑģÑĦ ÐµÑĢÐµ
Ð¾Ð³ Ðµ
ĠÐ¾ÑĤ Ð»Ð¸Ñĩ
Ð² ÑĪÐ¸Ð¹
Ì ģ
22 7
ĠÐ±Ð¸Ð· Ð½Ðµ
ĠÐ²Ñĭ Ð´Ðµ
Ð¾ÑģÑĤÐ° Ð²Ð¸ÑĤÑĮ
nÐĶ Ð¸
ÐĲ ÐĹ
Ñģ Ð¾Ð»
ĠÐ¼Ð½Ð¾Ð³Ð¸ Ñħ
Ð² Ð¾Ð±
ĠÐļ Ð¾Ð³Ð´Ð°
ĠÐ¸Ð¼ ÐµÐ½Ð¸
ÑĢ ÐºÑĥ
ĠÐºÐ° ÑģÐ°
ĠÐ² Ð½ÑĥÑĤÑĢÐ¸
ĠÐ¾Ð±ÑĢÐ°Ð±Ð¾ÑĤ ÐºÑĥ
ĠÑģÐµÐ¼ ÐµÐ¹
ĠÐ¿ÑĢÑı Ð¼Ð¾
ÑģÑĤÐ° Ð²Ð¸ÑĤÑĮ
Ðµ Ð²Ð¸Ñĩ
n N
ĠÐ¼ÐµÐ½ÑĮ ÑĪÐµ
ĠÐ¿Ð»Ð° ÑĤ
ÑĤÐ° Ñı
ĠÐĲ Ðº
Ð¾ÑĤ Ñĥ
ĠÑĦÐµÐ² ÑĢÐ°
Ð±Ðµ Ð»Ð¸
ĠÑĤÐµ Ð¼Ñĭ
Ð¼Ð° Ð³Ð°Ð·Ð¸
ĠÐ°Ð¿ÑĢÐµ Ð»Ñı
ĠÑĤÑĢÐ°Ð½ ÑģÐ¿
ÑīÐ° ÐµÑĤÑģÑı
26 4
ĠÑģ ÐºÐ¸
ĠÐ¿ÐµÑĢÑģ Ð¾Ð½Ð°
Ð»Ð° Ð³
c d
Ð¾Ð²Ð° Ð»Ð¸
Ð½Ð¸ÐºÐ° Ð¼Ð¸
ĠÐ¿ÑĢÐ¾Ð´Ñĥ ÐºÑĨÐ¸Ð¸
nÐĴ Ð¾Ð·
ĠÐ±Ð»Ð¸ Ð·
v o
Ñĥ Ðº
37 68
Ð¿Ð° ÑģÐ¸Ð±Ð¾
ĠÑıÐ½Ð²Ð° ÑĢÑı
ÑģÑĤÐ¸ ÐºÐ°
ĠÐĲÐ´Ð¼Ð¸Ð½Ð¸ÑģÑĤÑĢÐ° ÑĨÐ¸Ñı
Ġ https
ĠÐ¿Ð° Ð½Ðµ
ĠÐ¸Ñİ Ð»Ñı
20 14
ĠÐ¾Ñī Ñĥ
ĠÐ¿ÑĢ Ð¾Ð¿
25 5
ÑĦÐµ ÐºÑĤ
Ġ Ð¾Ð½Ð¾
Ð´ ÑĢ
ĠÐ´Ð¾Ð³Ð¾Ð² Ð¾ÑĢ
ĠÑĢÑĥÐºÐ¾Ð² Ð¾Ð´Ð¸
ÑĤÐ¸Ð² Ð½ÑĭÐ¹
ÑĤÐ¸ Ð½Ð³
05 6
ÑĤÐµÐ»ÑĮ Ð½Ð¾ÑģÑĤÐ¸
ĠÑĤÑĢÑĥ Ð±
ĠÐ¸Ñİ Ð½Ñı
ĠÐ¿ÑĢ Ð¾ÑĤ
ĠÐĽ Ð°
in do
ÐµÐ´ ÐµÐ½Ð¸Ñı
am p
ĠÐ° Ð½Ð³
ĠÐºÐ¾ÑĤÐ¾ÑĢ ÑĭÐ¼
ĠÐ½Ð° Ð³ÑĢÑĥÐ·
ĠÐ¿Ð¾ÑĤ ÐµÑĢ
Ð¼ Ð¾Ñģ
ÑħÐ¾Ð´Ð¸ ÑĤÑĮ
Ð¾Ð¹ Ð´ÐµÑĤ
ĠÐ¾ÑĤ Ðµ
ĠÐķ Ð³Ð¾
26 7
ÑĤ ÐµÑĤ
ĠÐ´Ð°Ð»ÑĮ Ð½ÐµÐ¹
Ð´ ÑĢÐ°
ĠS t
97 2
ÑĢÑĥ Ð³Ð¸
ĠÑģÐ°Ð¼ Ð¾Ð¼
Ñħ Ñĥ
Ð±Ð¸ Ð»Ð¸
Ġ3 1
Ðº ÐµÑĢ
Ð¼ Ð¾ÑĢ
ĠÐ¿ÑĢÐ¾Ð² Ð¾Ð´
Ð¾Ð² Ð¾Ð³Ð¾
ĠÑĥ ÑĩÐµÐ±
ĠÐ¿ÑĢÐµÐ´ÑĥÑģ Ð¼Ð¾ÑĤÑĢÐµÐ½
nÐ¡ Ð¾Ð¾Ð±
ÑĤÑĥ ÑĢÑĭ
ĠÐ´Ð¸ ÑĢÐµ
nÐł ÐµÐº
Ð²Ð° Ð»Ð°
Ġ 09
ĠÐ¿ÑĢ Ð¾Ñĩ
25 4
Ð° ÑĤÑĮ
85 6
ĠÐº Ð¾Ð¶Ð¸
ĠÐºÐ¾Ð¼Ð¿ Ð»ÐµÐºÑģ
ĠÐ¡Ðµ Ð²ÐµÑĢ
ÑĩÐ¸ Ñħ
Ð½Ð¸ ÐºÑĥ
36 7
ĠÑĤÐµÑħÐ½Ð¾Ð»Ð¾Ð³Ð¸ Ð¸
ĠÐ¿ÑĢ ÑıÐ¼
v er
ĠÐ° ÑĢÐµÐ½
Ðº Ð¾Ð³
ĠÐ¾ÑĤ ÐºÐ°Ð·Ð°
Ð·Ñĭ Ð²Ñĭ
915 3768
ĠÑģÐ¼Ð¾Ð¶ ÐµÑĤÐµ
ĠÐ¿Ð¾ÑģÑĤÐ¾ÑıÐ½ Ð½Ð¾
ÑĩÐµÑģÐºÐ¸ Ð¼Ð¸
Ð¸ Ð»Ð°
Ð»ÐµÐ½ Ð½Ð¾Ð¹
ÑĢÑĥ ÐµÐ¼
nÐ¡ Ð°Ð¼
Ð»Ðµ Ñģ
Ð¼ÐµÑĢ Ñĭ
ĠÐ½Ðµ Ð²Ð¾Ð·
Ð¾Ð´ ÐµÐ¹
ĠÑģÐ»ÑĥÑĩÐ° ÑıÑħ
ĠÐ¾ÑģÑĥÑīÐµÑģÑĤÐ² Ð»ÑıÐµÑĤÑģÑı
Ð¶Ð¸ ÑĤÐµ
24 3
ÑĨÐ¸ Ð¾Ð½Ðµ
l u
ÑĩÐµ ÑģÐºÐ¾Ð¼
Ñħ Ð°Ð½
ÑĩÐ¸ ÑĤÑĭ
Ñĩ Ð½Ð¾Ðµ
ĠÐ½Ðµ ÑĢ
Ð·Ð¸ Ð´ÐµÐ½
ĠÐ¿ÑĢÐ¸ ÑıÑĤ
Ð±Ð¾ÑĢ Ñĭ
ĠÐ° Ð»ÑĮ
Ð¿ ÑĤÐ¸
ĠÐ¿Ð°ÑĢÐ° Ð¼ÐµÑĤ
ĠÐ¿ÑĢÐ°Ð²Ð¸ Ð»Ð¾
ÑĤÐ° Ðº
Ð¶ ÐµÐ¹
ĠÐ²Ð¾Ñģ Ð¿
ĠÐ¾ÑĤ Ð²Ðµ
ĠÐĴÐ»Ð°Ð´Ð¸Ð¼Ð¸ ÑĢ
ĠÐ´Ð¾Ð» Ð»Ð°
ar k
ĠÐ² ÑģÐ¿
ĠÐ·Ð½Ð°ÑĩÐ¸ ÑĤ
ĠÑįÐºÑģÐ¿ ÐµÑĢ
1 13
ĠÐ»Ð¸ ÑĤÐµÑĢÐ°
ĠÐº ÑĢÑĥÐ³
I S
ĠÐºÐ¾ÑĢÐ·Ð¸ Ð½Ñĥ
f d
Ð¾Ñĩ Ð½Ð¸Ðº
ĠÑģÐ¼Ð° ÑĢÑĤ
Ð¾Ð¾Ð± ÑĢÐ°Ð·
ĠÐ´Ðµ Ð»Ðµ
Ð½ ÑĤ
nÐŁÐ¾Ñģ Ð»Ðµ
ĠÐºÐ° Ð¿Ð¸ÑĤÐ°
ĠÐºÑĥÐ»ÑĮÑĤÑĥ ÑĢÑĭ
05 5
Ð´ ÐµÐ½ÑĤ
nÐ¡ Ð¿
ĠÐ³Ð¾Ð²Ð¾ÑĢÐ¸ ÑĤ
ÑĨÐ¸ Ð¾Ð½Ð°
ÑİÑīÐ¸ Ð¼Ð¸
ĠÐµ Ð´Ð¸Ð½
l ine
c b
ÑģÐµ Ð´Ð°
ĠÐ»Ðµ ÐºÐ°ÑĢ
ĠÐºÐ¾Ð¼ Ð¸
ĠÐ°Ðº ÐºÑĥ
Ðº Ð½Ñĥ
Ð¾Ð³ÑĢÐ° Ð´
ĠÐ½ÐµÐºÐ¾ÑĤÐ¾ÑĢ ÑĭÑħ
ĠÐ¼Ñı Ð³
Ð¾Ðº Ð¾Ð¹
ĠÑĤÑĢÐµÐ±Ñĥ ÐµÑĤÑģÑı
f b
ÑĩÐ° ÑģÑĤÐ¸
ĠÑĥÐ½Ð¸Ð²ÐµÑĢ ÑģÐ¸ÑĤ
ĠÐ¸Ð· Ð´ÐµÐ»Ð¸Ñı
Ð³ Ð°Ð½Ð¾Ð²
ĠÑĦ ÐµÐ´ÐµÑĢÐ°Ð»ÑĮ
Ð¸ Ð²
en d
84 7
ĠÐ³Ð¾ÑĢ Ð¾Ð´Ðµ
ĠÑģÐ°Ð¼ ÑĭÐµ
Ð»Ð¸ Ð¹
ĠÐĲÐ»ÐµÐºÑģÐ°Ð½Ð´ ÑĢ
4 27
ĠÐ²ÑĤÐ¾ÑĢ Ð¾Ð¹
ÐµÐºÐ° Ð±ÑĢÑĮ
r an
20 3
ĠÐ²Ñĭ Ð·
86 3
ÑĢÐ°Ð½ ÐµÐ½Ð¸Ðµ
ĠÐ°Ð² ÑĤÐ¾ÑĢ
ĠÐ½Ð°ÑģÑĤ ÑĢÐ¾Ð¹
ĠÐĿÐ¾Ð² Ð¾ÑģÑĤÐ¸
ÑĤ Ð¾Ð³Ð¾
ĠÐ¼Ð¾Ð³ Ñĥ
Ð¶ Ð°Ð¹
nÐŁ ÐµÑĢ
06 7
n F
ĠÐ¾Ð±ÑĬ ÑıÑģ
ĠÑĥÑģÐ¿Ðµ ÑĪ
ĠÐ²Ð· ÑĢÐ¾Ñģ
ĠÑĢÐµ Ð´
k o
Ð¾Ð¼ ÐµÐ½
ÑĥÑĤ Ð±
ĠÐ½Ðµ Ðµ
Ġ Z
8 22
ĠÐŃ Ðº
ĠÐºÐ»Ð° ÑģÑģ
ĠÐ¾Ð´ Ð½Ð¸Ð¼
ĠÐ¸Ð³ ÑĢÐ¾Ðº
Ġ ÑĢÑı
ĠÐ¿Ð¾ÑĢÑıÐ´ ÐºÐµ
ĠÐ¾ÑĢÐ³Ð°Ð½Ð¸ Ð·Ð°ÑĨÐ¸Ñı
ĠÑģÐ¿Ð¸ ÑģÐ¾Ðº
Ð¾ÑģÑĤ Ð°Ð½Ð¾Ð²
Ðµ ÑģÑĤ
24 6
ĠÐ² Ð½ÐµÑģ
ĠÑģÐ¾Ð² ÑģÐµÐ¼
ĠÐ°Ð²Ð³Ñĥ ÑģÑĤÐ°
ĠÐ³ ÑĢ
ÑĪÐ¸ ÑģÑĮ
ĠÐ¿ÑĢÐµÐ´Ð¿ÑĢÐ¸ Ð½Ð¸Ð¼Ð°
¾ ÑĨÐ¸
Ð»ÑĮ Ð½ÑĥÑİ
Ð°ÑĢ ÑĤ
ĠÑĩ Ð»ÐµÐ½
Ġ )
ĠÑĥ Ð¼ÐµÐ½ÑĮ
ĠÐļ ÑĢÑĭ
1 94
ĠÐ³ Ð»Ñĥ
ÑĢÐ¸ ÐºÐ°
ĠÐ¿Ð¾Ð¼Ðµ ÑīÐµÐ½Ð¸Ñı
ĠÑĦÐ° ÐºÑĤ
ĠÑģ Ð¾ÑģÑĤÐ¾Ð¸
ĠÑģÑĥ ÑīÐµÑģÑĤÐ²
Ð ¾ÑĨÐ¸
17 3
25 7
ĠÐ¿ÑĢÐ¸ Ð½Ð°Ð´
ĠÑĥ Ð½Ð¸ÐºÐ°
ĠÐ²Ð° ÑĪÐµÐ¹
ÐĶ ÐĲ
ĠÐ¿Ð¾Ð²ÐµÑĢÑħ Ð½Ð¾ÑģÑĤÐ¸
ĠÐĳ Ð»Ð°
ĠÐ¿ÑĢ Ð¾Ð¶Ð¸
ĠÐĶ Ñĥ
99 07
Ð±Ð¸ Ð½Ð°
Ġ <
Ð·Ñĭ Ð²Ð°ÑĤÑĮ
15 3
Ġ 01
26 6
16 3
Ð¶ ÐºÐ°
9 12
U S
Ð¾Ð½ ÑĥÑģ
ĠÑģÐ¾Ð·Ð´Ð° Ð½Ð¸Ñı
ĠÐ¾Ð´ Ð½Ð°ÐºÐ¾
ĠÐ¼Ð°ÑĪÐ¸ Ð½Ñĭ
Ð½Ñİ Ñİ
Ð´Ðµ Ð
Ð´ÐµÐ ¾
ĠÐ² Ð¾Ðº
ÐĴ Ðĺ
Ð¿ Ð¾Ð½
Ġ 90
Ð¸ ÑģÐ¿
ÑĮ ÐµÐ²
ĠÐ´Ð¾ÐºÑĥ Ð¼ÐµÐ½ÑĤÑĭ
ĠÐ³ ÑĢÑĥÐ·
f or
Ð¸Ð¼ Ð¾ÑģÑĤÑĮ
13 7
Ġ re
Ð¾Ð¿ ÑĢÐ¸
ĠÑģÐºÐ°Ð·Ð° ÑĤÑĮ
DF FC
ĠÐ¿Ð¾Ð´Ð´ÐµÑĢ Ð¶Ð¸
ĠI n
Ð¿Ð° ÑĢÐ°ÑĤ
ĠÑģÐ»Ð¸ ÑĪÐºÐ¾Ð¼
Ġ Ð¾Ð·
ÑĤÑĥ ÑĢÐ°Ð»ÑĮ
Ġ at
ĠÐ±ÑĢÐ° ÑĥÐ·
ĠÐ¿ ÑıÑĤ
ĠÐ¿Ð¾ ÑıÐ²Ð»Ñı
ĠÐŃ Ð»ÐµÐºÑĤ
Ñħ Ð²Ð°
ĠÐ¿Ð¾Ð¼ Ð¾Ð¶ÐµÑĤ
ĠÑģÐ¾Ñĩ ÐµÑĤÐ°
65 3
ĠÐ° ÐºÑĤÑĥ
ĠÐ¸Ð³ ÑĢÑĥ
ĠÑģÐ¿ ÑĢÐ°Ð²
ÑĢ Ð¾Ðµ
Ð¢ Ð¬
ĠÐ¿Ð¾Ð² ÑĤÐ¾ÑĢ
ĠÐ¾ÐºÑĢÑĥ Ð³Ð°
ĠÐ²ÑģÑĤÑĢÐµ ÑĩÐ°
Ð½Ð¸ÐºÐ° Ð¼
ĠÐºÐ°ÑĩÐµ ÑģÑĤÐ²Ð¾
ĠÐĳ Ñĭ
Ð¾Ñĩ Ð½Ð°Ñı
Ġ 80
Ñģ Ð°Ð½
ÐµÑĤ ÐºÐ¸
ĠÐĴ ÐµÑĢ
ÑĢÐ° Ð±Ð°ÑĤÑĭ
00 6
Ġ20 10
ĠÐĽ ÐµÐ½Ð¸
Ð¶Ð¸ Ð¼
ĠÐĵ Ð°
99 04
ĠÑĩÐ° ÑģÐ°
Ð· ÐµÐ¼
ĠÑĥ Ð±Ðµ
00 7
8 35
nÐ§ ÑĤÐ¾Ð±Ñĭ
36 5
ĠÐ½Ð¸ Ð¼Ð¸
D C
Ðŀ ÐĿ
Ñģ Ð½ÑĭÐµ
ĠÑģÐ°Ð¼ ÑĭÐ¹
ĠÐ·Ð° Ð¼Ðµ
p er
ĠÐ²Ð° Ð¼Ð¸
ĠÐ² Ð¾Ð´Ð¸
ĠÐ¼ Ð¾Ð¹
ĠÐ¿ ÑĭÑĤÐ°
85 7
Ð³ ÐµÐ½
\ ":
ĠÐ½ Ð¾Ð³
ĠÐ° ÑģÑģ
ĠÑĥÑģÑĤÐ°Ð½Ð¾Ð² ÐºÐ¸
Ñĩ Ð½ÑĭÐ¼
55 3
g e
¾ ÑĨÐµÐ½Ð¸
ĠÑħ Ð¾ÑĤÐ¸ÑĤÐµ
s i
14 3
ĠÑģÐ¾Ð±Ð¸ ÑĢÐ°
ĠÑĥÐ·Ð½Ð° ÑĤÑĮ
ÑĪÐ¸ Ð¼Ð¸
ĠÐ· Ð¸Ð¼
Ð¼ÐµÐ½ ÑĤÐ¸
Ñħ Ð½Ð¾Ð»Ð¾Ð³Ð¸
ĠÐ¿Ð¾Ð»ÑĮÐ·Ð¾Ð²Ð° ÑĤÐµÐ»Ñı
ĠÑģÑĤÐ°Ð½Ð¾Ð² Ð¸ÑĤÑģÑı
Ñĳ Ð»
22 4
Ð¾Ð¼ Ð°Ð½
ÐĶ Ðķ
ĠÑĢÑĥÐºÐ¾Ð² Ð¾Ð´
ĠÐ¼Ð» Ð½
ĠÑĤ ÑĢÐµÐ½
20 7
25 6
86 7
ĠÑģÑĤ ÑĥÐ´
Ġ r
A L
ĠÐ¸ Ð½Ð¾ÑģÑĤÑĢÐ°Ð½
ĠÑįÑĤÐ¾Ð¼ Ñĥ
ĠÐ¿ Ð¾Ð»ÑĮÐ·Ñĥ
ÑĢÐ¾Ð² ÑĭÐµ
ĠÐĳ Ðµ
ÑĤÐ¸ Ð½Ð°
nÐŁ ÑĢÐµ
Ð¾Ð½Ð° Ð²Ð¸
ĠÐ½ÐµÐ¾Ð±ÑħÐ¾Ð´Ð¸ Ð¼Ð¾ÑģÑĤÐ¸
ÐĿÐĺ Ðķ
ÑĤ Ð½Ð¾
ĠÐ½Ð¾Ð² Ð¾Ð³Ð¾
998 2
nÐĲ Ð´
ĠÑģÐ¾Ð± ÑĢÐ°
ÑĪ ÑĤÐ°
Ġ Ð»Ð¾Ð¶
Ð¾Ð¿ Ð»Ð°
ÑģÑĤ ÐµÐ¼Ñĥ
Ð¾Ð¸ Ð½
ĠÑĦÐµÐ²ÑĢÐ° Ð»Ñı
ĠÑģÐ¾Ð³Ð»Ð°ÑģÐ¸ Ðµ
ĠÑģÐº Ð¾Ð»ÑĮÐºÐ¾
ĠÑģÐ¸ÑĤÑĥÐ° ÑĨÐ¸Ð¸
nÐľ Ð¸
ĠÑĩÐµÐ¼ Ð¿Ð¸
ĠÐ²Ð»Ð° ÑģÑĤÐ¸
Ġ ÐµÐ¹
ĠÐ¾Ð±Ð»Ð° ÑģÑĤ
Ð¾ÐºÐ°Ð·Ð° ÑĤÑĮ
ĠÑĩÐ° ÑīÐµ
ÑĪ ÐºÑĥ
ĠÐ·Ð° Ð±Ñĭ
p r
ĠÑģÐºÐ°Ð·Ð° Ð»
Ð³Ñĥ ÑģÑĤ
ÑĤÐ¸ Ñİ
ĠÐ¿ÑĢÐ¸ ÑģÑĥÑĤ
27 6
ĠÐºÐ¾Ð¼Ð¿ÑĮÑİ ÑĤÐµÑĢ
ĠÐ²Ð· Ð³Ð»Ñı
ĠÐ´Ð²Ð¸ Ð¶ÐµÐ½Ð¸Ñı
g le
ĠÑĩ ÑĤ
nÐ¢ Ð°
Ñħ Ð°ÑĢ
ĠC h
ĠÐ¿Ð¾Ð» Ð¾Ð¶Ð¸
00 3
Ñī ÐµÐ¼Ñĥ
Ð¡Ð¡ Ðł
ĠÐ¿ Ð»Ð¾ÑĤ
Ðº ÑģÐ°
4 12
Ð² ÑĪÐ¸Ñħ
06 6
ĠÐ¾Ð·Ð½Ð° ÐºÐ¾Ð¼
ÐµÐ½ÑĤ ÑıÐ±ÑĢÑĮ
m in
9335 807
ĠÐ± ÑĢÐµÐ½
ĠÑģ Ð°Ð½
ĠÐľÐ¾ÑģÐº Ð²Ñĭ
ĠÐ´Ð°Ð½ Ð½Ð¾Ð¹
a nt
ÑĢÑĭ Ð²
10 2
a ce
I T
ĠÐºÑĢÐ° Ñı
R O
ĠÐ¶Ðµ Ð»ÐµÐ·
ĠÐ¸ÑģÐºÐ»Ñİ ÑĩÐ¸
ĠÐ³ Ð¾Ð´Ñĭ
Ð¼Ð¾ÑĤ ÑĢÑı
ĠÑĤÐ¾Ð²Ð° ÑĢÑĭ
Ðľ Ð°
ĠÐ³Ð»Ð° Ð·Ð°
Ð¿Ð¸ÑģÐ° Ð½Ð¸Ðµ
Ð¿ÑĢÐµ Ð»ÑĮ
b o
y s
ÑĪ ÐµÐ½Ð¸Ñİ
ĠÐ½Ð° ÑĨÐ¸Ð¾Ð½Ð°Ð»ÑĮ
ĠÐ²Ñģ Ñİ
ĠÑģ Ð»Ðµ
ÑĩÐ¸ÑĤÐ° ÑĤÑĮ
ÑĢÐµ Ðµ
ĠÑĦÐ¸ ÑĢ
Ð¿Ðµ ÑĩÐ°ÑĤ
ĠÐ½Ð°Ð» Ð¾Ð³Ð¾Ð²
24 5
n D
ĠÐ´ÐµÐ¹ÑģÑĤÐ²Ð¸ ÑĤÐµÐ»ÑĮÐ½Ð¾
ÑĤÐµ Ð¿
Ð ¾ÑĨÐµÐ½Ð¸
Ñİ ÑĢ
ĠÐ¿ÑĢÐµÐ´ Ð²Ð°ÑĢÐ¸
Ð¿ Ð¾Ð¼
23 6
ĠÐ½Ð° ÑĥÑĩ
ĠÐ´Ð¸ Ð°Ð³Ð½Ð¾ÑģÑĤÐ¸
ÑĨÐ¸Ð¾Ð½ Ð½Ð¾Ð³Ð¾
87 0
Ð´Ð¸ Ð¼
ĠÑĥ ÑĤ
77 7
Ð¾Ðº Ð¾Ð»
ĠÐ¾ÑĤ ÑĤÐµÐ½
Ð³ ÐµÑĤÐ¸
23 5
Ñĥ Ð³
ĠÐº Ð»ÐµÑĤ
ĠÐ¾ÑĩÐµÑĢÐµÐ´ ÑĮ
ÑĢÐ¸ ÑĦ
ĠÐ£ÐºÑĢÐ°Ð¸ Ð½Ñĭ
ÑĢÐ¸ Ð¼
Ð¾Ðº Ð¸
ÑīÐ¸ Ðº
ĠÑĢÐ° Ð·Ð°
ĠÐ·Ð´Ð¾ÑĢÐ¾Ð² ÑĮÑı
ĠÐ³Ð¾ÑĢ Ñı
Ñı ÑĢ
nÐŀ Ð´
ĠÑĦ Ð¾Ð½
ÑĢÐ¾Ð²Ð°Ð½ Ð½ÑĭÐµ
ĠÐ³ Ð¾ÑģÑĤÐ¸
ĠÐĿÐ° Ð¿ÑĢÐ¸Ð¼ÐµÑĢ
ĠÐ¿ÑĢÐ¸ Ð±Ñĭ
ĠÑģÐ¸ Ð³
ĠÑģ Ð½Ðµ
Ð½ Ð¾Ð²Ð°Ð½Ð¸Ñı
Ð¾ÑģÑĤ ÑĥÐ¿
nÐĶ Ð¾Ð±Ð°Ð²Ð¸ÑĤÑĮ
ĠÑħÐ¾Ð» Ð¾Ð´
24 4
ĠÐ´Ñĥ ÑħÐ¾Ð²
Ð°Ð»ÑĮ Ð½Ð°Ñı
ĠÑĤÐµ Ð»Ð°
ĠÑĢÑĭÐ½ ÐºÐµ
ĠÐ²Ñĭ Ð¸
ĠÐ¾ÑĤ Ð»Ð¸ÑĩÐ¸
ÑĨÐ¸ Ð¾Ð½Ð¸
ĠÐº Ð¾Ð¿Ð¸
ĠÑĢ Ð¾ÑģÑĤ
Ð²Ðµ Ð»Ð¸
ĠÐ·Ð° ÑĢÐ°Ð±Ð¾ÑĤ
Ð¼Ð¸ Ð¸
Ñħ Ðµ
ĠÐ³ÑĢÐ°Ð¶ Ð´Ð°
ĠÐ¿Ð¾Ð½ Ñı
id e
ÑĤÐ¾ Ð¸Ð¼Ð¾ÑģÑĤÑĮ
Ð² ÐµÐ¹
95 0
E N
1 16
ĠÐ¤ ÐµÐ²
ĠÑģÐµÑĢÑĮ ÐµÐ·
Ð¿Ð¸ÑģÐ° ÑĤÑĮÑģÑı
ĠÐ¾ÑĤÐ·Ñĭ Ð²Ñĭ
ĠÐ¾Ð±ÑıÐ·Ð° Ð½
ĠÐĵ Ð¾ÑĢ
Ðŀ Ð¡Ð¢
ĠÑĪ ÐºÐ°
ÑģÑģÐ¸ Ð¸
85 3
ÐºÐ° Ð´ÐµÐ¼Ð¸
ÑĤ Ð½ÑĭÑħ
Ð´Ð° Ð³
ĠÐ¿Ð¾Ð»Ñĥ ÑĩÐµÐ½
ĠÐ± ÐµÑĤ
ĠÐ¿ÑĢÐµ Ð¿
8 27
1 15
Ġ &
ĠÐ¾ÑĢ Ð³Ð°Ð½Ð¾Ð²
Ð»ÑĮ Ð½Ð¾Ð¼
Ð¾Ð² Ñĭ
22 3
36 4
p o
ĠÐ½Ð¸Ðº Ð¾Ð³Ð´Ð°
ĠÐ¢ ÑĥÑĢ
ÑĪ ÐµÐ½Ð¸ÐµÐ¼
ĠÑĦÐ¾ÑĢ ÑĥÐ¼
45 5
ĠÑı Ð²
ÑĢÐ°Ð²Ð¸ ÑĤÑģÑı
ÑĢÐµ Ð´Ð°
Ñĭ Ð´Ñĥ
ĠÐ·Ð° Ð¼ÐµÐ½
9 28
ĠÐ½ÐµÑģÐºÐ¾Ð»ÑĮ ÐºÐ¸Ñħ
ĠÐ½Ð° Ð¸
00 5
ĠÐ´Ðµ Ð¿ÑĥÑĤÐ°
ĠÐ½Ð°ÑģÐµ Ð»ÐµÐ½Ð¸Ñı
ĠÐ´ÐµÐ½Ðµ Ð³
ÐĲ Ðŀ
ĠÑĢÐ°Ð· Ð½
18 3
Ð» ÑĳÐ½
Ð²Ð¸ Ð½
ÑĨ Ð²ÐµÑĤ
ĠÐĴ Ð¾ÑĤ
Ð»Ð¾Ð¶ ÐµÐ½Ð¸Ñı
Ð¶ Ð°Ð²
ĠÐ¿ÑĢÐ¾Ð±Ð»Ðµ Ð¼Ð°
ÐºÐ¾Ð² Ð¾Ð¹
ĠÐ¾Ð¿Ð»Ð° ÑĤÑĭ
ĠÑģÐ¸ ÑģÑĤÐµÐ¼Ñĥ
ÑģÑĤ Ñı
ĠÐ³ Ð°ÑĢ
Ð³Ð¸ÑģÑĤÑĢÐ° ÑĨÐ¸Ñı
13 8
ÑĤÐ¸Ð² Ð½Ð¾
ÑĥÐ´ ÑĮ
ĠÐ° ÑĥÐ´Ð¸
iv e
ĠÐ´Ð²Ðµ ÑĢÐ¸
ĠÐĳ ÐµÐ·
ĠÑĪ ÐºÐ¾Ð»ÑĮ
Ð»Ñı ÑİÑĤÑģÑı
ĠÐ¼ÐµÑĤ Ð¾Ð´
ĠÐ´Ð¾Ð¼ Ðµ
ĠÐ¼Ñĭ ÑĪ
ĠÐ¼Ð¾Ð¼ ÐµÐ½ÑĤÐ°
ĠÐºÐ¾Ð½ ÑĨÐµ
) )
ĠÑģÐ»ÐµÐ´Ñĥ ÑİÑīÐ¸Ðµ
ĠÐ¼Ðµ Ð»
ĠÑģ Ð½Ð¾Ð²Ð°
Ðº Ð¾Ð»Ðµ
Ñĥ Ð²
Ð½Ð¾ ÑģÐ¸
ĠÐ½Ð¸ Ð¶
ĠÐ¾Ð¿ ÑĥÐ±Ð»Ð¸ÐºÐ¾Ð²Ð°
ĠÐ¡ ÐľÐĺ
ĠÐ²Ð»Ð° Ð´ÐµÐ»ÑĮ
ĠÐ¿ÑĢÐ¸Ð¼ÐµÐ½ ÐµÐ½Ð¸Ñı
ĠÑĥÑĩÐ¸ ÑĤÑĭ
ĠÐºÐ»Ð¸ ÐµÐ½ÑĤÐ¾Ð²
ĠÑĢÐ° Ð´
ĠÑĪ ÑĤÐ°
ĠÐ¾Ð·Ð½Ð° ÑĩÐ°ÐµÑĤ
1 17
Ð½ Ð½ÑĭÐ¹
Ð³ Ð¾Ð½
Ġ 08
in o
Ð»Ð° Ð¼
06 4
Ð»ÐµÐ½ Ð½Ð¾Ð³Ð¾
ĠÑģ Ð¼ÑĭÑģ
ĠÑĤÑĢÐ°Ð½ Ñģ
34 5
ĠÑģÑĤÑĢÐ¾Ð¸ÑĤÐµÐ»ÑĮ ÑģÑĤÐ²Ð°
ĠÐŁ Ð°Ð²
ĠÑģÐ¸ Ð»Ñĥ
a st
ĠÑģÐ¾Ð·Ð´Ð° ÑĤÑĮ
ĠÐ±ÑİÐ´Ð¶ ÐµÑĤ
Ð¸Ð½ Ð³
ĠÐ¾ÑĤÐ½Ð¾ ÑĪÐµÐ½Ð¸Ð¸
ĠÑģÐ¸Ð¼ Ð¿ÑĤÐ¾Ð¼
ĠÐ¼ÐµÐ½ ÐµÐ´Ð¶
Ð¿ÑĢÐ°Ð² Ð»ÐµÐ½Ð¸Ðµ
ĠÐ´Ðµ ÑģÑı
ĠÐ¼ÐµÑģÑı ÑĨÐ°
ĠÑĩÐµÑĤÑĭ ÑĢÐµ
ĠÐ²Ñĭ Ð³Ð¾Ð´
ĠÐ¾ÐºÐ¾Ð½ ÑĩÐ°
ĠÑįÐ»ÐµÐºÑĤÑĢÐ¾Ð½ Ð½Ð¾Ð¹
lo g
ĠÐ¸Ð· Ð±Ðµ
Ðŀ ÑĤ
Ð¾Ñģ ÑĢÐµÐ´
10 8
ĠÑģÐ¾Ð¾Ð± ÑīÐµÐ½Ð¸Ðµ
Ð²Ð¸ Ñģ
ĠÐ¿Ñĥ ÑĤÐµÑĪÐµ
ĠÐ¿ÑĢÐµÐ´Ð½Ð°Ð·Ð½Ð° ÑĩÐµÐ½
ĠÐ²ÐºÑĥ Ñģ
S S
Ð¶ ÐµÑĤ
Ð¾Ð¶Ð´ ÐµÐ½Ð¸Ðµ
ĠÐ±Ð¾ÑĢ ÑĮ
ĠÐºÐ¾ÑĢ Ð¾ÑĤ
nÐľ Ðµ
ĠÐ¾Ñħ ÑĢÐ°
ĠÐ¿ÑĢÐ¾Ð´Ñĥ ÐºÑĤÐ¾Ð²
93 8
Ġ Ð¾ÑĨÐµÐ½Ð¸
ĠÐ¸Ð· Ð´ÐµÐ»Ð¸
ĠÐ¸Ð½ Ð²ÐµÑģÑĤÐ¸
ĠÐ²Ð¾Ð·ÑĢÐ° ÑģÑĤÐ°
Ñį Ð½
Ð»Ð° Ð¼Ð¸
ĠÑĥ ÑĤÐ¾Ñĩ
ĠÑĢÐµÐ³Ð¸ Ð¾Ð½Ð°
ĠÐ»Ðµ ÑĩÐµÐ½Ð¸Ðµ
ÑĢÐ¾Ð² Ð¾Ð´
ĠÐ¾ÑĤ ÑĢÐ°
Ġ Ð»ÐµÐ½
00 4
25 3
ĠÑģÐ²Ð¾Ð¹ ÑģÑĤÐ²Ð°
ĠÐ´Ð°Ð½ Ð½ÑĭÐ¹
ÑĤÐµ Ðº
ÐŁÐµÑĤÐµÑĢ Ð±ÑĥÑĢÐ³
Â °
ÑĨÐ¸Ñı Ñħ
ĠÐºÐ»Ð¸ ÐµÐ½ÑĤÐ°
ĠÐ½Ð° Ð³
ĠÐ· ÐµÐ»ÐµÐ½
37 7
Ð½Ð¸ ÐºÐµ
Ð½Ð¸ Ð»
ĠÐ² ÐµÑĤ
ĠÐ² Ð¾ÑģÑĤ
ĠÐ³ ÑĥÐ±
ĠÐ¸ÑģÑģÐ»ÐµÐ´ Ð¾Ð²Ð°Ð½Ð¸Ñı
ĠÐ±Ð°Ð½ ÐºÐ¾Ð²
ÑģÑĤÑĢÐ° Ð¸
ĠÐ¾ÑĤ Ð²ÐµÑĢ
ĠÐł ÑĥÑģ
ÐµÐ½ Ð½Ð°Ñı
Ð°Ð¼ ÐµÑĤ
ĠÐ´ Ð²ÐµÑĢ
ĠÐ¶Ðµ Ð»
Ð°ÑĢ ÑĮ
Ð¾Ðµ Ð²
Ð»ÐµÑĤ Ñĭ
Ð¾Ð» ÐµÐ½
ĠÐ¾ÑĢÐ¸ Ð³Ð¸Ð½Ð°
ĠÑĤÑĭ Ñģ
ÐĿ Ð¾Ð²
ĠÑıÐ·Ñĭ Ðº
nÐĿ Ð
nÐĿÐ ¾
ĠÐ° Ð½Ð°Ð»
ĠÐ¿Ð¾Ð² ÑĢÐµÐ¶Ð´
ĠÐ¿ÑĢÐµÐ´ Ð¿Ð¾Ð»
995 4
ĠÐ¿Ð¾ÑĤ ÑĢÐµÐ±Ð¸
ĠÐ´Ðµ Ð¿
ĠÐ´ Ð²
ĠÐ±Ð¸Ð·Ð½Ðµ ÑģÐ°
Ġ Ð¾ÑģÑĤÐ°Ð²Ð»Ñı
Ð»Ð° ÑģÑĤÐ¸
ÐµÐ½ Ð½Ð¾ÑģÑĤÐ¸
ĠÑĥÐ¿ Ð¾ÑĤÑĢÐµÐ±
94 0
ĠÐ´ Ð¾Ðº
ÑĪÐ¸ ÑĤÐµ
ĠÐºÑĢÐ¾Ð² Ð¸
e x
ĠÑĢÐ° ÑģÑĤÐ²
ĠÐ¼Ð° Ð»Ñĭ
ĠÐ¿ÑĢÐ¸ ÑħÐ¾Ð´Ð¸
37 6
Ð¾Ñĩ Ð½Ð¾
ĠÐ´ÑĢÑĥ Ð³Ð°
ÑĢÐ¸ Ð»
Ð»Ð° Ñı
9943 989
ĠÑģÐ°Ð¼ ÑĭÐ¼
ĠÑĤÐ¾ ÑĩÐ½Ð¾
995 3
e ct
ĠÐĵÐµÑĢ Ð¼Ð°
Ñĥ Ð¼Ðµ
nÐŀ Ð¿
1 14
ĠÐ¿Ðµ Ñģ
ĠÐ¡ Ð¡Ð¡Ðł
8 05
Ð± Ð°Ð½
ÑĤÐ¸ ÑĤÐµ
Ð° Ð½Ð°
ĠÐ¾Ð± Ðµ
ĠÑĢÐµÐºÐ¾Ð¼ÐµÐ½ Ð´Ð°
ĠÐ¿ÑĢÐµÐ´ÑģÑĤÐ°Ð² Ð»ÑıÐµÑĤ
ÑģÐ° Ñħ
ĠÐ¶Ðµ ÑģÑĤ
ĠÑģ ÐµÑĢÐµ
ĠÐ¡ Ð²ÐµÑĤ
ÐµÐ½ÑĤÐ¸ Ð»Ñı
35 6
ĠÑĤÑĢ ÐµÐ½Ð¸
= =
ĠÐķ ÐºÐ°ÑĤÐµÑĢÐ¸
ĠÐ½Ð° Ð¼Ð¸
ĠÐ¿ÑĢÐ¾Ð³ÑĢÐ°Ð¼ Ð¼Ð°
ĠÐ¼Ð¾Ð´Ðµ Ð»ÑĮ
ĠÐ½ Ð¾ÑĢ
ĠÐ¼Ðµ Ð»ÑĮ
Ð¶Ð¸ Ðµ
ĠÐ´Ð¾Ð³Ð¾Ð² Ð¾ÑĢÐ°
nÐŁ Ð¾Ð»Ð¸
ĠÑģÐ¾ÑĤÑĢÑĥÐ´ Ð½Ð¸
ĠÐ´Ð° ÐµÑĤ
i p
83 3
ĠÑĢÑĭ Ð±
Ġ ï¿½ï¿½ï¿½ï¿½ï¿½ï¿½ï¿½ï¿½
ÑĢÐ¸ ÑģÑĤ
ĠÐ½Ðµ ÑĦ
ĠÑģÐ¾Ð¾Ð± ÑīÐµÐ½Ð¸Ð¹
ĠÐ²Ð¸ Ð´Ñĭ
99 33
8 18
ĠÐ»ÑİÐ± Ð¾Ð²
0 97
ĠÐ²Ð¾Ð·Ð´Ñĥ ÑħÐ°
ĠÐ²Ð¸ Ð´Ð¾Ð²
Ġ ...
or g
ĠÐ³Ð¾ÑĢÐ¾Ð´ ÑģÐºÐ¾Ð³Ð¾
ĠÐŃ ÑĤÐ¾ÑĤ
ĠÐ¸Ð·Ð¼ÐµÐ½ ÐµÐ½Ð¸Ð¹
ĠÐºÐ¾ÑĢ ÑĢÐµ
ĠÑģÐ°Ð¼ Ð¾Ðµ
el l
Ð´Ðµ ÐºÑģ
Ð½Ð²Ð° ÑĢÑĮ
ĠÐºÐ°ÑĢ ÑĤÑĭ
ĠÐµ Ð²
96 2
ÑīÐ° ÑĤÑĮÑģÑı
Ð¾Ðº ÑģÐ¸
ĠÑģÐµÑĢÐ²Ð¸ Ñģ
ÑĨÐ° Ð¼Ð¸
ĠÐ´Ð°Ð»ÑĮ ÑĪÐµ
ĠÐºÐ½Ð¸ Ð³Ð¸
ĠÐŁ ÑĢÐ°Ð²
ĠÑĥ Ð±Ð¸
Ð°Ð»ÑĮ Ð½Ð¾Ðµ
Ðº ÑĨÐ¸Ñİ
ĠÐµ ÑģÑĤÐµ
04 6
Ð¶Ð´Ñĥ Ð½Ð°ÑĢÐ¾Ð´
ÑĢÐ¾Ð¸ ÑĤÑĮ
Ð¾ÑĢÐ° Ð·
8 84
ĠÑĢÐ° Ð½
ÑĩÐ¸ Ð½Ñĭ
06 5
Ð¾Ð¼ ÐµÑĤ
ĠÐ²Ñĭ Ð¿Ð»Ð°
ĠÐ¤ ÑĢÐ°Ð½
ÑĤÑĭ Ð¼
ÑĤ Ð½Ð¾Ð³Ð¾
ĠÐºÐ° ÐºÐ¸Ñħ
A T
ĠÐĶ Ð¼Ð¸ÑĤÑĢÐ¸
Ð» Ð¾Ð±
ÑĤÐ° Ð»ÑĮ
ĠÐĶ ÐµÐºÐ°Ð±ÑĢÑĮ
Ð¾Ñģ Ð°
ĠÑĢÑıÐ´ Ð¾Ð¼
oo gle
34 6
Ġ k
ĠÐŁ Ð¾Ð»
ĠÐ¼ÐµÑĤÐ°Ð» Ð»Ð¸
ĠÐŁ Ð¾ÑĤ
ĠÐ¿ÑĢÐµ Ð²Ñĭ
ÑĤÐ¸Ð² Ð½Ð¾Ð¹
ĠÑģ ÐºÑĢÑĭ
ĠÑģÑĤÑĢÑĥ ÐºÑĤÑĥ
ĠÐºÐ¾ÑĢ Ð¾Ð½Ð°Ð²Ð¸
ÑĤÐ¸Ð² Ð½Ð¾Ð³Ð¾
Ðļ ÑĢÐ°Ñģ
27 5
ĠÑĢÐµ Ð¼
ĠÑģÑĤÐ¾Ð¸ Ð¼Ð¾ÑģÑĤÐ¸
ĠÐ½Ð¾Ð² Ð¾Ð¹
ĠÐ³ÑĢÑĥÐ¿ Ð¿Ð°
nÐĲÐ² ÑĤÐ¾ÑĢ
ĠÐ° Ð¼ÐµÑĢÐ¸ÐºÐ°Ð½
ĠÐ·Ð½Ð° ÑĤÑĮ
ÑģÐº Ð
ĠÐºÐ¾Ð¼Ð¿ Ð¾Ð½
ÑģÐºÐ ¾
Ġ7 0
12 8
99 17
ÑĢÐ¸ ÑģÑĤÐ¸
ĠÑģÐ²Ð¾ ÐµÐ¼
ĠÑĢÐ°ÑģÑĤ ÐµÐ½Ð¸Ñı
ĠÑģÑĤÐ°Ð½ ÐµÑĤ
ĠÐ¿Ð¾Ð¸ ÑģÐº
Ð³Ð° Ð»
Ð·Ð¸ Ð´ÐµÐ½ÑĤ
ĠÐ³ Ð»ÑĥÐ±
Ġ 05
Ð»Ð¸ Ð²Ð°
ĠÐ¾Ð´ Ð½Ð¾Ð¼
ĠÐ¿ÐµÑĢÐ² Ð¾Ð³Ð¾
te m
ĠÐ´Ð¾ÑģÑĤ ÑĥÐ¿Ð°
EF FC
ĠÐ¢ ÐµÐ¼
ĠÑĤÐµ ÑĢÐ°
Ð½ ÐµÐ½Ð¸Ñİ
ĠÐ¾ÑĤÐ·Ñĭ Ð²
ĠÐº ÑĥÐ¿
ĠÑģÐ»ÑĥÑĩÐ° ÐµÐ²
ĠÑĢÑĥ ÐºÐ¸
Ð½Ð¸ Ð»Ð¸
ĠÑģÐ¾ÑģÑĤÐ¾Ñı Ð½Ð¸Ðµ
ĠÐ³ ÐµÐ½ÐµÑĢÐ°
nÐ¡ Ð¾Ð²
ĠÐ·Ð° Ð²Ð¾Ð´
ÑĪÐ° ÐµÑĤÑģÑı
ĠÐ¿ÑĢÐ¾ÑĨÐµ ÑģÑģÐµ
nÐļÐ¾Ð¼ Ð¼ÐµÐ½ÑĤÐ°ÑĢÐ¸
Ðķ Ð¢
ĠÐ¾ÑģÑĤ Ð°Ð½Ð¾Ð²
ï¿½ï¿½ ï¿½
n H
ĠÐ´ÑĢÑĥÐ³Ð¸ Ð¼Ð¸
ĠÐ· ÐµÑĢÐºÐ°
Ã Ĺ
ĠÑįÐºÑģÐ¿Ð»ÑĥÐ°ÑĤÐ° ÑĨÐ¸Ð¸
ĠÐ¸Ð½ ÑĦ
99 05
ĠÐ°Ð¿ Ð¿Ð°ÑĢÐ°
ÑĬ ÐµÐº
ĠÑĤÐµ Ð±Ñı
Ð¾Ð ¾Ñħ
ĠÐ¾ÑĤÐ´ÑĭÑħ Ð°
ĠT he
Ġ Q
ul t
Ð· Ð´
ĠÐ¶ÐµÐ½ÑīÐ¸ Ð½
0000 4
34 4
ĠÐ¼Ð°Ñģ ÑģÐ°
Ġ Ð©
ÑĢÐµ ÑĨ
Ġ Ð»ÑĮ
ĠÐ¡ ÑĤÑĢÐ°
Ð¾Ñĩ Ð½Ð¾Ð³Ð¾
ÐµÑĢ Ð½Ð°
ĠÐ½Ð° ÑĤÑĥÑĢÐ°Ð»ÑĮ
Ð¶ Ð¼Ð¸ÑĤÐµ
ĠÑģÐ¿ Ð¾ÑĢÑĤ
ĠÐ¿ÑĢÐ¾Ñģ Ð¼Ð¾ÑĤ
Ð·Ð¸ ÑĤÑĮ
de x
Ġ3 00
ĠÐºÐ½Ð¾Ð¿ ÐºÑĥ
Ð¾Ð¸Ð· Ð¾Ð»Ñı
ĠÑĢ Ð¾Ð¶Ð´ÐµÐ½Ð¸Ñı
Ð¾Ð³ÑĢÐ°ÑĦÐ¸ Ñı
Ð´Ð¸ Ð½Ð°
indo ws
Ð± Ð°Ð¹
nÐŀÑģ Ð½Ð¾Ð²
20 13
Ð½Ð¾Ð´ Ð°ÑĢ
ĠÐĺÐ½ÑĤÐµÑĢ Ð½ÐµÑĤ
Ñĩ Ð½ÑĥÑİ
ĠÑĤÐµÑħ Ð½Ð¸ÐºÐ¸
ĠÑĤÐµÑħÐ½Ð¾Ð»Ð¾Ð³Ð¸ Ð¹
ĠÑĥ ÑħÐ¾Ð´
v e
ĠÑĥÐ¿Ð° ÐºÐ¾Ð²
ĠÑģÑĤ Ð¾Ñı
Ñģ Ð¼
ĠÑĢÐ°Ð·Ð²Ð¸ ÑĤÐ¸Ðµ
Ð¾Ð´ÐµÐ»Ð¸ ÑĤÑĮÑģÑı
ĠÑģÐ»ÑĥÑĩÐ° Ð¹
ÑĢÑĥ Ð±
ĠÐ¿ Ð°Ðº
ĠÑģÐ¾Ðµ Ð´Ð¸Ð½
ĠÐ¿Ð°ÑĢ Ð¾Ð»ÑĮ
ĠÐ´ ÐµÑĤÐ¸
ĠÐº Ð°Ð½
ĠÑĤÐµÐ»Ðµ ÑĦÐ¾Ð½Ð°
i ya
ĠÑĢÐµÐ³Ñĥ Ð»ÑıÑĢ
ĠÐ¾Ñģ Ð²Ðµ
ĠÐ´ÐµÐ¹ÑģÑĤÐ²Ð¸ Ð¹
Ð¿Ð¾Ð» Ð½Ðµ
ĠÑĤ ÐµÐ½
ar ch
ÐµÐ½ Ð½ÑĭÐ¼
nÐĽ Ð¸
ÑĩÐ¸ Ð¹
99 14
Ð¾ÑģÑģÐ¸ Ñı
04 7
Ðĳ Ðŀ
99 18
ÑİÑīÐ¸Ñħ ÑģÑı
ĠÑģ Ð²Ð°
ĠÑģÑĤÐ° Ð»Ð°
ĠÑģÐ¿ ÑĢÐ¾Ñģ
ĠÐ±Ð»Ð¾Ðº Ð¸
ÑĤÐµÐ»ÑĮ ÑģÑĤÐ²Ð¾Ð¼
Ñİ ÑīÑĥÑİ
ÑĤÐ° ÑĨÐ¸Ð¸
ĠÑĢÐ°Ð¹ Ð¾Ð½Ðµ
ru m
Ġ pro
ĠÐ¿Ð¾ÑģÑĤ Ð°Ð½Ð¾Ð²
O V
Ð¼Ð° ÑĤ
ÐºÑĥ Ð¿
ÑĤÐ¸ Ð²Ð°
03 8
n Ð´
Ġ 36
ĠÐ± Ð¾Ð³Ð°
ĠÑįÑĦ ÑĦÐµÐºÑĤ
98 75
ÑĪ Ð»Ð°
ĠÐ·Ð² Ð¾Ð½
ĠÐºÐ²Ð°ÑĢÑĤÐ¸ ÑĢÑĭ
ĠÐ¸Ð½ ÑĦÐµÐº
Ð½Ð¾ Ñģ
ĠÐ¿ÑĢÐ¸ Ð²Ñĭ
ÑĪ Ð½Ð¸Ð¹
93 2
1 97
99 28
ÐŁ ÑĢÐ¸
ĠÐ¿ Ð»Ð¸
Ð¼Ð¸ Ð½Ð°
ĠÐº Ð»ÑĥÐ±
ÑĨÐ¸Ð¾Ð½ Ð½Ð°Ñı
ĠÐĵ Ð¾ÑģÑĥÐ´Ð°ÑĢ
99 16
4 95
Ð¶Ð° ÐµÑĤÑģÑı
ĠÐĹ Ð´ÐµÑģÑĮ
ĠÐ± Ð¾Ðº
Ðº Ð¾Ð²Ð°Ñı
ĠÑģ Ð¾ÐºÑĢÐ°
ĠÐ²ÑĢÐ° Ñĩ
ĠÐ¼Ð¸ Ð½
ÑıÐ² Ð»ÐµÐ½Ð¸Ðµ
ĠÐ´ ÐµÐ¼
ĠÐ´Ð°Ð½ Ð½Ð¾Ð³Ð¾
ĠÐ´Ð¾ ÑħÐ¾Ð´
ĠÐ¼Ð° Ð³
ĠÐ¾Ð±ÐµÑģÐ¿Ðµ ÑĩÐµÐ½Ð¸Ñı
ĠÐ²Ð¾Ð¹ Ð½Ñĭ
ĠÐ£ÐºÑĢÐ°Ð¸ Ð½Ðµ
20 8
ĠÐ²Ð° ÑĪÐ¸
ĠÑĢÐ°Ð· Ð½ÑĭÐµ
ĠÐºÐ¾Ð¼Ð¿Ð° Ð½Ð¸Ð¹
Ð² ÑĪÐ¸Ðµ
ĠÐ¾ÐºÑĢÑĥ Ð¶Ð°
ĠÑĤÐµ Ð¼Ñĥ
ĠÑģÐ°Ð¼ Ð¾Ð³Ð¾
13 3
Ð±Ð¸ ÑĤ
ÑģÐº Ð¾Ð»ÑĮÐºÐ¾
ÑģÐ¾Ð» ÑİÑĤ
ĠÐ¿ÑĢÐ¸ Ð²Ð»ÐµÐºÐ°
Ġ 07
Ð°Ð½ ÑĤÐ°
ÑĢÐµ ÑĤ
ÑĪ ÑĢÑĥ
Ðº Ð»Ð¸
ĠÐ¿Ð¾Ñģ Ð²Ñı
ĠÐ¿ÐµÑĢÐ² Ð¾Ð¹
ĠÐĿÐ¸ ÐºÐ¾Ð»Ð°
ĠÑĨÐµ Ð»Ð¸
Ð± ÐµÑĢÐµ
996 0
ĠÐ´Ð¸ Ð°
ĠÑĤÐ¸ Ð¿
ÑĢÐ¾Ð²Ð° Ð»
ĠÐ¼Ð°Ñģ Ð»Ð°
ÐĲ ÐĿ
Ġp h
o ut
ĠÑĢÐ°Ñģ ÑĩÐµÑĤ
ĠÐº Ð¾ÑģÑĤ
ĠÐ¸ÑģÐ¿Ð¾Ð»ÑĮÐ·Ñĥ ÑİÑĤ
ĠÐ°Ð» ÐºÐ¾Ð³
ĠÑĥÑĢÐ¾Ð² Ð½Ðµ
nÐ¡ ÑĤ
ĠÐ¸ Ð´ÐµÑĤ
Ð¾Ñħ ÑĢÐ°
ĠÐ»Ð¸ ÑĨÐµÐ½
Ð¿ Ð¾Ñĩ
20 34
ĠÑħÐ¸ Ð¼Ð¸
ÑģÑĤ Ð¾Ð¼
Ð»Ñı Ð½
ÑĤÑĮ Ð¸
ÑĢÐ¾Ð²Ð°Ð½ Ð½ÑĭÐ¹
ĠÑģÑĤÐ° Ð»Ð¾
ĠÐ¾ÑĤÐ½Ð¾ ÑģÑı
37 4
ĠÐ´Ðµ ÐºÐ¾ÑĢÐ°
ĠÐĿÐ¸ Ð¶
ĠÐºÐ¾ÑĢ Ð¾Ð±
ĠâĤ½ \
ĠÑģÐ¸ Ð»ÑĮÐ½Ð¾
âĢ Ļ
ĠÐ¡ ÐµÐ½ÑĤÑıÐ±ÑĢÑĮ
8 86
ĠÑģÐ¸ÑģÑĤÐµÐ¼ Ðµ
ĠÐ¼Ð½Ð¾Ð¶Ðµ ÑģÑĤÐ²Ð¾
ÐºÐ°Ð½ ÑģÐ¸Ð¸
ĠÑĥÑĤÐ²ÐµÑĢ Ð¶Ð´
ĠÐºÐ°ÑĤÐµÐ³Ð¾ÑĢÐ¸ Ð¸
ĠÐĳ ÐµÐ»Ð°
ÑĤÐ¸Ð² Ð½Ð°Ñı
ĠÐĶ Ð°Ð½
ĠÑģÐºÐ° ÑĩÐ°ÑĤÑĮ
nÐ¦ ÐµÐ½Ð°
ĠÐ¿Ð°ÑĢÑĤ Ð½Ðµ
ĠÑĦÑĥÐ½ ÐºÑĨÐ¸Ð¸
ÑĢ Ð´
ĠÑĢÐµ Ð°Ðº
ĠÑĢÐ°ÑģÐ¿ÑĢÐ¾ÑģÑĤ ÑĢÐ°Ð½
Ð¾ÑģÐ¸ Ð±Ð¸ÑĢ
Ñĥ Ð»ÑĮ
Ġ is
ÑĢÐ°Ð¶ ÐµÐ½Ð¸Ñı
15 0
ĠÐ¼Ð¸ Ð½Ð¸Ð¼Ð°
23 7
ĠÑħÐ°ÑĢÐ°ÐºÑĤÐµÑĢÐ¸ÑģÑĤÐ¸ ÐºÐ¸
ÑĤÐ¸ ÐºÑĥ
ĠÑģÐµÐ¼ ÑĮÐ¸
er y
94 2
76 5
ĠÐ¢ Ñĭ
ĠâĨ Ĵ
ĠÐ³Ð°ÑĢÐ°Ð½ ÑĤÐ¸
23 4
ĠÐĹ Ð°Ðº
ĠÐ·Ð° ÐºÐ»ÑİÑĩÐ°
35 4
Ð¾Ð· Ñĭ
n Ð½Ð°
ĠÑĢÐµÐºÐ¾Ð¼ÐµÐ½Ð´Ñĥ ÐµÑĤÑģÑı
a la
Ñĥ Ð¿Ð¸
k s
âĢ ĭ
ĠÐ¸ÑģÐ¿Ð¾Ð»ÑĮÐ·Ð¾Ð²Ð° Ð½Ð¸ÐµÐ¼
ĠÐ¿Ð¾Ð´ ÑħÐ¾Ð´Ð¸ÑĤ
ÐµÐ´ ÑĮ
ĠÐ½Ð°Ð»Ð¸ÑĩÐ¸ Ðµ
ÑģÐºÐ¸ Ð¼Ð¸
g o
ÐµÐ¼ ÑģÑı
04 4
ĠÐ±Ð¸ Ð±Ð»Ð¸
S T
Ġ http
ÐºÐ°Ð·Ð° ÑĤÑĮ
ÐµÐ¼Ð¾Ð½ ÑĤ
Ð±Ð¾ ÑĢÐµ
35 5
4 22
Ð´Ð° Ð»Ð¸
Ð»ÑĮ Ð½Ð¸Ðº
ĠÐºÐ°Ð¶Ð´ Ð¾Ð¹
ĠÐĲ Ð¿ÑĢÐµÐ»ÑĮ
ĠÐºÐ¾Ð½ÑģÑĤÑĢÑĥ ÐºÑĨÐ¸Ð¸
Ð¶ Ð½Ð¾ÑģÑĤÐ¸
ĠÑģ Ð²Ð¸Ð´ÐµÑĤÐµÐ»ÑĮ
ĠÐºÐ¾Ð¼Ð¿ Ð»ÐµÐºÑĤ
nÐ¡ ÐµÑĢ
ĠÐ± Ð¾Ð½ÑĥÑģ
n G
ĠÐ·ÐµÐ¼ ÐµÐ»ÑĮ
ĠÐ¿ÑĢÐ¸ Ð´ÐµÑĤÑģÑı
Ð¼Ñĥ Ð¼
b ook
nÐļ Ð¾Ð³Ð´Ð°
ĠÐ¾ÑģÐ¾Ð±ÐµÐ½ Ð½Ð¾ÑģÑĤÐ¸
ÑĤ ÐºÐ°
ĠÐ½ÐµÐ¿ Ð¾ÑģÑĢÐµÐ´
Ð» Ð¾ÐºÐ°
al og
ĠÐ²ÐµÑĢ Ð¾ÑıÑĤ
Ð² Ð¾Ð³Ð¾
ĠÐ´Ðµ ÑĪÐµ
ĠÐ½Ðµ Ð¼Ðµ
ĠÐ¿Ð¾Ð· Ð´
Ð² Ð¾ÑĢÐ¸
ĠÑģÐµ ÑĢÐ¸Ð¸
Ð²Ð° Ð½Ð¸Ð¹
ĠÐ¿Ð¾Ð´ÑĤÐ²ÐµÑĢ Ð¶Ð´Ð°
ĠÐ½Ðµ Ð´ÐµÐ»Ð¸
ĠÑĤÑĢÐµÐ±Ñĥ ÐµÑĤ
-- -
ĠÐ¿Ñĥ ÑĤÐ¸
Ð½Ñĥ Ð»
ĠÐ° Ð²Ð¸Ð°
ĠÐ»ÑİÐ± Ð¾Ð³Ð¾
84 3
ĠÐļ Ð°Ð»Ð¸
ĠÑģÑĤÑĢÐ° Ð½Ðµ
Ð¶ Ð½Ð¾Ð³Ð¾
Ð¶Ð¸ Ð½
Ð¾Ð» Ñİ
ĠÐ´ÐµÑıÑĤÐµÐ»ÑĮ Ð½Ð¾ÑģÑĤÑĮ
Ð¶ Ð°Ð»
ÑĢ Ð¿Ð¸
U R
ĠÐ¡ ÐŁ
Ð¸ Ðº
44 6
ĠÐ¢ Ð°Ð¼
4 277
ĠÐ¾Ð´ Ð½Ñĥ
ÐµÑĢÐ¸ ÑĤÑĮ
ĠÐ¼Ð°Ñģ Ð»Ð¾
ĠÐº Ð¾Ð³Ð¾
ÑĭÑħ Ð°
Ñį Ðº
Ð± ÑĢÐ°Ð½
am e
Ð¾Ð² ÐµÑĢ
ĠÐ¿ Ð»Ðµ
ĠÐ¾Ð±ÑıÐ·Ð° ÑĤÐµÐ»ÑĮ
ÐĲ ÑĢ
ÐµÐ´ Ñĭ
ĠÐ¾ÑĢÐ³Ð°Ð½Ð¸Ð·Ð° ÑĨÐ¸Ð¹
ĠÐ² ÑĢÐµÐ´
n I
ĠÑĢÐ°Ð·Ð»Ð¸Ñĩ Ð½ÑĭÐµ
8 14
o nt
ĠÑĨÐµ Ð»ÑıÑħ
Ð»Ð°Ð½ Ð´
ĠÐ·Ð° Ð²
ĠÑħ Ð²Ð°
ĠÑĤÐ° Ð½
ĠÐ¸Ð½ Ð¾Ð³Ð´Ð°
ĠÐ¿Ð»Ð¾ÑīÐ° Ð´
ĠÑģÑĥ Ñħ
ÐĴ Ñĭ
Ð¸Ð½ ÐºÐ¸
07 4
ÑĦ Ð»Ð¸
ĠÐ¸ÑģÐ¿Ð¾Ð»ÑĮÐ·Ð¾Ð²Ð° Ð½Ð¸Ð¸
Ð¾Ð¶ Ð´Ð°
ĠÐ¿ÐµÑĢÐ² ÑĥÑİ
ÐºÐ° ÑĩÐ°ÑĤÑĮ
ĠÐ·Ð½Ð° ÑĩÐµÐ½Ð¸Ðµ
ĠÐ³ ÑĢÐµ
du ct
ĠÐº Ð»Ñĥ
ĠÐ¶ Ð°Ð»
ÐºÑĤ ÑĥÑĢ
) :
Ð³Ð° Ð¼Ð¸
ĠÐºÐ¾Ð¼Ð¼Ñĥ Ð½Ð¸ÐºÐ°
35 7
ĠÑħ ÑĢÐ°Ð½ÐµÐ½Ð¸Ñı
20 2
M L
76 6
ĠÐ¡ÐµÑĢ Ð³ÐµÐ¹
. :
nÐĹ Ð°Ðº
ĠÐ´ÐµÐ»Ð° ÐµÑĤ
Ð½Ð¸Ñĩ ÑĤ
ĠÐ¿ Ð°Ð»ÑĮ
ĠÐ´ÐµÐ¹ ÑģÑĤÐ²ÑĥÑİ
ĠÐ¿ÑĢÐ¾Ð´Ñĥ ÐºÑĤÑĭ
Ð² ÐµÐ½
ÑģÑĤÐ° ÑĤÐ¸
ĠÑģÐ¾Ð²Ð¼Ðµ ÑģÑĤ
ĠÐ°Ð³ ÐµÐ½ÑĤ
8 17
Ð»Ð¾Ðº Ð¸
ÑģÑĤÐ²ÐµÐ½ Ð½ÑĭÐ¼
45 1
24 7
ĠÐ° Ñį
ĠÐŀÑģ Ð½Ð¾Ð²
ĠÑį Ð¼Ð¾
ĠÑĨ ÐµÐ½Ðµ
Ð¿Ðµ ÑĨ
ĠÐĺÐ²Ð° Ð½Ð¾Ð²
ĠÐ¿ÑĢÐµÐ´Ð¿ÑĢÐ¸Ñı ÑĤÐ¸Ñı
ĠÐ²Ðµ Ð´Ñĥ
Ġ st
ĠÑģ Ð¼Ð¾ÑĤÑĢÐµÑĤÑĮ
36 3
ĠÐĲÐ² Ð³ÑĥÑģÑĤ
ĠÐ²Ð¸ Ð½
26 3
ĠÐºÐ¾Ð½ ÑĤÑĢÐ°
m i
ÑģÑĤÑĥ Ð¿Ð¸
ĠÐ´ÑĢÑĥÐ· ÑĮÑı
ĠÐ»ÑĥÑĩ ÑĪÐ¸Ñħ
ĠÐ² Ð¾Ð²
ĠÐº Ð²Ð°Ð»Ð¸
ÑĥÑİ ÑīÐ¸Ðµ
Ð¶Ð¸ ÑĤÑĮ
ĠÑģÑĤÑĢÐ° Ð½Ð¸ÑĨÐµ
ĠÐĳ Ð°ÑĢ
ĠÐ½Ð° Ð²ÐµÑĢ
ĠÐ¡ ÑĢÐµÐ´
ĠÐĴ Ð¾ÑģÑĤ
Ð»ÐµÐ½ Ð½Ð¾
ÑĨ ÐµÐ¼
ĠÑĢÐ°Ð· Ð¼
05 4
99 38
34 7
Ñĥ Ñħ
ĠÐ²ÑĭÐ¿Ñĥ ÑģÐºÐ°
ĠÐ´ Ð»Ð¸Ð½
95 2
> \
ĠÐľÐ°ÑĢ ÑĤ
ĠÐ²Ð¾Ð´ Ð¾Ð¹
j a
ĠÑĥ ÑģÐ¸
90 2
ĠÐ¿Ð¾Ð¼ Ð¾ÑĩÑĮ
ĠÑģÑĥ Ð´ÐµÐ±
Ġcook ie
ĠÐĺ ÑģÑĤ
nÐ¡ Ðµ
ÐºÑĤÐ¾ÑĢ Ñĭ
ĠÐ¿Ð¾Ñģ Ð»ÐµÐ´Ñĥ
ĠÐ² Ð¿Ð¾Ð»Ð½Ðµ
ĠÐ¡ Ð¾Ð³Ð»Ð°
27 4
ĠÐ¿ÑĢÐµÐ´Ð»Ð°Ð³Ð° ÐµÑĤ
04 5
9977 9725
ĠÑĥÑģÐ»Ð¾Ð²Ð¸ Ð¹
ĠÑģÑĤÐ°ÑĤÑĮ Ðµ
Ñĩ ÐµÐ½Ð¸Ñİ
nR ep
ĠI P
ĠÑĢ Ð¾Ð»ÑĮ
ĠÐ¸ÑģÐºÐ»ÑİÑĩÐ¸ ÑĤÐµÐ»ÑĮÐ½Ð¾
ĠÐ¿Ð¾Ð¼Ð¾Ð³Ð° ÐµÑĤ
nÐ ®
Ð¾Ð³Ð¾ÑĢ ÑģÐº
ĠÐ¾ÑĢ Ñĥ
ĠÐ´Ð°Ð½ Ð½Ð¾Ð¼
ĠÐ¿ÑĢÐ¸Ð¼ÐµÑĢ Ð½Ð¾
97 1
ĠÑģÑĤÑĢÐ° ÑĤÐµ
ĠÐļÐ¾Ð¼ Ð¿
Ð» ÐºÑĥ
ĠÐ´ÐµÑĢÐµÐ² ÑıÐ½
Ñĩ Ð½Ð¾ÑģÑĤÑĮ
Ð½ ÐµÑĤÐµ
ÐºÐ¾Ð² ÑĭÑħ
ÑĨÐ¸ Ð½Ð°
Ð¾ÑģÑĤÑĮ Ñİ
Ñħ Ð¾ÑĤ
ĠÐ¿Ð¸ ÑīÐµ
ĠÐºÑĥ Ð´Ð°
ĠÐľ Ð¾Ð¶Ð½Ð¾
4 17
20 12
ĠÐ²Ðµ ÐºÐ°
Ð¾ÑģÑģÐ¸ Ð¹
ÑĢ Ð¾ÑĤ
ĠÑĨÐµÐ»ÑĮ Ñİ
ÑĢÑı Ð·
ĠÐ´Ð¾ÑĢ Ð¾Ð¶
ĠÐ¿ÐµÑĢÐµ Ð¼Ðµ
Ġ 75
Ð»Ñĭ Ð¼
n W
ĠÐºÐ°ÑĢ ÑĤÐ¸Ð½
ĠÑĥÑģÑĤÐ°Ð½Ð¾Ð² Ð¸ÑĤÑĮ
ĠÐ° Ð¼
ĠÐ¾ÑĤ ÐºÐ»Ñİ
Ð´ Ñı
ĠÑģÐ¾ÑģÑĤÐ¾Ñı Ð½Ð¸Ð¸
ÑĤÐ¸ ÐºÐ¸
ÑĩÐ° ÑģÑĤÑĮ
ĠÐ¼ Ð¾Ð·
ĠÑĨ ÐµÑĢ
Ð½Ðµ ÑģÑĤÐ¸
ĠÐ¼ Ð³
Ð¾Ð¿Ñĥ Ð»ÑıÑĢ
ĠÐ³ÑĢÐ° ÑĦÐ¸
ĠÐĲ Ð»ÑĮ
99 15
ĠÐĹ ÐĲ
ĠÐĺÑİ Ð½ÑĮ
ĠÐ±Ð»Ð¸ Ð¶Ð°Ð¹
ĠÑģÑĤ Ð¾Ð»Ð¸
ĠÐ¤ÐµÐ² ÑĢÐ°Ð»ÑĮ
ÑĢÐ¸ ÑĤÐ°
ĠÑģÑĥÑīÐµ ÑģÑĤÐ²ÑĥÐµÑĤ
nÐĶ Ð¾Ð±
ĠÐºÐ¾Ð¼Ð¼ÐµÐ½ÑĤÐ°ÑĢÐ¸ ÐµÐ²
ĠÑĢÐ° Ð½ÐµÐµ
27 3
u a
ĠÐŁ Ð°ÑĢ
8 85
99 06
ÑĤÐ¸ Ð»Ð¸
Ð²ÐµÑĢÐ´ Ð»Ð¾Ð²
ĠÐ¿Ð¾ÑģÐ»ÐµÐ´ Ð½Ð¸Ðµ
Ñį ÑĦ
Ð²Ð¾Ð´Ð¸ ÑĤ
s er
ÐµÐ¼ ÑĭÐ¹
ÑīÐ¸ Ð¼Ð¸
ĠÐľ Ð¾Ð»
ÑĤÐ° Ð¹
96 1
ĠÐ²Ñĭ Ð±Ð¸ÑĢÐ°
ĠÐ¿Ð¾Ð´Ð´ÐµÑĢÐ¶ ÐºÐ¸
ĠÐ³ Ð¾Ñģ
ĠÐ´Ð°Ð² Ð½Ð¾
ĠÐ´Ð°Ð½ Ð½ÑĭÐ¼
ĠÐ¯ Ð½
ĠÐĵ Ð¾Ñģ
Ð·ÑĭÐ²Ð° ÑİÑĤ
ĠÑĢ Ð¾Ð»Ð¸
ĠÐ´ ÑĢÐ°
f r
ĠÐ»ÑİÐ± Ð¾Ð¼
Ð¿ Ð¾ÑĤ
ĠÐ¾ÑĤ Ñģ
O L
ĠÑĥÑģÑĤ Ð¾Ð¹
n V
ĠÐ²Ñģ ÐµÐ¼Ð¸
ÑĢÐ¾Ð²Ð°Ð½ Ð½ÑĭÑħ
Ñĥ Ð´Ð°
Ġ 55
ĠÐ¿ÑĢÐµÐ´Ð»Ð¾Ð¶ ÐµÐ½Ð¸Ñı
Ñĥ ÐµÑĤÑģÑı
ĠÐ²ÐºÐ»ÑİÑĩÐ° Ñı
Ġ 06
ĠÑĢÐµ ÑģÐ¿
ĠÑģÐ°Ð¼ Ð¾Ð¹
Ð¾Ñģ Ñĭ
ĠÐ»Ð¸ÑĨ Ð
ĠÐ»Ð¸ÑĨÐ ¾
ĠÐŁ Ð¾ÑĢ
ĠÑģÐ¾Ð¿ ÑĢÐ¾Ð²
ĠÐ¾Ð±ÑĬÐµ ÐºÑĤÐ¾Ð²
ĠÑģÐ¾Ð²ÐµÑĢÑĪÐµÐ½ Ð½Ð¾
Ġ20 09
ÑĦ Ð¾Ð½Ñĭ
Ðł Ð£
ĠÐ¿ÑĢÐ¾ÑĨÐµ ÑģÑģÐ°
99 22
Ð¤ ÐĹ
ĠÐ±Ð¾Ð»ÑĮÑĪ Ð¾Ðµ
ĠÐ»Ñİ Ð´
Ð»Ð° ÐºÑĤÐ¸
ĠÐŃ ÑĤÐ¸
ĠÐ¿Ð¾Ð± Ðµ
Ð½ ÐµÐ½Ð¸Ð¸
ĠÐ¼Ð° Ð»Ð¾
ÑĦÐ¸ÐºÐ° ÑĨÐ¸Ð¸
m an
Ð¾Ð³ Ð¾Ð´
ĠÐ¿Ð¾Ð´ Ñģ
ĠÐ¸ÑģÐ¿ ÑĭÑĤÐ°
ĠÐ´Ðµ Ð²
ĠÐ³Ð»Ð° Ð·
ĠÐ¾ÑĤÐ²ÐµÑĤÑģÑĤÐ²ÐµÐ½ Ð½Ð¾ÑģÑĤÐ¸
ĠÐ² Ð°Ð»
ĠÐ¿ÑĢÐ¸ ÑĩÐ¸Ð½Ð°
ĠÐº Ð»Ðµ
ĠÐ±Ð»Ð° Ð³
ĠÐ¿ÐµÐ½ ÑģÐ¸
ĠÐ´Ð¸Ð·Ð° Ð¹Ð½
ÑĢÐ¾Ð²Ð° Ð½Ñĭ
ĠÐ¿ÑĢÐµ Ð¶Ð´Ðµ
nÐŁ Ð¾Ð¸ÑģÐº
Ġ 03
Ð²ÐµÐ´ ÐµÐ½Ð¸Ðµ
ĠÐºÐ° Ð±Ð¸
ĠÐ¿ÑĢÐµÐ´ ÑĥÐ¿
ĠÐ¿ Ñĭ
ĠÐ¿Ñĥ ÑĤÐµÐ¼
Ð¿Ñĥ ÑģÐº
ÑĢÐ°Ð±Ð¾ÑĤ ÐºÐ°
ĠÐ¯ Ð½Ð²Ð°ÑĢÑĮ
ĠÐ½Ð¸Ðº ÑĤÐ¾
ĠÐ½ÐµÐ·Ð° Ð²Ð¸ÑģÐ¸
ĠÑĢÐ¸Ñģ ÑĥÐ½
ĠÐ¿Ð¾ÑĤ ÐµÐ½
l in
ÑģÐ° Ð¼Ð¸
ĠÐºÐ¾Ð¼Ð¼ÐµÐ½ÑĤÐ°ÑĢÐ¸ Ð¸
nÐĶ Ð¾ÑģÑĤÐ°Ð²ÐºÐ°
ĠÑĨÐ²ÐµÑĤ Ð¾Ð²
ĠÑģÑĤÐ° ÑĢÐ°
Ð²Ð° Ð´
ĠÐĺÑİ Ð»ÑĮ
8 94
ÑĤÐ¸ Ð»
la ss
un ction
\" .\
ĠÐºÐ¾Ð»Ð¸ÑĩÐµ ÑģÑĤÐ²Ð°
45 6
ĠÐ¿ÑĢ Ð¾ÑĤÑı
ĠÑĤÐ° ÐºÐ°Ñı
ÑĩÐ° Ñı
ĠÐ¤ Ð¾ÑĢ
ĠÐ´ ÑĢÐµÐ²
+ \
ĠÑĢÐµÐ¶Ð¸ Ð¼Ðµ
86 0
ĠÐ³Ð¾ÑģÑĥÐ´Ð°ÑĢÑģÑĤÐ²ÐµÐ½ Ð½Ð¾Ð¹
Ð± ÑĥÐ´ÑĮ
ĠÐ´Ð¾Ð±Ð° Ð²Ð¸ÑĤÑĮ
ĠÐłÐµÑģÐ¿ÑĥÐ±Ð»Ð¸ ÐºÐ°
Ð½Ð³ÑĢÐ°Ð´ ÑģÐºÐ°Ñı
I M
nÐŁ Ðµ
ĠÐ¾Ð³ÑĢÐ°Ð½Ð¸ ÑĩÐµÐ½
ĠÐ¾Ð±Ñĥ ÑĩÐµÐ½Ð¸Ñı
ĠÐĶ ÐµÑĤ
ÑĢÐµ Ñı
ĠÑģÑĤÑĢÐ° ÑħÐ¾Ð²
Ðľ Ðŀ
ĠÑĩÐ° Ñģ
ĠÑģÑĥÑĤ ÐºÐ¸
ĠÐ¼Ðµ Ð¶
ĠÐ½Ðµ Ð¸Ð·
nÐŁ Ð¾ÑĩÐµÐ¼Ñĥ
ĠÐ¿Ð¾Ð¸ ÑģÐºÐ°
ĠÑģÐ¾Ð±Ñĭ ÑĤÐ¸Ñı
ĠÐº ÑĢÐ¾Ð¼Ðµ
ĠÐºÐ¾Ð½ÑĤÑĢ Ð¾Ð»ÑĮ
Ð»ÐµÑĤ Ð¸
997 2
ĠÑĥ ÑģÐ¸Ð»Ð¸
ĠÐ» Ð¾Ð³Ð¸
ÑīÐ° ÑİÑĤ
34 3
nÐŃ Ðº
Ñģ Ð»ÐµÐ´
ĠÐ± Ð°ÑĢ
Ð¾ÑĤÐ¾ÑĢ ÑĭÐµ
ĠÑģÑĥ Ð´Ð°
05 7
nÐ¡ ÑĤÑĢÐ°
ÐºÐ¾Ð½ Ð¾Ð¼
ĠÐ¸ÑģÑĤÐ¾ÑĢÐ¸ Ñı
ÑīÐ¸Ñħ ÑģÑı
ĠÐ·Ð° ÐºÐ°
ĠÑĥ Ð²ÐµÐ´Ð¾Ð¼
ĠÐ»ÑİÐ±Ð¸ Ð¼
13 2
ĠÑĤÐ¾ ÑĩÐºÐ¸
ÐŁ Ð¾Ð´
Ġ 02
ĠÐ½Ð° Ð»Ð¾Ð³
Ð»Ðµ ÑĦÐ¾Ð½
ÑĢÐ° ÑĪÐ¸
' ,
Ð¼Ðµ Ð»ÑĮ
ĠÐºÐ¾Ð½ÑĤÑĢ Ð¾Ð»Ñı
nÐĳ Ñĭ
Ð»Ð° Ð¼Ð°
ĠÐ¿ Ð»Ñİ
ÑĪÐµ Ð²
ĠÑģ Ð½Ñı
ÐµÑģÐ¿ Ð»Ð°ÑĤ
ĠÑĢÐµÐ³Ð¸ Ð¾Ð½Ð°Ð»ÑĮ
ĠÐļÐ° Ð·Ð°Ñħ
ĠÐ¸ÑģÐ¿Ð¾Ð»ÑĮÐ·Ñĥ ÑİÑĤÑģÑı
Ð² Ð¾Ð¸
76 4
ĠÑĢÐ°ÑģÑģ Ð¼Ð°ÑĤÑĢÐ¸
ĠÐŁ ÑĢÐ¾Ð´
ie w
ÑĢÑı Ð½
ĠÐ½Ð°ÑĩÐ° Ð»Ðµ
ÑĢÑĥ ÑĢ
* \
Ð»ÑĮ ÑĤ
ĠÐ¼ÐµÑĢÐ¾Ð¿ÑĢÐ¸Ñı ÑĤÐ¸Ñı
94 1
ÑĢ Ð¾Ð´Ðµ
ĠÐ²Ð¾Ðº ÑĢÑĥÐ³
ĠÐ¿ÑĢÐ¾Ð´Ð° Ð¶Ð¸
ĠÐ¼Ð¸Ðº ÑĢÐ¾
ĠÐ²Ð· Ñı
Ð²Ð° Ð½Ð¸Ñİ
Ðº ÑĤÐ¾ÑĢÐ°
ĠÐ´ÑĢÑĥÐ³Ð¸ Ð¼
Ðµ Ñħ
37 3
Ðļ Ð¡
Ð¶Ð° Ð½Ð¸Ðµ
ĠÐ¾Ð´ Ð½Ð¾Ð²
ĠÐ´Ð²Ð¸Ð³Ð° ÑĤÐµÐ»Ñı
ĠÑģÑĤÐ° ÑĤÑĥ
ÑĢÐ° Ð»
ÑİÑīÐ¸Ðµ ÑģÑı
Ð¾Ð¼ ÐµÑĢ
ĠÑĥÐ²Ðµ Ð»Ð¸
= \"
Ðķ Ð¡
ĠÐ·Ð°ÑıÐ²Ð¸ Ð»
ar e
ĠÑģÐ¸ Ð»Ñĭ
ĠÐ¿ÑĢÐµ ÑģÑĤÑĥÐ¿
Ð»Ñı Ð±Ð¸Ð½
ĠÐķ ÑģÑĤÑĮ
ĠÐ´ÑĢÐ¾Ð±Ð¸ Ð»ÐºÐ¸
Ð»Ðµ Ð±
ĠÐ³Ð¸ Ð¿ÐµÑĢ
ÑģÐ»Ñĥ Ð³Ð¸
35 8
ÑĢÐ¾Ð²Ð° Ð»Ð¸
ĠÐ¼Ð°ÐºÑģÐ¸Ð¼Ð° Ð»ÑĮÐ½Ð¾
ĠÐ¶Ð¸Ð²Ð¾ÑĤ Ð½ÑĭÑħ
Ðº Ð»
ĠÑĢÐµ Ð¹ÑĤÐ¸
il l
ÑģÐ° Ð´
93 0
ĠÐ¾Ñģ Ð½Ð°
Ġ1 50
Ð½Ð¸ Ð½Ð°
ĠÐŀ Ð¿
ĠÐ¤ Ð¸
ĠÑį ÐºÑĢÐ°
ÐĿÐĺ Ð¯
Ð¾Ðº Ð
ĠÐ² ÑħÐ¾Ð´
Ð¾ÐºÐ ¾
Ð²Ð° Ð½Ð¸ÐµÐ¼
v i
Ð¡ Ð°
ĠÑĢÐµÐ°Ð»Ð¸ Ð·Ð°ÑĨÐ¸Ð¸
ĠÐ± Ð¾Ð»
ĠÑĢÐ°Ð·Ð´Ðµ Ð»Ðµ
nÐĽ Ñİ
D M
Ð¾Ðµ Ð´Ð¸
ĠÐ²Ñĭ Ð²Ð¾Ð´
ĠÐ¼Ð°ÑĪÐ¸ Ð½
E L
Ð¾Ð»Ð¸ÑĩÐµ ÑģÑĤÐ²Ð¾
ĠÐ½ÐµÐ´Ðµ Ð»Ñİ
ĠÐ³Ð¾Ð² Ð¾ÑĢ
Ð³ ÐµÑĢ
ĠÐ§ ÐµÐ¼
20 38
ĠÐ¿ Ð¾Ð³Ð¸
ĠÑĤÐ° Ð¹
Ġe mail
Ð½ Ð¾Ð³Ð¸Ðµ
ÑģÐº ÑĥÑĢ
A M
? ?
Ð²Ð¸ Ð»Ð¸
ĠÐ² Ð¾Ð´Ñĥ
ĠÐºÑĢÐµÐ´Ð¸ ÑĤ
Ð¿ ÑĢÐ¾
nÐĺ ÑģÐ¿
D BE
ĠÐ¿Ð¾Ð²Ñĭ ÑĪÐµÐ½
ĠÐ¼Ðµ Ñĩ
Ð²ÑĢÐ¾Ð¿ ÐµÐ¹
Ġ x
ĠÐ¾ÑĤ ÑĩÐµÑĤ
ĠÐ¶ÐµÐ½ÑīÐ¸ Ð½Ñĭ
ĠÑĤÐµ ÐºÑĥ
56 3
ÐµÐ² Ð½Ð°
Ġ= >
ĠÐ»Ð° Ð¼
ĠÐ°Ð± ÑģÐ¾Ð»ÑİÑĤ
ÑĪÐµ Ð´
Ð½ ÐµÐ½Ð¸Ð¹
nÐŀÑĤ Ð·ÑĭÐ²Ñĭ
Ð»Ð¾ Ð½Ð°
ĠÐĽ ÑĥÑĩ
ĠÑįÐ»ÐµÐºÑĤ ÑĢÐ¾
A DE
ĠÑģÐ²Ñı Ð·ÑĮ
ÑĢÐ° Ð·Ð¾Ð²Ð°
ÑĩÐ° ÑİÑĤ
ĠÑĢÐµ Ð»Ð¸
ÑģÑĤÐµÐ¼ Ð°
ĠÐ¿Ð¾Ð½ ÑĢÐ°Ð²Ð¸
Ð»Ð° Ñħ
ĠÑĤÐµ Ð±Ðµ
h o
ÑĪÐ¸ Ð²
ĠÑĩÐµÑĤ Ð²ÐµÑĢ
9 10
ĠÑĢÐµÐ¶Ð¸ Ð¼
ĠÐ²ÑĭÑģÐ¾Ðº Ð¾Ð¹
ĠÐ²Ðµ ÑĩÐµÑĢ
04 3
ĠÑģ Ð´Ðµ
ÑĤÐ¸ ÑĤ
Ð¾ÑģÐº Ð²Ð°
ĠÑģÑĩÐ¸ÑĤÐ° ÐµÑĤÑģÑı
ĠÐ¿Ð¾Ð¿ ÑĢÐ¾Ð±
Ð¿Ð¸ ÑģÑĮ
28 3
Ð¾Ð²Ð° ÑĤÑĮÑģÑı
Ð¼Ð¸ ÑĢ
Ð¼Ñĭ Ð¼
ĠÐ± Ð°Ðº
ÑĩÐ¸ Ð»
8 95
ĠÐĹÐ° Ð¿
ĠÐ¶Ð¸ Ð»Ð¸
ĠÐ·Ð° Ð¹
ĠÑģÐ¾ÑģÑĤÐ¾Ð¸ ÑĤ
ÑĢÑĥÐ³Ð¸ Ðµ
ĠÐŀ Ð¿ÐµÑĢÐ°
ÐµÑĢÐ° Ð¼Ð¸
Ð»Ð¸ Ð¼
Ð¿ Ð°Ð½
Ñĥ ÐºÐ°
ĠÐ·Ð°Ð¿Ð¸ ÑģÑĮ
ĠÐºÐ¸ ÑĢÐ¿Ð¸
ĠÐ¿ÐµÑĢÐµ Ð²Ð¾Ð´
ĠÑģ Ñİ
ĠÐ³ÑĢÑĥÐ¿ Ð¿
99 997
Ñģ Ð¾Ð½
ĠÐ²Ð¾Ð¿ÑĢÐ¾Ñģ Ð°Ð¼
Ñĳ ÑĤÑģÑı
ÑĢ Ð½ÑĭÐ¹
Ð³Ð° ÑĤÑĮ
ĠÐ¿Ð¾Ð´ ÑħÐ¾Ð´Ñı
46 5
ĠÐ·Ð½Ð°ÑĩÐ¸ ÑĤÐµÐ»ÑĮÐ½Ð¾
Ð½Ðµ Ð¼Ñĥ
ÑĩÐ¸ ÑĤ
ĠÑĢÐµ Ð°
ĠÐ¿Ð¾Ð» Ð¾ÑĤ
ÐŁ ÐŁ
ĠÐ· ÑĢÐµÐ½Ð¸Ñı
ĠÑĪ ÑĤÑĥ
ĠÐ´Ð¾Ð» Ð³Ð¾
Ðĵ Ðĺ
75 5
ĠÐ¼ÑĥÐ·Ñĭ ÐºÐ°
ĠÑĢÐµÐ·ÑĥÐ»ÑĮÑĤÐ° ÑĤ
ĠÐ¿ÑĢÐ¸ Ð³Ð»Ð°
k e
ĠÐ¿ÑĢÐµÐºÑĢÐ° Ñģ
ĠÑģÐµÑĢ ÑĤÐ¸ÑĦÐ¸ÐºÐ°
ĠÑĨÐµÐ½ÑĤ ÑĢÐ°
c ri
ĠÐ·Ð° ÑĤÑĢÐ°
ĠÑĥ Ð½Ð¸ÑĩÑĤ
99 13
Ġ com
ÑĢÑĥ ÑģÐ°
ÐµÐ½ Ð½Ð¾Ðµ
Ð¸ÑĤÐ° Ð¹ÑĤÐµ
ĠÑĨÐµÐ½ÑĤ ÑĢÐµ
ĠÐ¿ÑĢÐ¾Ð´Ñĥ ÐºÑĤÐ°
ĠÐ¦ Ð²ÐµÑĤ
0 87
ĠÐ´ Ð½Ð¸
ĠÐĿ ÐµÑĤ
ĠÐ±Ð°Ð½ Ðº
ĠÑĨÐµ Ð»Ð¾Ð¼
b y
Ð¶Ð´ ÑĭÐ¹
ĠÐ½Ð°Ð± Ð»ÑİÐ´Ð°
Ñĩ Ð½Ð¾Ð¼
ÑĤÐµ ÑĢÑĭ
m at
ĠÐ¾Ð±ÑĢÐ°Ð·Ð¾Ð²Ð° Ð½Ð¸Ðµ
ĠÑĥÐºÑĢÐ° Ð¸Ð½
Ġ 65
ĠÐ´Ð¾Ð¼Ð°ÑĪ Ð½Ð¸Ñħ
ĠÐ¼ ÐµÑĢÐµ
ÑīÐ¸ ÐºÐ¾Ð²
ĠÑģÑģÑĭ Ð»ÐºÐ¸
Ġ Ð»Ð¾
Ð½Ð¸ ÑĤÐ°ÑĢ
ĠÐ² Ð¾Ð´Ð°
ĠÐł Ð°Ñģ
ĠÐ¿Ðµ ÑĩÐ°
ÐºÐ¾ ÑĢÐµÐµ
z a
Ð¾Ð½Ðµ ÑĩÐ½Ð¾
45 7
ĠÑĥ Ð²
ĠÐļ Ð¾Ð¼Ð¸
A S
ÑĥÐ» ÐºÐ°Ð½
ĠÐ¸Ð³ ÑĢ
ĠÐ½ÐµÐ´Ð²Ð¸Ð¶Ð¸ Ð¼Ð¾ÑģÑĤÐ¸
i ty
Ð²Ð¸ ÑĤ
ĠÐ¿ÐµÑĢÐµ Ð²Ð¾Ð·
ĠÑĥÑĩÐ°ÑģÑĤ Ð½Ð¸ÐºÐ¾Ð²
O M
ÑģÑĤ ÑĢÐ¾Ð²
ĠÐ¿ÑĢÐµ Ð²ÑĢÐ°
8 06
ĠÐ· Ð´ÑĢÐ°Ð²
55 5
Ð¾Ñģ Ð¾Ð±Ñĭ
ÑĦ ÐµÐ¹
ĠÐ¿ Ð»ÐµÐ½
ĠÐ¿ÑĢÐ¸ Ð·
â Ķ
07 6
ur e
in fo
ĠÑĢÑĭÐ½ ÐºÐ°
8 36
ĠÑģ Ð¾ÑģÑĤÐ°Ð²Ð¸
ĠÑĦ ÑĥÑĤÐ±
ĠÑĢÑĥ Ðº
ĠÐ¾ÑĢÐ³Ð°Ð½Ð¸ Ð·Ð¼Ð°
ĠÐĳÐµÐ»Ð° ÑĢÑĥ
ĠÐ³Ð¾ÑģÑĥÐ´Ð°ÑĢ ÑģÑĤÐ²Ð°
Ñħ Ð¾Ð¼
Ð½Ð¸ ÑĤÐµÐ»ÑĮÐ½Ð¾
Ñħ Ð¾Ð¶Ð´ÐµÐ½Ð¸Ñı
in d
R U
Ðł Ðµ
ÐĽ Ð¯
I P
44 7
ĠÐļÑĢÐ°Ñģ Ð½Ð¾
ĠÐ¿Ð¾Ð» Ñı
ĠÐŀÑģ Ð¾Ð±
Ðµ ÑħÐ°
Ð¾Ð¸Ð· Ð²Ð¾Ð´
ĠÑĦ Ð°ÑĢ
8 26
ÑģÑĤÐ²Ð¸ ÐµÐ¼
ĠÐºÐ° Ð½Ð°
8 96
ĠW indows
ÑĪÐ° ÑİÑĤ
ĠÐ¼Ð°ÑĢ ÑĪÑĢÑĥ
ÑĮ Ð¼Ð¸
ĠÐļ Ð¸ÑĤÐ°
ĠÐ· Ð²ÐµÐ·
ĠÐ²Ñĭ ÑģÑĤÑĥÐ¿Ð°
ĠÑģÐ² ÐµÐ´ÐµÐ½Ð¸Ñı
Ð¾ÑĤ Ð²ÑĢÐ°
ĠÑĪÐºÐ¾Ð» Ñĭ
ĠÐºÑĥÑĢ Ñģ
ĠÐ· Ð¾Ð»
% ,
ĠÐ²Ð¸ ÑĤÐ°Ð¼Ð¸
ĠÐŁ Ð¾Ð»Ñĥ
ĠÑĥ Ð²Ð°
ĠÐľ ÐµÑĤ
Ð±ÑĥÑĢ Ð³Ðµ
ĠÐ²Ð¾Ñģ Ð¿Ð¸ÑĤÐ°
ĠÐ½Ð°Ð¿ÑĢÐ°Ð² Ð»ÐµÐ½Ð¸Ñı
ĠÐ»Ð¸ Ð½Ð¸Ð¸
ĠÐ¿Ð¾Ð»Ð¾Ð¶ ÐµÐ½Ð¸Ñı
ĠÐľÐ¸ ÑħÐ°
Ð¾Ð½ Ð½ÑĭÐµ
ĠÐľ Ð¾ÑĢ
ÑĤ Ð½Ð°Ñı
ĠÑĤ Ð¾Ð¹
ÑĢÐ¾Ð²Ð° Ð½Ð¾
Ð¾Ð¸Ð·Ð²Ð¾Ð´Ð¸ ÑĤÐµÐ»ÑĮ
Ð¿ÐµÑĢ Ð²ÑĭÐµ
ĠÐŁ Ð¾Ð¼
23 3
Ð¾Ð¶ Ð°Ð»
ÑĮ ÐµÑĢÐ°
ÐĿ Ð¸
Ð»ÐµÐ½ Ð½Ð°Ñı
Ġ Ð¶Ð°
ĠÐ¿Ð¾Ð» Ðµ
ĠÐ² ÐµÐ½ÑĤÐ¸Ð»Ñı
Ð½Ð¾Ð² ÐµÐ½Ð¸Ñı
20 11
ĠÑģ Ð½Ð¸Ð¼Ð°
Ð½Ð¸ Ð±ÑĥÐ´ÑĮ
ar y
ÐºÐ»Ð°Ð´ ÐºÐ¸
Ð¸ ÑĤÐµ
ĠÐ°Ð²ÑĤÐ¾Ð¼Ð¾Ð±Ð¸ Ð»ÐµÐ¹
ĠÐ¿Ð¾Ð»ÑĥÑĩÐ¸ Ð»
Ġ de
Ð¶ ÐµÐ½Ð¸ÐµÐ¼
ĠÑģÑĤÐµÐ¿ ÐµÐ½Ð¸
ĠÂ ·
ÑĢÐ¾Ð¼ Ð°
ÐĲ Ð¡
Ð¾Ð¿ Ð¾Ð»ÑĮ
Ð¶ ÑĥÑĤ
Ġph p
ĠÐ°Ðº ÑĨÐ¸Ð¸
n Ð³
ĠÑģ Ð»Ð¾
ĠÐ¼ Ð°Ð½
nÐĽ Ðµ
ĠÐ³ Ñĥ
ĠÑĢÐµ Ð°Ð»ÑĮ
ĠÐ´Ð¾Ð»Ð»Ð° ÑĢÐ¾Ð²
ĠÐ½ Ð¾Ð¶
ÑīÐ¸ ÐºÐ°
ĠÐĺ Ð¼ÐµÐ½Ð½Ð¾
ÑĢÐ¾Ð²Ð° Ð½Ð¸Ð¸
ĠÐ´Ð¸ ÑģÐº
ĠÐ²Ðµ ÑīÐµÑģÑĤÐ²
35 3
t a
ĠÐ¿Ð¾Ðº Ð¾Ð»
ĠÐ¡ ÐµÐ¼
ĠÑģÑĤÐ° ÑĤÐ¸
ĠÐ·Ð° ÐºÐ¾Ð½Ð°
ÐĿ Ðµ
Ð¿ ÐµÑĢÐµ
ĠÑģÑĤÐ¾ÑĢÐ¾Ð½ Ñĥ
ĠÑģÐ¾Ð³Ð»Ð° Ñģ
Ð³ Ð¾Ð¼
ÑĢÐºÑĥ ÑĤ
45 4
ÑĢ Ð½ÑĭÐµ
Ñĩ ÑĤÐ¾
Ð»Ðµ ÑĨ
ĠÐ¼ Ð¾Ð´Ñĥ
2 17
Ð¾Ñĩ ÐºÑĥ
ĠÐ¿Ð¾Ð´ ÑħÐ¾Ð´
o y
ĠÑĥÑģÑĤÑĢÐ¾Ð¹ ÑģÑĤÐ²Ð¾
nÐĺÐ½ ÑĦÐ¾ÑĢÐ¼Ð°ÑĨÐ¸Ñı
v a
Ð»Ð° Ð¶
Ð»ÐµÐºÑģ ÐµÐ¹
' ).
ÑģÑĤ ÐµÐ¹
ĠÑĤÐºÐ° Ð½Ð¸
nÐĺ Ð¼Ñı
ĠA l
nÐŀ Ð¿Ð¸ÑģÐ°Ð½Ð¸Ðµ
ĠÑģÐ¾Ð¾Ð± ÑīÐ°ÐµÑĤ
ÑģÑĤÐ²Ñĥ Ð¹ÑĤÐµ
ĠÑģÐµ ÑĢÐ¸
ĠÑĤÐµ Ð¼Ðµ
ĠÐ¿Ð¾ÐºÑĥÐ¿ ÐºÐ¸
66 3
to p
55 7
Ð»Ðµ ÐºÐ¾
Â» :
ĠÐ¿ÑĥÐ±Ð»Ð¸ÐºÐ° ÑĨÐ¸Ð¸
ro s
ĠÑĦ ÑĢÐ°Ð½
15 2
ĠÐ¿ ÑĤÐ¸
nÐŀÑĤ Ð¿ÑĢÐ°Ð²Ð¸ÑĤÑĮ
ĠÑģÐ¾Ð³Ð»Ð° ÑģÐ½Ð¾
Ġ 04
Ð² Ð¾ÑģÑĤ
ÑģÐ¸ Ð¹
ĠÐ²Ð¾ÑģÐ¿ Ð¾Ð»ÑĮÐ·Ð¾Ð²Ð°
65 6
Ñģ Ð»Ð°Ð²
â Ĩ
ĠÐ¿Ð¾Ð½ ÑıÑĤÑĮ
ÐµÑĢ Ñĥ
ĠÑĢÐ°Ð·Ð´Ðµ Ð»
Ð»Ñı ÑĨÐ¸Ð¸
Ð¾Ð±ÑĢÐ° Ð·Ð¾Ð²Ð°
in a
ĠÐĶ Ð
ĠÑĤÐ° Ð±
ĠÐ½Ð°Ð· Ð²Ð°Ð½Ð¸Ðµ
ĠÑĨÐµÐ½ Ñĥ
ĠÐ½Ð° Ñĩ
ĠÑģ Ð¾Ð¼
Ð¸Ð· Ð½ÐµÑģ
ĠÐ¾Ð±ÐµÑģÐ¿ÐµÑĩÐ¸ Ð²Ð°ÐµÑĤ
Ð° Ð¿
ĠÐ¸ Ð¼Ð¸
ĠÑį Ð¿Ð¸
â Ħĸ
ĠÐ¾ÑģÐ½Ð¾Ð² Ð½ÑĭÑħ
ĠÐ½ÐµÐ²Ð¾Ð· Ð¼Ð¾Ð¶Ð½Ð¾
1 22
ĠÐ¢ Ð¸
ÑģÑģÐ¸ Ñı
s r
ÑĨÐ¸Ð¾Ð½ Ð½Ð¾
ĠÐ·Ð´Ð¾ÑĢÐ¾Ð² ÑĮÐµ
Ġ20 08
ĠÐĶÐ ¾
ÐĶ Ðĺ
ĠÐ¼Ð°Ð³Ð°Ð·Ð¸ Ð½
ĠÑĥ ÑĤÑĢÐ°
ÑĨÑĥ Ð·
ĠÐĴÐ° ÑĪ
ĠÑĢÐ° ÑģÑĤÐ¸
ĠÐ¿Ð¾Ð» Ð½Ð¾Ð¼
ÑģÑĤ ÑĢÑĭÐ¹
Ðŀ ÐŁ
ÑĢÑĥ ÑİÑĤÑģÑı
ĠÑĤÐ°Ðº Ð¾Ð¼
ĠÐ¸Ð½ ÑģÑĤÐ¸ÑĤÑĥ
ĠÐ´ Ñĭ
Ð¾ÑĢ ÑĥÑģ
Ġi P
ĠÐ¿Ð¾Ð²ÐµÑĢÑħ Ð½Ð¾ÑģÑĤÑĮ
O T
Ð½Ñı ÑİÑĤ
ĠÐ¿Ð¾ÑĢ ÑĤ
ĠÐ»ÑİÐ± Ð¾Ðµ
45 3
ĠÑĢÐ° Ð½ÑĮ
nRep ly
ĠÐ¿Ð¾Ð» Ð°
ĠÑįÐ»Ðµ Ð¼ÐµÐ½ÑĤÑĭ
11 1
ĠÐł ÐµÐº
E T
8 34
ĠÑģÐ¾ÑģÑĤÐ¾Ñı Ð½Ð¸Ñı
Ñİ Ð¼Ðµ
ÑĩÐµ Ðµ
2 16
Ñı Ð·
I L
8 93
ĠÑĢÐ°Ð½ÑĮ ÑĪÐµ
ĠÐ¿Ð°Ð¼ ÑıÑĤÐ¸
ÑĢ Ð¾Ð¶
ÑĤÐ¸Ð² Ñĭ
ĠÑģÐ¾Ð± Ð°
ĠÐ¿Ð¾Ð· Ð½Ð°
ĠÐĹ Ð½Ð°
ĠÐ¿Ð¾Ð·Ð² Ð¾Ð»Ð¸ÑĤ
ĠÑģÑħ ÐµÐ¼
Ðļ Ð¢
ĠÐ± Ð¾Ðµ
ĠÑĢÐ°Ð² Ð½Ð¾
Ð·Ð¸Ð´ÐµÐ½ ÑĤÐ°
ĠÐ»Ðµ Ñģ
Ð³ ÐµÐ»ÑĮ
Ñĩ ÑĳÑĤ
Ð½Ð° Ð±
85 0
ol d
ÑĨ Ð°Ð¼
un d
C S
Ðļ Ð¾Ð¼
ĠÑĪ Ð°ÑĢ
u st
ĠÐ¾Ð±Ð½Ð° ÑĢÑĥÐ¶Ð¸
ĠÑĤÐµÐ»ÐµÑĦÐ¾Ð½ Ñĥ
ĠÐ²Ðµ ÑīÐµÑģÑĤÐ²Ð°
r ad
ĠÑģÑĢÐ¾Ðº Ð¸
nÐ¡ Ð¸
ÑīÐ¸ ÐºÐ¸
ĠÑĢÐµÐ·ÑĥÐ»ÑĮÑĤÐ° ÑĤÑĭ
Ð¼Ð¸ Ñı
P S
ÑıÑĤ Ð½Ð¾
ÐµÐ½ Ð¾Ñģ
ĠÐĳ Ð°Ð½
ĠÐ½Ð°ÑģÑĤÐ¾Ñı ÑīÐµÐµ
Ð°Ð¹ ÑĤ
Ð´Ñĥ Ð¼Ð°
ĠÑĢÐ¸ ÑģÐº
ĠÐĶ ÐµÐ½ÑĮ
ĠÐĿ ÐµÐº
ÑĢ ÐµÐ½Ð¸Ðµ
ĠÐ¾Ð±ÑĢÐ°ÑĤÐ¸ ÑĤÑĮÑģÑı
Ð¿ ÑĤ
ĠÐºÐ¸ Ð½Ð¾
Ð·Ð° Ð½
Ð¶Ð¸ Ð³Ð°
ÐĲ Ð²
ĠÐ±Ð¾Ð»ÐµÐ· Ð½Ð¸
07 7
ĠÑĢÐ°Ñģ ÑģÑĤÐ¾Ñı
75 4
ĠÑĤÐµÐº ÑģÑĤ
ÑĤÐ¸ ÐµÐ¼
ĠÑģÑĥÐ¼ Ð¼Ñĥ
8 03
ĠÑĥ Ð¼ÐµÑĢ
ĠÐļ Ð°Ð¼
ĠÐ¿ÑĢÐµ Ð´ÐµÐ»Ð°
ĠÐ¢ Ð¾Ð¼
nÐĵ Ð°
ĠÐºÐ¾Ð½ ÑĤ
ĠÐ´Ð¾ÑģÑĤÐ°Ð² ÐºÐ°
ĠÑĥÐ¿ÑĢÐ°Ð² Ð»ÐµÐ½Ð¸Ðµ
ĠÑĢÐ°Ð±Ð¾ÑĤÐ° ÑİÑĤ
Ð¡ Ð¸
ÑĢÐ¾Ñģ Ð»Ð°Ð²
Ġ j
ÑĥÑĤ Ð±Ñĥ
Ð°Ð¹ ÑĤÐµ
46 6
ĠÐ² Ð¿ÐµÑĩÐ°ÑĤ
nÐŁ ÑĢÐ°Ð²Ð¸
ĠÐ¿Ð¾Ð¶ Ð°ÑĢ
ĠÐ´ÐµÑĤÐ° Ð»Ð¸
ĠÐ¿ÑĢÐ¸ ÑĪ
ĠÑĤÐµÐ¼Ð¿ÐµÑĢÐ°ÑĤÑĥ ÑĢÑĭ
ĠÑĥÐ´Ð¾Ð² Ð¾Ð»ÑĮ
p ort
ĠÐ´Ð¸ Ð°Ð¼ÐµÑĤ
ĠÐ°Ð´Ð¼Ð¸Ð½Ð¸ÑģÑĤÑĢÐ° ÑĤÐ¾ÑĢÐ¾Ð¼
ĠÐ´Ð¾Ð¼ Ð¾Ð²
ĠÐ°Ð´ÑĢÐµÑģ Ñĥ
ĠÐ¼Ð°ÑĢ ÐºÐ¸
/ \
pro duct
ĠÐ¾ÑĤÐ²ÐµÑĢ ÑģÑĤÐ¸
ÑĢÐ¸ Ñģ
ĠÐ·Ð° Ð¼ÐµÑĩÐ°
ĠÐ·Ð°ÑıÐ² ÐºÑĥ
ĠÐ½Ð° Ð±Ð¾ÑĢ
ï¿½ï¿½ï¿½ï¿½ï¿½ï¿½ï¿½ï¿½ ï¿½ï¿½ï¿½ï¿½ï¿½ï¿½ï¿½ï¿½
nÐĴÐ° ÑĪ
ĠÐ¿Ð¾Ñģ Ð°Ð´
ĠÐ²Ð° ÑĪÐµÐ¼
ĠÐ¸Ð· Ð¼ÐµÐ½Ð¸
ĠÐ¿Ð¾ ÑıÑģ
ĠÐ°Ð´Ð¼Ð¸Ð½Ð¸ÑģÑĤÑĢÐ° ÑĨÐ¸Ð¸
ÐµÐ¼ Ð¾Ð³Ð¾
25 0
ĠÐł Ð¸
ĠÐ·Ð° ÑĢÐ°
ĠÐŀ Ðĳ
Ð½Ð° ÑĩÐµ
ĠÐ±ÑĥÐ´ ÐµÑĤÐµ
ĠÐľ Ðŀ
ĠÐ¾Ð´ Ð½
ĠÐ¾ÑĤÐ»Ð¸ÑĩÐ° ÐµÑĤÑģÑı
ĠÐ·Ð°ÑīÐ¸ ÑīÐµÐ½Ñĭ
Ð» Ð¾Ðµ
Ðł Ð°
nÐĴ Ð
ĠÑĤ ÑīÐ°
Ġi f
ÐµÐ² Ð
1 93
ÑģÑĤ Ð°Ð»
ÐµÐ²Ð ¾
nÐĴÐ ¾
Ð²Ð¸ Ð»
ĠÐ¼Ð¾Ð³ Ð»Ð¸
99 00
M W
n O
ĠÑģÐ¿Ðµ ÑĨ
ĠÐ¿Ð¾Ð¼Ðµ ÑīÐµÐ½Ð¸Ð¹
44 4
ĠÑħ Ð¾Ð´Ðµ
ĠÑĢÐ°ÑģÐ¿ ÑĢÐµÐ´Ðµ
ĠÐ¿ÑĢÐµ ÑģÑģ
Ð²Ð° Ð¹
ÐĿÐ« Ðķ
ĠÐ¿Ð¾Ð± ÐµÐ´Ð¸
Ð¼Ð¸ ÑĤÑĮ
ĠÑĢÐµÐºÐ»Ð° Ð¼
Ð¼Ð° Ñħ
ĠÑģ Ð¾ÑĢ
0 12
ĠÐ¸ Ð´
ĠÐ¼Ð¸ ÑĢÐ¾Ð²
ĠÑģÑĢÐµÐ´ ÑģÑĤÐ²Ð¾
Ġ 34
ĠÐ¿ÑĢ Ð¾Ð¿Ñĥ
Ð²Ð° Ð½Ð¸Ð¸
nÐŁ Ð¾Ð´ÐµÐ»Ð¸ÑĤÑĮÑģÑı
ĠÐ¾Ð± Ð¼ÐµÐ½
ĠÐ¾ÑĦÐ¾ÑĢÐ¼ Ð»ÐµÐ½Ð¸Ñı
Ð² Ð¾Ð¼
0 94
ÑĤÐµÐ»ÑĮ Ð½ÑĥÑİ
ĠÐĴ Ñģ
ĠÐ³ ÑĢÑĥÐ´
Ð¶Ð° ÑİÑĤ
ĠÐ°Ð²ÑĤÐ¾Ð¼Ð¾Ð±Ð¸ Ð»ÑĮ
ĠÐĺ Ñħ
ĠÐ¿Ð¾Ñģ Ð¼Ð¾ÑĤÑĢÐµÑĤÑĮ
ĠÑĢÐ°Ð· ÑĢÑĥ
ĠÐ¼ Ð°Ð¼
ĠÐºÐ¾Ð¼ Ð¼ÐµÑĢ
ÑĢ Ð½ÑĭÑħ
ĠÑģÑĤÑĢÐ° Ñħ
Ñį Ð½ÐµÑĢ
ĠÐ²ÐµÑĢ ÑģÐ¸Ð¸
Ð»Ð¾Ð² Ð¾Ð¹
âĶ Ģ
ĠÐ²Ð·Ð°Ð¸Ð¼ Ð¾Ð´ÐµÐ¹
ĠÐ¢ Ð¾Ð»ÑĮÐºÐ¾
ĠÐµÐ¶Ðµ Ð´Ð½ÐµÐ²
ĠÐ½Ðµ Ð¾Ð±Ñĭ
Ð± ÑĢÐ°ÑĤÑĮ
ĠÑĤÑĢÑĥ Ð´Ð¾Ð²
ĠÐ¾Ð¿ÑĢÐµÐ´Ðµ Ð»Ð¸ÑĤÑĮ
ĠÑĩÐ¸Ñģ Ð»Ð¾
ĠÐ½Ð°ÑĩÐ° ÑĤÑĮ
i an
ÑĢÐ¸ ÑĨÐ°
of t
ĠÐ¢ Ð
ĠÐ³Ð»Ð°Ð² Ð½Ð¾Ðµ
Ð¾Ð² Ð
ĠÐ¼Ðµ Ð±ÐµÐ»ÑĮ
ÐµÑĢÐµ Ð¹
ĠÐ´ÐµÐ»Ð° ÑİÑĤ
Ð¾Ð²Ð ¾
ĠÐ¿ÑĢÐµÐ´ Ð¾ÑĤÐ²ÑĢÐ°
Ð¾Ð»ÑĮ ÑĪÐµ
ĠÐ¼Ð¾Ð´ ÐµÑĢÐ°
Ð»ÐµÐ½ Ð½ÑĭÐ¼
ĠÐ¾ÑĢÐ³Ð°Ð½Ð¸ Ð·Ð¾Ð²Ð°
75 6
99 20
ĠÐ´ÑĢÑĥ Ð³Ð¾Ðµ
ĠÐ¿ÑĢÐ¾Ð² ÐµÑģÑĤÐ¸
ĠÐ¿Ð¾Ð»Ñĥ ÑĩÐ°ÑĤÑĮ
Ñİ Ðº
ĠÑĤÐµÑĢÐ° Ð¿Ð¸
ĠÑģÐ¿ Ð¾ÐºÐ¾Ð¹
Ð²Ñĭ Ð¼Ð¸
ĠÐĲ Ð»ÐµÐº
ĠÐ²ÑĭÐ± Ð¾ÑĢÐ°
Ġ- ---
nÐ§ Ð°
ÑĢ Ð¾Ð´Ð°
s o
ÑīÐµÐ½ Ð
ÑīÐµÐ½Ð ¾
ĠÐļ Ð»Ð¸
Ð¾ÐºÐ° Ñı
ĠÐ¢Ð ¾
ĠÐ±ÐµÑĢÐµÐ¼ÐµÐ½ Ð½Ð¾ÑģÑĤÐ¸
ĠÐ¾ÑĤ Ð¿ÑĢÐ°Ð²Ð¸
ĠÐ¼Ð° Ð»ÑĮ
Ġphp BB
ĠÐ·Ð° Ð¼ÐµÑĤ
Ð¾Ð½Ð¸ ÑĤÐ¾ÑĢ
e k
i f
ĠÐ¸Ð·Ð¾Ð±ÑĢÐ°Ð¶ ÐµÐ½Ð¸Ñı
Ð±Ð¸ ÑĢÐ°ÑĤÑĮ
ĠÐŃ ÑĤÐ°
ÐºÑĥ Ð´Ð°
ĠÑįÐ»Ðµ Ð¼ÐµÐ½ÑĤÐ¾Ð²
ĠÐĳ Ð¾Ð³
nÐ¢Ð°Ðº Ð¶Ðµ
ĠÑģÐ¿Ð¾ÑģÐ¾Ð± Ð¾Ð¼
ĠÑħÐ¾ÑĤ ÐµÐ»
ĠÐ¿ÑĢÐµÐ´Ð¿Ð¾Ð» Ð°Ð³Ð°
76 3
ĠÐº Ð²
ĠÐ½Ð°ÑħÐ¾Ð´Ñı ÑĤÑģÑı
ĠÑĢÐ°ÑģÐº ÑĢÑĭ
Ð¾Ð¶Ð¸ Ðµ
i ch
ĠÐ¿ÑĥÐ½ ÐºÑĤ
ĠÑĥÐ½Ð¸Ð²ÐµÑĢ ÑģÐ°
ĠÐ°Ð½Ð°Ð» Ð¾Ð³Ð¸
ĠÑĥÐ²Ð¸ Ð´ÐµÑĤÑĮ
ĠÐ²ÑĭÐ¿Ð¾Ð» Ð½ÐµÐ½Ð¸Ñı
DE B
p l
ĠÐ²Ð¾Ñģ Ð¿Ð°
ÑīÐ¸ Ð½Ð°
ĠÐ¡ Ð¾Ð»
ĠÐ´ÐµÐ¹ ÑģÑĤÐ²Ð¸Ðµ
ĠÐ¢Ðµ Ð¿ÐµÑĢÑĮ
Ð³ Ð°ÑĢ
Ð± ÑĢÐ¸
ÑĢÐµ Ð»
ĠÐ¿ Ð»Ð¸ÑĤ
ĠÐł Ñĭ
ĠÐ¾ÑģÐ½Ð¾Ð² Ð½Ð¾Ð¼
ÑģÑĤÐ² Ð¾Ð²Ð°
Â ·
Ð»Ñĥ Ð¶
Ġ3 2
998 37
ÑĤÐ° ÐºÐ¸
ĠÐ¸Ð· Ð¼ÐµÑĢ
ÑĨ ÐºÐ¸Ð¹
ĠÐ¿ Ð¾Ð¶Ð°Ð»ÑĥÐ¹ÑģÑĤÐ°
ĠÐĹ ÐµÐ¼
Ð¶ Ð½Ð¾ÑģÑĤÑĮ
ĠÑĩÐµÐ¼Ð¿Ð¸ Ð¾Ð½Ð°
75 7
Ñģ Ð
ĠÐ¡ Ðº
ĠÑħÐ¾Ñĩ ÐµÑĤ
ĠÐ¾ÑĤÐ»Ð¸ ÑĩÐ½Ð¾
c he
ÑĢÐµ Ð²Ðµ
I X
ĠÑģ Ð²Ð¸
ÑģÐ ¾
Ġ l
ĠÐ¡ Ð¼
8 97
ĠÑĤÐµÑħ Ð½Ð¸ÐºÐ°
ĠÐ¸Ð½ÑĤÐµÑĢÐµÑģ Ð½Ð¾
Ð¾ÑĢÐ¸ Ð·
ĠÑģÐ¿ÐµÑĨÐ¸Ð°Ð»Ð¸ ÑģÑĤÐ¾Ð²
ĠÐ¿Ð¾Ð»Ð¸ÑĤÐ¸ ÐºÐ¸
8 16
ĠÐºÐ°ÑģÐ° ÐµÑĤÑģÑı
ro id
Ð¡Ð¢ Ðĺ
Ð½Ð¾ Ð½Ð¸Ð¼
ĠÐĵ Ðµ
ÑĢÐ¾Ð² Ð¸Ñĩ
ĠÐ± ÑĢÐ¸
ÐµÐ¹ ÑĤÐ¸Ð½Ð³
ĠÐ¿Ð¾Ð´ Ð²ÐµÑĢ
________ ________
ĠÐ¾Ð¿ÐµÑĢÐ° ÑĨÐ¸Ð¸
p ri
ĠÑģÐ² ÐµÑĢÑħ
ĠÐ°ÑĢÑħÐ¸ ÑĤÐµ
77 4
ĠÐ»ÑİÐ± ÑĭÐµ
ĠÑĩ Ð°Ð¹
47 4
ĠÐ½Ð°ÑĢ Ðº
ÑĤÐ¾Ð² Ð¾Ð¹
98 66
ĠÑģ Ð´Ð°
ĠÐ¿ÑĢÐ¸Ð¾Ð±ÑĢÐµ ÑģÑĤÐ¸
ĠÐ¾Ð±Ð»Ð° Ð´Ð°ÐµÑĤ
nÐł Ð°Ñģ
ĠÐ¿ÑĢ Ð¾ÑĤÐ¸
ĠÐ°ÑģÑģ Ð¾ÑĢÑĤÐ¸
ĠÐ¾ÑĤ Ð´Ð°
ĠÐ°Ð²ÑĤÐ¾Ð¼ Ð°ÑĤ
nÐŁÐ¾Ð»Ð¸ ÑĤÐ¸ÐºÐ°
ĠÐ¢ ÐµÑĢ
8 25
ĠÐ¾Ð±ÑĬÐµ Ð´Ð¸Ð½
E X
ĠÑįÐº ÑģÐ¿Ðµ
ĠÐĲ Ð½Ð³
8 87
ĠÐºÐ¾Ð½ ÑĨÐ°
ĠÐ¿ ÑıÑĤÑĮ
Ð³Ð¾Ð² Ð¾ÑĢ
ĠÐ½Ð°ÑĢÑĥ ÑĪÐµÐ½Ð¸Ñı
S B
ĠÐ¿ÑĢ Ð¾Ð·
i th
ĠÐ½Ð°ÑģÑĤ ÑĢÐ¾
ĠÐŀ ÑĩÐµÐ½ÑĮ
06 3
ĠÐºÐ¾Ð½ Ð´Ð¸
ĠÐ¿Ðµ Ð´Ð°Ð³
ĠÐ½Ðµ Ð³Ð°
ĠÑģÑĤ Ð¾Ð¹
ÑĢÐ¾Ðº Ð¸
1 12
Ñī ÐµÐ½Ð°
ĠA r
h one
Ð´ Ð²Ð¸
ĠÑģÐµÑĢ Ð´
ĠÐ¿Ð¾ ÑĢÐ°
ÑģÑĤ ÑĢÑĭ
ĠÐ¿Ð° ÑĢÑĥ
ĠÐ¸Ð·Ð²ÐµÑģÑĤ Ð½Ð¾
Ð² ÑĮÑİ
Ð½ Ð½Ð°Ñı
ĠÐ¾ÑĤÐ¼ÐµÑĤÐ¸ ÑĤÑĮ
ĠÐ¿ÑĢÐ¾Ð¸Ð·Ð²Ð¾Ð´ ÑģÑĤÐ²Ð¾
u g
ĠÐ´Ð°Ð² Ð»ÐµÐ½Ð¸Ñı
ĠÐº Ð¾ÑĢÐ¸
ĠÐ¼ÐµÐ½ Ñİ
ĠÐ¡Ðµ Ð³Ð¾Ð´Ð½Ñı
ĠÑģÐ°Ð¼ Ð
ÑĤÐ¸ Ð²Ð¸
ĠÑģÐ°Ð¼Ð ¾
ĠÐ²Ðµ Ð´
Ð¸Ð½ ÑĤÐµÑĢÐµÑģ
ĠÑģÑĤ ÐµÐ½Ñĭ
ĠÐ´Ð° ÑĤ
ĠÐ»Ð¸ ÑĪ
ĠÐ´Ð¸ÑĢÐµ ÐºÑĤÐ¾ÑĢ
ĠÐ³ÑĢÑĥ Ð½
ĠÐ³Ð¸ Ð¿
ĠÑĦ ÑĢÑĥ
1 18
ÑĦÐ¸ Ð»ÑĮ
ĠÐºÐ»Ð° ÑģÑģÐ°
56 7
su ng
Ñī Ñĥ
ĠÐ»Ð¸ ÑģÑĤÑĮ
Ġ Ð¾ÑģÑĤÐ°Ð²
en s
ĠÐ¸Ð· Ð´Ð°
ĠÑĦÑĥÐ½ Ð´Ð°
ĠÐļ Ð¸ÑĤÐ°Ð¹
ĠÐķÐ² Ð³
24 2
ĠÐ½Ð° Ð¿Ð¾Ð»
Ġ us
ÑĩÐµ ÑĢÐ°
ĠÑĢ Ð¾ÑģÑĤÐ°
ĠÂ» \
ĠÐľÐµ Ð¶Ð´ÑĥÐ½Ð°ÑĢÐ¾Ð´
ĠÑģÐ¼Ð¾Ð¶ ÐµÑĤ
998 66
ĠÑģÐ¾ÑĤÑĢÑĥÐ´ Ð½Ð¸ÐºÐ¾Ð²
I C
Ġ 00
ÑĥÐ± Ð°
ĠÐº Ð¾Ð»ÑĮ
ĠÐ³Ð¾Ð²Ð¾ÑĢÐ¸ ÑĤÑĮ
0 86
ĠÐ¾ÑĤ Ð¾Ð¿
ÐĶ Ðŀ
Ðĺ Ð¡
ĠÐ¨ Ð¸
ĠÐ³Ð¸ Ð´
Ñħ Ð½Ð¸ÐºÐ°
nÐļ Ð¾ÑĢ
ĠÑĢÐµÑģÐ¿ ÑĥÐ±Ð»Ð¸
Ġ20 23
1 10
ĠÐ¾Ð´Ð½Ð¾Ð² ÑĢÐµÐ¼ÐµÐ½Ð½Ð¾
ĠÑģ ÑĢÐ¾ÐºÐ°
ĠÐ¥ Ð°
ÑĨ ÐµÐ¹
ÑĢÐ°ÑĤ Ð½Ð¾
ĠÐľÐ°Ðº ÑģÐ¸
ro up
ĠÐ¾Ð¿ÑĤÐ¸ Ð¼Ð°
75 3
ĠÐºÐ¾Ð¶ Ñĥ
Ð² ÑĪÐ¸ÑģÑĮ
am sung
ĠÐ¼ ÐµÑĢÑĭ
ĠÑģÐ¾Ð´ÐµÑĢ Ð¶Ð¸ÑĤ
ĠÐ·Ð° ÑĤ
ÑĢÐ°Ð· Ð´Ðµ
ĠÐ¡ Ð¿Ðµ
ĠÐ¾Ð± Ð»Ð¸
ĠÐ¿ÑĢÐ¸ÑĩÐ¸ Ð½Ñĭ
ĠÑĥ Ð¼Ðµ
Ġ4 00
ro n
Ð² ÑıÐ·Ð°
Ð²Ð¾Ð» Ñİ
Ð³Ð¾Ñģ Ñı
ĠÐĴ ÐµÐ´ÑĮ
Ð¾Ð»Ð° Ð³Ð°
ĠÐ¿Ð¾ÑģÑĤ ÑĢÐ¾
ÑģÐ¸ Ñİ
nÐŀ Ð½
Ð»Ñİ Ð¼Ð¸
ĠÑģÐ¾ÑĨÐ¸Ð°Ð»ÑĮ Ð½ÑĭÑħ
Ð³ ÑĢÑĥ
ÑģÑĤ ÐºÐ¸
Ð½Ð¾ÑģÑĤ ÑıÐ¼Ð¸
ĠG oogle
ĠÑģÑĤÑĢÐ° Ð½Ð¸ÑĨÐ°
08 3
ÑĢÐ°Ð½ Ñģ
ĠÐ¿ÑĢÐ¸ Ð²Ð»Ðµ
ÐµÐ´ ÐµÐ½Ð¸Ðµ
ĠÐ±Ð°Ð· Ðµ
ĠÐ½Ð°Ñĥ ÐºÐ¸
ĠÐŁ Ð»Ð°
ÑĢ Ð½Ð¾Ð³Ð¾
ĠÐ²Ð· ÑıÑĤÑĮ
Ð´Ð¸ Ð¹
Ð½Ðµ ÑĢÑĭ
ÑĤ ÐºÐ¾Ð²
ÐĲ Ðł
Ð¾Ðº Ð¾Ð¼
ÑĢÐµ Ð»Ð¸
ĠÑģÐ²Ð¾ ÐµÐ¼Ñĥ
Ð¾ÑģÐº ÑĢÐµÑģ
ĠÑĪ ÐºÐ¾Ð»Ð°
05 3
ĠÐ´ÐµÐ¿ÑĥÑĤÐ° ÑĤÐ¾Ð²
ĠÐ²Ð° ÑĪÐµ
Ð¾ÑĢÐ°Ð· Ð´Ð¾
nÐŁÐ¾Ñģ Ð»ÐµÐ´
ĠÐ¾ÐºÐ° Ð·ÑĭÐ²Ð°
ĠÐ´ Ð¾Ð±Ð¸
nÐŃ Ð»ÐµÐºÑĤ
ĠÐºÐ¾Ð½ÑĤÐ° ÐºÑĤ
ĠÐ²Ð¾Ñģ Ð¿ÑĢÐ¸
ĠÐ± ÐµÐ½
cat alog
Ð½Ð¾Ð² Ð¸Ð´
ĠÑĢÐ°Ð±Ð¾ÑĤ Ð¾Ð´Ð°
. .\
nÐĺÑģÑĤ Ð¾ÑĩÐ½Ð¸Ðº
ĠÐ¾Ð± ÐµÐ·
Ð°Ð² Ð¾Ð´
ĠÐ¿Ð¾Ð»ÑĮÐ·Ð¾Ð²Ð° ÑĤÐµÐ»ÑĮ
ÑģÑĤÐ²Ð¸ Ð¹
Ð± Ð°Ð²
ur l
ĠÐ¼ ÑĥÑģ
d l
ĠÐ·Ð°Ð±Ð¾Ð»Ðµ Ð²Ð°Ð½Ð¸Ð¹
8 83
ĠÐľÐ¾ÑģÐºÐ¾Ð² ÑģÐºÐ¾Ð¹
ĠÑĥÐ¿ ÑĢÐ°Ð¶
ĠÐµ Ð²ÑĢÐ¾Ð¿ÐµÐ¹
Ð¼ Ð¾Ð·
ĠÐ¿ÑĢÐ¸Ð½Ð¸Ð¼Ð° ÑĤÑĮ
ĠÐ²Ð°ÑĢÐ¸Ð°Ð½ ÑĤÐ¾Ð²
nÐĲ Ð½
ĠÑģÐ¾ ÑĨ
\\ /
ÑĪ ÐºÐµ
ĠÐŁ ÐłÐŀ
ĠÐ°Ð²ÑĤ Ð¾Ð½Ð¾Ð¼
ÑģÑĤ ÐµÑĢÐ°
ÐµÐ¼ Ð¾Ð¹
20 10
ĠÐºÐ° Ð¿
Ġ20 00
Ġ1 000
ĠÐ¿ÑĢÐµÐ´ ÑĭÐ´Ñĥ
Ð¾ÐºÑĥ Ð¿Ð°
2 13
ĠÐĲ Ð½Ð°
ÑĤÐ° ÑĨÐ¸Ñı
55 6
Ð¿ Ð»Ð¾Ð¼
Ð¾Ð± Ñĥ
ÑĢÐ¾ÑģÑĤ Ð
ÑĢÐ¾ÑģÑĤÐ ¾
nÐ¤ Ð¾ÑĤÐ¾
Ð¾Ð»ÑĮ Ð½ÑĭÐµ
ÑĢÐµ ÑģÐ°
ÐºÐ° ÑĥÐ½
nÐŁ Ð¾Ð»
ĠÐ¼Ðµ Ð±ÐµÐ»Ð¸
ĠÑģÐ¿ Ñĥ
ĠÐ¾Ð± ÑģÑĤÐ¾Ñı
ĠÑģÑģÑĭ Ð»ÐºÐ°
ĠÐ²Ðµ ÑīÐ¸
ĠÑģÐ¾ÑĨÐ¸Ð°Ð»ÑĮ Ð½Ð¾Ð¹
ĠÑģÐ½Ð° ÑĩÐ°Ð»Ð°
ĠÑĨÐµ Ð»ÐµÐ¹
Ð¸ ÑģÑĤ
nÐĲ Ðº
Î ¿
ĠÐ¼ÐµÑĤ ÑĢÐ¾Ð²
ÑĪ Ð°Ð»
ĠÑģÐ¾Ð± Ð»ÑİÐ´
Ñİ ÑīÐµÐ¼
nÐľ Ñĥ
8 24
ÑĨ ÐµÐ½Ð°
ĠÑģÐµÐ»ÑĮ ÑģÐºÐ¾Ð³Ð¾
99 12
ĠÐ¿Ð¾ Ð½Ð°Ð´
ĠE x
ĠÑĥ ÑĩÐµÐ½
Ð½Ð¸ ÐµÐ¹
ĠÑĢÐ°ÑģÑģÐºÐ°Ð·Ð° Ð»
ÐµÐ¼Ð° Ñı
Ð¼Ð¸ ÑĤ
8 15
46 4
ĠR e
ĠÐ»ÑİÐ´ ÑıÐ¼
ĠÐ·Ð° Ð¼ÐµÑĤÐ¸
ĠÐ¿ÑĢÐ°Ð²Ð¸ Ð»
ĠÐ¿Ð¾Ð¼ Ð¾Ð³ÑĥÑĤ
ĠÐ²Ð° ÑĪÐ¸Ñħ
ĠÐ² Ð°ÑĢ
ĠÑĢÐ¾ÑģÑģÐ¸Ð¹ ÑģÐºÐ¸Ñħ
Ð»ÑĮ Ðµ
ĠÐ¾Ð±ÑīÐµ ÑģÑĤÐ²Ð°
ĠÐ±Ñĭ Ð²Ð°ÐµÑĤ
ĠÑĨÐµÐ½ÑĤ ÑĢÐ°Ð»ÑĮ
ĠÐ¿ÑĢÐ¸Ð³Ð¾ÑĤÐ¾Ð² Ð»ÐµÐ½Ð¸Ñı
ĠÐ½Ð° Ð½ÐµÑģ
ĠÑĢÐ¾Ð´Ð¸ ÑĤÐµÐ»ÐµÐ¹
ĠÐ¿ ÑıÑĤÐ¸
ĠÐ¾ÑĤÐ½Ð¾ ÑĪÐµÐ½Ð¸Ð¹
ĠÑģÐ»Ð¾Ð¶ Ð½Ð¾
ĠÑĢÐµÐ¼ Ð¾Ð½ÑĤÐ°
ĠÐ¿ÑĢÐ¾Ð´Ñĥ ÐºÑĤ
ĠÐ¾Ð± ÑīÐµÐ³Ð¾
ÑĢÐµ ÑģÑĤ
03 3
Ð²Ð° Ð»Ð¸ÑģÑĮ
Ð³ ÑĢÐ°ÑĤÑĮ
ĠÑģÐµÐ· Ð¾Ð½
ĠÑģ ÐºÑĥ
ĠÑģÐ¾ Ñİ
ĠÐ³ÑĢÐ° Ð´Ñĥ
ĠÐ¿Ð¾ÑģÑĤ ÑĥÐ¿
ĠÐ°ÑĤ Ð¼Ð¾Ñģ
ĠÐ¢ Ð¾ÑĢ
Ð»Ñı Ð¼Ð¸
ĠÐ¾Ñģ Ð²Ð¾Ð±
ĠÑıÐ·Ñĭ ÐºÐ°
ĠÐ¿Ð¸ÑģÑĮ Ð¼ÐµÐ½
Ð¾Ñģ Ð»Ð°Ð²
05 1
Ð½Ðµ ÑĢÐ°
ĠÐ»ÑİÐ± ÑĭÑħ
cri pt
Ġ do
ĠÐ¾Ðº Ð½Ð°
n ik
ĠÐ¡ÐµÑĢ Ð³Ðµ
ÑĤÐµÑĢ Ð½Ð°
ĠÐ¿ÑĢÐ¾Ð´Ð° Ð¶
ĠÐ±Ð¸ Ð»ÐµÑĤ
Ð± Ð¾Ð¼
Ð»ÑĮ Ð½ÑĭÐ¼Ð¸
ĠÐ¿ÐµÑĢÐµ ÑħÐ¾Ð´
u be
ĠÐ¸Ð¼ Ð¿
ĠÑĥÐ³ Ð¾Ð»Ð¾Ð²
ĠÐĿÐ¾Ð² Ð¾ÑģÐ¸Ð±Ð¸ÑĢ
ĠÐ¿ÑĢÐ¸Ð½Ð°Ð´ Ð»Ðµ
ĠÑįÐ½ÐµÑĢ Ð³ÐµÑĤÐ¸
Ð½ Ð¾Ð³
ÑĨÐ¸Ñı Ð¼Ð¸
ÐµÐ· Ñĥ
Ð³Ñĥ Ð»Ð¸
ĠÑģÑģÑĭÐ» ÐºÐµ
ĠÑĥ Ð¶
ĠÐ¼ÐµÑĤ Ð¾Ð´Ð¸
M S
Ð´ Ð¶Ð°
ĠÐºÐ¾Ð¼ Ð¸ÑĤ
ĠÐ·Ð½Ð° Ñİ
ĠA nd
ĠÐ¿ÑĢÐ¾ÑĦÐ¸ Ð»Ð°ÐºÑĤÐ¸
ĠÐ¾ÑģÐ½Ð¾Ð²Ð° Ð½Ð¸Ð¸
ÑĢÐ¾Ð²Ð° Ð½Ð¸Ñİ
nÐ§ Ð¸ÑĤÐ°Ð¹ÑĤÐµ
ĠÐ¿ÑĢÐ¾ÑĦÐµÑģÑģÐ¸ Ð¾Ð½Ð°
n Ð·Ð°
ĠÑģÑĤÐ¸ Ð»Ðµ
4 07
ĠÑĩÐ°ÑģÑĤ Ð½Ð¾ÑģÑĤÐ¸
Ġb y
ÑĤÐµ ÑĢÐ¾Ð²
ĠÐ² ÐµÑĤÐµ
ĠÐ²Ð°ÑĢÐ¸Ð°Ð½ ÑĤÑĭ
Ñį ÑĤÐ°
Ð½ Ð½Ð¾Ð¹
46 7
ĠÑĩ ÑĢÐµÐ·
ĠÐ¿ÐµÑĢÐ² ÑĭÑħ
ĠÐŀÑĤ Ð²ÐµÑĤ
ĠÐ¼ Ð¾Ðµ
ĠÑĩÑĥ ÑĤÑĮ
ĠÐ²Ð¾Ð¿ÑĢÐ¾Ñģ Ð¾Ð²
98 96
w it
ĠÐĿ Ð°ÑĢ
ÐĴ ÐĶ
Ð¾ÑĤ ÐµÑĢÐ°
ĠÐ¾ÑģÑĤÐ° ÐµÑĤÑģÑı
ĠÐ²Ð¾Ð·Ð´Ñĥ ÑĪ
Ñī ÐµÑĢ
ĠÐ¼ ÑıÑģ
Ð² Ð¾Ñģ
a il
ĠÑįÐº Ð¾Ð»Ð¾Ð³Ð¸
2 14
... .\
Ð¾Ðµ ÐºÑĤ
ĠÑģÐ¾Ð·Ð´Ð° Ð½Ð¸Ðµ
I G
ĠÐŀ Ð»ÑĮ
ÑĦÐ¸ ÑĨÐ¸Ð°Ð»ÑĮ
ĠÑĥÑĩÐ°ÑģÑĤ ÐºÐ°
ĠÑĢÐ°ÑģÐ¿ÑĢÐ¾ÑģÑĤ ÑĢÐ°
ĠÐ°Ð² ÑĤÐ¾ÑĢÐ¸
ÐºÐ¾Ð² ÑĭÐ¹
ĠÐ³Ð¾Ð»Ð¾Ñģ Ð¾Ð²
Ð¡ Ðŀ
ĠÑħ Ð¾Ð´
ĠÑĢÐ°ÑģÑĤ ÐµÐ½Ð¸Ð¹
Ð¾Ñĩ Ð½Ð¾Ðµ
ÑĥÑģ Ð»Ð¾Ð²
2 15
Ñģ Ð»Ð¾Ð²Ð¸
ĠÑĢÐ°Ð·Ð¼Ðµ ÑĢÐ°
ĠÐ¾ÑĢ Ð³Ð°Ð½
8 37
ĠÐ²ÐºÐ»ÑİÑĩÐ° ÐµÑĤ
ĠÐ¿ÑĢÐ¸ Ð±Ð¾ÑĢ
pp le
¾ ÑĩÐ°
Ð½Ð¸ Ð·
ĠÐ²Ð¼Ðµ ÑģÑĤÐ¾
n ov
ĠÑĥÐ»Ð¸ ÑĨÐ°
ĠÑģÐµ ÑĢÐ¸Ñı
Ġ .\
Ð´Ð° Ð¼
ÑĢ Ð¾Ð±Ð¸
Ñĥ Ð¼Ñĭ
ĠÐŁ ÐµÐ½
nÐĿ Ð¸
!! !
ÑĨ Ð
Ð¾Ð¿Ð¾Ð» Ð½Ð¸ÑĤÐµÐ»ÑĮ
ĠÐ¿Ð¾ÑģÐµ Ð»ÐµÐ½Ð¸Ñı
ÑĨÐ ¾
ĠÐĶ Ð¾Ð¼
65 4
ĠÐ²Ñģ ÐµÐ¼Ñĥ
ĠÐĶ Ð¾Ð±
ĠÐ¿Ð¾Ð» Ð¾Ð²Ð¸
ĠN e
Ð ¾ÑĩÐ°
16 0
ĠÐ¿ÑĢÐ¸ Ð½ÑıÑĤÑĮ
ĠÑħÐ¾ÑĤ ÑĮ
ĠÐ¼Ð¾Ð¶ ÐµÐ¼
nÐŁ Ð¾Ð»Ñĥ
ĠÐ¿Ð¾ ÐµÐ·
ĠÑģ ÐºÐ»Ð°
ÑĤÐ¸Ð² Ð½Ð¾Ðµ
ÑĩÐ¸ ÑĤÑĮÑģÑı
Ñħ Ð°Ð¹
ĠÐ½ÐµÐ¾Ð±ÑħÐ¾Ð´Ð¸Ð¼ ÑĭÐµ
ĠÐ·Ð° Ð´ÐµÑĢ
fo rum
ĠÐ½Ð¾Ð² ÑĥÑİ
Ð² Ð¾Ð½Ð¸
Ð¾Ð» Ñĭ
ĠÐ¿ÑĢÐ¸ Ð²ÐµÑģÑĤÐ¸
ĠÐ¸Ð¼ Ð¼Ñĥ
Ġ ad
Ð°ÑĤÐ° ÑĢ
ĠÐ¿Ð¾Ð·Ð²Ð¾Ð»Ñı ÑİÑĤ
Ð¾ÑĢÐ¾Ð½Ðµ Ð¶
ĠÐ¾Ð±ÐµÑģÐ¿Ðµ ÑĩÐµÐ½Ð¸Ðµ
ĠÐ¿ÑĢÐ¸ ÐµÐ¼Ð°
ĠÑĥÑĩÐµÑĤ Ð¾Ð¼
ĠÐ¿ÑĢ Ð¾ÑĤÐµ
ĠÑįÐ½ÐµÑĢ Ð³Ð¸Ð¸
Ð½Ðµ ÑĪ
ĠÑģÑĤÑĢÐ° Ð½Ð¸ÑĨÑĭ
ĠÐ¾Ðº ÑĢÑĥÐ³
ĠÐ½Ð° Ð²Ñĭ
ĠÐ¿Ñĥ ÑĤÑĮ
ĠÑģ ÐºÐ¾ÑĢÐµÐµ
ĠÐł Ð¾ÑģÑĤÐ¾Ð²
Ñĳ Ð²
ĠÑģÐ¾Ð´ÐµÑĢÐ¶Ð° Ð½Ð¸Ðµ
I V
ĠÐ½Ð¾ ÑĥÑĤÐ±Ñĥ
ĠÂ ©
la t
ĠÐ¾ÑĢÐ³Ð°Ð½Ð¸ Ð·Ð¼
Ġ1 20
Ð¾Ñİ Ð·
â ĸ
ĠÐ·Ð°ÐºÐ¾Ð½Ð¾Ð´Ð° ÑĤÐµÐ»ÑĮÑģÑĤÐ²Ð¾Ð¼
ĠÐ¾ÑĤÐ²ÐµÑĤÑģÑĤÐ²ÐµÐ½ Ð½Ð¾ÑģÑĤÑĮ
Ð¿ ÐµÐ²
ÐºÑĤ Ð¾ÑĢÐ¾Ð²
ĠÐ¡ Ðŀ
ĠÑģÐ¸ Ð»
Ġ 44
P L
98 97
ĠÐ±Ð»Ð° Ð³Ð¾Ð´Ð°ÑĢ
ĠÐºÐ°Ð±Ð¸ Ð½ÐµÑĤ
i b
Ð¶ ÐµÐ½Ð¸Ð¹
ĠÐĵ ÑĢÐ¸
Ð¿Ð¸ÑģÐ° ÑĤÑĮ
00 1
ĠÑĢÐ°Ð·ÑĢÐµ ÑĪÐµÐ½Ð¸Ñı
ÑĩÐµÐ½ Ð°
Ð²Ðµ Ð´Ð¸ÑĤÐµ
ÑĢÐ¾Ð² Ð¸
ÑĤÐ° ÐµÑĤ
ĠÐºÑĥ ÑħÐ½Ð¸
ĠÐ´Ð¾Ð¿Ñĥ ÑģÐºÐ°
ĠÐ¿ÐµÑĢÐ² ÑĭÐµ
ĠÐ¿Ð¾Ñģ ÑĢÐµÐ´
ĠÐ³ Ð¾ÑĢÐ°Ð·Ð´Ð¾
ĠÐ¸Ð½ Ð¶ÐµÐ½
ĠÐŁÐ¾Ð´ ÑĢÐ¾Ð±Ð½ÐµÐµ
Ð²Ð° ÑİÑīÐ¸Ðµ
Ð¾Ð»ÑĮÐ·Ð¾Ð²Ð° Ð½Ð¸Ðµ
Ð°Ð»ÑĮ Ð½ÑĭÐ¼
Ð»Ð° Ð±
ÑĢÐ°Ð¶ ÐµÐ½Ð¸Ðµ
ro l
ĠÑģÑĢÐ°Ð² Ð½ÐµÐ½Ð¸Ñİ
ĠÐ¼ Ð¾ÑĢÐµ
ÑĦÐµ Ð»ÑĮ
98 87
0 17
ĠÑĪ ÑĤÑĢÐ°
el eg
ÑĩÐµ Ð²
Ð»Ð¾Ð¶ ÐµÐ½Ð¸Ðµ
ÑģÑģ ÐµÐ¹
Ġ 37
ĠÐ¾ÑģÐ½Ð¾Ð² Ð½ÑĭÐµ
Ġ %
ĠÐºÐ¾Ð½ ÑĦÐ»Ð¸
96 9
Ð¼Ð¾ÑĤ ÑĢÐ¸ÑĤÐµ
ĠÐ¸ÑģÑģÐ»ÐµÐ´ Ð¾Ð²Ð°
r es
ĠÐ²ÑĢÐ° ÑĩÐ°
ÑħÐ¸ Ð²
ĠÐ¸Ð½ÑĦÐ¾ÑĢÐ¼Ð° ÑĨÐ¸Ð¾Ð½Ð½ÑĭÑħ
ĠÑģÐ¿ Ð¾ÑĢÑĤÐ°
2 11
Ð´Ð° Ð¼Ð¸
66 7
ĠÐºÐ¸Ñģ Ð»Ð¾ÑĤ
ĠÐ¿Ð¾ÑĢÑıÐ´ Ð¾Ðº
ĠÑģÐ¾ÑģÑĤÐ°Ð² Ðµ
ĠÐ²ÐµÑģÑĮ Ð¼Ð°
ĠÐĹÐ° ÑĤÐµÐ¼
ace book
Ð·Ð° ÑĨÐ¸Ñİ
ĠÐ»Ð¸ ÑĩÐ½Ð¾
ĠÑĢÐµ ÑĩÑĮ
ĠÐĲÐ½Ð´ ÑĢÐµÐ¹
ĠÐ¶Ð¸ ÑĤÐµÐ»ÐµÐ¹
ĠÑģÐ¼Ð°ÑĢÑĤ ÑĦÐ¾Ð½
Ġ be
ĠÑĢÐµ Ð·Ð¸
98 95
ĠÐ±ÑĥÐ´ ÐµÐ¼
ĠÑģÐ¼ Ð¾Ð³
ÑĢÐµ Ð¿
ĠÐºÐ¾Ð¼Ð½Ð° ÑĤÑĭ
ÑģÑĤÐ°Ð½Ð¾Ð² ÐºÐ°
Ð»Ð° ÑģÑģ
ĠÐĹ ÐµÐ»ÐµÐ½
Ġ25 0
ĠÑģÐ¿Ð° ÑģÐ¸Ð±Ð¾
ĠÐ¿ÑĢÐ¾Ð´ Ð²Ð¸
ĠÐ¸ Ð½ÑĭÑħ
Ð¾Ð½ Ð½ÑĭÐ¹
ĠÑģÐ¿ÐµÑĨÐ¸Ð°Ð»Ð¸ ÑģÑĤÑĭ
Ð½Ñı ÑİÑĤÑģÑı
nÐĴ Ðµ
Ð¿Ð° Ð½Ð¸Ð¸
ĠÐ¾Ð±ÑĢÐ° Ð±Ð°ÑĤÑĭ
Ð¾ÑģÑĤÐ°Ð½Ð¾Ð² Ð»ÐµÐ½Ð¸Ðµ
ĠÑĢÐ°Ð±Ð¾ ÑĩÐ¸Ñħ
/ %
35 9
Ð· Ð¾ÑĢÐ°
ÑĨ ÐµÑĢ
ÑĤÐµÑĢÐ¸ Ð°Ð»Ñĭ
ĠÐ¾ÑĤÐ½Ð¾ÑģÐ¸ ÑĤÐµÐ»ÑĮÐ½Ð¾
ĠÐ¿ÑĢÐ¾ ÑħÐ¾Ð´Ð¸ÑĤ
ÑģÑĤ Ð¾ÑĢÐ°
ĠÑĥÑĩÑĢÐµÐ¶Ð´ ÐµÐ½Ð¸Ñı
ĠÐ½Ð°Ñģ Ð»ÐµÐ´
¾ ÑĦÐµÑĢ
a u
ĠÐ¾Ð¿ Ð¸
ĠÐ½Ðµ Ð´Ð°Ð²
ĠÑĥÐ³ Ð¾Ð»
Ð ¾ÑĦÐµÑĢ
ro v
1 90
ĠÐ°Ð½Ð°Ð»Ð¸ Ð·
ÑĤÐ¾ÑĢÐ° Ð¼Ð¸
nÐĿÐ° ÑĪÐ¸
ĠÐ²Ð¾ÑģÐ¿Ð¾Ð»ÑĮÐ·Ð¾Ð²Ð° ÑĤÑĮÑģÑı
ðŁ ĩ
ĠÐ¿ÑĢÐ¾Ð¸Ð· Ð¾ÑĪ
ĠÐĲ Ð¿
Ð½Ð¸ Ð¼Ð¸
ĠÑģ Ð»Ñĭ
9967 174
ĠÐ¼Ð°Ð³Ð°Ð·Ð¸ Ð½Ðµ
ĠÐ¸Ð· Ð¼ÐµÐ½Ð¸ÑĤÑĮ
ĠÐºÐ¾Ð½ÑģÑĤÑĢÑĥ Ðº
ĠÐļÐ° ÑĢÐ°
ĠÐ¿ÑĢÐ¾Ð´ Ð°Ð²
nÐ¡ Ñĥ
ÐµÑģÑĤÐ¸ Ð²Ð°
ĠÐĴ Ð¡
ĠC om
Ð»Ð¾Ð² ÑĭÐµ
ĠÐ¸Ð·Ð´ÐµÐ»Ð¸ Ð¹
ĠÐ¼ÐµÑĢÐ¾Ð¿ÑĢÐ¸Ñı ÑĤÐ¸Ð¹
Ð» Ð¾ÑĤÐ°
ĠÐ¼ÑĥÐ¶ ÑĩÐ¸Ð½
ĠÐºÐ°ÑĢ ÑĤÐ¾
ĠÐ¼ Ð¾Ð½Ð°
ĠÐ¿ÑĢÐ¾ ÑĨ
ĠÐĳÐ»Ð° Ð³Ð¾Ð´Ð°ÑĢÑı
Ð± ÑĢÐµ
Ð¾ÑĢÐ¸ Ð¸
ÑīÐ° ÑİÑĤÑģÑı
ĠÐ³Ð¾ÑģÑĥÐ´Ð°ÑĢÑģÑĤÐ²ÐµÐ½ Ð½ÑĭÐ¹
ÑĢÑĥ Ð±Ðµ
ĠÑģÐ²ÑıÐ·Ð° Ð½Ð¾
ĠÑģÐµ ÐºÑĥ
Ðļ Ð£
ĠÐº Ð¾Ð²
ĠÐ¿ÑĢÐ¾Ð²Ð¾Ð´Ð¸ ÑĤÑĮ
Ð½ ÐºÐ¸
ĠÐ°ÐºÐºÑĥ Ð¼ÑĥÐ»Ñı
nÐĶ Ðµ
Ð· ÐµÐ¹
U T
97 9
ĠÐ° Ð½Ð°
ĠÐ¿ÑĢÐ¸ Ð²Ð¾Ð´Ð¸ÑĤ
ĠÑĦÐ¾ÑĢ ÑĥÐ¼Ðµ
Ð± Ð°ÑĢ
ĠÐ½ÐµÐ±Ð¾Ð»ÑĮ ÑĪÐ¾Ð¹
ĠÐ¡ Ð¿Ð°ÑģÐ¸Ð±Ð¾
ĠÐ°Ð²ÑĤÐ¾Ð¼Ð°ÑĤÐ¸ ÑĩÐµÑģÐºÐ¸
ĠÐ¸Ð¼Ñĥ ÑīÐµÑģÑĤÐ²Ð°
Ð»Ñı ÑĤÑĮÑģÑı
ĠÐ¿Ð¾ÑĢ Ð½Ð¾
ĠÐ¢ Ð¾Ð²Ð°
ĠÐ¾ÑĤÐ½Ð¾ÑģÐ¸ ÑĤÑģÑı
Ñģ Ð¾ÑĢ
ĠÐºÐ° Ð¶ÐµÑĤÑģÑı
ĠÐºÐ¾Ð¼Ð°Ð½ Ð´Ñĭ
U N
ÑģÐºÐ° Ð·Ð°
85 2
ĠÐ¶Ðµ Ð»Ðµ
ÑģÑĤÐ° Ñı
ĠÐ¿ÐµÑĢÐ² Ð¾Ð¼
ÑĤÐµÑĢÐ¸ Ð°Ð»
36 9
ĠÐļ ÑĢÐ°
Ð¾Ð¶Ðµ Ð»Ð°
ÑģÑĤÑĢÐ¾Ð¹ ÑģÑĤÐ²Ð¾
ĠÐ¸ Ð¼ÐµÐ½
ÑĢÐµÐ½ Ð°
Ð¾Ðº Ð¾Ð½
ĠÐ¿ÑĢÐ¾Ð²ÐµÑĢ ÐºÐ¸
15 1
ĠÐ³Ð¾Ð²Ð¾ÑĢ ÑıÑĤ
ĠÐ± ÐµÐ´
ĠÐ¿Ð¾Ð» Ð½Ð¾
ĠÑĢÐµÐ±ÐµÐ½ Ð¾Ðº
ĠÐ¿ÑĢÐ¾ÑĨÐµÐ´Ñĥ ÑĢÑĭ
ĠÐºÐ° ÑĢÑĮ
ÑģÐ¸ ÑħÐ¸
ĠÐ¾Ð¿Ð¸ÑģÐ° Ð½Ð¸Ðµ
for m
ĠÐ±Ð° ÑĤÐ°
ĠÐ´Ð¾ÑĢ Ð¾Ð³Ð¸
ĠÑĦÑĥÐ½Ðº ÑĨÐ¸Ð¾Ð½Ð°Ð»ÑĮ
nÐĳ ÐµÐ·
y d
98 76
ÑĤÐ° ÑĤÑĮ
ĠÐ¿ÑĢÐ¾Ð¸Ð·Ð²Ð¾Ð´Ð¸ ÑĤÑģÑı
ĠÑģÐ»Ð¾Ð²Ð° Ð¼
ĠÐ± Ð¾Ñı
Ð¾Ð² Ð¾Ðµ
ĠÑģÐ² ÐµÑĤÐ°
Ð± ÐµÐ·
ĠÑĥÐ´Ð¾Ð² Ð»ÐµÑĤ
ĠÐ´Ð²Ñĥ Ð¼Ñı
Ð² ÑĢÐ°ÑĤ
nÐŀÑģ Ð¾Ð±
ÑĤÐ¾ Ðµ
ĠÐ´ÑĢÑĥÐ³ Ð¾Ð¼
ĠÐ½Ð° Ð³ÑĢÐ°
ĠÐ·Ð´ÑĢÐ°Ð² Ð¾Ð¾Ñħ
ĠÐ·Ð°ÐºÐ°Ð·Ð° ÑĤÑĮ
ĠÐ¿ÑĢÐ¸Ð»Ð¾Ð¶ ÐµÐ½Ð¸Ñı
i i
ĠÐ¿ÑĢÐ¸Ð¾Ð±ÑĢÐµ ÑĤ
Ð¾Ð¶ Ð´Ðµ
Ð¾Ðº Ñģ
Ð¾Ð· Ð¸ÑĤ
ÑĢ ÑĤÑĥ
Ð¡ Ð¿
ĠÐ¾Ð¿ ÑĢÐ¾Ñģ
ĠÑĢÐ°ÑģÐ¿ Ð¾Ð»Ð°Ð³Ð°
ĠÐ¿ÑĢÐ¸ÑħÐ¾Ð´Ð¸ ÑĤÑģÑı
ĠÐºÐ¾ÑĢ Ð¿Ñĥ
Ð¼ÐµÐ½ Ñĭ
ĠÐ±Ð¾Ð»ÑĮ ÑĪÐ¸Ð¼
ĠÐ¼Ð°ÑĢ ÐºÐµÑĤ
n er
l es
Ð¶Ð¸ ÑĤÐµÑģÑĮ
Ġ Ð¾Ð»Ð¸
Ġ www
ĠÐ´Ð¾ÑĢ Ð¾Ð³
19 2
ĠÐ¦ÐµÐ½ÑĤ ÑĢÐ°Ð»ÑĮ
ÑĤÐ¾ÑĢ Ñĥ
Ð±ÑĥÑĢ Ð³Ð°
86 2
ĠÐ¶Ð¸ ÑĤÑĮ
ĠÐºÐ° Ð´
A G
ĠÐºÐ¾Ð½ÑĤÑĢ Ð¾Ð»Ð¸
ĠÐ¿ÑĢÐ¾Ð² ÐµÑĢÐ¸ÑĤÑĮ
ÑģÑĤÑĢÐµ Ðµ
20 24
âĶĢ âĶĢ
ĠÐ½ÐµÐ¿Ð¾ÑģÑĢÐµÐ´ ÑģÑĤÐ²ÐµÐ½Ð½Ð¾
Ð¾Ð³Ð¾Ð² Ð¾ÑĢ
BD C
ĠÑĢÐµ Ð¹
ĠÑĢÐµÐ´Ð° ÐºÑĨÐ¸Ð¸
0 93
66 6
ĠÐŁ ÑĢÐ¾Ñģ
Ð´ÑĢÐ°Ð² ÑģÑĤÐ²ÑĥÐ¹ÑĤÐµ
ĠÐļÐ¸ ÐµÐ²
Ð´Ð¸ Ð»Ð¸
ĠÐł Ð¾Ñģ
ĠÐ¿Ð¾Ð´Ð³Ð¾ÑĤÐ¾Ð² ÐºÐ¸
Ð¼Ð¸ ÑĢÐ°
98 65
Â»Â» Â»
ĠÐ²Ð¾Ð»Ð¾Ñģ Ñĭ
Ð» Ð»Ñİ
ĠÑĥ Ð´Ð¸Ð²Ð¸
16 2
ĠÐ¿Ð¾Ð»Ð¾Ð¶ ÐµÐ½Ð¸Ðµ
ĠÐ»ÑĥÑĩ ÑĪÐ¸Ðµ
ĠÐŁ Ð¾ÑĩÐµÐ¼Ñĥ
Ðĵ Ð£
ĠÐºÐ° ÐºÐ¸Ð¼
ÑĤÐµ Ð»Ðµ
E S
ĠÐ½ÐµÐ¿ÑĢÐ¸ ÑıÑĤ
Ð²Ð° Ð»ÑģÑı
ĠÐ³Ð¾ÑĤÐ¾Ð² Ñĭ
ĠÐ¡ Ð
nR e
ĠÐ²ÑĭÐ± ÑĢÐ°Ð½
Ð°Ñģ ÑģÐ°
ĠÑĥÐ´Ð° Ð»Ð¸ÑĤÑĮ
Ġ6 00
Ð³Ð¸ Ð½
ĠÐ¿ÐµÑĢ ÑģÐ¿ÐµÐº
Ġ20 07
i re
ĠÑģÑĢÐµÐ´ Ñĭ
ĠÐ¾Ð±ÑĬÐµ ÐºÑĤ
ĠÑĥÐ´Ð° Ð»Ð¾ÑģÑĮ
ÑģÐ¸ Ð»ÑĮ
ÑĩÐ¸ Ð²Ð°ÐµÑĤÑģÑı
Ð¿ Ð°ÑĢ
ÑĦ ÑĤ
ĠÐ½Ð°Ð¹ Ð´
ĠÐłÐ° Ð±Ð¾ÑĤÐ°
9 21
ĠÐ½ÐµÐ¿ ÑĢÐ°Ð²Ð¸
Ð¡ Ðµ
ĠÐ¼Ð°ÑĪÐ¸ Ð½Ð°
ĠÐ¾Ð±ÑĢÐ° ÑīÐµÐ½Ð¸Ñı
ĠÑĥÐ½Ð¸Ð²ÐµÑĢÑģÐ¸ÑĤ ÐµÑĤ
nÐĿ ÐµÑĤ
Ð¾ÑĤ ÐµÐºÐ°
ĠÐ¸Ð· Ð±Ð°
ĠÐĳ ÐµÑĢ
an g
46 3
Ð»Ð° Ð¹
Ñ Ĺ
ĠÑĦÐ¾ÑĤÐ¾Ð³ÑĢÐ°ÑĦÐ¸ Ð¸
Ð¾Ð³ÑĢÐ°Ð¼ Ð¼Ð°
ÑĤÐµÐ»ÑĮ Ð½ÑĭÐ¼Ð¸
Ð°Ð¹ ÑĤÐ¸
ĠÐ² Ð¿ÐµÑĢÐ²ÑĭÐµ
ĠÐ²Ñĭ ÑıÑģ
ĠÐ° Ð´Ð°
Ð¾Ð´ Ð½ÑĭÐµ
ĠÐ½Ðµ Ð²ÐµÑĢ
98 85
ĠÐ¾Ð´Ð¸ Ð½Ð°
Ġ 77
ĠÐ¿ÑĢÐ¾ ÑıÐ²Ð»Ñı
ĠÐ¿Ð¾ÐºÑĢÑĭ ÑĤÐ¸Ñı
0 95
h at
Ð¸Ð½Ð° Ð½
Ð»Ð° Ð´Ð°
' );
Ñī ÐµÐ½Ð¸Ñİ
l or
ĠÐ¿ÑĢÐ¾ÑĤÑı Ð¶ÐµÐ½Ð¸Ð¸
ĠÑģÐ¼ÐµÑĢ ÑĤÐ¸
ĠÐ·Ð½Ð° ÑĩÐµÐ½Ð¸Ñı
ĠÐ²ÑĢÐµÐ¼ÐµÐ½ ÐµÐ¼
09 1
99 10
Ð·Ñĥ ÐµÑĤÑģÑı
ĠI I
ĠÑģÐ¾Ð±ÑģÑĤÐ²ÐµÐ½ Ð½Ð¾ÑģÑĤÐ¸
ĠÑħÐ¾Ð» Ð¾Ð´Ð¸
ĠÐ¿Ð¾Ð»ÑĥÑĩÐ¸ Ð»Ð¸
ĠÑĢÑĭÐ½ Ð¾Ðº
Ðº Ð¾Ð±
ĠÑĤÑĥÑĢ Ð½Ð¸
ĠÐ°Ð±ÑģÐ¾Ð»ÑİÑĤ Ð½Ð¾
n Ñĥ
ÐµÐ½ ÑĤÑĥ
ĠÐ¿Ð¾Ð¿ Ð¾Ð»
BD D
ĠÑĥ ÐºÐ°
ĠÐĲÐ² ÑĤÐ¾Ð¼
ĠÐ¾ÑĤÐ½Ð¾ÑģÑı ÑĤÑģÑı
ĠÑĢÐ°ÑģÑĤÐ² Ð¾ÑĢ
ĠÐ¿ÑĢÐ¾ÑģÑĤ Ð¾Ð¹
Ð³ ÑĥÑĢ
la y
ÑīÐ¸ Ð½Ñĭ
ĠÐ²ÐµÑĢ ÑģÐ¸Ñı
ĠÐ¾ÑĦÐ¸ Ñģ
ĠÐ²ÑĭÐ¿Ð¾Ð» Ð½ÐµÐ½
nÐĿ Ñĥ
Ð½ ÑĨÐµ
ĠÐ½Ð°ÑĩÐ¸Ð½Ð° ÐµÑĤ
Ð¾Ð¼ÐµÐ½ Ð´Ñĥ
nÐŁ Ð¾Ð¿ÑĥÐ»ÑıÑĢ
ĠÑģÑĤÐ°ÑĤÑĮ Ñı
ĠÐļÐ° Ð·Ð°
ic s
Ð³Ð¾Ð² Ðµ
ĠÐĶ ÐµÐ¿
5 00
ĠÑħÑĥÐ´ Ð¾Ð¶
ĠÐ½Ð¾Ð¼ ÐµÑĢÐ°
x n
Ñĩ ÐµÐ½Ð¸Ð¹
ĠÐ¡Ð° ÑĢÐ°
Ð³ Ð¾Ð³ÑĢÐ°Ð´
98 84
ĠÐ· Ð´Ð°Ð½Ð¸Ñı
Ð½Ð¸ ÑģÑĤ
ĠÐ´Ð¸ Ð½Ð°Ð¼Ð¸
ĠÐ¿Ð°Ð½Ðµ Ð»Ð¸
ĠÐº Ð²Ð°ÑĢ
ĠÑģÐ¾Ðµ Ð´Ð¸
Ð¸ Ðµ
ĠÐ´Ð¾ÑģÑĤÐ¸ Ð³
ĠÐ·ÐµÐ¼ Ð»Ð¸
ÑĩÐµÐ½ Ð
ĠÑģÐºÐ¾ÑĢ Ð¾ÑģÑĤÑĮ
ÑĩÐµÐ½Ð ¾
19 1
ÑĩÐµ ÑģÐºÐ¾Ð¼Ñĥ
ĠÐķÐºÐ°ÑĤÐµÑĢÐ¸ Ð½
Ð¶ Ð°Ð½
ĠÑģÐ¸Ð¼ Ð²
Ñĩ ÐºÑĥ
ÐŁ Ðŀ
ĠÐ¿Ð»Ð°ÑĤ ÑĦÐ¾ÑĢ
ĠÐ¿ÑĢÐµÐ¸Ð¼Ñĥ ÑīÐµÑģÑĤÐ²Ð°
ĠÐ´ÑĢÑĥÐ³ Ð¾Ð³Ð¾
ĠÐ¾Ñħ Ð»Ð°
ĠÐºÐ¾Ð¼ Ð°Ð½Ð´
ĠÑģ Ð¾Ð¾ÑĢÑĥ
ĠÐ±Ð° Ð»Ð°Ð½
H T
ĠÑģÑĤÐ°Ð² ÐºÐ¸
ĠÐ»ÑİÐ± Ð²Ð¸
ĠÐ² ÑħÐ¾Ð´Ð¸ÑĤ
Ġ Ð½Ñĭ
ĠÐ´Ð¾Ð¿Ð¾Ð»Ð½Ð¸ÑĤÐµÐ»ÑĮ Ð½ÑĭÐµ
Ñģ ÐµÑĤ
ÑĢÐ°Ð½ ÑģÐ¿Ð¾ÑĢÑĤ
ĠÐ¿ÑĢÐµÐ´ Ð¿Ð¾Ñĩ
ÐµÐ½ Ñı
X X
4 00
ĠÑģÐ° ÑħÐ°ÑĢ
ĠÐ¸ÑĤ Ð¾Ð³Ðµ
ÐĽ ÐµÐ½Ð¸
ĠÑĤÐ° ÐºÑĥÑİ
Ð¶ Ð½Ð¾Ðµ
ĠÐ¿Ð¾Ð´ ÑĢÐ°Ð·Ð´Ðµ
ĠÐŁ Ð¾Ð±
ra v
3 00
ĠÐ²Ð½Ð¸Ð¼Ð° Ð½Ð¸Ñı
ĠÐĵ Ð¸
ĠÐ½Ð¸ÐºÐ° ÐºÐ¸Ñħ
10 9
a ct
ĠÐºÐ¾ÑĢÐ¿ ÑĥÑģ
Ñĥ ÑĪÐºÐ¸
ĠÐ¸Ð³ÑĢÐ¾Ð² Ð¾Ð¹
ÑĨÐ¸ Ðº
ĠÐ¾Ð± Ð¾Ð·Ð½Ð°
ĠÑģÐ° Ð¼Ð°
Ñĥ ÐºÐ¾Ð²
47 7
ĠÐ¸Ð·Ð±Ðµ Ð¶Ð°ÑĤÑĮ
ĠÐºÐ° Ð·Ð°
Ð» Ð»ÐµÐºÑĤ
ĠÐ¿ÑĢÐµ ÑĤÐµÐ½
Ð¾Ð¾ÑĤ Ð½Ð¾
93 1
ĠÑĢÐ°Ð·Ð¼Ðµ ÑīÐµÐ½Ð¸Ñı
Ð½Ð° ÑĩÐ°
ĠÐ¿Ð¾Ð´ Ð²Ðµ
ĠÑģÐ° Ð´
ĠÐ¿ÑĢÐ¾Ðµ ÐºÑĤÐ¾Ð²
ĠÐ´ Ð¾ÐºÐ°Ð·Ð°
nÐłÐµ Ð³Ð¸ÑģÑĤÑĢÐ°ÑĨÐ¸Ñı
ÐºÐ¾Ð» Ð°Ð¹
Ðĳ Ð°
E O
ĠÐ´ÐµÑĢÐµ Ð²Ð°
ĠÐ¾ÑĤÐ´Ðµ Ð»
ÐºÐ¾Ð² ÑĮ
u e
ĠÐ´Ð¸ ÑģÐ¿
ĠÑĤÐ° Ð±Ð»Ð¸
ÑĦ ÐµÑĢÐ°
ĠÑħÐ¾Ð·ÑıÐ¹ ÑģÑĤÐ²Ð°
ĠÐ¾Ð±Ñĥ ÑĩÐµÐ½Ð¸Ðµ
Ð»Ð¸ Ð·Ð¾Ð²Ð°
ĠÐĲÐ»ÐµÐº ÑģÐµ
ĠÐ´Ð° ÑĤÑĮ
47 3
nÐĺÐ½ ÑĤÐµÑĢ
ĠÐ²Ð¾Ð·Ð½Ð¸ÐºÐ° ÐµÑĤ
A DD
ĠÐ¡ ÐµÐ¹ÑĩÐ°Ñģ
ĠÐŀ Ð¼
ĠÑĢÐ°Ð±Ð¾ÑĤ Ð½Ð¸ÐºÐ¾Ð²
ĠÐ±Ð¾Ð»ÑĮ ÑĪÐ¸Ðµ
ĠÐ¼ÐµÑģÑĤÐ° Ñħ
ÑĢÐµ Ð³Ð°
ĠÐ¿ÑĢÐµÐ¿ Ð¾Ð´Ð°
ĠÐ¾ÑģÐ½Ð¾Ð² Ð½Ð¾Ð¹
ĠÐĳ Ð¾ÑĢÐ¸
Ð¾ÑĤ ÑĮ
Ðķ Ðľ
ĠÐ¿ÑĢ Ð¾Ð¹ÑĤÐ¸
ĠÑħÐ¾Ñĩ Ñĥ
Ġcook ies
eleg ram
ĠÐ´Ð¾ÐºÑĥ Ð¼ÐµÐ½ÑĤ
ĠÐ¿Ð¾Ð»ÑĮÐ·Ð¾Ð²Ð° ÑĤÑĮÑģÑı
ÐºÐ¾ Ð½ÐµÑĨ
0 27
m er
ĠÐ·Ð°ÐºÐ»ÑİÑĩÐ° ÐµÑĤÑģÑı
ĠÑģ ÑĩÐ°ÑģÑĤÑĮ
45 2
ĠÐļ ÑĢÐ¸
ĠÐºÐ¾Ñģ Ð¼ÐµÑĤÐ¸
Ð¢ Ð¡
ĠÐ°Ðº ÐºÐ°ÑĥÐ½
ĠÑģÐ»Ð¾Ð² Ð
ÐµÐ·Ñĥ Ð»ÑĮÑĤÐ°
ĠÐ¾Ð¿ Ñĭ
ĠÐ²ÑĭÐ³Ð»Ñı Ð´Ð¸ÑĤ
ĠÑģÐ»Ð¾Ð²Ð ¾
ĠÐ¢Ð° ÐºÐ¸Ð¼
ĠÐ¿Ð°Ð¼ ÑıÑĤ
n https
ĠÐŁ Ð¾Ð¿
ĠÑĥ ÑĤÐµ
ĠÑĤÑĢÐµÐ± Ð¾Ð²Ð°Ð½Ð¸Ð¹
ÑĦ Ð¾Ð²
ĠÐ¼ÐµÑĤ Ð¾Ð´Ñĭ
ĠÐ¾Ð¶Ð¸ Ð´Ð°
ÐµÐº Ñģ
ÑĨÐ¸Ð¾Ð½ Ð½Ð¾Ðµ
ĠÐ±Ð¾Ð»ÑĮÑĪÐ¸Ð½ ÑģÑĤÐ²Ð¾
ÐºÑĤÑĥ ÑĢÐ°
ĠÐ¾Ð± Ð·Ð¾ÑĢ
ĠÐº Ð¾ÑĢÐ°
18 2
ĠÐ³Ð¾ÑĢÐ¾Ð´ ÑģÐºÐ¾Ð¹
ĠÑģ Ð¾Ð¶Ð°Ð»
Ðľ Ð¾ÑģÐºÐ¾Ð²
ĠÐ½ ÑĢÐ°Ð²Ð¸ÑĤÑģÑı
Ð¡ ÑĤÐ°
ĠÐĿÐ¾Ð² ÑĭÐ¹
95 1
ĠÑĥÐ±Ðµ Ð´Ð¸
ĠÐ¼ÐµÑĤ ÑĢÐ¾
ĠÐ¼Ð» ÑĢÐ´
Ð¾Ð¿ ÑĢ
ĠÐ²ÑĭÐ¸ Ð³ÑĢÑĭ
à ¸
Ð»ÐµÐ½ Ð´Ð°
ÑĤÑĭ Ð¼Ð¸
ĠÐº ÑĢÐµÐ¼
ĠÑģ Ð²Ð°ÑĢ
ĠÐ¿Ð¾Ñĩ ÑĤÑĭ
ÑĤÐ¾Ð² ÑĭÐµ
ĠÑĥ ÐºÐ°Ð·ÑĭÐ²Ð°
ĠÐ½Ðµ Ð¼Ñĥ
nÐķ ÑīÐµ
E M
ĠÐ¿ÑĢÐ¸Ð»Ð¾Ð¶ ÐµÐ½Ð¸Ðµ
nÐĹÐ° ÐºÐ°Ð·Ð°ÑĤÑĮ
33 3
ĠÐ¾ÑĤ Ð¼ÐµÑĩÐ°
ĠÐļÐ¾Ð¼ Ð¿Ð°Ð½Ð¸Ñı
ÑģÐ¿ Ð¾ÑģÐ¾Ð±
Ð¶Ð¸ Ð¼Ð°
ĠÑģ Ð°Ð»
ĠÐ²Ð¾Ð·ÑĢÐ° ÑģÑĤÐµ
ĠÐ¸ Ð½Ð°ÑĩÐµ
43 3
nÐļ Ð°ÑĤÐ°
E G
ny e
nÐł ÑĥÐ±
ÑĢÐ¾Ð² ÐµÑĢ
98 94
ĠÐºÐ°Ð¶Ð´ Ð¾Ð¼
ÑģÐº Ð»Ñİ
18 8
Ñħ Ð³Ð°Ð»
Ð¼ ÑĭÐµ
ĠÐ²ÐµÑĢ ÑĤÐ¸ÐºÐ°
âĢĶ âĢĶ
ĠÐ¸Ð½ Ð²Ð°Ð»Ð¸
ĠÐ¿ÑĥÐ½ ÐºÑĤÐ°
ĠÑįÐ»Ðµ Ð¼ÐµÐ½ÑĤÐ°
O P
ĠÐ¾ÑģÑĤÐ° Ð²Ð¸ÑĤÑĮ
x y
ĠðŁ ĩ
as s
ĠÐ¼Ð¾Ð» Ð¾Ð´Ðµ
Ġy ou
ĠÐ¿ÑĢÐ¾Ð´Ð¾Ð» Ð¶Ð¸
ĠÑģÐ² ÐµÑĤÐ¸
ĠÐ¿ Ð¾Ð»ÑĮ
ĠÑģÐ¾Ð» Ð½Ðµ
Ð´ÐµÐ»Ð¸ ÑĤÑĮ
ÑģÐµ Ð»
ÐĹ Ðĺ
or y
ÑĢÐ° Ð²Ð°
R A
Ñĩ ÐµÐ½Ð¸
ĠÐ¿ÑĢÐ¾Ð¸Ð·Ð²Ð¾Ð´Ð¸ ÑĤÐµÐ»Ñı
ĠÑģÐµÐº ÑĢÐµ
ĠÐ´Ðµ Ð»
ĠÐ·Ð°ÑĢÐ° Ð½ÐµÐµ
ĠÑģÐ¾Ð³Ð»Ð° ÑģÐ¸Ñı
l d
Ġ ÑĢÐ¾Ð²
ĠÐ½Ð° Ð¶Ð¼Ð¸ÑĤÐµ
ĠÐ³ÑĢÐ° Ð¼Ð¾ÑĤ
ĠÐ³ÑĢ Ð½
ĠÐ¼Ð¸Ð½Ð¸ Ð¼ÑĥÐ¼
ÑģÐ¿ Ð¸
ĠÑģ ÑĩÐµÑĤÐ°
ra z
ĠÑĢÐ°ÑģÑģ Ð¼Ð¾ÑĤ
ĠÐ·Ð°Ð´Ð° ÑĩÐ¸
C H
ĠÐ¸ ÑģÑĤÐ¸
90 1
ĠÑĢÐ°Ð´Ð¸ Ð°
ĠÐ¾ÑĤÐ´Ðµ Ð»ÑĮÐ½ÑĭÑħ
Ð»Ñİ Ð´Ð°ÑĤÑĮ
ĠÐ·Ð°ÐºÐ¾Ð½ Ð¾Ð¼
44 3
ĠÐ²Ð°Ð» ÑİÑĤ
ĠÐ²Ð·Ð³Ð»Ñı Ð´
ĠÐ¼Ñĥ Ð»ÑĮÑĤÐ¸
98 93
ĠÐ³Ð¾ÑģÑĥÐ´Ð°ÑĢÑģÑĤÐ²ÐµÐ½ Ð½Ð¾Ð³Ð¾
ÐĽ Ð¸
ĠÐ·Ð° ÑĢ
U M
ay s
ĠÐĺ Ð¼
ĠÐĲ Ð¼ÐµÑĢÐ¸
Ġ Ð»Ð¾Ðº
nÐŁ ÑĢÐ¾Ð´
ĠÑģ Ð±
ĠÑģÐ° Ð´Ð¾Ð²
ĠÐŁÐ¾Ð»ÑĮÐ·Ð¾Ð²Ð° ÑĤÐµÐ»ÑĮ
ĠÐ½Ð° ÑģÑĭ
ĠÐºÐ²Ð°ÑĢÑĤÐ¸ ÑĢÑĥ
ĠÑģ Ð¾Ðº
14 8
ĠÐ²ÑĭÐ¿Ñĥ ÑģÐº
Ð·Ð¸ ÑĢÐ¾Ð²Ð°ÑĤÑĮ
ĠÐ±Ñĭ ÑģÑĤÑĢÐµÐµ
Ð¿Ð° Ð·
ĠÑģÑĤÑĢÐ° Ð½Ð¸ÑĨÑĥ
4 03
ÐºÐ° Ðº
ÑĥÐ´ Ð¾Ð²Ð°Ð½Ð¸Ðµ
ĠÐ¸Ð·Ð³Ð¾ÑĤÐ¾Ð² Ð»ÐµÐ½Ð¸Ñı
ĠÑĦÐ°Ð¹ Ð»Ñĭ
ÑĪ ÐºÐ¾Ð¹
2 96
ĠÐ¿Ð° ÑģÑģÐ°
ĠÐºÐ¾Ð¼ Ñĥ
ĠÑĪ Ð°Ð½
ĠÐ¾ÑĤ Ð´ÐµÐ»Ð°
ĠÐľ ÐµÐ´Ð¸
Ðº ÑĢÑĥ
Ñį ÑĢ
ĠÐ¼Ñĭ ÑģÐ»Ð¸
20 28
ĠÐ¾Ð±ÐµÑģÐ¿Ðµ ÑĩÐ¸ÑĤÑĮ
Ñģ ÐµÐ¹
ĠÐ¿ÑĢÐ¸ÑĩÐ¸ Ð½
ÐĿ Ð¡
ĠÐ¥ Ð¾ÑĤÑı
Ð» Ð¾ÑĢÐ¸
ĠÑĥÑĩ ÐµÑĤÐ°
ĠÐĶÐ¼Ð¸ÑĤÑĢÐ¸ Ð¹
14 1
] .
Ð· Ð¼Ðµ
Ñģ Ð°Ð¼
it s
ĠÑĥ ÑģÐ¿
ĠÐ°Ð» Ð»ÐµÑĢ
Ð¿Ð¸ Ð½
ĠÐ½Ñĥ Ð¶ÐµÐ½
i sh
97 35
Ð´Ð¸ Ð´Ð°
Ð´Ð° Ñħ
65 7
ĠÑģÐºÐ¸ Ð´
ĠÑĢÐµÐºÐ»Ð° Ð¼Ñĭ
ĠÐ¼Ð½ ÐµÐ½Ð¸Ðµ
ÐµÐº Ðµ
Ð¾ÑģÑĤ Ð¾Ð¹
Ð»ÐµÐ½ Ð½Ð¾Ðµ
ĠÐ§Ðµ Ð»ÑıÐ±Ð¸Ð½
Ð²Ð° Ñİ
ĠÐ»Ð¸ Ð´ÐµÑĢ
Ġ ÐµÐ¼
ÐµÐ½ÑĮ Ðµ
ĠÐ¶Ðµ Ð»Ñĥ
ĠÐ·Ð½Ð° Ð½Ð¸Ñı
- \
ĠÐ£ Ð¿ÑĢÐ°Ð²Ð»ÐµÐ½Ð¸Ðµ
ĠÐ¢ Ñİ
ĠÐ¼Ð¾Ð¸ Ñħ
ÑĢÐ° ÑĨÐ¸Ñı
20 9
ĠÐºÐ¾ ÑĦÐµ
ĠÑģÐ¾Ð² ÐµÑĤÑĭ
Ġ :\
ĠÐ¾Ð´Ðµ Ð¶Ð´Ñĭ
Ð»Ð¾Ð¶ Ð¸ÑĤÑĮ
Ð¼ ÑĭÑħ
86 8
ÐµÐ² Ð¾Ð¹
ĠÐĲ Ðŀ
ĠÑģ Ð¾Ð·Ð½Ð°
ĠÐ»ÑİÐ±Ð¾Ð² ÑĮ
ÐµÐ½ Ð½Ð¾ÑģÑĤÑĮ
b r
ĠÐ¾Ð± Ð¾Ð¸
ĠÐ¿ÑĢÐ¾Ð¼ÑĭÑĪÐ»ÐµÐ½ Ð½Ð¾ÑģÑĤÐ¸
Ð³Ð¸ Ñİ
ĠÐĵ Ñĥ
ĠÐ°Ð½Ð³ Ð»Ð¸Ð¹
ĠÐ¶ÐµÐ½ÑīÐ¸ Ð½Ð°
ĠÑĢÐ°ÑģÑģ Ñĭ
Ð¾Ð»Ð¾Ð³Ð¸ ÑĩÐµÑģÐºÐ¸Ðµ
Ð¾ÑģÑĤÐ¾Ð² ÐµÑĢ
ÑĤÐ¾ÑĢÐ¸ Ð¸
ĠÐ¾ÑĤÐ»Ð¸ÑĩÐ¸ Ðµ
ĠÐ¿Ð¾Ð´ ÑĩÐµÑĢ
ĠÐ¿Ð¾Ð» Ð½Ð¾Ð¹
ĠÐ² ÑģÐº
ĠÑģÑĤÑĢÐ¾Ð¸ÑĤÐµÐ»ÑĮ ÑģÑĤÐ²Ð¾
ĠÐ¿ ÐµÑĤ
ĠÑı Ð¹
ÐµÐ½ ÑģÐ°
ĠÐļ Ðŀ
ĠÑģ ÐºÐ°Ð·
Ð¼ ÑĥÑĢ
ĠÐ± Ð¾Ð»Ð¸
ĠÑĤÐµÑħÐ½Ð¸ ÑĩÐµÑģÐºÐ¸Ðµ
nÐĴÐ¸ Ð´ÐµÐ¾
ĠÐĺ ÑĤÐ°
99 08
ĠÐ¡ Ð²Ñı
nÐ¡ ÑĤÐ¾Ð¸Ð¼Ð¾ÑģÑĤÑĮ
Ð¾ÑĢ ÑıÐ´
ÐºÑĢÑĭ ÑĤÑĮ
ĠÐ¾Ð± ÑīÐµÐ¹
ĠÐ´Ð¸ Ñģ
ĠÐ¾Ñģ Ð½Ð¾Ð²Ð°Ð½Ð¸Ñı
ÑĢÐ° Ð²Ðµ
ĠÐ° ÐºÐ°Ð´ÐµÐ¼Ð¸
18 0
ĠÑģÐ¼Ðµ ÑģÐ¸
ĠÐºÐ°ÑĢ ÑĤÑĥ
ĠÐ² Ð¾ÑĢ
ĠÐ²ÑĭÑĢÐ° ÑīÐ¸
ĠS amsung
ÑīÐ¸Ðµ ÑģÑı
ÐµÐ½ ÐºÐ¾
n K
ĠÑĥÐ»Ð¸ ÑĨÐµ
98 46
ĠÐ¸ Ð´ÐµÐ½
ĠÑģÑĥÐ± ÑĬÐµ
ÑĩÐ¸ ÑĤÐµ
Ġ Ð¾ÑĦÐµÑĢ
ĠÑĥÑģÑĤÐ°Ð½Ð¾Ð² ÐºÐ°
.... ....
S D
ĠÐ± ÑĢÐ°ÑĤÑĮ
ĠÐĶÐ° Ð¶Ðµ
ĠÐ´ Ð¾Ð±Ñĭ
Ð¾Ðµ Ð´Ð¸Ð½
ĠÐ± ÐµÐ»ÑĮ
Ð½Ð¾Ð² ÑĮ
Ð·Ð¸ Ð²
ĠÐ´ ÐµÐ¼Ð¾Ð½
Ñĩ Ð½Ð¸ÐºÐ°
ĠÐ¿ÐµÑĢÐµÐ´Ð° ÑĩÐ¸
ĠÑĤÐ° ÑĢÐ¸ÑĦ
Ġ ÑĢÐ¾
995 0
ĠÑħÐ¸ ÑĢÑĥÑĢ
ĠÐ½Ð°ÑģÑĤÑĢÐ¾Ð¹ ÐºÐ¸
Ð¶Ðµ Ðº
ĠÐ±Ð¾Ð»ÑĮ ÑĪÐ¸Ñħ
Ðĵ ÐĲ
68 2
ĠÐ¾Ð±ÑĬ ÑıÐ²
ĠÐºÐ¾ÑĢÐ¿ Ð¾ÑĢÐ°
ĠÐ³Ð¾Ð´ Ð¾Ð²
Ð¾Ð³ÑĢÐ°ÑĦÐ¸ Ð¸
ĠÐ½Ñĥ Ð¶Ð´Ð°
ĠÐ¡Ð ¾
Ðº Ð²Ð°
ĠÐ¾Ð±ÑģÐ»ÑĥÐ¶Ð¸ Ð²Ð°Ð½Ð¸Ñı
14 2
ĠÐ»Ð¸ ÑģÑĤ
Ð¶Ð´Ð° Ñı
ĠÐ½Ð°Ð¿ Ð¾Ð¼Ð¸Ð½Ð°
ĠÑĤÐµÐ¿ Ð»Ð¾
Ð² Ð¾ÐºÐ°
ĠÑģÐµÑĢ Ð´ÑĨÐ°
ĠÑģÐ°Ð¹ ÑĤÐ¾Ð²
ĠÐºÐ¾Ð½ ÑĨÐµÐ½ÑĤ
88 0
Ð³Ð° Ñħ
ÑģÑĤÐ° Ð¼Ð¸
Ð¾Ðº ÑĥÐ¿
ÐĴ Ðķ
ĠÐĶ ÑĥÐ¼Ð°
ÑĢÐ¾Ð²Ð° Ñı
ÑĤÐ¸ÐºÑĥ Ð»
Ð»Ð¾Ð² Ð
Ð»Ð¸ Ð·Ð°ÑĨÐ¸Ð¸
Ð»Ð¾Ð²Ð ¾
I A
Ð¢ ÐŁ
ĠÐ³ Ð³
Ðº Ð¾Ñģ
Ð² ÑĪÐµÐ³Ð¾
ĠÐº Ð¾Ð¿
ĠÐ¿ÑĢÐ¾Ð²Ð¾Ð´Ð¸ ÑĤÑģÑı
ĠÑĤÐµÐ»Ðµ Ð²Ð¸
20 09
ĠÐ¿Ð¾Ð´ ÐµÐ»Ð¸
I R
ro m
Ð¼ ÑĥÑİ
ĠÐ´ ÑĭÑħÐ°
97 93
ion s
Ð° ÑĢÐ¸
ĠÐ´Ð°Ð»ÑĮÐ½ÐµÐ¹ ÑĪÐµÐ¼
ĠÑįÐº ÑģÐºÑĥÑĢ
Ñİ Ð¹
nÐŁ Ð¾Ñħ
ĠÑĤÐµ Ð°ÑĤ
Ðĳ Ð£
ĠÐ½ÑĥÐ¶ Ð½Ð°
Ñĩ Ð½Ð¾ÑģÑĤÐ¸
Ġ ma
ĠÐĲ Ð±
t i
ĠÐ¿Ð¾ÑģÑĤ ÐµÐ¿
ÐºÐ¾Ð½Ð¾Ð¼Ð¸ ÐºÐ°
ĠÐ¿Ð¾ÑģÑĤ ÑĥÐ¿Ð°
ĠÐ¡ Ð²ÐµÑĢÐ´Ð»Ð¾Ð²
ĠÐ»Ð° Ð±Ð¾ÑĢÐ°
ĠÐĵÐµÑĢÐ¼Ð° Ð½Ð¸Ð¸
Ð°Ð½ ÑĮ
Ñĩ Ñĳ
Ð¾Ð¿ ÑĢÐ¾Ð²
ÑĩÐµÐ½ ÐºÐ¾
in dex
ÑĤÐµ ÑħÐ½Ð¸
8 10
nÐļÐ¾Ð¼ Ð¿
ĠÐĴ Ð¾Ñģ
ĠÐ·Ð°Ð´Ð° ÑĩÐ°
20 06
ÑĪ ÐµÐ¼Ñĥ
Ñģ Ð¼Ð¾ÑĤÑĢÑı
ÑĪÐµÐ½ Ð
ÑĪÐµÐ½Ð ¾
99 03
ĠÐ´ ÑĢÐµÐ²Ðµ
Ð¾Ð½ÑĤÐ° Ð¶
98 77
ÑİÐº Ð·Ð°
ĠÐ¸Ð½ÑģÑĤÑĢÑĥ Ð¼ÐµÐ½ÑĤ
ÑıÐ± ÑĢÐµ
ĠÐ¿ Ð¾Ð¹
Ð¡ Ðļ
r ess
ĠÐ¾ÑĢÐ¸ ÐµÐ½ÑĤÐ¸
om e
ĠÐºÐ° Ð¼ÐµÐ½
Ð³Ð¾Ð´ Ð½Ð¾
ĠÑģÐ¾Ð²ÑĢÐµÐ¼ÐµÐ½ Ð½ÑĭÑħ
ĠÑģÐ¾Ð±Ñĭ ÑĤÐ¸Ð¹
ĠÐ¡ Ñĭ
u x
Ð´Ð° Ð»ÐµÐµ
Ð±Ñĭ ÑĩÐ½Ð¾
ÑĢÐ¾Ð²Ð°Ð½ Ð½Ð¾Ð³Ð¾
ĠÐ¿Ð¾Ñģ Ð¾Ð±Ð¸
ÑģÑĤÐµÐ¼ Ñĭ
ĠÐ³Ð° Ð·Ð°
Ġ3 3
ĠÑĢÐ°Ð·Ð½ Ð¾Ð¾Ð±ÑĢÐ°Ð·
ÑĢÐ¾Ð²Ð°Ð½ Ð½Ð¾Ð¹
ĠÐ¿ÑĢÐµÐ´ÑģÑĤÐ°Ð² Ð»ÐµÐ½Ñĭ
ÑīÐ¸ ÑĤÐ°
ĠÐºÐ°ÑĤÐ° Ð»Ð¾Ð³
ĠÐ¼Ð¾Ð´Ðµ Ð»ÐµÐ¹
ĠÐ´Ð° Ð»ÐµÐºÐ¾
Ð¿Ðµ Ð»ÑĮ
ÐĴ ÑģÐµ
nÐĶ Ð°ÑĤÐ°
Ð½Ñĥ Ð»ÑģÑı
ĠÑģÐ¾Ð³Ð»Ð° ÑĪÐ°
ĠÐ½Ðµ Ð¸ÑģÐ¿
Ðµ ÑģÐ»Ð¸
ĠÐ¢ Ð¾Ð³Ð´Ð°
ĠÐ¸ÑģÐ¿Ð¾Ð» Ð½Ð¸ÑĤÐµÐ»ÑĮ
ĠÐ¿Ð°ÑĨÐ¸ ÐµÐ½ÑĤÐ¾Ð²
ĠiP hone
Ðļ Ð¸
ĠÐ·Ð´ÑĢÐ°Ð²Ð¾Ð¾Ñħ ÑĢÐ°Ð½ÐµÐ½Ð¸Ñı
o c
Ð²Ð¾ ÑĢÐµ
ĠÐ· Ð´Ð°
Ð²ÐµÑĢ Ñħ
ĠÐ°Ð² ÑĤÐ¾ÑĢÐ°
ĠÐ²Ð¾Ð·Ð´Ñĥ Ñħ
Ñį ÑĤ
ĠÑħ Ñĥ
ĠÑģÐ¾Ð¶Ð°Ð» ÐµÐ½Ð¸Ñİ
ĠÑģÐ»ÑĥÐ¶ Ð±Ð°
ÐµÑĤ ÑĢÐ¾Ð²
ĠÐ¿Ð»Ð¾ÑīÐ° Ð´Ð¸
ĠÑģ Ð»Ð°Ð´
08 9
BE C
ĠÑģÐµÑĢ Ð´Ðµ
Ñį Ð¹
ĠÐºÐ°ÑĢ ÑĤÐ¸
ĠÐ¾Ð±ÑĬÐµÐº ÑĤÐ°
ĠÐ¿Ð°ÑģÑģÐ° Ð¶Ð¸
ĠÐ¸ Ð½Ð¸ÑĨÐ¸
ĠÑģÑĤÐ° Ð±Ð¸
ĠÐ½Ð¾Ð² Ð¾Ðµ
Ð»Ð¾ ÑīÐ°
Ñĩ Ð¾Ðº
Ñĩ Ð½ÑĭÐ¼Ð¸
8 28
ÑģÑĤÑĢÑĥ ÐºÑĨÐ¸Ñı
ĠÐ±ÐµÐ·Ð¾Ð¿Ð°Ñģ Ð½Ð¾ÑģÑĤÑĮ
ĠÑģÐ¾Ñħ ÑĢÐ°Ð½
Ð»ÑĮ Ð½Ð¾ÑģÑĤÐ¸
Ð¾Ð»Ðµ Ð²
ĠÐ¿Ð¾ÑĤÑĢÐµÐ± ÑĥÐµÑĤÑģÑı
ÑĤÐµÐ½ ÑģÐ¸Ð²
er e
ĠÐ°ÐºÑĤÐ¸Ð² Ð½Ð¾
ĠÑĢÐ°Ð·Ð¼ÐµÑĢ Ñĭ
Ð±Ð¸ÑĤ ÑĢÐ°Ð¶
ÑģÐ»Ð¾Ð²Ð¸ Ñı
ĠÐ¿ÑĢÐµÐ¿Ð°ÑĢÐ° ÑĤÑĭ
ĠÑıÐ·Ñĭ ÐºÐµ
ĠÐĲ Ð»ÐµÐºÑģÐµÐ¹
ĠÐ¿ÑĢÐ¸ Ð²Ð¾Ð´
ÐµÐ· Ð´Ðµ
ÐºÐ¾Ð² ÑģÐºÐ°Ñı
wit ter
ÑģÐ¸ Ð½
ĠÑĥ ÑģÐº
ĠÐºÐ¾ÑĤÐ¾ÑĢ Ð¾Ð¼Ñĥ
ĠÐ¿Ð¾Ð»ÑĮÐ·Ð¾Ð²Ð° ÑĤÐµÐ»Ð¸
ĠÐ¿Ð°ÑĨÐ¸ ÐµÐ½ÑĤÐ°
ĠÑĢÐµÐºÐ¾Ð¼ÐµÐ½Ð´Ð° ÑĨÐ¸Ð¸
ĠÑģÐ² ÐµÑĢ
Ð¼Ðµ ÑĢÐ°
ĠÐ½Ðµ Ñĥ
ÐºÐ¾Ð² Ð¾Ð³Ð¾
ĠÑģÑĥÐ± ÑĬÐµÐº
98 56
ĠÐ¾Ð¿ Ñĥ
ĠÐ¾ÑģÑĤ ÑĢÐ¾Ð²
ĠÑħÐ¾Ñĩ ÐµÑĤÑģÑı
ĠÐļÑĢÐ°ÑģÐ½Ð¾ ÑıÑĢ
ÑĤÐ¾ ÑģÑĤÐ¸
Ð´Ð¸ Ð½Ð³
P R
ĠÐ¥ Ð¾ÑĢÐ¾
ĠÐ¿ÑĢÐ¸Ð¼ÐµÑĢ Ñĥ
nÐŁ Ð¾ÐºÐ°Ð·Ð°ÑĤÑĮ
ĠÑĦÐ¸Ð»ÑĮ Ð¼Ñĭ
ĠÐ¼Ñĭ Ñģ
ĠÑģÐ» Ð¾Ð¹
ĠÑģÐµÑĢÐ´ ÑĨÐµ
ĠÐ¾ÑĤ Ð¿Ñĥ
ĠÑģÐµ Ð²ÐµÑĢ
ÑĤÐµÐ»ÑĮ Ð½Ð¾Ð¼
Ð¾Ð¾Ð ¿
ĠÐ¿Ð»Ð¾ÑīÐ° Ð´ÑĮ
n s
ĠÐ¿Ð¾Ð½Ð°Ð´ Ð¾Ð±Ð¸
Ð³ÑĢÑĥÐ· ÐºÐ°
ĠÑĦ Ð°Ð½ÑĤÐ°
Ð§ Ðµ
ÑĩÐ° ÐµÑĤÑģÑı
ĠÐļÐ¸ ÑĢÐ¾Ð²
Ð¾ÑĤ Ð¾Ð¹
ÑĨÐµÐ½ ÐºÐ°
ĠÐ¼Ð° Ð¹
98 55
i x
ĠÐ° ÑĢÐ¾Ð¼
ĠÐ¿ÑĢÐ¾ ÑĦ
ĠÐ· Ð¾Ð»Ð¾ÑĤ
as ino
ĠÐ¾Ð±ÑģÐ»ÑĥÐ¶Ð¸ Ð²Ð°Ð½Ð¸Ðµ
ĠÑĥÑģÑĤÐ°Ð½Ð¾Ð² Ð»ÐµÐ½
ÑĩÐ¸ Ð²Ð°ÑĤÑĮ
ĠÐ±Ð°Ð½ ÐºÐ°
Ð°Ð² Ð»Ð¸
Ð¾ÑĨÐ¸ Ð°
Ð¼ÐµÐ½ Ñı
ĠÑĢÐµÐ¹ÑĤÐ¸ Ð½Ð³
ÑĦ ÐµÐ´
ĠÐ²Ð¸ Ð·Ñĥ
ĠÑģÐ¾Ð± Ð°Ðº
ĠÐ¿Ð¾Ð³Ð¸ Ð±
ĠÐ¸Ð½ÑĤÐµÑĢ Ð½ÐµÑĤÐµ
ĠÑĢÐµÐ· ÑİÐ¼Ðµ
ÑĢÐ° ÑģÑĤÑĢÑĥ
ĠÐ¿ÑĢÐ¾ÑĤÐ¸Ð² Ð¾Ð¿
Ð²Ð¸ ÑĤÑĮÑģÑı
Ð¶ Ð½ÑĭÐ¼
ĠÐ¿ Ð»Ñı
ĠÐľ Ð½Ðµ
66 5
ĠÐ·Ð½Ð° ÐµÑĤ
ĠÑĩ Ð¸ÑĤÐ°ÑĤÑĮ
22 9
ĠÐ±Ð° ÑģÑģÐµÐ¹
ĠÐĲ ÑĦ
ĠÐ¡Ð¾Ð² ÐµÑĤÐ°
Ð¾Ñĩ ÐµÐ¼
95 9
art ic
ĠÐ¾ÑĤÑģÑĥÑĤ ÑģÑĤÐ²Ð¸Ðµ
ĠÐ± ÑĢÐ¾Ñģ
Ðľ Ñĭ
ĠÐ¿ÑĢÐµ Ð·
Ð¾Ð¼Ð¸ Ð¼Ð¾
Ġ Ñī
ĠÑģÐ¼ Ð¾Ð³ÑĥÑĤ
ÐĹ ÐĲ
Ġv ar
ĠÐ½Ð°Ñĥ Ðº
ĠÐº Ð²Ð°Ð´
ÐĴ Ð¡
ĠS h
ĠÐļ Ð¾ÑģÑĤ
ĠÐķÐ²ÑĢÐ¾Ð¿ Ñĭ
im e
ĠÐ¼ÑĥÐ¶ ÑĩÐ¸Ð½Ð°
nÐŃ ÑĤÐ¾ÑĤ
ĠÐ¤ÐµÐ´ÐµÑĢÐ°Ð»ÑĮ Ð½Ð¾Ð¹
ĠÑĢÐ°Ð·Ð¼ ÐµÑĢÐµ
ĠÐ¿Ð¸ ÑĪÐµÑĤ
11 9
nÐ¡ Ðº
nÐĴ Ð¾Ð¿ÑĢÐ¾Ñģ
ĠÐ·Ð° ÐºÐ¾
n Ð½Ðµ
Ð»Ð° Ðº
Ġy our
ĠÐ¿Ð¾Ð² Ð¾Ð´Ñĥ
il e
ĠÐ¸Ð³ÑĢÐ¾Ð² ÑĭÑħ
ĠÐ´Ð¸ Ð¿Ð»Ð¾Ð¼
ĠÐ¿Ð¾Ð»ÑĥÑĩÐ° ÐµÑĤÑģÑı
ÐĴ ÑĤ
ĠÑĤ Ñİ
ĠÐ¼ÐµÑħÐ°Ð½Ð¸ Ð·Ð¼
ÐŃ Ðļ
ĠÑĥÐ½Ð¸ÑĩÑĤ Ð¾Ð¶
la nd
-------- --------
Ġ an
ĠÑĢÐµÐ·ÑĥÐ»ÑĮÑĤÐ° ÑĤÐ¾Ð²
Ġ8 00
Ġ 43
Ð»Ñı Ñı
ĠÐ¿Ð¸ÑĤÐ° Ð½Ð¸Ðµ
ic a
ÑĤÐ¸ Ð¼
ÑīÐµÐ½ Ð½ÑĭÐµ
ĠÐ·Ð°ÑıÐ² Ð»ÐµÐ½Ð¸Ðµ
ÑģÐ°Ð¹ ÑĤ
Ð´ Ð¾Ð²Ð°
Ð»Ð¸ Ð²Ð¾
nÐ¡ Ð»ÐµÐ´Ñĥ
17 8
14 76
ĠÐ²Ð·ÑĢÐ¾Ñģ Ð»ÑĭÑħ
ĠÐ¿ÑĢÐ¾Ð¸Ð·Ð²Ð¾Ð´Ð¸ ÑĤÐµÐ»ÐµÐ¹
ĠÐ°Ðº ÑĤÐ¸Ð²Ð¸
ĠÑĢÐµÐ· ÐµÑĢ
ÑĤÐµ ÑĢÐµ
ÐºÐ° Ð½Ð°
ĠÐ·Ð° Ð¸Ð½ÑĤÐµÑĢÐµÑģ
ĠÐ²Ð¾Ð·ÑĢÐ° ÑģÑĤ
dl ya
Ġ Ð»Ð¾Ð²
ĠÐ² Ð½Ð¾Ð²ÑĮ
ÑĢ Ð½Ð¾Ð¹
nÐŁ Ð¾Ð¼
ĠÑģÑĥÐ´ ÑĮ
ÐºÐ¾Ð² Ð¸
0 13
Ð± ÐµÑĤ
ÐºÐ¸ Ñı
a pp
Ñģ Ð½ÑĭÐ¹
nÐŁÐ¾Ð´ Ð¿Ð¸
ĠÐ¿ÑĢÐ¸Ð¼ÐµÐ½ ÐµÐ½Ð¸Ðµ
00 2
ĠÐ¾Ð±Ð½Ð° ÑĢÑĥ
16 1
ĠÑģÐ¿ Ð¾ÑģÐ¾Ð±Ñĭ
ĠÑĦ ÐµÑĢ
ĠÐ½Ð° ÐºÐ°
34 8
nÐĽ ÑĥÑĩ
ĠÐŁÐµ ÑĢÐµÐ´
ÐĿÐ« ÐĻ
Ð´ Ð¾Ð±
ĠÐ¿ÑĢÐµÐ´Ð¾ÑģÑĤÐ°Ð² Ð»ÐµÐ½Ð¸Ñı
12 1
ÑĥÐ´ Ð¾Ð²
Ð°ÑĢ Ðº
ĠÐ± Ð»Ð¾Ð³
Ð»Ðµ Ð³Ð°
ĠÑĥ ÐºÑĢÐµÐ¿
ĠÐ± Ð¾Ð¹
ĠÐĺ ÑĢÐºÑĥÑĤ
ĠÑĢ Ð¾Ð´Ð°
nÐļ Ð°ÑĢÑĤÐ°
ĠÐ² ÑĢÑĥ
Ð¼ÐµÐ½ ÑĤÐ¾Ð¼
nÐĳ Ð¾Ð»ÑĮ
ĠÐ¿Ð¾Ñģ ÐµÐ»
ĠÐ¶Ð¸Ð´ ÐºÐ¾ÑģÑĤÐ¸
ĠÑĥÑģÐ¿ÐµÑĪ Ð½Ð¾
Ð» Ð¾ÑĢ
ĠÑģ Ð¾Ð½
ĠÐ¸Ð¼Ðµ ÐµÑĤÑģÑı
ĠÐ° ÐºÑĤ
ĠÑĩÐ°ÑģÑĤÑĮ Ñİ
ĠÐ¸ÑģÐ¿Ð¾Ð»ÑĮÐ·Ñĥ ÐµÑĤ
ĠÑĩ ÐµÐ¼Ñĥ
ĠÐļ ÑĥÐ·
998 84
ĠÐ±Ð¾Ð»ÑĮ ÑĪÐ°Ñı
Ð¾Ð¿ ÐµÑĢÐ°
ĠÑĦÐ¸Ð»ÑĮ Ð¼
ĠÐ²Ð°Ð½ Ð½Ð¾Ð¹
ĠÐ½Ð°ÑģÑĤÐ¾Ñı ÑīÐµÐ³Ð¾
nÐĶ ÐµÑĤ
ÐºÑĤÐ¸ ÑĢÐ¾Ð²Ð°ÑĤÑĮ
ĠÑģÑĥ ÑģÑĤÐ°Ð²
26 9
ĠÐ·Ð°ÑīÐ¸ ÑĤÐµ
Ð¶Ð¸ Ð²Ð°ÑĤÑĮ
ĠÐ¿ÑĢÐ¸ Ð±Ð»Ð¸
ĠÑĢÐµ ÑĪÐµÐ½Ð¸Ð¹
ĠÐ²Ñĭ Ð±Ð¾ÑĢÐµ
ĠÐļÑĢÑĭ Ð¼
Ġ| --
Ð¶Ð° Ð»Ð¸
CE B
Ð½Ð¾Ð² ÑĭÐµ
re d
ĠÐ²Ðµ ÑģÐµ
Ð°ÑĢ Ð´
ĠÐłÐ¾ÑģÑģÐ¸ Ð¹
ĠÑįÐºÐ¾Ð½Ð¾Ð¼Ð¸ ÐºÐ¸
ĠÑĤÑĢÑĥ Ð±Ñĭ
\": \"
ĠÐ·Ð½Ð° Ð¼ÐµÐ½Ð¸
ĠÐ¶Ð¸Ð»Ð¸ Ñī
ĠÐ²Ð½ÐµÑģ ÐµÐ½Ð¸Ð¸
ĠÑģÐ¾Ð¾Ð±ÑīÐ¸ Ð»
ĠÑģÑĤÑĢÐ° Ð½Ð°Ñħ
ÑģÑĤÑĢÐ¾Ð¹ ÑģÑĤÐ²Ð°
ĠÐ³ Ð¾ÑĢÐ¸Ð·
t r
ÑĪ Ð°Ð½
ĠÐ¸Ð½ÑĤÐµÑĢ ÑĮÐµÑĢ
14 0
ĠÑħ Ð¾Ð·Ñı
ĠÐºÐ° Ð±Ðµ
ĠÐĿÐ¾Ð² Ð³Ð¾ÑĢÐ¾Ð´
ĠÐļÑĥ Ð¿Ð¸ÑĤÑĮ
nÐ¡ Ð¾Ð³Ð»Ð°
ĠÑĤÐµ Ð¼Ð°
ĠÐŀ ÑĤÐµ
Ð¾Ð»ÑĮ ÑģÐºÐ¸Ð¹
o de
ĠÐ¼ Ð¾ÑĤ
ĠÐ´ÐµÑĤ ÑıÐ¼
ĠÐ¼Ð°Ð³Ð°Ð·Ð¸ Ð½Ð°
ĠÐ½Ð°ÑĩÐ¸Ð½Ð° ÐµÑĤÑģÑı
nÐŁ ÑĢÐ¾Ñģ
ĠÑģÐ¿ÐµÑĨÐ¸Ð°Ð»ÑĮ Ð½ÑĭÐµ
ĠÑģÐµÐº Ñģ
ĠÑį ÑĦÐ¸
ĠÑĥÑģÑĤÑĢÐ¾Ð¹ ÑģÑĤÐ²
ĠÐ¼Ð¾ ÑĪÐµÐ½
ĠÑģÑĤÑĢÐµ Ð¼Ð¸
ĠÑģÐ»ÐµÐ´Ñĥ ÑİÑīÐ¸Ð¹
Ð»Ðµ ÑĢÐ°
Ð±Ð° ÑĢÐ¸
ÐĿ Ðķ
ĠÑģÐ¾Ð³Ð»Ð° ÑĪÐµÐ½Ð¸Ðµ
ĠÑĢÐ°Ð·Ð²Ð¸ ÑĤÐ¸Ñİ
ĠÐ»Ð¸ Ð½ÐµÐ¹
ĠÐ·Ð° ÑħÐ²Ð°
ĠÑģÑĥÐ¿ ÐµÑĢ
ĠÑģ Ð¾Ð»Ð¸
t s
ÐµÐº ÑģÐ°
ĠÐ¿Ð¾Ð» Ð¾Ð²
Ð¼Ñĥ Ð»Ð¸
ĠÐ²Ð¾Ð· Ð±Ñĥ
ĠÑħ Ð¾Ð´Ð¸
00 8
ĠÐ´Ð°Ð² Ð»ÐµÐ½Ð¸Ðµ
ĠÐĶÐµÐ¿ Ð°ÑĢÑĤÐ°
ĠÐ¸ÑģÑģÐ»ÐµÐ´ Ð¾Ð²Ð°Ð½Ð¸Ð¹
ĠÐ¿ÑĢÐ¾Ðµ ÐºÑĤÑĭ
Ð²Ð° ÑİÑīÐ¸Ñħ
Ġ20 06
E BE
ĠÐ¾Ð± ÑīÐµÐ¼
ĠÐ£ÐºÑĢÐ° Ð¸Ð½Ð°
16 8
84 8
ĠÐºÐ¾Ð¼Ð¿ Ð¾Ð·Ð¸
87 2
ĠÐ²Ðµ Ð»Ð¾Ñģ
ĠÐ³ÑĢÐ°Ð´Ñĥ ÑģÐ¾Ð²
âĢ¦ âĢ¦
Ð½Ð¾ ÑģÐ¸ÑĤÑĮ
ĠÐ± Ð¾Ð½Ñĥ
m ed
e ch
ĠÐ½Ð°Ð·Ð½Ð° ÑĩÐµÐ½Ð¸Ñı
ĠÐ²Ð¿ ÑĢÐ°Ð²Ðµ
ĠÐĴ ÑĥÐ»ÐºÐ°Ð½
ĠÐļ Ð½Ð¸
ÑĩÐ¸ Ð¼
ĠÐ±Ð¾Ð»ÑĮÑĪ ÑĥÑİ
ĠÐ¿Ð¾Ð´Ð¾Ð± ÑĢÐ°ÑĤÑĮ
ÑģÑĤÐ¸ ÐºÐ¸
nÐ¡ Ð¿Ð°ÑģÐ¸Ð±Ð¾
ĠÐ¾Ð± Ð¸
ĠÐ¿Ð¾Ð´ ÑĢÐ¾ÑģÑĤ
ĠÐ¸ÑģÐ¿Ð¾Ð» Ð½ÐµÐ½Ð¸Ñı
ĠÐ¿ÑĢÐ¾ÑģÑĤÑĢÐ°Ð½ ÑģÑĤÐ²Ð¾
Ð°Ð» ÑģÑı
ĠÐ¸Ð½ÑģÑĤÑĢÑĥ ÐºÑĨÐ¸Ñı
ĠÐ¾ÑĨÐµÐ½ ÐºÐ¸
Ð»ÑĮ Ð½Ð¾ÑģÑĤÑĮ
98 67
ĠÐºÐ¾ÑĤÐ¾ÑĢ ÑĭÐ¼Ð¸
ÑħÐ°Ð½ Ð³ÐµÐ»ÑĮ
ĠÐ¶ÑĥÑĢ Ð½Ð°Ð»Ð¸
Ð¾Ð»Ð¾Ð³Ð¸ ÑĩÐµÑģÐºÐ¸Ñħ
Ð½Ð¸Ð¼Ð° Ð½Ð¸Ðµ
15 8
ÐµÑĢ ÑĪÐµÐ½
ĠÐ¾Ð±Ð»Ð° Ð´Ð°
ÐĿ Ðĵ
ĠÐ³ Ð¾ÑģÑĤ
ĠÐĴ Ðŀ
ĠÐ°Ðº ÑģÐµÑģÑģÑĥÐ°ÑĢÑĭ
ĠÑĦÐ°Ð¹ Ð»Ð¾Ð²
ĠÐ¾Ð±ÑĬ ÑıÐ²Ð»ÐµÐ½Ð¸Ñı
ĠÐ¦ ÐµÐ½Ð°
ĠÐ¿ Ð¾ÑģÑĤÐ°
Ðł Ð¾ÑģÑģÐ¸Ñı
nÐļÐ¾Ð¼ Ð¿Ð°Ð½Ð¸Ñı
ÐĴ Ð«
ĠÑĤÐµÐ¼Ð¿ÐµÑĢÐ°ÑĤÑĥ ÑĢÐ°
Ð¾Ð´ÐµÑĢ Ð¶Ð°Ð½Ð¸Ðµ
ĠÐ²Ñĭ Ð¿
ĠÑĥÑĤÐ²ÐµÑĢ Ð¶Ð´Ð°
ĠÐ² ÐºÐ»Ð°Ð´
Ð¼ÐµÐ½ ÑĤÐµ
Ð² ÑģÐµ
ĠÐ²Ðµ ÑģÑĤÐ¸
ÑħÐ¾Ð´ Ð¾Ð²
ÑĢÐ¾Ð²Ð°Ð½ Ð½Ð°Ñı
ĠÐŁÐ¾Ð»ÑĮÐ·Ð¾Ð²Ð° ÑĤÐµÐ»Ñı
re e
Ð»ÑĮ ÑģÐºÐ¸Ð¹
ĠÐ¶ Ð°ÑĢ
07 3
ÑĦ ÑĦ
Ð»Ð° ÑģÑģÐ¸
ĠÑĥÐ´Ð¾Ð± Ð½Ð¾
ÑĨ Ð¾Ð¼
5 26
ĠÑĥÑĩ ÐµÐ½Ð¸
ÐºÑĤÑĥ ÑĢÑĭ
ĠÐ° Ð·Ð°
ÑĤÑĮÑı Ð½Ð°
la r
v iew
ÃĹ \
ĠÑĥÑģÑĤÐ¾Ð¹ ÑĩÐ¸Ð²
nÐļ Ð°ÑĢ
tl e
ĠÐľ Ð¾Ð½
nÐ¢Ðµ Ð»ÐµÑĦÐ¾Ð½
ĠÑĦÑĥÐ½ ÐºÑĨÐ¸Ñı
ĠÐļÑĢÐ°Ñģ Ð½Ð¾Ð´Ð°ÑĢ
ĠÑģÐ¸ÑĤÑĥÐ° ÑĨÐ¸Ñı
ĠÐ¿Ð»Ð¾ ÑħÐ¾
ĠÐµÐ² ÑĢÐ¾
ĠÑĤÐµ ÑĢÑı
ÑĢÐ° Ð³
ĠÑįÐºÑģÐ¿Ðµ ÑĢÐ¸
Ð²Ð¾Ð´Ð¸ ÑĤÑĮ
Ð¸Ð½ Ð³Ð°
ĠÑģÑģÑĭÐ» ÐºÑĥ
ĠÑģÐ»ÐµÐ´Ñĥ ÑİÑīÐ¸Ñħ
ĠÐ¼Ð½ ÐµÐ½Ð¸Ñİ
Ð»Ð° Ð½Ð°
ĠÐ²Ð° ÐºÐ°Ð½ÑģÐ¸Ð¸
Ð½Ðµ ÑĢÐ°Ð»ÑĮ
Ð¾Ðº Ðµ
18 9
Ð½ Ð½Ð¾Ð³Ð¾
ĠÐ¿Ð¾Ð´ Ð½Ñı
w e
ĠÑģÐ¿ÐµÑĨÐ¸Ð°Ð»Ð¸ ÑģÑĤ
âĢ Ĥ
Ð½Ð¾Ð¼ ÐµÑĢ
24 8
E BF
nÐŀÑģÐ½Ð¾Ð² Ð½ÑĭÐµ
ÑĥÑĢ Ð¼Ð°Ð½
nÐļÐ°ÑĤÐ° Ð»Ð¾Ð³
ÐµÐ½ ÑĤÐ¾Ð¼
Ð¾Ð½ ÑĮ
99 988
F BB
Ð¢ Ðµ
ĠÐ¼Ð°Ñģ ÑĪÑĤÐ°
Ð¶Ð° Ñı
in k
ĠÐºÐ½Ð¸ Ð³
ĠÑĥÑĤÐ²ÐµÑĢÐ¶Ð´ ÐµÐ½Ð¸Ð¸
ĠÐ¤ Ð¾ÑĤÐ¾
ĠÑĥ Ðº
998 75
ÑĢÑĥÐ¿ Ð¿Ð°
ĠÐ§ Ñĥ
14 9
U B
or s
Ð´Ð¸ ÐºÐ°
ĠÐŁ ÑģÐºÐ¾Ð²
ĠÐ° Ð»ÑİÐ¼Ð¸
ĠÐ·Ð° ÑģÐµ
Ðľ Ð¸
ĠÐ¿Ð¾ÑģÐ»ÐµÐ´ Ð¾Ð²Ð°
ĠÐ¿Ð¸ÑģÑĮ Ð¼Ð¾
ĠT h
> <
ÐºÐ¾Ð¼ Ñĥ
u z
or k
nÐĳ Ð¸
Ġ 46
ĠÐ´Ð¾ÑģÑĤ Ð¾Ð¸Ð½
ĠÐ¡ Ð¸Ð¼
ĠÐĸ Ðļ
ĠÐ³Ð¾ÑģÑĥÐ´Ð°ÑĢÑģÑĤÐ²ÐµÐ½ Ð½ÑĭÑħ
ĠÑĢÐ°ÑģÑģ ÑĩÐ¸ÑĤÑĭ
ĠÑĢÐµÑĪÐ¸ Ð»Ð¸
nÐ¡ Ð°
ĠÑħÐ°ÑĢÐ°Ðº ÑĤÐµÑĢÐ°
Ð·Ð° Ð¹Ð½
Ð²Ð°ÐµÐ¼ ÑĭÐµ
ĠÑĤÑīÐ° ÑĤÐµÐ»ÑĮÐ½Ð¾
ĠÑĦÑĥÐ½Ðº ÑĨÐ¸Ð¾Ð½Ð¸
Ð¾Ð´Ðµ Ð»ÑĮ
Ð»ÐµÐ½ Ð½ÑĥÑİ
( )
ÑĤÑĥ Ñİ
ÑĢÐ°Ð²Ð¸ ÑĤÑĮ
ĠÐºÐ°Ðº Ð¾Ðµ
ĠÐ½Ð°Ð´ Ð·Ð¾ÑĢ
ĠÐ±ÐµÐ» ÑĭÐ¹
ĠÐ´ÑĢÑĥÐ· ÐµÐ¹
Ð· ÐµÐ½
ÑģÑĤÐ° Ð²Ð°
p s
ĠÐ¿ÑĢÐ¾Ð´Ð° Ð¶Ðµ
ĠÐ³ÑĢÑĥÐ¿ Ð¿Ðµ
nÐ¡Ðµ Ð³Ð¾Ð´Ð½Ñı
ĠÐ¾ÑĤÐ²ÐµÑĤ Ð°
nÐłÐµÐº Ð»Ð°Ð¼Ð°
ĠÐºÐ¾Ð¼Ð¼ÑĥÐ½Ð¸ÐºÐ° ÑĨÐ¸Ð¹
ĠÐ³Ð»Ñĥ Ð±Ð¸
Ð¿ ÑĢÐµÐ´
ĠÐ¿ÑĢÐ¾Ð³ÑĢÐ°Ð¼ Ð¼Ðµ
ĠÐĶ Ðŀ
v y
pr ess
86 1
ĠÑĦÐ¸ Ð³Ñĥ
ĠÐ¾Ð± Ð»ÐµÐ³
84 2
ĠÐĿÐ° ÑĤÐ°
ĠÐ¿ÑĢÐ¾ÑģÐ¼Ð¾ÑĤ ÑĢÐ°
ĠÐ¾ÑĤÐ¾Ð¿ Ð»ÐµÐ½Ð¸Ñı
ĠÐº Ð¸ÑĤÐ°Ð¹
Ð½Ð¸ Ð½Ð³
ĠÐ½Ð°Ñģ Ð¾Ñģ
ÑģÐ»Ñĥ Ð¶
ĠÐľ Ðĺ
ĠÑģÐ¼Ðµ ÑģÑĮ
ĠÐ´ÐµÑĤÐ° Ð»ÐµÐ¹
ĠÐ½Ð°ÑĩÐ° Ð»
ĠÑĤÐµ Ð»Ð¾
ĠÐ½Ð° ÑĪÐ¸Ð¼
ĠÐ°Ð½Ð°Ð»Ð¸ Ð·Ð°
P A
ÑĢ Ð¾Ð³
nÐ¡ÑĤÐ° ÑĤÑĮÐ¸
ĠÐ´Ð¸ ÑģÑĤÐ°Ð½
ĠÐ´Ð¾Ð» Ð³
as e
Ð³Ð¾ÑĤ Ð°Ð²Ð»Ð¸
Ð»ÑĮÑı Ð½Ð¾Ð²
ĠÑģÐ¾ ÑĢÐµÐ²
Ð»ÑĮ ÑĤÑĢÐ°
nÐļ ÑĢÐ¾Ð¼Ðµ
Ð°Ð½ Ð´Ð°
BE D
Ġ con
ÐĿÐĲ Ð¯
ĠÐ¿ÑĢÐµÐ´ ÑģÐµÐ´Ð°
ĠÐ¾ÑĤÐ»Ð¸ÑĩÐ° ÑİÑĤÑģÑı
18 1
ĠâĨĴ \
ÑĤÐ°Ð»ÑĮ ÑıÐ½
Ġ al
ĠÐ¿Ð¾ÑĤÐµÑĢ Ñı
ĠÐ¿ ÑģÐ¸ÑħÐ¸
ĠÐľÐ¸ ÑħÐ°Ð¹
ÐµÐ½ Ð½ÑĥÑİ
ĠÐ¾Ð± Ð²Ð¸
ĠÐĸ Ð¸
ĠÐ² ÐµÐ½
ĠÐľ ÐµÐ´
ĠÐ·Ð°Ð½Ñı ÑĤÐ¸Ñı
ÐŁ ÐµÑĢ
i nt
U L
ĠÐ¤ÐµÐ´ÐµÑĢÐ°Ð»ÑĮ Ð½Ð¾Ð³Ð¾
ĠÐ¿Ð°Ðº ÐµÑĤ
ÑĥÑİ ÑīÐ¸Ñħ
ÑģÑĤÐ¸ Ð»
ĠÐ¿ÐµÑĢ Ð²ÑĭÐ¼
ĠÑģ ÑĩÐ°ÑģÑĤ
ÑĤ Ð¾Ð¿
\", \"
ĠÐºÑĢÐ°Ñģ Ð¾ÑĤÑĭ
on y
ĠÐ¿ÑĢÐ¸Ð¼ÐµÐ½Ñı ÐµÑĤÑģÑı
nÐľ Ð¾Ð¶Ð½Ð¾
Ð¾Ð¿Ð¾Ð» Ð¾Ð¶
ĠÐºÐ»Ñİ ÑĩÐµ
ĠÐºÐ° Ð»ÑĮ
ÑĢÐµÑģ ÑģÐ¸Ð²
Ð¢ Ð£
ĠÑĤÑĢÐ°Ð½ÑģÐ¿ Ð¾ÑĢÑĤÐ°
ĠÐ½Ð°ÑĢÐº Ð¾ÑĤÐ¸
ĠÑĩÐµÑĢ Ð½ÑĭÐ¹
I K
ĠÐ¾ÑĤÐµ ÑĩÐµ
ĠÐ°Ñį ÑĢÐ¾Ð¿
ÑĤÐ¾ ÑĢÐµ
ĠÐ¸ÑģÐºÐ»Ñİ ÑĩÐµÐ½Ð¸ÐµÐ¼
ĠÐļ ÐĲ
nÐķ ÑģÑĤÑĮ
Ðļ Ñĥ
ÑĤÐµ ÐºÐ°
Ð´ Ð¶Ð¸
Ð´ Ð»Ñı
ĠAnd roid
ĠÐĵ Ð¾ÑĢÐ¾Ð´
ĠÐľÐ¸ÑħÐ° Ð¸Ð»
ĠÐ·Ð°Ð´Ð° Ñĩ
av e
ic al
ĠÐ·Ð° ÐºÑĥÐ¿
Ð²Ð° ÑİÑīÐ¸Ð¹
en a
ĠÑĢÐµ ÑģÑĤÐ¾ÑĢÐ°
ĠÑħ Ð»Ð¾Ð¿
28 2
ĠÐ»Ð¸ Ð½Ð¸Ñı
ÑĩÐ° ÑĤÐºÐ¸
Ð½Ð¸ÐºÐ° Ñħ
ĠÐ·Ð°Ð½Ð¸Ð¼Ð° ÐµÑĤ
oo d
ÐµÑĢ Ð¾Ð¼
C BF
ĠÐ· ÑĢÐ¸
ĠÐ¿Ð¾Ð» Ð½ÑĭÐ¹
ĠÑģÑĥÐ¼ Ð¼Ñĭ
Ñĥ Ð¹ÑĤÐµ
ĠÑĪ ÐºÐ¾Ð»Ðµ
93 9
Ð³Ð¾ ÑĢÐ°
ĠÐ¾ÑĤ Ð¾Ð±ÑĢÐ°
ĠÐ½ÑĥÐ¶ Ð½Ñĭ
ĠÐĳ Ð¾Ð»
ĠÐ¸Ð´Ðµ Ð¸
ĠÑĤÑĢÐµÐ±Ð¾Ð²Ð°Ð½Ð¸Ñı Ð¼
Ð½ Ð¾Ð³Ð¾ÑĢÑģÐº
ĠÐ¿Ð¾Ð»Ñĥ ÑĩÐµÐ½Ð¸Ðµ
ĠÐ¿Ð¾Ð»ÑĥÑĩÐ¸ ÑĤÐµ
ĠÑĩÐ° ÑģÑĭ
ĠÑģÑĤÐ¸ Ð»ÑĮ
Ð¿ Ð¾Ð»Ð¸
ĠÑģ Ð¾ÑĢÑĤÐ°
ĠÐ²ÑģÐ¿ Ð¾Ð¼
ĠÑĤÐ¾Ð¿ Ð»Ð¸Ð²Ð°
ĠÐºÐ²Ð°ÑĢÑĤÐ¸ ÑĢÐµ
ÐµÐ½ÑĮ Ñİ
ĠÐ½ÐµÑĢ Ð²
nÐĹ Ð´ÑĢÐ°Ð²ÑģÑĤÐ²ÑĥÐ¹ÑĤÐµ
23 2
ĠÐ¿ÑĢÐ¾Ð³ÑĢÐ°Ð¼ Ð¼Ñĥ
98 74
Ð»Ñİ Ð±
ĠÐ²ÑĭÐ¿Ð¾Ð» Ð½Ð¸ÑĤÑĮ
Ð»Ñĥ Ñİ
ĠÐ² Ð¾Ð´Ðµ
ĠÐ·Ð½Ð° ÐµÑĤÐµ
Ġ ÐĻ
ĠÑģÐ»Ð° Ð±
Ñī ÐµÐ½Ð¸ÐµÐ¼
Ðĺ Ð·
Ġ( Â«
nÐĿ Ð°Ð·
ĠÐ·Ð°ÐºÐ¾Ð½Ð¾Ð´Ð° ÑĤÐµÐ»ÑĮÑģÑĤÐ²Ð°
ĠÐ¿ÑĢÐ¸Ð¼ÐµÐ½ ÑıÑĤÑĮ
ÑĤ Ð¾Ð²Ð°
ÑĢÐ¾Ð¿ Ð¸
999 24
ĠÐ¾ÑĦÐ¾ÑĢ Ð¼Ð¸ÑĤÑĮ
90 9
25 2
ĠÑĩÐ¸Ñģ Ð»Ð°
ĠÐ¿ÑĢÐ¾ ÑīÐµ
nÐļÐ° ÑĤÐµÐ³Ð¾ÑĢÐ¸
998 96
ÑĪ Ð¾Ðµ
ĠÐ·Ð°ÑıÐ² Ð»ÐµÐ½Ð¸Ñı
Ð»ÑĮ Ð½Ð¸ÐºÐ¸
is s
ĠÐ¾ÑĢÑĥ Ð¶Ð¸
ĠÐºÐ»Ñİ Ñĩ
ĠÐºÐ° ÐºÐ°Ñı
Ð¿Ðµ ÑĢÐµÐ´
ĠÐ½ÐµÑģ ÐµÑĤ
ĠÑģÐµÐ¼ ÑĮÑı
ÑĢÐ° ÑģÑĤ
ĠÐ°ÑĤÐ¼Ð¾Ñģ ÑĦÐµÑĢ
55 4
nÐ¢ Ð¸Ð¿
ĠÐ½Ð°Ð¼ Ð½Ð¾Ð³Ð¾
Ð½Ð° Ð¿ÑĢÐ¸Ð¼ÐµÑĢ
29 2
ĠÐ¿Ð¾ÐºÑĢÑĭ ÑĤÐ¸Ðµ
nÐłÐ° ÑģÐ¿
26 2
ĠÑĢ Ð¾Ð¼Ð°Ð½
ĠÐ¿ÑĢÐ¾Ð³ Ð½Ð¾Ð·
Ġ o
05 2
998 74
ĠÐŁ ÐµÑĤÐµÑĢ
Ð¼Ð¾ÑĤ ÑĢÐ¾Ð²
ĠÐ¾Ðº ÑĢÐ°
ĠÐºÐ¾Ð¼ Ð½Ð°ÑĤ
ĠÐĳ Ð¾Ð»ÐµÐµ
ĠÐ´Ð¾ÑģÑĤÐ¸ Ð¶ÐµÐ½Ð¸Ñı
ÑĢÐ° Ñı
ÑĥÐ³ Ð¾Ð»ÑĮ
ÑĨÐµ ÑģÑģ
ĠÐ²ÑĭÐ± ÑĢÐ°
ĠÐ²Ðµ Ð»Ð¸ÑĩÐ¸
ĠA pple
ĠÑĤÐµÑĢ Ð¼Ð¸
ĠÐ½Ðµ Ð·Ð½Ð°
08 0
ĠÐ´ Ð²Ð¾ÑĢ
ĠÐ½Ðµ Ð¼Ð°
ÑĢÐ¾Ð² ÐºÑĥ
ĠÐ¼Ð° ÑĤÐµ
ĠÐ½Ð°Ð·ÑĭÐ²Ð° ÑİÑĤ
Ġw ith
ÐľÐ¾ÑģÐºÐ¾Ð² ÑģÐºÐ°Ñı
ÑĩÐµÐ½ Ð½ÑĭÐµ
ĠÐ° Ð²Ð°
ĠÑĦÐ¸ ÐºÑģÐ¸
ĠÐ¸Ð½ÑģÑĤÑĢÑĥ Ð¼ÐµÐ½ÑĤÑĭ
ÑģÑĤÐ²ÐµÐ½ Ð½ÑĥÑİ
Ġ ne
ÑĥÐ±Ð»Ð¸ÐºÐ¾Ð²Ð° Ð½Ð¾
ĠÑĤÐµÐ¿ Ð»
ĠÐ¿ÑĢÐ¾Ðµ ÐºÑĤÐµ
ĠÐ¿Ð¾Ð²Ñĭ ÑĪÐµÐ½Ð¸Ñı
ĠÐĺ Ð»Ð¸
ĠÑģÑĢÐµÐ´ Ð½ÐµÐ³Ð¾
ĠÐ¿Ð¾ÑģÑĤ ÑĢÐ°
ÑĦÐ¾ÑĢ Ð¼
Ġ Ð¹
Ðµ Ð»ÐµÐ·
16 9
Ð°Ð» Ð»Ð¸
ĠÐĵ Ð¾Ð»
ĠÐ´ÐµÑĤ ÑĮÐ¼Ð¸
ĠÐ¿ÐµÑĢÐµ ÑĩÐ¸Ñģ
ĠÐķ ÑīÐµ
n Ð¸
Ð¾ÑĢÐ¸ ÑĤÑĮ
ĠÐ´ÐµÐ¹ ÑģÑĤÐ²ÑĥÐµÑĤ
ĠÐ± Ð»Ðµ
ĠÑĩÐµ ÑģÑĤ
Ð° Ñı
Ðº Ð³
Ð²Ð¸ Ð²
ÑģÑĤ ÐºÐ°
a x
ĠÐ» Ð¾Ð´
ÑĤ Ð½Ð¾Ðµ
ĠÐºÐ¾Ð¼Ð¸ ÑģÑģÐ¸Ð¸
ĠÐŁÑĢ Ð¾Ð´Ð°
ĠÐ¸Ð½ Ð½Ð¾Ð²Ð°
Ġ3 8
Ð¾Ð½Ð° ÑĩÐ°
ĠÐ²Ð° ÑĪÑĥ
ĠÐºÐ° Ð¼ÐµÑĢ
ÑĪ Ð¾Ðº
u nt
ĠÐ±Ð»Ð° Ð³Ð¾
ĠÐļ Ð¾Ð½ÐµÑĩÐ½Ð¾
ĠÐ¡ Ð¾Ð±
ĠÐºÐ¾Ð¼Ð°Ð½ Ð´Ð°
ĠÑĤÐµÑĢ Ð¼
Ð¿Ð¸ ÑģÐ¾Ðº
ĠÐ±Ð°Ðº ÑĤÐµÑĢÐ¸
98 45
ĠÐ»Ð¸ÑĨ Ð°Ð¼
ĠÐ½ÐµÐ¼Ðµ ÑĨ
ĠÐ¿Ð¾Ð´Ð°ÑĢ Ð¾Ðº
ĠÑĥÑĩÐ¸ÑĤÑĭ Ð²Ð°ÑĤÑĮ
ĠÐ¸ÑģÑĤÐ¾Ñĩ Ð½Ð¸Ðº
ĠÑĢÐµÑĪÐ¸ ÑĤÑĮ
75 2
ĠÐ¸Ð· Ð±ÑĢÐ°Ð½
93 27
nÐľ ÐµÑĤ
ÑĢÐ°Ð¶ Ð´Ð°Ð½
ĠÐ¸ÑģÑĤÐ¾ÑĢÐ¸ Ñİ
ĠÑģÐ¾Ñģ ÐµÐ´
ĠÐļÐ° Ð¶Ð´ÑĭÐ¹
ĠÐ²ÑĭÐ¿Ð¾Ð» Ð½ÑıÑĤÑĮ
ÐºÐ¾Ð¼ Ð¿
um ent
ĠÐºÐ°ÑĢ ÐºÐ°
ĠÑģÑĥÐ¼ Ð¼Ð°
ĠÑįÑĤÐ° Ð¿Ðµ
ĠÐ¼Ð¾ ÐµÐ¹
ĠÐ½ÐµÐ´ Ð¾ÑĢ
ĠÑħÑĥÐ´ Ð¾Ð¶Ðµ
25 8
nÐ¡ Ð¿Ðµ
ĠÐ²Ð¾Ð·Ð´ÐµÐ¹ ÑģÑĤÐ²Ð¸Ñı
ĠÑģÐ²ÑıÐ·Ð° Ð½Ð½ÑĭÑħ
n J
ĠÐ¿Ð¾Ð´Ð´ÐµÑĢÐ¶ ÐºÑĥ
Ð¾Ð» Ð¾Ð³Ð°
Ð¾Ð± ÑĢÐ°Ð·
ĠÐ³ ÐµÐ½
ĠÐ·Ð°Ð³ ÑĢÑĥ
ĠÐĴÑĭ Ñģ
85 8
ĠÑģÐ¸ Ð½
ĠÐ±Ð° ÑĢÐ°
ĠÐ¿ÑĢÐ¸Ð½Ð°Ð´ Ð»ÐµÐ¶Ð°
ĠÐ¿ÐµÑĢÐ¸ Ð¾Ð´Ð¸
ÑĢÐ°Ð² Ð»ÐµÐ½Ð¸Ñı
17 2
Ð² ÑıÑĤ
ĠÐ¿ Ð¸ÑĤÑĮ
ÑĤ Ð½ÑĭÐ¼
Ð¶Ð° ÑĤÑĮÑģÑı
66 4
22 2
ÑĢÐ¸ÑģÑĤÐ¸ Ð°Ð½
ĠÐ¸Ð½ÑĤÐµ Ð»Ð»ÐµÐºÑĤ
Ð½ Ð¾Ð¶
ĠÐºÑĢÑĥÐ¿ Ð½ÐµÐ¹
ĠÐ¾ÑĤÐ²ÐµÑĤ Ñĭ
ĠÐļÐ° ÑĤÐ°
ĠÑģ ÐºÐ»Ð°Ð´
ĠÐ¿ÑĢÐµÐ´Ð¾ÑģÑĤÐ°Ð²Ð»Ñı ÐµÑĤ
Ð¾Ñİ Ð·Ð°
Ð»Ð¸ Ð·Ð°
nÐŁ Ñĥ
ĠÐ½Ðµ Ð²
Ñģ Ð½ÑĭÑħ
ĠÐĺ ÐĿ
ĠÑĦÐ°Ðº ÑĤÐ¸
ĠÐĲÐ´Ð¼Ð¸Ð½Ð¸ÑģÑĤÑĢÐ° ÑĨÐ¸Ð¸
ĠÑĤÑĥ Ð´Ð°
ÑĤÑı Ð³Ð¸
Ð³ Ð¾Ð»Ð¾Ð²
ÑĢÑĭ Ð¼
ÑĤÐ¸ ÑĢÐ¾Ð²Ð°ÑĤÑĮ
ĠÑĥ ÑģÑĤÑĢÐ°
ĠÐļ ÑĤÐ¾
Ð»Ñı ÑĨÐ¸Ñı
98 64
ĠÐ»Ð¸ÑĨÐµÐ½ Ð·Ð¸
Ð¡ ÐĲ
ĠÑĢÐ¾Ð´ ÑģÑĤÐ²ÐµÐ½
ĠÐ¯ ÑĢÐ¾ÑģÐ»Ð°Ð²
98 83
ĠÐºÐ½Ð¸ Ð³Ð°
P T
ĠÐ²Ð¸ ÑĢÑĤÑĥ
Ð¼ ÐµÐ¹
ÑĩÐ¸ Ð»Ð¸
ĠÑĦ ÐµÑģÑĤÐ¸Ð²Ð°
ĠÐ½Ð°ÑĩÐ° Ð»Ð¸
ĠÐ² ÑģÑĤÐ°Ð²
ĠÐ± ÑĢÑİ
Ð»Ð¸ ÑĨÐ°
Ġ 64
n Ðº
ÑģÐº Ð¾Ð¿
ÑĤÑĮ Ðµ
ĠÐ¿Ð¾Ð·Ð² Ð¾Ð»Ð¸
ĠÑĦ Ð¾Ð½Ðµ
i al
ĠÐ±Ð¾Ð»ÑĮÑĪÐ¸Ð½ ÑģÑĤÐ²Ðµ
ĠÐºÑĥ ÑĢÐ¸
Ð²Ð°Ñı ÑģÑĮ
ĠÑģÐ¸ Ñħ
en ce
9996 6
ĠÑı Ð±
C EA
ĠÐŀ Ð´Ð¸Ð½
ĠÑĥÑĩÐ°ÑģÑĤ Ð¾Ðº
ĠÐŁ Ð¾Ð²
ĠÑģÑĤ ÑĢÐ¾
ĠÐĳ ÑĢÑıÐ½
9 11
ĠÐĳ Ð¾ÑĢ
22 8
30 34
ĠÐ¿Ð¾ÐºÑĥÐ¿ ÐºÐµ
ĠÐ²Ð¸ Ð´Ñĥ
ĠÐ´Ð¾ÑģÑĤÐ¸ Ð³Ð°
ĠÐ¶ ÐµÑĢÑĤ
ÑģÐº ÑĥÑģ
ÑĪÐ¸ Ð½Ð°
999 15
ĠÐ³Ð¾Ð»Ð¾Ð² Ñĥ
ÑĤÐ¸ Ðº
Ð³ÑĢÐ° Ð¼
ÑįÑĦ ÑĦÐ¸ÑĨÐ¸
ĠÐ¸ÑģÐ¿Ð¾Ð»ÑĮÐ·Ñĥ Ñı
nÐŁÐµÑĢÐµ Ð¹ÑĤÐ¸
nÐ¦ Ð²ÐµÑĤ
8 90
ĠÐ¿Ð¾ÑģÐ»ÐµÐ´ ÑģÑĤÐ²Ð¸Ñı
ig n
ĠÐ¸Ñģ ÑĩÐµ
ĠÐ²Ñĭ Ð·ÑĭÐ²Ð°ÐµÑĤ
e ro
nÐłÐ° Ð±Ð¾ÑĤÐ°
ĠÐ± Ð»Ð¾ÐºÐ°
ĠÐ·Ð° Ð¿Ð»Ð°
Ð²Ñĭ ÑĩÐ°Ð¹
ĠÐ¿Ð¾Ð´ Ð±Ð¾ÑĢ
ĠÐ¡ Ð¾ÑĩÐ¸
il d
ĠÐºÐ°Ð½ Ð´Ð¸Ð´Ð°
Ðľ Ðµ
36 2
Ð»Ñı ÑĤÐ¾ÑĢ
ĠÐ² Ð°Ðº
ĠÐ·Ð° Ð±Ð¾ÑĤ
Ð¾Ð½ Ð½ÑĭÑħ
Ð¼ÐµÐ½ ÐµÐ½Ð¸Ðµ
ĠÐŀ Ð¢
ĠÐ»Ðµ ÑģÑĤ
Ð¸ Ð¼Ð¸
nE mail
ĠÐ¾Ð±ÑĬ ÐµÐ´Ð¸
ĠÐĴ ÐµÑĢÑħ
ĠÐ½Ð¾ ÑĩÑĮ
ÑĥÐ´ Ñĭ
P N
97 075
ĠÐĴÑĭ Ð±ÐµÑĢÐ¸ÑĤÐµ
ĠÐ·Ð°Ð½Ð¸Ð¼Ð° ÑĤÑĮÑģÑı
ĠÐ¿Ð¾Ð´ Ð¾Ð·
Ð¾ÑĢ Ð¾Ð½Ð°
ĠÐľ ÐĲ
ĠÐ·Ð° ÑĢÑıÐ´
Ð± Ð°Ð½Ðº
ÑģÑĤÐ° Ð½Ðµ
ĠÑģÑĤÑĢÐ° ÑĪ
ĠÐºÐ°Ð¼ Ð½Ñı
ĠĠĠĠ ĠĠĠĠ
ĠÐ¢ ÑĢÑĥ
ĠÐ´Ð¾Ð² ÐµÑĢ
ÐĶ Ð¡
ĠÐ¡Ð°ÑĢÐ° ÑĤÐ¾Ð²
ĠÐ¼Ð¾Ð½ÑĤÐ° Ð¶
98 35
ĠÐĹ Ð°Ð¼
ĠÐ¼ Ð¾ÑĩÐµ
ĠÐ¿ÑĢÐµÐºÑĢÐ° ÑģÐ½Ð¾
ĠÐ²Ð½ÑĥÑĤÑĢÐµÐ½ Ð½Ð¸Ñħ
Ð² ÑĮ
Ð´Ðµ Ð²
ĠÐ¾ÑĤ Ð¼Ðµ
Ð±Ð° Ñı
ĠÐ¸ÑģÐºÑĥÑģ ÑģÑĤÐ²Ð°
Ð½Ð¾ Ð½
Ð³ ÑĢ
06 8
Ð³Ð¾ÑĢ ÑĮ
17 9
ĠÐ± ÑĢÐ¾Ð½
ÑĪÐµ Ð»ÑĮ
ĠÑĦ ÑĢÐ¾Ð½
ĠÐ¸ÑģÐ¿ Ñĭ
ĠÑģÐ¾ÑħÑĢÐ° Ð½Ð¸ÑĤÑĮ
C O
ĠÑĢÐµÐ± ÑĳÐ½
nÐŃ ÑĤÐ°
ĠÐ·Ð°Ð³ ÑĢÑıÐ·
ĠÐ¾ÑģÑĤ Ð°Ð½
Ð§ ÐµÑĢ
ĠÑģ Ð½ÑıÑĤÑĮ
nÐŁ Ð°
ĠÐ¿ÑĢÐµÐ´Ð¿ÑĢÐ¸Ñı ÑĤÐ¸Ð¹
Ð¿Ð° Ð´Ð°
a ck
999 13
996 2
ÑĤÐ¾ÑĢ Ð¾Ð¹
on d
Ð¿ Ð¾Ñģ
ÐµÐ½ Ð½ÑĭÐ¼Ð¸
nÐļ Ð¾Ð»Ð¸ÑĩÐµÑģÑĤÐ²Ð¾
ĠÐ¾ÑĤ ÑĢÐ¸ÑĨÐ°
ĠÑĢÐµÑģÑĥÑĢ ÑģÐ¾Ð²
ÐµÑĢÐµ Ð²
Ðļ Ð¾Ð½
Ð»ÐµÑĤ Ð°
ĠÐŀÐ½ Ð»Ð°Ð¹Ð½
ĠÐ¿ Ð¾ÑģÑĤÐ°Ð²Ð¸ÑĤÑĮ
ĠÑģÐ¸Ð¼Ð¿ÑĤÐ¾Ð¼ Ñĭ
Ð´Ð¸ Ð°
T A
ĠÑģÑĤÐ°ÑĤÑĮ Ñİ
nÐł ÐµÐ¹ÑĤÐ¸Ð½Ð³
o x
ĠÑĦÐ¸ Ð»Ð¾Ñģ
Ðľ Ð¡
28 8
ĠÑģÐ¿Ð¾ÑģÐ¾Ð± Ð¾Ð²
ĠÐ¿Ð¾ÑıÐ²Ð»Ñı ÐµÑĤÑģÑı
ĠÑĥ Ð´Ð¸
ĠH P
ĠÐ¸Ð½ÑģÑĤÑĢÑĥ Ð¼ÐµÐ½ÑĤÐ°
ĠÐ¿ÑĢÐµÐ´Ð»Ð¾Ð¶ ÐµÐ½Ð¸Ðµ
ĠÐ¿Ð¾ÑģÑĤÐµÐ¿ ÐµÐ½Ð½Ð¾
ĠÐºÐ°ÑĢ ÑĤÐµ
0 26
ĠÐ´Ð° ÑİÑĤ
ĠÐ»Ñİ Ð±Ñĭ
ĠÐ½ ÐµÐ½Ð°
Ð¶Ðµ Ð³Ð¾ÑĢÐ¾Ð´
Ð² ÑĪÐµÐ¹
ĠÐ¿ÑĢÐµÐ´ÐµÐ»Ð° Ñħ
ĠÑģÐ¿Ðµ ÑĨÐ¸
ĠÐ´Ð²Ð¸ Ð¶ÐµÐ½Ð¸Ðµ
ÐºÐ¾Ð± ÑĢÐ¸ÑĤÐ°
ÐĴ Ð°
ĠÐ·Ð²Ð¾Ð½ Ð¾Ðº
ĠÐ¸Ð½ ÑĤÐµÐ½ÑģÐ¸Ð²
21 9
ĠÑģÑĩÐ¸ÑĤÐ° ÐµÑĤ
ĠÑģÑĥÑĤ Ð¾Ðº
. )\
ÐĶ Ð°
Ð¡ ÑĤ
Ð» Ð¾Ð³Ð°
ĠÑĥÐ¿ÑĢÐ°Ð² Ð»Ñı
Ð°ÑĢÐ°Ðº ÑĤÐµÑĢÐ¸ÑģÑĤÐ¸
nÐĴ Ð¾ÑĤ
ĠÐ¢ Ð°ÑĤÐ°ÑĢ
Ð½ ÐµÑĤÐ°
ÑĪ ÑĤ
nÐĲÐ´ ÑĢÐµÑģ
ĠÐ±Ð¾Ð»ÑĮÑĪ Ð¾Ð³Ð¾
ÑģÑĤ Ð¾Ð¸
ÐŁ Ðļ
ĠÐ¿Ð¾Ð· Ð¶Ðµ
Ð½Ð°Ð´ ÑĨÐ°
ĠÐĴÐ¾Ð· Ð¼Ð¾Ð¶Ð½Ð¾
ĠÑĢÐµÐ³ÑĥÐ»ÑıÑĢ Ð½Ð¾
Ð¾ÑģÐ¿ Ð¾ÑģÐ¾Ð±
% .
Ð·Ñĭ ÐºÐ°
ĠÐĲÐ² ÑĤÐ¾ÑĢ
ĠÐ½Ð° ÑĪÐµ
ĠÐ½Ð° ÑģÐºÐ¾Ð»ÑĮÐºÐ¾
ĠÑģÐ¿ÐµÑĨÐ¸Ð°Ð»ÑĮ Ð½Ð¾
ces s
ĠÐŀÑĢ Ð³Ð°Ð½Ð¸
ĠÐ½Ð° ÑĪÐ°
ÑĤÐ¾Ð² ÑĭÐ¹
ĠÐ¸Ð³ÑĢÐ¾Ðº Ð¾Ð²
ĠÐ¿Ð¾Ð´ Ð¾Ð¹Ð´ÐµÑĤ
15 9
ĠÐŁÑĢÐ°Ð²Ð¸ ÑĤÐµÐ»ÑĮÑģÑĤÐ²Ð°
ĠC o
ik i
Ð´ Ð¾Ñħ
Ð¶Ðµ Ð»Ð¸
Ð¾ÑĤÐµÑĢÐ° Ð¿Ð¸
E W
Ġ Ð¶Ð´
ÑĢÐ¾Ð²Ð° Ð½Ð°
ĠÐ¦ ÐµÑĢ
ĠÑĥ Ð±Ð¾ÑĢ
ĠÐ¸Ð³ ÑĢÐµ
ĠÐ´ÐµÑģÑı ÑĤÐ¸
ĠÐ±ÑĥÐº Ð²Ð°
ĠÐ²Ð»Ð¸Ñı Ð½Ð¸Ðµ
ĠÐ¼Ð¾Ð½ÑĤÐ° Ð¶Ð°
ĠÐ²Ñĭ ÑĢÐ¾Ñģ
ÐºÐ¾Ð¼ Ð°
Ð½Ñĥ Ð»Ð¸
ĠÑģ ÐµÑĤÑĮ
Ð´Ñĥ Ð¼Ñĭ
ĠÐ¼ÐµÑģÑĤ Ð½Ð¾Ð³Ð¾
ĠÐ¤ Ð¡
T C
ÑħÐ¾Ð´ Ñĭ
24 1
Ð»ÐµÑĤ ÐºÐ¸
ĠÐĴÐ° Ð¼Ð¸
ĠÐĵ ÐŀÐ¡Ð¢
ĠÐ· Ð¾Ð½Ñĭ
0 23
ÑĦÐ¸ÐºÐ° ÑĨÐ¸Ñı
ĠÐºÑĢÐ° ÑĤ
ÐĽÐµÐ½Ð¸ Ð½Ð³ÑĢÐ°Ð´ÑģÐºÐ°Ñı
Ð¾Ð± Ð¾ÑĢÐ¾ÑĤ
ĠÑĤÐ¾ÑĢ Ð¼Ð¾Ð·
999 27
ĠÐ½ÐµÑģ Ð¼Ð¾ÑĤÑĢÑı
p ol
ĠÐºÑĢÑĥÐ¿ Ð½ÑĭÑħ
ĠÐ¿ÑĢÐ¾Ð¸Ð·Ð¾ÑĪ Ð»Ð¾
ĠÐ¸Ð½ÑĤÐµÑĢ ÑĮÐµÑĢÐ°
Ð±Ð¸ ÑĤÑĮ
blo g
ĠÐķ Ð»ÐµÐ½Ð°
âĢ ľ
ĠÐ¼ Ð¾ÑĤÐ¾ÑĢ
ĠÐ¿ Ð¾ÑĢÐ¾
ĠÐ´ÐµÑĤ ÑģÐºÐ¸Ð¹
Ð´ Ð¾ÑĢ
ĠÑĦÐ¸Ð»ÑĮ ÑĤ
Ð½Ð¾Ð² Ð
ĠÐ¡Ð° Ð¼Ð°
ĠÑįÑĦ ÑĦÐµÐº
ĠÑħÐ¾ÑĢÐ¾ ÑĪÐ¸Ð¹
Ð½Ð¾Ð²Ð ¾
ĠÐŁÐ¾Ñģ Ð»ÐµÐ´
ĠÐ´Ðµ Ð»Ñĥ
ĠÐ¾ÑĢÐ³Ð° Ð½Ñĭ
ÑĢÐ°Ðº ÑĤÐ¸ÐºÐ°
Ð»Ð¸Ð½ Ð´
Ð¾Ð²Ð° ÑĢÐ¸
ĠÐ¸Ð½ÑĦ ÑĢÐ°ÑģÑĤÑĢÑĥ
Ð»ÑĮ Ð½Ð¸ÐºÐ°
Ð½Ð¾Ð² ÑĭÐ¹
ĠÐ²Ñĭ ÑħÐ¾Ð´Ð°
ĠÐ³ ÑĢÐ¾Ð¼
999 20
ĠÑĥ Ð±Ñĭ
ÑģÑģ ÐµÑĢ
ĠÑģÑĩÐ¸ÑĤÐ° ÑİÑĤ
ĠÐ¼ÑĥÐ¶ ÑĩÐ¸Ð½Ñĭ
ĠÐ½Ð° ÑĪÑĥ
13 1
998 06
. ),
ĠÑĩÐµÐ»Ð¾Ð²Ðµ ÐºÑĥ
nÐŀÐ± ÑĢÐ°
ĠÐ¯Ð½ Ð´ÐµÐºÑģ
Ðļ Ð°Ðº
Ð²Ð¸ Ñı
ĠÐºÐ°Ð¶Ð´ Ð¾Ð¼Ñĥ
ĠÑĨÐ¸ÑĦ ÑĢÐ¾Ð²
ĠÑĥ Ð´Ð°ÑĢ
ĠÑĦÐ¾ÑĢ Ð¼
ĠÐļ ÑĥÐ±
ĠÐŀÐ± ÑĢÐ°
ĠÑĢÐ°ÑģÑĤ ÐµÐ½Ð¸Ðµ
ĠÐ¿ÑĢÐ¸ÑĩÐ¸ Ð½Ðµ
Ð»ÑĮÑĤÑĥ ÑĢÐ°
s m
ĠÐ±Ðµ Ñģ
ĠÐ² ÑģÑĤÑĢÐ¾
ĠÐ¾Ñģ Ð¾Ð·Ð½Ð°
88 8
nÐŁÐ¾Ñħ Ð¾Ð¶Ð¸Ðµ
ĠÐ¾Ð¿ÑĢÐµÐ´Ðµ Ð»ÐµÐ½Ð¸Ñı
ÑĩÐ¸ Ð½Ð°Ñı
Ð¶ÐµÐ½ Ñĭ
Ð·Ð¸ ÑĤ
ÑĩÐµÐ½ Ð½ÑĭÑħ
Ð´ÑĮ Ð¼Ð¸
3 27
ĠÐ¡Ð°Ð¹ ÑĤÐ°
ĠÐ¢Ð° ÐºÐ¸Ðµ
998 85
ĠÐ½Ð¾Ð² ÑĭÐ¼
ĠÐ¼ ÐµÑĤÐ°
ÐĹ Ðŀ
ĠÐ´Ð¾Ð¿Ð¾Ð»Ð½Ð¸ÑĤÐµÐ»ÑĮ Ð½ÑĭÑħ
ĠÐ¸Ð½ Ð´Ñĥ
ÐµÐ¼ ÐµÑĢÐ¾Ð²
Ð½ ÐºÐ°
ĠÐ±ÑİÐ´Ð¶ ÐµÑĤÐ°
ĠÐĵ ÑĢÐ°
ÐºÐ¾ÑģÑĤÑĮ Ñİ
nÐĴÑĭ Ð±ÐµÑĢÐ¸ÑĤÐµ
Ð½Ð¸ÑĨ ÐµÐ¹
ĠÑģ ÑĬÐµÐ¼
nÐŁÑĢÐ°Ð²Ð¸ Ð»Ð°
ĠÐ¿ÑĢÐµ Ð±Ñĭ
Ñī ÑĳÐ½
nÐ¡Ð¾Ð¾Ð± ÑīÐµÐ½Ð¸Ð¹
ĠÐ¿Ð¾ ÑıÐ²
ĠÐ·Ð° Ñģ
Ð²Ð° ÐµÑĤÐµ
120 1
ĠÐ¶ÑĥÑĢ Ð½Ð°
98 44
ĠÐĿÐ¸ ÐºÐ¾Ð»Ð°Ð¹
ÑĩÐµ ÑģÑĤÑĮ
T V
ĠÐ·Ð° Ð¼ÐµÐ½Ð¸ÑĤÑĮ
Ñĥ ÑĢÐµ
Ð¿ÑĢ Ð¾Ð´Ñĥ
ĠÐ²Ð½Ðµ Ð´
nÐĴ Ð¾Ð¹ÑĤÐ¸
ĠÐ½Ð°ÑĩÐ° Ð»Ð¾
nÐ¡ Ð°Ð¹ÑĤ
ĠÐ¿Ð¾ÑĢÑıÐ´ ÐºÐ°
ĠÐºÑĢÐ¸ Ð·Ð¸
n Ð¿ÑĢÐ¸
ĠÐ¡ ÑĤÐ¾Ð¸Ð¼Ð¾ÑģÑĤÑĮ
ĠÐĲ Ðļ
Ð²Ðµ ÑĢÐ°
ĠÑģ Ð¾ÑģÑĤÐ°
ï »
ĠÑĪÐ¸ ÑĢÐ¸
998 76
ĠÑģÐ¸Ð¼ Ð²Ð¾Ð»
ĠÐ¾ÑĦÐ¸ÑĨÐ¸Ð°Ð»ÑĮ Ð½ÑĭÐ¹
ĠÐŀ Ð´Ðµ
ĠÐºÑĢÐ°Ð¹ Ð½Ðµ
ÐµÐ· Ð´Ð°
Ð½Ð¾Ð² Ð¾Ð¹
Ð¼ Ð¾Ð½Ð¸
Ð¾Ð½ ÐºÐ¸
Ð·Ð½Ð° ÑĤÑĮ
ĠÐ¤ Ð°
ĠÐ½Ð¾ ÑģÐ¸
ĠÐ±Ñĥ ÑħÐ³Ð°Ð»
999 00
ĠÐ½ÐµÐ¾Ð±ÑħÐ¾Ð´Ð¸ Ð¼Ð¾ÑģÑĤÑĮ
ĠÑĦÑĢÐ°Ð½ ÑĨÑĥÐ·
nÐŁ Ð¾ÑģÑĤÐ°Ð½Ð¾Ð²Ð»ÐµÐ½Ð¸Ðµ
ĠÐ³Ð¾Ð² Ð¾ÑĢÑı
ĠÐ¿ÐµÑĢÐµ Ð¶Ð¸
nÐļ ÑĥÑĢ
ĠÐµ Ð´
ĠÐ¾Ð± ÑĢÐµ
ĠÐ±Ð° Ð·Ð°
45 0
ÑĢÐµ Ð¸
nÐŀ Ð¿Ð»Ð°ÑĤÐ°
ĠÐĿÐµÐº Ð¾ÑĤÐ¾ÑĢÑĭÐµ
87 1
ĠÐ¿Ð¾Ð¼ Ð¾Ð³
9997 7
ĠÐ¿ÐµÑĢ ÐµÐ½Ð¾Ñģ
ĠÐ¡Ð¼ Ð¾Ð»ÐµÐ½
20 08
Ð½Ð¾ÑģÑĤ ÑıÑħ
ĠÑģÐºÐ¾ÑĢ Ð¾ÑģÑĤÐ¸
R L
ĠÐ¿ÑĢÐ¾Ð²ÐµÐ´ ÐµÐ½Ð¸Ð¸
97075 44
j ect
ĠÐ½Ðµ Ð´ÐµÐ»ÑĮ
ĠÐ°Ð³ ÑĢÐµÐ³Ð°
nÐĺÑģÑĤ Ð¾ÑĢÐ¸Ñı
nÐŁ Ð¾Ð»ÑĮÐ·Ð¾Ð²Ð°
Ñĥ ÑĩÐ¸
ĠÐ¿Ð¾Ð»Ð½Ð¾ ÑĨÐµÐ½
25 9
ÑħÐ° ÑĢÐ°
ï» ¿
ÑĢÐ° Ð²ÐµÐ´
ĠÐ¿Ð°Ð¼ ÑıÑĤÑĮ
n Ð¿Ð¾Ð´
ĠÐļÐ¾Ð¼ Ð¼ÐµÐ½ÑĤÐ°ÑĢÐ¸
O W
998 33
ÐºÐ¾Ð¼ Ð¼Ñĥ
85 1
ĠÐ¿ÑĢÐ¸ Ð²ÐµÑĤ
98 24
ÑīÐµÐ½ Ð½ÑĭÑħ
ĠÐ¿Ð¾Ð´ Ð¿Ð¸ÑģÐ°
ĠÑħ ÑĢÐ¾Ð½Ð¸
ĠÐ·ÐµÐ¼ Ð»Ðµ
ĠÐł Ðŀ
ĠÐŁ Ð¾ÐºÑĥÐ¿Ð°
nÐ¡ÑĤÐ° ÑĤÑĮÑı
d iv
u ro
ĠÐŀÐ± ÑıÐ·Ð°
ĠÐ¸ÑĤ Ð¾Ð³
Ð± Ð¾Ð»Ð¸
ĠÐ¿Ð¾ÐºÐ° Ð·ÑĭÐ²Ð°ÐµÑĤ
ĠÑģÐµÑĢÐµ Ð´Ð¸
56 4
ÐĿ Ðł
ĠÑĢÐ¾ÑģÑģÐ¸Ð¹ ÑģÐºÐ¾Ð³Ð¾
ĠÑģ Ð»Ð¸Ð²
ĠÐ± Ð»ÑİÐ´Ð°
ÑĥÐ½ Ðº
al e
ĠÐ´Ðµ Ð»Ð¸
ĠÐºÐ¾Ð½ÐºÑĥÑĢ ÑģÐ°
Ð¾Ð± ÑĥÑģ
ÑīÐµÐ½ Ð½ÑĭÐ¹
Ð³Ð° Ð¼
04 1
Ġ li
âĢĿ ,
Ð¶ ÐµÐ½Ð¸Ñİ
ĠÐ·Ð°Ð¿Ñĥ ÑģÐºÐ°
Q u
f t
m y
ĠÐ½Ð°Ñĥ ÑĩÐ½Ð¾
Ñģ Ð½Ð¾Ð¹
ÑĦÐµÑģÑģÐ¸ Ð¾Ð½Ð°Ð»ÑĮ
ÑĢÐµÐ½ Ð´Ð°
ĠÐ¿Ð¾Ð»ÑĥÑĩÐ° ÐµÑĤ
ĠÐ½Ð° Ð¼ÐµÑĢ
ĠÐĵ ÑĢÑĥ
ĠÐ¼ Ð¾ÑĤÐ¸
ÐŃ Ð¡
ĠÐ¿ÑĢÐ¾Ðµ ÐºÑĤÐ¸
ĠÐºÑĥ Ð¿Ð¸
Ñĩ Ð½ÐµÐ²
ĠÐ´Ð¸Ð° Ð¿Ð°Ð·
ĠÐºÑĢÐµÐ¿ Ð»ÐµÐ½Ð¸Ñı
ĠÐ¿ÑĢÐ¾ Ñħ
35 2
nÐŁÐµ ÑĢÐµÐ´
ĠÐºÐ»Ñĥ Ð±Ð°
ĠÐ±ÑĥÐ¼Ð° Ð³Ð¸
ĠÐ¸ ÑģÐºÐ°
98 90
ĠÐ¿ÑĢÐµ Ð´Ðµ
ĠÐ¾Ð±Ð¾ÑĢÑĥÐ´ Ð¾Ð²Ð°
ĠÑĢÐ°Ð·Ð¼ÐµÑĢ Ð¾Ð²
ĠÐºÐ¾Ð½Ð´Ð¸ ÑĨÐ¸Ð¾Ð½Ðµ
ĠÐ·Ð° Ñħ
Ð¼ Ð¾Ð¼
Ð·Ñĭ Ð²
Ñĥ ÐµÑĤ
20 07
Ð¶Ð° ÑĤ
a h
ĠÐ²Ð»Ð¸Ñı ÐµÑĤ
Ð¾Ð² ÑĭÐ¼
ĠÑģÐµÐ¼ ÑĮÐµ
Â» )
ĠÐ¾ÑĤÐ½Ð¾ ÑĪÐµÐ½Ð¸Ðµ
ĠÑģÐ¸ Ð´
Ġ Ð¾ÑĢÐµ
ĠÐ¿ÑĢ Ð¾ÑģÑĤÐ°
Ð³Ð¸ Ð¹
nÐļ Ð¾Ð»
Ð»Ð¸ Ðº
ĠÐ±ÑĥÐº Ð¼Ðµ
ĠÐ½Ð° ÐºÐ°Ð·Ð°
ĠÐ¾Ð¿ÑĤÐ¸ Ð¼Ð¸
ĠÑĢ Ð¾Ð±
ĠÐ¿ÑĢÐµÐ¿Ð°ÑĢÐ° ÑĤÐ¾Ð²
ÑĢÐ¾Ð¸ÑĤÐµÐ»ÑĮ ÑģÑĤÐ²Ð¾
ĠÐ¨ Ð°
Ðł Ð°Ð·
ĠÐļÐ¾Ð½ ÑģÑĤÐ°Ð½
ÑĤÐ¾Ð² ÑĭÑħ
ĠÐĹ Ð°Ð²
ĠÐ¿Ð¾Ñĩ ÑĤÑĥ
ĠÐ¿ÑĢÐ°Ð² Ð´Ð°
ĠÐ¿Ð¾ÑģÑĤ ÑĥÐ¿Ð¸
O G
Ð± ÐµÐº
ĠÑįÐºÑģÐ¿ÐµÑĢ ÑĤÐ¸
ĠÐ¿Ð¾Ð»ÑĥÑĩÐ¸ ÑĤÑģÑı
ĠÐ¾Ð´ Ð¾Ð±
ĠÐ¾Ð·Ð½Ð°ÐºÐ¾Ð¼ Ð¸ÑĤÑĮÑģÑı
ĠÑģÐ¾Ð·Ð´Ð° Ð½Ð¸Ð¸
ĠÐ¾ÑģÑĤ ÑĢÐ¾Ð²Ð°
/ "},"
ĠÐĵ ÐµÐ½
ĠÑĢÐ°Ð· Ð²Ð»Ðµ
ÐºÐ¾Ð² ÑģÐºÐ¸Ð¹
Ð¢ Ð«
ĠÐºÐ¾Ð¼Ð¿Ð»ÐµÐº ÑģÐ°
ĠÐ½ Ð¾Ð³Ð¸
Ð½Ð° ÑĩÐ°Ð»Ð°
Ð¾ÑĩÐµ Ðº
ĠÑĤÑĢÑĥÐ´ Ð½Ð¾
83 2
ĠÐ»Ñİ Ð´ÑĮÐ¼Ð¸
0 96
ĠÑģÐ¾Ð¾ÑĤÐ²ÐµÑĤ ÑģÑĤÐ²ÐµÐ½Ð½Ð¾
ĠÐ´ÐµÐ²Ñĥ ÑĪÐºÐ°
ĠÑģ ÑĬ
0 22
ĠÐ¾Ð¿ÑĢÐµÐ´Ðµ Ð»ÑĳÐ½
Ð¼Ð°Ð³Ð°Ð·Ð¸ Ð½
ĠG roup
ĠÐ¾ÑĤÐºÐ°Ð·Ð° ÑĤÑĮÑģÑı
ĠÐºÐ²Ð°Ð´ ÑĢÐ°ÑĤ
ĠÐ¿ÑĢÐµ Ð²Ð¾Ñģ
ĠÐº Ð¸Ð½
ĠÐ´ Ð²Ð¾Ð¹
ĠÐĿÐ° ÑĨÐ¸Ð¾Ð½Ð°Ð»ÑĮ
ĠÐ²Ð¸ Ð´ÐµÑĤÑĮ
ĠÐ¾Ð¿ ÑıÑĤÑĮ
ĠÐ³Ð¸ Ð±
ĠÐ¼Ð¸Ð»Ð»Ð¸ Ð¾Ð½Ð¾Ð²
Ð²Ð°ÐµÐ¼ ÑĭÑħ
ĠÐĳ Ð°Ð¹
ĠÐ± ÑĥÑĢ
ÑĤÐ¸Ð² Ð½ÑĭÐ¼
Ð°Ð½ Ð½ÑĭÐ¹
ĠÑħÐ¾ÑĤ ÑıÑĤ
ĠÑĥ Ð»Ñĭ
ĠÐ°Ð»ÑĮ ÑĤÐµÑĢÐ½Ð°
76 9
36 8
Ð¾ÑĤ ÑĢÑĥÐ´
94 9
A V
ĠÐłÐµ Ð³Ð¸
Ð°Ð½ Ð½ÑĭÐµ
ĠÐ´Ð¾ÑģÑĤÑĥÐ¿ Ð½Ñĭ
ĠÑĢÐµÐ³Ð¸ÑģÑĤÑĢÐ° ÑĨÐ¸Ñİ
ĠÐ¥ ÑĢÐ¸
ĠÐ¢ Ð°Ð¹
Ñħ Ð¾Ð¹
ĠÐ¸ÑģÐ¿Ñĭ ÑĤÑĭ
ĠÐ½Ð° Ð»Ð¸Ñĩ
ĠÐ¿Ð» Ð¾Ð´
83 39
ĠÐºÐ¸ ÑĪÐµ
ĠÐ¿Ð¾Ð´ ÑĥÐ¼Ð°
ĠÐ·Ð°Ð¿Ð° Ð´
ĠÐ²Ñĭ ÑģÑĤÑĥÐ¿
a in
ĠÑģÐ²ÑıÐ·Ð° Ð½Ð½ÑĭÐµ
ĠÐ½Ð°ÑģÑĤ Ð¾Ð»ÑĮÐºÐ¾
ĠÐ¿Ð¾Ð´ÐºÐ»Ñİ ÑĩÐµÐ½Ð¸Ñı
998 86
nÐĲÑĢ ÑĤÐ¸ÐºÑĥÐ»
ĠÐ¸Ð½ÑĤÐµ ÑĢÐµ
ĠÐĿ Ðķ
ĠÐ½Ð¾Ð² Ð¾ÑģÑĤÐµÐ¹
98 34
ĠÐ¿ÑĢÐ¾ ÑħÐ¾Ð´Ð¸
ĠÐ³Ð»Ð° Ð²Ð°
S M
i y
ĠÑģÐ¾Ð´ÐµÑĢÐ¶Ð° Ð½Ð¸Ñı
995 2
99997 926
ĠÐľ Ð¾Ð¶ÐµÑĤ
ĠÐ½ÐµÐ´Ð²Ð¸Ð¶Ð¸ Ð¼Ð¾ÑģÑĤÑĮ
Ð·Ð¸ Ð½Ð°
ĠÐ»Ð¸Ñĩ Ð½Ð¾ÑģÑĤÐ¸
ĠÐ»ÑİÐ± ÑĥÑİ
ĠÑĩ ÐµÑĢÐµ
Ð°Ð» Ð¾ÑģÑĮ
29 1
ĠÐº ÑĥÑģ
/ ?
P G
ÑģÐ¿ Ð¾ÑĢ
ÑĤÐ¸ ÑĩÐµÑģÐºÐ¸Ðµ
nÐļÐ° ÐºÐ¸Ðµ
24 9
17 1
ĠÐ´Ð¸Ð·Ð°Ð¹ Ð½Ð°
Ñį Ð»ÐµÐºÑĤ
ĠÐ¿Ð¾Ñħ ÑĥÐ´
98 14
ĠD e
Ġ 47
Ð¶Ðµ Ð²
ĠÑĢÐµÐ´ ÐºÐ¾
Ð¾ÐºÑĥ Ð¼ÐµÐ½ÑĤÑĭ
Ð´Ðµ ÑĢÐ°
Ð»ÐµÐºÑģÐ°Ð½Ð´ ÑĢ
Ġ Ð¾Ð¼
at ch
ĠÑģÐ¾ÑģÑĤÐ° Ð²Ð°
u ch
Ñı Ð³
Ð±Ð¾ÑĢ ÑĥÐ´Ð¾Ð²Ð°Ð½Ð¸Ðµ
ĠÐ°Ð¿ Ð¿Ð°ÑĢÐ°ÑĤ
ĠÐº ÑĢÐ¾Ð²Ð°
ĠÑģÐµÑĤ ÑıÑħ
ĠÐ·Ð° ÑĢÑĥÐ±Ðµ
ĠS p
ĠÐºÐ°ÑĢ ÑĤÐ¾Ñĩ
ĠÑĤÑĢÐµÐ±Ñĥ ÑİÑĤ
98 37
ÑĢ Ð¾Ð»Ð¸
Ð¿ ÐºÐ¸
ĠC ol
Ñį ÐºÐ¾Ð½Ð¾Ð¼Ð¸
ĠÐļ Ð¾Ñģ
ĠÑįÑĤÐ° Ð¿Ð°
ÑĩÐ¸ ÐºÐ¾Ð¼
ĠÐľ Ð½Ð¾Ð³Ð¸Ðµ
ot a
ĠÑģÐ¿Ð¾ÑģÐ¾Ð± ÑģÑĤÐ²ÑĥÐµÑĤ
ĠÐ¾Ð±Ñĥ ÑĩÐ°
ĠÑĥÑģÐ»Ð¾Ð²Ð¸ ÑıÐ¼Ð¸
ĠÐ¸Ð· Ð´Ð°Ð½Ð¸Ñı
ĠÐ°Ð·Ð° ÑĢÑĤ
ĠÐ¿Ð¾ÑģÐ»ÐµÐ´ Ð½Ð¸Ð¹
87 8
ĠÐµ Ð·
ĠÑģÑĢÐµÐ´ÑģÑĤÐ²Ð° Ð¼Ð¸
Ð»Ð¸ Ð¹ÑģÐºÐ¸Ð¹
ĠÑģÐ¸ÑģÑĤÐµÐ¼ Ð¾Ð¹
O K
Ð´Ð¾ÑĢÐ¾Ð² ÑĮÐµ
ĠÐ¿ÑĢÐ¾ÑĨ ÐµÐ½ÑĤÐ¾Ð²
ĠÑģÐ²Ð° Ð´ÑĮ
ĠÐŁ Ð¾Ð·
ÑĢÐ¸ Ð´Ð¸
ĠÐ¿Ð¾Ð´Ð° ÑĩÐ¸
ĠÐĴ ÑĤ
ĠÐĲÐ»ÐµÐºÑģÐ°Ð½Ð´ ÑĢÐ°
OV ID
ĠÐ·Ð° ÐºÑĢÐµÐ¿
ĠÐŁ ÐĴ
ĠÑģ ÑĢ
06 2
Ð½Ð¾Ð´ Ð¾ÑĢÐ¾Ð¶
Ð¾Ð³ ÑĢÐµÐ²Ð°
ĠÐº Ð¾Ð¶Ð°
ĠÐ¿ÑĢÐ¾Ð· ÑĢÐ°
ĠÐ¥ Ð¾Ð»
12 9
ĠÐ¾Ð³ÑĢÐ°Ð½Ð¸ ÑĩÐµÐ½Ð¸Ñı
ĠÐ·Ð½Ð° Ð½Ð¸Ð¹
ÐĴ Ð¸
ĠÐ¼Ð°ÑģÑģ Ð¾Ð²ÑĭÑħ
p ost
ĠÐĵÐ»Ð°Ð² Ð½ÑĭÐ¹
ĠÑĥ Ð¿Ð»Ð°
ĠÐ¿Ð¾Ð´Ð´ÐµÑĢÐ¶ ÐºÐ°
ÑĤÐµÐ»ÑĮ ÑģÑĤÐ²
ĠÐĴÐ¾Ð» Ð³Ð¾Ð³ÑĢÐ°Ð´
ĠÑģÐ° Ð¼Ð°Ñı
Ð¿ÑĢÐ°Ð² ÐºÐ°
ĠÐ´Ñĥ ÑĪÐ¸
ĠÐ½Ðµ ÑģÐ¾Ð²
Ð»Ñĭ Ð¼Ð¸
ĠÐ¿Ð¾Ð¼ Ð¸
6 25
n Ð°
Ð¸ Ð¼ÐµÐ½
ĠÑĥ Ñħ
ĠÑĥÐ´Ð¾Ð²Ð»ÐµÑĤ Ð²Ð¾ÑĢ
ĠÐŁ Ð¾Ñĩ
05 0
37 9
ĠÐ¿Ð¾Ð´ Ð²Ð¸
ĠÑĥÑģÐ»Ð¾Ð²Ð¸ Ð¸
Ð»Ð¸ Ð½Ð³
FA BA
ĠÑĨÐµ Ð¿
ĠÐĲ Ð³
88 2
ĠÐ¼Ð¾Ñī Ð½Ð¾ÑģÑĤÐ¸
Ð»Ð¾ Ð½Ñĭ
Ð°Ð»ÑĮ Ð½ÑĥÑİ
Ð³Ð¾ÑĤÐ¾Ð² ÐºÐ°
ĠÑģÐ¾Ð·Ð´Ð° Ð²Ð°ÑĤÑĮ
ys tem
ĠÐĴ Ð¾Ð´
ĠÐ¿ÑĢÐ¸ÑĩÐ¸ Ð½Ð¾Ð¹
ĠÑĦÐ°ÐºÑĤ Ð¾ÑĢÐ¾Ð²
998 34
26 8
ĠÐĺÑģÐ¿ Ð¾Ð»ÑĮÐ·Ñĥ
m p
ÑģÑĤ ÑĭÐµ
ĠÑģÐ¿ÐµÑĨÐ¸Ð°Ð»ÑĮ Ð½ÑĭÑħ
ĠÐ¿Ð¾Ñģ Ñĭ
ÑīÐ° ÐµÐ¼
ÑģÑĤ ÐµÑĤÐ¸
ĠÑĩÐ°ÑģÑĤ ÐµÐ¹
ĠÐ·Ð°Ð¼Ðµ ÑģÑĤÐ¸
ĠÐ½ Ð¾Ð²Ð°Ñı
ĠÑĢÐµÑĪÐ¸ Ð»
lo w
ĠÐ¿Ð¾Ð¼Ðµ ÑīÐµÐ½Ð¸Ðµ
ĠÐ± Ð¾Ð»Ðµ
ĠÐ¿Ð¾Ð´ Ð½Ð¸Ð¼Ð°
ĠÐ¿ÐµÑĩÐ° ÑĤÐ¸
nÐ¤ Ð¾ÑĢ
Ġ: :
98 57
Ð³Ð¸ Ð¿
ĠÐ¼ÐµÐ»ÑĮ Ð½Ð¸ÑĨÐ°
ĠÐ¿ÐµÑĢÐ¸ Ð¾Ð´Ð°
ĠÐĳ ÑĥÐ´
ment s
ĠÐ¾ÑĤÐºÑĢÑĭ ÑĤÑĮ
Ð¾Ð½ Ð½Ð¾Ð³Ð¾
ĠÐ³Ð»Ð°Ð² Ð½ÑĭÐ¹
ĠÐł ÑıÐ·Ð°
ĠÐ²Ð¾ ÐµÐ½Ð½Ð¾
Ðł Ð«
07 8
ĠÐĳ ÐµÑģÐ¿Ð»Ð°ÑĤ
ĠÑİÑĢÐ¸Ð´Ð¸ ÑĩÐµÑģÐºÐ¸Ñħ
ÑĢÑĥ ÑİÑīÐ¸Ðµ
ĠÐ¿Ð°ÑĢÑĤ Ð½ÐµÑĢ
ĠÑĥ ÑħÐ¾Ð´Ð°
ĠÑĢÐµ Ð¿
77 3
. /
ĠÐ±Ñĭ ÑģÑĤÑĢ
ĠÑĪ Ð»Ð¸
ĠÐ²Ð°ÑĪ ÐµÐ¼Ñĥ
O C
Ð¾Ð¸Ð·Ð²Ð¾Ð´ ÑģÑĤÐ²Ð¾
ĠÐ´Ð²ÐµÑĢ ÑĮ
ĠÐ³Ð¾ÑĢÐ¸Ð· Ð¾Ð½ÑĤÐ°
ĠÑģÑĤ ÑĢÐ¾Ð¸
ĠÐ¾ÑĤ ÐºÐ°Ð·
ĠÐ¿ÑĢÐµÐ¿ ÑıÑĤ
ÑĢÐ° ÑĤÑĮÑģÑı
nÐ§ ÐµÐ¼
46 2
84 1
Ðľ Ð°Ð½
ĠÑĩÐµÑĤÑĭÑĢÐµ Ñħ
nÐļÐ¾Ð¼Ð¼ÐµÐ½ÑĤÐ°ÑĢÐ¸ Ð¸
ĠÐ³ Ð»Ð¾Ð±
nÐ¡ Ð¾Ð·Ð´Ð°
ĠÐ¸Ñģ ÑħÐ¾Ð´
ĠÐĺ Ð³ÑĢÐ°
ĠÐºÐ¾Ð¼Ð¿Ð° Ð½Ð¸ÐµÐ¹
ĠÐ²ÑĭÐ¿Ð»Ð° ÑĤÑĭ
ÑĤÐ¾ Ð¸ÑĤ
ĠÐľ Ð°Ð½
ĠÐ¸Ð·Ð±Ð° Ð²Ð¸ÑĤÑĮÑģÑı
nÐŁ Ð°ÑĢ
Ð¿Ð¾ ÑĩÐ¸ÑĤÐ°
Ð°Ð± Ð°ÑĢÐ¾Ð²
E V
m s
nÐŁ Ðŀ
ĠÐĺ Ð²Ð°Ð½
ÐĲ Ð»
ĠÐĸ ÐµÐ½
ĠÐ¿ÐµÑĢÐµ Ð¹
ĠÐºÑĢÐ¸ ÑĤÐµÑĢÐ¸
Ðº Ð»Ðµ
Ġth is
nÐŁ ÑĢÐ°Ð²
ĠÐ¼ÐµÐ´Ð¸ ÑĨÐ¸
nÐŀ ÑĢ
ĠÐ´ Ð¾Ñģ
Ġ ÑīÐ¸
nÐĿ Ð°Ð¹ÑĤÐ¸
09 2
sh op
ĠÐ¿Ð¸ ÑīÐ¸
ĠÑĢ ÑİÐºÐ·Ð°
98 36
ĠÐ¿ÑĢÐµÐ¿Ð°ÑĢÐ° ÑĤÐ°
ĠÑĤÐµ Ð¼Ð°ÑĤÐ¸
998 23
ĠÐĺÑģÑĤ Ð¾ÑĢÐ¸Ñı
Ð¾Ñģ Ð½Ð°Ð±
Ð· ÐºÐ¸
ĠÑģÑĤÐµÐº Ð»Ð°
nÐŁ Ð¾Ð»ÐµÐ·
ÑĢÐ° Ð´Ð¸
ĠÑģÑĤÐ°Ð½ ÑĨÐ¸Ð¸
999 1
Ð½Ð¸ ÑĤÐ°
Ð¾Ð¾Ð± ÑĢÐ°Ð·Ð¸
ĠÐ¿ÑĢÐ¾Ð±Ð»Ðµ Ð¼Ñĥ
ĠÑģÐµÐ· Ð¾Ð½Ð°
Ð² ÑĢÐµÐ¼ÐµÐ½
ĠÑģÐ¾Ð¿ ÑĢ
nÐĲÐ´ Ð¼Ð¸Ð½Ð¸ÑģÑĤÑĢÐ°
Ð½Ð¸ Ð»Ð°
DE A
o te
ĠÐ½ÐµÐ´Ð°Ð² Ð½Ð¾
ĠÐł ÐĲ
ĠÐ¿Ð¾ÑģÑĢÐµÐ´ ÑģÑĤÐ²Ð¾Ð¼
Ġ !
ÑĢÐ¾Ð² Ð½Ð°
ĠÐ¼Ð½Ð¾Ð³Ð¾ Ðµ
ÑĬ ÑıÑģ
on g
Ð¿ ÑĢÐ¾Ð¼
th er
ĠI nter
ĠÑģ ÐµÑĤÐµ
ĠÐ¾Ð±ÑĢÐ°Ð±Ð¾ÑĤ ÐºÐ°
Ġ Ð¾ÑģÐº
ĠÑģÑĤÐ°Ð½Ð¾Ð² ÑıÑĤÑģÑı
ÑĦ Ñĥ
Ð¼Ð¾Ð¶ Ð½Ð¾ÑģÑĤÑĮ
ĠÐŁÐ¾Ð»Ð¸ ÑĤÐ¸ÐºÐ°
v al
ala xy
998 27
ĠÐ¿Ð¾ÐºÐ¾Ð» ÐµÐ½Ð¸Ñı
ĠÐ¿ Ð¾Ð¶ÐµÐ»Ð°
ÑģÑĥ Ð»ÑĮÑĤÐ¸
ĠÐ¶ÐµÐ»Ð° Ð½Ð¸Ðµ
ĠÑı Ð¿Ð¾Ð½
Ð½Ð¾Ð¼ Ð¾Ñĩ
ĠÐ½Ð° ÑĪÐ»Ð¸
ĠÐĺÐ· ÑĢÐ°
Ð» Ð¾Ð´
Ð´Ð° ÑĩÐ°
ĠÑģÑĤ ÑĥÐ¿
Ð¶ ÐµÑĢ
ĠÐº ÐµÐ¼
ĠÐ·Ð° Ð²Ð¸
at or
ĠÐ¿Ð¾ ÐµÐ·Ð´
Ð»Ð¾Ð¼ Ð°
ĠÐ¿Ð¾Ð´ ÑĬ
ĠÐ±Ð¾ÑĢÑĮ Ð±Ñĭ
Ġ20 05
ĠÐ½Ð°Ð³ÑĢÑĥÐ· ÐºÐ¸
R M
ÑĢÐµÐ´ ÐºÐ¾
ĠÐ¿Ð¾Ð¼Ð¾Ð³Ð° ÑİÑĤ
ÑĪÐºÐ¸ Ð½
ĠÐ¼ Ð¾Ñı
E K
ad a
Ð¾Ð±ÑħÐ¾Ð´Ð¸ Ð¼Ð¾
ĠÐ¿Ð°ÑĢ ÑĤÐ¸Ð¸
ĠÐĴÐ° ÑĪÐ¸
ĠÐ¼ Ð¾ÑĢÑı
ĠÐ¿Ð°ÑĢÐ°Ð¼ÐµÑĤ ÑĢÑĭ
ÑĤÐ¾ÑĢÐ° Ñı
ĠÐ·Ð½Ð° ÑİÑĤ
ĠÑģÐµÐ¼ ÑĮ
ĠÐºÑĢÐ° ÑģÐºÐ¸
or ld
ĠÐ¡ ÑĢÐµÐ´Ð¸
ĠÐ¿ÑĢÐ°Ð·Ð´ Ð½Ð¸Ðº
ĠÐ¿ÑĢÐµÐ´ÑĥÐ¿ ÑĢÐµÐ¶Ð´
ĠÐ¿ÑĢÐµÐ´ ÑĬ
34 9
ĠÐł ÐµÐ¼Ð¾Ð½ÑĤ
98 47
998 95
ĠÑĢÐµÐ°Ð»Ð¸ Ð·Ð¾Ð²Ð°
ĠÐ²ÐµÑĢ Ð½ÑĥÑĤÑĮ
ĠÑĢÐµ Ð²Ð¾Ð»Ñİ
28 9
ĠÑĢÐµÐ¶Ð¸ Ð¼Ð°
ĠÑģÐ¾Ð¾ÑĤÐ²ÐµÑĤ ÑģÑĤÐ²ÑĥÐµÑĤ
Ð½Ð¾Ð² ÐµÐ½Ð¸Ðµ
ĠÐ´Ð¾ÑģÑĤÐ° ÑĤÐ¾Ñĩ
ĠÑģÐ¾Ð¿ÑĢÐ¾Ð² Ð¾Ð¶Ð´Ð°
ĠÐ½Ð°ÑĢ Ð¾Ð´Ð°
ĠÐ²Ñĭ Ð¿Ð¸
ĠÐ±ÑĥÐ´Ñĥ ÑīÐµÐ¼
ĠÐļ Ð¾ÑĤ
ĠÐ¾Ð³ÑĢÐ¾Ð¼ Ð½Ð¾Ðµ
Ðĺ ÐĲ
ĠÑģÐ´ÐµÐ»Ð° Ð»
ÑĢÑĥ Ð¹ÑĤÐµ
ĠÐ³ Ð¾ÑģÑĤÐµÐ¹
ide o
ÑĪÐµ Ð±
nÐłÐ°Ð· Ð¼ÐµÑĢ
ĠÑģ Ð±Ð¾ÑĢÐ°
ĠÐ¸Ð½ÑģÑĤÑĢÑĥ Ð¼ÐµÐ½ÑĤÐ¾Ð²
ÐºÐ¸ Ð½Ð°
46 1
ĠÑĨ ÐµÐ¼
ĠÐ¦ÐµÐ½ÑĤ ÑĢ
U X
ĠÐºÐ¾Ð¼ Ð±Ð¸
ĠÐ¾ÑĪÐ¸Ð± ÐºÐ¸
ĠÐ¼ÐµÑĤÐ°Ð» Ð»Ð°
ĠÐ¿Ð¾Ð·Ð¸ ÑĨÐ¸Ð¸
Ð¿Ðµ ÐºÑĤ
ĠÐ²Ð° ÑĪÐ°
Ð³Ð¸ Ð¾Ð·
ĠÑĪÑĤÑĥ ÐºÐ°
ĠÐ²Ñĭ Ð±Ð¸ÑĢÐ°ÑĤÑĮ
08 2
ĠÐ¿Ð¾Ð¿ÑĥÐ»ÑıÑĢ Ð½ÑĭÑħ
ĠÐ¾Ð¿ÑĢÐµÐ´Ðµ Ð»Ð¸
nÐĹ Ð½Ð°
ĠÐ¿ÑĢÐµÐ´Ð»Ð°Ð³Ð° ÐµÐ¼
999 17
ÑĨÐ¸Ñı Ð¼
us e
ĠÐ²ÑĭÐ¿Ð¾Ð» Ð½Ñı
ĠÑģÑĢÐµÐ´ Ð½ÐµÐ¼
nÐļÐ¾Ð¼Ð¼ÐµÐ½ÑĤÐ°ÑĢÐ¸ Ð¹
Ð¾Ð¿ÑĢÐ¸ ÑıÑĤ
ĠÐ¿ÑĢÐµÐ¿Ð¾Ð´Ð° Ð²Ð°
ĠÐ¡ Ð»ÐµÐ´Ñĥ
ÑħÐ½Ð¾Ð»Ð¾Ð³Ð¸ Ð¸
ĠÐ½Ð°Ð·ÑĭÐ²Ð° ÐµÑĤÑģÑı
ĠÐł Ðķ
ĠÑĢÐ°Ð· Ð´ÐµÐ»Ð°
ĠÐ¾Ð± ÑģÐ»ÐµÐ´
99 30
ĠÐłÐ° ÑģÐ¿
ĠÐ¼Ð°ÑĪÐ¸ Ð½Ñĥ
Ġf unction
ĠÐ³ ÑĢÑı
Ð´Ð° Ð»ÑĮ
ĠÐĶ Ð¾Ð»
ĠÐ¿Ð¾Ð¼Ðµ ÑīÐµÐ½Ð¸Ð¸
T X
ĠÑįÑĤÐ° Ð¿
ĠÑĪ ÐµÑĢ
ĠÐ´ÐµÐ½Ðµ Ð¶Ð½ÑĭÑħ
ĠÐ±Ð¸ ÑĤ
ĠÐ½Ð°Ð¿ÑĢÑı Ð¼ÑĥÑİ
999 23
O X
ĠÐ¿ÑĢÐµÐ´ÑģÑĤÐ°Ð²Ð¸ ÑĤÐµÐ»ÐµÐ¹
an k
ĠÐºÐ¾ÑĢÐ¿Ñĥ ÑģÐ°
ĠÐºÐ»Ð¸ ÐµÐ½ÑĤ
ĠÐºÐ²Ð°ÑĢ ÑĤÐ°
ĠÐĵ Ð»Ð°Ð²Ð°
n b
T S
ĠÑħ Ð¾ÑĤÐµ
0 16
( \"
ÑĪ ÐºÐ¾ÑĢ
ÑĨ Ðº
ĠÑħ Ð°
ĠÑģÐ¸ Ð»ÑĮ
nÐŁÐ¾Ð´ Ð¿Ð¸ÑģÐ°ÑĤÑĮÑģÑı
nÐĹÐ° ÑĢÐµÐ³Ð¸ÑģÑĤÑĢÐ¸
34 2
ĠÐ¿ÑĢ Ð¾Ð¿Ð¸
998 26
ĠÐ³ ÐµÐ¼
ĠÐ±Ñĥ ÑĤÑĭ
ĠÐ¿Ð¾ ÑıÐ²Ð»ÐµÐ½Ð¸Ñı
Ð´Ð° Ð»
ĠÐ¿ÑĢÐ¸Ð½Ð¸Ð¼Ð° ÐµÑĤ
ĠÐ½ÐµÐ¸ÑģÐ¿ ÑĢÐ°Ð²
ĠÐĶÐµÐ¿Ð°ÑĢÑĤÐ° Ð¼ÐµÐ½ÑĤ
ro ws
ĠÐ² Ð¾Ð¿
nÐŀÐ´ Ð½Ð°ÐºÐ¾
22 1
ĠÐĳÐµÐ»Ð°ÑĢÑĥ ÑģÑĮ
Ð¶ Ð½ÑĥÑİ
ĠÑĤÐ¾Ð½ Ð½
998 93
ĠÐ¿ÑĢ Ð¾Ð¹
ĠÑģÑĤ Ð¾ÑĢÐ¾Ð½Ð°
ĠÐ´ÑĥÐ¼Ð° Ñİ
Ð½ Ð´Ð°ÑĢ
ĠÐºÐ°Ðº Ð¾Ð³Ð¾
999 14
ĠÐ¾Ð± ÑīÐµÐ½Ð¸Ñı
ĠÑģÐ² ÐµÐ´
e y
Ð¾Ð´Ð¸ ÑĤÐµÐ»ÑĮ
Ð¾Ð¶Ð´ ÐµÐ½Ð¸Ð¸
Ðľ Ðķ
Y N
ĠÐ¿Ð¾ÑıÐ²Ð»Ñı ÑİÑĤÑģÑı
ÑīÐµ ÑģÑĤÐ²ÑĥÐµÑĤ
999 18
yd ra
Ġw eb
Ġ4 8
ÐĶ ÐĶ
ĠÐ¸Ð´Ðµ Ð°Ð»ÑĮÐ½Ð¾
ĠÑĢÑĥ ÐºÐ°
ĠÑģÐ²Ð¾ Ñĳ
ĠÑĥÐ³ ÑĢÐ¾Ð·
ĠÐĶ Ð°Ð»ÑĮ
ï ¸
ĠÑĩÑĢÐµÐ· Ð²ÑĭÑĩÐ°Ð¹
ĠÐ¸ ÑģÐºÐ°ÑĤÑĮ
ĠÐĶÐ° Ð»ÐµÐµ
ĠÑĦÑĥÐ½Ðº ÑĨÐ¸Ð¹
Ðĺ ÐĿ
ĠÐ¼ Ð½Ð¾Ð¹
D R
999 26
ĠÐ²Ð¾ÑģÑģÑĤÐ°Ð½Ð¾Ð² Ð»ÐµÐ½Ð¸Ñı
ĠÑĪ ÑĥÐ¼
ĠÐ¾Ð¿ ÑĭÑĤÐ°
ĠÐ¾ÑĤÐ¿ÑĢÐ°Ð² ÐºÐ¸
ĠÑĥ Ð¶Ð°
nÐłÑĥÐ± ÑĢÐ¸ÐºÐ¸
ĠÐ¾Ð¿ÑĢÐµÐ´Ðµ Ð»ÑıÐµÑĤÑģÑı
Ð¾Ð³ÑĢÐ°Ð¼ Ð¼Ñĭ
ÑĨÐ¸ Ð¿
ĠÐ¸ÑģÑĤÐ¾Ñĩ Ð½Ð¸ÐºÐ¾Ð²
ĠÑĢÐ°Ð· Ð¾Ð±ÑĢÐ°
ĠÐºÐ° Ð±Ð¸Ð½
Ð»Ñı Ð¼
ĠÐ¾ÑĤÐ´Ðµ Ð»ÑĮÐ½Ð¾
ÐµÐ² ÑģÐºÐ°Ñı
ĠÑģÐ¸ÑĤÑĥÐ° ÑĨÐ¸Ñİ
ĠÐºÐ° Ð¼ÐµÑĢÑĭ
Ð²Ðµ ÑĢÐ¸
ĠÑĥÐ´ Ð¾ÑģÑĤÐ¾Ð²ÐµÑĢ
ĠÐ§ Ð¸ÑĤÐ°ÑĤÑĮ
ÑīÐµ Ð³Ð¾ÑģÑı
ĠÐĵ Ðļ
ÑĪÐºÐ¾ÑĢ ÑĤÐ¾
Ñģ Ð½Ð°Ñı
98 17
3 038
ĠÐ½Ð°ÑģÑĤÐ¾Ñı ÑīÐµÐ¹
ĠÑĢÐµÐ³Ð¸ Ð¾Ð½Ðµ
Ð»Ð¾ Ð½Ðµ
Ġ[ âĢ¦
998 55
ÑĢÐ¾ ÑĦÐ¸
ÑģÑĤÐ²ÐµÐ½ Ð½Ð¾Ð¼
ĠÑĪÐ° Ð³
ĠÐ¿ÐµÐ´Ð°Ð³ Ð¾Ð³Ð¸
Ñĥ ÑģÐ°
ĠÐºÐ¾Ð½ ÐºÑĥ
Ð½ Ð½Ð¾Ðµ
it ion
ĠÐ³Ð»ÑĥÐ± Ð¾Ðº
Ñı ÐµÑĤ
ĠÑĢÐµ Ð³Ð»Ð°
ĠÐĶ Ð¾Ð½
n Ð¾Ð±
ĠÑģÑĭ ÑĢÑĮ
ĠÐĲ Ð½Ð°ÑĤ
l t
ĠÑģÑĤ ÑĥÐ´Ð¸
98 54
et a
ĠÐºÐ° ÐºÑĥÑİ
Ġ4 2
Ð¾Ð¶Ð¸ Ð´Ð°Ð½
) :\
ĠÐ½Ð°ÑĩÐ¸Ð½Ð° ÑİÑĤ
Ð°Ð³ Ð°Ð½
ĠÐ² Ð¾Ð¾ÑĢÑĥ
ĠÐ²Ð½ÐµÑĪ Ð½Ð¸Ð¹
m od
it ed
ĠÑĥÑĩÐ°ÑģÑĤÐ¸ Ñı
999 25
ĠÑģÐ¾Ð³Ð»Ð°ÑĪÐ° ÐµÑĤÐµÑģÑĮ
ĠÐ¿ Ð°Ð»
ĠÐ¿ÑĢÐµÐ´Ð¿Ð¾Ñĩ ÑĤ
ĠÑģÐ¿ÐµÑĨÐ¸Ð°Ð»Ð¸ Ð·Ð¸ÑĢÐ¾Ð²Ð°Ð½
Ð¾Ñģ Ð½Ð¾Ð²Ð°
ĠÐ½Ðµ Ð¿ÑĢÐµ
ĠÐ±Ñĭ Ð²Ð°ÑİÑĤ
ĠÐ¿ÐµÑĢÑģÐ¾Ð½Ð°Ð»ÑĮ Ð½ÑĭÐµ
ĠÐºÐ° ÑĦÐµ
ĠÑģÑĤ Ð¾Ð»Ð¾Ð²
ĠÐ±Ð° Ð³Ð°
ĠÐ²ÑĤÐ¾ÑĢ Ð¾Ð³Ð¾
ĠÐ±ÑĥÐ´ ÑĤÐ¾
13 0
ĠÐ¸Ð½Ð¾ÑģÑĤÑĢÐ°Ð½ Ð½ÑĭÑħ
Ð»ÐµÐ½Ð´Ð° ÑĢÑĮ
Ð´Ð¸ Ð»
ĠÐ²Ñģ Ð»ÐµÐ´
ĠÐ¢ Ð¾Ð»
Ð¸Ð½ ÑģÐºÐ¸Ð¹
Ð·ÐµÑĢ Ð±Ð°Ð¹
ĠÑģÑĤ Ð¾Ð»ÑĮÐºÐ¾
Ñı Ð²Ð¸ÑĤÑĮ
ĠÐĲÐº ÑģÐµÑģÑģÑĥÐ°ÑĢÑĭ
Ġs ays
I F
ÑĢÑĭ Ðµ
ĠÐ½Ð°Ð¿Ð¸ÑģÐ° ÑĤÑĮ
ĠÐ±Ðµ ÑģÑģ
ĠÐ½Ð°ÑĢÑĥ ÑĪÐµÐ½Ð¸Ðµ
ĠÐºÐ¾Ð¼Ð¿Ð° Ð½Ð¸Ñİ
98 25
ĠÐŁ Ðļ
ï¸ ı
ĠÐ²ÑĭÑģÐ¾Ðº Ð¾Ð³Ð¾
ĠÐ½Ð¾Ð² Ð¾ÑģÑĤ
i nter
ĠÐķÐ²ÑĢÐ¾Ð¿ Ðµ
ÑĢÐ° ÑģÑĤÐ°
ĠÐ¿ÑĢÐ°ÐºÑĤÐ¸ ÐºÐµ
ĠÑĩÑĤ Ð¾Ð±
ĠÐ¼ Ð¾Ð»Ð¸ÑĤ
ĠÑģÐ»Ð¾Ð¶ Ð½Ð¾ÑģÑĤÐ¸
ĠÐ¼Ð° ÑģÑģÐ¸
ĠÐ´ÑĢÑĥÐ³ ÑĥÑİ
ĠÐ¿ÑĢÐ¾Ñģ Ð¼Ð¾ÑĤÑĢ
ĠÐ¸Ð· Ð¼ÐµÐ»ÑĮ
ÑĢÐ°Ð±Ð¾ÑĤ ÐºÐ¸
av a
ÑĩÐ° Ð»
998 46
ĠÐ½Ð¾ ÑģÐ¸ÑĤ
ĠÐĴÐ° ÑģÐ¸Ð»ÑĮ
Ðļ Ð¾ÑĢ
ĠÑĤÐ° ÐºÐ¸Ð¼Ð¸
ĠÑģÑĤ ÑĢÐ¸
ÐµÐ½ Ð¾Ð²
nÐ¡ ÑĢÐµÐ´
ĠÐ¼ Ð¾ÑģÐºÐ¾Ð²
ĠÐ²Ñĭ ÐºÐ»ÑİÑĩÐ°
ĠÐ°Ð²ÑĤÐ¾Ð¼Ð¾Ð±Ð¸ Ð»Ð¸
ĠÐ§ Ð¸
nÐ£ ÑģÐ»ÑĥÐ³Ð¸
ÑĤÐ¾ Ð½Ð°
nÐ¡Ð¿ Ð¾ÑĢÑĤ
ĠÐ¿Ð¾Ð·Ð² Ð¾Ð½Ð¸
Ð´ Ð½Ð¾
998 05
ĠÑĦÐ° ÑģÐ°
ÑģÑĤ Ð½ÑĭÐµ
ĠÑĦÐ° Ð¼Ð¸
en ie
Ð´Ð° ÑĨÐ¸Ð¸
ĠÑģÐ²ÐµÑĤ Ð¾Ð´Ð¸
Ð¸Ð¼Ñĥ ÑīÐµÑģÑĤÐ²Ð°
nÐ¡ Ð²Ðµ
ĠÐ²Ð° ÑĪÐ¸Ð¼
ĠÐ¾Ð² Ð¾Ñī
ĠÑģÐ¾ÑĤÑĢÑĥÐ´ Ð½Ð¸ÐºÐ¸
ĠÐ½ÐµÐ¾Ð±ÑħÐ¾Ð´Ð¸Ð¼ ÑĭÑħ
ĠÐ¿ÑĢÐµÐ´ Ð¿Ð¾ÑĩÐ¸ÑĤÐ°
ĠÐ¶Ð¸ Ð»ÑĮÑı
ĠÑģÐ»Ð¾Ð²Ð° Ð¼Ð¸
ĠÐ¾Ñģ Ð»Ð¾Ð¶
ĠÐ¿ Ð¾Ð¶Ð¸
98 26
ĠÐ¿ÑĢÐµÐ´ Ð¾ÑģÑĤÐ°Ð²Ð¸ÑĤÑĮ
ĠÐ¼Ñĥ Ð·Ðµ
ĠÐ¿ÑĢÐ¸ÑĪ Ð»Ð¾ÑģÑĮ
ÑģÐºÐ° Ð¼Ð¸
Ð²Ðµ Ð»
ĠÐ¾ÑĩÐµ Ð²Ð¸Ð´
ĠÐ¢Ð°Ðº Ð¾Ð¹
ĠÐ·ÑĥÐ± Ð¾Ð²
ĠÐĴ Ð¾Ð¿ÑĢÐ¾Ñģ
Ð²Ð° Ð¶Ð°
ĠÑĤ Ð¾Ðº
ow er
B S
ĠÑĢÐ°ÑģÐ¿ Ð¾ÑĢÑı
Ð´Ð° Ð»Ð¸ÑĤÑĮ
Ð¾ÑģÐº Ð¾Ð»ÑĮÐºÑĥ
Ð²Ð° Ð»Ð°ÑģÑĮ
ĠÑģÐ¾ÐµÐ´Ð¸Ð½ ÐµÐ½Ð¸Ñı
BA B
ĠÑĢÐ°ÑģÑħÐ¾Ð´ Ñĭ
p ar
ĠĠ Ġ
Ð¾ÑĢ Ñĥ
ĠÐ¦ Ð¸
ÐµÐ² ÑģÐºÐ¸Ð¹
ĠÐľ ÐµÑĢ
ĠÑĨ Ð°ÑĢ
ĠÐ¾ÑĤ ÑĢÐ°Ñģ
ĠÐ¼Ð¾Ð· Ð³Ð°
ÑĢÐ° Ð±
ĠÐ´Ð² ÐµÑĢÐµÐ¹
ĠÑĥÐºÐ°Ð·Ð° Ð½Ð½ÑĭÑħ
ĠÐĳ Ð¾Ð³Ð°
Ð°Ð»ÑĮ Ð½Ð¾Ð¼
ĠÐĳ Ð°Ð»
ĠÐ² Ð·Ñĭ
ĠÐ¾ÑĤ Ð¿ÑĢÐ°Ð²Ð¸ÑĤÑĮ
ĠÐ¼Ð°ÑĤ ÑĩÐµ
Ð¼Ñĭ Ð¼Ð¸
Ð½Ðµ Ðº
Ġ am
ĠÐ¿Ð¾Ð» Ð½Ð¾Ð³Ð¾
ÑģÐ¿ ÐµÑĢ
ĠÐĴ Ð¸Ð½
ĠÐ¼Ð¸ ÑĢÑĥ
ÐŁ ÐĲ
ĠÐ²Ðµ ÑīÐµÐ¹
ĠÐŀ Ð±ÑĭÑĩÐ½Ð¾
ĠÐ¾Ð±ÑģÑĥ Ð¶Ð´Ð°
ĠÐ¤ ÐµÐ´
ĠÐ¡ Ð¿Ð°
ĠÐ¸Ð·Ð¼ÐµÐ½ ÐµÐ½Ð¸Ðµ
ĠÐŁ ÑĢÐ¾Ð²
ĠÑģÑĢÐµÐ´ Ð½ÐµÐ¹
ÑģÑĭ Ð»ÐºÐ°
ĠÑĥ ÑĢ
Ð¾Ð½ÑĤÐ° ÐºÑĤ
ĠÑģ Ð¾Ð»ÑĮ
ĠÐ¾Ð±ÑĢÐ° Ð·Ñĥ
ÑĢÐµÐ·Ð° ÑĤÑĮ
Ġ or
ĠÐ¿Ð¾ÑĢÑĤÐ° Ð»
ÑĢ Ð½Ð°Ñı
n http
le x
ÐºÐ»Ñİ ÑĩÐµÐ½Ð¸Ñı
ĠÐ¿Ð¾ÑĤÐµÐ½ ÑĨÐ¸Ð°Ð»ÑĮ
ĠÑĥÐ²ÐµÐ»Ð¸ÑĩÐ¸ ÑĤÑĮ
ĠÐ»ÑĥÑĩ ÑĪÐ¸Ð¹
ĠÐºÐ¾ÑĢ Ð¼
ĠÐºÑĥÑĢ ÑģÐ°
a sh
( );
ĠÑĤÑĭÑģÑı ÑĩÐ¸
Ð¾Ñĩ Ñĥ
ÑĢÐ¾Ð± Ð»Ðµ
nÐ¢ ÐµÐ¼
ĠÐ¼Ð½Ð¾Ð³Ð¾ ÑĩÐ¸Ñģ
ĠÐ¸ Ð½Ð¾Ð¹
nÐĵ Ð´Ðµ
nÐŀ ÑģÑĤÐ°Ð²Ð¸ÑĤÑĮ
l ub
ÑĪÐ¸ Ð»
ĠÐ¼Ð¾Ñī Ð½Ð¾ÑģÑĤÑĮ
ĠÑģÑĤÑĥÐ´ ÐµÐ½ÑĤÐ¾Ð²
998 36
ĠÐ´Ð²Ð¸Ð³Ð° ÑĤÐµÐ»ÑĮ
ĠÐ¿ÑĢÐµ Ð·Ð¸Ð´ÐµÐ½ÑĤ
O D
ÑģÑĥ Ð¶Ð´ÐµÐ½Ð¸Ðµ
ka k
ĠÐĵ Ð¸Ð´
ÑħÐ° ÑĤÑĮ
ĠÑĩÑĥÐ² ÑģÑĤÐ²Ð¸
97 85
ĠÐĵ ÑĢÐµ
ĠÐ¿ÑĢÐ¾ÑģÑĤÑĢÐ°Ð½ ÑģÑĤÐ²Ð°
ĠÐ³ÑĢÐ¸ Ð±
Q L
ĠÑĤÐµÐº ÑģÑĤÐ°
nÐŁ ÑĢÐ¾Ð²
Ð¸Ð¼ Ð½Ð°
ĠÑģÑĤ Ð¾ÑĢÐ¾Ð½Ðµ
ÑĪ Ð»Ð¾
Ð¡ Ð
Ð¾Ð² Ðµ
ĠÐ·Ð° Ð³ÑĢÑĥÐ·
ĠÐ¾ÑģÑĤ Ð¾ÑĢÐ¾Ð¶
Ð° Ð½Ð°Ð»Ð¸
Ð¾Ð½ ÑĤ
Ð¸ÑģÐ° Ð½Ð¸Ðµ
A X
ĠÐ¾Ð±ÑĬ ÐµÐ¼Ð°
9926 2017
ĠÐĺÑģÐ¿ Ð°
ĠÐ³ÐµÑĢ Ð¼ÐµÑĤÐ¸
ĠÐ¿ÐµÑĢÐ² Ð¾Ðµ
ĠÐ²ÑĭÐ¿Ð¾Ð» Ð½
ÑĢÐ¾Ñģ Ð¸ÑĤÑĮ
5 25
ĠÐ¿Ð¾Ð»Ð¸ ÑĤÐ¸ÐºÐ°
Ġ are
Ñį ÑĤÐ¸
ĠÑĢ Ð¾Ð¼Ð°
ĠC an
ĠÐ¸ Ð¿
ĠÐ¿ÑĢ Ð¾ÐºÐ°
Ð¾Ð¼ Ð°ÑĤ
Ð´ ÐµÐ¼
ĠÐ²Ð¾Ð² ÑģÐµ
Ð¾Ð² ÐµÑĤ
nÐĶ ÑĢÑĥÐ³Ð¸Ðµ
ĠÐºÐ¾Ð¼Ð¿ ÐµÐ½ÑģÐ°
Ð½ Ð³Ð°
nÐŁ Ð¸
** **
ĠÑģÐ´ÐµÐ»Ð° Ð»Ð¸
Ð» Ð»Ðµ
0 84
Ð³ Ð¾Ð´Ð°
ĠÑģÑĤ Ðµ
998 24
ĠÐ¿ÑĢÐ¸Ð³Ð¾ÑĤÐ¾Ð² Ð¸ÑĤÑĮ
k y
Ð¶Ð¸ Ð¼Ð°Ñı
Ð» ÐµÑĢÑĭ
ĠÐ¾ÑģÐ½Ð¾Ð² Ñĭ
ĠÑįÐ»ÐµÐºÑĤÑĢÐ¾ ÑįÐ½ÐµÑĢ
ĠÑĥÐ±Ð¸ Ð¹
ĠÐºÐ¸ Ð¿
999 16
998 94
13 9
nÐŁÐ¾Ð¿ÑĥÐ»ÑıÑĢ Ð½ÑĭÐµ
ĠÑĤÐ¾Ð» ÑīÐ¸
ĠÐ¡ÑĤÐ° Ð²ÑĢÐ¾Ð¿
Ð¢Ðķ ÐĽÐ¬
ĠÐº ÑĢÐ¾
Ð½Ñĥ Ð»Ð°
Ð¿Ð¾Ð» Ð½Ð¾Ð¼Ð¾Ñĩ
ad d
ĠÐŁÑĥ ÑĤÐ¸Ð½
ĠÑģÐ°Ð¼ Ð¾Ð»
ĠÐĴ Ð¾ÑĢÐ¾Ð½ÐµÐ¶
nÐł ÐµÐ¼Ð¾Ð½ÑĤ
ĠÐ²ÑģÑĤÑĢÐµ ÑĩÐ¸
ÑģÑĤ Ð°ÑĢ
ĠÐ¿Ð¾Ð·Ð½Ð° ÐºÐ¾Ð¼
ÐĴ Ð¾Ð»
an ce
ĠÐĹÐ°Ð¿ Ð¾ÑĢÐ¾Ð¶
ÐµÐ² ÐºÐ°
998 00
ĠÐ¤ Ð¾Ð½
ÐĶ Ð¸
sr p
ĠÐ¿Ð¾ÑıÐ²Ð¸ ÑĤÑģÑı
Ð· ÑĥÑİ
T R
ĠÐŁ Ð¾Ðº
nÐł Ð¾ÑģÑģÐ¸Ñı
Ðĺ Ðĳ
Ð¾Ð½Ð° ÑĤ
ĠÑģÐ¾Ð³Ð»Ð° ÑĪÐµÐ½Ð¸Ñı
ÐµÑĤÐ¸ Ñı
0 25
Ð¾Ðº Ð¾Ð¸
ĠÐ¾Ð´Ðµ Ð¶Ð´Ð°
nÐ¡ ÐºÐ°ÑĩÐ°ÑĤÑĮ
ĠÑģ ÑĦÐµÑĢ
nÐŀÐ¿ ÑĥÐ±Ð»Ð¸ÐºÐ¾Ð²Ð°Ð½Ð¾
ĠÐĹÐ° Ð¿Ð°Ð´
u sh
ÑĢÐ°Ð·Ð¾Ð²Ð° Ð½Ð¸Ðµ
Ġ 95
08 8
ĠÑĥÐ²ÐµÑĢ ÐµÐ½Ñĭ
ĠÐ¾ÑĤ Ð·ÑĭÐ²Ð°
ĠÐ¿Ð¾Ð´ ÑħÐ¾Ð´ÑıÑĤ
ĠÐ¼Ð° ÑģÑĤÐµÑĢÐ°
a ch
ĠÐ²Ñĭ Ð½Ñĥ
ĠÐļÐ°Ð·Ð°Ñħ ÑģÑĤÐ°Ð½
l us
Ð· Ð¼Ñĭ
Ð½Ñı ÐºÐ°
ĠÑģÐ¿Ð° Ð»ÑĮ
ĠÐº ÑĢÑİ
en er
ĠÐ½Ð° Ð¾Ð±Ð¾ÑĢÐ¾ÑĤ
ĠÐº Ð¾Ðº
ĠÐ¿ÑĢÐ¾ÑĨÐµÑģÑģ Ñĭ
ĠÐ¸Ð·Ð¾Ð±ÑĢÐ°Ð¶ ÐµÐ½Ð¸Ðµ
ĠÐºÐ¾ ÑįÑĦÑĦÐ¸ÑĨÐ¸
Ñĳ Ñħ
nÐĳ Ð°
ÑĩÐ°ÑģÑĤ ÑĥÑİ
ĠÐļ Ð
ĠÑĥÐ½Ð¸Ð²ÐµÑĢÑģÐ¸ÑĤ ÐµÑĤÐ°
83 8
ĠÐ¼ÐµÑģÑĤ Ñĥ
nÐŁÐ¾Ñģ Ð¼Ð¾ÑĤÑĢÐµÑĤÑĮ
ĠÑĢÑĥÑģ ÑģÐºÐ¸Ð¹
ĠÐŁ Ð¾Ð»ÑĮ
ĠÐºÐ¾Ð½ÑģÑĤÑĢÑĥ ÐºÑĨÐ¸Ñı
Ðĳ ÐµÐ»
Ð»Ð°Ð´Ð¸ Ð¼Ð¸ÑĢ
ÑģÑĤÐ² Ð¾Ð²Ð°Ð»
86 9
ĠÑĤÐµ ÑģÑĤÐ¸
nÐĴÐ° Ð¶Ð½Ð¾
ĠÑĩÐ»ÐµÐ½ Ð¾Ð²
ĠÐ¾Ð¿Ð»Ð° ÑĤÐ°
06 1
Ð½ Ð¾Ð»ÐµÑĤ
ĠÐłÐ¾ÑģÑģÐ¸ Ñİ
Y S
H L
ĠÐ³Ð¾Ð»Ð¾Ð² Ñĭ
ĠÐļÐ ¾
ĠÐºÐ»Ð¸ Ðº
98 23
ĠÐ¾ÑĤÐ·Ñĭ Ð²Ð¾Ð²
ĠÐ¾ÑĢÐ³Ð° Ð½Ð°
Ġ Ð¾ÑĦ
ĠÐ¡ ÑĤÐ¸
nÐĳ Ð»Ð°
Ð² ÑĪÐ°Ñı
98 27
ĠÐ² ÑĢÐ¾Ð´Ðµ
ĠÑĥ ÑĤÐµÐ¿
ĠÐļ ÑĢÐµ
ĠÐ¢Ðµ Ð»Ðµ
ĠÑĢÐ¾Ð´Ð¸ ÑĤÐµÐ»Ð¸
ĠÑĢÐµ Ðµ
K S
Ð» Ñĳ
ĠÐºÐ°ÑĢ ÑĤ
99 995
t ag
ĠÐºÐ¾Ð½ ÑĨÐµÐ¿
ĠÐ¿ÑĢÐµ Ð·Ð¸Ð´ÐµÐ½ÑĤÐ°
ĠÑģ ÑĦÐ¾ÑĢÐ¼Ð¸
ĠÐ¸ÑģÐ¿Ð¾Ð» Ð½Ð¸
ĠÐ² ÑħÐ¾Ð´ÑıÑĤ
ĠÐ¿Ð¾Ð´ÑĢÐ¾Ð± Ð½Ð¾
998 65
ĠÐ£ Ð·
Ð¾ÑĤÐµ ÐºÐ¸
98 04
ĠÐŁ Ð¾ÐºÐ°
ĠÐ¿ÐµÑĢÐµ ÑģÑĤÐ°
Ð¾ÑĢÐ¸ ÑĤ
Ð½ Ð½ÑĭÐ¼
ĠÐ·ÐµÑĢÐºÐ° Ð»Ð¾
ĠÐ¾Ð±ÑĢÐ° ÑĤÐ½Ð¾Ð¹
ĠÐŀÐ»ÑĮ Ð³Ð°
ĠÐĶ Ð°ÑĤÐ°
ĠÐºÐ¾Ð½ ÑģÐµÑĢ
ĠÐ¿ÑĢÐ¸ Ð¼
ĠÐºÑĥÑĢ ÑĮÐµÑĢ
Ð·Ð° ÑīÐ¸
44 2
ÑĨÐ¸Ð¾Ð½ Ð½ÑĭÐ¼
ÑĢÑĭ ÑĤÑĮ
ĠÑĢÐ°Ð· ÑĥÐ¼
ĠÐ´Ð¾Ð¿Ñĥ ÑģÑĤÐ¸
ÑĤÐµ Ñħ
ĠÑģ ÑĨÐµÐ½Ð°
ĠÐłÐµ Ð³Ð¸ÑģÑĤÑĢÐ°ÑĨÐ¸Ñı
ĠÐ½Ð°Ð¿ÑĢÐ°Ð² Ð»ÐµÐ½Ð¸Ð¸
ĠÑģÑĤÑĢ Ð¾Ð³Ð¾
998 25
D S
ĠÐ¿Ðµ ÑĩÐµÐ½Ð¸
ĠÑĢÐµÐºÐ¾Ð¼ÐµÐ½Ð´Ñĥ ÐµÐ¼
ÑĢÐ¾Ð²Ð°Ð½ Ð½ÑĭÐ¼
ĠÐļÑĢÐ°Ñģ Ð½
ĠÐ¿Ð° Ð´
nÐŀÐ± Ð·Ð¾ÑĢ
Ð¾Ð¿ Ð¾Ð»Ð¸
hat s
st ag
ĠÐ¿ÑĢÐ¾Ð¸Ð·Ð²Ð¾Ð´ ÑģÑĤÐ²Ðµ
FA A
ĠÐ¼Ð¾Ð½Ð° ÑģÑĤÑĭ
ĠÐ±Ð¸ ÑĢ
ĠÐ¡Ð° Ð¼Ð°ÑĢ
Ðº ÑĢÐ¾
ÑĢÑĥ Ð³Ð°
ĠÐºÐ°ÑĢ ÑĤÐ°
ĠÐ´Ð¾ÑģÑĤ Ð¾Ð¹
ĠÐ¿Ð¾Ð² Ðµ
ĠÐ¿Ð° Ð»Ð°
ĠÑĢÐ°Ð´Ð¸ Ð
ĠÑĢÐ°Ð´Ð¸Ð ¾
A P
Ð» Ð¾Ð³Ð¸
ĠG alaxy
ĠÑĤÐµÐ½ Ð´ÐµÐ½
B L
20 00
ĠÐĿÐ° ÑĪÐ¸
ĠÐ³ Ð»Ð¸
ĠÐ²Ð´ Ð¾Ñħ
ĠÐĺ ÐŁ
ĠÑģÐµÐ³Ð¾Ð´Ð½Ñı ÑĪÐ½Ð¸Ð¹
ĠÐ¿ÐµÑĢ ÐµÐ½Ðµ
ÑĪÐ¸ Ð¿
F i
ĠÐ¼ÐµÐ´Ð¸ÑĨÐ¸Ð½ ÑģÐºÐ¸Ñħ
ĠÑĢÐ°Ð·ÑĢÐ°Ð±Ð¾ÑĤ ÐºÐ¸
ĠÐ¼Ð½Ð¾Ð³ Ð¾Ðº
ĠÐºÐ¾Ð» Ð»Ðµ
ĠÐ²Ðµ ÑģÐ°
ÑĦÐµ ÑģÑģ
ÐµÐ½ Ð½Ð¾Ð¼
Ð³ ÑĢÐ°Ð½
ĠÐ½Ð°Ð¸ Ð¼ÐµÐ½
nÐŁ Ð»Ð°
Ð° ÑĤÑĢÐ°
ĠÐ¼ÐµÑĤ Ð¾Ð´Ð°
97 65
ĠÑģÐ¾Ð² ÐµÑĤÐ°
ĠÑģÐ¼ÑĭÑģ Ð»
ĠÐ¼ Ð¾Ð½Ð¸ÑĤÐ¾ÑĢ
ĠÑĢÐµÐ´Ð° ÐºÑĤÐ¾ÑĢ
ĠÐ¿Ð¾Ð½Ð¸Ð¼Ð° ÑĤÑĮ
ĠÐ¾Ð± Ð¾Ð»
ĠC OVID
ĠÐ²Ð¾Ð·Ð¼Ð¾Ð¶ Ð½Ð¾ÑģÑĤÐµÐ¹
0 85
nÐľ Ð¾ÑģÐºÐ²Ð°
Ðķ ÑģÐ»Ð¸
ĠÐ£ Ð½Ð¸Ð²ÐµÑĢ
ĠÐ¢ ÐĴ
ĠÑĥ Ð´Ðµ
ĠÐ´Ð¾Ð±Ð°Ð² Ð»ÑıÑĤÑĮ
ĠÐ¼Ð¸ ÑĢÐ¾Ð²Ð¾Ð¹
ĠÑĤÐµÑĢÐ°Ð¿Ð¸ Ð¸
nÐĺÐ½ ÑĤÐµÑĢÐµÑģ
ĠÐ¾Ð³ÑĢÐ° Ð½Ð¸Ñĩ
ĠÐ½Ð° ÐºÐ¾Ð½ÐµÑĨ
Ð¿ÑĢ Ð¾Ð´Ð°
Ð¾Ñī ÑĮ
ĠÑĢÐ°ÑģÑģ ÑĩÐ¸ÑĤÐ°
Ð¶ ÑģÐºÐ¸Ð¹
li sh
ĠÐ¿ÐµÑĢÐµ ÑģÐµ
ĠÐĺÐ³ ÑĢÐ¾Ð²ÑĭÐµ
na ya
ÑĢÑĥ Ñı
Ð³ Ð¾Ð»
n Ð²Ñĭ
28 1
ÑĤÐ¾ÑĢÐ¸ Ñı
ĠÐ½Ð¸ÐºÐ° Ðº
ĠÐ² ÑħÐ¾Ð´Ð°
nÐĴ Ð°Ð¼
ĠÐ¸Ð½ Ð²ÐµÑģÑĤ
Ð¼Ð° Ð¹
998 45
ĠÐ¿ÑĢÐ¾Ð¼ Ñĭ
âĸ º
ĠÐ¿ÑĢÐ¾ÑĪ Ð»Ð¾Ð¼
ĠÐ¿Ð¾ÐºÐ°Ð·Ð° ÑĤÐµÐ»Ð¸
ĠÐĵ Ð°Ð·
97 36
ĠÐºÐ¾ÑģÑĤ Ñİ
ĠÐ½Ð°Ð¿ÑĢÑı Ð¶ÐµÐ½Ð¸Ñı
o to
ĠÐ¢ ÑĢÐ¸
ĠÐ¿Ð¾Ð»ÑĥÑĩÐ° ÑİÑĤ
ĠÐ¡ Ð¾Ð¾Ð±
ĠÐ¿Ð¾Ð½Ð°Ð´Ð¾Ð±Ð¸ ÑĤÑģÑı
ĠÐ½Ð°Ð´Ð·Ð¾ÑĢ Ñĥ
Ð»Ð¾Ð² ÐµÐº
Ġ Ã
II I
ĠÐ½Ð¾Ð² Ð¾Ð¼
ĠÐ¿ÑĢÐµÐ· ÐµÐ½ÑĤÐ°
ĠÐºÐ¾ÑĢÐ° Ð±
ĠÐ¼ÐµÐ½ ÑıÑĤÑĮ
Ð²Ð°ÑĢÐ¸ Ð¹
ĠÐ½Ð¾Ð² Ð¸Ð½ÐºÐ¸
ĠÐ¿Ð¾Ðº Ð¸
ĠÐłÐ° Ð´Ð¸
Ð³Ð¾ÑĤ Ð²Ð¾ÑĢÐ¸
64 2
Ð¼ Ð¾Ð½Ð°
ĠÐĿÐ° Ð´Ðµ
ĠÐ¿ÑĢÐµÐ´ÑģÑĤÐ°Ð² Ð»Ñı
ĠÐ¡ ÑĤÑĥ
ÑĦÐ¸ÑĨÐ¸Ð°Ð»ÑĮ Ð½ÑĭÐ¹
ĠÑģÑĤ Ñĭ
ÐºÐ¾ Ð½Ðµ
nÐĿ ÐµÐ´
(' .
bo x
ros oft
ĠY ou
ĠÑĤÐµÑħÐ½Ð¸ ÑĩÐµÑģÐºÐ¸Ñħ
c ed
U P
ĠÐĲÑĢ Ð¼
Ð¼Ð° ÑĤÑĭ
ĠÐ¿ÑĢÐ¾ÑĨÐµÑģÑģ Ð¾Ð²
ĠÐºÐ»Ð¸ Ð½Ð¸
ĠÐŁÐµÑĢ Ð¼
ÑĢÑĭ Ð²Ð°
ĠÐ¡ Ð¼Ðµ
ÑģÐ¿ Ð¾ÑĢÑĤÐ°
ĠÐ¼ÑĥÐ¶ ÑĩÐ¸
ĠÐĹÐ° ÐºÐ°Ð·
Ð¶ÐµÐ½ Ð½ÑĭÑħ
nÐĴ ÑħÐ¾Ð´
Ñĭ ÑĢ
Ð´Ð¶ ÐµÑĤ
ĠÐ´Ñĥ ÑĪÐµ
Ð¶Ð°Ð² Ðµ
ĠÐ²Ð¾Ð·Ð½Ð¸Ðº Ð½Ð¾Ð²ÐµÐ½Ð¸Ñı
ĠÐ½Ð°Ð± Ð»ÑİÐ´
p an
98 88
ĠÐ¶Ð¸Ð· Ð½ÐµÐ½
Ð° Ð´Ð°
998 87
ĠÐ±Ðµ ÑģÐº
ĠÐ´ÑĢÑĥÐ·ÑĮÑı Ð¼Ð¸
e ar
Ð§ ÐķÐ¡
ĠÐ» Ð¾Ð³
ĠÑĢÑĥ ÐºÐ°Ñħ
02 9
ĠÐ¿ÑĢÐ¸Ð½Ñı Ð»Ð¸
ĠÐ¿ÑĢÐ¸ ÑĩÐµÐ¼
ĠÐ²Ð¸ Ð´Ð¸
ĠÐ¸ Ñī
ĠÐ´Ð° ÑĤÑĭ
ark et
ÐŃ Ðº
ĠÐ¿ÑĢÐ¾Ñģ ÑĮ
Ġ 66
ĠÑģÐµÐº ÑģÑĥ
ĠÐĶ Ð¾ÑģÑĤÐ°Ð²ÐºÐ°
98 07
ĠÐ¸ÑģÑģÐ»ÐµÐ´ Ð¾Ð²Ð°Ð½Ð¸Ðµ
I Z
Ð³ Ð¾Ð´Ð¸
ÐĿÐ« Ð¥
ĠÑįÑĦÑĦÐµÐºÑĤÐ¸Ð² Ð½Ð¾ÑģÑĤÐ¸
ĠÑĨÐ²ÐµÑĤ Ñĭ
ĠÐ¸ÑģÐ¿Ð¾Ð»ÑĮÐ·Ñĥ ÐµÐ¼
nÐŀÑģÐ¾Ð± ÐµÐ½Ð½Ð¾ÑģÑĤÐ¸
T P
ĠÐ¡ ÐºÐ°ÑĩÐ°ÑĤÑĮ
ĠÐ¢ Ð²ÐµÑĢ
ÑģÐµ Ð´
ĠÑĤÐµ ÑģÑĤ
ĠÐ¾Ð±ÑĬ ÑıÐ²Ð¸
Ð§ Ðķ
Ð¼Ð° Ðº
c ument
ĠÐĹÐ°Ðº Ð¾Ð½
ÐĽ Ð£
ĠÐ´ÐµÐ²Ñĥ ÑĪÐºÐ¸
08 1
ĠÑĢÐµ Ð°Ð»ÑĮÐ½ÑĭÐµ
ĠÐ¡ ÐºÐ°
to m
ĠÐ°Ð´ Ð²Ð¾ÐºÐ°
ĠÑĤÐ° Ð¼Ð¾Ð¶
27 8
ÑĤÑĢÐ¸ Ð´Ð¶
Ð²Ð¾ Ð½Ð¾
ĠÐ¸Ð½ÑĤÐµÑĢ ÑĦÐµÐ¹
ĠÐ¿ÑĥÐ±Ð»Ð¸ ÑĩÐ½Ð¾Ð¹
Y L
ĠÐĴÐµÐ»Ð¸ ÐºÐ¾Ð±ÑĢÐ¸ÑĤÐ°
ÐŁ ÑĢ
ÐĶ Ð»Ñı
p g
Ð¶Ð¸ ÑĤÑģÑı
Ð½Ð¾Ð² ÑĭÑħ
ĠÑĥÑĩÐ°ÑģÑĤ ÐºÐµ
ĠÐ´ Ð°ÑĢ
ĠÑĦÐ¾Ð½ Ð´Ð°
ĠÐ¿Ð¾Ð¿ ÑĭÑĤ
em ber
ĠÐ¿Ð¸ÑģÑĮ Ð¼Ð°
ĠÐ±Ñĥ Ð»ÑĮ
Ð» Ðº
44 1
stag ram
ĠÑĤÐ¾ÑĢ Ð¶Ðµ
Ð¾Ð» ÑĩÐ°
ĠÐ²Ðµ Ð´Ð¾Ð¼
ĠÑĥ ÑİÑĤ
35 34
ĠÑģÑĤÑĢÑĥ ÐºÑĤÑĥÑĢ
ĠÐ¿Ð¾Ñĩ ÑĤÐµ
ĠÐĿ Ðŀ
ĠÐ²ÑĭÑģÐ¾Ðº Ð¸Ð¼
ÑģÐµ Ð»ÑĮ
ĠÐºÑĢÐ¸ Ð¿ÑĤ
ĠÐ³Ð¸ Ð´ÑĢ
27 9
ĠÐ»Ðµ ÑĩÐµÐ±
om i
Ð± Ð¾Ð»
956 1476
n Y
ĠÐĺÐ½ ÑĦÐ¾ÑĢÐ¼Ð°
27 2
ĠÑģÐ° Ð½Ð¸ÑĤÐ°ÑĢ
ĠÐ¡ Ð¾Ð·Ð´Ð°
Ð¼ ÑĭÐ¹
6 00
ĠÐ»Ð¸ ÐºÐ²Ð¸
A EE
ĠÐ·Ð° Ð²Ðµ
t on
998 10
ĠÑģÐ¿ÐµÑĨÐ¸Ð°Ð»ÑĮ Ð½Ð¾Ð¹
ĠÐ¯ Ð¿Ð¾
ĠÑģÑĤÐ° ÑĤÐµÐ¹
ĠÑģÐ¾Ð²ÑĢÐµÐ¼ÐµÐ½ Ð½Ð¾Ð¹
ĠÑĦÐ¸ÑĢ Ð¼Ñĭ
ĠÐ²Ð´ ÑĢÑĥÐ³
Ð¼Ð° Ð½Ð°
ĠÐ´Ð¸ Ð°Ð±
ĠÐ¿ÐµÑĢÐµ Ð³Ð¾Ð²
ĠÐ¿ÑĢÐ¾Ð¸Ð·Ð²Ð¾Ð´Ð¸ ÑĤÐµÐ»ÑĮ
ĠÐºÐ¾ÑĢÐ¾Ð½Ð°Ð²Ð¸ ÑĢÑĥÑģÐ°
ĠÐ¼ÐµÐ´Ð¸ÑĨÐ¸Ð½ ÑģÐºÐ¾Ð¹
Ð½Ð³ÑĢÐ°Ð´ ÑģÐºÐ¾Ð¹
ĠÐ½ÐµÐ·Ð° ÐºÐ¾Ð½
ĠÑįÑĦÑĦÐµÐºÑĤÐ¸Ð² Ð½Ð¾ÑģÑĤÑĮ
M D
Ð°ÑĢÐ°ÐºÑĤÐµÑĢÐ¸ÑģÑĤÐ¸ ÐºÐ¸
la ck
ĠÐ·Ð²Ñĥ Ðº
ĠÐĵÐ»Ð°Ð² Ð½Ð¾Ðµ
ÑİÑīÐ¸Ð¹ ÑģÑı
ÐºÑĥ Ð»ÑĮ
ĠÑģÐ¿Ð¾ÑĢÑĤ Ñģ
ĠÐ°Ð¿ ÑĤÐµ
ĠÐ¿Ð¾Ð´ Ð»ÐµÐ¶Ð°
Ġp ost
ĠÐ´Ð¾ÑĢ Ð¾Ð³Ð°
ÐŁ Ð°
37 2
ĠÐ¿Ð»Ð° Ð²
ĠÐ¾Ð¿ ÑĢÐ°Ð²
ĠÐ¸Ð½Ð¶ÐµÐ½ ÐµÑĢ
ĠÐºÐ° Ð¼ÐµÐ½ÑĮ
ÑĦÐ¸ Ðº
ĠÐ¼Ð¾Ðµ Ð³Ð¾
ÑĤ Ð½ÑĥÑİ
ĠÐ°ÑģÑģÐ¾ÑĢÑĤÐ¸ Ð¼ÐµÐ½ÑĤ
Ð°Ðº ÑģÐ¸
83 1
0 90
ĠÐ½Ð°Ð¹Ð´ ÐµÑĤÐµ
Ñİ ÑĢÐ°
Ð¾Ð¶ Ð°ÑĢ
ÐĲ Ðº
e arch
ĠÐ¿Ð¸ ÑĤÐ¾Ð¼
DF B
ĠÐºÐ° Ð½Ð°Ð»
ĠÐ¿Ð»Ð° ÑĤÑĭ
Ġ} );
ĠÐ¡Ð²ÐµÑĢÐ´Ð»Ð¾Ð² ÑģÐºÐ¾Ð¹
ĠÑģÐµÐ¼ Ð¸Ð½Ð°
ĠÐ¿ÑĢÐµÐ´ÑĥÑģ Ð¼Ð°ÑĤÑĢÐ¸
Ð¾ÐºÐ¾Ð» Ð°Ð´
0 15
ÑģÑĤÐ°Ð² ÑĮÑĤÐµ
ĠÐ°Ð²ÑĤÐ¾Ð¼Ð° ÑĤÐ¾Ð²
ĠÑģÑĤÐ° Ð´Ð¸Ð¸
ĠÐĺ Ñģ
ĠÑĩÐµÐ»Ð¾Ð²ÐµÐº Ð¾Ð¼
ÑĪ Ð½ÑĭÐµ
ĠÐĽ ÑĮ
Ð¿ Ð¿
Ð³ ÑĢÐ¸
ĠÐ¿ÑĢÐµÐ´Ð²Ð°ÑĢÐ¸ ÑĤÐµÐ»ÑĮÐ½Ð¾
Ð¶ ÐºÑĥ
at h
ĠÑĤÐ¾Ð¿ Ð»Ð¸Ð²
er a
ĠÐ²Ð¾Ð¹ ÑĤÐ¸
ÐºÐ¾Ð½Ð¾Ð¼ Ð¸ÑĤÑĮ
ĠÑģÐ¿Ð¾ÑģÐ¾Ð± Ð°Ð¼Ð¸
ĠÐ¿ÑģÐ¸Ñħ Ð¾Ð»Ð¾Ð³Ð¸
ĠÐ¸Ð· Ð³Ð¾ÑĤÐ°Ð²Ð»Ð¸
9 29
Ðľ Ð°ÑĢ
ĠÐ¸Ð½ÑĦÐ¾ÑĢÐ¼Ð° ÑĨÐ¸ÐµÐ¹
ĠÐµÐ¶ÐµÐ´Ð½ÐµÐ² Ð½Ð¾
ĠÐ»ÐµÐ³ ÐµÐ½
ĠÑĤÐ° Ð»Ð°Ð½
ĠÐ½ÐµÐ²ÐµÑĢ Ð¾ÑıÑĤ
ĠÑĩÑĥÐ² ÑģÑĤÐ²Ð°
Ġ ï¿½ï¿½
ĠÑĦÐ¸ Ð»Ð¸
ĠÐ´ ÑİÐ¹
Ð¿ÑĢ Ð¾ÑĩÐµÐ¼
ĠÐ¸ Ð½ÑĭÐµ
ĠÐ½ Ñİ
ÑĪÐ¸Ð½ ÑģÑĤÐ²Ð¾
ĠÐ¸Ð´ ÑĤÐ¸
ĠÐ¾ÑĤÑģ Ð»Ðµ
Ð¡ ÐµÑĢ
Ð² ÐºÐ°
ĠÐ¾ÑĦÐ¸ÑĨÐ¸Ð°Ð»ÑĮ Ð½Ð¾Ð¼
. -
ĠH D
ĠÐĴ Ð¸ÑĤÐ°
ĠÐ·Ð°ÑīÐ¸ ÑĤÑĥ
ĠÐļ Ð¾ÑĢÐµ
nÐļ Ð¸
ĠÐ¿ÐµÑĢÐµ ÑĩÐµÐ½ÑĮ
y an
ĠÐļÐ°Ð»Ð¸ Ð½Ð¸
Ð¾Ð¾Ð± ÑĢÐ°
ĠÐ´ Ð½ÐµÐ²
C FF
ĠÐºÑĥÐ»ÑĮÑĤÑĥ ÑĢ
ÑĢÐ¾Ð² ÐºÐµ
27 1
0 14
ĠÐ¾Ð±ÑīÐµ ÑģÑĤÐ²Ð¾
ĠÐ¸Ð½ Ð³
Ð»Ð¸Ð¼ Ð¿Ð¸
ĠÑĢÐ°Ð· Ð½Ð¾Ð²Ð¸Ð´
ĠÐ¸Ð½ÑĤÐµÑĢ Ð²ÑĮÑİ
ĠÐ¾ÑħÑĢÐ° Ð½Ñĭ
84 9
ĠÐĴ Ð°ÑĢ
ĠÑĤÐ¾ÑĢÐ³Ð¾Ð² Ð»Ð¸
ĠÑģÑĩÐ¸ÑĤÐ° ÑĤÑĮ
ĠÑģÐµÑĢ Ð²ÐµÑĢ
ĠÑģÑĤ ÑĢÐ¾Ð¹
s ite
998 1
ĠÐ² Ð»Ð¾Ð¶
ĠÑģÐµÑĢÐ²Ð¸ ÑģÐ°
Ð© Ðķ
ĠÑĤÐµÐº ÑģÑĤÐ¾Ð²
ĠÐ¾ÐºÐ¾Ð½ÑĩÐ° Ð½Ð¸Ñı
Ġ ÑīÑĳ
ĠÐ·Ð° ÑģÑĤÑĢÐ¾Ð¹
Ð¾Ð²Ñĭ Ð²Ð¾Ð·
ĠÐĲÐ½ Ð½Ð°
Ð¾Ð´ Ð½ÑĭÐ¹
ĠÐ»Ð¸ÑĨ Ð¾Ð¼
ĠA d
ĠÑģÐ¾Ð± Ð»ÑİÐ´Ð°ÑĤÑĮ
ĠÐ²Ð»Ð° Ð´Ðµ
Ð¾Ð»ÑĮ Ð½ÑĭÐ¹
nÐľ ÐµÐ½
ĠÐºÐ° Ð¿Ñĥ
ĠÐº ÑĢÐ¾Ñģ
Ñī Ð°Ð¹
ĠÐ´Ð¾Ð¿Ð¾Ð»Ð½Ð¸ÑĤÐµÐ»ÑĮ Ð½Ð¾Ð¹
ÑĤÑĥ ÑĢÑĥ
998 67
ĠÐ¿Ð¾ÑıÐ²Ð¸ Ð»Ð¸ÑģÑĮ
Ð³Ð¾ÑĢÐ¸ ÑĤ
ĠÑģÐ¾Ñİ Ð·
ĠÐ¿Ð¾ÑģÐ»ÐµÐ´ Ð½ÐµÐµ
ĠÐ½ÐµÐ¸Ð· Ð²ÐµÑģÑĤ
ÑĪ ÐµÐ½Ñĭ
ĠÐ¡Ðµ ÑĢÐ¸Ñı
nÐĲÐ² ÑĤÐ¾Ð¼
nÐ¡ Ð¾Ð´ÐµÑĢÐ¶Ð°Ð½Ð¸Ðµ
ĠÐ¿Ð¾ÐºÑĥÐ¿Ð° ÑĤÑĮ
26 1
ĠÐļ ÐŁ
i ck
ÑĢÑĥ Ñİ
ÐĽ Ñİ
ĠM ic
ĠÑĢÑı Ð´Ð°
nÐļ ÑĢÐ°Ñģ
ĠÐ³Ð¾ÑĢÐ¾Ð´ Ð¾Ð²
ĠÐ² Ð¿Ð¸
47 2
ĠÐ»Ð¸Ñĩ Ð½Ð¾Ð¼
ĠÐ´ÑĢÐµÐ²Ðµ ÑģÐ¸
ĠÑģÐ»ÐµÐ´Ñĥ ÑİÑīÐ¸Ð¼
! ","
ty le
ĠÐºÐ°Ðº Ð¾Ð¼
Ð½Ð¸ ÑĤÑĮÑģÑı
ÑĢ Ð¾Ð·Ð¸
ĠÑģÐ°Ð¼ Ð¾Ð»ÐµÑĤ
Ġd ata
ĠÐ¿ÑĢÐµÐ´Ð»Ð°Ð³Ð° ÑİÑĤ
Ð¾Ð¿ÑĢÐ¸ Ð¼ÐµÑĩÐ°
ĠÐĶ ÑĥÐ±
ĠÐĲÐ½Ð´ ÑĢÐµ
ĠÐ¿Ð»Ñİ Ñģ
97 95
ĠÐ½Ðµ Ñĳ
998 04
ĠÐ²Ð½ÑĥÑĤÑĢÐµÐ½ Ð½ÐµÐ¹
ĠÐľ Ð°Ñģ
ĠÐº ÑĢÐµÑģ
ĠÑģÑĤ Ð¾Ð¿
ÑĪÐºÐ¾ÑĢÑĤÐ¾ ÑģÑĤÐ°Ð½
Ð½Ð¾ ÑģÐ¸ÑĤ
ĠÐ± ÐµÑĢ
ĠÑģÐ²ÐµÑĢÑħ Ñĥ
ĠÑĢÐµÑĨÐµÐ¿ ÑĤ
i j
ĠÑģÑĥÑīÐµ ÑģÑĤÐ²ÐµÐ½Ð½Ð¾
ĠÐ°ÑĢ Ð¼Ð¸Ð¸
ĠÐ² Ð¾ÑģÐºÑĢÐµÑģ
nÐĶÐ° Ð»ÐµÐµ
4 177
23 8
k om
Ġ ï¿½
998 17
Ð»Ðµ ÑĢÐµÑı
ĠÐ¤ Ð¸Ð»ÑĮ
64 8
ĠÐĵ ÑĥÐ±
998 35
ĠÐ»ÑİÐ±Ð¸ ÑĤ
ĠÑĢÐ¾ÑģÑģÐ¸ Ð¹ÑģÐºÐ¾Ð¹
ÑĢÐµÑģ ÑģÐ¸
Ñĩ ÑĮÑİ
ĠÐºÐ²Ð°Ð»Ð¸ ÑĦÐ¸ÐºÐ°ÑĨÐ¸Ð¸
ĠÐļÐ° Ð½Ð°
ĠÑĦ Ð¾Ð½Ð´
ĠÐ½Ð°Ð· Ð²Ð°Ð½Ð¸ÐµÐ¼
ĠÐ°Ð´ ÑĢÐµÑģÐ°
ĠÑħÐ°ÑĢÐ°Ðº ÑĤÐµÑĢÐ¸
ĠÐ¿Ð¾Ð¿ÑĢÐ¾Ð± Ð¾Ð²Ð°ÑĤÑĮ
ĠÐ´Ð¾Ð±Ð¸ ÑĤÑĮÑģÑı
ĠÐ½Ð°Ð¿Ð¸ÑģÐ° Ð»
ĠÑĢÐ° Ð±
ĠÐ½Ðµ Ð²Ñĭ
ĠÐ´ÐµÑĢÐµ Ð²Ð¾
ĠT DM
ĠÐ±Ð° Ð·Ñĭ
ĠÐºÐ½Ð¸ Ð³Ñĥ
ĠÑĪÐ° Ð±
Ð¼Ð°Ð³Ð°Ð·Ð¸ Ð½Ðµ
Ð¥ Ðŀ
ÑĢÐ°Ð½ ÑĤÐ¸Ñı
Ð¾Ð¿ Ð¾Ð´
ĠÐ¾Ð±Ð»Ð° Ð´Ð°ÑİÑĤ
998 14
ÐºÐ¾Ð¼ Ð½Ð°ÑĤ
ĠÐ·Ð¸Ð¼ Ð¾Ð¹
ov e
997 87
Ð³ ÑĢÐ¾Ð¼
Ðł Ð¢
ĠÑĢÑĥÑģ ÑģÐºÐ¾Ð³Ð¾
s id
H P
ÐºÐ° Ð»
ĠÐŀÑģÐ¾Ð± ÐµÐ½Ð½Ð¾
ĠÐ·Ð° ÐºÐ°Ð½
ÑģÑĤÑĮ Ñİ
998 73
ĠÑģÐ»Ñĥ ÑĪÐ°
ĠÐľÐ° ÑĢÐ¸
ĠÐŃ Ð»
ĠÑĦÐ°Ðº ÑĤÑĭ
k h
ĠÑģÐ²Ñı Ð¶Ð¸ÑĤÐµÑģÑĮ
ĠÑģÑĤÐ°ÑĤÑĥ Ñģ
98 16
H D
I W
Ð¾ÑĤÐ° ÑĢÐ¸
ĠÐ¾Ð±ÑĢÐ° ÑĤÐ¸ÑĤÑĮ
Ñĳ Ð·
ra s
ĠÑģÐº Ð¾ÑĢÐ¾
ĠÐ¿Ð¾ÑĤ Ð¾Ðº
998 77
ĠÐķ Ðµ
996 85
ĠÐ½Ð¾Ð² Ð¸Ñĩ
Ġ ÑģÑĤÐ²
ĠÑħÐ²Ð° ÑĤÐ°ÐµÑĤ
Ð½Ðµ Ð¿
ĠÐ³Ð»Ð° Ð´
ĠÐ¾ÑģÑĥÑīÐµÑģÑĤÐ² Ð»Ñı
N T
ĠÑĪ Ð¾Ñĥ
ĠÐ¸Ð½ÑĤÐµÐ»Ð»ÐµÐºÑĤ Ñĥ
ĠÐ·Ð°ÐºÐ°Ð· Ð¾Ð²
998 57
ĠÐ´Ð¾Ð± ÑĢÐ¾Ð²
ĠT elegram
ĠÑĪÐ¸ÑĢÐ¾Ðº Ð
ĠÑĪÐ¸ÑĢÐ¾ÐºÐ ¾
ÑģÑĤÐ¸ ÑĤÐµ
ÑĢÐ°Ð² Ð½Ð¸
Ð±Ðµ ÐºÐ¸
ÑģÑĤ Ð½ÑĭÐ¹
Ð²ÐµÐ´ÐµÐ½ Ñĭ
997 27
ĠÑģÑĤ Ð¾Ð»ÑĮ
ĠÐľÐ¸Ð½Ð¸ÑģÑĤÐµÑĢ ÑģÑĤÐ²Ð°
ĠÑĥÐºÐ°Ð·Ð° ÑĤÑĮ
ĠÐ¶ÑĥÑĢ Ð½Ð°Ð»Ð°
ĠÐ·Ð° ÑĩÐµÐ¼
ĠÐº ÐµÑĢÐ°Ð¼Ð¸
S t
ĠÐ²Ð¸Ð´ Ð½Ð¾
ĠÐ·Ð° Ð²Ð¾Ð´Ð°
Ð± Ð°Ð»
Ġ20 04
ĠÐºÑĥÑħ Ð½Ñı
ĠÐ¿ÑĢÑıÐ¼ Ð¾Ð¹
ĠÐ½Ð°Ð· Ð²Ð°Ð½Ð¸Ñı
ĠÐ¸Ð½Ð³ ÑĢÐµÐ´Ð¸
375 04
ĠÐ¾ÑģÑĤ Ð°Ð»ÑĮÐ½ÑĭÑħ
23 1
998 97
ĠÐ²Ñĭ ÑıÐ²
ĠÐ»Ð¸Ñĩ Ð½ÑĭÐ¹
Ð¾Ð²Ð° ÑĢ
ĠÑģÐ¿Ðµ ÐºÑĤ
ĠÐĿ Ð¾Ð²Ð°Ñı
V D
ĠÐ¾ÑĤÑĢÐ° ÑģÐ»Ð¸
Ð´Ð° ÐºÑĨÐ¸Ñı
Ð¾Ð± Ðµ
nÐľ Ð°ÑĢ
N S
] ,
ĠÐºÐ¾Ð¼Ð½Ð° ÑĤÐµ
98 03
997 85
ĠÐ¾ÑģÐ¾Ð± Ð
ĠÐ¾ÑģÐ¾Ð±Ð ¾
8 02
m en
ĠB MW
ĠÐ¸Ð½ ÑĦÐ¾ÑĢÐ¼Ð¸
ĠÐ¿ÑĢÐ¸ÑĢÐ¾Ð´ Ñĭ
ĠÐ¼Ð° Ð¼Ð°
p age
¾ ÑĢÐ°Ð½
ĠÐ· Ð¾Ð½Ðµ
Ð¶Ðµ Ð»Ð°
98 73
f unction
04 2
Ð¾Ð²Ð° Ð½Ð¸Ñİ
Ġ[âĢ¦ ]\
ĠÐĴ Ð¼Ðµ
ĠÐ·Ð°Ð² ÑĤÑĢÐ°
nÐ¢Ðµ Ð¿ÐµÑĢÑĮ
ĠÐ±ÑĢÐ°ÑĥÐ· ÐµÑĢÐµ
ĠÐ¿Ð¾Ð»Ñĥ ÑĩÐµÐ½Ð¸Ð¸
ĠÑĥÐ² Ð»Ð°Ð¶
ĠÐĴ Ðļ
ÑĦÐ¸ ÐºÑģÐ¸
lo ad
ĠÐ·Ð°ÑīÐ¸ ÑĤÐ°
998 07
ĠÐºÐ¸ Ð»Ð¾Ð¼
ĠÐ½ÐµÐ´Ð¾ÑģÑĤÐ° ÑĤÐ¾Ñĩ
ĠÐ¿ÑĢÐ¾Ð´Ñĥ ÐºÑĨÐ¸Ñı
Ġ 85
U G
Ð¨ Ðķ
ĠÐĵ Ðŀ
qu ot
ĠÑįÐ»Ðµ Ð¼ÐµÐ½ÑĤ
Ð¼Ñĭ ÑĪ
ĠÐ´ÐµÑĪÐµ Ð²Ð»Ðµ
ĠÐĺÐ½ ÑģÑĤÐ¸ÑĤÑĥ
Ð²Ð¾ÑĢ Ð¾ÑĤ
Ġ el
ĠÐ»Ð¸Ñĩ Ð½Ð¾Ð³Ð¾
ĠÐ½Ðµ Ð¾Ð¶Ð¸Ð´Ð°Ð½
Ð¾ÑģÑĥ Ð´Ð¸
ĠÑĦÐ¸Ð½Ð°Ð½ ÑģÐ¸
Ð²Ð¾Ð´Ð¸ ÑĤÑģÑı
ĠÑį Ð½Ð´
ĠÐ¸Ð½ÑģÑĤÑĢÑĥ ÐºÑĨÐ¸Ð¸
ĠÐ³Ð¾Ð» ÑĥÐ±
ĠÑĤ ÑĢÐµÐ²
Ñĥ ÑĢÐ°
ĠÐ¼Ð¾Ð»Ð¾Ð´ ÑĭÑħ
ĠÐ¿ÑĢÐ¾Ð¸Ð· Ð²ÐµÐ´
Ð¦Ðĺ Ð¯
ĠÑĤÐ¸ Ð¿Ð¾Ð²
ĠÐ¿Ð¾Ð½ ÑıÑĤÐ½Ð¾
Ġe x
Ñģ Ð¾Ð½Ð°
ĠÑģÐ°Ð¹ ÑĤÑĭ
ĠÐ¾ÐºÑĢÑĥÐ¶Ð° ÑİÑīÐµÐ¹
ĠÐºÐ¾Ð¼Ð¿ÑĮÑİ ÑĤÐµÑĢÐ°
ĠÐ¿ÑĢÐ¾Ð´Ð° Ð¶Ð°
ÑĢÐ° ÑģÐ¿
Ð´ Ð¾Ð½
ĠÐ»Ð¸Ñĩ Ð½ÑĭÐµ
ĠÐ·Ð°Ð¿ÑĢÐµ ÑīÐµÐ½Ð¾
ĠÑĢÐ°Ð· Ð±Ð¸ÑĢÐ°
Ġ9 00
Ð»Ð° Ð´Ñĭ
ĠÐ¿Ð¾Ð»ÑĮÐ·Ð¾Ð²Ð° ÑĤÐµÐ»ÑıÐ¼
Ġ fi
X L
ĠÐºÐ¾Ð¼ Ð±Ð¸Ð½Ð°
ĠÐ·Ð° ÑģÑĤÐ°Ð²
944 37504
ĠÐºÐ¾Ð¼Ð¿Ð° ÐºÑĤ
ĠÐ¶ Ð´Ð°ÑĤÑĮ
ĠÐ¿ Ð¾ÑģÑĤÐ°Ð²Ð¸
Ð¾Ð· ÐµÑĢ
98 05
nÐ¢ Ñĥ
ĠÐ¸Ð· Ð¾Ð»Ñı
ĠÐŁ ÑĢÐ¾ÑģÑĤÐ¾
ĠÑģÑĤ Ð¾Ð»Ðµ
ĠÐŁÐĴ Ð¥
ĠÐ²ÑĭÑģÐ¾Ðº Ð¸Ð¹
ĠÐ²Ð¾Ð´Ð¸ ÑĤÐµÐ»ÑĮ
ĠÐ¾ÑĤÑģÑĥÑĤ ÑģÑĤÐ²Ð¸Ð¸
870 84
ĠX V
ĠÐ³Ð»Ð° Ð²Ñĭ
ÑĢÑı Ð´Ð°
ĠÑĢÐ°Ñģ ÑĩÐµÑĤÐ°
nÐ¦ Ð¸ÑĤÐ°
0 35
ÐĴ Ðµ
c y
ĠÐ±ÑĥÐ´Ñĥ ÑīÐµÐ³Ð¾
ĠÐ´Ð¾Ð¿ÑĥÑģÐºÐ° ÐµÑĤÑģÑı
ÑĤÐ¾ÑĢÐ° Ð¼
ĠÐ·Ð°Ð´ Ð¾Ð»
U K
ĠÐ´Ð¾ ÑħÐ¾Ð´Ð°
Ð²Ð¾ ÑĩÐµÐº
ĠÑĦÐ¾ÑĢÐ¼Ð¸ ÑĢÐ¾Ð²Ð°Ð½Ð¸Ñı
s ia
ĠÐ¾ÑģÑĥÑīÐµÑģÑĤÐ² Ð»ÐµÐ½Ð¸Ñı
ĠÑģÑĤÐ°ÑĤÐ¸ ÑģÑĤÐ¸
ĠÐ¾Ð±ÑģÑĤÐ¾Ñı ÑĤÐµÐ»ÑĮÑģÑĤÐ²Ð°
ĠÐ¼Ð°ÑĤ ÑĩÐ°
Ð ¾ÑĢÐ°Ð½
998 18
ĠÐ¾Ð±Ð½Ð¾Ð² Ð»ÐµÐ½Ð¸Ñı
ĠÐ¸Ð½ÑĤÐµÑĢÐµÑģ Ð½ÑĭÐµ
ÑĮ ÐµÑĤ
ĠÑĤÐºÐ° Ð½ÐµÐ¹
Ð¦Ðĺ Ðĺ
ĠÐ³ Ð¾ÑĢÐµ
U Z
ĠÐ¼Ð° ÑģÑģÑĭ
ĠÐ£ Ðļ
ĠÐ¼Ð°ÑĤ Ñĩ
ĠÐ¾ÑĦÐµÑĢ ÑĤÐ¾Ð¹
ĠÐľ Ð°Ð»
Ð´Ð° ÑĤ
ĠÑģÑħ ÐµÐ¼Ð°
ad e
nÐĴÐ° ÑĪÐµ
ÑĪ ÐµÑĢ
Ð»Ðµ Ð²Ð¾Ð¹
ĠÑĤ Ð²ÐµÑĢÐ´
ÑĪ ÐµÐ½Ð°
ĠÑĢÐµÐºÐ»Ð° Ð¼Ð°
nÐ¤ Ð¾ÑĤ
ĠÑĥ Ð»ÑĮÑĤÑĢÐ°
8 277
ĠÐºÐ»Ð¸ÐµÐ½ÑĤÐ° Ð¼
Â ®
ĠÐĴÐ° ÑĪÐµÐ³Ð¾
Ð»Ð¾Ð² ÑĭÑħ
l er
ÑĩÐµÐ½ Ð½ÑĭÐ¹
Ðº Ð½Ð¾Ð²
ĠÑģ Ð»Ð°Ð²
ĠÐĺ Ð»ÑĮ
ĠM ar
ĠÐĶ ÐµÐ²
998 56
ĠÐĲ Ð¹
Ð¾ÑħÑĢÐ° Ð½Ð¸ÑĤÑĮ
ĠÐ¾ÑģÑĤ Ð°Ð»ÑĮÐ½ÑĭÐµ
ÑīÐµÑģÑĤÐ² Ð¾Ð¼
ĠÐ´Ð° ÑĤÐ°
Ð¾Ð¿Ð°Ñģ Ð½Ð¾ÑģÑĤÑĮ
ĠÑĥÐ³ Ð»Ðµ
ĠÐ¸Ð· Ð´Ð°Ð½Ð¸Ðµ
ĠÐ¿Ð¾ÐºÑĥÐ¿Ð° ÑĤÐµÐ»ÐµÐ¹
Ð¾Ð± ÐµÑĤ
ĠÐ»Ð¸Ñĩ Ð½ÑĭÑħ
ĠÐ±Ð¾Ð½Ñĥ ÑģÑĭ
ro d
43 2
ĠÑħÐ¾ÑĢÐ¾ ÑĪÐµÐ¼
Ī Ĵ
ÐºÐ¾Ð»Ðµ Ð¿
76 2
ĠÐ°ÐºÑĤÐ¸Ð² Ð½Ð¾Ð¹
995 8
ĠÑĪÐµ ÑģÑĤÐ¸
ĠÐºÐ¾ÑĢ ÑĢÑĥÐ¿
ĠÑģÐ¿Ð¾ÑģÐ¾Ð± Ð½Ñĭ
Ð¸Ð½ ÐºÐ°
Ð¾Ñħ Ð¾Ð·ÑıÐ¹
ĠÑĥ ÑīÐµÑĢ
M T
ÐĲ Ð½
98 13
Ð¾Ð¿ Ðµ
y r
997 05
ĠÐ°Ð´Ð° Ð¿
ĠÑģÐ±Ð¾ÑĢ Ð½Ð¾Ð¹
Ðĸ Ðķ
ĠÑģÑİ Ð´Ð°
ĠÑģÐ¾Ð²Ð¼ÐµÑģÑĤ Ð½Ð¾
ÑĥÐ¿ ÐµÑĢ
FA F
ĠÐ¿Ð¾Ð» Ð°Ð³Ð°
Ð¿ Ð¾ÑĢ
ĠÐ¿Ð¾ Ð½Ð¸
ĠÐľÑĥ Ð¶
ĠÐ¸ Ð»Ð»Ñİ
25 1
ĠÑģÐ¾ÑĨÐ¸Ð°Ð»ÑĮ Ð½Ð¾Ð³Ð¾
ĠÐ·Ð´Ð° Ð½Ð¸Ð¹
ĠÐ¿ÑĢÐ¾Ð²ÐµÐ´ ÐµÐ½Ð¸Ðµ
ĠÑĤÐ¾Ð²Ð° ÑĢÐ¸
ĠÐķ Ð¡
ĠÑįÑĤÐ° Ð¶
ÑĪÐµ ÑģÑĤÐ²Ð¸Ñı
03 1
n Ð¼
4 26
p os
nÐļ ÑĤÐ¾
ĠÐĲ Ð»Ð¸
ĠÑĦÑĥÐ½Ð´Ð° Ð¼ÐµÐ½ÑĤÐ°
ĠÐ¡Ð°Ð¹ ÑĤ
ĠÐ¾Ð¿ÑĢÐµÐ´Ðµ Ð»ÐµÐ½Ð½ÑĭÑħ
ÑĦ ÑĢÐ¸
ĠÐ¡ Ð¾Ð±ÑĢÐ°
nÐĶ Ð
ĠÑĤÐµÐ¼Ð¿ÐµÑĢÐ°ÑĤÑĥ ÑĢÐµ
ĠÑĪ Ð¿Ð°
ĠÐ¿Ð¾Ð² ÐµÐ´ÐµÐ½Ð¸Ñı
998 22
nÐĶÐ ¾
ÐºÐ¾Ð½ ÑģÑĤÑĢÑĥ
ĠÐ´ÐµÑĤ ÑģÐºÐ¸Ðµ
97 66
ÐµÐ½ÑĤ ÑĢ
ĠÐ¿Ð¾Ð´ ÑĢÑıÐ´
ĠÐ§ ÐµÑĢÐµÐ·
ĠÐĴ Ñı
ĠÐ¸Ð¼Ñĥ ÑīÐµ
Ð»ÐµÐ½ Ð½ÑĭÐ¼Ð¸
998 44
ĠÑĢÑĥ Ð±Ðµ
ĠR us
ÐĶ Ð¤
ĠÐ¿ÑĢÐ¸ Ð²ÐµÐ´
Ð¼ ÑģÑı
ĠÑĦ ÑĥÑĤ
ĠÐ¾Ð±ÑĢÐ° ÑīÐ°ÑĤÑĮÑģÑı
Ñģ Ð¾Ð½Ð°Ð»ÑĮ
74 2
\" \"
ĠÐ·Ð° Ð»
ĠS er
ĠÑĢÐ°Ð· Ð³Ð¾Ð²
Ð·Ð¸ Ð¹
n Ð±
ĠÑģÐ¾ÑĨÐ¸Ð°Ð»ÑĮ Ð½Ð¾
ÑĢÐ°ÑĤ Ð½Ð°Ñı
ĠÐ¾ÑĤÐ´Ðµ Ð»ÐµÐ½Ð¸Ñı
ĠÐ»ÐµÑĤ Ð¾Ð¼
ÑĩÐµ ÑģÑĤÐ²Ðµ
ĠÐ´ Ð½ÐµÐ¼
ĠÐ»ÑİÐ±Ñĭ Ð¼
ĠÐĿ ÐµÐ´
Ð»Ð¸ÑĩÐ¸ Ðµ
ĠÐĵ Ð°Ð½
999 12
ĠÐ¿Ñĥ Ð·Ñĭ
Ð²Ð° Ð»Ð¾ÑģÑĮ
ĠÑĢÐµÐ³Ð¸ÑģÑĤÑĢÐ° ÑĨÐ¸Ñı
ĠÐ²Ñĭ Ð±ÐµÑĢÐ¸ÑĤÐµ
Ġ1 10
ĠÑģÐ¿ ÑĢÐ°Ð²Ð¸
ĠÐ¿Ð¾Ð´ ÑĢÐ¾Ð±Ð½ÐµÐµ
Ðĺ Ðŀ
ĠÐ´Ðµ Ð²Ð¾ÑĩÐµÐº
ĠÐ½ ÐµÐ½
Ð¾Ð»ÑĩÐ° Ð½Ð¸Ñİ
A Z
ĠÐĴ ÐĲ
Ñı ÑĤÐ¸Ñı
ĠÐ¼Ð¸ Ð½ÐµÑĢÐ°Ð»ÑĮ
Ð¾Ð´ÐµÑĢ Ð½Ð¸
Ð¡ ÐļÐĲ
ĠÐ¸ÑģÐ¿Ð¾Ð»ÑĮÐ·Ñĥ Ð¹ÑĤÐµ
ĠÐĶ Ð¾Ð¼Ð°
ÑĨÐ° Ñħ
ab le
ĠÐ°Ð´Ð¼Ð¸Ð½Ð¸ÑģÑĤÑĢÐ° ÑĤÐ¾ÑĢ
ĠÑĢÐ° ÑģÑĤÐ²Ð¾
Ð¿ÐµÑĢ Ð²ÑĭÑħ
ĠÐ¿ÑĢÐ°Ð·Ð´ Ð½Ð¸Ñĩ
ĠÐ½Ð°Ðº Ð¾Ð¿
ĠÐ¼Ð°Ð³ Ð½Ð¸ÑĤ
ĠÐ¸Ð³ÑĢÐ° ÐµÑĤ
oo l
ĠÐ¼ Ð»Ð°Ð´
ĠÐ½ÐµÑģÐ¾Ð² ÐµÑĢÑĪÐµÐ½
ĠÐ¿ÑĢÐµÐ´ÑģÑĤÐ°Ð²Ð¸ ÑĤÐµÐ»Ð¸
ĠÐ·Ð²ÐµÐ· Ð´
ĠÐ³ÑĢÑĥÐ¿ Ð¿Ñĥ
85 9
ĠÐ¿ÑĢ Ð¾Ð¹Ð´ÐµÑĤ
0 24
ĠÐ´Ð¾Ð¼ Ð¾Ð¹
ĠÐ´ Ð°Ð»
9993 62
nÐŀ ÑĨÐµÐ½ÐºÐ°
Ð¾Ð± Ð½Ð¾Ð²
ĠÐ±ÑĥÐ´Ñĥ ÑīÐµÐµ
Ġ1 80
ĠÐ»Ð¸ ÑĨÐµ
ÑĤ Ð½Ð¸Ðº
ĠÑĤÐºÐ° Ð½ÑĮ
nÐ¤ Ð¸
ĠÐĴ ÐµÐ½
ĠÐ¢ Ðŀ
Ð´Ð¶ Ð°Ð½
ĠÐ¿ Ð¾Ð¶Ð°
U V
ĠF acebook
37 1
ĠÐ¼Ð°Ð»Ñĭ ÑĪÐ°
nÐ¡ Ð
ĠÐ¿ÑĢÐ¸Ð½Ñı ÑĤÐ¾
ĠÐ¿Ñĥ ÑģÑĤÑĮ
ĠÐ·Ð°Ð½Ð¸Ð¼Ð° ÐµÑĤÑģÑı
ĠÐĶ Ð¢ÐŁ
20 05
ÑĤÑĥ ÑĢÐµ
ĠÐ±ÑĢÐ°ÑĥÐ· ÐµÑĢ
ĠÐ³ÑĢÑĥ Ð´Ð¸
ĠÑĤ Ð¾ÐºÑģÐ¸
ĠÐ¿ÑĢÐ¾Ð¶Ð¸ Ð²Ð°Ð½Ð¸Ñı
ÑģÑĤÐ¸ Ð»Ð¸
998 90
ÐºÐ¾Ð² ÐºÐ°
ĠÑĦÐ¸Ð·Ð¸ ÑĩÐµÑģÐºÐ¸Ñħ
36 1
O Y
ĠÐ¿ÑĢÐµ Ð¼Ð¸
ĠÑģ Ñį
98 06
ĠÐºÐ²Ð°ÑĢÑĤÐ¸ ÑĢ
ĠÐ¿ÑĢÐ¾ÑĪ Ð»Ð¾Ð³Ð¾
ĠÐ¿Ð¾ÑģÐ»ÐµÐ´ Ð½Ð¸Ñħ
N G
ĠÑģÐ¾Ð²ÑĢÐµÐ¼ÐµÐ½ Ð½ÑĭÐµ
nÐ¡Ð ¾
ÑĢ Ð¾ÑĢÐ¸
ĠÐ¿Ð¾ÑĤÑĢÐµÐ±Ð¸ ÑĤÐµÐ»ÐµÐ¹
Ðµ Ð³Ð¾
38 2
nÐĴ ÐµÑģ
ĠÐ¿ÑĢÐ¾ ÑĨÐµÐ½ÑĤ
ĠÐ¿ÑĢÐ¾Ð²Ð¾Ð´ ÑıÑĤ
Ġ la
ÑģÑĤÐ² Ð¾Ð²Ð°Ð»Ð¸
ĠÐ·Ð°ÑĢÐµÐ³Ð¸ÑģÑĤÑĢÐ¸ ÑĢÐ¾Ð²Ð°ÑĤÑĮÑģÑı
Ðµ ÑģÑı
99 996
ĠÐĲÐ² ÑĤ
ĠÑĪ Ð»Ð°
b et
ĠÐ¿ Ð°Ð½
ĠÐº Ð½Ñı
ĠÑı Ð³Ð¾Ð´
ĠÐºÐ° Ð½Ð°Ð»Ð°
nÐľ ÐµÐ´Ð¸
37 8
ĠÐ¾ÑĢÐ³Ð°Ð½Ð¸ Ð·Ð¼Ðµ
ÑģÑĤÐ¸ Ð»Ð°
ĠÐ¿Ð¾Ð· Ð°
Ð½Ð°Ð´ Ð·Ð¾ÑĢ
ĠÐ¤ Ð¸Ð»Ð¸
Ġ( +
ĠÐ¾ÑĤÐ²Ðµ ÑĩÐ°ÐµÑĤ
re en
ĠÐ¡ ÑĥÐ´
ÑĤÐ¸ ÑĦÐ¸ÑĨÐ¸
ÑģÑĤÐ°Ð² ÐºÐ¸
ĠÐ±Ð¾Ð»ÑĮ ÑĪÐµÐ¹
ĠÐ¸Ð½ÑĦÐµÐº ÑĨÐ¸Ð¸
120 5
Ð² ÐµÐ½Ð¸
Ì Ĩ
Ñĳ ÑĤÐµ
ĠÐ¿ÑĢÐ¾Ð¼ Ðµ
Ð½ ÑģÐºÐ°Ñı
w n
ÑĤÑĥ Ñģ
ĠÐ¿ÑĢÐ¾Ð´Ñĥ ÐºÑĨÐ¸Ñİ
Ð¾Ñĩ Ð½ÑĥÑİ
ĠÐ´Ð¾ÑģÑĤ Ð¾Ð²ÐµÑĢ
ĠÑįÑĦÑĦÐµÐºÑĤÐ¸Ð² Ð½Ð¾
ÐŁÐµÑĤÐµÑĢ Ð±ÑĥÑĢÐ³Ðµ
ĠÐ¾ÑĩÐ¸ ÑģÑĤÐºÐ¸
ÐºÐ¾Ð² Ð¾Ðµ
nÐ¨ Ð¸
ÑģÑĭ Ð¿Ð°
ÑĢÑĥ Ð¹ÑĤÐµÑģÑĮ
ĠÐ¿Ð¾ÑĢ Ñĥ
ĠÐ¾Ð±Ñĥ Ð²ÑĮ
ĠÐ¿ÑĢÐµÐ´ ÑģÑĤÐ°Ð²Ð¸ÑĤÑĮ
ĠÐ·Ð° ÐºÐ»Ð°Ð´ÐºÐ¸
Ġï¿½ï¿½ï¿½ï¿½ ï¿½
ĠÐºÐ° ÑĢÐ°Ð½
ĠÑĢÑĥ ÐºÑĥ
ĠÐ´Ð¾ÑĢ Ð¾Ð³Ð¾
ĠÐĺÑģÐ¿ Ð¾Ð»
ĠÐĴÑģ Ñĳ
nÐĶÐ¾Ð± Ð°Ð²
ĠÑĦÐ¸Ð»ÑĮ Ð¼Ð°
in i
C L
ĠT or
ĠÐ¸ÑģÐ¿ ÑĢÐ°Ð²
Ð¾Ð²Ð° Ð½Ð¸Ð¸
ĠÐ°Ð»ÐºÐ¾Ð³ Ð¾Ð»ÑĮ
!! !\
44 8
ĠÑĢÐµÐ»Ð¸ Ð³Ð¸Ð¾Ð·
nÐĲ Ð»ÐµÐºÑģÐ°Ð½Ð´ÑĢ
r et
Ð¼Ð° Ð·
ĠÐ¿Ð»Ð° Ð½ÐµÑĤ
ĠÐ¾ÑĢÑĥÐ¶Ð¸ Ñı
ĠÐ´Ð¾Ð¿Ð¾Ð» Ð½Ð¸ÑĤÐµÐ»ÑĮÐ½Ð¾
Ð»ÐµÐ³ ÐºÐ°
ĠÐ¿ÑĢÐµ Ð¿Ð°ÑĢÐ°ÑĤ
87 9
ĠÑįÐ»ÐµÐºÑĤ ÑĢÐ¾Ð¿
ĠÐ²ÐµÑĢÑħ Ð½ÐµÐ¹
ÐŁ Ð£
Ġï¿½ï¿½ï¿½ï¿½ ï¿½ï¿½
ĠÐ·Ð½Ð° Ðº
Ð¾ÑĢ Ð¾Ð¼
Ñı ÑİÑĤ
ĠÐľ ÐµÐ½
Ñĩ Ð½Ð¸Ðº
ĠÑįÐºÑģÐ¿ ÐµÑĢÑĤ
ÑĢÐ¾Ð²Ð° Ð»Ð°
ĠÑĥÐ¼ Ð¾Ð»ÑĩÐ°Ð½Ð¸Ñİ
ĠÑģÐ¾Ð¾Ð±ÑīÐ¸ Ð»Ð¸
ÑĢÐµÐ½ Ð±ÑĥÑĢÐ³
ÐºÐ»Ð° ÑģÑģ
Ġ| ----
ÐµÑĢÐ½Ð° ÑĤÐ¾ÑĢ
ĠÑĦÐ¾ÑĢÐ¼Ð° ÑĤÐµ
ĠÐ½Ð¾Ð² Ð¾Ð³Ð¾Ð´
ĠÐ²Ð¾ÑģÑĤ ÑĢÐµÐ±
ĠÐŁÐ¾ÑĤ Ð¾Ð¼Ñĥ
ĠÑįÐº ÑģÑĤÑĢÐ°
Ð¶ ÑĥÑĢ
Ð¾Ð²Ð° Ð»Ð°
] .\
ÑģÐ¾Ð² ÑĭÐµ
ĠÐ¿ÑĢÐµ Ð¼
ĠÐ¾Ð±ÑĢÐ° ÑĤÐ½Ð¾
ĠÐ¿ÑĢÐ¾ÑĦÐ¸ Ð»ÑĮ
ĠÐ¿ÑĢ Ð¾ÐºÑĥ
m ag
ĠÑģÐ»Ð¾ Ñı
ĠÐĶ ÐĽÐ¯
ĠÑįÐº Ð·Ð°
ĠÐ·ÐµÐ¼ Ð»Ñı
Ðº Ð¾ÑĢÐ¸
ĠÐ¤ÑĢÐ°Ð½ ÑĨÐ¸Ð¸
ĠÑĦÐ°Ð¹ Ð»
Ð¾Ðº Ð°ÑĢ
ĠÐ¾Ð±ÑĬÑıÐ² Ð»ÐµÐ½Ð¸Ð¹
ĠÑģÑĤ Ð¾Ð¼Ð°ÑĤ
ĠÑģÐ¿ÐµÑĨÐ¸Ð°Ð»Ð¸ ÑģÑĤÐ°
p x
ĠÐ»Ð¸ ÑĤ
ĠÐł Ð¾Ð´Ð¸
ÑĢÐ¾Ð¸ Ñģ
ĠÐ»Ð¸ Ð½
97 27
ĠÐ¼Ñĥ Ð·ÐµÐ¹
ĠÐ¿Ð¾Ð»ÑĥÑĩÐ¸ Ð»Ð°
nÐŁÑĢ Ð¾Ð¸Ð·Ð²Ð¾Ð´Ð¸ÑĤÐµÐ»ÑĮ
ĠÑģÐ´Ðµ Ð»ÐºÐ¸
ĠÑĤÑĥ Ð°Ð»
Ð»Ñİ Ñģ
ĠÐ¿ÑĢÐµÐ´Ð¼ÐµÑĤ Ñĭ
ĠÐ¿Ð¾Ð² ÐµÑĢ
ĠÐ² Ð²ÐµÑĢÑħ
35 1
ĠÑħ ÑĢÐ¸ÑģÑĤÐ¸Ð°Ð½
ĠÐ¿ÑĢÐ¸ÑĩÐ¸Ð½Ð° Ð¼
b al
ci al
8 20
ĠÐ¾ÑĦÐ¾ÑĢÐ¼ Ð»ÐµÐ½Ð¸Ðµ
ÑıÐ½ ÑģÐºÐ¸Ð¹
ĠÐ¿Ð¾Ð²Ñĭ ÑĪÐµÐ½Ð¸Ðµ
ĠÑĢÐ°Ð±Ð¾ ÑĩÐµÐ³Ð¾
ĠÐ½Ð¾ÑĢ Ð¼Ñĭ
ĠÑģÐ¾Ð¿ÑĢ Ð¾ÑĤÐ¸Ð²
48 1
nÐĳÑĭ ÑģÑĤÑĢÑĭÐ¹
ÑĤÑĢ Ð¾Ð»ÑĮ
94 23
Ñı ÑĤÐ¸Ðµ
ÑģÐµ Ð´Ð½ÐµÐ²
ÑĢÐ¾Ðµ Ðº
Ð² ÑĪÐ¸Ð¼
nÐŁ Ð¾Ð·
rows er
ĠÐļ Ð¾Ð´
ĠÑģÐ»Ð¸ Ð·Ð¸
ĠÑĢÐµÐ³Ð¸ Ð¾Ð½Ð¾Ð²
ĠÐľÐ¸ ÑĢ
ÑĢÐ¾Ð² Ð¾Ðº
Ñħ Ð¾Ð¶Ð´ÐµÐ½Ð¸Ðµ
ĠÐ¿ÐµÑĢ Ð²Ð°Ñı
ĠÑģÑĤÑĢ Ð¾Ñı
Ð°Ð» Ð¾Ð³
ĠÐ³Ð»Ð°Ð² Ð½Ð¾Ð¹
nÐĵ Ð»Ð°Ð²Ð°
ĠÐ²Ð¾Ð¹ Ð½Ð°
98 15
ÑĢÐ° ÑīÐ¸
C EE
03 2
ÑĩÐ° Ð»Ð¾
ĠÑĥÑĩÐ°ÑģÑĤ ÐºÐ¾Ð²
ÑĪÐ¸ Ð½Ñĭ
ĠÐ½Ð°Ð³ ÑĢÐµÐ²Ð°
ĠÑĢÐ°ÑģÑħÐ¾Ð´ Ð¾Ð²
ÐĶ Ð£
ĠÐĲÐ½ ÑĤÐ¸
ĠÑĤ Ð¾ÐºÐ°
ov a
ĠÐ·ÐµÐ¼ Ð»Ñİ
ĠÑģÐµÐºÑĥ Ð½Ð´
ĠÐ¿Ð»Ð° Ð½Ðµ
98 43
ĠÐ¿Ð¾ÑĤ ÑĢÑı
ÑĢÐ°Ðº ÑĤÐ°
ĠÐ²ÑĭÑĢÐ° Ð¶ÐµÐ½
ĠÐ¿Ð¾Ð³ ÑĢÑĥ
ĠÐĲ ÑģÑĤÑĢÐ°
nÐ¡ Ð²ÐµÑĤ
ĠÐºÐ¾Ð»Ð¸ÑĩÐµ ÑģÑĤÐ²Ð¾Ð¼
ĠÐ¿Ð°ÑĢ Ðº
ĠÐ²ÑĢÐµÐ¼ÐµÐ½ Ð°
ĠÑĩÐµ ÑģÑĤÑĮ
Ð¶ Ð½ÑĭÐ¼Ð¸
ĠÐ²Ð¾ ÐµÐ½Ð½Ð¾Ð¹
ĠÑģÑĤÐ° Ð´Ð¸
Ñį Ð»
ĠÐĽÑİ Ð±
999 22
ÑĨÐµÐ½ÑĤ ÑĢ
Ĥ ¬
Ð¾Ð» Ð¾Ð¼
ĠÐ½Ð°ÑģÑĤÐ¾Ñı ÑīÐ¸Ð¹
ĠÐ¿Ð¾Ð²ÑĢÐµÐ¶Ð´ ÐµÐ½Ð¸Ñı
¾ Ð½Ð
ĠÐ½Ð°Ð¿ÑĢÐ°Ð² Ð»ÐµÐ½Ð¸Ðµ
997 84
ĠÐ²ÑĭÐ· Ð²Ð°ÑĤÑĮ
ĠÐ¾ÑĤÐ²ÐµÑĤ Ð¸Ð»
ĠÐ¿Ð¾Ñģ Ð»Ñĥ
Ð¾Ñģ ÑģÐµ
Ð ¾Ð½Ð
ĠÐĴ ÑģÐµÑĢ
ĠÑĥÐ²ÐµÐ´Ð¾Ð¼ Ð»ÐµÐ½Ð¸Ñı
Ġ \\
Ġ ?
nÐŁÐ¾ÑģÐ»ÐµÐ´ Ð½Ð¸Ðµ
ĠÐ¿Ð»Ð°Ð½ ÑĪÐµÑĤ
ĠÑģÐ¿Ð¾ÑģÐ¾Ð± ÐµÐ½
55 1
ĠÐ³Ð¸ Ð³Ð¸
ÑĪ ÐºÐ°Ð¼Ð¸
ĠS T
ĠÐºÑĢÐ¸ ÑĤÐ¸
ĠÑģÐ°Ð¼ Ð¾Ð¼Ñĥ
ĠÐ¿Ð¾ÑģÐµÑĤÐ¸ ÑĤÐµÐ»ÐµÐ¹
Ġ7 00
ĠÑįÐ¼Ð¾ ÑĨÐ¸Ð¾Ð½Ð°Ð»ÑĮ
Ð½Ðµ Ð·
ĠÑĢÑĥÑģ ÑģÐºÐ¾Ð¼
ĠÑģ ÑĩÑĳÑĤ
ĠÐ¿ÑĢÐ¾ ÑħÐ¾Ð´ÑıÑĤ
ÑĥÐ½Ðº ÑĨÐ¸Ð¾Ð½Ð°Ð»ÑĮ
Ġ as
ru e
ĠÐ¾Ð¿ÐµÑĢÐ° ÑĨÐ¸Ð¹
98 63
Ð³ Ð¾Ð¹
Ð¾Ð ¡
ĠÑģ Ð¼ÐµÐ½
Ð¾Ñĩ Ð½ÑĭÐ¼
Ñħ Ð¾Ð·
Ñ Ķ
ÑĢÐ¾Ð¼ ÑĭÑĪÐ»ÐµÐ½
nÐĳ ÐµÑģÐ¿Ð»Ð°ÑĤ
ÑĤÐ¸Ð² Ð½ÑĥÑİ
997 96
G B
818 87084
ĠÐ±Ð»Ð¸Ð¶Ð°Ð¹ ÑĪÐµÐµ
S P
ĠÐ¾ÑĨÐµÐ½ ÐºÐ°
ĠÐ±Ð¾Ð»ÐµÐ· Ð½ÑĮ
88 1
ĠÑĥÑģÑĤÐ°Ð½Ð°Ð²Ð»Ð¸ Ð²Ð°ÐµÑĤÑģÑı
ĠÐ¿Ð¾ÑĤÐµÐ½ ÑĨÐ¸
ĠÐ¼ÑĥÐ½Ð¸ÑĨÐ¸Ð¿Ð° Ð»ÑĮÐ½ÑĭÑħ
ĠÐĲ ÐºÐ°Ð´ÐµÐ¼Ð¸
ĠÐ¿ÐµÑģ Ð½Ð¸
88 95
ÑĥÐ±Ð»Ð¸ ÐºÐ°
ĠÑĢÐµÑģÑĥÑĢ Ñģ
Ġ Ð¾ÑĩÐ°
Ġ3 9
ĠÐºÐ¾Ð»Ð¸ÑĩÐµ ÑģÑĤÐ²Ðµ
ÑĢÐ° Ð¶Ð°
ÑĢÐµÐ´Ð¸ ÑĤ
ÑħÐ° Ð»Ð¸Ð½
ĠÐ²ÑĭÑģ Ð¾ÐºÐ°Ñı
¾ Ð°Ð½
Ð³ÑĢÐ° Ð»
ĠÐ·Ð°Ð½Ñı ÑĤÐ¸Ð¹
ĠÐ½ÐµÐ¿ Ð»Ð¾
ĠÐ¾ÑĤÐ¼ÐµÑĤÐ¸ Ð»
er n
Ðł ÑĥÑģ
ĠÐ¿ÑĢÐ¾ÐºÑĥ ÑĢÐ°
ĠÑģÐ²ÐµÐ´ ÐµÐ½Ð¸Ð¹
ĠÐĵ Ð´Ðµ
ĠÐ·Ð° ÐºÑĥ
Ð ¾Ð°Ð½
ĠÐ¸ ÑģÑĤÐµ
ĠÐ°ÑĢ ÑĤÐ¸
Ð²Ð¸Ð¶Ð¸ Ð¼Ð¾ÑģÑĤÑĮ
ĠÑĤÑĥ ÑĢÐ°
Ñħ Ð¾Ð»
ĠÑģÐ²ÑıÐ·Ð° ÑĤÑĮÑģÑı
ĠÐ´Ð°Ð½ Ð½ÑĭÐ¼Ð¸
. ).
ĠÑĢÐ¸ ÑģÐºÐ°
ĠÑģÐ¿Ð¾ÑģÐ¾Ð± Ð½Ð¾ÑģÑĤÑĮ
ĠÐ´ÐµÑĤ ÑģÐºÐ¾Ð¹
ĠÐ¿ÐµÑĢÐµ Ð¹ÑĤÐ¸
ĠÐ½Ð°Ð· Ð²Ð°ÑĤÑĮ
ĠÐ¡Ð¿Ðµ ÑĨÐ¸Ð°Ð»Ð¸
ĠÐ¿Ð° ÑģÐ¿Ð¾ÑĢÑĤ
ĠÑĢÐµÐ³Ð¸Ð¾Ð½Ð° Ñħ
ÑģÐ¾Ð² ÐµÑĤ
Ð²Ð° ÑģÑĤ
ĠÐŁÑĢÐ¾Ð´ Ð¾Ð»
Ð¾ÑĢÐ° ÑĩÐ¸
Ð¾Ð¼ Ñı
ĠÑĥÐ¿ÑĢÐ°Ð¶ Ð½ÐµÐ½Ð¸Ñı
nÐŀ ÑĩÐµÐ½ÑĮ
H R
ĠÑĪÐ¸ÑĢÐ¾Ðº Ð¸Ð¹
994 2
Y M
ĠÐ¾ÑĤÐ²ÐµÑĤ Ð¸ÑĤÑĮ
it al
6 22
ÑĥÑĢ Ð½Ð¸
Ð¶Ð´Ñĥ Ñİ
84 07
ĠÑģÑĤ ÑĢÐµÐ¼
u al
Ð³Ð°Ð·Ð¸ Ð½
ĠÑĤÑĢÐ°Ð½ÑģÐ¿ Ð¾ÑĢÑĤÐ¸
Ð² ÑĥÑİ
ÑģÐ° Ð»
ĠH T
la n
ĠÐ´ Ð¾Ð·
ĠÐł Ð¾Ð¼Ð°Ð½
ĠÐ¼Ð¾Ð³ Ð»Ð°
ĠÐ½ÐµÐ²Ð¾Ð· Ð¼Ð¾Ð¶
ĠÐ´ÐµÑĤ ÑģÐºÐ¸Ñħ
98 53
ĠÐŀÑĤ ÐºÑĢÑĭ
ÑħÐ¸ Ðµ
998 13
ĠÐ¤ Ð¾ÑĤ
ĠÐ²Ð¾Ñģ Ð¿ÑĢ
ĠÑĢÐ°Ð·ÑĢÐµ ÑĪÐµÐ½Ð¸Ðµ
ĠÐ¸ ÑĤÐ°Ð»ÑĮÑıÐ½
Ð· Ð²Ñĥ
ĠÐ¿Ð¾Ð´Ð´ÐµÑĢÐ¶ ÐºÐµ
ĠÐ²Ð½Ð¸Ð¼Ð° ÑĤÐµÐ»ÑĮÐ½Ð¾
Ð²Ð¾Ð´ Ñĭ
ĠÑĢÑĭ Ð±Ð°
ĠÑģÑĤÐµÐº Ð»Ð¾
A K
ĠÐ½Ñİ Ð°Ð½
ĠÐ·Ð°ÐºÐ»Ñİ ÑĩÐµÐ½Ð¸Ñı
997 75
ĠÐ· Ð¸
ĠÐ¿ ÑĢÐ°ÐºÑĤÐ¸ÐºÐ°
ĠÑĩ ÑĥÐ´
ĠÐŀÐ± ÑīÐµÑģÑĤÐ²Ð¾
< /
F L
an s
ĠÐ¾ÑĦÐ¾ÑĢÐ¼ Ð»ÐµÐ½Ð¸Ð¸
ĠÑĪÑĤÑĥÐºÐ° ÑĤÑĥÑĢ
A pp
Ð»Ð¸ ÑģÑĤ
ĠÑģÐ¿ÐµÑĨÐ¸ ÑĦÐ¸
Ð·Ð° Ð¿
nÐ¡ ÐµÐ¼
Ð´ Ð½ÑĭÐµ
Ð¾Ð»Ð¾Ð¶ ÐµÐ½Ð¸Ðµ
Ð§ Ðĺ
Ñı ÐµÑĤÑģÑı
Ð°Ð½ ÑĤÑĭ
ĠÐ¼ Ð¾ÑģÑĤ
ĠÐ¿ÑĢÐ¸ÑıÑĤ Ð½Ð¾
4 11
ĠÐ¥ Ð°ÑĢÑĮ
Ñĩ Ð°Ð½
998 16
X V
Ð¼ÐµÑĤ ÑĢÐ¾Ð²
34 1
ĠÐ¼ÐµÑĤÐ¾Ð´ Ð¾Ð¼
ĠÑį Ð½
ĠÑĥÑĩÑĢÐµÐ¶Ð´ ÐµÐ½Ð¸Ð¹
ĠÐŁÐµÑĢ Ð²ÑĭÐ¹
ĠÐ´Ð¾ÑģÑĤÐ°Ð² ÐºÑĥ
ĠÑģÑĥÑīÐµ ÑģÑĤÐ²ÑĥÑİÑĤ
ĠÑĥÐ»Ñĭ Ð±
Ġp m
ĠÐ¿Ð¾ÐºÐ°Ð·Ð° ÑĤÑĮ
ĠÐ²ÐµÑĢÐ¾ÑıÑĤ Ð½Ð¾ÑģÑĤÑĮ
ĠÐºÐ¾Ð» Ð¾Ð½
Ðµ Ð²Ðµ
ĠÐļ Ð°Ð½
ÑģÑĤÐ²ÐµÐ½ Ð½ÑĭÐ¼Ð¸
ĠÑĥÑģ Ð»Ñĭ
ĠÐ² Ð½Ð¸Ð·
ĠÐºÐ¾Ð½ÑģÑĤÑĢÑĥÐº ÑĨÐ¸Ð¹
t he
ĠÐ´ Ð¾Ð»Ð¸
A W
24 0
ÑĨ ÐµÑĢÑĤ
ĠÑģÑĤÐ¸ ÑĢÐ°Ð»ÑĮ
ĠC on
ÑĢÐµÐ¼ÐµÐ½ Ð½ÑĭÐµ
ĠÐ²Ð°Ð¶ Ð½ÑĭÑħ
ĠÐł ÑĥÐ±
ĠÐ¿Ð¾Ð»ÑĮÐ·Ð¾Ð²Ð° Ð½Ð¸Ñı
nÐŀÐ± ÑīÐµÑģÑĤÐ²Ð¾
nÐ¦Ð¸ÑĤÐ° ÑĤÐ°
ĠÐ¢Ð° ÑĤÑĮÑıÐ½Ð°
ĠÑĪ Ñĥ
ĠÐ¡ Ð±ÐµÑĢ
Ð½ ÐµÐ½Ð½Ð¾
ĠÐ·Ð° Ð¶Ð¸Ð³Ð°
Ð¿ ÐµÐ½
Ð¼Ð¾ÑĤ ÑĢÐ¸Ð¼
ĠÐ²Ñĭ Ð·ÑĭÐ²Ð°
Ð¿Ñĥ Ð»ÑĮ
ĠÐ²Ð°ÑĢÐ¸Ð°Ð½ ÑĤÐ°
Ð¾Ð»Ð¾Ð³Ð¸ ÑĩÐµÑģÐºÐ¸Ð¹
ĠÑģÑĢÐµÐ´ Ð½Ðµ
r at
03 0
ÐļÑĢÐ°Ñģ Ð½Ð¾Ð´Ð°ÑĢ
98 18
ÑĮÑı Ð½
ĠÐ»ÐµÐ³ ÑĩÐµ
ĠÑĢÐ° Ð´Ñĥ
ĠÑĢÐµÐ´Ð° ÐºÑĤÐ¸
el e
ĠÑģÑĤÑĢÐ¾Ð¸ÑĤÐµÐ»ÑĮ Ð½ÑĭÑħ
ĠÐĴ Ðĺ
Ð´ ÑĳÑĤ
ĠÐ¿Ð¾ÑĤ ÑĢÐ°
ĠÑģÑĥ ÑĤÐ¸
Ð³ Ð¾Ð²Ð°Ñı
ĠÐ¿Ð¾ÑıÐ²Ð¸ Ð»Ð°ÑģÑĮ
ÑĢÑĥ ÑģÐ¾Ð¼
ĠÐĵÐµÑĢÐ¼Ð° Ð½Ð¸Ñı
H K
ĠÐ¿ÑĢÐµÐ´ÑģÑĤÐ°Ð²Ð¸ ÑĤÐµÐ»ÑĮ
O B
Ð¾Ñģ Ðµ
ĠÐ¾Ð±ÑıÐ·Ð°Ð½ Ð½Ð¾ÑģÑĤÐ¸
ĠÐ¿Ð¾Ð´ÑĤÐ²ÐµÑĢ Ð¶Ð´ÐµÐ½Ð¸Ñı
Ðĳ ÐĲ
ĠÐ±ÑĢÐµÐ½ Ð´Ð°
ĠÐ°ÑĢ Ð¼Ð°
57 3
ĠÐĳÐµÐ»Ð°ÑĢÑĥ ÑģÐ¸
ĠÑĥÐ¿ Ð»Ð¾ÑĤ
ĠÐºÐ¾Ð½ ÑĤÐµÐ¹
nÐĿ Ð°Ð»Ð¸
ĠÐ¿Ð¾Ð¼ Ð½Ð¸ÑĤÑĮ
ĠÐ¿Ð¾ÑģÑĤÐ°Ð² ÐºÐ¸
ĠÐ°Ð³ÐµÐ½ÑĤ ÑģÑĤÐ²Ð¾
Ðº Ð¾Ð¿
ĠÐ¡ ÑĢÐ¾Ðº
ĠÑĤÐµ Ð¿Ð»Ð°
ĠÐ¿ÑĢÐ¾Ð´Ð¾Ð» Ð¶Ð°ÐµÑĤ
ĠÐ¸ÑģÐ¿Ð¾Ð»ÑĮÐ·Ð¾Ð²Ð° ÑĤÑĮÑģÑı
ĠÑģ ÐµÐ½
ÐºÐ¾Ð² ÑĭÐ¼
ĠÐ¶ÐµÐ»Ñĥ Ð´
ĠÐ´ ÑĢÐ¾Ð±
ÐŁ ÐµÑĢÐµ
998 15
ĠÑģÑħÐµÐ¼ Ñĭ
ĠÑĦ Ð¾Ð½Ð°
ĠÐ¼ ÐµÐ¼
ÑĢÐ° Ð½Ð°
997 76
ĠÑįÐ»ÐµÐºÑĤ ÑĢ
ĠÐ³Ð»Ð°Ð² Ð½ÑĭÐ¼
ĠÐ¿Ð»Ð¾ÑīÐ° Ð´ÐºÐ¸
ÑģÑĤ Ð¾ÑĢÐ¾Ð½
ÐµÐ´Ð¸ Ñı
423 7
ĠÐ¾Ðº Ð½Ð¾
H N
Ð© Ðĺ
997 66
ĠÐ¿ÑĢ Ñĭ
Ð Ĩ
ĠÐ¾Ð± Ð¼ÐµÐ½Ð°
Ġ20 03
ĠÑĩÑĥ Ð´Ðµ
ĠÑĩÐµÐ¼Ð¿Ð¸Ð¾Ð½Ð° ÑĤÐ°
ĠÐ²Ñĭ Ð·Ð¾Ð²
ĠÑĥ Ð¿Ð¾Ð»Ð½Ð¾Ð¼Ð¾Ñĩ
nÐŀÑĤÐ²ÐµÑĤ Ñĭ
ÑģÑĤÑĥ Ð¿Ð¸ÑĤÑĮ
ĠÐ¿ÑĢÐ¸Ð½Ñı ÑĤÐ¸Ñı
ÑħÐ¸ Ð¼Ð¸
ĠÐ½Ð¾Ð¼ Ð¸Ð½Ð°
ĠÐ¾ÑīÑĥ ÑīÐµÐ½Ð¸Ñı
ĠÑĩÑĥÐ² ÑģÑĤÐ²Ð¾
75 8
997 86
ĠÐľÐ° ÑĤ
ĠÐ¿ÑĢÐ¸ Ð½ÐµÑģ
ĠÐ»Ð¸ÑĤÐµÑĢÐ° ÑĤÑĥÑĢÐ°
Ñį Ð¼
ĠÐ³Ð»Ð°Ð² Ð½ÑĭÑħ
ĠÐ¿ÑĢÐµ Ð¾Ð´
ĠÐŁÑĢÐ¸ Ð¼Ð¾ÑĢ
ÐĿÐŀ Ðķ
ĠÐļÐ° Ð¼ÐµÐ½
ĠÑĤÐµÐ»ÐµÑĦÐ¾Ð½ Ð¾Ð²
ÐµÑħÐ° ÑĤÑĮ
ÑģÐºÐ»Ñİ Ð·Ð¸Ð²
ĠÐ¾ÑĤÐ´Ðµ Ð»ÐµÐ½Ð¸Ðµ
Ð´Ð° ÑĩÐ¸
nÐļ Ð½Ð¸
Ð¼ Ð¾Ð³Ð¾
ĠÐºÑĥÑĢ ÑģÑĭ
Ġ ch
ĠÐ²Ñĭ ÑĤÑı
ĠÐ¡ ÐĲ
ÐºÐ»Ñİ ÑĩÐµÐ½Ð¸Ðµ
ĠÑĥÐ»ÑĥÑĩ ÑĪÐµÐ½Ð¸Ñı
' s
ĠÐŀÑĤ Ð¼ÐµÐ½Ð¸ÑĤÑĮ
ĠÐ¿ÑĢÐ¸Ñģ Ð¾ÐµÐ´Ð¸
Ð²Ð° Ð¸
ĠÐ²ÑģÐ»ÐµÐ´ ÑģÑĤÐ²Ð¸Ðµ
ĠÑį ÑģÑĤÐµÑĤÐ¸
B BD
nÐŁÐ¾Ð»ÑĮÐ·Ð¾Ð²Ð° ÑĤÐµÐ»ÑĮ
Ñģ Ñİ
ĠÐĵ Ð°ÑĢ
ĠÑģÑĥÐ±ÑĬÐµ ÐºÑĤÐ¾Ð²
ÐŃ ÑĤÐ¾
ĠP lay
ĠÑģÑĤÑĢÐ° Ð½Ð¸ÑĨ
ĠÐ¸Ð½Ð¸ÑĨÐ¸ Ð°
ĠÑģÐ¿Ð° Ñģ
ĠÐ½ÐµÐ¾Ð±ÑħÐ¾Ð´Ð¸ Ð¼Ð°
ÑħÐ½Ð¸ ÑĩÐµÑģÐºÐ¸Ðµ
ĠÐ¼Ð°ÑĤÐµ Ð¼Ð°ÑĤÐ¸
Ð¿Ð° Ð»Ð¸
ĠÐ¡ ÐµÐ½
ro ss
ĠÐ½Ðµ Ð¾Ð±
ÐĿ Ð¢
re at
ĠÐ¿Ð¾ÑĢÑĤÐ° Ð»Ðµ
ĠÐ¿Ð¾Ð»Ð¾Ð¶ ÐµÐ½Ð¸Ð¸
ĠÐĺÐ½ Ð¾Ð³Ð´Ð°
ĠÑģÐ¾Ð²Ð¼Ðµ ÑģÑĤÐ¸
ĠÑĢÐ°Ð·Ð¾Ð±ÑĢÐ° ÑĤÑĮÑģÑı
ĠÐ°ÑĢÐ¾Ð¼ Ð°ÑĤ
ÐºÐ¸ Ð½Ð¾
ĠÐ°Ð² ÑĤÐ¾ÑĢÐ¾Ð²
Ð§ ÐĲ
ÑĦ ÑĤÐµ
Ðº ÐµÑĤÑĭ
ĠÐ± Ð¾Ð³
ĠÐ¿ÐµÑĢÐµ Ð¼ÐµÐ½
ĠÐĴÐ° Ð»ÐµÐ½
ĠÑĥÑģÑĤÐ¾Ð¹ ÑĩÐ¸
ĠÑĢÑĥÐºÐ¾Ð²Ð¾Ð´Ð¸ ÑĤÐµÐ»ÑĮ
ĠÐºÐ¾Ð½ÐºÑĥ ÑĢÐµÐ½
ĠÐºÐ¾Ð¼Ð¼Ñĥ Ð½Ð°
I Q
ÑĥÐ´ Ð¾Ð±
Ð¾Ðµ ÐºÑĤÑĭ
Ð² ÐºÐ¸
ÑĤÑĥ Ð¸
ĠÐĿÑĥ Ð¶Ð½Ð¾
ĠÐ¿ÐµÑĢÐµ Ñģ
ĠÐ½Ð° Ð²Ðµ
ĠÐľ ÑĥÑĢÐ¼Ð°Ð½
ĠÐļ ÑĢÐµÐ¼
ĠÐºÑĢÑĥÐ¿ Ð½ÑĭÐµ
ĠÑĢÑĭÐ± Ð°Ð»
ĠÑģÐ¾Ð´ÐµÑĢÐ¶Ð° ÑĤ
Ð¿ Ð¾ÑĢÐ°
ĠÑĥ Ð²Ð»ÐµÐºÐ°
ÐºÐ¾Ð½ ÑĤÐ°
Ð»Ð¾Ñģ Ñĥ
nÐ¡Ð¾Ð¾Ð± ÑīÐµÐ½Ð¸Ðµ
ĠÐºÐ¾Ð¼Ð¿Ð¾Ð½ ÐµÐ½ÑĤÐ¾Ð²
ÑīÐµ ÑģÑĤÐ²Ð¸
ÑĢÐ¸ Ð¿
Ðľ Ð¾ÑģÐºÐ²Ð°
ĠÐ² ÑıÐ·Ð°
A Y
999 10
ĠÐ¡Ð¸ ÑģÑĤÐµÐ¼Ð°
ĠÑĥ ÑģÑĤÑĢÐ°Ð¸
Â ²
ĠÑģÐ¾ÑĤÑĢÑĥÐ´Ð½Ð¸ ÑĩÐµÑģÑĤÐ²Ð°
ÑĪ ÑĤÐµ
ĠÐĶ ÐµÐ¹
97 47
Ñģ Ð½Ð¾Ð³Ð¾
Ð½ Ñĸ
ĠÐĴÐ° Ð»Ðµ
ĠÐ² Ð½Ñĥ
ĠÐ¼Ð°Ð³Ð°Ð·Ð¸ Ð½Ð°Ñħ
ĠÐĲÑĢ ÑħÐ°Ð½Ð³ÐµÐ»ÑĮ
ĠÐ´ÐµÑĢ Ð¶Ð°
ĠÐ·Ð°Ð¿ÑĢÐ¾Ñģ Ñĥ
ĠÑĪ Ð°Ð¼
ĠÑģÐ¿ ÑĥÑĤ
ĠÐ¸Ñģ ÑħÐ¾Ð´Ñı
ĠÑĢÐµÐ° Ð±Ð¸Ð»Ð¸
ĠÑģÐº Ð»Ð¾Ð½
ĠÐ¿Ñĥ Ð»ÑĮ
ĠÑģÐºÐ¸ Ð´ÐºÐ¸
ĠÐ´Ð»Ð¸ Ð½Ð°
P M
23 9
Ġ sh
ĠÐºÐ¾Ð´ ÐµÐºÑģÐ°
nÐĴ ÑĢÐµÐ¼Ñı
ĠÑģÑĤÐ¸ ÑħÐ¸
ĠÐ¡ Ð¾ÑİÐ·Ð°
ĠÑĢÑĭ Ð±Ñĭ
ĠÑĢÐ°Ð· Ð²Ðµ
nÐĿÐ° ÑĪ
ĠÐ°ÑĢ ÑĤÐµÑĢÐ¸
nÐł ÑĥÑģ
Ð´ÐµÑĢ Ð¶ÐºÐ°
ĠÑĢÐ°Ð±Ð¾ ÑĩÐ¸Ð¹
ĠÐŀ Ð½Ð¾
Ð²ÑĪÐ¸Ñħ ÑģÑı
ĠÐ§ÐµÐ¼ Ð¿Ð¸
ĠÐ¿Ð¾Ð´Ð¿Ð¸ ÑģÑĮ
U D
ĠÐŀÑĤÐµ ÑĩÐµ
ĠÐºÐ°Ð´ ÑĢÐ¾Ð²
ĠÐºÐ° ÑĢÐ°
J J
Ð´ÑĨÐ° ÑĤÑĮ
ĠÐºÐ¾Ð½ÑĤÑĢ Ð¾Ð»
ĠÐ² Ð¿ÐµÑĢÐµÐ´
Ð¾Ð¾Ð± Ð»Ð°Ð´Ð°
67 3
Ð¾Ð ļ
ĠÐ¶ Ð°Ð½
ĠÑģÐ»Ñĥ ÑĩÐ¸
ÐµÑģÐ¿ÑĥÐ±Ð»Ð¸ ÐºÐ°
op t
ĠÐ½ÐµÐ±Ð¾Ð»ÑĮ ÑĪÐ¸Ðµ
Ð²ÑĪÐ¸Ð¹ ÑģÑı
ĠÐ¿Ð¾Ð´Ð¾Ð± Ð½ÑĭÑħ
Ð¶ Ð½Ð¾Ð¼
ĠÐ¿Ð»Ð¸ ÑĤÐºÐ¸
ĠÑĥ ÑĢÐ¾Ðº
ĠV ol
9 19
ÑīÐ°Ð¹ ÑĤÐµÑģÑĮ
I Y
ĠÐ¸Ð·Ð²ÐµÑģÑĤ Ð½ÑĭÑħ
ĠÑĥ ÑģÑĤÐ°
ĠÐ¼Ð° ÑģÑģÑĥ
ÑģÑĤÐ¸ ÑĩÐµÑģÐºÐ¸Ðµ
Ðľ ÐķÐĿ
Ġ5 2
ĠÑģÐ» Ð¾ÑĤÑĭ
ÑĢÐµÐ½ Ð´
l ic
ĠÐ· Ð»Ð¾
ĠÐ°ÑĢÐµÐ½ Ð´Ñĥ
Ð¾Ð³ ÑĢÐµ
997 14
Ð¶ Ð½ÐµÐ¼Ñĥ
ĠÐ¿Ð¾Ð»Ð½Ð¾Ð¼ Ð¾ÑĩÐ¸
ĠÐ¶ÐµÐ»Ð° ÑĤÐµÐ»ÑĮÐ½Ð¾
ĠÐĺ ÑĢÐ¸Ð½Ð°
nÐĴÑĭ Ñģ
ĠÐ¸Ð¼Ðµ ÑİÑĤÑģÑı
ĠÑĢÐµÑĨÐµÐ¿ ÑĤÑĭ
ÐŁ ÑĢÐ¾
ÑĩÐ¸ ÑģÐ»Ð¸
ĠÐ´Ð¸ Ð°Ð³
ĠÑĦÐ¸Ð»ÑĮ ÑĤÑĢÐ°
ĠÑģÐ¿Ð¸ ÑģÐºÐµ
ĠÐ¶ÐµÐ»Ðµ Ð·Ñĭ
Ñĥ Ð½Ð°
nÐ¨ Ð°Ð³
ĠÐ¥ Ð°Ð±Ð°ÑĢÐ¾Ð²
ĠÑģÑĥ ÑģÑĤÐ°Ð²Ð°
ĠÐ»Ð¸ ÑģÑĤÐ¾Ð²
ĠÑħÐ¾ÑĤÐµÐ» Ð¾ÑģÑĮ
ĠÐ½Ð°Ñģ Ð»Ð°
ĠÐĴÐµÑĢ ÑħÐ¾Ð²
ĠÐĳÐµÐ» Ð¾ÑĢÑĥÑģ
Ð¾Ð´ Ð½Ð°Ñı
ĠÑĥÐ´Ð° Ð»ÐµÐ½Ð¸Ñı
ĠÐ¿ÑĢÐµÐ´Ð¼ÐµÑĤ Ð¾Ð²
ĠÐ¿ÑĢÐ¾Ð± Ðµ
ĠÐ¾Ð¿Ñĭ ÑĤÐ¾Ð¼
ĠÑģÐ¿Ñĥ ÑģÑĤÑı
ĠÐ² Ð²Ð¾Ð´
Ð¾Ð²Ð° ÑĢÑĭ
ÐŁÐµÑĤÐµÑĢ Ð±ÑĥÑĢÐ³Ð°
Ð½ ÐµÐ½Ð¸ÐµÐ¼
ï¿½ï¿½ï¿½ï¿½ï¿½ï¿½ï¿½ï¿½ï¿½ï¿½ï¿½ï¿½ï¿½ï¿½ï¿½ï¿½ ï¿½ï¿½ï¿½ï¿½ï¿½ï¿½ï¿½ï¿½ï¿½ï¿½ï¿½ï¿½ï¿½ï¿½ï¿½ï¿½
ĠÐºÑĢÐ°Ñģ Ð½ÑĭÐ¹
ĠÑģÑĤÐ° ÑĨÐ¸Ð¾Ð½Ð°
ĠÐ¾Ð± Ð¸ÑĤÐ°
ĠÐ»Ð° Ð¹
Ð¾ÐºÐ°Ð·Ð° Ð½Ð¸Ñı
ĠÐ·Ð°ÑıÐ² ÐºÐ¸
ĠÐ±Ð°Ð½ ÐºÐ¸
Ð»Ð°Ð³ Ð¾Ð´Ð°
Ð½Ñĥ Ð»Ð°ÑģÑĮ
Ð¡ Ðĺ
ĠÐĵ ÑĢÐ°Ð¶Ð´Ð°Ð½
ĠA ir
ĠÐ´Ð¾ÑĢ Ð¾Ð³Ðµ
ĠÐ° ÐºÑĥ
F T
997 95
ĠÑĤ ÑĢÐµÐ¹
Ð¾Ð³ÑĢÐ°Ð¼ Ð¼
ĠÐ¿ÑĢÐ¸Ð±Ñĭ Ð»ÑĮ
ĠÐ¿ÑĢÐµÐ´Ð»Ð¾Ð¶ Ð¸ÑĤÑĮ
Ð¾ÑĢÐ° Ñħ
ÐµÑĤ Ñĥ
ĠÐķÐ²Ð³ ÐµÐ½Ð¸Ð¹
994 0
ĠÐ²ÑĤÐ¾ÑĢ Ð¾Ð¼
ĠÐ½Ð¸ÐºÐ° ÐºÐ¾Ð³Ð¾
R T
Ð²Ð¸ ÑĤÐ¸Ðµ
Ðĳ Ðĺ
Ð¼ Ð¿Ð¸
ĠÐ¡ ÐĿÐĵ
ĠÐ»Ð¾ ÑĪÐ°
ÑĢÐ¾Ð¹ ÐºÐ¸
ĠÐºÐ° Ð½Ð°Ð»Ð¸
Ġ2 20
ĠÐĸ ÐµÐ»ÐµÐ·
97 76
Ð²Ð° ÑİÑīÐµÐ¹
ĠÐ¿Ð¾Ð¿Ð° ÑģÑĤÑĮ
Ð§ Ð¡
Ð¿ÑĢ Ð¾ÑĤÐ¸Ð²
Ðľ Ð£
Ð¾Ð´ ÑģÑĤÐ²Ð¾
Ð½Ð¾ ÑģÑıÑĤ
ia omi
H G
ĠÑģÐ»ÑĥÐ¶ Ð±Ñĥ
Ð¡ Ðł
ĠÐ¾Ð±ÑĬÐµÐº ÑĤÑĭ
ĠÐ²Ñĭ ÑģÑĤÑĥÐ¿Ð¸
ĠÑģÐ° ÑħÐ°ÑĢÐ°
nÐĳ Ð¸Ð·Ð½ÐµÑģ
ĠÐ¾ÑĤÐºÑĢÑĭ ÑĤÐ¸Ñı
ÑĥÑĤ ÑģÑı
ĠÐ¿Ð¾Ð´ Ð¾Ð¹
ĠU SB
nÐĽÐµ ÑĩÐµÐ½Ð¸Ðµ
ĠÐºÐ¾Ð½ÑĦÐµÑĢÐµÐ½ ÑĨÐ¸Ñİ
ÐµÐ·ÑĥÐ»ÑĮÑĤÐ° ÑĤÑĭ
ĠÐ²ÑĢÐ° ÑĩÑĥ
ĠÐĿÐµ ÑģÐ¼Ð¾ÑĤÑĢÑı
ĠÐ·Ð° ÑĢÐ°Ð±Ð°ÑĤÑĭ
pla y
20 04
ĠÑĢÐ°Ð· Ð»Ð¸
ĠÐ± Ð»Ñİ
Ð»Ð¾Ð² ÑģÐºÐ¸Ð¹
Ð¶ÐµÐ¼ ÐµÑģÑı
ĠÐ¿ÑĢÐ¸Ð·Ð½Ð° ÐºÐ¸
998 47
ĠÐ¿ Ñı
ĠÐ³Ð¾ÑĢÐ¾Ð´Ð° Ñħ
ĠÐ·Ð° ÑĦÐ¸ÐºÑģÐ¸
ĠÂ °
ĠÐļ Ð°ÑĢÑĤÐ°
ÑĤ Ð½Ð¾Ð¼
ĠÐ¿ÑĢÐ¾ ÑĪÐµÐ»
ĠÐºÐ°Ð¶Ð´ ÑĭÐ¼
ĠÐ»ÑİÐ± ÑıÑĤ
ĠÐĳÐµÐ» Ð³Ð¾ÑĢÐ¾Ð´
ÑĢÑĥ Ð³Ð¾Ðµ
Ð°Ð² ÐµÑĢ
ĠÐ· ÐµÑĢ
Ð¾Ð½ÑĤÐ° ÐºÑĤÐµ
à ¦
H S
ĠÐ½ÐµÐ´Ð¾ÑģÑĤÐ° ÑĤÐºÐ¸
y e
ĠÐ² Ð»Ð¾Ð¶ÐµÐ½Ð¸Ñı
ÑĤÐ¸ ÑĩÐµÑģÐºÐ¸Ð¹
ÑĩÐ° ÑİÑĤÑģÑı
1 000
ĠÐļÐ¸ ÑĢÐ¸Ð»
ĠÑģ Ð»ÐµÐ³ÐºÐ°
ĠÐ¿ÑĢÐ¸Ð¼ÐµÐ½Ñı ÑİÑĤÑģÑı
Ð¾Ð½ Ð½Ð¾Ð¹
ÑĢ Ð¾ÑĤÐ¸
st er
Ġ it
Ð¤ Ðŀ
nÐłÐ° ÑģÑģ
ĠÑģÐ¸ Ð½Ð´
ĠÐŁ ÑĢÐ¾Ðº
O Z
ÐµÐº ÑĤÐ°Ðº
ĠÐ± ÑĢÐ¾Ðº
ÐĶ Ð¾Ð½Ñĥ
ĠÐ½Ð° ÑĩÐ¸Ð½Ð°Ñı
ĠÑģÐ»ÐµÐ´ Ð¾Ð²Ð°
ÐŁ Ð
Ð²Ð° Ð½Ð³
ĠÐĿ ÐµÐ¼
Ð» Ð¾ÑģÑĤ
ĠÐ²Ð¾Ð· Ð¼Ðµ
ĠÐ¿Ð¾ÑıÐ²Ð¸ Ð»ÑģÑı
ĠÐ¿Ð¾Ð² ÑĭÑĪ
ĠÑħ Ð»ÐµÐ±
ĠÐ° Ð½Ð¾Ð½Ð¸Ð¼
ĠÐ³Ð°ÑĢ Ð¼Ð¾Ð½Ð¸
ÑĢÐµ Ð³ÑĥÐ»Ð¸
Ð¾Ñĩ ÐºÐ¾Ð¹
Ð±Ñı ÑĤÐ°
ĠÐ¿Ð¾Ð½ ÑıÑĤ
nÐĶÐ¾Ð± ÑĢÑĭÐ¹
ĠÐ¸Ð· Ð¾Ð±ÑĢÐ°
ĠÐ½Ð° ÑĤÑı
Ð»ÐµÐ½ Ð½Ð¾Ð¼
ĠÐĺ Ð³Ð¾ÑĢÑĮ
Ñį ÑĤÐ¾
ĠÐĴ ÐµÑģ
ĠÐ°ÐºÑĤÐ¸Ð² Ð½Ð¾ÑģÑĤÐ¸
ĠÑģÑĤÐ°ÑĢ ÑĪÐµ
Ð¸ ÐºÐ°
ĠÐ´Ð¾Ð² Ð¾Ð»ÑĮ
ĠÐ· Ð¾Ð½
Ñĩ ÐµÑĤÐµ
Ð½ÑĥÑĤ ÑĢÑĮ
ĠÐļÐ¸ÑĤÐ° Ñı
ĠÑĥÐ´Ð¾Ð²Ð¾Ð»ÑĮ ÑģÑĤÐ²Ð¸Ðµ
ÐŁÐ ¾
in s
ĠÑģÑĤÑĢÐ¾Ð¸ÑĤÐµÐ»ÑĮ ÑģÑĤÐ²Ðµ
ĠÐ¡Ð¿ Ð¾ÑĢÑĤ
ĠÐ´Ð¾Ð» Ð³Ð¾Ð²Ðµ
ĠÑĥÑħ ÑĥÐ´
Ð¤ Ðĺ
ĠW i
Ñĩ ÐºÐµ
98 33
ĠÐ¾ÑģÐº Ð¾ÑĢ
ĠÐĽ ÐµÑģ
Ġth at
re g
ĠÑģ Ð¾Ð¾ÑĤÐ½Ð¾
Ð³Ð¾ Ð½Ð°
ĠÑĤÐµ Ð»
ĠÐ·Ð°Ð¼ÐµÐ½ Ñĭ
ĠÐŁ ÐłÐĺ
ĠÐ½ ÑĢÐ°Ð²
ĠÐ¸Ð½ÑĤÐµÑĢÐµÑģ Ð¾Ð²
997 06
ĠÐ£ Ð»ÑĮÑıÐ½Ð¾Ð²
ĠÐºÐ¾Ð½ ÑĤÐµÐº
ĠÐ¼ÑıÑģ Ð
ĠÐ¼ÑıÑģÐ ¾
ĠÐļÐ° Ð·Ð¸Ð½Ð¾
Ð»Ð¾ÑīÐ° Ð´ÑĮ
45 8
ĠÑĪÐ° Ñħ
5 93
ĠÐĿÐ° Ñģ
ÑĪ Ð½Ð¾
ĠÐ²Ð»Ð° Ð³Ð¸
ĠÐ² Ð²ÐµÑģÑĤÐ¸
ÑĤÐ¸ ÑĤÑĮÑģÑı
ÑĮ ÑĤÐµÑģÑĮ
4 15
Ðµ ÑīÐ°
Ð´ÐµÑĢ Ñĭ
ĠÑģÐµ Ð³
ĠÐ±ÑĥÐºÐ¼Ðµ ÐºÐµÑĢ
ĠÐ¾Ð´ Ð½Ð¾Ð¼Ñĥ
ĠÐ¾ÐºÐ°Ð·Ð° Ð»ÑģÑı
ĠÐ°ÐºÐºÑĥ ÑĢÐ°ÑĤÐ½Ð¾
ĠÐ³ Ð¾Ð½
ĠÑĨÐµÐ½ Ð°Ð¼
ĠÐ¾ÑĪÐ¸Ð± Ð¾Ðº
ÑĪÐ° ÐµÐ¼
ĠÐºÐ¾Ð¼Ð¿ ÑĢÐµÑģÑģ
ĠÐºÐ°ÑĢÑĤÐ¸Ð½ ÐºÐ¸
ĠÐ¿ÑĢÐ¾ÑĦÐµÑģÑģÐ¸Ð¾Ð½Ð°Ð»ÑĮ Ð½Ð¾Ð³Ð¾
ĠÐ²Ð·Ñĭ ÑģÐºÐ°
ĠÐ¸ÑģÑĩÐµ Ð·
45 9
Ð·Ð° Ð¼Ð¸
ĠÐ¿Ð¾Ñĩ ÑĥÐ²
one y
ĠÐ¿Ñĥ ÑģÑĤ
H W
ĠÐ¿ÑĢÐ¾ ÑĦÐµÑģÑģ
Ð·Ð¸ ÑĤÑĭ
ĠÐ¾Ð¿Ð»Ð° ÑĤÐµ
Ð¾Ð² Ð¾Ð»ÑĮ
ĠÐ¿Ð¾ÑĤ ÐµÑĢÐ¸
ĠÐ¿ÑĢÐ¸Ð¼ÐµÐ½Ñı ÑİÑĤ
ĠÐ¾ÐºÐ° Ð·ÑĭÐ²Ð°ÐµÑĤ
ÑĢÐ¸ ÑĩÐµÑģÐºÐ¸Ðµ
ĠÑĤ Ð²ÐµÑĢ
g i
997 37
Ð· Ð¼Ñĥ
el s
ÑĢÐµ Ð»ÑĮ
Ñĥ ÑİÑĤ
ÑĦ ÑĤÐ°
ĠÐ¿Ð¾Ð»Ð¸ÑĤÐ¸ ÐºÐ¾Ð¹
ĠÑĦÐ¸Ð·Ð¸ ÑĩÐµÑģÐºÐ¾Ð¹
ĠÐ·Ð° Ð³Ð°
Ð¾Ð½Ðµ ÑĢ
CF BC
ĠÑģÐ¾Ð± ÑĢÐ°ÑĤÑĮ
ĠÐ¡Ðµ Ð²Ð°ÑģÑĤ
ĠÑĦÐ¸Ð½Ð°Ð½ÑģÐ¾Ð² ÑĭÑħ
Ð¾Ð¿ ÑĭÑĤ
66 9
Ð¼Ð¾ ÑģÐºÐ¾Ð²
Ñį Ð»ÑĮ
f in
ĠÐ¾ÑĨÐµÐ½Ð¸ ÑĤÑĮ
ĠÐ¢Ð°ÑĤÐ°ÑĢ ÑģÑĤÐ°Ð½
ĠÐ» Ð¾ÑĤ
04 8
H Z
ÑĢÑĥ ÑİÑīÐ¸Ñħ
ĠÐ½ÐµÑĢ Ð¶Ð°Ð²Ðµ
ĠÑģÐ¸Ð³ Ð½Ð°
ĠÐ¾Ð±ÑĢÐ°Ð±Ð¾ÑĤ ÐºÐµ
P C
ĠI II
ĠÐºÐ¾Ð¼Ð¸ÑĤ ÐµÑĤ
Ð´ÐµÐ»ÑĮ Ð½Ð¸Ðº
ĠÐĵÐµ Ð¾ÑĢ
ÑģÑĤÐ¸ Ð½
ĠÐ²Ñĭ ÑģÐºÐ°Ð·Ð°
ĠÐ² ÑħÐ¾Ð´Ñı
ĠÐ²ÑĭÐ½Ñĥ Ð¶Ð´
ĠÑģÐ°Ð¼Ð¾ ÑĥÐ¿
ĠÐ¿Ð¾ÐºÑĥÐ¿ ÐºÑĥ
ĠÐ¿ÑĢÐ¸Ð¼ÐµÐ½ ÐµÐ½Ð¸Ñİ
ĠÐ¿ÐµÑĢÐ² Ð¾Ð½Ð°ÑĩÐ°
ĠÐ±Ð¾Ð»ÑĮÑĪÐ¸Ð½ ÑģÑĤÐ²Ð°
iz e
ĠÐ¿ÑĢÐ¸Ð±Ð¾ÑĢ Ð¾Ð²
ĠÐºÐ¾Ð¼Ð¿ ÐµÑĤ
Ġ4 1
ĠÐĿÐ¸Ð¶ Ð½Ð¸Ð¹
ĠÐºÐ¾Ð½ÑģÑĥÐ»ÑĮÑĤÐ° ÑĨÐ¸Ð¸
Ðº ÐµÐ¹
Ð»Ð¾Ð² ÑģÐºÐ°Ñı
ĠÑģÐ²Ð¾Ð± Ð¾Ð´Ñĭ
ÐºÐ¾ÑĢ Ð¼
ĠÐ¾ÑĤÐ´Ðµ Ð»ÐºÐ¸
ĠÑģÐ¾ÑģÑĤÐ¾Ð¸ ÑĤÑģÑı
3 17
C BE
ÑĪ Ð½Ð¾Ð¹
H V
ĠÐ¿ÑĢÐ°ÐºÑĤÐ¸ ÐºÐ¸
ĠÐ¿Ð°Ð½Ðµ Ð»ÑĮ
Ġ5 7
ĠÐĳ Ðķ
H Q
Ð¾Ð»ÑĮ ÑģÐº
ĠÐ»Ð¸ÑģÑĤÑĮ Ñı
5 201
Ð³ ÑĢÐµ
ĠÐ¿Ð¸ÑģÐ° ÑĤÑĮ
, .
ĠÐ¿ÑĢÐ¾Ð¸Ð· Ð²ÐµÐ´ÐµÐ½Ð¸Ñı
ĠÐ¿ÑĢÐ¸ Ð´ÐµÑĢÐ¶Ð¸
Ñħ ÐµÐ¼Ð°
nÐĿÐ°Ð· Ð²Ð°Ð½Ð¸Ðµ
ĠÑĢÐ¾Ð· Ñĭ
ĠÐ½Ð°ÑģÐµ ÐºÐ¾Ð¼
ÑģÑģÑĭ Ð»ÐºÐ°
ĠÐ¨ Ñĥ
ĠÐļ ÐµÐ¼ÐµÑĢÐ¾Ð²
ĠÐ¿ÑĢÐ°Ð²Ð¸ ÑĤÐµÐ»ÑĮÑģÑĤÐ²Ð°
ĠÐ¼Ð° Ð½Ð¸
ÐºÑĢÐµ Ð¿Ð¸ÑĤÑĮ
ĠÐĴÐ° ÑĪÐ¸Ñħ
ĠÑĤÑĢÐ°Ð½ÑģÐ¿ Ð¾ÑĢ
Ð½Ñı Ð¼Ð¸
Ðľ ÐŁ
ĠÐ¿ÑĢÐµÐ²Ð¾Ñģ ÑħÐ¾Ð´
Ð²Ð° Ð»Ð¾
ĠÐ·Ð°Ð½Ñı ÑĤÐ¾ÑģÑĤÐ¸
L L
ĠÐ³Ð¾Ð²Ð¾ÑĢÐ¸ ÑĤÑģÑı
ĠÐ¿ÑĢÐ¾Ð¸Ð· Ð
ĠÐ¿ÑĢÐ¾Ð¸Ð·Ð ¾
ĠÐ¸Ð³ÑĢÑĥ ÑĪÐºÐ¸
Ð»Ð¸ Ð·Ð¼
99 19
ĠÐ¿ÑĢÐ¸Ð¼ÐµÐ½ ÐµÐ½Ð¸ÐµÐ¼
I B
ĠÐ¾Ð³ÑĢÐ°Ð½Ð¸ ÑĩÐ¸
o h
05 8
M G
ĠÐŁÐ¾Ð± ÐµÐ´Ñĭ
ĠÑĥÐºÑĢÐ° ÑĪÐµÐ½Ð¸Ñı
DE E
2 20
ĠÐĿÐ°ÑĤÐ° Ð»ÑĮÑı
ĠÐ¿ÐµÑĢÐµ Ð²
ĠÑĢÐ°ÑģÑģÐºÐ° Ð·ÑĭÐ²Ð°
ĠF or
ĠÐ³Ð»Ð°Ð² Ð½Ð¾Ð³Ð¾
ĠÐ¿Ð°ÑĢÐ°Ð¼ÐµÑĤ ÑĢÐ¾Ð²
ĠÑģÐ¾Ð±ÑģÑĤÐ²ÐµÐ½ Ð½Ð¾Ð¹
9996 3534
Ð¾ÑĤ Ð¾Ð²Ð°
ĠÑģÑĤÐ°Ð» ÐºÐ¸
Ðļ ÑĥÑĢ
ÑģÑĤÐ²Ð¸ Ñİ
ĠÐ½Ð°Ð¹ Ð´ÐµÐ½
Ð¸Ñĩ Ð½ÑĭÐ¹
ĠÐ· Ð¾Ð½Ð°
ĠÑĢÐ°ÑģÐ¿Ð¾Ð»Ð¾Ð¶ ÐµÐ½
Ø §
Ð°Ð»ÑĮ Ð½ÑĭÐ¼Ð¸
d ata
ĠÐ¨ Ðµ
Ġ lo
Ð¶Ðµ Ð²ÑĭÐ¹
Ġ20 02
Ð°Ð´ Ð¶Ð¸
ĠÐ´Ð¾ÑģÑĤÐ°Ð² ÐºÐ¾Ð¹
Ñİ ÑīÐµÐ¼Ñĥ
Ð´Ðµ Ð¿
ĠÐľÐ° Ð³
ĠÐ² ÐµÐº
Ð¢ Ñĥ
76 8
Ð± ÐµÐ½
ĠM ed
Ð¾Ð¾ÑĢ Ð´Ð¸Ð½Ð°
ÑĢÐ¸ Ð°
ĠÐ´ÑĢÑĥ Ð³Ñĥ
ÐĿ Ðļ
Ð¡Ðµ Ð²ÐµÑĢ
ĠÐ¾ÑĤ Ñĭ
ĠÐºÐ¾Ð½ ÑĥÑģ
997 24
ĠÐ¿ÑĢÐ¾ÑĨÐµÐ´Ñĥ ÑĢÐ°
ĠÑĢÑĥÑģ ÑģÐºÐ¾Ð¹
Ð¾Ð½ Ð½Ð°Ñı
ĠÑģÐµÑĤ ÐµÐ¹
98 48
ĠÐº ÐĴÑĤ
ĠÐ¾Ñģ Ð¼Ð¾ÑĤ
Ð²Ñı Ð·
Ð±Ð¸ Ð»
U W
ÑģÑĤÐ²ÐµÐ½ Ð½Ð¾ÑģÑĤÑĮ
ĠÐ²Ð¾ ÐµÐ½Ð½ÑĭÑħ
ĠÐ° Ð²Ð¸
u y
ĠâĨ ³
97 96
ĠÐ¿ÑĢÐ¾ÑĪ Ð»Ð°
ĠÑģÑĤ ÐµÐ½Ð°
ĠÐ²Ð¾Ð¿ÑĢÐ¾Ñģ Ñĥ
A Q
ĠÐºÐ° Ð´Ð°
Ð¡Ð¡ Ðĺ
ĠÐ¸Ð· Ð±Ð¸ÑĢÐ°
ĠÐ¶Ð¸ ÑĤÐµÐ»Ð¸
ĠÐĵÐ¾Ñģ Ð¿Ð¾Ð´
77 1
ĠÐ¾Ñħ Ð¾ÑĤ
ĠÐ¿ÑĢÐ¾Ð³ Ñĥ
ĠÐ¿Ð¾ÐºÐ°Ð·Ð° ÑĤÐµÐ»ÑĮ
ĠÐŁÑĢ Ð¾Ð¸Ð·Ð²Ð¾Ð´Ð¸ÑĤÐµÐ»ÑĮ
ĠÐ¼ÐµÐ½ÐµÐ´Ð¶ ÐµÑĢ
ĠÑģÑĤÐ¸ Ð¼ÑĥÐ»Ð¸
ĠÐ»ÐµÐºÐ°ÑĢ ÑģÑĤÐ²Ð°
ĠÐľÐ¾ÑģÐºÐ¾Ð² ÑģÐºÐ°Ñı
ĠÐ¿Ð¾Ð¿ÑĥÐ»ÑıÑĢ Ð½ÑĭÐµ
ĠÑĦÐµÐ´ÐµÑĢÐ°Ð»ÑĮ Ð½Ð¾Ð³Ð¾
Ð»Ð¾Ð² ÐºÐ°
ĠÐĶ ÐµÐ½Ð¸
ĠÑģÑĤÐµÐ¿ ÐµÐ½ÑĮ
ĠÐ»Ð¸ÑĨÐµÐ½ Ð·Ð¸Ð¸
ĠÐ·Ð° Ð³Ð¾ÑĤÐ¾Ð²
ĠÐ¾Ð±Ñĥ Ð²Ð¸
ÐµÐº ÑģÑĤ
ĠÐ¼Ð¾Ð» Ð¾ÑĤ
ĠÐ´ÐµÑĤ ÑģÐºÐ¾Ð³Ð¾
v ar
ĠÐ¿ÑĢÐ¸ Ð´Ð°
ĠÐ¡ Ðĺ
ĠÐĺÐ½ ÑĦÐ¾ÑĢÐ¼Ð°ÑĨÐ¸Ñı
ĠÑĪÑĤÑĢÐ° ÑĦ
R G
ĠÐ² Ð¾ÑĢÐ¾ÑĤ
nÐ£ ÑģÐ»Ð¾Ð²Ð¸Ñı
ÑħÐ½Ð¾Ð»Ð¾Ð³Ð¸ Ñı
Ðĳ Ð¸
ĠÐ²Ð¸ Ð´Ð¸Ð¼
ĠÐ¾Ð³ Ð½Ðµ
ĠÐ´ÐµÐ»Ð° Ð¼
I J
Ð¾Ð¶ Ñĥ
ĠÐ·Ð° Ð»Ð¸
ĠÐ¾Ð¿ Ð¾ÑĢ
ĠÐĲ ÑģÑģ
ĠÐ¼ÐµÑĤ Ð¾Ð´Ð¾Ð²
ĠÐ²Ð¾ÑģÐ¿ÑĢÐ¸ Ð½Ð¸Ð¼Ð°
ĠÐ¿ÑĢÐ¾Ð´Ð° Ð¶Ñĥ
t or
Ð¾Ð½Ðµ ÑĨ
ĠÐ³ Ð¸Ð¼Ð½Ð°
Ñĭ Ð·
97 74
997 45
ĠÐĴÐ¸ ÐºÑĤÐ¾ÑĢ
Ġ5 4
ĠÐ¿ÑĢÐ¾ Ð½Ð¸Ðº
n ame
5 13
ĠÑģÐ¾Ð³Ð»Ð° ÑģÐµÐ½
ĠÑħ ÑĢÐ°Ð½ÐµÐ½Ð¸Ðµ
8 11
ĠÑĥÑĩ Ñĳ
ĠÑĥÑģÐ¿Ðµ ÑħÐ°
ĠÑĥÐ´Ð° Ð»ÑıÑĤÑĮ
nÐĺÐ½ÑĤÐµÑĢ Ð½ÐµÑĤ
Ð²Ð¸Ð³Ð° ÑĨÐ¸Ñı
ĠÑĥÑģÑĤÐ°Ð½Ð¾Ð² ÐºÐµ
ĠÐĿÐ¸ Ð¶ÐµÐ³Ð¾ÑĢÐ¾Ð´
Ð»Ð°Ð´ ÐºÐ¸
U J
re v
ĠÐ¸Ð¼Ñĥ ÑīÐµÑģÑĤÐ²Ð¾
! Â»
Ð´ Ð½ÑĭÐ¹
ĠÑĥÑĤ ÑĢÐ¾Ð¼
Ð¿ ÑĥÐ½
ĠÐ´Ð¸Ð°Ð³Ð½Ð¾ÑģÑĤÐ¸ ÐºÐ¸
ÑĪÐ¸ ÑĤ
ÑģÑĤ ÐµÐ½
ĠÐ¿ÑĢÐ¾ÑĤÐ¸ Ð²Ð¾ÑĢÐµ
ĠÐ¼Ð°ÑģÑģÐ° Ð¶
ĠÐķÐºÐ°ÑĤÐµÑĢÐ¸Ð½ Ð±ÑĥÑĢÐ³
ÑĢÐ°Ð·Ñĥ Ð¼Ðµ
ĠÑĤÐµÑħÐ½Ð¸ ÐºÑĥ
97 94
ĠÐ²Ð¸Ð´ Ð¾Ð¼
nÐĴ Ð½Ð¸Ð¼Ð°Ð½Ð¸Ðµ
ĠÐ¿ÑĥÐ±Ð»Ð¸ ÐºÑĥ
¾ ÐµÐ¼
Ð ¾ÐµÐ¼
Ġ$ (
ĠÐ¿Ð¾Ðº Ð»Ð¾Ð½
ĠÐ¿Ð¾Ð· Ð²Ð¾Ð½Ð¾
997 47
ĠÐĵ ÐµÐ½ÐµÑĢÐ°
ĠÐ¿Ð¾Ð´ ÑģÐºÐ°
ĠÑĤÐ¾ÑĢÐ³Ð¾Ð² ÑĭÑħ
Ð½ ÑĮÑİ
ĠÑįÑĤÐ¸ Ð¼Ð¸
ĠÐ¡ÑĤÐ° ÑĤÑĮÐ¸
ĠÐ¢Ñĭ Ð²Ð°
Ġ6 3
R S
Ð½Ñĥ Ð²
Ð¸ Ð»Ð¸ÑģÑĮ
ÑĪ ÐºÐ¾Ð»ÑĮ
ĠÐ½Ð¾ÑĢÐ¼Ð° Ð»ÑĮÐ½Ð¾
ĠÐ¾ÑĢÑĥ Ð¶Ð¸Ðµ
ĠÑĥÐ²ÐµÑĢ ÐµÐ½
ĠÐµ Ð´Ñĭ
Ð²Ð° ÐºÑĥ
Ð½Ð¾Ð²Ð° Ñı
ĠÐ¥ Ð°Ð¹
30 28
Ð·Ð° ÑĤÐ¾ÑĢ
ĠÐ³ ÑĢÐ°Ð½
ĠÐ¾ÑĤÑģÑĥÑĤ ÑģÑĤÐ²ÑĥÐµÑĤ
r it
ĠÐ¿Ð¾Ð» Ð¾ÑģÑĤÐ¸
997 65
ĠÑĢÐ°Ð±Ð¾ ÑĩÐµÐ¹
le ct
ĠÑģÐµÐ¼ ÐµÐ½Ð°
Ð½ ÑģÐºÐ¾Ð¹
ĠÐ¼Ð° Ð»Ð¾Ð³Ð¾
ĠÐ´Ð¾ÐºÑĥÐ¼ÐµÐ½ÑĤÐ° ÑĨÐ¸Ð¸
ĠÐ´Ð¾Ð» Ð³Ð¸
ĠÐ¢ ÐĲ
F S
nÐĿÐ° Ð·Ð°Ð´
ĠÑģÐ¾Ð²ÑĢÐµÐ¼ÐµÐ½ Ð½Ð¾Ð³Ð¾
ĠÐĿ ÑĮÑİ
ĠÐŁÐ¾Ð»Ð¸ ÑĤÐ¸
Ð¿Ð° ÑĤÐ¸
ĠÑģÐ¾Ð» Ð½ÑĨÐµ
ÑģÑĤÐ¸ ÑĩÐµÑģÐºÐ¾Ð¹
ĠÐ½ Ð¾Ð³Ð°
â ĺ
Ð¾ÑģÐº Ð¾Ð¼
T ube
ĠÐ±Ð¾ÑĢÑĮ Ð±Ðµ
ĠÑĢÐµÐ° Ð³Ð¸
ĠÐ½Ð°Ð» Ð¾Ð³Ð°
ĠÑģÐ¾Ð´ÐµÑĢÐ¶Ð° ÑĤÑĮ
ĠÐĴÐ¸ Ð´ÐµÐ¾
an a
ĠÐĵ Ð»Ð°
ĠÑĢÐµÐ±ÐµÐ½ ÐºÑĥ
ĠÐ¾Ð±ÑıÐ·Ð° ÑĤÐµÐ»ÑĮÑģÑĤÐ²Ð°
ÑĤÑĥ Ð³Ð°
ĠÐ½ÐµÑģÐ¾Ð²ÐµÑĢÑĪÐµÐ½ Ð½Ð¾Ð»ÐµÑĤ
Ð½ Ð¾ÑĤÐ°
ĠÐ²ÐµÑĤÐµ ÑĢÐ¸Ð½Ð°
ĠÐ¿Ð¾ Ñį
ĠÑĥ Ð´ÐµÑĢÐ¶Ð¸
ÑģÐ»Ñĥ Ð¶Ð°
nÐĲÑĢ ÑħÐ¸Ð²
ĠÐ´Ð° Ð²Ð°ÑĤÑĮ
ĠÐ¿ÐµÑĢÐµ ÐºÑĢÑĭ
ĠÐ¼Ð¸Ð½Ñĥ ÑĤÑĭ
ĠÐ½ Ð¾ÑĤÐ°ÑĢÐ¸
ÐµÑĢ Ð¼Ð°
ĠÐ½Ð° ÑĩÐ¸Ñģ
Ð´ÐµÐ½ ÑģÐ°
Y Z
ĠÐ·Ð°ÑĤ ÑĢÑĥÐ´
ĠÐ»ÐµÑĤ Ð°
ĠÐºÐ¾Ð» Ð¾Ð´
ÑģÑĤÐ°Ð² ÐºÐ°
ĠÐ¾ÑĤ ÐºÐ°Ð·ÑĭÐ²Ð°
0 36
ĠÐ¿ÑĢÐ¾ÑĦ Ñģ
Ð¸ Ð»ÑģÑı
nÐĴ Ð¾Ñģ
ÑģÑĤÐ²ÑĥÑİ ÑīÐ¸Ðµ
4 25
Y W
Ð»ÑĮ Ð½Ð¾Ð¼Ñĥ
ĠÐ¿Ð¾Ð¼Ð¸ Ð¼Ð¾
Ð· ÐµÐ»ÑĮ
Ð³ ÑĢÐµÐ²Ð°
ĠÐ¿Ð¾Ð»ÐµÐ· Ð½ÑĭÑħ
ĠÐŁ Ð¾Ð¼Ð¸Ð¼Ð¾
ĠÐ¨ ÑĤÐ°
Ġ35 0
ĠÐ²Ð¾ÑģÑģÑĤÐ°Ð½Ð¾Ð² Ð¸ÑĤÑĮ
Ð³Ð¾ÑĤÐ¾Ð² Ð»ÐµÐ½Ð¸Ðµ
ĠÑĥ ÑĢÐ¾Ð¶
ĠÐ° Ð²Ð°ÑĢÐ¸Ð¹
997 46
ĠJ ava
ĠÐ³Ð¾Ð»Ð¾Ñģ Ð°
99988 22
nÐĵ Ð¾ÑĢÐ¾Ð´
Ð¿ ÑĥÑģ
Ð»Ð¾Ð² Ðµ
Ð´ Ð¼Ð¸
ĠÐ¼ÐµÑĩ ÑĤÐ°
el ect
ĠÐ´Ð¾Ð¿Ð¾Ð»Ð½Ð¸ÑĤÐµÐ»ÑĮ Ð½Ð¾Ð³Ð¾
ĠÐ¾Ð±ÑıÐ·Ð°ÑĤÐµÐ»ÑĮ Ð½Ð°
ĠÑĢÐµ ÐºÐ¾ÑĢ
ĠÐ²Ð¾Ð·Ð½Ð¸ÐºÐ° ÑİÑĤ
ÑĢÐµÑģ ÑģÐ°
ĠÑģÐ¾ÑĨ ÑģÐµÑĤ
ĠÐ·Ð°ÐºÐ¾Ð½ ÑĩÐ¸
ĠÐ²Ñĭ Ð´ÐµÑĢ
ĠÐ¾ÑģÐ¾Ð±ÐµÐ½ Ð½Ð¾ÑģÑĤÐµÐ¹
p od
Ð¶ÐµÐ½ Ð½ÑĭÐµ
j pg
ĠÐºÐ¾Ð½Ðµ ÑĨ
ĠÑĦÑĥÑĤÐ± Ð¾Ð»
Ġ un
nÐĲ Ð½Ð°Ð»Ð¸
ÑĨÐ¸Ð°Ð»ÑĮ Ð½ÑĭÐµ
ĠÑģÐ»ÑĥÐ¶ Ð±Ð¾Ð¹
ÑīÐµÐ½ Ð½Ð¾Ð¹
ĠÑĥÐ´Ð¾Ð± ÑģÑĤÐ²Ð°
ĠÐ²Ð½ÑĥÑĤÑĢÐµÐ½ Ð½ÐµÐ³Ð¾
Ð½Ñı Ð¹ÑĤÐµ
Ð¾ÑĤ Ð²Ð¾ÑĢ
ĠÐŃ Ð½
ÐµÑĤ ÐºÐ°
ation al
ĠÐ¿Ð¾Ð² ÑģÐµÐ´Ð½ÐµÐ²
Ð¶ ÑĮÐµ
N L
nÐŁÑĢ Ð¾Ð´Ð°
ĠX X
ĠÐ¿Ð¾Ð» Ð¾Ð¼
Ð¿Ð¸ ÑģÐ¸
Ð¡ Ð£
ĠÐ¿ÑĢÐ¾Ð³ÑĢÐ°Ð¼ Ð¼Ð¸
p a
á ĥ
ÑĤ ÑĢÐ°Ðº
ĠÐ¿ÑĢÐµÐ´ÑģÑĤÐ°Ð² Ð»ÑıÑİÑĤ
997 55
ĠÑĥÑģ Ð»Ð¾Ð²
ĠÐ½ÐµÐºÐ¾ÑĤÐ¾ÑĢ Ð¾Ðµ
ÑĢ ÐºÐ¸
ĠÐ± ÑĢÐ¾Ð½Ð¸
ĠÐĵ Ð¾ÑģÐ¿
n U
Ð»ÐµÑĤ Ð½Ð¸Ð¹
ĠÐ¾ÑĤÐ½Ð¾ ÑĪÐµÐ½Ð¸Ñİ
ÐºÐ¾ Ð½Ñĭ
nÐłÐµÐº Ð¾Ð¼ÐµÐ½Ð´Ñĥ
r and
ĠÐ°Ð»ÑİÐ¼Ð¸ Ð½Ð¸Ðµ
ĠÐ³Ð¾Ð²Ð¾ÑĢÐ¸ Ð»
ĠÐ²Ðµ Ð´ÐµÑĤ
ĠÐ¾Ð± Ð¾ÑĢÐ¾Ð½Ñĭ
k z
ĠÐºÐ¾Ñģ Ð¼Ð¸
ĠÐłÐµÐ³Ð¸ Ð¾Ð½Ð°Ð»ÑĮ
nÐĿ ÐµÐº
Ð°Ðº Ð¾Ð¼
ĠÐ¼Ð°Ð³Ð°Ð·Ð¸ Ð½Ð¾Ð²
998 83
Ñı ÑīÐ¸Ñħ
ĠÑģÐ¼ÐµÑĢ ÑĤÑĮ
ĠÑĩ Ð»ÐµÐ½Ð°
ĠÐ¾Ð± ÑĥÑģÐ»Ð¾Ð²
fi le
artic le
ĠÐ½Ð°ÑģÑĤ ÑĥÐ¿
4 99
ÑģÑĤ Ð½ÑĭÑħ
97 37
Ġ )\
5 17
Ð°ÑĤ ÑĢ
ÑģÑĤÑĢÐ¸ Ð¸
E Z
C FA
ĠÐľÐ° ÑĢÐ¸Ñı
ĠÐ¿ÑĢÐ¾ÑĪ Ð»Ð¾
ÑĮÑİ ÑĤÐµÑĢ
ĠÐ¿Ð¾Ð» Ð½Ð¾Ðµ
ÑĥÑĤÐ± Ð¾Ð»
ÑĤÐµ Ð»
ĠÐ² ÑģÑĤÐ°
ĠÐ¸ÑĤÐ¾Ð³ Ð°Ð¼
ĠÐĿÐ¸ ÐºÐ¸
120 0
m os
nÐĿÐ¾Ð² ÑĭÐµ
ĠÑĢÐ°Ð·ÑĢÐµ ÑĪÐµÐ½Ð¾
Ð² ÑĤÐ¾ÑĢ
9886 211
ĠÐ¡ Ð²ÑıÑĤ
Ð»Ð° Ð²Ð¸
nÐ¡ Ð¼Ð¾ÑĤÑĢÐµÑĤÑĮ
nÐ¤ Ð¸Ð»ÑĮ
63 2
Ðº Ð¾Ð²Ð°ÑĤÑĮ
ĠÑĥÑĩÑĢÐµÐ¶Ð´ ÐµÐ½Ð¸Ðµ
ĠÐ½Ð¸Ð¶ Ð½ÐµÐ¹
997 93
ÐºÑĥÑĢ Ñģ
ĠÐ½Ðµ Ð±
ĠÑģÑĭ Ð½
ĠÐ½Ð°Ð»Ð¸ÑĩÐ¸ Ñı
nÐŁ Ð¾Ð½
ĠÐ¿ÑĢÐµÐ´Ð»Ð¾Ð¶ ÐµÐ½Ð¸Ð¹
M M
ÐµÑħ Ð°Ð»
ĠC ont
ĠÐ»Ð¸ÑĤÐµÑĢÐ° ÑĤÑĥÑĢÑĭ
ĠÐ¼ Ð¾Ð´Ð¸
ĠÐ°Ðº ÑģÐµÑģÑģÑĥ
== ==
ĠÑĢÐµÐ°Ðº ÑĨÐ¸Ð¸
ĠÐ¾Ð³ÑĢÐ°Ð½Ð¸Ñĩ ÐµÐ½Ð¸Ð¹
ĠÐ½ÐµÐ·Ð°Ð²Ð¸ÑģÐ¸ Ð¼Ð¾
ĠÐ¿Ð¾Ð´Ð¾Ð± Ð½ÑĭÐµ
ĠÑĨÐ¸ ÑĤÐ°
Ð½Ð¾ÑģÑĤ ÑıÐ¼
ÐºÐ¾Ð² Ñĭ
H J
ĠÑĤÑĢÐµÐ½ ÐµÑĢ
ĠÐ·Ð° Ð¼ÐµÐ½Ð°
ĠÐ¿Ð¾Ð» Ð½ÑĥÑİ
ĠÐ´Ð¸ÑĢÐµ ÐºÑĤÐ¾ÑĢÐ°
ĠÐ°ÑĢ Ð¼Ð¸
ĠÐ¾Ð¿ÑĥÐ±Ð»Ð¸ÐºÐ¾Ð²Ð° Ð½
ĠÐ¶ÐµÐ½ Ð°
ĠÐ¸Ð½ÑĦÐ¾ÑĢÐ¼Ð° ÑĨÐ¸Ð¾Ð½Ð½ÑĭÐ¹
ĠÐ±ÑĥÐºÐ²Ð° Ð»ÑĮÐ½Ð¾
ĠÑĥÐ¿ Ð¾Ð¼Ð¸Ð½Ð°
th is
ĠÑģÐ»ÑĥÑĩÐ° Ð¸
ĠÐ·Ð°Ð´Ð¾Ð» Ð¶ÐµÐ½
Ð²Ð° ÑİÑīÐ°Ñı
ÐµÐ¼ Ð¾Ðµ
98 22
Ð½Ñı ÑĤ
ĠÐ¿Ð»Ð° ÑĤÐ¸ÑĤÑĮ
75 9
ĠÐ¾ÑĤÐ´Ðµ Ð»ÑĮÐ½ÑĭÐµ
ÑĦ Ð°Ð¹
ĠÑĪÐµ ÑģÑĤÑĮ
Ð²Ð° Ð¼Ð¸
ĠÐ²Ð¼Ðµ ÑĪÐ°
ĠÑģÐ¿Ð¸ ÑģÐºÐ°
ÑĢÐ¾Ñģ Ð¾Ð²
e mail
ĠÐ±ÐµÑĤ Ð¾Ð½Ð°
73 05
ĠÑĤÑĥÑĢÐ¸ ÑģÑĤÐ¾Ð²
ĠÐ¿ÑĢÐ¾ÑĦÐ¸ Ð»Ñı
ĠÑģÐ¼Ð¾ÑĤ ÑĢÑı
Ġ ï¿½ï¿½ï¿½
ĠÐ´Ð¾ÑģÑĤÑĥÐ¿ Ð½Ð°
ĠÐ¿ÑĢÐ¾ ÑĪÐµÐ´
ĠÐĴ ÑĢÐµÐ¼Ñı
ĠÐ¸Ð¼Ð¼Ñĥ Ð½Ð¸ÑĤ
ÑĢÐµ ÐºÑĤÐ¾ÑĢ
ÑĤ ÑĢÐ¾Ð¿
ÑģÐ¾Ð² Ð¾Ð¹
ĠÑģÑģÑĭÐ» ÐºÐ¾Ð¹
ĠÐ® ÑĢÐ¸Ð¹
nÐĹ Ð°Ð¼
ĠÐ¿ÑĢÐ¸ ÑĢÐ¾Ð´Ðµ
nÐĶ Ð¾Ð¿Ð¾Ð»Ð½Ð¸ÑĤÐµÐ»ÑĮ
ĠÑģ Ð½Ð¸Ð¼
Ð½Ð¸ Ð²
ĠÐ¿Ð¾Ð²ÑĭÑĪÐµÐ½ Ð½Ð¾Ð¹
ÐķÐł Ðķ
ĠÐ¢ ÐµÐ¿
997 97
05 9
Ð»Ðµ Ð¸
Y G
ĠÐºÐ° Ð±ÐµÐ»ÑĮ
ĠÐ²Ð° ÐºÐ°Ð½
v et
ĠÐ¢ Ð¾Ð¿
ĠÐ¾Ð± ÑīÐ¸Ð¹
ĠO n
Ð½ ÑĨÐ°
ĠÐºÐ¾Ð»Ð»ÐµÐº ÑĨÐ¸Ð¸
nÐĳ Ð¾Ð»ÐµÐµ
ĠÐ¿ Ð¾ÑģÑĤÐ°Ð²Ð»Ñı
ĠÐ´Ð° ÑĤÑĥ
ĠÐĳ Ð¸Ð·Ð½ÐµÑģ
ĠÐ·Ð°Ð´Ð° Ð½Ð¸Ñı
ĠÐ·Ð°ÑĢ Ð¿Ð»Ð°
ÐµÐ¹ ÐºÐ¸
ĠÐ¾ÑĤÐº Ð»Ð¾Ð½
ĠÐ¼ÐµÑĤÐ°Ð» Ð»
Ð¾ÑģÑģÐ¸ Ð¹ÑģÐºÐ¸Ð¹
ĠÑģÐ½Ð¸ Ð¶ÐµÐ½Ð¸Ðµ
ĠÐ¸ Ð´ÐµÐ¹
ov er
ĠÐ¿ÑĢÐ¾Ð¼ ÑĭÑĪ
ĠÑģ ÐºÐ»Ð°Ð´Ñĭ
ĠÐ¿ÑĢÐ°Ð² Ð¾ÑģÐ»Ð°Ð²
Y K
ÑĮ ÐµÐ¼
Ð¾Ð³Ð¾Ð² Ð¾ÑĢÐ¸
ĠÐ§Ð° ÑģÑĤÑĮ
nÐŁÑĢÐµ Ð¸Ð¼ÑĥÑīÐµÑģÑĤÐ²Ð°
ÐŃ Ð»ÐµÐºÑĤ
ĠÑĥÐ»ÑĥÑĩ ÑĪÐ¸ÑĤÑĮ
997 36
Ð¡Ð¢ ÐĲ
ĠÑģÐ¾Ð·Ð´Ð° ÐµÑĤ
Ð²Ð° Ð½Ñĭ
99 985
od y
ĠÑĢÐ°Ð·Ð»Ð¸Ñĩ Ð½ÑĭÐ¼Ð¸
Ġ z
ĠÐ¼Ð°ÑĪÐ¸ Ð½Ðµ
Ð½Ð¸ ÑĤÐµÐ»Ð¸
ĠÑģÑĤ ÐµÐ½Ðµ
nÐ¡Ð²Ðµ Ð¶Ð¸Ðµ
C T
Ð»ÐµÐ½ Ð½Ð¾ÑģÑĤÐ¸
03 9
ĠÐ²ÑĭÐ´Ð° ÑĩÐ¸
04 9
ĠÐĴÐµÐ»Ð¸ ÐºÐ¾Ð¹
ĠÐ³ÑĢÐ° Ð½Ð¸ÑĨÑĭ
ÑģÐ¿ ÐµÑĢÑĤ
Ġ5 6
ĠÐ¿ÑĢÐ¾ÑĨÐµÐ´Ñĥ ÑĢÑĥ
ÐºÑĥ ÑĤ
ĠÐ¸Ð· Ð¾Ð±ÑĢÐµ
U Q
Ð»Ð° ÑĤÑĮ
ĠÐļÐ° ÐºÐ¸Ðµ
Ð¾Ð» Ð³Ð¾
ÐµÑĢÐµ Ð´Ð¸
ĠÐ¾Ð± Ð°
ĠÐºÐ¾Ð¼Ð¿Ð¾Ð½ ÐµÐ½ÑĤÑĭ
ĠÐ¾ÑĤ ÐµÑĨ
Ð°Ð½ Ð½Ð°Ñı
hats App
ĠÐ²Ð¾Ð·Ð²ÑĢÐ° ÑĤÐ°
ĠÐ±ÑĥÑħÐ³Ð°Ð» ÑĤÐµÑĢ
ĠÑģÑĤÐ¸ Ð»Ñı
Ð° Ð½Ñĭ
o ad
ĠÐļÐ¸ÑĤÐ° Ðµ
ÐµÐ´ Ð¶Ðµ
Ð´ÐµÐ»Ð° ÑĤÑĮ
ÑĪÐ¸ Ð»Ð¸
ĠÐ¿ÑĢÐ¾Ð¸Ð·Ð²Ð¾Ð´Ð¸ ÑĤÐµÐ»Ð¸
ÐµÐ¼ ÑĭÐ¼
ĠÑĢÐ°ÑģÑĤ Ñı
ĠÐ¾Ð¿Ð»Ð° ÑĤÑĥ
0 37
ĠÑĢÑĥÐºÐ¾Ð²Ð¾Ð´ ÑģÑĤÐ²Ð¾
nÐļ Ð»Ð¸
ĠÑįÐº ÑĢÐ°Ð½
ĠÐĲÐ» ÑĤÐ°Ð¹
ĠÐ¾Ð¿ÑĢÐµÐ´Ðµ Ð»ÑıÐµÑĤ
o ck
S cript
ÐĿÐŀ ÐĻ
997 16
Ð³Ð° ÑĨÐ¸Ð¸
ĠÐ²Ñĭ ÑħÐ¾Ð´Ð¸ÑĤ
ĠÐ»Ð° Ð·ÐµÑĢ
ÑģÐº Ð¾ÑħÐ¾Ð·ÑıÐ¹
ÑĪÐµÐ½ Ð½ÑĭÐµ
ĠÐ½Ñĭ Ð½ÐµÑĪ
ĠÐŀ ÐĲÐŀ
ĠÐ½Ð°ÑĨÐ¸Ð¾Ð½Ð°Ð»ÑĮ Ð½Ð¾Ð¹
ĠÑģÐ¼Ð¾Ð³ Ð»Ð¸
997 1
p en
n ÐºÐ°
ĠÑĥÐ²ÐµÐ»Ð¸ ÑĩÐµÐ½Ð¸Ñı
ĠÐ´ÐµÐ»Ð° ÐµÑĤÑģÑı
Ñĭ ÑĪÐµ
ĠÑĤÐ°Ðº ÑģÐ¸
ĠÐ¿Ð¾ÑĤÐ¾Ð» ÐºÐ¾Ð²
Ð¾Ðº Ð¾Ð»ÑĮ
ĠÐ»Ð¸ÑĨÐ° Ð¼Ð¸
ast er
ĠÐ²Ðµ Ñī
ĠÐ½Ðµ Ð¿Ð¾Ð»
ĠÐ·Ð¾Ð» Ð¾ÑĤÐ°
ĠÐºÐ¾Ð¼ Ð¼ÐµÐ½ÑĤÐ°
\" >
Ð½ Ñĳ
ĠÐºÑĥÑħ Ð½Ðµ
ka z
997 94
ĠÐĶ ÐµÐº
BB B
ĠÐ²ÐµÑĢ ÑģÐ¸Ñİ
ĠÐ¾Ð±ÑīÐµ ÑģÑĤÐ²ÐµÐ½Ð½Ð¾Ð³Ð¾
ĠÑģÑĤ Ð¾Ð»Ð°
ĠÐºÐ»Ð° Ð´
ĠÐ·Ð°Ð¿Ð¾Ð» Ð½ÐµÐ½Ð¸Ñı
43 8
ÑĤÐ¸Ð² Ð½ÑĭÐ¼Ð¸
ĠÐ¾ÑĤÐ»Ð¸Ñĩ Ð½ÑĭÐ¹
ĠÐ¿Ð¾Ðº ÑĢÐ°
Ð·Ð° Ð²Ð¸ÑģÐ¸
07 2
ĠÑĢ Ð¾ÑĤ
ĠÐ²ÐµÐ»Ð¸ ÐºÐ¾Ð»ÐµÐ¿
ĠÑģÐ¿Ð¾ÑģÐ¾Ð± Ð½Ð¾ÑģÑĤÐ¸
Ð¾ÐºÐ° ÑĩÐµ
Ð² ÐµÐ½ÑĤÐ°
Ð»Ñı ÑĤ
ĠÐº Ð»ÐµÐ¹
998 64
ĠÑĢÐµÑģÑĥÑĢ ÑģÑĭ
ĠÐ¾Ð±ÑĢÐ°Ð·Ð¾Ð²Ð° ÑĤÐµÐ»ÑĮÐ½ÑĭÑħ
ĠÐºÐ° ÑĦÐµÐ´
ar a
ĠÐ¼ ÑĥÐ´
ĠÑĢÑĥÑģ ÑģÐºÐ¸Ñħ
ĠÐ¿Ð¾Ð´ÑĤÐ²ÐµÑĢ Ð¶Ð´
N D
Ð² ÐµÑĢÐµ
C P
CF B
Ð¾Ñģ Ð»ÐµÐ´
ÑĨÐ¸Ð¾Ð½ Ð½ÑĥÑİ
ĠÐ¿ÑĢÐ°Ð²Ð¸Ð»Ð° Ð¼Ð¸
ĠÐ²Ð¾Ð· Ð»Ðµ
ĠÑĩÐµ Ñģ
ran s
96 36
ĠÐ¸Ð¼ÐµÐ½ ÐµÐ¼
ĠÐ½Ðµ ÑĢÐµÐ´ÐºÐ¾
ĠÐ¿Ðµ ÑģÐºÐ°
ÐºÐ¾Ð» Ñĭ
Ġ 74
ÑģÐ° Ð´ÐºÐ¸
ĠÑıÐ¹ ÑĨÐ°
ĠÐ·Ð°Ð±Ð¾Ð»Ðµ Ð²Ð°Ð½Ð¸Ðµ
ÐŁ Ðĺ
ÑĢÑĭ Ñħ
ĠÑĦÐ¸ Ð³ÑĥÑĢ
l et
998 54
ÑĢÐ¾Ð² ÑģÐºÐ¸Ð¹
ĠÐ¼ Ð¾ÑĢÐ°
Ðļ Ð°Ð»Ð¸
ĠÐ¿ÑĢÐ¸ ÑģÐ¿Ð¾ÑģÐ¾Ð±
ĠÐ°Ð²ÑĤ Ð¾Ð±ÑĥÑģ
93 243
ĠÐ¾ÐºÐ°Ð·Ð° Ð½Ð¸Ñı
ÑĨÐµ Ð²Ð°
ĠÑĢÐµÐ· ÑĮ
ĠÐ¾Ð¿Ð»Ð° ÑĤÐ¸ÑĤÑĮ
Ð¡ ÐļÐŀ
ĠÐ²ÑĭÑģÐ¾Ðº ÑĥÑİ
ĠÑĨÐµÑĢ ÐºÐ²Ð¸
ĠÑģ Ð¾Ð·
Ð¶ÐµÐ½ Ð½ÑĭÐ¹
996 66
ĠÑĦÑĢÑĥ ÐºÑĤÐ¾Ð²
ĠÑģ ÐµÐ¹
ĠI nt
ĠÐ·Ð°Ð¿ ÑĩÐ°ÑģÑĤÐ¸
Ð¶Ð° ÑİÑĤÑģÑı
ĠÑįÐºÑĢÐ° Ð½Ð°
Ð¶Ðµ Ð±
fi l
nÐŁÑĢÐ¾Ð´ Ð¾Ð»
997 77
ĠÐ¸ Ð´ÑĥÑĤ
ĠÐ³ÐµÑĢ Ð¾Ð¸
ĠÑĦÐ° ÐºÑĤÐ¾ÑĢ
ĠÑĢÐ° ÐºÐµÑĤ
Ð¼ÐµÐ½ÑĤÐ¸ ÑĢÐ¾Ð²Ð°ÑĤÑĮ
ĠÐºÐ¾Ð¼Ð°Ð½ Ð´Ñĥ
ĠÐºÐ¾ ÑĪÐµÐº
ĠÑģÑĤÑĢÐ° Ð½Ñĥ
ĠÐ¢ Ð¸Ð¿
ĠÑģÐ¿ ÑĢÐ°Ð²ÐµÐ´
ÐµÑĢÑĤ Ð²
Ġâ ľ
te ct
ĠÐłÐ° ÑģÑģ
c ss
ÑĪÐ° Ð»Ð¸
ĠÐ²ÑĭÑģÐ¾Ðº Ð¸Ñħ
ĠÐ²Ñĭ Ð¹ÑĤÐ¸
ÐºÐ»Ð°Ð´ ÐºÐ°
ĠÐ¾ÑģÑĤÐ° Ð»Ð¸ÑģÑĮ
ĠÑĦÐ¸ ÑĤ
Ð½Ð° ÑĢ
ĠÐ¿ÐµÑĢÐµÐ¹ Ð´Ð¸ÑĤÐµ
ĠÐ´Ð¸Ð·Ð°Ð¹ Ð½Ðµ
Ð¾Ð¿ Ð¸Ñģ
ĠÐ´ Ð¾Ð¶
ĠÐ³Ð°ÑĢÐ°Ð½ ÑĤÐ¸Ð¹
ĠÐ¢Ð° ÐºÐ°Ñı
ĠEx c
ĠÐ²Ð»Ð° ÑģÑĤÑĮ
ĠÑĥ ÑħÐ°
ĠÐ±Ð° Ð±Ñĥ
Ð¾Ð²Ð°Ð» ÑİÑĤ
Ð¼ ÐµÑĤÐ°
ĠÑģÑĤÐ°Ð½ ÑĥÑĤ
88 9
ĠÐ¿Ð¾Ð¿ ÑĭÑĤÐ°
ĠÐºÐ¾Ð½ÐºÑĥÑĢ Ñģ
ĠÐ¿ ÑĢÑĥÐ¶Ð¸
ĠÐºÐ¾Ð¼Ð°Ð½ Ð´Ð¸
Ð±Ñĭ Ð»Ð¸
ĠÐ¼Ð°Ð³ Ð½Ð¸
ĠÐ¼Ð° Ð½Ð¸Ðº
20 23
ĠÐ±Ð¸Ð±Ð»Ð¸ Ð¾ÑĤÐµÐºÐ°
Ð·Ð° Ð»
ĠÐ¿ÑĢÐ¾ ÑĩÐ¸ÑĤÐ°
97 17
s et
ĠÐľ Ðķ
ĠÐŁ Ð¾Ð¸ÑģÐº
ĠÐŀÑĤ Ð·ÑĭÐ²Ñĭ
ĠÐ¢ Ðķ
Ðĵ Ðł
ĠÐºÐ½Ð¸ Ð³Ðµ
ĠÐ¾ÐºÐ°Ð·Ð° Ð»Ð¾ÑģÑĮ
ĠÑħÐ¾ÑĢÐ¾ ÑĪÐ¸Ðµ
ĠÐ·Ð° Ð²ÐµÐ´ÐµÐ½Ð¸Ñı
ĠÐ¤ Ð¸Ð½
ĠÐ¿Ð¾ÑĤÑĢÐµÐ±Ð¸ ÑĤÐµÐ»ÑĮ
ĠÐ¿Ð°ÑĢÐ° Ð»Ð»Ðµ
97 61
ĠÐ´Ð¸ Ð²Ð¸
ÑĪ ÐºÐ¾Ð²
ĠÑģÑĤÐ°Ð² Ð¾Ðº
Ð° ÐºÐ°
ĠÐ¤ Ð¸Ð½Ð°Ð½
83 9
ĠÑģÐ¾Ð±ÑģÑĤÐ²ÐµÐ½ Ð½Ð¾Ð³Ð¾
ĠÐ¿ÑĢÐ¾ ÑĩÐ¸Ñħ
nÐĲ Ð»
Ð¾Ð² ÑĥÑİ
ĠÐ² Ñĥ
ĠÐ½Ð°ÑħÐ¾Ð´Ð¸ ÑĤÑĮÑģÑı
ĠÐ¿Ð¾Ð»ÐµÐ· Ð½ÑĭÐµ
Ð¶Ð° Ð»Ð°
ĠÐĿ Ð¾ÑĢ
ÑĢÐ¸ Ð´
ÐĺÐ½ ÑĤÐµÑĢ
ĠR es
nÐĸ ÐµÐ½
997 07
ĠÑĥÑĩÐ°ÑģÑĤ ÐºÐ¸
Ð°Ð½ Ð³
97 55
ĠÑģÑĤÑĢÐ°ÑĤÐµ Ð³Ð¸
ĠÐ¿Ð¸ÑģÐ° Ð»
Ñħ Ð¾Ð²Ð°Ð½Ð¸Ðµ
6 26
er t
ĠÐºÐ° Ð¶Ð´ÑĥÑİ
ĠÐ²Ð¾Ð·Ð´ÐµÐ¹ ÑģÑĤÐ²Ð¸Ðµ
nÐ¥ Ð°ÑĢÐ°ÐºÑĤÐµÑĢÐ¸ÑģÑĤÐ¸ÐºÐ¸
ĠÐºÑĢÐ° Ðµ
ĠÐ¿ÑĢ Ð¾ÑģÑĤÐ¸
ĠÑģÑĤ ÐµÑĢ
ĠÑħ Ð¾Ð´Ð°
ĠÑĢÐµ ÑĩÐ¸
ĠÑģÐ»ÐµÐ´Ñĥ ÑİÑīÐµÐ¼
Ġ Ð»Ñĭ
ĠÑĢÐ°Ð· Ð½ÑĭÐ¼Ð¸
ÐĽ Ðµ
ĠÐ¿Ð¾Ð²Ñĭ ÑģÐ¸ÑĤÑĮ
ent er
Ġ Ð¶Ð´Ñĥ
ĠÑģÑĤ Ð¾ÑıÑĤ
ĠÐ´Ð¾Ð»Ð¶ Ð½Ð¾ÑģÑĤÐ¸
Ð²Ð° ÑĤÐ¸
m b
ĠÐĽÑĥÑĩ ÑĪÐµ
ÑĪÐµÐ½ Ð½ÑĭÑħ
ĠÐ¾Ð¿Ð¸ ÑģÑĭ
ĠÐ³Ð»Ð°Ð·Ð° Ð¼Ð¸
Ġ1 60
ĠÐ½ÐµÐ·Ð½Ð° ÑĩÐ¸
ĠÐŁÑĢÐ°Ð²Ð¸ Ð»Ð°
âĢ ¯
t d
997 13
ĠÐ¼ÐµÐ¶Ð´ÑĥÐ½Ð°ÑĢÐ¾Ð´ Ð½ÑĭÑħ
ĠÑįÐ»ÐµÐºÑĤ ÑĢÐ¾Ð¼
ĠÑģÐ²Ñı ÑīÐµÐ½
ĠÐ£ Ð¿ÑĢÐ°Ð²
ĠÐĲ Ð½Ð°Ð»Ð¸
Ð° Ð»Ð¾Ð²
ĠÐ·Ð° Ð»Ðµ
98 28
Ð¶Ð° Ð½Ð¸Ñı
ĠÐŀ ÑģÑĤ
ĠÑı Ð´ÐµÑĢ
ĠÐ¾Ð¿ÑĢÐµÐ´Ðµ Ð»ÐµÐ½Ð½ÑĭÐµ
ĠÑģÐ²ÑıÐ·Ð° Ð½
ĠÐ½Ð°ÑĢÐ¾Ð´ Ð¾Ð²
i ce
ĠÑĢÑĥ ÐºÐ¾Ð¹
on s
10 35
ĠÐ¾ÑģÑĥ ÑīÐµÑģÑĤÐ²Ð¸
93243 366
ĠÐ¶Ð¸ Ð²ÐµÑĤ
ĠÐ¾ÑĤÐ²ÐµÑĢÑģÑĤÐ¸ Ñı
ĠÐ¸Ð½ÑģÑĤÐ¸ÑĤÑĥ ÑĤ
ĠÐŁÑĢÐµ Ð·Ð¸Ð´ÐµÐ½ÑĤÐ°
Ð»Ðµ Ñı
ĠÐľ ÐĴÐĶ
ĠÐ³Ð°Ð· ÐµÑĤÐ°
Y V
ĠÑģÐ¼Ð°ÑĢÑĤÑĦÐ¾Ð½ Ð¾Ð²
Ð¾Ð»Ñİ Ð±Ð¸
ĠÐ½Ð°Ð¿ÑĢÑı Ð¶ÐµÐ½Ð¸Ðµ
ĠÑĥÑģÑĤÐ°Ð½Ð¾Ð² Ð»ÐµÐ½Ñĭ
ĠÐĺ Ð¼Ðµ
ĠÐ²ÑĭÐ¿Ð¾Ð» Ð½ÐµÐ½Ð¸Ðµ
ĠÑĢÐ¾ÑģÑģÐ¸ ÑıÐ½
ĠÑįÐ»ÐµÐºÑĤÑĢÐ¾Ð½ Ð½ÑĭÑħ
Ġco lor
Ð¿ ÐµÑĤÐ¸
â ľ
ĠÑģÐ¾Ð¾ÑĤÐ²ÐµÑĤÑģÑĤÐ²ÑĥÑİ ÑīÐ¸Ñħ
Ð²Ð¾Ð´ ÐµÐ¹
O J
Ð¸ Ñı
ĠÐ¿Ð¾Ð¿ ÑĢÐ¾Ñģ
ĠÐ¿Ð¾Ð´ ÑĢÐ°Ð·ÑĥÐ¼Ðµ
ĠÐ¼Ð° Ð»
ĠÐŀ Ð¡
ĠÑģÑĤÐ° Ð±Ð¸Ð»Ð¸
ĠÐ°Ð²Ð¸Ð° Ð±Ð¸
ĠÐ°Ð³ÐµÐ½ÑĤ ÑģÑĤÐ²Ð°
ĠÑģ ÐºÐ°Ð½
97 67
ĠÐºÐ»ÐµÑĤ Ð¾Ðº
997 90
ÑĢÐ¾Ð²Ð°Ð½ Ð½Ð¾Ðµ
Ġï¿½ï¿½ï¿½ï¿½ ï¿½ï¿½ï¿½
en iya
Ñĳ Ð³
ĠÐ½ÐµÐ±Ð¾Ð»ÑĮ ÑĪÐ¸Ñħ
ĠÐ²ÑĭÑģÐ¾Ðº Ð¸Ðµ
S L
Ð°Ð½Ð´ ÐµÐ¼Ð¸
ĠÑĢÐ°Ð·Ð²Ð¸ ÑĤÐ¸Ð¸
ĠÐ¸Ð·Ð¼ÐµÑĢ ÐµÐ½Ð¸Ñı
97 84
997 26
ĠÐ£ Ñĩ
P V
m art
ĠÐ¿ Ð½ÐµÐ²
ĠÐĺÐ³ ÑĢÐ°ÑĤÑĮ
ĠÐ¿ÑĢÐµÐ´ÑģÑĤÐ°Ð² Ð»ÐµÐ½Ð¸Ñı
Ð²Ð° Ð½Ð°
O Q
ĠÐºÐ¾Ð¼ÑĦÐ¾ÑĢ ÑĤ
86 184
ĠÐ³ Ð°Ð»
0 34
ĠÐ¶ÐµÐ»Ð° Ð½Ð¸Ñı
Ð°Ð³ Ð½Ð¸ÑĤ
âĢĿ .
ĠÐŁ Ð¾Ð¶Ð°Ð»ÑĥÐ¹ÑģÑĤÐ°
Ð¾Ñĩ ÐºÐµ
ĠÐŁÐ° ÑĢÐ¸
Ð·Ð¸ Ñİ
Ð¾Ð¿Ð¸ Ñı
ĠÑģÐ° Ð»Ð°
ÑĢÐ¸ Ð·Ð¼
v el
ĠÐ³Ð¾ÑģÑĥÐ´Ð°ÑĢ ÑģÑĤÐ²Ð¾
ÐµÑĢÐ° Ð¼
4 02
nÐĴÑĭ Ð±Ð¾ÑĢ
Ð½Ð¸ Ñģ
3 26
ĠÐŁ Ð¾Ð½
ĠÐ¿ÑĢÐ¸ Ð±Ð¾ÑĢÑĭ
ĠÐ¿Ð¾ÑĤÐ¾Ð» ÐºÐ°
ĠÐ¿ÑĢ Ð¾Ð²Ð°
P K
Ðĵ Ð»Ð°Ð²
ĠÑģÑĤ ÑĢÐ¾Ðº
ĠÐ¿Ð¾Ð´ Ð²Ð¾Ð´
ĠÑĢÐ°Ð² Ð½Ð¾Ð¼ÐµÑĢ
AA E
Ñħ ÑĤÐ°
ĠÐ¼Ð° ÑģÐºÐ¸
ĠÑħÑĥ Ð¶Ðµ
997 35
ĠÐĺÐ½ Ð´Ð¸Ð¸
Ð³ÑĢÐ° Ð½Ð¸
ĠÐ¾Ðº Ðµ
06 9
ĠÑĨÐ¸ Ð»Ð¸Ð½Ð´
ĠÑģÐ¾Ð¾ÑĤÐ²ÐµÑĤÑģÑĤÐ²ÑĥÑİ ÑīÐ¸Ðµ
nÐ¤ Ð¾ÑĢÐ¼Ð°
ĠÑģÐ¿ÐµÑĨÐ¸Ð°Ð»ÑĮ Ð½ÑĭÐ¹
Ð¤ Ð¾ÑĢ
ĠÐ£ Ð¶Ðµ
ĠÑĥÐ¿ ÑĢÐ¾
Ð¶ÐµÐ½ Ð°
nÐĺ ÑĤÐ°Ðº
ĠÐ¸ÑģÐºÑĥÑģ ÑģÑĤÐ²Ð¾
ÑģÐ¸ Ðµ
ĠÐŀ Ð»ÐµÐ³
Ð»ÐµÐ½ Ð½Ð¾ÑģÑĤÑĮ
Ġ ]
Ð½ ÐµÑĤÑģÑı
5 22
ĠÐĶ ÐµÑĢ
ĠÐ¾ÑĤÐ»Ð¸ÑĩÐ° ÑĤÑĮÑģÑı
ÑĢ Ð¾Ð³Ð¾
ĠÐ¶Ð¸ Ð»ÑĭÑħ
Ð¶Ð¸ Ð¹
ÑģÑĤÐ²ÑĥÑİ ÑīÐ¸Ñħ
ĠÐ¾ÑģÐ²Ðµ ÑīÐµÐ½Ð¸Ñı
H X
ÐµÐ½ÑĮ Ñı
la d
ĠÐĴÑĭ Ð±Ð¾ÑĢ
98 68
Ð±Ð¾Ð² ÑĮ
ÑģÑĤ ÑĭÐ¹
ĠÐ¿ÐµÑĢÑģÐ¾Ð½Ð° Ð»Ð°
P I
Ð¸Ð· Ð½ÑĮ
Ð·Ð¾ÑĢ Ñĭ
nÐ£ Ð²Ð°Ð¶Ð°
ĠÐ¿Ð¾Ð´Ð´ÐµÑĢÐ¶Ð¸ Ð²Ð°ÐµÑĤ
ĠÐ½Ð°ÑģÑĤÑĢÐ¾ ÐµÐ½Ð¸Ðµ
Ð»Ðµ Ð¿
ĠÐĳÐ° ÑĪÐºÐ¾ÑĢÑĤÐ¾ÑģÑĤÐ°Ð½
ĠÐ¸ Ð¼ÐµÐ½Ð°
ÑĪ Ð½Ñı
ai f
ÑģÑĤÐ¾Ð¸ ÑĤ
ĠÐ¿ÑĢÐµ Ð¾Ð±ÑĢÐ°Ð·Ð¾Ð²Ð°
at t
ĠÑĢÐ°ÑģÑģÑĤÐ¾Ñı Ð½Ð¸Ðµ
997 15
ÑĢÐµÐ´Ðµ Ð»ÐµÐ½Ð¸Ðµ
ĠÐ¾ÑģÑĤÐ°Ð²Ð»Ñı ÐµÑĤ
ĠÐ±ÑĢÐ°ÑĥÐ· ÐµÑĢÐ°
97 83
Ð²ÑĪÐ¸Ðµ ÑģÑı
Ð¶ Ð¾Ð¼
ĠÐºÐ»ÐµÑĤ ÐºÐ¸
8 09
Ðº ÐµÑĤÐ°
N V
97 46
ĠÑįÐ»ÐµÐºÑĤ ÑĢÐ¾Ñģ
Ð¥ ÐĽ
98 12
ĠÐ¿Ð° Ð¿
Ðŀ Ñģ
ĠÐ´Ð¾Ð² ÐµÑĢÐ¸
ĠÑģÑĤÑĢÑĥÐºÑĤÑĥ ÑĢÑĭ
Ð°Ð½ ÐºÑĤ
ĠÐºÐ¾Ð¼Ð¸ÑĤ ÐµÑĤÐ°
ĠL e
ĠÐ¿ÑĢÐµÐ´Ð¾ÑģÑĤÐ°Ð² Ð»ÐµÐ½Ð¸Ðµ
ĠÑĤÐµÑħÐ½Ð¾Ð»Ð¾Ð³Ð¸ Ñı
ĠÐľ Ð¾Ð¹
ĠÐ²ÑĭÑģ Ð¾ÑĤÐ°
Ð±Ð¸ Ð¾ÑĤÐ¸
% .\
Ð¾Ð¿ ÑĢÐ¾Ð²Ð¾Ð´
ĠÐ¾ÑħÐ»Ð° Ð¶Ð´ÐµÐ½Ð¸Ñı
ĠÐĴ Ð¾ÑĢ
ĠÐ¶Ð¸Ð´ ÐºÐ¾ÑģÑĤÑĮ
ĠÐ¾Ð¿ ÑĥÑħ
ĠÐºÐ¾Ð¼Ð½Ð° ÑĤÑĥ
ĠÐŁÑĢÐ¾Ð´ Ð°Ð²
ĠÐĲ Ð¼
ĠÑĢÐµÐ· ÐºÐ¾
ÑģÐºÐ° Ð·ÑĭÐ²Ð°
ĠÑģÑĥÐ±ÑĬÐµÐº ÑĤÐ°
Ð»Ð¸Ñĩ Ð½ÑĭÐ¹
ĠÐºÐ¾Ð» Ð»ÐµÐ´
nÐŃ ÑĤÐ¸
ĠÑĢÐµÐºÐ¾Ð¼ÐµÐ½Ð´Ñĥ ÑİÑĤ
ĠÐ£ ÑģÑĤÑĮ
Ð³Ð¾ÑĢ ÑģÐº
nÐĴ Ñģ
nÐ¡Ðº Ð¾Ð»ÑĮÐºÐ¾
33 2
ĠÐ¿Ð¾Ð´ ÑĬÐµÐ¼
ĠÐ´Ð¾ÑģÑĤÑĥÐ¿ ÐµÐ½
ÑĢÐ° Ñĩ
ĠÐ¿ÑĢÐµÐ²Ñĭ ÑĪÐ°ÐµÑĤ
âĢĿ \
ÑĤÐµÐ»ÑĮ Ð½Ñĭ
995 45
Y X
Ð¾Ð¸Ð·Ð¾Ð»Ñı ÑĨÐ¸Ñı
ĠÐ»Ð°Ð¼ Ð¿Ñĭ
ĠÂ»Â» Â»Â»
ĠÐ¿Ð¾Ð»Ð¾ÑĤ ÐµÐ½
am es
ĠÑģÐ¾Ð±ÑģÑĤÐ²ÐµÐ½ Ð½ÑĭÐ¹
ĠÐŁÑĢÐ°Ð² Ð´Ð°
ĠÑģÐºÐ°Ð·Ð° Ð»Ð°
ĠÐĺÐ½ ÑģÑĤÑĢÑĥ
ĠÐ¿Ð¾Ð· Ð´ÑĢÐ°Ð²
ĠÐ²Ð·Ð°Ð¸Ð¼Ð¾Ð´ÐµÐ¹ ÑģÑĤÐ²Ð¸Ñı
ĠÐ½ÐµÐ±Ð¾Ð»ÑĮ ÑĪ
ĠÑĦÑĥÐ½Ðº ÑĨÐ¸Ñİ
ĠÐ´Ð¾Ð»Ð¶ Ð½Ð¾ÑģÑĤÑĮ
ĠÐŁ Ð¾ÑģÑĤ
ĠÑģÑĤÑĢÐ°ÑĤÐµ Ð³Ð¸Ð¸
ĠÑĢÐ°ÑģÐ¿ÑĢÐ¾ÑģÑĤ ÑĢÐ°Ð½ÐµÐ½Ð¸Ñı
ĠÐ² Ð½ÑĥÑĤÑĢÑĮ
5 12
ĠÐ¸Ð½ Ð´Ð¸ÐºÐ°
ĠÐĴ Ð°Ð»
ĠÐ¼Ð° ÑĤÑĮ
ĠÐ¸Ð· Ñĭ
ĠÐ³ ÐµÐ¹
ĠÑĢÐ°ÑģÑģ Ð¼Ð¾ÑĤÑĢ
{ {
ĠÐ²ÐºÐ»Ñİ ÑĩÐ¸ÑĤÑĮ
ĠÐ¿Ð¾ÑģÐµÑĤÐ¸ ÑĤÑĮ
ĠÑģ ÑĨÐµÐ¿
ĠÐ¿ÑĢÐ¾ÑĦÐµÑģÑģÐ¸Ð¾Ð½Ð°Ð»ÑĮ Ð½ÑĭÑħ
ĠÑĦÐ¸Ð»ÑĮ Ð¼Ð¾Ð²
ĠÐ¿Ð¾ÐºÐ°Ð·Ð° ÑĤÐµÐ»ÐµÐ¹
ĠÐ¡ Ð»ÐµÐ´
ĠÐ½Ð¸Ð· ÐºÐ¾Ð¹
ĠÐ¾Ð± ÑģÑĤÐ°Ð½Ð¾Ð²
ÑĨÐ¸Ðº Ð»Ð¾Ð¿
ĠÐŁÐ¾ÑĤ Ð¾Ð¼
ĠÐ½Ð¸ÐºÐ° ÐºÐ¾Ð¹
ĠÑĢÑĥÐºÐ¾Ð²Ð¾Ð´Ð¸ ÑĤÐµÐ»Ñı
ĠÐºÐ¸ÑģÐ»Ð¾ÑĤ Ñĭ
Ð¶Ð¸ Ð²Ð°Ð½Ð¸Ñı
997 34
Ð¾Ñĩ Ð½Ð¾Ð¼
ÑĥÑĢ Ð½Ð°Ð»
ĠÐº ÑĥÐ±
ĠÑĢÐ¾Ð· Ð½Ð¸Ñĩ
ĠÐ¿Ð»Ð°ÑģÑĤÐ¸ ÐºÐ°
Ð¡Ð¢ Ð¬
ĠÐ¾ÑĩÐµÑĢÐµÐ´ Ð½Ð¾Ð¹
nÐĴ Ð²ÐµÐ´Ð¸ÑĤÐµ
lo t
ĠÐºÐ¾Ð½ÑĤÐ° ÐºÑĤÑĭ
ÑĢÑĥ ÑİÑīÐ¸Ð¹
r en
ĠÐĳÐ¾Ð»ÑĮ ÑĪÐ¾Ð¹
4 16
Ð¢ ÐķÐł
ĠÐ·Ð°Ð¿Ð° Ñħ
ĠÐł Ð¡
ĠÑģÐ°Ð½ ÑĤÐ¸
Ð²Ð° Ð¹ÑĤÐµÑģÑĮ
Ð²Ð¸Ð´ÐµÑĤÐµÐ»ÑĮ ÑģÑĤÐ²Ð¾
Ð·Ð° Ð¹
ĠÐļ Ð¾Ð½ÑĤÐ°ÐºÑĤÑĭ
ĠÐ²ÑĭÐ³Ð»Ñı Ð´ÐµÑĤÑĮ
ĠÑģÐ¿Ð¾ÐºÐ¾Ð¹ Ð½Ð¾
Ð·Ð° ÑĤÐ¾ÑĢÑĭ
ĠÐ¡ÑĢÐµÐ´ ÑģÑĤÐ²Ð°
993 2
ÐĿÐŀ ÐĵÐŀ
ÐµÐ´ Ð¾Ð²
ĠÐ¸Ð·Ð´ÐµÐ»Ð¸ Ðµ
53 06
ÑĢÐµÐ´Ð¸ ÑĤÑĮ
ĠÑĥÑĢÐ¾Ð² Ð½ÐµÐ¼
97 75
Ä ±
ĠÑĪ Ð¾ÑģÑģÐµ
ĠÐ´Ñĥ ÑĪÐ°
Y J
ĠÐ¿Ð°ÑĢ Ñĭ
55 2
Ã ©
ĠÑĦÐ¸ ÐºÑģÐ°
ĠÐ¿ÑĢÐµÐ´ÑģÑĤÐ°Ð² Ð»ÐµÐ½
30 24
ÑģÑĤ Ð°Ð¼
Y Q
BD A
ÑħÐ° Ñı
Ð± Ð°Ðº
T L
it el
ĠÐ¿Ð¾Ð´Ð°ÑĢ ÐºÐ¸
4 94
Ñı ÑĤÑĮÑģÑı
ÐµÑĤ Ð¾Ð¼
ĠÐ²Ð· Ð½Ð¾
ĠC L
ĠÐ½Ð°Ðº Ð¾Ð¿Ð¸
ĠÐ·Ð°Ð± Ð»Ð¾ÐºÐ¸
ĠÐ¿ÑĢÐ¸Ð½Ñı Ð»
ĠÐ½Ð°ÑģÑĤ ÑĥÐ¿Ð°
ĠÐ° ÑĤÐ°
ÐºÑĥ Ñģ
C R
ĠÐ´ Ð¾Ð¼Ñĥ
up er
ĠÐ¸Ð´Ðµ Ñı
ĠÐ¾ÑĤÑĤÐµÐ½ ÐºÐ°
Ð²ÐµÑĢÐ´Ð»Ð¾Ð² ÑģÐºÐ°Ñı
ÑħÐ¸ Ð¸
997 25
17 0
u c
ĠÑģÐ½Ð¸ Ð·Ð¸ÑĤÑĮ
ÐºÐ¾Ð½ ÑĩÐ°
ĠÐ¼Ð¾Ð¼ ÐµÐ½ÑĤÑĭ
ĠÐ¿ÑĢÐµÐ´Ð¾ÑģÑĤÐ°Ð²Ð»Ñı ÐµÑĤÑģÑı
ĠÐłÐ°Ð· Ð¼ÐµÑĢ
ĠÐºÐ¾Ð¼Ð±Ð¸ Ð½Ð¸
ĠÐ¡Ð¾Ð³Ð»Ð° ÑģÐ½Ð¾
l ed
ĠÐ¾Ð´Ð¸ Ð½Ð¾
ÐºÐ° Ð·Ð¸Ð½Ð¾
ĠÐ¿Ð¾Ð´Ð³Ð¾ÑĤÐ¾Ð² ÐºÐµ
ĠÐ¿ÑĢÐ¾Ðµ Ð·
Ġ ;
99 29
nÐ¡ Ð¿Ð¸ÑģÐ¾Ðº
C V
ĠÐºÐ°ÑĩÐµ ÑģÑĤÐ²ÐµÐ½Ð½Ð¾
Ð¾ÑģÑĤÐ° ÑĤÐ¾ÑĩÐ½Ð¾
C K
ĠÐĳ Ð¾Ð¶Ð¸
i um
ĠÐ¿Ð¾ÐµÐ· Ð´ÐºÐ¸
v en
97 86
ĠÑģÐ¾Ð±Ð° ÐºÐ¸
Ð¾Ð» ÐµÐ¹
nÐ¡ÐµÑĢ Ð³ÐµÐ¹
nÐĹÐ° Ð³ÑĢÑĥÐ·ÐºÐ°
ĠÐ¾ÑģÐ½Ð¾Ð² Ð½ÑĭÐ¼
ĠÑģÐ²ÑıÐ·Ð° Ð½Ñĭ
ĠÐ·Ð° ÑĩÐ°ÑģÑĤÑĥÑİ
ĠÐ¿Ð°ÑĢ Ð¾Ð»Ñı
ĠÐ°Ð¿Ð¿Ð°ÑĢÐ° ÑĤÐ°
ĠÐ»Ðµ ÑĩÐµÐ½Ð¸Ð¸
sp ort
ĠÐºÐ¾Ð½ÑģÑĥÐ»ÑĮÑĤÐ° ÑĨÐ¸Ñİ
ĠÐ²Ð´ Ð¾Ð»ÑĮ
ĠÐ¢ ÑĥÑĤ
ÑĢÐµ Ñħ
ĠÑģÐ¿Ð¾ÑģÐ¾Ð± Ð°
ĠÐ»ÑĮ Ð³Ð¾ÑĤ
38 9
pla ce
ĠR ed
ÑĤÐ¾Ð² Ð¾Ð³Ð¾
Ġ @
ĠÑģÐ¾Ð² Ð¾ÐºÑĥÐ¿
Ð¿Ð¸ Ð»
nÐŀ ÐŀÐŀ
ĠÐ¿ÑĢÐ¾Ð²Ð¾Ð´Ð¸ ÑĤ
ĠÐŁÐ°Ð² ÐµÐ»
Ð¾Ð± Ð¾Ð¹
ĠÐĲ ÑĤ
ĠÐ²ÐµÑĩÐµÑĢ Ð¾Ð¼
Ð¾Ð´ Ð¾Ð¼
ĠH e
ĠÐ¿Ð¾Ð´Ð²ÐµÑĢ Ð³Ð°
ĠÐ¾ÑĤ Ð¼ÐµÑĤ
Ð½Ð¸Ðº Ð¾Ð²Ð°
ĠÑģÐ¾Ð±ÑģÑĤÐ²ÐµÐ½ Ð½ÑĭÐµ
ÐºÐ¾Ð¼ Ð¼ÐµÑĢ
00 9
ĠÐ¾ÑĤ ÐºÐ°
Ð¾Ð²Ð° Ð½Ñĭ
997 17
ĠÐ´ÐµÑĢ Ð¶Ð°ÑĤÑĮ
ĠÐ¿ÑĢÐ¾ÑĦÐµÑģÑģÐ¸Ð¾Ð½Ð°Ð»ÑĮ Ð½Ð¾Ð¹
ĠA n
ĠÐº Ðµ
ĠÐ²ÑĭÑģ Ð¾ÑĤÐµ
ĠÑģÐ¾Ð·Ð´Ð° Ð½
Ð¾Ð¶Ð° Ñı
i ka
ĠÐ¼ Ð¾ÑĤÐ¾
ĠÐ¿ÑĢÐ¸Ð½ÑĨÐ¸ Ð¿
ĠÐºÐ²Ð°Ð»Ð¸ ÑĦÐ¸ÑĨÐ¸
ĠÐ² ÑĬ
ĠÐ¼ÑĭÑĪ ÑĨÑĭ
5 23
ĠÐºÐ²Ð°ÑĢÑĤÐ¸ ÑĢÐ°
ĠÐ³ÑĢÑĥ Ð½ÑĤ
ĠÐ´Ðµ ÐºÐ»Ð°
Ð·Ð° ÑĤÑĮ
ÑĢÐµÐ½ Ð½ÑĭÐ¹
ĠÑĥ Ð±ÑĢÐ°ÑĤÑĮ
35 0
ĠÐ¾ÑģÑĤ Ð°Ð»Ð¾ÑģÑĮ
se arch
ÑĢ Ð½Ð¾Ðµ
ĠÐ´Ðµ ÑģÑıÑĤ
ĠÑĩÐ°ÑģÑĤ Ð½ÑĭÑħ
ÐļÐĺ ÐĻ
Ð¾Ð±Ð¸ Ð»Ð¸
nÐĶ ÐµÐ½ÑĮ
ÑĢ Ð¾Ð´Ð¸
k ov
Ð³Ð¾Ð² ÑĭÐµ
Ð¿ÑĢÐµ Ð¶Ð½ÐµÐ¼Ñĥ
ĠW eb
ĠÐ¾Ð±ÑıÐ·Ð°ÑĤÐµÐ»ÑĮ ÑģÑĤÐ²
43 1
ĠÐ¿Ð¾Ð´Ð´ÐµÑĢÐ¶Ð¸ Ð²Ð°ÑĤÑĮ
Ð»Ð°Ð½ Ð´Ð¸Ñı
ĠÐ½Ð¾ ÑģÐ¸ÑĤÑĮ
Ðľ Ñĥ
ÑĬ ÑıÐ²Ð»ÐµÐ½Ð¸Ñı
ÑĨ ÐºÐ¾Ð³Ð¾
u to
ĠÐ¼ÑĭÑĪ ÑĨ
ÐºÐ° Ð¶Ð¸ÑĤÐµ
ĠÐ¾ÑģÑĤÐ° ÑİÑĤÑģÑı
ÑįÑĦ ÑĦÐµÐºÑĤÐ¸Ð²
ĠÐ¾ÑģÑĤÐ° Ð²Ð°ÑĤÑĮÑģÑı
ĠÐ¡ ÑĤÐµÐ¿
ĠÑĤÐ²Ð¾ÑĢ ÑĩÐµÑģÑĤÐ²Ð°
Ð½Ð¸ Ð·Ñĥ
nÐŀÐ½ Ð»Ð°Ð¹Ð½
ĠÑĥÑģÐ¸ Ð»Ð¸Ñı
nÐĿÐ° Ð¶Ð¸Ð¼Ð°Ñı
e xt
ĠÑĢÐ°Ð±Ð¾ÑĤ Ð¾Ð¹
997 44
Ð°ÑĢ ÐºÐ¸
ĠÑĤÑĢÐ°Ð½ÑģÐ¿Ð¾ÑĢÑĤ Ð½ÑĭÑħ
Ð»Ð°Ð´ ÐºÐ°
ĠÐ¾Ð±ÐµÑģÐ¿ÐµÑĩÐ¸ Ð²Ð°ÑİÑĤ
ĠÐ²ÑĢÐ° ÑĩÐµÐ¹
ĠÐ¿Ð¾Ð´ Ð°Ð²
ĠÐ¿ÐµÑĢÐµÐ²Ð¾Ð· ÐºÐ¸
97 15
W W
lin k
ĠÐ½Ð°Ñģ Ð»Ðµ
ĠÐ¿ÑĢÐ¾ ÑĪÐ»Ð¸
ĠÑģÐ¼ÑĭÑģ Ð»Ðµ
ĠÐ³ ÑĢÐ¾Ð·
ĠÑĢÐµÐ¼Ð¾Ð½ ÑĤÑĥ
o urn
Ðº ÑĨÐ¸ÐµÐ¹
Ñĸ Ð´
ĠÐ½ÐµÐ¼Ðµ Ð´
ĠÐ¢Ð°Ðº Ð¾Ðµ
ĠÑģÐ»Ðµ Ð´Ð¸ÑĤÑĮ
ĠÑģÑĥÐ± Ð±Ð¾ÑĤ
ĠÑĥÑĩÐ°ÑģÑĤ Ð½Ð¸ÐºÐ¸
Ð¨ Ðĺ
ĠÑĢÐµ Ð°Ð»ÑĮÐ½Ð¾
Ð¾Ð¸Ð·Ð¾Ð»Ñı ÑĨÐ¸Ð¸
ĠÐ²ÑĭÑĪÐµ Ð»
ĠÐ¿ÑĢÐ¾ÑĦÐ¸Ð»Ð°ÐºÑĤÐ¸ ÐºÐ¸
ĠÑģÑĭ Ð½Ð°
ĠÐ¿Ð¾Ð±Ðµ Ð´Ñĥ
ĠÐ¼Ð¸Ð»Ð»Ð¸ Ð°ÑĢ
ÐµÐ½Ð¸ ÑĤ
ĠÐ°Ðº ÑĨÐ¸Ð¹
ĠÑģÐ¼Ð°ÑĢÑĤ ÑĦÐ¾Ð½Ð°
ĠÐ½Ðµ Ð¾Ð´
ĠÐ¸Ð½ Ð´Ðµ
ĠÑĢÐ°ÑģÑĤ ÐµÑĤ
98 80
ÐµÐ½ÑĤ Ð³ÐµÐ½
ĠÐ¿Ð¾Ð»ÑĮÐ·Ñĥ ÑİÑĤÑģÑı
ĠÐ¿Ð¾ Ð½Ðµ
ĠÐ¾Ð± Ð
ai nt
97 56
ĠÑĢÑĥ Ð»ÐµÑĤ
994 8
ĠÐ¸ÑģÐ¿ÑĭÑĤÐ° Ð½Ð¸Ñı
Ġ20 01
ÑģÐ¸ Ð»
ĠÐŀÐ± ÑģÑĥÐ¶Ð´ÐµÐ½Ð¸Ðµ
ĠÐºÐ¾Ð¼Ð¸ ÑģÑģÐ¸
ĠÐ¿Ð¾Ñĩ Ð²Ñĭ
ĠÐ¾Ð±Ð ¾
Y D
Ð¾Ð± Ð¾ÑĢ
ud io
Ð¾Ð² ÑĭÐ¼Ð¸
ÑĥÑģ Ð»Ñĥ
97 77
ĠÐ¾Ð± Ð¾Ð¹ÑĤÐ¸
ĠÐ±Ð¾Ð»ÑĮ Ð½ÑĭÑħ
ĠÑģÐ¸Ð³ Ð½Ð°Ð»Ð¸
ĠÐ¼Ñĥ Ð¶Ð°
ĠÐ²Ð°Ð¶ Ð½ÑĭÐµ
ĠÐ²ÐµÑĢ Ð½ÑĥÑĤÑĮÑģÑı
Ð³Ð¾Ð² Ð¾Ð¹
ĠÐĳÐ¸ Ð±Ð»Ð¸
Ð±Ð¸ÑĤÑĢÐ°Ð¶ Ð½ÑĭÐ¹
5 66
ĠÑĤÐµ ÑĩÐµÐ½Ð¸Ð¸
ÑģÑĤÐ°Ð½ Ð´Ð°ÑĢ
Â» ),
li ck
ĠÑĥÐ²ÐµÐ»Ð¸ ÑĩÐµÐ½Ð¸Ðµ
ĠÑĥ ÐºÐ»Ð°Ð´Ñĭ
Ġin fo
ĠÐłÐ° Ð±Ð¾ÑĤ
ĠÑĦÐ¸Ð½Ð°Ð½ÑģÐ¾Ð² Ð¾Ð¹
vi ce
ĠÐ¿Ð¾ÑĢÑĤÐ° Ð»Ð°
ĠÐ¿Ð°ÑĢÑĤÐ½Ðµ ÑĢÐ¾Ð²
ÑīÐµÐ½ Ð½Ð°Ñı
ĠÐĴÐ° ÑĪÐµ
ĠÐŀÐ± ÑīÐµ
ĠÐĸ ÐµÐ»Ð°
ĠÐ´ÐµÐ¹ ÑģÑĤÐ²Ð¾Ð²Ð°ÑĤÑĮ
Ð¾Ð· Ðµ
ĠÐĳÐ° Ð»Ð°
0 11
4 93
ĠÐ·Ð° Ð¼ÐµÑĢ
es e
ĠÐºÑĥÐ»ÑĮÑĤÑĥ ÑĢÐ°
997 73
ĠÐ¡ Ðļ
86184 067
ĠÐĶ ÑĢÑĥÐ³Ð¸Ðµ
ĠÐłÐµÑģÐ¿ÑĥÐ±Ð»Ð¸ ÐºÐµ
ĠT witter
ĠÐ½Ð¾ ÑĩÑĮÑİ
Ð ģ
ĠÐ¾ÑĤ ÑĨÐ°
ĠÐ·ÐµÐ¼ÐµÐ»ÑĮ Ð½Ð¾Ð³Ð¾
ĠÐł Ð¾Ð¶Ð´Ðµ
ĠÐ£Ð· Ð±ÐµÐºÐ¸
ĠÐ°Ð» Ð³Ð¾ÑĢÐ¸ÑĤ
Ð³Ð° Ð»Ð¸
ĠÑģÐ°Ð¼ Ð¾ÑĢÐµ
Ðľ Ðļ
44 9
ĠÐ²ÐµÑģ Ð½Ð¾Ð¹
H M
ĠÐ³Ð°ÑĢÐ°Ð½ÑĤÐ¸ ÑĢÑĥÐµÑĤ
ĠÑģÑĤ Ð°Ð»ÑĮ
ÑĤÐ¸ ÑĩÐµÑģÐºÐ°Ñı
ĠÐºÑĢÐ¾Ð² ÑĮ
ĠÐ²Ð¾Ð» ÑĪÐµÐ±
ÑİÑīÐ¸Ð¼ ÑģÑı
ÑħÐ¾Ð´Ð¸ ÑĤÐµ
ĠÐ²Ð¾Ð· Ð²ÑĢÐ°ÑĤ
ÑĢÐµ Ð¶Ð´Ð°
eg a
ĠÐł Ð°Ð¹
Ð´Ðµ ÐºÐ²Ð°
ĠÐļÐ¾Ð¼Ð¸ ÑĤÐµÑĤ
Ð¾ÑĦÐ¸ Ñı
ĠÑģÐ² ÑĭÑĪÐµ
ĠÐ¿ÑĢÐµÐ´Ð¿Ð¾Ð»Ð°Ð³Ð° ÐµÑĤ
ĠÐ²Ð¸ ÑĢÑĥÑģ
ĠÐ¾ÑĦÐ¸ÑĨÐ¸Ð°Ð»ÑĮ Ð½Ð¾
Î º
ĠÑįÐº Ð·ÐµÐ¼
ĠÐ¼ÐµÑģÑĤ Ð½ÑĭÑħ
Ġ 76
ĠÐ¿ÑĢÐ¸ ÑĪÐ»Ð¸
ĠÐĿ Ðĺ
ĠÐ³Ð¾Ð´Ð° Ñħ
ĠÐ¿ÑĥÐ½ ÐºÑĤÐ¾Ð²
ĠÑĢÐµÐ·ÑĥÐ»ÑĮÑĤÐ° ÑĤÐ°
nÐŁ Ð°ÑĢÑĤ
ĠÐ¿ÑĢÐ¸ Ð´ÑĥÐ¼Ð°
ĠÑħÐ¾ÑĢÐ¾ ÑĪÐµÐ³Ð¾
Ð»ÐµÐº ÑĨÐ¸Ñı
5 27
ĠÐŁÐ¾Ð»ÑĮÐ·Ð¾Ð²Ð° ÑĤÐµÐ»ÐµÐ¼
ÑģÑĤ Ð½Ð¾
96 16
ĠÐĲ ÐĴ
U F
997 18
G L
Ð¾Ð² ÑģÐºÐ¸Ð¹
ĠÐ½Ð°ÑĩÐ¸Ð½Ð° ÑĤÑĮ
ĠÐºÐ¾ÑĢÐ¾Ð± ÐºÐ¸
Ġ4 9
ĠÐŁÐ¾ÑĢ ÑıÐ´
ĠÐ´ Ð¾Ð¿
65 2
9993 7
ĠÑģÐ¿ÐµÑĨÐ¸Ð°Ð»ÑĮ Ð½Ð¾Ð³Ð¾
ĠÐ¾ÐºÐ°Ð·ÑĭÐ²Ð° ÐµÑĤÑģÑı
Qu ery
ĠÑģÐº Ð²Ð°
ĠÐĺÐ½ ÑĤÐµÑĢÐµÑģ
Ã ¼
ÑĢ ÑģÐºÐ¸Ð¹
ĠÐ¿ÑĢÐµ Ð¶
Z Z
ĠÐºÐ° Ð¶Ð´Ð°Ñı
46 9
ĠÑģÐ¿ ÑĢÐ°ÑĪÐ¸
Ð¿ÑĢÐµ ÑģÑģ
ĠÐ²Ð¾Ð¿ÑĢÐ¾Ñģ Ð°
ÑıÐ·Ð° ÑĤÐµÐ»ÑĮÐ½Ð¾
ĠÐ¿ÑĢÐ¸ Ð²Ðµ
97 07
ĠÑĤÐµ Ð°ÑĤÑĢÐ°
954 906
ÑĢÐ¾Ð²Ð° Ð½Ð¸ÐµÐ¼
nÐŃÐ»ÐµÐºÑĤ ÑĢÐ¾Ð½
ĠÐ¿Ð¾Ð¶ Ð°Ð»
ÑģÐ¸Ñħ Ð¾Ð»Ð¾Ð³Ð¸Ñı
33 8
Ð¾Ð Ł
ĠÐĽÐ¸ Ð¿ÐµÑĨ
ĠÑĤÑĢÐ°Ð´Ð¸ ÑĨÐ¸Ð¸
Ð½Ð¸ ÑĩÐµÑģÑĤÐ²Ð¾
ĠÐ¾Ð±ÑīÐµ ÑģÑĤÐ²ÐµÐ½Ð½ÑĭÑħ
Ð±Ð¸ Ñı
Ġ1 40
ĠÐ¡ÑĤÐ°Ð²ÑĢÐ¾Ð¿ Ð¾Ð»ÑĮ
ĠÐĿÐ¸ Ðº
ĠÐ¾ÑīÑĥ ÑīÐµÐ½Ð¸Ðµ
ĠÑģÑĥÑħ Ð¾Ð¹
ĠÐ¸Ð´ÐµÐ½ ÑĤÐ¸ÑĦÐ¸ÐºÐ°
54 8
nÐĹÐ°Ðº ÑĢÑĭÑĤÑĮ
ĠÐ¾Ð¿ Ð°
ĠÐ´ Ð¾Ð»ÑĮÑĪÐµ
Ġ5 1
ĠÑĦÐ¸Ð»ÑĮ ÑĤÑĢ
AE D
ĠÑģÑĤ Ñı
ĠHT ML
ĠÐ¿ÑĢÐ¸Ð»Ð¾Ð¶ ÐµÐ½Ð¸Ð¹
Ð½Ð¾Ðº Ð»Ð°ÑģÑģ
Ġ5 3
ĠÐĲÐ»ÐµÐºÑģÐ°Ð½Ð´ ÑĢÐ¾Ð²Ð¸Ñĩ
ÑĳÐ½ Ð½ÑĭÑħ
ĠÐ¿ÑĢÐ¾ÑģÑĤ ÑĭÑħ
74 8
ĠÐ¾ÑģÑĥÑīÐµÑģÑĤÐ² Ð»ÑıÑĤÑĮ
ĠÐ¾Ð±Ð»Ð°ÑģÑĤ Ð½Ð¾Ð¹
ĠÑħ ÑĢÐ°Ð¼
Ð¾Ð± Ð»Ð°
ÑĢÐ¾Ð¹ ÑĤÐµ
Ð²Ð° ÑĪ
5 16
98 00
ÑĤÐ° ÑĨÐ¸Ñİ
ÐµÐ½ÑĤÐ° Ð¼
da y
5 15
ÑĪÐ° ÑİÑĤÑģÑı
996 84
996 76
ĠÐ¼Ð¾Ð» Ð¾ÐºÐ°
ĠÐ±Ð°Ð³Ð° Ð¶
ĠÑģÑĥÑģÑĤÐ°Ð² Ð¾Ð²
ĠI T
O F
ĠÐ½Ð°Ð²ÐµÑĢ Ñħ
9990 7
ĠÐ½Ð¾Ð³ ÑĤÐµÐ¹
Ðł Ð¡
ĠÐ¾ÑģÑĥÑīÐµÑģÑĤÐ² Ð»ÑıÐµÑĤ
st ro
ĠÐ¿ÑĢÐ¸ ÑħÐ¾Ð´Ð¸ÑĤ
ĠÐ¾ÑĤ ÑħÐ¾Ð´Ð¾Ð²
ĠÐ¿ÑĢÐ¾Ñģ Ð¿ÐµÐºÑĤ
ĠÐ¾Ð± ÑīÐµÐµ
Ð½Ð¸ ÑĤÑģÑı
ĠÐ¿Ð¾Ð´Ð° ÑĤÑĮ
ĠÐºÐ¾Ð½ Ð²ÐµÑĢ
ĠÐ±Ðµ ÑģÐµ
Ð¾Ð¼ Ðµ
Ġ7 2
ĠÐ£ ÑĩÐµÐ±
ĠÐŁ Ð¾Ð»Ñı
it a
ĠÐ² ÑģÑĤÑĥÐ¿Ð¸
ĠÑįÐ»ÐµÐºÑĤÑĢÐ¾ÑįÐ½ÐµÑĢ Ð³Ð¸Ð¸
u te
ĠÑĤÐ¸ Ð¿Ñĭ
ĠÐ¼Ð¾Ð»Ð¾Ð´ Ð¾Ð¹
Ð¼Ð° Ñģ
ÑģÑĤÐ° Ð¸
ĠÐ¿ÑĢÐ¸ ÐµÐ·
ĠÐ¸ Ð½Ð¾Ðµ
ĠÐ»Ð¸ ÑĨÑĥ
ĠÐł Ð¾ÑģÑĤ
ĠÐ¿ÑĢÐ¸ Ð±Ð¾ÑĢÐ°
Ð½Ð¾ÑģÐ¸ ÑĤÑģÑı
ĠÐ¿Ð¾ÑģÐ»ÐµÐ´ Ð½ÐµÐ³Ð¾
ĠÐ¼Ð° ÑĤÐºÐ¸
ĠÑĤÑĢÐµ ÑĤÐ¸Ð¹
ĠÑģÑĤÑĢÐ° Ð½Ð°
Ð¾ÑĢÑıÐ´ Ð¾Ðº
E Q
an ie
ĠÐ²ÑĭÐ¿Ð¾Ð» Ð½ÑıÐµÑĤÑģÑı
r ic
ĠÐ´Ð¾Ð±ÑĢÐ¾Ð² Ð¾Ð»ÑĮ
Ð»Ð°Ðº ÑĤÐ¸ÐºÐ°
ĠÑĢÐ°ÑģÑģÐºÐ°Ð·Ð° Ð»Ð¸
ĠÐ¿Ð»Ð°ÑĤÐµ Ð¶ÐµÐ¹
Ðĸ Ðĺ
Ð»Ñı Ð»Ð¸
ĠÐ¸Ð· Ð½Ð°ÑĩÐ°
nÐ¡ ÑĢÐ¾Ðº
ĠÐ¿ÑĢÐ°Ð² Ð¾Ð¹
ĠÐĲÐ² ÑĤÐ¾
ĠÐŁ Ð¾ÐºÐ°Ð·Ð°ÑĤÑĮ
Ð°Ð² ÐºÐ°Ð·
ĠÐĴÐ° Ð¶Ð½Ð¾
ĠÑĥÐ³ ÑĢ
C X
Ðĵ ÐŃ
nÐŀÑĢ Ð³Ð°Ð½Ð¸
C h
ĠÑĢÐµÐ·ÑĥÐ»ÑĮÑĤÐ° ÑĤÐ°Ð¼
Ð»Ð¸Ñĩ Ð½ÑĭÐµ
Ð¡Ð¢ ÐĴÐŀ
ĠÐ¶ÑĥÑĢ Ð½Ð°Ð»
l s
ÑĪÐµÐ½ ÐºÐ¾
99 02
ĠÑĪÐ¸ Ð½Ñĭ
Ð¾Ð»Ð¾Ð³Ð¸ ÑĩÐµÑģÐºÐ¾Ð³Ð¾
ĠÑĢÐ°ÑģÑģÐºÐ° Ð·ÑĭÐ²Ð°ÐµÑĤ
62 17
ĠÐ²ÐµÐ»Ð¾Ñģ Ð¸Ð¿
ĠÐºÐ¾ÑĢÐ¾Ð½Ð°Ð²Ð¸ ÑĢÑĥÑģ
99 21
ĠÑĩÐµÑĤ ÐºÐ¾
ĠÐ»Ð¾Ð³ Ð¾ÑĤÐ¸
ĠÐ°Ðº ÑĤÐ¸Ð²Ð°
8 937
ĠÐ¿Ð¾Ð·Ð´ Ð½ÐµÐµ
ĠÐłÐµÐº Ð¾Ð¼ÐµÐ½Ð´Ñĥ
ÑīÐ¸ Ð½
ĠÐ°Ð³ ÑĢÐµÑģÑģÐ¸Ð²
64 9
ĠÐ¾ÑĦÐ¸ÑĨÐ¸Ð°Ð»ÑĮ Ð½Ð¾Ð³Ð¾
Ð¿ ÑĩÐ°ÑģÑĤÐ¸
ĠÐĺÑģÐ¿ Ð¾Ð»ÑĮÐ·Ð¾Ð²Ð°Ð½Ð¸Ðµ
ĠÐºÐ¾ÑĤ ÐµÐ»
ĠÐĵ Ð°Ð»Ð¸
ĠÐ¡Ð°Ð¹ ÑĤÐµ
N N
ĠÐ² ÑĤÐ¾ÑĢÐ¸
ĠÑĩÐ¸ Ð½Ð¾Ð²
ĠÐ±Ð¾Ð»ÐµÐ· Ð½ÐµÐ¹
ĠÑħÐ¾ÑĢÐ¾ ÑĪÐµÐµ
ra y
ĠÐ½Ð°Ð· Ð²Ð°Ð»
ĠÐºÑĢÐ°ÑģÐ¸ Ð²Ð¾
ĠÐºÑĥÑĢ ÑģÐµ
H F
Ð½Ð° Ð²Ð»Ð¸
ĠÐ¾ÑģÑĤÐ°Ð½ ÐµÑĤÑģÑı
ĠÐ¾ÑģÐ½Ð¾Ð² Ð½Ð¾Ð³Ð¾
ĠÑģÐ¾Ð±ÑģÑĤÐ²ÐµÐ½ Ð½ÑĭÑħ
ĠÐ²Ð¾Ð¹ ÑģÐº
ĠÑĤÐµÑĢ ÑĢÐ¾ÑĢÐ¸
ĠÑĢÐ°ÑģÑĪÐ¸ ÑĢÑı
Ð·ÐµÑĢÐ±Ð°Ð¹ Ð´Ð¶Ð°Ð½
ĠÐ¿Ð¾ ÑıÐ²Ð»ÐµÐ½Ð¸Ðµ
nÐľÐ° ÑĤÐµÑĢÐ¸Ð°Ð»
4 97
el d
nÐĿÐ¾Ð² ÑĭÐ¹
997 57
categor y
38 1
Ð¾Ð¿Ñĥ ÑģÑĤÐ¸
ĠÑĢÐ°ÑģÑģ Ð»ÐµÐ´
ĠÑģÑĤ Ñĥ
ÑĪÐµ ÑĩÐ½ÑĭÐµ
re m
Ð»Ð¸ Ð·
ĠÑģÐº Ð²Ð¾Ð·
ĠÑĥÑĩ ÑĳÑĤ
ĠÐ´Ð¾ÑģÑĤ Ð¾Ð¿ÑĢÐ¸Ð¼ÐµÑĩÐ°
ĠÐ¿Ð¾Ð´Ñģ Ð²ÐµÑĤ
ĠÐ½Ðµ ÑĥÐ´Ð°
ĠÐ²Ð¾ÑĢ Ð¾ÑĤÐ°
ÑĪ ÐµÐ½Ð¸
ĠÐĶÐ¶ Ð¾Ð½
ĠÑģÐ°Ð¼Ð¾ÑĥÐ¿ ÑĢÐ°Ð²Ð»ÐµÐ½Ð¸Ñı
ĠÐ¢Ð°Ð¼ Ð±Ð¾Ð²
ĠÐ¿ÐµÑĢÐµ Ñĥ
Ðŀ ÑĢ
ĠÐ´ÐµÐ¼ Ð¾ÐºÑĢÐ°
nÐŁ Ð¾ÑĤ
ÐºÐ½Ñĥ Ð»
ĠÑģÐ°Ð¹ ÑĤÑĥ
ÑĢÐ¸ ÐºÐµ
Ðĳ Ð°Ð»
I n
ĠÐ´Ð° ÑģÑĤ
ÑĨÐ¸Ð°Ð»ÑĮ Ð½Ð°Ñı
ĠÐ¿Ðµ ÑĩÐ¸
ĠÐ¿ Ð¾Ð³Ð°
ÑĤÐ¾Ñĩ Ð½ÑĭÐ¹
ĠÐĺÑĤÐ° Ð»Ð¸Ð¸
lo s
ĠÐ¼ÐµÐ»ÑĮ Ð½Ð¸ÑĨÑĭ
Ð¡Ð¿ Ð°ÑĢÑĤÐ°
9993 6
â Ĥ½
Ð¾Ð³ÑĢÐ° ÑĦ
ÑĥÐ´ ÑĮÑĤÐµ
ĠÐĿÐ° ÑĪÐ°
ĠÑıÐ² Ð½Ð¾
ĠÐ²ÐµÐ´Ñĥ ÑīÐ¸Ñħ
ĠÐļÐ¾Ð½ ÑģÑĤÐ¸ÑĤÑĥ
nÐ£ ÐºÑĢÐ°
ĠÐ½Ðµ Ð±Ðµ
ĠÐ¼ Ð¾Ð´ÐµÑĢÐ½Ð¸
999 28
ĠÐ²Ðµ ÑģÐ¾Ð¼
Ð»Ð¾Ð²Ð¸ Ñĩ
ĠÐ¸Ð· Ð»Ð¸
ĠS o
ÑģÑĤÐ° ÑģÐ¸Ñı
ĠÐ³Ð¾ÑĢÑı ÑĩÐµÐ¹
ĠÐ¿ÑĢÐ¸Ð¾Ð±ÑĢÐµ ÑĤÐ°
Ġ Ð»Ð¾Ð¼
nÐĺÑģÐ¿ Ð¾Ð»ÑĮÐ·Ð¾Ð²Ð°Ð½Ð¸Ðµ
ĠÐ³ÑĢÑĥ Ð·Ð°
y n
Ð°Ð¹ ÐºÐ°
ĠÐ²Ñĭ Ð¹
97 45
ÑģÐµ Ð²
ĠÐ²ÑĭÑģÑĤÐ°Ð² ÐºÐ¸
ÑĤ ÑĢÐ¾
ÐŁ Ñĥ
Ð´ÑĨÐ° ÑĤÐ¸
ĠÐ²ÑĭÐ¿ Ð»Ð°ÑĤ
m ar
ĠÐºÐ¾Ð½ ÑĨÐµÑĢ
ĠÑĦ ÐµÐ½
ĠÐ½Ð°ÑĥÑĩ Ð½ÑĭÑħ
97 04
46 8
ĠÐºÐ¾Ð½ÑĤÑĢÐ° ÐºÑĤ
is e
Ð»ÐµÑĢ Ð¾Ð²
ĠÑĩÐ°ÑģÑĤÐ¸ ÑĩÐ½Ð¾
ĠÐ¿Ð¾Ð² Ð»Ð¸Ñı
Ġad min
Ð¡ Ð²ÐµÑĢÐ´Ð»Ð¾Ð²ÑģÐºÐ°Ñı
ĠÐ¿Ð¾Ð² ÐµÐ´ÐµÐ½Ð¸Ðµ
ÑĤ Ð¾Ð»
ĠÐ´ Ð¾ÑģÑĤÐ°Ð²Ð»Ñı
ÑĤÑĢÐ¸ Ð°ÑĢ
ĠÐ¶ÐµÐ»ÐµÐ· Ð½Ð¾Ð´Ð¾ÑĢÐ¾Ð¶
ĠÐļÐ¾Ð¼Ð¼ÐµÐ½ÑĤÐ°ÑĢÐ¸ Ð¸
998 88
ĠÐ¼Ð¾Ð±Ð¸ Ð»ÑĮÐ½ÑĭÑħ
ĠÐĳ ÐµÑĢÐµ
nÐľ Ð½Ð¾Ð³Ð¸Ðµ
Ð¾Ð² ÐµÐ´
) {
ĠÐ´Ð¾ ÑĪÐºÐ¾Ð»ÑĮ
Ġ3 000
Ð½Ðµ Ð»ÑĮ
ĠÐ¼ÐµÐ´Ð¸ÑĨÐ¸Ð½ ÑģÐºÐ¾Ð³Ð¾
2 12
nÐ§ ÐµÑĢ
ÑģÑĤ ÑĭÑħ
ĠÐł Ð¾Ð±
p ut
) ","
Ð²ÑĤÐ¾ÑĢ ÑĭÑħ
Y P
Ð¾Ð¿Ð¸ ÑĢÐ¾Ð²Ð°Ð½Ð¸Ðµ
ĠÐ° ÑĥÐº
93 67
ĠÐºÐ»Ð° Ð²Ð¸
ÑĩÐµÐ½ Ð½Ð¾Ð³Ð¾
ÑģÐ°Ð¹ ÑĤÐ°
ĠÐ¥ ÐµÑĢ
ĠÐ¿ÐµÑĢÐµÐ´Ð° Ñĩ
ĠÐ°Ð²ÑĤÐ¾Ð¼ Ð°ÑĤÐ°
ÑĢÐ¸ Ð»Ð¸
ÑĦÐµ ÐºÑĤÐ¾Ð²
ĠÑį Ð»Ð°ÑģÑĤÐ¸
ĠÐ·Ð° Ðº
Ð²Ð¸Ð³Ð° ÑĤÐµÐ»ÑĮ
Ð¾ÑĨÐ¸Ð° ÑĨÐ¸Ð¸
ĠÐ½Ð°Ð²ÐµÑĢ Ð½Ð¾Ðµ
96 75
ĠÐ½Ðµ ÑģÑĥ
Ð· ÐµÐ»ÐµÐ½
ĠÑģÑĤÑĢÐ°Ð½Ð¸ÑĨÐ° Ñħ
nÐĶ Ð¾ÐºÑĥÐ¼ÐµÐ½ÑĤÑĭ
ĠÑĢÐµÐ±ÑĳÐ½ ÐºÐ°
ĠÐ¿ÑĢÐ¸ ÐºÐ°Ð·
ĠÐĶ ÑĢÐ¾Ð±Ð¸
ĠÑģÐºÐ»Ð° Ð´Ðµ
ĠÐ¥ Ð¸
ĠÐ¤Ð¾ÑĢ ÑĥÐ¼
Ð¡Ð¢ Ðŀ
ĠÐ¿Ð»Ð¸ ÑĤÑĭ
ĠÑģÐ¸ Ð»Ð°
ĠÑģÐ¾ÑģÑĤÐ°Ð²Ð¸ ÑĤ
e w
Ð¾ÑĢ Ð¾Ð·
no e
ĠÑĤÐµÐ¼Ð¿ÐµÑĢÐ°ÑĤÑĥ ÑĢ
ent s
ĠÐ¿ÑĢÐ¸ Ð´
ĠÐ´ÐµÑĢÐµÐ² Ð½Ñı
ĠÐ·ÐµÐ»ÐµÐ½ ÑĭÐ¹
ĠÐ½Ðµ Ð¶ÐµÐ»Ð°
ÑĤ Ð¾Ð²Ð°Ñı
Ð»Ð¾Ð² Ð¾Ð³Ð¾
ĠÐ¼Ð°Ð½Ð¸ Ð¿Ñĥ
ĠÑĢÐ°Ð· ÑĢÐ°Ð±Ð°ÑĤÑĭ
ĠÐ¼Ð½ ÐµÐ½Ð¸Ñı
al y
ĠÐ°ÑĢÐµÐ½ Ð´Ñĭ
Ð±Ð¸ Ð»ÐµÐ¹
84 03
ĠÑĢÑĥ ÑĩÐºÐ¸
ĠÑĤÑĢÐµÑĤÑĮ Ð¸Ð¼
ĠÑģÐ¿ ÐµÐºÑĤÐ°Ðº
si an
ÑĤÐµÐ»ÑĮ ÑģÐºÐ¸Ð¹
ĠÐŁÑĢÐ¸ ÑĩÐµÐ¼
ĠÐ¼ÐµÑĤ ÑĢÐ°
nÐ§ Ðµ
ÑĪ Ð°Ð¹ÑĤÐµ
t at
ĠÑģÐ¾ÑĢÐµÐ² Ð½Ð¾Ð²Ð°Ð½Ð¸Ñı
Ð¼ÐµÐ½ Ð¾Ð²
ĠÐ·Ð°ÑĤÑĢÐ° ÑĤ
Ð²Ð¸ ÑĩÐ°
et s
ĠÐĴ ÐĲÐĹ
ĠÐ¿ÑĢÐµÐ´Ð²Ð°ÑĢÐ¸ ÑĤÐµÐ»ÑĮÐ½Ð¾Ð³Ð¾
ĠÐ¸ Ð±Ð¾
ĠÐ²ÐµÑĢÐ¾ÑıÑĤ Ð½Ð¾
ĠÐ¿ÑĢÐ¾Ðº Ð¾Ð¼
Ñĸ Ð²
ĠÐľÐ°ÐºÑģÐ¸ Ð¼
ĠÐ±Ð»Ð¸ Ð¶Ðµ
ĠÐ»Ð¸Ñĩ Ð½Ð¾Ð¹
ĠÑĢÐ°Ð·Ð²Ð¸ Ð²Ð°ÐµÑĤÑģÑı
9990 6
ĠÑĨÐµ Ð»ÑĭÐ¹
ĠÐ¿Ð¾ÑĤÑĢÑı ÑģÐ°
Ð»Ð¸ Ñİ
Ð¾ÑĤÐµÑĢÐ°Ð¿Ð¸ Ñı
ĠÐºÐ¾Ð¼Ð¿ÑĮÑİ ÑĤÐµÑĢÐ¾Ð²
ĠP ri
ĠÐ¿ÑĢÐ¾Ð³ÑĢÐ°Ð¼Ð¼ Ð½Ð¾Ð³Ð¾
R K
ĠÐ¿ÑĢÐ¾Ð¸Ñģ ÑħÐ¾Ð¶Ð´ÐµÐ½Ð¸Ñı
2 86
E J
ĠÐ¿Ð¾Ð»Ð¸ ÑĨÐ¸Ð¸
ÑĢÑĥ Ð½
ĠÐ¿Ð¾Ð´ ÐºÐ»ÑİÑĩÐ°
ĠÐºÐ»Ð° Ð¿Ð°
nÐĿÐ° ÑĪÐ°
Ð¾Ð»Ð¾Ð³Ð¸ ÑĩÐµÑģÐºÐ°Ñı
ĠÐ²Ð¾Ñģ ÑģÑĤÐ°Ð½Ð°Ð²Ð»Ð¸
ĠÑĢÐ¾ ÑģÐº
ĠÑģÐµÑĢÐµÐ´Ð¸ Ð½Ðµ
ĠÐ¼Ð¾ Ñĳ
ĠÑĢÐ°Ð·Ð½ Ð¾Ð¾Ð±ÑĢÐ°Ð·Ð¸
ĠÐ¾ÑĤ ÐºÑĥÐ´Ð°
ĠÐ¸ÑģÐº ÑĢÐµÐ½
ĠÑģÐµÐ»ÑĮ ÑģÐºÐ¾ÑħÐ¾Ð·ÑıÐ¹
ĠÐ¾Ñħ Ð²Ð°
ĠÑģÑĢÐµÐ´ Ñĥ
ĠÐ±Ð»Ð°Ð³ Ð¾Ð¿Ð¾Ð»
ĠÑģÐ´ÐµÐ»Ð° Ð½Ð¾
Ð½ÐµÐ½ Ð½ÑĭÐµ
ro r
n ad
ĠÐľÐ° ÑģÑĤÐµÑĢ
B P
Ð¿ ÑĢÑı
ĠÑħÐ¾ÑĢÐ¾ ÑĪÐµÐ¹
Ð´ Ð¾ÑģÑĤÑĥÐ¿
ĠÐºÐ¾ÑĢÐ¾Ð½Ð°Ð²Ð¸ ÑĢÑĥÑģÐ¾Ð¼
ĠÐ°ÐºÑĤÐ¸Ð² Ð½Ð¾ÑģÑĤÑĮ
ĠÐŀ Ð»Ð¸Ð¼Ð¿Ð¸
ĠÐ´Ð¸ Ð·ÐµÐ»ÑĮ
C Q
Ð¿ÐµÑĢÐ° ÑĤÐ¾ÑĢ
ĠÑģÐ»Ñĥ Ð¶Ð¸ÑĤ
ĠM ag
ĠÐ¼Ð¾Ð» Ð¾ÐºÐ¾
ĠÑĦ ÑĢÐ¸
Ð±Ð° Ñħ
ĠÑįÐºÑģÐ¿ÐµÑĢ ÑĤÐ¾Ð²
ĠÐºÐ¾Ð½ÑĤ ÐµÐ½ÑĤ
ÑĪÐµÐ½ Ð½ÑĭÐ¹
Ð¾Ð¿ ÐµÑĢÐµ
nÐ¢ Ð¾Ð»ÑĮÐºÐ¾
ĠÐ¿Ð¸ ÑĪ
n Ð¿Ð¾
Ġpro tect
ĠÑĩ ÑĳÑĢ
97 34
996 86
ĠÐ¾ÑĤ Ð¼ÐµÐ½
ĠÑģÑĩÐ°ÑģÑĤ Ð»Ð¸
ĠÑĪÐºÐ° ÑĦ
ĠÑģ ÑĨÐµÐ½
nÐ¡ ÐµÐ¹ÑĩÐ°Ñģ
ĠÑĦÐ¾ÑĢÑĥÐ¼Ð° Ñħ
Ð¾Ð½Ð° ÑĢÑĥ
Ð²Ð°ÐµÐ¼ ÑĭÐ¹
Y T
C M
ĠÑĦÐ°ÐºÑĤÐ¸ ÑĩÐµÑģÐºÐ¸
ĠÑģÑĭ Ð³ÑĢÐ°
ĠÐ¿ÑĢÐµÐ´ÑĥÑģÐ¼Ð¾ÑĤÑĢÐµÐ½ Ð½ÑĭÑħ
ÑĢÐµ Ð°
Ð¼ Ð¾Ðµ
az da
ĠN ov
ĠÐ¡ Ð¸Ð½
ĠÑĢÐµ ÑĪÐµÐ½Ð¸ÐµÐ¼
ĠÐ»ÑĥÑĩÑĪÐµ Ðµ
ĠÐľ Ð§Ð¡
998 43
ÑĤÐ¸Ð² Ð½Ð¾ÑģÑĤÑĮ
ĠÐ½Ðµ Ð¾ÑĤ
ĠÐ¾ÑĤÐºÑĢÑĭ ÑĤÑĭÑħ
ĠÐ²Ð¾Ð² ÑĢÐµÐ¼Ñı
ĠQ u
ĠÐ² ÑģÑĤÑĥÐ¿
r ag
Ð¾ÑĢÐ° Ð¼Ð¸
8 21
ĠÐ± Ð¾Ð¼
ĠÐ¡ Ð¼Ð¾ÑĤÑĢÐµÑĤÑĮ
ĠÐºÐ»Ð¸ ÐµÐ½ÑĤÑĭ
ĠÑģÐ¾Ð´ÐµÑĢ Ð¶Ð¸Ð¼
4 06
ÑĦ Ð
8 91
ĠÐ²ÐµÑĤÐµ ÑĢÐ°
ÑģÑĤÐ¸ ÑĩÐµÑģÐºÐ¸Ñħ
ĠÐ¿Ð¾Ð½Ñı Ð»
ÑĦÐ ¾
ĠÐºÐ° Ð»Ð¸
ĠÐ´Ð¾Ðº ÑĤÐ¾ÑĢ
Ð½ ÑģÐºÐ¾Ð³Ð¾
ĠÐ¿ÑĢÐ¸Ð±Ñĭ Ð»Ð¸
Ð»Ð° Ð´ÐµÐ»ÑĮ
997 67
Ñİ Ð½
ÑĢÐ¸ ÑģÐ°
nÐĴÐ¸ Ð´Ñĭ
9996 5
nÐĵ ÑĢÐ°
ÐµÐ» Ñĳ
ĠÐ½ÐµÐ´Ð¾ÑģÑĤÐ° ÑĤÐ¾ÑĩÐ½Ð¾
te ch
ÑħÐ¸ ÑĤÐ¸
Ð»Ðµ Ð²Ð°
Ñĥ ÑĪÐºÐ°
997 56
97 87
ĠÐ¿ÑĢÐ¾Ð² ÐµÐ»Ð¸
ĠÐ²ÑĢÐ° ÑĩÐ¸
ĠÐ° ÑģÐ¿ÐµÐº
ĠÐľÐ° ÑĪÐ¸
ĠÐļÐ¾Ð¼Ð¿ Ð»ÐµÐºÑĤ
ã ģ
ĠÐ¿Ð¸ÑģÑĮÐ¼ÐµÐ½ Ð½Ð¾Ð³Ð¾
ĠÐ¼Ð° ÑĢÐ¸
ĠÑĢÐ¾ÑģÑģÐ¸ Ñı
Ð¾Ð»Ð¾Ð³Ð¸ ÑĩÐµÑģÐºÐ¾Ð¹
ĠÑĤÐµÑħÐ½Ð¸ ÑĩÐµÑģÐºÐ¾Ð³Ð¾
ĠÐ¿Ð¾ÑĢ Ð¾Ð´Ñĭ
nÐ¥ Ð¾ÑĢÐ¾
ĠÑĢÐµ ÐºÐ¸
998 12
ĠÐ´Ð¾ÑĢ Ð¾Ð¶Ðµ
2 10
ĠÐ¡ÑĤÐ° Ð½Ð´Ð°ÑĢ
ĠÑı Ðº
Ð½ÑĤ ÐµÑĤÐ¸
Ñī Ð°Ð»
Ðķ Ðļ
ĠÑħÑĢÐ° Ð½Ð¸ÑĤÑĮ
ÑĤÐµ ÑģÑĤÐ°
ĠÐ¢ÑĥÑĢ ÑĨÐ¸Ð¸
Ðļ Ð°ÑĢ
997 23
Ð± ÑĢÐ¾
Ðĳ Ñĥ
ĠÐ¾Ð² Ð¾ÑīÐ¸
Ð±Ð° Ð»Ð°Ð½
Ġr es
nÐŃ ÐºÐ¾Ð½Ð¾Ð¼Ð¸ÐºÐ°
ÑģÑĤ ÑĢÐ¾Ð½
at er
ĠÑĥÐ´Ð° Ð»ÐµÐ½Ð¸Ðµ
ĠÐ¾Ðº ÑĢÐ°ÑĪÐ¸
Ð´ Ð¶Ðµ
ĠÐ³ÑĢÐ°Ð¶Ð´Ð° Ð½Ð¸Ð½Ð°
ĠÐŀÑģÐ½Ð¾Ð² Ð½ÑĭÐµ
ÑģÑĤ Ð½Ð°Ñı
ĠÐ¿ÑĢÐ°Ð² Ð¾Ð¼
ĠÐ¿ÑĢÐ¾ ÑĩÐ¸Ðµ
ĠÐĽ Ð¸ÑĤ
Ð¾Ð½Ð¸ÑĤÐ¾ÑĢ Ð¸Ð½Ð³
97 26
95 682
ĠÑĪ Ð¾ÐºÐ¾Ð»Ð°Ð´
Ð¾ÑĢÐ¾Ð¶ Ð´ÐµÐ½
ĠÐ¿ÑĢÐµÑģÑĤÑĥÐ¿ Ð»ÐµÐ½Ð¸Ñı
ĠÐ¿Ð¾ÑģÐ°Ð´ ÐºÐ¸
il i
ĠÐ´Ð¸Ð·Ð°Ð¹ Ð½ÐµÑĢ
nÐ¡ Ð¾ÑģÑĤÐ°Ð²
ÑĢ ÐºÐ°
Ð°Ð½ ÑģÐºÐ¸Ð¹
ÑĦÐ¾ÑĢÐ¼ Ð»ÐµÐ½Ð¸Ðµ
ÑģÐ¾Ðº Ð°ÑĢ
ĠÐ¡ Ð»Ð¾Ð²Ð°
97 00
ĠÐĽÑİ Ð´Ð¸
ĠÐ¿Ð¾Ð½Ð¸Ð¼Ð° Ñİ
Ð²ÐµÑĢ ÑħÑĥ
ĠÑįÐº ÑģÑĤÑĢÐµ
2 87
9995 3
ĠÑĨÐµÐ½ÑĤ ÑĢÑĭ
ĠÐŁÑĢÐµ Ð·Ð¸Ð´ÐµÐ½ÑĤ
93 26
ĠÐµ Ð¶ÐµÐ¼ÐµÑģÑı
Ð»Ð¸ ÑĤÐ°
ĠâĢ ĭ
nÐ¢Ð° ÐºÐ¸Ð¼
Ð½Ð¾Ð² ÐºÐ°
ĠÐĸÐļ Ð¥
Ð° ÑĤÑĭ
ĠÐĴ ÑģÑı
ÑĢÐ°Ð»ÑĮ Ð½ÑĭÐ¹
ĠÐĶÐµ Ð»Ð¾
ĠÐ¿ÐµÑĢÐ¸Ð¾Ð´Ð¸ ÑĩÐµÑģÐºÐ¸
997 04
ĠÐºÐ¾Ð» ÐµÐ½
ĠÑĩÐµÑĢ ÑĤÐµ
ĠÑĢÑĥÐºÐ¾Ð²Ð¾Ð´ ÑģÑĤÐ²Ð¾Ð¼
ĠÐĴ ÑĤÐ¾ÑĢÐ¾Ð¹
ÑĩÐ° Ð»Ð¸
ĠÑģÑİ Ð¶ÐµÑĤ
Ġ> >
Ñĩ ÐºÐ¾Ð²
ĠÐ´ÑĢÑĥÐ³Ð° Ñı
96 15
ĠÐ»ÑĥÑĩ ÑĪÐ¸Ð¼
2 95
ÐºÑĥ Ð»ÑĮÑĤÑĥ
97 23
ĠÐĽÑĥÑĩ ÑĪÐ¸Ðµ
ĠÑĢÐµ ÐºÐ²Ð¸
ĠÐĴÐ»Ð°Ð´Ð¸Ð¼Ð¸ ÑĢÐ°
ÑĤ ÑĢÑĥ
ĠÐ²Ð¾Ð´ Ñı
ĠMic rosoft
ĠÐ¾Ð¶Ð¸ Ð´Ð°Ð½Ð¸Ñı
ĠÑĥÐ²Ðµ Ð»Ð¸Ñĩ
ĠÐ° ÐºÑĤÐ¾Ð²
ÑģÑĤÑĮ Ñı
ĠÑĢÐ°Ð· Ð´
ĠÑĢÐµ Ð¿ÑĥÑĤÐ°
BC ode
44 0
Ð½Ñı ÑĤÑĮÑģÑı
Ð´ ÑıÑĤ
ĠÐ´ÐµÐ¼Ð¾Ð½ ÑģÑĤÑĢÐ¸
ĠÐĵ Ð£
ĠÑĥÐ´Ð¾Ð± Ð½ÑĭÐ¹
S K
ÑģÐ¿ Ð°
ĠÑĢÐ°ÑģÑĤÐ²Ð¾ ÑĢÐ°
ĠÐ¾Ñģ ÐµÐ½ÑĮÑİ
ÑĢÐ¾Ð² ÐºÐ¾Ð¹
nP ost
Ð¡Ð¢ ÐĴ
43 9
ĠÑĨÐ¸ ÑĢÐºÑĥ
Ð¾Ð±Ð¸ Ð»ÑĮÐ½ÑĭÐµ
Ð¿ Ð¾Ð·Ð¸
ĠÐĲÑĢ ÑħÐ¸
ĠÐ´ÐµÑģÑı ÑĤÑĮ
ĠÐ³Ð¾Ð»Ð¾Ð² Ðµ
Ð¸ ÐºÐ¸
ĠÐ¶Ð¸Ð² ÑĥÑĤ
ĠÑģÐ»Ð¾Ð¶ Ð½ÑĭÑħ
ĠÐ³Ð°Ð· ÐµÑĤÑĭ
nÐĿÐ° Ð¿Ð¸ÑģÐ°ÑĤÑĮ
ĠÐ¿Ðµ ÑĩÐµÐ½ÑĮ
Ð¸Ð½ ÑģÐº
ĠÑĤÐµ Ð¾ÑĢÐ¸Ð¸
ĠÐ¿Ð¾Ñħ Ð¾Ð¶Ð¸
ĠÑĢÐ¾ÑģÑģÐ¸Ð¹ ÑģÐºÐ¸Ðµ
D DE
ĠÐ¾ÑĤÐ½Ð¾ÑĪÐµÐ½Ð¸Ñı Ñħ
ĠÑĥÑĩÐ°ÑģÑĤÐ¸ ÐµÐ¼
ĠÐ½ ÑĳÐ¼
nÐĴÐ° ÐºÐ°Ð½ÑģÐ¸Ð¸
ĠÑĤÐµÑĢ Ð¿
ĠÐ¼ÑĥÑģ Ð¾ÑĢÐ°
ĠÐºÑĢÐ¾Ñģ ÑģÐ¾Ð²
ĠÐ¾Ð³ Ð¾Ð½ÑĮ
ĠÐ¼Ñı ÑģÐ°
ĠÑĥÑģÑĤ ÑĢÐ¾Ð¸
ÑĦ Ð°Ðº
ĠNe w
ĠÐ¿ÑĢÐ¾Ð¿ Ð¾ÑĢ
ĠÐŀ ÐŁ
ÑĪ Ðº
ĠÐ²Ð¾Ð·Ð´Ñĥ ÑħÐµ
ĠÐ³ÑĢÑĥÐ· Ð¾Ð²
ĠÐ¾Ð±ÑĬÐµÐ¼ Ðµ
ĠÐ¶Ð´ ÐµÑĤ
ĠÐ¾Ð±ÑģÑĥ Ð¶Ð´ÐµÐ½Ð¸Ñı
ĠÐŀÐ¿ÐµÑĢÐ° ÑĤÐ¾ÑĢ
ĠÐĿ ÐĶÐ¡
ÑģÑģÐ»ÐµÐ´ Ð¾Ð²Ð°
ĠÐ± ÑĢÐ¾
9995 7305
ĠÐĲÐ² ÑģÑĤÑĢÐ°
am i
R W
ĠÑĢÐ°Ð· Ð´ÑĢÐ°
ĠÑģÐµÐ¼ ÑıÐ½
ĠÑģÑĤÑĢÐµ ÑģÑģ
95682 985
ĠÐ¿ÑĢÐ¾Ð² Ð¾Ð´Ð°
ĠCan on
ĠÐ² ÐµÐ·Ð´Ðµ
ÑĤÐ° ÑĢÑĮ
88 16
no st
ĠÐ¿Ð»Ð° ÑĤÑĮÐµ
Ð¢ Ð°
ĠÑĥÐ¿ÑĢÐ°Ð² Ð»ÑıÑĤÑĮ
Ð´Ð¸ Ð½Ð¾
Ð¿ ÑĢÐ¾Ñģ
ĠÐºÐ¾Ð½ÑĦÐ¸ Ð³Ñĥ
ĠÐļ ÑģÑĤÐ°ÑĤÐ¸
ĠÐ¿ÑĢÐ¸ Ð²
995 87
Ð·Ñĥ ÐµÑĤ
Ðĳ Ð°ÑĢ
ĠÐºÑĢÐµÐ´Ð¸ ÑĤÐ°
N K
ĠÐ¿Ð¾Ð»ÑĥÑĩÐ¸ ÑĤ
998 20
ĠÐ² ÑģÑĤÑĥÐ¿Ð°
ĠÐ¨ Ð°ÑĢ
ĠÐ¿Ð»Ð¸ÑĤ ÐºÐ°
ur a
ÑĭÑĢ Ð³
nÐŁ Ð¾Ð²
ĠÐ¼ÐµÐ½ ÐµÐ´Ð¶Ðµ
ĠÐĿÐ¾Ð² ÑĭÐµ
ĠÑĩÑĥ Ð³Ñĥ
ĠÐºÐ¾Ð½ÑģÑĥÐ»ÑĮÑĤÐ° ÑĨÐ¸Ñı
ĠÑħÐ°ÑĢÐ°ÐºÑĤÐµÑĢÐ¸ÑģÑĤÐ¸ Ðº
nÐ£ Ð·Ð½Ð°ÑĤÑĮ
ĠÑĢÐ¾ÑģÑģÐ¸ Ð¹ÑģÐºÐ¸Ð¹
ĠÑįÐºÐ¾Ð½Ð¾Ð¼Ð¸ ÑĩÐµÑģÐºÐ¾Ð³Ð¾
ÐĲ Ð»ÑĮ
ĠÐ½Ð¾Ð² ÐµÐ¹
ĠÐ³Ð°ÑĢ Ð½Ð¸
Ð»Ðº Ð½Ð¸ÑĤÐµ
ĠÐŃÐ»ÐµÐºÑĤ ÑĢÐ¾Ð½
ĠÑĥÑĤÐµ Ð¿Ð»Ð¸
ĠÐ°ÑĢÑħÐ¸ Ð²
997 12
56 0
âĶĢâĶĢ âĶĢâĶĢ
ĠÑĨÐ¸ ÑĤÐ¸
ĠÑĥÑĢÐ¾Ð¶ Ð°Ð¹
nÐ¡ ÑĤÐ¸
ĠÐ¿Ð»Ð° Ð½Ñĭ
ĠÐ£ ÑĩÐ°ÑģÑĤ
ĠÐĺ Ð¾Ð°Ð½
ĠÑĢÐµÐ³Ð¸ ÑģÑĤÑĢÐ¸
ĠJava Script
ĠÐ»Ð¸ÑĤÐµÑĢÐ° ÑĤÑĥÑĢ
ĠÑģÐ¿ÑĢÐ°Ð²Ð¸ ÑĤÑĮÑģÑı
.. .","
Ð»Ñİ Ðº
ĠÐ¾Ð´Ðµ Ð¶Ð´Ñĥ
ÑĪÐµ Ð³Ð¾ÑģÑı
ĠÐĳÐ¾ÑĢÐ¸ Ñģ
ĠÐ® ÑĢÑĮ
ĠÐ¼Ð°Ð»ÐµÐ½ÑĮ ÐºÐ¸Ñħ
ĠÐºÐ½Ð¾Ð¿ ÐºÐ¸
Ðł Ñ
ĠÐ²Ð¾ÐµÐ½Ð½Ð¾ ÑģÐ»ÑĥÐ¶Ð°
ĠÐĴÑĭ ÑģÐ¾Ðº
ĠÑĥÐ¿Ð°ÐºÐ¾Ð² ÐºÐ¸
ĠÐ°ÐºÐºÑĥÐ¼ÑĥÐ»Ñı ÑĤÐ¾ÑĢ
' :
Ð°Ð½ Ð½ÑĭÑħ
nÐĽÑĥÑĩ ÑĪÐ¸Ðµ
Ð°Ð² ÑĤÐ¾Ð¼
m it
ĠÐ¾Ð±ÑĢÐ° ÑīÐµÐ½Ð¸Ðµ
48 2
ĠÐ±Ð¸ Ð»ÐµÑĤÑĭ
ĠÐ¿Ð¾ÑģÐ»ÐµÐ´Ñĥ ÑİÑīÐ¸Ñħ
Ð¾Ð¿ ÑĢÐµÐ´Ðµ
ÐºÐ¾Ð½ÑĤÐ° ÐºÑĤÐµ
ĠÐ¿ÑĢÐµÐ´ÑģÑĤÐ°Ð² Ð»ÐµÐ½Ð¸Ðµ
997 22
Ñĩ ÐºÐ¾Ð¼
ÑģÑĤÐ°Ð½Ð¾Ð² Ð»ÐµÐ½Ð¸Ðµ
07 9
ĠÐ¿ÑĢÐ¾Ñģ Ð¼Ð°ÑĤÑĢÐ¸
ĠÐ¿ÑĢÐ°Ð² Ð¾Ð½Ð°ÑĢÑĥ
ĠX iaomi
ĠÑĢÐ°Ð· Ð±Ð¸
ĠÐ»Ð¸ ÑģÑĤÐ°
ĠÐ² Ð»Ðµ
ĠÐ²Ð¸Ð´Ðµ Ð»
ĠÑģÐ¿Ð° ÑģÐ°
ĠÐºÐ° Ð»ÐµÐ½
h a
ĠÐķÐ²ÑĢÐ¾Ð¿ ÐµÐ¹
I O
ÑĢ Ð¾Ð»
97 06
ĠÐĺÐ³ ÑĢÐ¾Ð²Ð¾Ð¹
, \"
ĠÐ²Ð½ÐµÑĪ Ð½ÐµÐ¹
ĠCol or
ĠÐ»Ð¸ Ð¼Ð¾Ð½
ĠA c
ĠÐĵ Ð¾ÑĤÐ¾Ð²
Ð¾ÑĢÐ¸ ÑĤÐµÑĤ
ĠÐºÑĢÐ¸Ð¿ÑĤ Ð¾Ð²Ð°Ð»ÑİÑĤ
ĠÑģÐ¾Ñģ ÑĥÐ´Ð¾Ð²
ĠÑģÐ»ÑĥÐ¶ Ð±Ðµ
C G
ĠÐ±Ð»Ð° Ð³Ð¾ÑĤÐ²Ð¾ÑĢÐ¸
ĠÐ¿Ð¾ÑĢ Ð¾Ð´
ĠÑį Ð¿
ĠÑģÐ¾Ð¾ÑĤÐ²ÐµÑĤÑģÑĤÐ²ÑĥÑİ ÑīÐµÐ¹
k an
B K
ĠÐ¿Ð¾ÑĤÐ¾Ð» Ð¾Ðº
ÐĿÐ¾Ð² Ð¾ÑģÑĤÐ¸
ĠÐ½Ðµ ÑĥÐ´Ð¾Ð±
47 9
ĠÐ²Ñĭ Ð´ÐµÐ»Ð¸ÑĤÑĮ
ĠÐ½ÐµÐ¾Ð±ÑħÐ¾Ð´Ð¸Ð¼ Ð¾Ðµ
Ġprotect ed
ÑĢÑĥÐ³ Ð¾Ð¹
ĠÐ¡ÐŁ Ð±
nÐ¢ ÐµÑĢ
ĠÐķ Ð³Ð¸Ð¿
ĠÐķ Ð´Ð¸Ð½
Ð± Ð»
Ð´Ð°Ð³ Ð¾Ð³Ð¸
ĠÑĢÐ°Ð· ÑĬÑıÑģ
Ð¾Ð¿ ÑĢÐ¾Ðµ
J V
ÑĢÐ°Ð±Ð¾ÑĤ Ð°
ĠÑģÐ²Ðµ Ð¶Ðµ
ĠÐ¿ÑĢÐ¸ ÑģÑĤÑĥÐ¿Ð°
ÑĪÑĤÐµ Ð¹Ð½
ĠÐĳ Ð°Ð½Ðº
4 87
ĠÐĲ Ð·Ð¸Ð¸
ÑĤÐ¸ ÑĩÐµÑģÐºÐ¾Ð¹
z y
ĠÑĤÐ¾Ð»ÑīÐ¸ Ð½Ð¾Ð¹
ĠÐ·Ð° ÑĤÐ¾
ĠÑĨÐ¸ Ð²Ð¸Ð»Ð¸
ĠÐ¼ÐµÐ´Ð¸ ÐºÐ°
ĠÑĦÐ° ÐºÑĤÐ¾ÑĢÑĭ
ĠÐ½Ð°ÑģÑĤÐ¾Ñı ÑīÐ¸Ð¼
ĠO r
ĠÐļÐ° ÑĢÐµ
Ð½ ÑģÐº
ĠÐĴ Ð°Ð½
ĠÐ·Ð° Ð²Ð¾Ðµ
Ð±Ð¾ÑĢ ÐºÐ°
ĠÑįÐºÐ·ÐµÐ¼ Ð¿
ĠÑģÐ°Ð¹ ÑĤÐ¾Ð¼
ĠÑģÐ° Ð´Ð°
996 87
ĠÐ¿ÑĢÐ¾Ñģ Ð»Ñĥ
ĠÐ±ÐµÑģÐ¿Ð»Ð°ÑĤ Ð½ÑĭÐ¹
ĠÐ¶Ð°Ð» Ð¾Ð±Ñĭ
ĠÐ¯ ÑĢ
ÐĴ ÐŁ
log y
ĠÐ¾Ð¿ Ðµ
ĠÐ²Ð¾Ð´ Ð¾ÑģÐ½Ð°Ð±
ĠÐ· Ð¸Ð¼Ñĥ
ĠÐ´Ð¾ÑħÐ¾Ð´ Ð¾Ð²
Ðĳ Ðļ
Ð¼Ðµ Ð´
Ð¾ÑĢ ÑĤÑĭ
I ON
ĠÑĦ Ð»Ð°Ð³
ĠÐ¡ Ð½Ð°ÑĩÐ°Ð»Ð°
Ñĭ Ñģ
p or
ĠÑģÐ» Ð¾ÑĤ
ĠÑĢÐµ ÐºÐ¾Ð½ÑģÑĤÑĢÑĥ
ĠÐ¿ÐµÐ½ÑģÐ¸ Ð¾Ð½Ðµ
ĠÐ¾Ð¿ ÑĤÐ¾Ð¼
ĠÑģÐ¸ Ð»Ð¸
ÑĢÐ¸ Ð½Ð³
ĠÐļ Ð¾Ð»Ð¸ÑĩÐµÑģÑĤÐ²Ð¾
co unt
Ġw h
ÑĩÐµ ÑģÐ»Ð°Ð²
996 95
ĠÐ·Ð°ÑĢÐ°Ð±Ð¾ÑĤ Ð°ÑĤÑĮ
ĠÐ¿ÑĢÐµÐ´Ð¿ÑĢÐ¸Ð½Ð¸Ð¼Ð° ÑĤÐµÐ»ÐµÐ¹
ĠÐ»ÐµÐ³ ÐºÐ¸Ñħ
ĠÐ²ÑģÑĤÑĢÐµÑĩÐ° ÑİÑĤÑģÑı
ĠÐĿÐ° ÑĪ
ÑĦÐ¸ Ð½
ĠÐĽÐµ Ð¾Ð½Ð¸
ĠÐ¿ÑĢÐµÐ´ ÑģÑĤÐ¾Ñı
ÐµÐ¹ Ñģ
Ð¤ ÑĢÐ°Ð½
ÐĶ Ðµ
ĠÐºÐ¾Ð»Ðµ ÑģÐ°
A DA
ĠÑĥÐ´Ð¾Ð²Ð¾Ð»ÑĮ ÑģÑĤÐ²Ð¸ÐµÐ¼
ĠÐ³ ÑĢÑĭ
ĠÑĢÑİÐºÐ·Ð° Ðº
Ð² Ð¾Ð»ÑĮ
nÐľ ÐµÑĤÐºÐ¸
ĠÐ¶Ð¸Ð· Ð½Ðµ
indo w
97 16
Z V
Z W
ĠÐĺÐ·ÑĢÐ° Ð¸
ĠÑĢÐ°Ð±Ð¾ÑĤ Ð°Ð»
ĠÐ»ÑİÐ± Ð»Ñİ
nÐ¡Ð¾Ð³Ð»Ð° ÑģÐ½Ð¾
S O
ĠÐ°Ð¿Ð¿Ð°ÑĢÐ° ÑĤÑĭ
ĠÐ°Ð± Ð¾Ð½
Ðĵ Ð»Ð°Ð²Ð°
ÑĢÐµÐ± Ð¾Ð²Ð°Ð½Ð¸Ñı
C EF
ÐµÐ½ ÑģÐ¸
ĠÑģÐ²Ñı Ð·
ĠÐ¶Ð¸Ð²Ð¾ÑĤ Ð½ÑĭÐµ
Ñģ Ð¾ÐµÐ´Ð¸
Ð± ÐºÐ°
ÑģÑĥ ÑģÐ°
ĠÐ½Ð°Ð²Ñĭ ÐºÐ¸
ÑĩÐµÐ½ Ð½Ð¾Ð¹
yr ight
Ð± Ð»ÑİÐ´
R V
ÐŁ ÑĢÐµÐ´
ĠÐ¿Ð¾Ð´Ð³Ð¾ÑĤÐ¾Ð² ÐºÐ°
ĠÐ±ÐµÑģÐ¿Ð»Ð°ÑĤ Ð½ÑĭÐµ
ĠÐ½ÐµÐ¿ÑĢÐµ ÑĢÑĭÐ²
nÐķ ÑīÑĳ
ĠÐ·Ð°ÐºÐ°Ð· Ðµ
ĠÐ¼Ð°ÑģÑĪÑĤÐ° Ð±
ĠÐ¿Ð¾Ð¶Ð°ÑĢ Ð½Ð¾Ð¹
ĠÐ²Ð¾Ð¹ Ð½Ðµ
ĠÐĶ Ð°ÑĢ
ĠÐ¿Ð¾Ð»ÑĥÑĩÐ¸ Ð»Ð¾ÑģÑĮ
ĠÐĿ ÐµÐ²
ĠÐĳ ÑĢÐ°
C DE
ĠÐ¿ Ð°Ð½Ð´ÐµÐ¼Ð¸
Ġ1 30
ĠÑĢÐ°ÑģÐ¿Ð¾Ð»Ð¾Ð¶ ÐµÐ½Ñĭ
ĠÐº Ð²Ð°
ĠÐ±ÑĭÑģÑĤÑĢ Ð¾Ð³Ð¾
ĠÑĩÑĤ ÐµÐ½Ð¸Ñı
Ð¾Ð±Ñĭ ÑĤÐ¸Ñı
ÑĤÐ¸ ÑĩÐµÑģÐºÐ¸Ñħ
ag es
Ðĵ Ð°Ð·
Ð¿Ð°ÑĢÐ° ÑĤÑĭ
ĠÐ¼Ð½Ð¾Ð³Ð¾Ðº Ð²Ð°ÑĢÑĤÐ¸
997 00
00003 99
ĠÐ´ÐµÑĢÐµÐ² ÑĮÐµÐ²
ÑĢÐµ ÐºÐ¾Ð¼ÐµÐ½
ĠÐļ Ð»Ð°
46 0
ĠÐ±Ð°Ð»Ð°Ð½ Ñģ
ĠÐĴÐ° ÑĪÐµÐ¹
Ð½Ð¸Ñĩ Ð½ÑĭÐ¹
1 101
ĠÐĶ Ð¾Ð¿Ð¾Ð»Ð½Ð¸ÑĤÐµÐ»ÑĮ
ÑĢ ÐµÐ½Ð¸
ÐļÑĢÐ°ÑģÐ½Ð¾Ð´Ð°ÑĢ ÑģÐºÐ¸Ð¹
ĠÐ´Ð¾ ÑģÐºÐ¸
ĠÐ¾ÑĤÑģÑĥÑĤ ÑģÑĤÐ²Ð¸Ñı
ĠÑĪ Ð¿Ð¸
ĠÐ¿ÑĢÐ¾Ðº Ð¾Ð½
ÐĳÐŀ Ð£
ĠÑģÐ¾Ð´ÐµÑĢ Ð¶Ð¸ÑĤÑģÑı
Ð³Ð¾ ÑĨÐµÐ½
ĠB lu
ĠÐ² Ð²ÐµÐ´
ĠÐ¿Ð»Ð° Ð½Ð°
Ð¸Ð½Ð° Ð¼Ð¾
ĠÐ¿ÐµÐ½ ÑģÐ¸Ð¸
ĠÑģÐ²Ð¾Ð¹ÑģÑĤÐ²Ð° Ð¼Ð¸
ĠÐĳ ÐµÐ½
Ġ15 00
ĠÐ¿Ð¾Ð¼ÐµÑīÐµÐ½Ð¸Ñı Ñħ
Ð²ÐµÐ¹ ÑĨÐ°
Ð¾Ð´ Ð½Ð¾Ð¹
ĠÐ±ÐµÐ» Ð¾Ð³Ð¾
Z K
ĠÑĨÐµÑĢ ÐºÐ¾Ð²
ĠÐ¾Ð¿ÑĢÐµÐ´Ðµ Ð»ÐµÐ½Ð¸Ðµ
ÐĴ ÐĽÐķ
ĠÐ¼ Ð¾Ðº
ĠÐ²Ð»Ð°Ð´ÐµÐ»ÑĮ ÑĨÐµÐ²
ĠÑĢÐµÑģÐ¿ÑĥÐ±Ð»Ð¸ ÐºÐ¸
ĠÐ½ÐµÐ¼Ð° Ð»Ð¾
ĠÐ¢ Ð¡
ĠÐ¼Ð¾ÑĤÐ¸ Ð²Ð°
re am
ĠÐ¿ÐµÑĢÐµ ÑĨ
ĠÐ¸Ð½ÑĦÐ¾ÑĢÐ¼Ð° ÑĨÐ¸Ð¾Ð½Ð½Ð¾Ð¹
83 0
ĠÐ¿ÑĢÐ¾ÑĤÐ¸Ð² Ð¾Ð¿Ð¾Ð»Ð¾Ð¶
Ð³Ð° ÐµÑĤ
ĠÐ¿ÑĢÐ¾Ð¼ Ð¾Ðº
75 1
ĠÑĢÐµ ÑĪÐµÑĤ
ĠÐºÐ¾Ð»Ð»ÐµÐº ÑĤÐ¸Ð²
Ð´ Ð¾Ð¹
ĠÑĪÐºÐ¾Ð» Ñĥ
ĠÐºÐ¾Ð¼Ð¸ ÑģÑģÐ¸Ñı
s c
ĠÑĦ Ð°Ñģ
998 28
ĠÐ½Ð°Ð±Ð»ÑİÐ´Ð° ÐµÑĤÑģÑı
ĠÐºÐ¾Ð¼Ð¿ÑĮÑİ ÑĤÐµÑĢÐµ
Ð°Ð»ÑĮ Ð½Ð¾ÑģÑĤÑĮ
ĠÐ¿ ÑĥÑĤ
ĠÐ²Ð¸ Ð·Ð¸
ĠÐº Ð¸ÑĤÐ°
ĠÐ¿Ðµ ÑĩÐ°ÑĤÑĮ
Ġ im
ÑĩÐ½ÐµÐ² ÑĭÐ¹
07 1
ĠÑģÐ¾Ð± Ðµ
nÐľÐµÐ½ Ñİ
ĠÐ£ ÑģÐ»ÑĥÐ³Ð¸
997 54
ĠÐ¿ÑĢÐµÐ´Ð¿ÑĢÐ¸Ð½Ð¸Ð¼Ð° ÑĤÐµÐ»ÑĮ
ĠÐ·Ð½Ð° ÐµÐ¼
ÑĭÑĢÐ³ ÑĭÐ·
J K
ĠÐºÐ¾Ð½ÑĤÑĢÐ¾Ð»Ð¸ ÑĢÐ¾Ð²Ð°ÑĤÑĮ
ĠÐĺÐ²Ð°Ð½Ð¾Ð² Ð¸Ñĩ
ĠÑģÑĤÐ° Ð²Ð¸ÑĤÑĮ
ÐµÐ½ÑĤÐ° Ð¼Ð¸
og o
ĠÐ± Ð°Ð¼
840 35
ĠÑĢÐ°Ð·Ð¼ÐµÑĢ Ð¾Ð¼
ÑĢÑĥ Ð¼
ÑģÑĤÐ¾ ÑĢÐ°Ð½
ĠÐ·Ð° Ð»Ð¾Ð³
ÑģÑĥÑĤ ÑģÑĤÐ²Ð¸Ðµ
Ġ5 8
Ġn ot
33 1
Ð» Ð¾ÑĤÐ¸
ĠÐ¼ÑĥÐ½Ð¸ÑĨÐ¸Ð¿Ð° Ð»ÑĮÐ½Ð¾Ð¹
ÑħÐ¾Ð² Ð
ĠÐ·Ð° Ð¿Ðµ
ÑħÐ¾Ð²Ð ¾
ĠÐ·Ð° ÑģÐµÐ´Ð°
B M
ĠÐ· Ð´Ð°Ð½Ð¸Ðµ
ĠÑģÐ¾Ð²ÑĢÐµÐ¼ÐµÐ½ Ð½Ð¾Ð¼
Ġ- \
ĠÑĨÐµÐ¼ ÐµÐ½ÑĤ
ĠÐ¡Ð°Ð¼Ð°ÑĢ ÑģÐºÐ¾Ð¹
nÐŀÑĤ ÐºÑĢÑĭ
nÐ£ ÑģÑĤÐ°Ð½Ð¾Ð²ÐºÐ°
ĠÐĿÐ° Ð·
Ðº Ð²
ĠÐ¸Ð¼ Ð¿Ðµ
Ñį ÑĪ
ĠÐ¿Ð»Ð¾ ÑģÐº
Ð¾Ð³ Ð¾Ð¹
ĠÐ½Ðµ ÐºÐ¾Ð¼Ð¼ÐµÑĢ
ĠU n
Ġ Ñĸ
Z L
ĠÐ¸ Ð½Ð¾Ð³Ð¾
ĠÐºÐ°ÑĢÑĤÐ¸ Ð½Ñĭ
96 85
77 9
Ñħ Ð¸Ð¼
ĠÐľ Ðļ
ĠÐ½Ð°ÑĢÑĥ ÑĪÐµÐ½Ð¸Ð¹
ĠÑģÑį ÐºÐ¾Ð½Ð¾Ð¼Ð¸ÑĤÑĮ
ĠÐ¿Ð¾Ñģ Ð¼Ð¾ÑĤ
ĠÐ¼ÐµÐ´ Ð»ÐµÐ½Ð½Ð¾
ĠÐľ Ð°Ð»ÑĮ
ĠÐ° Ð½Ð¾Ð½
ĠS tar
47 8
ĠÐ¼Ð° ÑĤÑĢÐ°
ĠÐ»Ñĥ Ðº
ĠÑĥÐ² Ð¾Ð»ÑĮ
ĠÐ²ÑĭÑģÐ¾Ðº Ð¾ÐºÐ°ÑĩÐµ
ĠÐ²ÐºÑĥ ÑģÑĥ
nÐļ Ð¾Ð´
ĠÑĥÐ²ÐµÐ»Ð¸ÑĩÐ¸ Ð²Ð°ÐµÑĤÑģÑı
ĠÐºÑĢÐ°Ð¹ Ð½ÐµÐ¹
Ðµ ÑģÑĤÑĮ
Ġ1 25
ĠÐºÑĢÑĥÐ³ Ð»Ð¾ÑģÑĥ
ĠÑģÐ½Ð¸ Ð¶ÐµÐ½Ð¸Ñı
ĠÐ²ÑģÑĤÑĢÐµÑĩÐ° ÐµÑĤÑģÑı
ĠÐ¿ÑĢÐ¾ÐºÐ¾Ð¼ Ð¼ÐµÐ½ÑĤÐ¸
nÐŁÐ¾Ð´ ÑĢÐ¾Ð±
ĠÐ¿ÑĢÐ¾ÑģÐ¼Ð¾ÑĤ ÑĢÐ¾Ð²
k t
ĠÐ»Ð¾Ð¶ ÐºÐ¸
' '
ÑĤÐ° Ð¹ÑģÐºÐ¸Ð¹
ĠÐ¿ÑĢÐ¸Ð½Ð¸Ð¼Ð° ÑİÑĤ
98 20
ĠÐ·Ð² Ð¾Ð½Ð¸
ĠÑĦ ÑĢÐ°Ð³
ĠÐĿ Ð°Ð¼
ĠÐ°ÐºÐºÐ°ÑĥÐ½ ÑĤ
Ð¾Ð² ÐºÐ°
ÐĲ ÐĽÐ¬
ĠÐ´ Ð¾ÑĩÑĮ
ĠÐ½Ð¾ÑĥÑĤÐ±Ñĥ ÐºÐ¾Ð²
ĠÑģÐ¾Ñģ ÑĢÐµÐ´
ĠÐ¡ ÑĥÐ¼
ĠÐ»Ð¸Ñĩ Ð½Ð¾ÑģÑĤÑĮ
Ð»Ð¸ ÑĩÐ½Ð¾
ĠÐ¿Ð¾Ð´ÑĢÐ¾ÑģÑĤ ÐºÐ¾Ð²
ĠÐ¾ÑĤ Ð¾Ð¿Ð¸
Ð»Ð° Ð´Ðµ
ĠÐĴÐ»Ð°Ð´Ð¸Ð¼Ð¸ ÑĢÐ¾Ð²Ð¸Ñĩ
Ðĵ Ð¾ÑĢÐ¾Ð´
ĠÐ³Ð° Ð±Ð°ÑĢÐ¸
et e
ĠÑĢÐ° Ð´Ñĭ
ĠÐ¼Ð³ Ð½Ð¾Ð²
ĠÐĲÑģÑĤÑĢÐ° ÑħÐ°Ð½
ĠÑģÑĥÐ¿ ÑĢÑĥ
ĠÑģÐ»ÐµÐ´Ñĥ ÑİÑīÐµÐ³Ð¾
ĠÐ¸Ð· Ð±Ñĭ
97 57
Z G
ĠÐ¾Ð± Ð¾ÑģÐ½Ð¾Ð²Ð°
Ð¾Ð¼ÐµÑĤ ÑĢÐ¸
ĠÐĺ Ð³ÑĢÑĭ
ĠÐ¡ Ð»Ñĥ
ĠÐ» Ð¾Ð±
ĠÑħÐ¾ÑĤÐµ Ð»Ð¸
ĠÐ¾Ð± ÑĪÐ¸
ĠÐ¾ÑĩÐµ ÑĢÐµÐ´Ð¸
ĠÐķÐºÐ°ÑĤÐµÑĢÐ¸ Ð½Ð°
ĠÐľÐ°ÐºÑģÐ¸ Ð¼Ð°
ĠÐļ Ð»Ñİ
ĠÐ¡ ÑĤÐ¾Ð¸ÑĤ
J Q
J L
nÐĳ Ñĥ
7 00
Ð´ÑĢ Ð¾Ð±Ð¸
ĠÐ¸Ð· Ð±Ð°Ð²
ÐºÐ½Ñĥ Ð²
ĠÐ¿ Ð¾Ð¾Ð±
ĠÑĥÑģÐ»Ñĥ Ð³Ñĥ
ĠÑĤÐµÑĢÑĢÐ¸ÑĤÐ¾ÑĢÐ¸ Ñİ
ĠÐ¿Ð¾Ð¸ ÑģÐºÐ¾Ð²
ĠÐ¼ÐµÐ´Ð¸ Ð°
ÑĢÐ° Ð¼Ð°
ĠÐ´ ÑĥÐ±
ĠÐºÐ¸ÑĢÐ¿Ð¸ Ñĩ
ĠÐ¿ÑĥÑĤÐµÑĪÐµ ÑģÑĤÐ²Ð¸Ñı
ÑĥÑģÐ»Ð¾Ð² Ð½Ð¾
ĠÐļÐ¸ ÑĢ
ĠÐ¼Ð¾ÑĢ Ð¾Ð·
R P
ĠÐ¿Ð¾ ÑĪÐ»Ð¸
ĠÐ²Ð¾Ð·Ð¼Ð¾Ð¶ Ð½ÑĭÑħ
ĠÐ» Ð¾ÐºÐ°
ĠÐ¾ÑĪÐ¸Ð± ÐºÑĥ
5 65
J W
ĠÐ² ÑĢÑıÐ´
ĠÑĢÐ°ÑģÑģÐºÐ°Ð·Ð° ÑĤÑĮ
ĠÐ´Ðµ ÑĦÐ¸ÑĨÐ¸
ĠÐ¸ÑģÑĤÐ¾Ñĩ Ð½Ð¸ÐºÐ¸
ĠÐĴÐ¸ ÐºÑĤÐ¾ÑĢÐ¾Ð²
93 17
ĠÑģÐ¾Ð² Ð¿Ð°
nÐĵÐ»Ð°Ð² Ð½ÑĭÐµ
ĠÐ² ÐµÐºÐµ
ĠÑģ ÑĢÐµÐ´Ð°
ĠÐ¢ Ð¸Ñħ
ĠÐĲ Ñħ
ĠÐ²ÑĭÑĢÐ° Ð·Ð¸
96 84
Ð¿Ð¸ ÑĪÐ¸ÑĤÐµ
ĠÑĢÐµÐ±ÐµÐ½ ÐºÐ¾Ð¼
ÑģÑĤÐ² Ð¾Ð²Ð°Ð½Ð¸Ñı
ĠÐ»Ð°Ð¼ Ð¿
Ð´ Ð¾Ðº
87 15
Ð»Ð¸Ð² ÑĭÐ¹
ĠÐ¼ÑĭÑģ Ð»ÑĮ
ĠÐ° Ñģ
nÐļÐ°ÑĤÐµÐ³Ð¾ÑĢÐ¸ Ñı
ĠÐ¢ Ðļ
ĠÐ¾Ð± Ð¾Ð³ÑĢÐµÐ²Ð°
96 04
ĠÐ¾Ð¿Ð°Ñģ Ð½Ð¾ÑģÑĤÐ¸
Ð°Ð² ÑĢÐ¸
ĠÐĿÐµ Ð¾Ð±ÑħÐ¾Ð´Ð¸Ð¼Ð¾
ĠÐļ Ð°Ð»
ĠÐ¾ÐºÐ°Ð·Ð° Ð»Ð¸ÑģÑĮ
nÐ¡ ÑĢÐ°Ð²
Ð¾Ð» Ð¾Ð´
ÑĦ Ð¾Ð½Ðµ
Ġ5 000
ĠÐ´ÑĢÑĥÐ³ Ð¾Ð¼Ñĥ
ĠÐ¿Ð¾ÑģÐ»ÐµÐ´ ÑģÑĤÐ²Ð¸Ð¹
ĠÐºÐ»Ð° Ð¿Ð°Ð½
ĠÐ²Ñĭ Ð´ÐµÑĢÐ¶Ð¸
ÐµÐ¼ Ñĭ
ne w
ĠÑģ Ð¾Ð´ÐµÐ¹
ĠÐ¿Ð¾Ð´ ÑĪÐ¸Ð¿
ĠÐ²Ð°Ð¶ Ð½ÐµÐ¹
ĠÐ½Ð°ÑĪÐ¸ Ð¼Ð¸
Ðº ÑĢÐµÐ´Ð¸
997 83
ĠÐ¾Ð±ÑĢÐ° Ð·Ð°
ĠÑĥÐ¼ÐµÐ½ÑĮ ÑĪÐ¸ÑĤÑĮ
nÐ¡Ð¾Ð¾Ð± ÑīÐµÐ½Ð¸Ñı
ĠÐ¶Ð¸ Ð»ÑĮÐµ
Ð²Ð¸ Ð¶ÐµÐ½Ð¸Ðµ
t v
Ð± Ð¾Ð»Ðµ
Ðĵ Ð°
Ð¾ÑĤÐ¸ Ð¼
67 9
ĠÐ¿ÐµÑĢÐµ Ð¿
ĠÐĴ Ð¾Ð¹
ÐĻ Ð¾ÑĢ
ĠÐ³Ð°ÑĢÐ°Ð½ ÑĤÐ¸Ð¸
ĠÑģÐ»Ð¾Ð² Ð½Ð¾
ĠÐ´ÐµÐ¿ Ð¾Ð·Ð¸ÑĤ
ĠÐ½Ð°Ð´ Ð»ÐµÐ¶Ð°
ĠÐ¡Ð¸ Ð±Ð¸
ĠÐ° Ð»Ð¸
ĠÑģ ÑĢÐµÐ´Ðµ
Ñĩ ÐºÐ¾Ð¹
ÑĢÐ°Ð½ ÑĤ
nÐĸ Ð¸
ĠÐ²Ð¾Ð· Ð³Ð»Ð°
ĠÐ¿ÑĢÐ¸Ð½Ð°Ð´Ð»ÐµÐ¶Ð° ÑĤ
33 9
ĠÐĲ ÑĢÐµÐ½Ð´Ð°
ĠÐºÐ¾Ð½ Ð´ÐµÐ½ÑģÐ°
Ġ1 998
ĠÑģÐ¸ Ð½Ð¸Ð¹
Ð¼Ñĭ ÐºÐ°
ĠÑģÐµÐºÑĥ Ð½
ĠÐ¼Ð°Ð³Ð°Ð·Ð¸ Ð½Ñĭ
ĠÑĢÐ°ÑģÐ¿ÑĢÐ¾ÑģÑĤ ÑĢÐ°Ð½ÐµÐ½Ð¸Ðµ
97 05
ĠÐ¼ÐµÐ´Ð¸ÑĨÐ¸ Ð½Ñĭ
ĠÑģÑĢÐµÐ´ ÑģÑĤÐ²Ð¾Ð¼
ĠÐ¼Ð¸Ð»Ð»Ð¸ Ð¾Ð½Ð°
ĠÐºÑĢÑĭ ÑĪÐ¸
nÐĳ ÐµÐ»
Ðº Ð¾ÑģÑĤ
ĠÐ§Ð° ÑīÐµ
ĠÐ¿ÑĢÐ¸ Ñħ
ma p
Ð²ÑģÐµ Ð³Ð´Ð°
ĠÐ¿Ð¾Ñĩ ÑĤÐ°
ĠÑĥ ÑĤÐ¸Ð»Ð¸
ĠÐ¿Ð¾Ð¿Ð° Ð´Ð°
Ðł Ð¤
ĠÑģÐ¼Ð¾ÑĤ ÑĢÐ¸
ĠÐ¿ÑĢÐ°Ð²Ð¸Ð»Ð° Ð¼
ĠÑģÑĭÑĢÑĮ Ñı
C W
ĠÐ±Ð»Ð°Ð³Ð¾Ð´Ð°ÑĢ Ð½Ð¾ÑģÑĤÑĮ
Ð¼Ð¾ Ð½Ð¸Ð¸
BA F
ĠÐ°Ð²ÑĤ Ð¾Ð±Ñĥ
ĠÐ°ÑĢÑħÐ¸ÑĤÐµ ÐºÑĤÑĥÑĢ
ĠÐ¿Ð¾Ð½Ñı ÑĤÐ¸Ñı
ĠÐ»ÐµÐ½ ÑĤÑĭ
ĠÑĢÐ°ÑģÑģÐºÐ°Ð·Ð° Ð»Ð°
ĠÐ²ÑĢÑĥ ÑĩÐ½ÑĥÑİ
ĠÐ±Ð»Ð°Ð³Ð¾ Ñĥ
v ol
Ð´ Ð¾Ð²Ð°ÑĤÑĮ
ĠÑģÐ¾ÑĨÑģÐµÑĤ ÑıÑħ
9997 5306
ĠÐ¸ÑĤ Ð¾Ð³Ð¸
ĠÐŁ Ð¾ÑģÐºÐ¾Ð»ÑĮÐºÑĥ
ĠÐ¿ÑĢÐ¾Ð±Ð»ÐµÐ¼ Ð¾Ð¹
n ÑĢÐ°Ð·
ĠÐļ ÑĥÐ¿
ost i
ÑĢÐµ ÑĤÑĭ
97 63
ĠÑĢÐ°Ð· Ð²ÐµÑĢ
ĠÐ´Ð¸Ð°Ð³Ð½Ð¾ÑģÑĤÐ¸ ÐºÐ°
ĠÐ¿Ñĭ Ð»Ð¸
ĠÐ°Ð¿ Ð¿ÐµÑĤÐ¸
ĠÐ¥Ð¾ÑĢÐ¾ ÑĪÐ¾
ĠÐ½Ð°Ð¿ÑĢÐ°Ð² Ð»Ñı
ĠÑĢÐ°Ð¹Ð¾Ð½ Ð½ÑĭÐ¹
ĠÐ¼Ð°Ð»ÐµÐ½ÑĮ ÐºÐ¸Ðµ
87 45
ĠÐºÐ° Ð»Ð¾ÑĢÐ¸
nÐŁÑĢÐ¾Ñģ Ð¼Ð¾ÑĤÑĢÐ¾Ð²
ĠÑħ Ð¾Ðº
um b
ĠÐŁÑĥ ÑĪÐºÐ¸
Ð³ÑĢÐ° ÑĨÐ¸Ð¸
ĠÐº Ð¾Ð¶Ðµ
ĠÐºÐ¾Ð¼Ð¼ÐµÐ½ÑĤÐ° ÑĢÐ¸Ñı
998 08
ĠÑĢÐ°Ð¹ Ð¾Ð½Ð
ĠÐ¾ÑĢÐ³Ð° Ð½Ð°Ð¼Ð¸
ĠÐĴÐ»Ð°Ð´Ð¸ Ð²Ð¾ÑģÑĤ
20 03
ĠÐºÐ°ÑĢ ÑĤÐ¾Ð¹
ĠÐ·Ð¾Ð» Ð¾ÑĤÐ¾
E P
ĠÐ½Ð°ÑģÑĤ ÑĢÐ¾ÐµÐº
ĠÑĪÐºÐ¾Ð»ÑĮ Ð½Ð¸ÐºÐ¾Ð²
ĠÑĨÐµ Ð»Ð¾ÑģÑĤ
ÑĩÐ° Ð¼Ð¸
ĠÐ½Ð°ÑĩÐ° Ð»Ð¾Ð¼
ÐºÑĤ Ð¾ÑĢÐ¸Ñı
ĠL a
ĠÑĤÐ¾Ñĩ ÐºÑĥ
996 75
ĠÐ¿ÑĢÐ¾Ð² Ð¾Ð»
ĠÐ»Ðµ Ð¶Ð¸ÑĤ
ĠÑĤÑĢ ÑĳÑħ
nÐł Ñĭ
ĠÑģÐºÐ»Ð° Ð´Ð°
ĠÐĴ Ð·
ĠÐ¼Ð½Ð¾Ð³ Ð¾Ð¼
807 6
B X
Ð¼Ð¸ÑĤÑĢÐ¸ Ð¹
an o
nRe ad
ĠÐºÐ¸ Ð»
ĠÐ¸Ð½ÑĤÐµÑĢÐµÑģ Ð½ÑĭÑħ
ĠÐ¼Ð¾Ð±Ð¸ Ð»ÑĮÐ½Ð¾Ð³Ð¾
ĠÐŁÑĢÐ°Ð²Ð¸ ÑĤÐµÐ»ÑĮÑģÑĤÐ²Ð¾
nÐ´ Ð»Ñı
Ð¸ Ð¤
R X
ĠÐ½Ð°Ð·Ð½Ð° ÑĩÐµÐ½Ð¸Ðµ
ud i
k u
N W
ĠÑĪ Ð½Ñĥ
ĠÑĤÑĢÐ°Ð½ÑģÐ¿Ð¾ÑĢÑĤ Ð½Ð¾Ð³Ð¾
ĠÐ´Ðµ Ñı
ĠÐĶÐ¾Ð± Ð°Ð²
ĠÐł ÐĲÐĿ
ĠÐľÐ° ÑĤÐµÑĢÐ¸Ð°Ð»
ĠÐŁÑĢ Ð¾Ð´Ñĥ
ĠÐĺ ÑĢ
ÑĤÐ¸Ð½ Ð³Ð¸
ĠÐ½Ð¾Ð² Ð¾ÑģÑĤÑĮ
ĠÐ´Ð¾ÑģÑĤÑĥÐ¿ Ð½Ð¾
6 93
ĠÐ¿ÐµÑĢÑģÐ¾Ð½Ð° Ð»
99 11
ĠÐ¿ÑĢÐ¾ ÑĩÐ¸ÑĤÐ°ÑĤÑĮ
ĠÐ£Ð½Ð¸Ð²ÐµÑĢ ÑģÐ¸ÑĤ
ĠÐ¡ Ð¾Ñģ
B BF
ĠÑĦÐ¾ÑĢ ÑĥÐ¼Ñĭ
nÐ¢ Ð¾Ð¿
ĠÑĩÑĢÐµÐ·Ð²ÑĭÑĩÐ°Ð¹ Ð½Ð¾
ĠÑĥÑģÑĤÐ°Ð½Ð°Ð²Ð»Ð¸ Ð²Ð°ÑĤÑĮ
DF A
ĠÐĶÐ°Ð½ Ð½ÑĭÐ¹
ĠÐºÐ° ÑĪ
998 03
ÐŁ Ðµ
ĠÐ¿ÑĢÐ¸ Ð½Ñĥ
ÑĢÐµÑģ ÑģÐ¸Ð¸
ĠÐ¿Ð¾Ð´Ð³Ð¾ÑĤÐ¾Ð² Ð¸ÑĤÑĮ
ĠÐ³Ð¾ÑģÑĥÐ´Ð°ÑĢ ÑģÑĤÐ²
ĠÐĴÑģÐµ Ð³Ð¾
ĠÑĤÐ° ÑĢÐ¸
ĠÐ´Ð¸Ð°Ð¼ÐµÑĤ ÑĢ
ĠÑĢÐµ ÑĪÐ°ÑĤÑĮ
n Ð¿ÑĢ
ĠÐ¿Ð¾ÑħÑĥÐ´ ÐµÐ½Ð¸Ñı
ĠÑĤÑı Ð¶
ĠÐ³ÐµÑĢ Ð¾Ñı
ĠÐĽ ÐµÐ²
J G
ÑĤÐµÐ»ÑĮ ÑģÑĤÐ²Ðµ
ĠÐºÑĢÐ¾Ð²Ð° ÑĤÐ¸
ĠC asino
Ð»Ð¾Ð² ÑģÐº
ĠÐ¾ÑģÐ½Ð¾Ð² Ñĥ
Ð°Ð½ ÑĤ
Ð±ÐµÑĢ Ð³
ĠÑįÐ»ÐµÐºÑĤÑĢÐ¾Ð½ Ð½ÑĭÐ¹
Ġc an
ĠÑĢÐ°Ð· Ð²ÐµÐ´
20 74
ĠÐ¸Ð·Ð±ÑĢÐ°Ð½ Ð½Ð¾Ðµ
Ġ Ð»ÐµÐ¹
ĠÐĶÐ¶ ÐµÐ¹
ĠÐ²Ñĭ ÐµÐ·Ð´
ĠÐ³Ð¾Ð´ Ð¾Ð¼
Ð¾Ð½ Ð¾Ðº
ĠÐĶ Ðķ
D L
nÐ ©
ÑĨÐµÐ² Ð¾Ð¹
Ð»ÑıÐµÐ¼ Ð¾Ð¹
Z X
ĠÐ²Ð¿ÐµÑĩÐ°ÑĤ Ð»ÐµÐ½Ð¸Ðµ
Ñĩ Ð½Ðµ
ÑīÐ¸ ÑĤÑĮ
ĠÐ¾ÑĤ Ð¿ÑĥÑģÐº
nÐķ Ð²
Ð¼Ð°Ð³Ð°Ð·Ð¸ Ð½Ð°
ÑİÑīÐµÐ¹ ÑģÑı
ĠÐ± ÑĢÐ°ÑĤ
ĠÐŁÑĢÐµ Ð¶Ð´Ðµ
28 0
ĠÐ² ÑĢÐµÐ´Ð°
ĠÐ¿Ð¾Ð´ ÑĢÑĥ
T M
ĠÐºÑĢÐ°ÑģÐ¸ Ð²ÑĭÐµ
nÐĹÐ°ÑĢÐµÐ³Ð¸ÑģÑĤÑĢÐ¸ ÑĢÐ¾Ð²Ð°Ð½
97 14
ĠÐ½Ð° Ð¶Ð°
nÐ¡Ð°Ð¼ ÑĭÐµ
ĠÑĨÐ¸ ÐºÐ»Ð°
ÑĬÐµ Ð´Ð¸Ð½
ĠÐ¿Ð¾ÑĤ Ð¾ÐºÐ°
ĠÐ± Ð»ÑİÐ´
ĠÐ·Ð½Ð° Ð»
Ð²Ð¾Ð· Ð¼Ð¾Ð¶
ĠÐ±ÐµÐ»ÑĮ Ðµ
ĠÑģÑĤÑĢÐ°Ñħ Ð¾Ð²Ð°Ð½Ð¸Ñı
Ð¼ Ð°Ð½Ð¾Ð²
[ /
ĠÐ¡ÑĤÐ° ÑĢ
ÑģÐ¸Ð»Ð¸ Ð¹
ÐµÐº ÑģÐ¸
ĠÐ¿ÑĢÐµÐ´Ð¾ÑģÑĤÐ°Ð² Ð»ÐµÐ½Ð¸Ð¸
ĠÐ¿Ð¾ÑģÑĤ ÑĢÐ¾Ð¸ÑĤÑĮ
Z Q
Ð¾Ðº Ð¾Ð²
ĠÑģÐ¾ ÑĨÐ¸
ÑīÐµ ÑģÑĤÐ²ÐµÐ½Ð½Ð¾
ĠÑĥÑģÑĤ ÑĢÐ°Ð½ÐµÐ½Ð¸Ñı
ĠÐ¸Ð·Ñĥ ÑĩÐµÐ½Ð¸Ñı
ĠÑĤÐµ ÑģÑĤÐ°
ĠÐ¿ÑĢÐ¸Ð½ÑĨÐ¸ Ð¿Ðµ
ĠÐĽÐµÐ½Ð¸ Ð½Ð°
ĠÐĶ ÐµÐ»Ð°
D V
ny j
ĠÐŀÐ´ Ð½Ð°
ĠÐ¼ÑĥÐ·Ñĭ ÐºÐ¸
ĠÐ¼Ð° ÐºÐ¸Ñı
Ð»ÐµÐ½ Ð½Ð¾Ð¼Ñĥ
!! !!
ĠÐ¸Ð½ÑĤÐµÑĢÐµ ÑģÑĭ
nÐļ ÑĢÐ°
ĠÑģÐµÑĢÐ²Ð¸ ÑģÐ¾Ð²
ÐłÐŀ ÐĴ
ÑĦÐ¾ÑĢÐ¼Ð¸ ÑĤÑĮ
ĠÐ¿ÑĢÐ¾Ñĩ Ð½Ð¾ÑģÑĤÑĮ
nÐ¡Ð¿Ðµ ÑĨÐ¸Ð°Ð»Ð¸
} \
ĠÐ²Ðµ ÑĩÐµ
ĠÑĢÐµ Ð³
ĠB e
ĠÐ²Ð»Ð°Ð´ÐµÐ»ÑĮ ÑĨÐ°
ĠÐĹÐ°Ð¿ ÑĩÐ°ÑģÑĤÐ¸
96 55
ĠÑģÐ¸ÑģÑĤÐµÐ¼ Ð°ÑĤÐ¸
nÐĿÐµÐº Ð¾ÑĤÐ¾ÑĢÑĭÐµ
ĠÐĺ Ð´Ðµ
ĠÐ¿ÐµÑĢÐµÐ´Ð° ÑĩÑĥ
ĠÐ¼Ð½Ð¾Ð³Ð¸ Ð¼
ĠÐ£ Ð³
Ð¼Ð° ÑĢÐ°
ĠÐ²Ñĭ Ð¿Ð°
ĠÐ¿ÑĢÐµ Ð¼Ð¸Ð¸
nÐ¢Ðµ Ð»Ðµ
ĠÐ¿Ð¾Ð´ ÑĩÐ¸
04 0
ĠIn stagram
ÑĪÐ¸ ÑĤÐµÑģÑĮ
on line
ĠÐĿÐ° ÑģÑĤÐ¾Ñı
nÐĿÐ°Ð»Ð¸ ÑĩÐ¸Ðµ
ÐĺÐĳ ÐĶÐĶ
f er
Ð´ÐµÑĢ Ð¾Ð²
ĠÑģÐ»ÑĥÑĩÐ°Ð¹ Ð½Ð¾
ĠÑĦÐ¾ÑĤÐ¾Ð³ÑĢÐ°ÑĦÐ¸ Ð¹
Ð¶ÑĥÑĤ ÑģÑı
J X
A CE
out ube
ĠÐĳÐ¾Ð»ÑĮ ÑĪÐ°Ñı
ĠÐ´ÑĢÐµÐ²ÐµÑģÐ¸ Ð½Ñĭ
Ñģ Ð¾Ð²Ð°Ñı
ĠÐļ Ð¾Ð²
nÐĺÑģÐ¿ Ð¾Ð»ÑĮÐ·Ñĥ
ĠÐ¿ÑĢÐ¸ ÑĪÐµÐ»
ÐµÐ¼ ÑĮ
ÑħÐ¸ Ñı
ĠÐºÐ°ÑĤÐ° ÑģÑĤÑĢÐ¾
ĠÑĥÐ»Ð¸ ÑĨÑĭ
ĠM ore
ĠÑģÐ¾ÑĤ Ð½Ð¸
ka ya
nÐĶ Ð¾Ð¼
ĠÐł Ð¾Ð·
ĠÑįÐ¼Ð¾ ÑĨÐ¸Ð¸
ĠÐ³ÑĢÐ° Ð¼
nÐĲ Ð½Ð´
ĠÐ¿ÑĢÐµÐ´ÑģÑĤÐ°Ð² Ð»ÐµÐ½Ð°
53 2
ĠÐ´Ð° ÐµÑĤÐµ
Ðº Ð½ÑĥÑĤÑĮ
996 23
o z
ĠÐ¡Ð¿ Ð¾ÑĢ
ĠÐ¿ÑĢÐµÐ´Ð¾ÑĤÐ²ÑĢÐ° ÑĤÐ¸ÑĤÑĮ
ĠÐ¼Ð°ÑģÑģ Ð¾Ð²Ð¾Ð¹
Ð³ ÑĥÑĤ
ĠÑģÑĦÐµÑĢ Ñĭ
Ð²Ð¾Ð½Ð¸ ÑĤÐµ
988 35
Ð·Ð¾Ð²Ð° Ñı
n Ð¿Ð¾Ð»
ĠÐ±ÐµÑĢÐµ Ð³Ñĥ
ĠÐ´Ð¸ ÑģÐºÐ¸
ĠÐ¿Ð°ÑĢ ÐºÐ¾Ð²
ĠÐ¿Ð° ÑģÐ¿Ð¾ÑĢÑĤÐ°
ĠÑģÐ²Ð¾Ð±Ð¾Ð´ Ð½Ð¾
ĠÐļÐ° ÑĤÑĥ
ĠÐ¾ÑĤ Ð½ÐµÑģÑĤÐ¸
Ġ en
ĠÑģÑĤÐµÐ½ ÐºÐ¸
ĠÑģÐ¾ÑĩÐµÑĤÐ° Ð½Ð¸Ðµ
Ðµ Ð»Ðµ
ĠÐ¯Ð¿Ð¾ Ð½Ð¸Ð¸
F X
ĠÐ¿ÑĢÐ¾ÑģÑĤ ÑĭÐµ
ĠÐ°ÑĢÐµÐ½ Ð´Ð°
ĠÐĲÑĢ ÑĤ
ĠÐ½Ð°Ð½ÐµÑģ ÐµÐ½Ð¸Ñı
998 48
Ð³Ð°Ð½ ÑĤ
ĠÐ»Ð¸ÑģÑĤÑĮ ÐµÐ²
ĠÐ±Ð»Ð°Ð³ Ð¾Ð¿ÑĢÐ¸ÑıÑĤ
ĠÐ¾ÑĤ ÑĢÐµÐ´Ð°
.\ "
ĠÐ¼Ð¾ Ñİ
nÐ¡ Ð²Ñı
ĠÐ¿ÑĢÐ¸ Ð¼ÐµÐ½Ð¸
ĠÐ¿Ð¾Ð» Ñİ
ĠÐ»Ð¸ÑĤ ÑĢÐ¾Ð²
ĠÐ¼Ð°Ñģ Ð»Ð¾Ð¼
ĠP R
Ġ ac
ĠÑĢÐ°ÑģÐ¿ÑĢÐ¾ÑģÑĤÑĢÐ° Ð½ÑıÐµÑĤÑģÑı
ĠÐ³ ÐµÐ»ÑĮ
ĠÐ¾Ð±ÑĬÐµÐ´Ð¸Ð½ ÐµÐ½Ð¸Ðµ
\" ).
i ber
ĠÑĨ ÐµÑĢÐµ
47 1
98 10
ĠÐłÑĥ ÐºÐ¾Ð²
ĠÐŀÑĤÐµÑĩÐµ ÑģÑĤÐ²ÐµÐ½Ð½Ð¾Ð¹
Ð³Ð¾Ñģ ÑĢ
ĠÐ¦ÐµÑĢ ÐºÐ²Ð¸
ÑĭÐ´Ñĥ ÑīÐ°Ñı
ĠÐ¾Ð³ÑĢÐ¾Ð¼ Ð½ÑĭÐ¹
ĠÐ¼Ð° Ð³Ð¸ÑģÑĤÑĢÐ°
ĠÐ²ÑĭÑģÑĤÑĥÐ¿Ð° ÐµÑĤ
ÑīÐµÐ½ Ð½Ð¾Ð³Ð¾
ĠÑģÑĤÐ°ÑĢ ÑĭÑħ
ÑĦ ÑĥÐ½ÐºÑĨÐ¸Ð¾Ð½Ð°Ð»ÑĮ
ĠÑĥ Ð´ÐµÑĢ
ĠÐ¸Ð½ÑĤÐµÑĢ ÑĮ
ĠÐ³Ð¾ÑĢ Ð¾Ð´Ñĥ
ĠÑĢÐ°ÑģÑģÑĤÐ¾Ñı Ð½Ð¸Ð¸
ĠÐ´Ð»Ð¸ Ð½Ð¾Ð¹
ĠÐĶ ÐµÐ¼
98 38
ĠÐ¾Ð´ Ð½Ð¸
Ġf rom
Ð¼ÐµÑĤ ÑĢÑĭ
ĠÑĪÐ°Ð½ Ñģ
Ð´ Ð½Ð¾Ð¹
ĠÐĴ Ð«
ĠÐ»Ð¸ Ð½Ð¸Ð¹
g a
ĠÐ½ÐµÑĦ ÑĤÐ¸
ĠÐ¸ÑģÐ¿Ð¾Ð» Ð½ÐµÐ½Ð¸Ð¸
ĠÐ¿ÑĢÐ°Ð²Ð¸ Ð»ÑĮÐ½ÑĭÐ¹
ĠÐ¿Ð¾ÑģÐµ ÑīÐµÐ½Ð¸Ñı
ĠÑĥ Ð½Ð¸
ĠÑīÐµ ÐºÐ¾Ð²Ð°Ñı
ĠÐ¸Ð·Ð¼ÐµÐ½ ÑıÑĤÑĮ
97 24
ĠÐ¿ÐµÑĢÐµ Ð³Ð¾ÑĢÐ¾Ð´
ĠÐĽ Ð°ÑĤ
nÐ¡ Ð¸Ð¼
ĠÑĢÐ°Ð·ÑĢÐ°Ð±Ð¾ÑĤ ÐºÐµ
ĠÑĢÐ°Ð· Ð³Ð¾Ð²Ð¾ÑĢ
Ð½Ñı Ñħ
ĠÑĢÐ°ÑģÑģÐ¼Ð¾ÑĤ ÑĢÐµÐ½Ð¸Ñı
ĠÐºÐ°ÑĩÐµ ÑģÑĤÐ²Ð¾Ð¼
Ð½Ñĥ Ð»Ð¸ÑģÑĮ
ĠÐ¿ÐµÑĢ Ð²Ð¸Ñĩ
Ð¾Ð·Ð° ÑīÐ¸
76 1
ĠÐ·Ð° ÑĢÑı
ÑģÑĭ Ð²Ð°ÑĤÑĮ
ĠÐ¶Ð¸ ÑĢ
996 96
ĠÐºÐ¾Ð¼Ð½Ð° ÑĤÐ°
996 26
Ð°Ð³Ð½Ð¾ÑģÑĤÐ¸ ÐºÐ°
ĠÐĿÐ° Ð¸Ð±Ð¾Ð»ÐµÐµ
97 22
ÑĪÐ¸ Ð²Ð°Ð½Ð¸Ñı
ĠÐ¿Ð¾ ÑĢÐ°Ð¶ÐµÐ½Ð¸Ñı
ĠÐ¿ÑĢÐµÐ´ ÑģÑĤÐ¾Ð¸ÑĤ
ĠÐ½Ð°Ð¸ Ð»ÑĥÑĩ
ĠÑĥÐ²Ð° Ð¶ÐµÐ½Ð¸ÐµÐ¼
ĠÐ²ÑĭÑģ Ð¾ÑĤÑĭ
ĠÑįÑĦÑĦÐµÐº ÑĤÐ°
Ġ1 941
ĠÑĥÐºÐ°Ð·Ð° Ð½Ð¸ÐµÐ¼
ÐļÐ°Ð»Ð¸ Ð½Ð¸
F K
ĠÐ½Ð°ÑģÑĤ ÑĢÐ¾Ð¸ÑĤÑĮ
ÑģÑĤÐ¸ Ð»ÑĮ
ĠÐºÐ»Ð°ÑģÑģ Ð¾Ð²
ĠÐ¿ÑĢÐµÐ´ÑĥÑģÐ¼Ð¾ÑĤÑĢÐµÐ½ Ð
ĠÐ¿ÑĢÐµÐ´ÑĥÑģÐ¼Ð¾ÑĤÑĢÐµÐ½Ð ¾
9990 5
ĠÐŃ Ð»ÑĮ
M A
Ñĳ Ð¼Ð°
ĠÐ¿Ð¾ÐºÐ°Ð·Ð° Ð»Ð¸
ĠÐ½ÐµÐ¾Ð±ÑħÐ¾Ð´Ð¸ Ð¼Ñĭ
ĠM azda
ĠÐ·Ð° Ð»Ð¾Ð¶
ĠÐŀ ÑĢÐµÐ½Ð±ÑĥÑĢÐ³
ĠÑģÐ¸Ð¼Ð² Ð¾Ð»Ð¸
ÐŁ Ð¡
ĠÑĦ Ð¾Ð»ÑĮ
ÐŁ Ð¸
ĠÐŁÐµÑĤ ÑĢ
ĠÑģÐµ Ð»Ð¾
ĠÑģÑĤÐµÐ½ Ñĥ
ĠÐ¢ ÑĢÐ¾Ð¸
ĠÐ´ÑĥÐ¼Ð° ÑĤÑĮ
2 18
ĠÐ¿ÐµÑĢÐµ ÐºÐ»ÑİÑĩÐ°
ĠÑıÑĢ ÐºÐ¾
9994 7
9995 34
ĠÐĵ Ð¾Ð´
ĠÑĥÐ¿Ð°ÐºÐ¾Ð² ÐºÐµ
ĠÐ·Ð°Ð´ Ð½ÐµÐ¹
ÑĢÐ°Ð±Ð¾ÑĤ Ð°ÑĤÑĮ
Ð¾ÑĤÑĮ ÑģÑı
ĠÐ° ÑĤÐ¾Ð¼
ÑīÐ¸ ÐºÐ¾Ð¼
ĠÐ» ÑĳÐ³
ĠÐ¿Ð¾Ð» Ð
ĠÑĢÐ°Ð±Ð¾ ÑĩÐ¸Ðµ
ÑĤÐ¾ Ð½Ð¸
. ;
ĠÐ¿Ð¾Ð»Ð ¾
ĠÑģÐµ ÑĢÐ¸Ð¹
ĠÑĤÑĢÐ°Ð½Ñģ ÑĦÐ¾ÑĢÐ¼Ð°
Ð³Ð¸ Ð±Ð°
ÑĢÐµ ÐºÑĤ
nÐľ Ð°ÐºÑģÐ¸
2 94
ĠÑĤÐµÐ¼Ð¿ÐµÑĢÐ°ÑĤÑĥ ÑĢÑĥ
ĠÑĥ Ð³Ð¾Ð´Ð½Ð¾
Ð¾ÑĢ Ð¾Ð´Ð°
ĠÐ¿Ð¾ÑģÑĤÑĢÐ° Ð´Ð°Ð²
ĠÐ½ÐµÑĦ ÑĤÐµ
ÑĥÐ± Ñĭ
ĠÑģÑĩÐ¸ÑĤÐ° ÑİÑĤÑģÑı
ĠÑĢÐ°Ð·Ð¼Ðµ ÑīÐµÐ½Ð¸Ðµ
ĠÐ´Ð»Ð¸ Ð½Ñĭ
ĠÐ¿ÑĢÐ¾Ðµ Ð·Ð´
la b
ĠÐ¿Ð¾ÑģÑĤÑĥÐ¿ Ð»ÐµÐ½Ð¸Ñı
ĠÐ³Ð¾ÑĢ Ñĭ
ÑĤÐµÐ»Ñı Ñħ
n Ð¸Ð·
ĠÐ´Ð¾Ð³Ð¾Ð²Ð¾ÑĢ Ñĥ
3 16
z e
ÐµÐ² ÑģÐº
nÐĿÐ° Ð²Ð¸Ð³Ð°ÑĨÐ¸Ñı
80 87
ÐºÑĤ ÑıÐ±ÑĢÑĮ
ĠÐ¾Ð±ÐµÑģÐ¿Ðµ ÑĩÐµÐ½Ð¸Ñİ
ĠÐ¾Ð±Ñĭ ÑĩÐ½Ð¾Ð¹
ĠÑģÐ° Ð»Ð¾Ð½Ð°
ĠÐ³Ð°ÑĢÐ°Ð½ ÑĤÐ¸Ñı
Ðł ÐµÑģÐ¿ÑĥÐ±Ð»Ð¸ÐºÐ°
998 777
ĠÐ¾ÑĢÐ³Ð°Ð½Ð¸Ð·Ð° ÑĨÐ¸ÐµÐ¹
ÐºÑĥ Ð¼ÑĥÐ»Ñı
97 54
ĠÐ½Ð¾Ð² ÑĭÐ¼Ð¸
ĠÐ·Ð°ÑīÐ¸ ÑĤÐ¸ÑĤÑĮ
ĠÐ¾Ð± Ð¼Ð°Ð½
r t
ĠÐ²Ð¸ Ð½Ð°
ĠÑĥÑħÐ¾Ð´ Ñĥ
ĠÐ¾Ð³ ÑĥÑĢ
ĠÑħÐ¾Ð·ÑıÐ¹ ÑģÑĤÐ²Ð¾
98 08
ĠÐºÐ¾Ð¼Ð¼ÐµÐ½ÑĤÐ°ÑĢÐ¸ ÑıÑħ
v ent
ÐµÐ½ ÑģÐºÐ¸Ð¹
ĠÐ½Ð° Ð±Ð¾ÑĢÑĭ
Ð·Ð¸ ÑĢÑĥÐµÑĤ
ĠÐºÐ°ÑĢ ÑĤÑĢÐ¸
Ðł Ñĥ
ĠÑĢ ÑĤÐ°
997 74
ĠÐ¡ Ð°Ð»
ÑĪ Ð½Ð¸ÐºÐ¸
ÑĩÐ¸ Ð²Ð°ÐµÑĤ
c s
ĠÐ²ÑĭÑģÐ¾Ðº Ð
ĠÐ²ÑĭÑģÐ¾ÐºÐ ¾
Ġ 99
ĠÐ½Ð¾Ð² Ð¾ÑĢÐ¾Ð¶Ð´ÐµÐ½
ÑĩÐ¸ ÑĤÐµÐ»ÑĮ
96 86
ĠÑĤÑĥÑĢÐ¸ Ð·Ð¼Ð°
ÑģÐ¸ Ð¼
ĠÑĤ Ð²Ð¾
9994 5
ĠÐ¥ÑĢÐ¸ ÑģÑĤÐ°
ĠÐ¿Ð»Ð°Ð½Ð¸ ÑĢÑĥÐµÑĤÑģÑı
ĠÐ¿ÑĢÐ¸Ð±Ð»Ð¸ Ð·Ð¸
nÐĺ Ñİ
ĠÐ¸Ð½ ÑģÐ¿ÐµÐº
ĠÐ¿Ð¾Ð¿ÑĢÐ¾Ð± ÑĥÐ¹ÑĤÐµ
ĠÐ¿Ð¾Ð² Ð¾ÑĢÐ¾ÑĤ
ĠÑģÐ²Ð° Ð´ÐµÐ±
ÑĢÐ°Ð»ÑĮ ÑģÐº
23 0
op yright
Ð²Ð¸ Ð¼
ĠÐł Ð£
ĠÑĤÐµÑħÐ½Ð¸ ÑĩÐµÑģÐºÐ¾Ð¹
o e
al se
ĠÐºÐ¾Ð½ÑģÑĤÑĢÑĥ ÐºÑĨÐ¸Ñİ
ĠÐ¿Ð¾Ð´ Ð»Ðµ
96 05
nÐľÐ° ÑĤÐµÑĢÐ¸Ð°Ð»Ñĭ
ĠÐĶ Ð¾Ð±Ð°Ð²Ð¸ÑĤÑĮ
ĠÐ¿Ð¾Ð»Ð¸ Ð¼ÐµÑĢ
0000 0
ĠÐ¿ÑĢÐµÐ´Ð½Ð°Ð·Ð½Ð° ÑĩÐµÐ½Ñĭ
â ĪĴ
ĠÐ»ÑİÐ±Ð¸ ÑĤÐµÐ»ÐµÐ¹
ĠÐ´Ð° Ñİ
ĠÐ¿ÑĢÐ¾ ÑħÐ¾Ð´Ð¸ÑĤÑĮ
ĠÐ¸Ð¿ Ð¾ÑĤÐµ
ĠÑħÐ¸ÑĢÑĥÑĢ Ð³Ð¸
P ro
ĠÐ¿Ð¾ÐºÐ° Ð·ÑĭÐ²Ð°
ĠÐ¿Ð»Ð°ÑģÑĤÐ¸ Ðº
ĠÐ¸ÑģÑĤÐ¾Ñĩ Ð½Ð¸ÐºÐ°
ĠÐµÑģÑĤÐµ ÑģÑĤÐ²ÐµÐ½Ð½Ð¾
Ðļ Ð°Ð¼
ĠÑĢÐ°ÑģÑģÑĭ Ð»ÐºÑĥ
ĠÐºÐ¸ÑĢÐ¿Ð¸ ÑĩÐ°
ĠÑĢÐµ Ð»Ðµ
ĠÐ¿ÑĢÐ¸Ð½Ð°Ð´Ð»Ðµ Ð¶Ð½Ð¾ÑģÑĤÐ¸
ÑĪ Ð°Ð²
Ð¾Ð´Ð¸ ÑĤÑĮ
ĠÐ¶Ð¸ Ð»Ð¾Ð³Ð¾
ÐĽ Ð®
ĠÐ²ÐºÐ»ÑİÑĩÐ° ÑİÑĤ
ĠÐ°Ðº ÑĤÑĭ
ÐĶ Ð«
N Q
ĠÐº ÑģÑĤÐ°ÑĤÐ¸
ĠÐ¿Ð¾Ñħ Ð¾Ð¶
Ðº Ð¼
id th
Ñĳ Ð´
nÐŁÐ¾Ð»Ñĥ ÑĩÐ¸ÑĤÑĮ
ĠÐ·Ð½Ð° ÐºÐ¾Ð²
nÐĲ ÐºÑĨÐ¸Ð¸
ĠÐ¾Ð± ÐµÐ´
ĠÑĢÐ°Ñģ ÑģÐµ
ĠÐ½ÐµÐ´Ðµ Ð»Ðµ
ĠÐ¼Ð°Ñģ Ð»Ñı
ĠÐ²Ð¾ÑģÐ¿Ð° Ð»Ð¸
ĠÐ¿Ð°ÑĢ Ð»Ð°
ĠÑģÐ¾Ð¿ ÐµÑĢ
ĠÐºÐ°ÑĢÑĤÐ¾ ÑĦÐµ
Ð»Ð¸ Ñģ
âĢĶâĢĶ âĢĶâĢĶ
nÐŁÐµÑĢ Ð²ÑĭÐ¹
ĠÐ²ÑĭÐ±Ð¾ÑĢ Ð¾Ð¼
ĠÐ³ Ð¾ÑĤÐ¾Ð²Ð°
ÑĨÐµ Ð´Ñĥ
ĠÐ¾Ð±ÑĢÐ° ÑīÐ°Ð¹ÑĤÐµÑģÑĮ
nÐ¡Ð¾Ð² ÐµÑĤ
ĠÑħÐ¾Ð´Ð¸ ÑĤÑĮ
ĠÐ²ÐµÑī ÑĮ
Ð²Ñĥ Ñħ
ĠÐ´Ð¸ ÑģÐºÐ¾Ð¼
ĠÐ¤ Ðµ
ĠÐ±Ð»Ñİ Ð´Ð¾
ĠÐ¿Ð¾Ð¿ÑĥÐ»ÑıÑĢ Ð½Ð¾ÑģÑĤÑĮ
Ġs ystem
v est
ĠÐ¾ÑĢÐ³Ð°Ð½Ð¸Ð·Ð° ÑĨÐ¸Ñİ
M P
nÐ¦ ÐµÐ½Ñĭ
Ðļ ÑĢÑĭÐ¼
Ð±Ð¸ Ð¹
ĠÐŁÑĢÐ¾Ð´Ð° Ð¶Ð°
ĠÑĤÐµ Ð¾ÑĢÐµ
ÐºÑĥÐ»ÑĮ ÑĤÐµÑĤ
H E
is a
ĠÐ±ÑĢÐ¸ Ð³Ð°
Ġ6 2
ĠÐ§Ð° ÑģÑĤÐ¾
Ð¼Ð¾ Ð½Ð¸Ñı
li st
nÐłÐµ ÑĪÐµÐ½Ð¸Ðµ
nÐł Ð¸Ñģ
Ð´ Ð²Ð¸Ð³Ð°
BC A
ĠÑį Ð²Ð°ÐºÑĥ
DE F
ĠÐ³ Ð°Ð¼
¾ Ð°
Ñģ ÑĥÐ½
ĠÐ°Ð»Ð»ÐµÑĢ Ð³Ð¸
ĠÐ²ÐµÐ´ ÐµÐ½Ð¸Ñı
Ð¾Ð±Ð¸ Ð»ÑĮÐ½Ð°Ñı
ĠÐ¿ Ð¾Ð±Ñĭ
ĠÐ¿ÑĢÐ¾ÑĨÐµÐ´Ñĥ ÑĢ
ĠÑģ Ð¾ÑĢÑĤÐ¸
ĠÑĤ Ð²
Ġne w
996 65
ĠÐ¿ÑĢÐµÐ´Ð¿ÑĢÐ¸Ñı ÑĤÐ¸Ðµ
nÐĵÐ° ÑĢÐ°Ð½ÑĤÐ¸Ñı
Ġon line
ĠÐ½Ðµ Ð²Ðµ
ĠÐ² ÑĢÐµÐ´Ð¸
ĠÑģÑĥÐ¼ ÐºÐ¸
996 77
oy ota
H A
ĠÐĳ ÑĥÑĢ
Ð¿Ð° ÑĤÑĮ
ĠÑĢ Ð¾Ðº
ĠÐ¼Ð° Ð³Ð¸
996 94
ĠÐ±Ñĭ ÑģÑĤÑĢÑĭ
998 53
Ñİ Ð¼
ĠÐ²Ð¾Ð·Ð¼Ð¾Ð¶ Ð½Ð¾ÑģÑĤÑĮÑİ
ÑģÑĤ Ð¾Ð³Ð¾
E le
ĠÐ¾Ð¿ÐµÑĢÐ° ÑĤÐ¾ÑĢÐ°
Ð½Ð¾ ÑģÑı
ĠÐº Ð¾ÑĢÐµ
ÑĪ Ð¾Ð²
ĠÐ½Ð°Ð´ Ð¿Ð¸ÑģÑĮ
ĠÑĢÐ°Ð±Ð¾ÑĤ Ð½Ð¸ÐºÐ°
ÑĢÐµÑģ ÑĥÑĢ
Ð ¾Ð°
nÐŁ Ð¾Ñĩ
nÐ¢ Ð¾ÑĢ
ĠYou Tube
ĠÐ¼ÐµÑħÐ°Ð½Ð¸ Ð·Ð¼Ð°
4 37
ĠÑĤÐµÐº ÑģÑĤÑĥ
ÑĦÐ¸ ÑĢ
8339 155
Ð¾ÑĢ Ð½ÑĭÐµ
Ð¼Ðµ ÑģÑĤÐ¸
ĠÐ¸Ð³ ÑĢÐ¾ÐºÐ°
ĠÐ´ ÑĢÐ°Ð¹
ĠÐ¿ÑĢÐ¾ÑĤ ÐµÐºÐ°
g er
ĠÑĤÑĢÐµÐ±Ð¾Ð²Ð°Ð½Ð¸Ñı Ð¼Ð¸
ÐºÑĤ Ð¾Ð¼
lo bal
Ġw ill
996 1
Ð°ÑĤÐ¸ ÑĩÐµÑģÐºÐ¸Ðµ
ord er
ĠÐŁ Ð°Ð½
d is
ig h
ĠÐ½Ð°Ð¿Ð¾Ð¼Ð¸Ð½Ð° ÐµÑĤ
s ch
Ð¾Ð ĳ
ĠÐľÐµ Ð±ÐµÐ»ÑĮ
994 75
nÐŀ Ð±Ñĥ
nÐ¡Ð¸ ÑģÑĤÐµÐ¼Ð°
}} \
Ð²Ð° ÑĤ
Ð¾Ð ľ
Ð¾Ð»Ð¸ Ð¹
ÑīÐ¸ ÑĤÐµ
\" ;
ĠP RO
Ð¾Ð» Ð¾Ð³Ð¾Ð²
nÐŁÑĢ Ð¾ÐµÐºÑĤ
ĠÐļ Ð£
ĠÐ¿Ð¾Ñħ Ð¾Ð¶Ðµ
ĠÐ½ÐµÐ´ Ð¾ÑģÑĤÑĥÐ¿
ĠÐºÐ¾Ð½ ÑĨÐµÑĢÑĤ
Ġcom ment
ĠÑĤÑĢÑĥÐ± Ð¾Ð¿ÑĢÐ¾Ð²
ÑĢÐ¾Ð¸Ñģ ÑĪÐµÑģÑĤÐ²Ð¸Ñı
ÑĢÐ¾Ð² Ð
nÐĹ Ð´ÐµÑģÑĮ
996 37
ĠÐ»Ð° Ð³ÐµÑĢ
ÑĢÐ¾Ð²Ð ¾
nÐļÐ°ÑĤÐµÐ³Ð¾ÑĢÐ¸ Ð¸
75 0
95 53
Â» ;\
ÑĤÐ¸ Ð»Ð°
ĠÐ¿ÑĢÐ¸Ð¼ÐµÐ½ ÐµÐ½Ð¸Ð¸
ĠÐ¾Ð»Ð¸ Ð¼Ð¿Ð¸
Ð¤ ÐŀÐł
ĠÐ±Ð¾ÑĢ Ð¾ÑĤÑĮÑģÑı
Ñĭ ÑĤÐºÐ¸
ĠÑĥÐ¿ Ð¾Ð¼Ñı
nÐ¡ÑĤÑĢÐ° Ð½Ð°
ĠÑħ ÑĢÐ¾Ð¼
ĠÐ¿ÑĢÐ¸ÑģÑĥÑĤ ÑģÑĤÐ²ÑĥÐµÑĤ
ĠÑĤÑĢÐ°Ð½ÑģÐ¿Ð¾ÑĢÑĤ Ð½Ð¾Ð¹
ĠÐ²ÑĢÐ°Ñĩ Ð¾Ð¼
ĠÑĤÐ°Ð± Ð»ÐµÑĤ
ĠÐºÐ°ÑĩÐµ ÑģÑĤÐ²ÐµÐ½Ð½ÑĭÐµ
Ð¾Ð Ĳ
F W
Ð² Ð»ÐµÐ½Ð¸Ðµ
ĠÐºÐ¾Ð¼Ð¿Ð»ÐµÐº ÑĤÐµ
ĠÐ¼ÐµÐ½Ñı ÐµÑĤÑģÑı
Ð¼Ð¸ Ð½Ñĭ
ite m
ĠÑĥÐ¿Ð¾ÑĤÑĢÐµÐ± Ð»ÑıÑĤÑĮ
ĠÐ¿ÑĢÐ¾Ð¸Ð·Ð²Ð¾Ð´Ð¸ ÑĤÑĮ
Ð¾ÑĢÐµ ÐºÑģ
ÑĩÐ¸ ÐºÐ°Ð¼Ð¸
ĠÐļÐ°Ð·Ð°Ñħ ÑģÑĤÐ°Ð½Ð°
ĠÐ±Ð»Ð¾Ðº Ð¾Ð²
Ð¼Ð¸ ÑĢÐ¾Ð²Ð°Ð½Ð¸Ðµ
ÑĥÑĩ ÐµÐ½Ð¸Ñİ
Ð·Ð° Ð¼
Ð»Ð¸ Ð·Ð°ÑĨÐ¸Ñı
6 15
l l
ĠÐ½Ð°ÑģÑĤ Ð¾Ð¹
ĠÐ¿Ð¾Ð»ÑĥÑĩÐ° ÐµÑĤÐµ
Ð¾ÑĤ Ð½ÑĭÐµ
Ġ 777
ourn al
ĠÐ¾ÑĤÐ¿Ñĥ ÑģÐºÐ°
Ðł Ð¾ÑģÑĤÐ¾Ð²
ĠÑĥ ÑĩÐµÑģÑĤÑĮ
nÐĴÐ¾Ð· ÑĢÐ°ÑģÑĤ
Ġ1 999
Ñį Ð»Ðµ
ĠÑģÐ¾Ð²ÑĢÐµÐ¼ÐµÐ½ Ð½ÑĭÐ¹
ĠÐ³ÑĢÐ° Ð¼Ð¼
ĠÐ°Ð»ÐºÐ¾Ð³ Ð¾Ð»Ñı
ĠÐŁÑĢ Ð¾ÐµÐºÑĤ
ĠÐ½Ð¾ÑĢ Ð¼
ĠÐŁ ÑĢÑı
996 46
ĠÑĢÐ°Ð· Ð²Ð¾Ð´
ĠÐĶ Ð¾ÑĢ
Ð²Ð°ÐµÐ¼ Ð¾Ð³Ð¾
ĠÐ²Ð¾Ð· ÑĮ
Z T
ĠÐºÐ° ÑģÑĤ
ĠÐºÐ¾Ð»ÑĮ ÑĨÐ°
S G
ĠÑĢÑĥ ÑĩÐ½Ð¾Ð¹
ĠÐ¾ÑģÑĤÐ° Ð½Ð°Ð²Ð»Ð¸
nÐĴ Ð»Ð°Ð´Ð¸Ð¼Ð¸ÑĢ
ĠÑģÐ½Ðµ Ð³
nÐĲÑĢ ÑħÐ¸
ĠÐ¸ÑģÐ¿Ð¾Ð» Ð½ÐµÐ½Ð¸Ðµ
B G
ĠÑĦÑĥÐ½Ðº ÑĨÐ¸Ð¾Ð½Ð°
ĠÐ£ Ð´
nÐ¡ Ð¿ÐµÑĨ
ÐºÑĥ Ð¿Ð¸ÑĤÑĮ
ĠÑĥÐºÐ°Ð·Ð°Ð½ Ð½ÑĭÐ¹
ĠÐŀÑĤ Ð´Ðµ
ĠÐ¿Ð¾ÐºÐ°Ð·Ð° Ð½Ð¸Ñı
ĠÑģÐ¾ÑĤÑĢÑĥÐ´Ð½Ð¸ ÑĩÐµÑģÑĤÐ²Ð¾
ĠÑĢÐµÐ³Ð¸ Ð¾Ð½
ĠÑĥÐ²Ð¸ Ð´Ð¸ÑĤÐµ
Ð²Ð° Ð½Ð¾Ð²
ĠÐ¿Ð¾ ÑĩÐµÐº
ĠÑĤ ÑĥÐ¼
. ).\
ĠÑģÐ¾Ñħ ÑĢÐ°Ð½ÐµÐ½Ð¸Ñı
ĠÑĢÐ°ÑģÑģÐ¼Ð¾ÑĤ ÑĢÐ¸Ð¼
ÐºÐ° Ð½Ð°Ð»
ĠÑĢÐ°Ð±Ð¾ÑĤÐ° ÐµÐ¼
Ð¾Ð½ Ð³
nÐļÐ° Ð¶Ð´ÑĭÐ¹
>< \\/
ÑģÑģ ÐµÐ½
ĠÑģÐ¸ÑģÑĤÐµÐ¼Ð° Ñħ
âĢĶ \
nF acebook
a ir
Ðĳ Ðµ
Ð±Ð°Ð½ ÐºÐ°
ÑĩÐ¸ Ð²Ð°Ð½Ð¸Ñı
Ð½Ð¸ Ð»Ð¾ÑģÑĮ
ĠÐ²Ð¸ Ð´Ð¸ÑĤÐµ
ĠÐ¸Ð½ÑĤÐµÑĢ Ð½ÐµÑĤÐ°
ĠÐ²Ð¾ÑģÑģÑĤÐ°Ð½Ð¾Ð² Ð»ÐµÐ½Ð¸Ðµ
96 96
ĠÐļ Ð»Ð°ÑģÑģÐ¸
e ed
Ð¸ ÑĩÐ°
1 98
Ð¾Ñĩ ÐºÐ°Ð¼Ð¸
ĠÐ½Ð°Ð¿ ÑĢÐ°Ð²Ð¸
Ð¿ Ð¾ÑĢÑĤÐ°
ĠÑĢÐµÑĪÐ¸ Ð»Ð°
Ñĥ ÐµÐ¼
ĠÐ¾Ð±Ð½Ð°ÑĢÑĥÐ¶Ð¸ Ð»Ð¸
ĠÐ¸Ð·Ð²ÐµÑģÑĤ Ð½ÑĭÐ¹
m k
ĠÐ½Ð° Ð²ÑģÐµÐ³Ð´Ð°
ĠÐ¿Ð¾ ÑĪÐ°
Ð¸ Ð¿Ðµ
Ġ ar
Ð·Ð¸ Ð½Ð³
Ð´ÐµÐ¿ Ð¾Ð·Ð¸ÑĤ
ĠÑĥÐ±ÐµÐ´Ð¸ ÑĤÑĮÑģÑı
996 16
n ÑĦ
ĠÐ¡Ð²ÐµÑĤ Ð»Ð°Ð½Ð°
Ñģ Ð½Ð¾Ðµ
ĠÐ´Ð¾Ð¼Ð° Ñħ
ÑĢÑĥÐ¿ Ð¿Ñĭ
ĠÐ²Ð¾ÑģÐ¿ Ð¾Ð¼Ð¸Ð½Ð°
ut ion
ĠÐ²Ð»Ð¸Ñı Ð½Ð¸Ñı
ĠÑĢÐ°Ñģ ÑģÐ°
nÐ¢Ðµ Ð³Ð¸
ĠÐ²Ð¿ Ð»Ð¾ÑĤ
98 98
nÐŁÐ¾ ÑįÑĤÐ¾Ð¼Ñĥ
ĠÐ¼Ð¸Ð½Ñĥ ÑĤÑĥ
amp ion
ĠÐ¿ÑĢÐ¸ Ð´ÐµÑĤ
ĠÑĥÐ½Ð¸ÐºÐ° Ð»ÑĮÐ½ÑĭÐ¹
Ñĩ Ð
ĠÑģÐ¸ Ð½ÑĤÐµÑĤÐ¸
997 08
B V
ĠÐ»Ðµ Ð²Ð¾Ð¹
B T
ĠÐ¼Ð°Ð»ÑĮ ÑĩÐ¸ÐºÐ¾Ð²
Ð½ Ð´ÐµÐºÑģ
ĠÑĢÐ°Ð´ Ð¾ÑģÑĤÑĮ
........ ........
à ¤
ĠÐ¾ÑĤÐº ÑĢÐ¾
ĠM er
ÐµÑħÐ° Ð»Ð¸
ÑĩÐ¸Ð² Ð¾ÑģÑĤÑĮ
Ð± ÑĢÐ¾Ñģ
ĠÐ¿Ð¾ÑĤÑĢÐµÐ± Ð½Ð¾ÑģÑĤÐ¸
ĠÐ²Ð¾Ð· Ð¾Ð±Ð½Ð¾Ð²
Ð± Ð¾ÐºÑģ
ĠÐ½Ð°Ð´ Ñĳ
Ð°Ð½ Ñĥ
ĠÐ³ ÑĥÐ¼Ð°
ĠÑįÐº Ð·
Ð°ÑĢ Ð¼
ĠÐ·Ð° Ð³Ð¾ÑĢÐ¾Ð´
ĠÐ½ÐµÑģÐºÐ¾Ð»ÑĮ ÐºÐ¸Ð¼Ð¸
ÑĢÐ¾Ð² ÑĭÐ¹
ĠÐºÐ¾Ð½ÑĦÐµÑĢÐµÐ½ ÑĨÐ¸Ñı
nÐľÑĥ Ð¶
ĠÐ¾ÑĦÐ¸ ÑģÐ°
ĠÐºÐ° ÑĤ
ÑĤÐµ Ð·Ð¸
68 9
Ð¼Ð° ÑĤÐ¸ÐºÐ°
ĠÐºÐ¸ÑĪÐµ ÑĩÐ½Ð¸ÐºÐ°
ĠÐ´Ð¸ ÑģÐºÐ¾Ð²
ĠÐ§ ÐµÑĢÐµ
Ð¢ Ðł
ĠÐ¢Ðµ Ð»ÐµÑĦÐ¾Ð½
Ð»ÐµÐ½Ð¸Ñı Ð¼Ð¸
ĠÑĦ Ñĥ
ĠÐ½ÐµÑģ Ð»Ð¾Ð¶
Ð³ÑĢÐ° Ð´
Ġ le
ĠÐĵ ÑĢÐ°Ð½
996 55
Ð¾Ð´Ð¸ Ð½
ÑĩÐ ¾
Ð± Ñİ
998 63
ÑĦÐ¾ÑĢ ÑĤ
? Â»
ĠÐ¿Ð¾ÑģÑĤÐ¾ÑıÐ½ Ð½Ð¾Ð³Ð¾
N X
ĠÑĢÐµÐ°Ð»ÑĮ Ð½Ð¾ÑģÑĤÐ¸
ĠÐ¡ÐµÐ²ÐµÑĢ Ð
ĠÐ¡ÐµÐ²ÐµÑĢÐ ¾
ĠC ar
ĠÐ¿Ð¸ Ðº
ÑĨÐ¸Ð¾Ð½ Ð½ÑĭÐ¼Ð¸
ĠÐ¾ÑĢÐ³Ð°Ð½Ð¸Ð·Ð¾Ð²Ð° ÑĤÑĮ
Ġ6 7
ĠÐ¿Ñĥ ÑģÑĤÑĭ
Ð¸Ð¼ÐµÐ½ Ð¾Ð²Ð°Ð½Ð¸Ðµ
ĠÑĥÑģÑĤÐ°Ð½Ð¾Ð² ÐºÑĥ
ĠÐ£ Ð»Ð¸ÑĨÐ°
ÐµÑĤ ÑĢÐ°
998 58
ĠÐ¿ÑĢÐ¾ ÑıÐ²Ð»ÐµÐ½Ð¸Ñı
ĠÐ±Ð° Ð½Ð¸
ĠB BCode
ÐºÐ° ÑĤÑĮ
m m
ĠÐ¿Ð¾Ð»Ð¸ÑĤÐ¸ ÐºÐµ
ĠÐĵ ÐĺÐĳÐĶÐĶ
ĠP h
nÐŁÑĢ Ð¾Ð´Ñĥ
ĠÐ±Ñĭ ÑģÑĤÑĢÑĭÐ¹
996 24
ĠÐ² ÐºÐ»Ð°Ð´Ñĭ
ĠÐ¿ ÑĢÑĥ
ĠÐ¾Ð¿ÐµÑĢÐ° ÑĤÐ¸Ð²Ð½Ð¾
Ð³Ð° Ð·
ĠÐ¾Ð±Ñĭ ÑĩÐ½ÑĭÐ¹
ÑģÐ»ÑĥÐ¶ Ð±Ð°
ĠÐĴÐµÐ»Ð¸ÐºÐ¾Ð±ÑĢÐ¸ÑĤÐ° Ð½Ð¸Ð¸
E DE
ÑĨÐ¸Ð¾Ð½ Ð½Ð¾Ð¼
ÑĦ ÐµÑĤ
Ð¿Ð° Ð¼Ð¸
Â ł
ĠÐ´Ð¾ÑĢÐ¾Ð¶ Ð½Ð¾Ð³Ð¾
Ð¸ ÑĨ
ĠÑĦÑĢÑĥ ÐºÑĤÑĭ
ĠÐ²ÑĭÐ¿Ð¾Ð» Ð½ÑıÐµÑĤ
R Q
ĠÑģÐ±Ð¾ÑĢ ÐºÐ¸
C lass
ĠÐº Ð¾Ð¾ÑĢÐ´Ð¸Ð½Ð°
ĠÐľ Ð¤
ĠÐķ ÑĢ
ĠÐŁÑĥ ÑģÑĤÑĮ
ĠÐ¿ÑĢÐµÐ´Ð½Ð°Ð·Ð½Ð°ÑĩÐµÐ½ Ð°
ĠÐºÐ¸Ñģ Ð»Ð¾ÑĤÐ°
ĠÐ´ÐµÐ²Ñĥ ÑĪÐµÐº
ĠÐ±Ð¸Ð±Ð»Ð¸ Ð¾ÑĤ
Ð´Ðµ ÑĪÑĮ
ĠÐĵ Ð¾Ð½
ÑĢÐµ Ðº
ĠÐ³Ð¾Ð»Ð¾Ð² Ð¾Ð¹
ÑģÑĤÐ²ÐµÐ½ Ð½Ð¾ÑģÑĤÐ¸
ĠÐ²Ñĭ Ð½ÐµÑģ
ĠÐ± ÑĢÐ°Ðº
99 994
ĠÐ¡ Ð²Ð¾Ð±
ĠÑĦÐ¸ÑĢ Ð¼ÐµÐ½
nÐĲÐ² ÑĤÐ¾
nÐĲÐº ÑģÐµÑģÑģÑĥÐ°ÑĢÑĭ
ĠÐ²Ñĭ Ð´ÐµÐ»Ð¸
ĠÐĺÑĤÐ° Ð»Ð¸Ñı
ÑģÑĤ Ð½Ð¾Ð¹
ĠÐ°Ð´Ð¼Ð¸Ð½Ð¸ÑģÑĤÑĢÐ° ÑĨÐ¸Ñı
ÑĮ ÑİÑĤ
nÐ¡ Ð¾ÑħÑĢÐ°Ð½Ð¸ÑĤÑĮ
ĠÑįÐºÐ¾Ð½Ð¾Ð¼Ð¸ ÑĩÐµÑģÐºÐ¾Ð¹
ĠÐ± Ð¾Ð¸
ĠÐ¿Ð¾Ð»Ð¸ ÑĨÐµÐ¹
ÑĢÐ¾Ð¸ Ð´
ĠÐ¿Ð¾ÑģÐ¾Ð±Ð¸ Ñı
ĠÐ½Ð°Ð³ ÑĢÐµ
ĠÐ´Ð°Ð½ Ð½Ð°Ñı
# #
Ð³ Ð´Ðµ
ĠÐ°Ð½ÑĤÐ¸ Ð±Ð¸Ð¾ÑĤÐ¸
ĠÑĥÐºÐ°Ð·Ð° Ð½Ñĭ
ĠÑĢÐ°Ð· Ð½Ð¸ÑĨÐ°
ĠÐ½Ð° ÑĢÑı
ĠÐ¿ÑĢÐµÐ´ Ð¾ÑģÑĤÐ°Ð²Ð¸
ĠÑģÐº Ð¾Ð»ÑĮ
ĠÐºÐ»Ð¸ Ð¼Ð°
ÑģÑĤÑĢÐ¾Ð¹ ÐºÐ¸
ĠÐ·Ð°ÑīÐ¸ ÑĤ
ĠÐ·Ð°ÐºÐ»Ñİ ÑĩÐµÐ½Ð¸Ðµ
Ð¾Ð»ÑĮÐ·Ñĥ Ð¹ÑĤÐµÑģÑĮ
ĠÐ²ÑĭÑħÐ¾Ð´ Ð½ÑĭÐµ
ĠÐºÐ°ÑĤÐ°Ð»Ð¾Ð³ Ðµ
ĠÐ¾Ð±ÑīÐµ Ð¾Ð±ÑĢÐ°Ð·Ð¾Ð²Ð°
ĠÐ³ Ð°Ð¹
99977 34
ĠÐ¾Ð²Ð¾Ñī ÐµÐ¹
ĠÐºÐ¾Ð¼ Ð¼ÐµÐ½ÑĤÐ¸
ĠÐ¿Ð¾Ð± ÐµÐ´Ñĭ
ĠÐ¶ÐµÐ»Ð° Ð½Ð¸Ñİ
Ġ 83
ĠO ne
ĠÐ® Ð»Ð¸Ñı
ĠÐ¿ÐµÑĢÐµ ÑħÐ¾Ð´Ð°
ĠÑģÐ»ÐµÐ´Ñĥ ÑİÑīÐµÐ¹
Ð³ Ð¾Ð²Ð°ÑĢÐ¸
ĠÑģÐ²Ð¾Ð¹ ÑģÑĤÐ²
Ð»ÑĮ Ð¿
nÐ¦ Ð¸
Ðľ ÐµÑĤ
ĠÐ¿ÑĢÐµÐ¸Ð¼Ñĥ ÑīÐµÑģÑĤÐ²
96 56
ÑĨ Ñĸ
ĠÐ¿Ð¾Ð¿ ÑĢÐ°Ð²
65 9
Ð¾ÑĢ Ð³Ð°Ð½Ð¸
Ð»ÑĮ Ð³Ð°
ĠÑģÐ¾ÑģÑĤÐ°Ð²Ð»Ñı ÑİÑĤ
ĠÐ²Ñĭ Ð²ÐµÑģÑĤÐ¸
F G
ĠÐŀ Ñħ
9994 138
B W
F V
ÑģÐ¸ ÑĤÐµÐ»Ð¸
ĠÐ¿Ð¾ÑģÐµ Ð»ÐµÐ½Ð¸Ðµ
ĠÐ¿Ð»Ð¾ÑīÐ° Ð´ÐºÐ°
ĠÐ¾ÑģÐ²Ðµ ÑīÐµÐ½Ð¸Ðµ
ÑĤÑĢÐ¸ Ñı
998 68
Ñģ ÐµÐ½Ð¸Ñı
ÑĢÐ¸ Ñİ
ÑĪ Ð½Ð¸
ĠÐĳ Ð»Ð¾Ðº
ĠÑģÐ¾Ð±Ðµ ÑģÐµÐ´
ĠÐ¿ÑĢÐµÐ´ Ð¾ÑħÑĢÐ°
ĠÑĥÐºÐ°Ð·Ð° Ð½Ð½ÑĭÐµ
ĠÑģÐ½Ð° Ð±
62 13
R D
ĠÐ²Ð»Ð° Ð¶Ð½Ð¾ÑģÑĤÐ¸
ĠÐ¿Ð¾Ð² ÐµÐ´
S A
Ġ- ----
ĠÐ²Ð¾ÑģÐºÑĢÐµÑģ ÐµÐ½ÑĮÐµ
ĠÑį ÐºÐ¸
06 0
ĠÑĤÐµÐ¼ Ð½Ð¾
996 34
ĠÐ½ÐµÐ¿ Ð¾Ð´
ÐºÐ¾Ð¼Ð¼Ñĥ Ð½Ð¸ÐºÐ°
ĠÐ¼Ð°Ð»ÐµÐ½ÑĮ ÐºÐ¸Ð¹
ĠÐ¡ ÑĤÐµ
ĠÐ³Ð¾ÑĤÐ¾Ð² Ð¸ÑĤÑĮ
ĠÑģÐ¸Ð¼Ð² Ð¾Ð»Ð¾Ð²
Ð»Ñĥ Ð±Ð°
ĠÐ¿Ð¾Ð´Ð¿Ð¸ Ñģ
ĠÑĦÐ¸ Ð·
ĠÐ¿Ðµ ÑĩÐ°ÑĤ
Ð´Ðµ Ð»Ñĭ
996 36
996 93
ĠÐ¿Ð¾ÐºÑĢÑĭ ÑĤÐ¸ÐµÐ¼
ÑĩÐµÑĤ Ñĭ
995 64
P W
ĠÐºÐ¾Ð½ÑĤÐ° ÐºÑĤÐ°
96 94
ĠÑģÑĥÐ± ÑģÐ¸
ĠÐ´Ð»Ð¸ Ð½Ñĥ
F BF
ĠÐºÐ°Ð»Ð¾ÑĢÐ¸ Ð¹
ĠÐłÑĥÑģ ÑģÐºÐ¸Ð¹
Ð½ Ð¾Ð·Ð¸
ÐºÐ¾Ð² ÑģÐºÐ¾Ð³Ð¾
d et
ĠÐ²Ñĭ Ð¿Ðµ
ĠÐ²ÐµÐ»Ð¾Ñģ Ð¸Ð¿Ðµ
Ð½Ð¸ Ð½Ð¾
Ð¶Ð¸ Ð²Ð°Ð½Ð¸Ðµ
ĠÐ¿Ð¾Ð´ Ð·ÐµÐ¼
ĠÐ¿Ð¾Ð´Ð¾Ð¹ Ð´ÑĥÑĤ
Ð¾Ð²Ð° Ð½Ð½ÑĭÑħ
ĠÐ»Ðµ ÑĩÐ¸ÑĤÑĮ
ĠÐ´Ð¸ ÑģÐºÐ°
ĠÐ¿Ð¾Ð²Ñĭ ÑĪÐ°ÐµÑĤ
ĠÐĴÐ¡ Ð£
ĠÑĤÐµÑĢÐ°Ð¿Ð¸ Ñı
ĠÑģÐ¾Ð¾ÑĢÑĥ Ð¶ÐµÐ½Ð¸Ñı
ĠÑħÐ¾ÑĢÐ¾ ÑĪÐ°Ñı
ĠÐ±Ð¾Ð³Ð° ÑĤ
ĠÐ·Ð° Ð¶Ð¸
ĠÐŁÑĥ ÑĤÐ¸Ð½Ð°
ĠÐ³ Ð²Ð¾Ð·
ĠÑģÐ¾Ð¾ÑĢÑĥ Ð¶ÐµÐ½Ð¸Ð¹
ĠÐ·Ð°Ð¼ÐµÑģÑĤÐ¸ ÑĤÐµÐ»ÑĮ
ĠÐ³ Ð»Ñı
ĠÐ¿ÑĢÐ¾Ð²ÐµÑĢ ÐºÑĥ
ob ile
ÑģÐ¸ ÑĤÐµ
ĠÐ±Ð°Ð½ÐºÐ¾Ð² ÑģÐºÐ¾Ð¹
ÑĩÐµÐ½ Ð½ÑĭÐ¼
Ñĩ Ð½Ñĭ
ÑĤÐµ ÑħÐ½Ð¸ÐºÐ°
ĠÐ¿ÑĢÐ¾Ð¸Ð· Ð²ÐµÑģÑĤÐ¸
ĠÐ¾Ð±Ð»Ð¸ ÑĨÐ¾Ð²
ĠÐ·Ð°Ð´Ð° ÑĤÑĮ
ĠÑģ Ð¼Ñĭ
ĠÑģÑħÐµÐ¼ Ðµ
ĠÐłÐ° Ð±Ð¾
ĠÐ¿ÑĢÐ¾Ð´Ð° ÑĤÑĮ
ĠÐºÑĢÐµ Ð¿Ðµ
ĠÐ¿ÑĢÐ¾Ð²ÐµÑĢ ÐºÐ°
Ð²ÐµÑĤ Ð¸
ĠÐĹÐ°Ð¿Ð¾ÑĢÐ¾Ð¶ ÑĮÐµ
ĠÑģÐ² ÑıÑĤ
ĠÐ² ÑĤÐ¾ÑĢÐ°Ñı
ĠÐĽ Ð¾Ð½Ð´
ĠÐĿÐ¸ÐºÐ¾Ð»Ð° ÐµÐ²Ð¸Ñĩ
ĠÐºÐ¾Ð½ÐºÑĢÐµ ÑĤÐ½Ð¾Ð³Ð¾
ĠÑģ Ð¶Ð°
Ð¾Ðº Ð¾Ð»Ð°
ĠÑģÐ¾Ð·Ð´Ð° ÑİÑĤ
ĠÐĽÐµÐ½Ð¸ Ð½Ð³ÑĢÐ°Ð´ÑģÐºÐ¾Ð¹
925 85
ĠÐ¸Ð·Ñĥ ÑĩÐ¸ÑĤÑĮ
ÑĢÑĭ ÑĤÐ¸Ðµ
v ed
ĠÐ³ ÑĢÐ°Ð²Ð¸
95 95
Ð¾ÑģÑĤÐ¾Ñı Ð½Ð¸Ðµ
ĠÑģÐ¾ÑĩÐµÑĤÐ° Ð½Ð¸Ð¸
Ð¼Ð° ÑĢÑĤ
Ð·Ð¸ Ð°ÑĤ
ĠÐ±Ð»Ð¸Ð· ÐºÐ¸Ñħ
ĠÐ¦ ÐµÐ½Ñĭ
ĠÐ¶Ð´Ñĥ ÑĤ
r ent
Ð²Ð° ÑĤÐµÐ»ÑĮ
ĠÐ²ÑĭÑģ Ð¾ÑĤÑĥ
es k
nÐĶÐ¸ Ð·Ð°Ð¹Ð½
nÐŁÑĢ Ð¾Ð³ÑĢÐ°Ð¼Ð¼Ð°
ÑħÐ¾Ð´ Ð½ÑĭÐµ
4 90
ĠÐ¾Ñģ ÐµÐ½
ĠÐ½ÑĥÐ¶ Ð½ÑĭÐ¹
ĠÑģÑĥ Ð¼Ðµ
Ðº ÑĨÐ¸Ð¹
ĠÐ¿ÑĢÐ°Ð·Ð´ Ð½Ð¸ÐºÐ°
ĠÑĩ Ð»ÐµÐ½Ñĭ
55 8
ĠÐ¸Ð³ÑĢÐ¾Ð² Ð¾Ð³Ð¾
ĠÐºÐ¾ÑĢÑĢÑĥÐ¿ ÑĨÐ¸Ð¸
ÑİÑīÐ°Ñı ÑģÑı
Ð»ÐµÑĤÐ¸ Ñı
ĠÐ·Ð° Ð¼Ñĥ
97 44
Ð² Ð½ÑĭÐµ
ĠÐ¿ÑĢÐ¾Ð²Ð¾Ð´ ÑıÑĤÑģÑı
ĠÐ¶Ð¸ Ð²Ñĥ
ĠB lack
93 94
il la
ĠÑĥÐºÐ° Ð·ÑĭÐ²Ð°ÐµÑĤ
Ð²Ð¾ ÑĢÐµÑĨ
ĠE d
ĠÐ¾ÑĤÐºÑĢÑĭ ÑĤÐ¾Ð¼
nÐŁÑĢÐ¸ Ð¼ÐµÑĢ
nÐĳ Ð»Ð¾Ð³
ĠÐ¿ÑĢÐ¸ÑĢÐ¾Ð´ Ð½ÑĭÑħ
ĠÐ¾Ð±Ð¾Ð¸ Ñħ
ĠÑģ Ð¾ÑģÑĤÐ°Ð²Ð¸ÑĤÑĮ
ĠÐĿÐ¾Ð²Ð¾ÑģÐ¸Ð±Ð¸ÑĢ ÑģÐº
ĠÑģÐ¿Ð¸ ÑĢÑĤ
nÐŀÐ± ÑĢÐ°ÑĤÐ½Ð°Ñı
Ð¼ Ð¾Ð½Ð°Ð»ÑĮ
ĠÐ¼Ðµ ÑħÐ°
ĠÐ¿ÑĢ Ð¾Ð±Ð¸
ĠÐ¿ÑĢÐ¾ÐºÐ¾Ð½ ÑģÑĥÐ»ÑĮÑĤÐ¸
ĠÐŁÑĢÐ¸ Ð½
ĠÐ²Ð»Ð¾Ð¶ ÐµÐ½Ð¸Ð¹
ĠS EO
ĠÐºÐ¾ÑĤ ÑĤÐµ
984 9735
ĠÐ¸Ð· Ð»Ñĥ
ĠÑģÐ¸Ð»ÑĮ Ð½ÐµÐµ
ĠÐ½Ð°Ð»Ð¾Ð³Ð¾Ð² Ð¾Ð¹
ĠÐ¿ÑĢÐ¸ Ð²Ð¸
ĠÐ¢ ÑĢÐ°Ð½ÑģÐ¿Ð¾ÑĢÑĤ
nÐľ Ð°Ñģ
B BE
ĠÑģÐ¾ÑĨÐ¸Ð°Ð»ÑĮ Ð½ÑĭÐµ
96 66
ĠÐ·Ð°Ð²ÐµÑĢ ÑĪÐ¸
ĠÐ¿Ð¾Ñģ Ð¾Ð²ÐµÑĤ
ÑĢÐ¸ Ð»Ð°
ĠÑĢÐ¸ÑģÑĥÐ½ Ð¾Ðº
ĠÐ²Ð°Ð½ Ð½Ñĭ
ĠÐ´ Ð°Ð¼
ĠÐŁ Ð¾ÑĢÑĤ
ĠÐ´Ð¸Ð°Ð¼ÐµÑĤ ÑĢÐ¾Ð¼
ĠÐ°Ð²ÑĤÐ¾Ð¼Ð¾Ð±Ð¸ Ð»Ðµ
ĠÐ²ÐºÐ»ÑİÑĩÐ° ÑĤÑĮ
Ð°Ð¹ Ð»
ĠH y
74 9
ĠÐ´Ð°Ð½ Ð½ÑĥÑİ
ĠÐ¿ÑĥÑĤÐµÑĪÐµ ÑģÑĤÐ²Ð¸Ðµ
1 99
ĠÐ¿Ð¾ÑģÑĤ Ñĥ
ĠÐ¿ÑĢÐ¾ÑĦÐµÑģÑģÐ¸ Ð¸
Ð¾Ñĩ Ð½Ð¸ÐºÐ¸
ĠÐ¿Ð»Ð°ÑĤÑĦÐ¾ÑĢ Ð¼Ñĭ
ÑĤ ÐºÑĥ
ĠÐľ ÑĥÐ·
ÑģÑĤ Ð¾Ð»
ĠÐŃ ÑĢ
ĠÑģÑĤÑĢÑĥÐºÑĤÑĥ ÑĢÑĥ
8937 9793
ĠÐ²Ð¾Ð·Ð¼Ð¾Ð¶ Ð½Ð°
ĠÐ·Ð°ÑĤÑĢÐ° ÑĤÑĭ
nÐŁ Ð¾Ð¶Ð°Ð»ÑĥÐ¹ÑģÑĤÐ°
ĠÐ¿Ð¾ÑģÑĤÐ° ÑĢÐ°
65 8
ĠÐ³Ð¾Ð²Ð¾ÑĢÐ¸ Ð»Ð¸
ĠÐ¿ÑĢÐ¸ Ð¼ÐµÑĤ
Ġj Query
ĠÐ½Ð° Ð²Ð¸Ð³Ð°
nÐł ÑĥÐºÐ¾Ð²
ĠÑĤÑĢÐµÐ½ Ð°
ĠÐ´ÐµÑĢÐµÐ² ÑĮÑı
2 85
99966 04
ĠÐ²ÑĭÐ³Ð¾Ð´ Ð½Ð¾
ĠÑĥÑģÐ¿Ðµ Ñħ
Ð¼Ð¸ÑĤ ÑĢÐ¾Ð²
Ñ £
ĠÐŀ Ð±Ð¾ÑĢÑĥÐ´Ð¾Ð²Ð°Ð½Ð¸Ðµ
ĠÐ¶Ð¸ Ð»
ĠÑĤÐ°Ð»Ð°Ð½ ÑĤ
ĠÐĴÑĭ Ð¿ÑĥÑģÐº
ĠÐ¿ÐµÑĢÐµÐ´Ð° ÑĩÐ°
nÐ¡Ñĥ ÑīÐµÑģÑĤÐ²ÑĥÐµÑĤ
ĠÐ¼Ð°Ð¼ Ñĭ
ĠÐ²Ð¾Ð·Ð¼Ð¾Ð¶ Ð½Ð¾ÑģÑĤÑıÐ¼Ð¸
ĠÐ² Ð½Ð¸Ð·Ñĥ
96 37
4 45
ĠÐ¼ÐµÑĢÐ¾Ð¿ÑĢÐ¸Ñı ÑĤÐ¸Ðµ
94 87
ĠÐ·Ð°ÐºÑĢÑĭ ÑĤÑĮ
ĠÑĤÐµÐ»ÐµÐ²Ð¸ Ð·Ð¾ÑĢ
ÑĤÐ¸ Ð»ÑģÑı
ÑĦ Ð¾ÑĢÐ°
Ð¶Ð´ ÐµÐ½Ð¸Ð¹
ÑĤÐµÐ»ÑĮ ÑģÑĤÐ²Ñĥ
ĠÐ²Ð¾Ð´Ð¸ ÑĤÐµÐ»Ñı
ĠÐ¸Ð· Ð²Ð»Ðµ
ĠÐ¿Ð¾ÐºÑĥÐ¿Ð° ÑĤÐµÐ»Ñı
ĠÑģÑĤÐ°ÑĢ ÑĭÐµ
ĠÑģÐ¸ÑĤÑĥÐ° ÑĨÐ¸ÑıÑħ
ĠÐ¾Ð±Ð»Ð°ÑģÑĤ Ð½Ð¾Ð³Ð¾
ĠÐ¸Ð·Ð½Ð°ÑĩÐ° Ð»ÑĮÐ½Ð¾
Ð¦ ÐµÐ½ÑĤÑĢ
ĠÐĺÑģÐ¿Ð° Ð½Ð¸Ð¸
ĠÑĢÐ°Ð·ÑĢÐ°Ð±Ð¾ÑĤ Ð°Ð½
n Ð¸Ð½
ĠÐ¿Ð¾ÑĢ Ð¾Ð¹
ĠÐĵ Ð¾Ð²
Ð½Ð³ Ðµ
ĠÐºÐ¾Ð½ Ñģ
ĠÑģÐ½Ñı ÑĤÐ¸Ñı
ĠÐ½Ð¾ ÑĩÐ¸
ÑĢ Ð½Ð¾
4 04
ĠÑģÐ¾Ð´ÐµÑĢÐ¶Ð° Ð½Ð¸Ñİ
Ð¤ Ðł
ĠÐ¶Ð¸Ð²Ð¾ÑĤ Ð½Ð¾Ð³Ð¾
10 84
ĠÐ¼Ð°ÑĢÐºÐµÑĤ Ð¸Ð½
ĠÐ´Ð° ÑĳÑĤ
M X
ĠÐ·Ð° ÐµÐ¼
nÐĵ Ð¾Ð´
ĠÐ²Ð°Ð¶ Ð½ÑĥÑİ
F Q
ÑĢ ÑĤÐ°
ĠÐ¾ÑħÑĢÐ° Ð½Ðµ
ÑģÑĤÐ¸ ÑĤ
ÑģÐºÐ° Ð¶Ð¸ÑĤÐµ
nÐĴÐ¾Ð· Ð¼Ð¾Ð¶Ð½Ð¾
ĠÐ¸ Ð½ÑĭÐ¼
L T
Ð¢ Ð¾ÑĢ
3 07
ĠÐºÐ¾Ð¶ ÐµÐ¹
ĠÐ½Ð° Ð½ÐµÑģÑĤÐ¸
ĠÐĿ Ð°Ðº
ĠÐ¿ÑĢÐ¾ ÑħÐ¾Ð¶Ð´ÐµÐ½Ð¸Ñı
nÐ¡Ð¿ Ð¾ÑģÐ¾Ð±
M V
Ð´Ñĥ Ð¼
ÑĩÐ° ÑĤÑĭÐ¹
ĠÐ²Ñĭ ÑĪÐ»Ð°
ÑĤÐ¸ Ð½Ð¾Ð²
ĠÐļÐ°ÑĤÐ° Ð»Ð¾Ð³
ĠÐ¾Ð± ÑīÐµÐ½Ð¸Ðµ
ĠÐ¿Ð¾Ð»Ð¾ÑĤ Ð½Ð°
ĠÐ¼Ð¾Ñī Ð½Ð¾ÑģÑĤÑĮÑİ
Ð³ Ð»Ð¸
ĠÐ¾Ð±ÑīÐµ Ð´Ð¾ÑģÑĤÑĥÐ¿
ĠÐ´Ð¾Ð± ÑĢÐ°ÑĤÑĮÑģÑı
ĠÑĢÐ°ÑģÐ¿Ð¾Ð»Ð¾Ð¶ ÐµÐ½Ð¸Ðµ
5 75
ĠÐ¡ Ð¢
Ð¡ Ð¯
ÑģÑĤÐ¸ ÑĩÐµÑģÐºÐ°Ñı
nÐĿÐ° ÑģÑĤÐ¾Ñı
ĠÐľÐ° ÐºÐ°
ĠÐ¿Ðµ ÑģÐ¾Ðº
ĠÐ´Ð¾ÑģÑĤÐ¸ ÑĩÑĮ
ĠÑģÐ²ÐµÑĤÐ¸ Ð»ÑĮÐ½Ð¸ÐºÐ¸
ÑĦ ÑĦÐµÐºÑĤÐ¸Ð²
Ð¶ÐµÐ½ ÐµÑĢ
ĠÑģÐ¸Ð¼Ð¿ÑĤÐ¾Ð¼ Ð¾Ð²
ĠÐ½Ð°ÑģÐ»Ð° Ð¶Ð´Ð°
Ð½ Ð¾ÑĤ
ĠÐ·Ð°Ð¶Ð¸Ð³Ð° Ð½Ð¸Ñı
ĠÐ²Ð¸ Ð½Ð¾Ð²
ĠÐ¾ÑģÑĤÐ°Ð²Ð»Ñı ÑĤÑĮ
Ġ ag
Ð¸ÑĤÐ° Ð½Ð¸Ðµ
ĠÐ¸Ð¼Ðµ ÑİÑīÐ¸Ðµ
55 0
ĠÐ½Ð°Ñĥ ÑĩÐ¸ÑĤÑĮÑģÑı
Ð»Ñĥ ÑĢ
B Q
ĠÐ´Ð¾ÑģÑĤÐ¾Ð¸Ð½ ÑģÑĤÐ²Ð°
ÑģÑĤ Ð¾Ð½
ĠÐ·Ð°ÐºÐ¾Ð½ Ñĥ
ĠÐ¾ÑĪÐ¸Ð± ÐºÐ°
5 36
Ð¾ÑģÑĥ Ð´Ð°
97 88
ĠÐĵÐ¾ÑģÑĥÐ´Ð°ÑĢ ÑģÑĤÐ²ÐµÐ½Ð½ÑĭÐ¹
ÑĪÐ° Ð»Ð°
ĠÐ² ÑĥÐ»ÐºÐ°Ð½
ĠÐ¸Ð¼Ðµ Ð»
996 45
ĠÐ¾Ñģ Ð°Ð´
ĠÐ£ ÐĹÐĺ
ĠÑĥÑĩÐ° ÑīÐ¸ÑħÑģÑı
Ð»ÐµÑģ Ð¾Ð¾Ð±ÑĢÐ°Ð·
Ð°Ð» Ð»
997 43
Ð²Ð°ÑĢ Ð´ÐµÐ¹
ĠÐ²Ð°Ð¶ Ð½ÑĭÐ¹
ĠÐ² ÑĩÐµÑĢÐ°
ĠÐ²ÑĭÐ±Ð¾ÑĢ Ñĥ
ÑĦ Ð°Ð»ÑĮ
ÑĩÐ¸ ÐºÑĥ
Ð²Ð¸ Ð¸
ĠÑĥÑĩÐµÐ½ ÑĭÐµ
Ð½Ñĥ Ð½Ðµ
ÐŁ ÐĽ
ĠÑĢÐ°Ð· Ñĭ
ÑģÐ° Ð¹ÑĤÐµ
Ð²Ð° ÑİÑīÐµÐµ
ÑģÑĤ ÑĢÐ¸Ñı
ÑĢÑĥ ÐµÑĤÐµ
Ð³Ð¾ÑĢ Ð¾Ð´Ðµ
ĠÐ¼Ð½Ð¾Ð³ Ð¾Ð»ÐµÑĤ
ÑĢÑĥÐ¿ Ð¿
z on
ĠÐ·Ð°Ð³ÑĢÑĥÐ· ÐºÐ¸
nÐĹÐ° Ð´Ð°ÑĤÑĮ
996 90
ĠÐļÐ¾Ð½ÑģÑĤÐ°Ð½ ÑĤÐ¸Ð½
ĠÑĦÐ¾ÑĢÐ¼Ð° ÑĤ
to v
ĠÑįÐº ÑģÐºÐ»ÑİÐ·Ð¸Ð²
ĠÐ· Ð²Ð°Ð½Ð¸Ðµ
d s
Ð´ÐµÑĢ Ð»Ð°Ð½
ĠÑģ Ð°Ð½Ðº
ĠÑįÐ»ÐµÐºÑĤ ÑĢÐ¾Ð´
ĠÐ´Ð¾Ð¼Ð°ÑĪ Ð½ÐµÐ³Ð¾
998777 45
99 993
ĠÐ´Ðµ Ð·Ð¸Ð½
ĠÐ¿ÑĢÐ¾Ñĩ Ð½Ð¾ÑģÑĤÐ¸
ÑģÑĤÑĢÐ° Ñı
ĠÐºÐ°ÑĤÐµÐ³Ð¾ÑĢÐ¸ Ð¹
ĠÐºÐ°ÑĢ Ð´Ð¸
Ð¾ÑĢ Ð½ÑĭÐ¹
ĠÐ¿Ð¸ ÑīÑĥ
Ġweb site
ÐŁ Ð¾Ñģ
Ġ 84
ĠÑģÐ»Ð¾Ð²Ð° ÑĢÑĮ
ĠÑĥÐºÐ°Ð·Ð° Ð½Ð¸Ñı
ĠÑĦÐ¾ÑĢ Ð¼Ð¾Ð¹
Ñĥ ÑİÑĤÑģÑı
ĠÑģÐ°Ð¼ ÑĭÐ¼Ð¸
Ð´Ð° Ðº
ĠÑģÐ¾ÑĤÑĢÑĥÐ´ Ð½Ð¸Ðº
ĠÑĥÑģÑĤÐ°Ð½Ð¾Ð² Ð»ÐµÐ½Ð¾
ĠÐļÑĥÑĢ Ð³Ð°Ð½
97 73
K V
ĠÐ³ÑĢÐ°Ð¶Ð´Ð° Ð½Ðµ
ÑĪÐ° ÑĤ
ĠÐ¾ÐºÐ°Ð·Ð° Ð»Ð°ÑģÑĮ
ĠÐ²Ð°Ð¶ Ð½ÑĭÐ¼
ĠÐ´Ð¸Ð°Ð³ Ð½Ð¾Ð·
ĠÐ¿ÑĢÐ°Ð·Ð´ Ð½Ð¸ÐºÐ¸
ĠÐ¿Ð¾Ð³ ÑĢÑĥÐ·
ĠÑĤÑĢÐµÐ½Ð¸ ÑĢÐ¾Ð²ÐºÐ¸
ĠÐ²ÑģÐº Ð¾ÑĢÐµ
ĠÐ±Ð°Ð½Ðº ÑĢÐ¾ÑĤ
ĠÑģÐ¾Ð± ÑĢÐ°Ð½
ĠÑĥÑģÐ¸Ð»Ð¸ Ð¹
ĠÐ¿Ð¾Ð´ÐºÐ»Ñİ ÑĩÐµÐ½Ð¸Ðµ
ĠÐ²Ð½ÐµÑĪ Ð½ÐµÐ³Ð¾
8 19
ĠÐ¸Ð¼Ð¿ Ð¾ÑĢÑĤ
ĠÐ¼ÑĥÐ·Ðµ Ñı
nÐłÐµ ÑĨÐµÐ¿
ĠÐ¿Ð» Ð¾Ð´Ð°
ĠÐ¼Ð°Ð»Ñĭ ÑĪ
ĠÑģÐ°Ð» Ð¾Ð½
996 27
ĠÐ²Ð°Ðº ÑĨÐ¸Ð½Ð°
ÑĤÐ¸Ð² Ð½Ð¾Ð¼
ĠÑĢÑĥÑģ ÑģÐºÐ¸Ðµ
ĠÑĥÐ´Ð¾Ð± Ð½Ð¾Ðµ
ĠL i
ĠÐĹ Ð¸Ð¼
E Y
ĠÐ¿ Ð¾Ð
997 88
Ð±Ðµ ÑģÐ¿Ðµ
ĠÑģÐµÑĢÐ²Ð¸ ÑģÑĭ
Ð½ Ð½ÑĥÑİ
ĠÐķ Ð´Ð¸
Ð´ ÐµÐ½Ð°
ĠÐ³Ð¸Ð¿ ÑģÐ¾ÐºÐ°ÑĢ
ĠÐ¶Ð¸ Ð»ÑĮ
ĠÐ¿ÑĢÐ¸Ð½Ð°Ð´Ð»Ðµ Ð¶Ð¸ÑĤ
ĠÐ¸Ð´ ÑĳÑĤ
ĠÐ²Ð½ÐµÑĪ Ð½Ð¸Ñħ
ĠÐŁÐµÑĤ ÑĢÐ¾Ð²
ÑĤÐµÐ»ÑĮ Ð½Ð¾Ð¼Ñĥ
ĠÐ³Ð»Ð° Ð·Ð°Ñħ
ĠÐ¤ÐµÐ´ÐµÑĢÐ°Ð»ÑĮ Ð½ÑĭÐ¼
Â» ;
ÑĤ Ñİ
ĠÐ½Ð°ÑĢÐ¾Ð´ Ð½ÑĭÑħ
2 93
ĠÐ¾ÑĨÐµÐ½ ÐºÑĥ
ĠÑĢÐ°ÑģÑģ Ð»Ð°Ð±
ĠÑįÐºÑģÐ¿Ð»ÑĥÐ°ÑĤÐ° ÑĨÐ¸Ñİ
Ð½Ðµ Ð²Ð°
nÐŁ Ð¾ÐºÐ°
40 35
96 17
ĠÐ¿ÑĢÐµÐ±Ñĭ Ð²Ð°Ð½Ð¸Ñı
ĠÐ¸ÑģÐ¿Ð¾Ð»ÑĮÐ·Ð¾Ð²Ð° Ð½Ð¸Ñİ
Ð¶Ð¸ Ñħ
ĠÐ²ÑĭÑģÑĤÐ°Ð² ÐºÐ°
ĠÐ¿ÑĤÐ¸ ÑĨ
ÑĦ Ð¾Ð²Ð°
ĠÐºÐ°Ð¶Ð´ ÑĭÐµ
996 44
Ð¾Ð´ÐµÑĢ Ð¶Ð°
ĠÐºÐ°Ð±Ðµ Ð»Ñı
Ð³ÑĢÐ° Ð½Ð¸Ñĩ
ĠM an
ÐµÐ½ÑĤ ÑģÑĤÐ²Ð¾
ĠÐł ÐµÐ¹
a j
ĠÐ´ÐµÐ¹ÑģÑĤÐ²Ð¸ ÐµÐ¼
ĠÐ¿ÑĢÐ¸ Ð¾ÑģÑĤÐ°Ð½Ð¾Ð²
ÐĲ Ðļ
996 15
el p
998 38
ĠÑĤÑĢÐµÐ± Ð¾Ð²Ð°
ÑĥÐ½ Ð´
ĠÐľÐµ Ð¶Ð´Ñĥ
ĠÑĪÐºÐ° ÑĦÑĭ
ĠÐ½Ð°Ñģ Ð¾ÑģÐ°
Ð¼ÐµÑĩÐ° Ð½Ð¸Ðµ
ĠÐ¼ÐµÐ» ÐºÐ¸Ðµ
ĠÐ½Ð°Ð²ÐµÑĢ Ð½ÑıÐºÐ°
ĠÐºÐ¾Ð¼ÑĦÐ¾ÑĢ ÑĤÐ°
J S
ĠÑĢÐ¾ÑģÐº Ð¾ÑĪ
ĠÐ»Ð¸ Ð½Ð¸Ñİ
ĠÐ± Ð»Ð°Ð½
996 13
ĠÐ¿ÐµÑĢÐµ Ð²Ð¾Ð´Ð°
nÐļ Ð¾Ð½ÑĤÐ°ÐºÑĤ
Ð¼Ð° ÑĨÐµÐ²
ĠÐºÐ¾ÑĢ ÑĢÐ¾Ð·Ð¸
ĠÐ¿Ð¾ÑģÐ»ÐµÐ´ Ð½ÐµÐ¹
ĠÐ´Ñĭ Ð¼Ð¾
ĠÑģÑĩÐ°ÑģÑĤÑĮ Ðµ
ÑĪ ÐºÐ¾
ĠÐ½Ð° Ð²
el y
ĠÑĤÑıÐ¶Ðµ Ð»Ð¾
ĠÐľÑĥ Ð·ÑĭÐºÐ°
ĠÐłÐ¾ÑģÑģÐ¸ ÐµÐ¹
Ð¼Ð° Ð½Ñĭ
ĠÑĨÐµÐ½ÑĤ ÑĢÐ¾Ð²
ĠÑĥÑģÐ»Ñĥ Ð³Ð°Ð¼Ð¸
ĠÐ¸Ð½Ð´Ð¸Ð²Ð¸Ð´Ñĥ Ð°Ð»ÑĮÐ½Ð¾
ĠÐ¿ÑĢÐ°Ð²Ð¸ ÑĤÐµÐ»ÑĮÑģÑĤÐ²Ð¾
Ð½ Ð³Ð¸
É Ļ
ÑģÐ¿ ÑĢÐµÑģÑģ
ÐĶ Ð¾Ð¼
Ñİ ÑīÐµÐ³Ð¾ÑģÑı
ĠÐŁ ÐłÐķ
Ð» Ð»
ÑħÐ¾Ð´Ð¸ Ð»Ð¸
ĠÐ¸Ð½ÑĦÑĢÐ°ÑģÑĤÑĢÑĥ ÐºÑĤÑĥÑĢÑĭ
ĠÐ¿ÑĢÐµÐ´Ð¾ÑģÑĤÐ°Ð²Ð»Ñı ÑİÑĤÑģÑı
ĠÐĶ Ñį
ĠÑĢÐ¾Ð´ Ð¾Ð²
ĠÑģÐ¾Ð¾ÑĤÐ²ÐµÑĤ ÑģÑĤÐ²Ð¾Ð²Ð°ÑĤÑĮ
ĠÑĩÐ¸ÑĤÐ° ÑĤÐµÐ»ÐµÐ¹
996 17
ĠÑģÐ¾ÑĢÐµÐ² Ð½Ð¾Ð²Ð°
54 1
ĠÐ¸Ð½ Ð²ÐµÐ½ÑĤÐ°
ĠÐºÐ°Ð¿Ð¸ÑĤÐ° Ð»Ð°
nÐĿÐµ ÑģÐ¼Ð¾ÑĤÑĢÑı
ĠÑĦ Ð»Ð°
Ð¼Ð° Ð»Ð¸
ÐŁ Ð¾Ð»Ð¸
ĠÑĤÐµÑĢÑĢÐ¸ÑĤÐ¾ÑĢÐ¸ Ð¹
ĠÐĲÑĢ ÑħÐ¸Ð²
ÑĪÐ¸Ð² ÐºÐ°
ĠÐºÐ°Ð»ÐµÐ½ Ð´Ð°ÑĢ
9995 6
ĠÐ±Ð°ÑĤÐ° ÑĢÐµÐ¸
ĠÐĿÐĲ Ð¢Ðŀ
ĠÑħÑĢÐ° Ð½Ñı
v id
ÑĤÐ° Ð»Ð¸Ñı
nÐĺÐ½ ÑĦÐ¾ÑĢÐ¼Ð°
ĠÑı ÑģÐ½Ð¾
ĠÐĿÐ¸Ð¶ Ð½Ðµ
âĢ¦âĢ¦ âĢ¦âĢ¦
ĠÐŁÐµÑĢ ÑģÐ¾Ð½Ð°Ð»ÑĮ
ĠÐ·ÑĥÐ± Ñĭ
ĠÑĦÐµÐ´ÐµÑĢÐ°Ð»ÑĮ Ð½ÑĭÐ¹
996 18
ÑĢÐ¾Ð² ÐµÐ½ÑĮ
3 13
ĠÐ¡ Ð¾ÑİÐ·
? !
ĠÑģÐ¾ÑģÑĤÐ¾Ñı Ð»ÑģÑı
ĠÑģÐ¼ÑĭÑģ Ð»Ð°
ĠÑģÐ²Ð¾Ðµ Ð²ÑĢÐµÐ¼ÐµÐ½
Ð· Ð¾Ð¼
Ð¾ÑĢ Ð½Ð¾
2 84
ĠÐ·Ð° ÑģÐ»ÑĥÐ¶Ð¸
ĠÐ±Ð° ÐºÐ°
Ġ{ {
ĠÐ²Ð½Ðµ Ð·Ð°Ð¿
ĠÐ±ÑĢÐµÐ½ Ð´Ð¾Ð²
ĠÐ¾ÐºÐ°Ð·Ð° ÑĤÑĮÑģÑı
ĠÑģÐ¿Ð¾ÑĢ ÑĤÐ¸Ð²Ð½ÑĭÑħ
ĠÑģÐ¸Ð³ Ð½Ð°Ð»
ĠÐ·Ð°ÑĢÐµÐ³Ð¸ÑģÑĤÑĢÐ¸ ÑĢÐ¾Ð²Ð°Ð½Ñĭ
ĠÐ½Ð°ÑĩÐ° Ð»ÑĮ
ÑĩÐ¸ Ð»Ð°
ĠÐ·Ð½Ð° ÐºÐ¸
ĠÐ¸Ð¼Ðµ ÑİÑīÐ¸Ñħ
ĠÐ¸ÑģÐºÑĥÑģ ÑģÑĤÐ²
ÑĪ ÑĤÐµÐ¹
ĠÐ¿Ð¾Ð¿ ÐµÑĢÐµ
ĠÐ½Ð°Ð¸ Ð±Ð¾Ð»ÑĮ
Ð»ÑĮÑĤ ÑĦÐ¸Ð»ÑĮ
ÐĶ ÐµÑĤ
999 11
ĠÐ¾ÑĤÐ²Ðµ ÑĩÐ°
ĠÑģÐ¾Ð¾ÑĤÐ²ÐµÑĤÑģÑĤÐ²ÑĥÑİ ÑīÐµÐ³Ð¾
ĠÐ³ÑĢÑĥÐ½ ÑĤÐ°
ĠÐ½Ð°Ð²Ñĭ ÐºÐ¾Ð²
95 84
ĠÑĤÐµÐ»Ðµ Ð²Ð¸Ð´
ĠÑģÐ»Ð¾ ÐµÐ¼
ĠG e
ĠN et
ĠÑĤÐµ ÑģÑĤÐ¾Ð²
Ñĥ ÑĩÐ¸ÑĤÑĮ
Ġdo cument
Ð¾ÑĢÐ° Ð¼
ĠÐ½ÐµÑĦ ÑĤÑĮ
ĠÐ¼Ð°ÐºÑģÐ¸ Ð¼ÑĥÐ¼
ĠÐ½Ð°Ð³ÑĢÑĥÐ· ÐºÑĥ
8 92
ĠÐ²ÐµÐ½ÑĤÐ¸Ð»Ñı ÑĨÐ¸Ð¸
ĠÐ¿Ñĥ ÑĤÐµÐ¹
+ %
ĠÐ¾Ð± Ð¾Ð³Ð°
ĠÐ·Ð°Ð¿Ð¾Ð» Ð½Ð¸ÑĤÑĮ
ĠÐĲ ÐºÑĨÐ¸Ð¸
ĠÐ¾Ð± Ñı
ĠÑĥÑĩÐ° ÑģÑĤÐ²Ð¾Ð²Ð°ÑĤÑĮ
ĠÐ½Ð°Ð¿ Ð¾Ð¼
ĠÐŁ ÐłÐĲ
ĠÐ²Ð»Ð° Ð´
ĠÑĥÑģÑĤ Ð°Ð»
Ġ DE
ĠÑģÐ»ÐµÐ´Ñĥ ÑİÑīÐµÐµ
ĠÐ³Ð¸ Ð±ÑĢÐ¸
ĠÐ²ÑĭÑģ ÑĪÐµÐ³Ð¾
ĠÑĤ Ð²Ð¾Ð¸
P Q
ĠÐ´Ðµ Ð»Ð¾Ð¼
ĠÐ±ÐµÑĤ Ð¾Ð½
B R
ĠÐºÐ¾Ð½ ÑĨÐ¾Ð²
ĠÐ¶ÐµÐ»Ñĥ Ð´ÐºÐ°
ĠP o
ĠÐ»Ð°Ð±Ð¾ÑĢÐ° ÑĤÐ¾ÑĢ
ĠÑģÐ»Ñĥ Ð¶ÐµÐ±
Ðº ÑĢ
ÑīÐ° Ð¼Ð¸
ĠÐ°Ð²ÑĤÐ¾ÑĢÐ¸ Ð·Ð¾Ð²Ð°
Ðļ Ð¾Ð»
ĠÐºÐ° Ð¿ÐµÐ»ÑĮ
ĠÐ·Ð°ÑīÐ¸ ÑĤÐ¾Ð¹
ĠÑĢÐµÐ·ÑĥÐ»ÑĮÑĤÐ° ÑĤÐ°Ñħ
ĠÐ°ÑĤÐ¼Ð¾ÑģÑĦÐµÑĢ Ñĥ
nÐļÐ°Ðº Ð¾Ð¹
ÑģÑĤÐ¸ ÑĩÐµÑģÐºÐ¸Ð¹
ĠÐ´ÑĢÐ° Ð³Ð¾ÑĨÐµÐ½
ĠÑģÑĥ Ð´Ðµ
ĠÐ° Ð½Ðµ
Ð§ ÑĤÐ¾
F BA
ĠÐ·Ð°Ð¼Ðµ Ð´
74 1
ĠÑĦÐ¾ÑĢÑĥÐ¼ Ð¾Ð²
ĠÐ±ÑĢÐ° ÐºÐ°
ĠÑģ ÐºÐ¾Ð²
ĠÑĥÐºÐ°Ð·Ð° Ð½Ð¾
ĠÑģÑĥÑīÐµÑģÑĤÐ² ÑĥÑİ
ĠÐ¿ÑĢÐ¸ Ð¾ÑĢÐ¸ÑĤÐµÑĤ
ĠÐ¿ÑĢÐ¸Ð¾Ð±ÑĢÐµÑĤ ÐµÐ½Ð¸Ñı
w eb
Ð²Ð°ÐµÐ¼ Ð¾Ð¹
ĠÑĢÑĥ Ð´Ñĭ
ĠÑģÑĦ ÐµÑĢÐ°
ĠÑĨÐµ Ð¿Ð¸
997 64
ĠÐ´Ð¾Ð» Ð³Ð¾ÑģÑĢ
ĠÐ¸Ð½Ð²ÐµÑģÑĤÐ¸ ÑĨÐ¸Ð¹
Ð¡ Ð°Ð¼
ĠÐ»ÐµÐºÐ°ÑĢ ÑģÑĤÐ²ÐµÐ½Ð½ÑĭÑħ
ĠÐ¿Ð¾Ð½ÑĢÐ°Ð²Ð¸ Ð»Ð¾ÑģÑĮ
97 13
Ñĭ Ð·Ñĭ
ĠÐ¿Ð¾Ð·Ð¸ ÑĨÐ¸Ñİ
ĠÑĪÐ¸ ÑĢÐ¸Ð½Ð°
ĠÐ±ÑĢÐµÐ½ Ð´
Ð¸Ñĩ Ð½ÑĭÐµ
ĠU ni
ĠÐ¿Ð»Ð°Ð½ÑĪÐµÑĤ Ð¾Ð²
ĠÐºÐ°Ð¿ ÑģÑĥ
ĠÐĲÐ¼ÐµÑĢÐ¸ ÐºÐ¸
ĠÑģÐµÑĢÑĤÐ¸ÑĦÐ¸ÐºÐ° ÑĤ
ĠÐ¿ÑĢÐ¾ÑĤÐ¸Ð² Ð½Ð¾Ð¼
Ð¾Ð»ÑĮ Ð½ÑĭÑħ
Ð¾Ð»Ð¾ÑĤ Ð¾Ð¹
ĠÐ·Ð°Ð¿Ð»Ð° Ð½Ð¸
ĠÐ½Ðµ ÑĢÐµ
96 95
ÑĤÐ¸ ÑĩÐµÑģÐºÐ¾Ð³Ð¾
nÐĵ ÑĢÑĥÐ¿Ð¿Ð°
Ðĵ ÐłÐĲ
ÐºÐµ ÑĢÐ°
ĠÐ¿Ð»Ð¾ÑīÐ°Ð´ ÐºÐµ
ĠÑĥÐ´Ð¾Ð± Ð½ÑĭÐ¼
ĠÐŁÐ¾Ð´ Ð¾Ð±
800 92585
ĠÑģÐ¸ÑĤÑĥÐ° ÑĨÐ¸Ð¹
ĠÐ° ÑĢÐµÑģÑĤ
nÐĳ Ð°Ð½
n Ð¼Ð°
ĠÐ¿ÑĢÐµÐ´ ÑĪÐµ
nÐĹÐ°Ðº Ð¾Ð½
ĠÐĺÑİ Ð½
Ñĩ ÑĮÐµ
ĠÐ¿ÐµÑĢÐµÐ´Ð° ÐµÑĤ
ĠÑĥÑģÑĤÐ°Ð½Ð¾Ð² Ð»ÐµÐ½Ð½ÑĭÑħ
ĠÐ´ÐµÑĤ ÑģÑĤÐ²Ð°
ĠÑģÐ¾ ÑĥÑģ
Ð¶ Ð½Ð°
Ð»ÐµÑĤ Ð½ÐµÐ³Ð¾
ĠÐ¾Ð±Ð½Ð¾Ð² Ð»ÐµÐ½Ð¸Ðµ
ĠÐ·Ð°Ð¿Ð¸ ÑģÑı
ĠÐ½Ðµ Ð´Ð¾Ð²
ĠÐļÐ¾Ð¼ Ð¿Ð°Ð½Ð¸Ð¸
ĠÑĥÑģÑĤ Ð°Ð²
ĠÐ¿ÑĥÐ½ ÐºÑĤÐµ
ĠÑģÐµÐ¼ Ð¸
Ð½Ð¸ ÑĤÐµÐ»Ñı
ĠÑĥ Ð¼Ð°
Ðĺ ÑģÑĤ
ĠÐ¿Ð¾Ð² Ð¾Ð´
ĠÑģÐ¿Ð° Ð¼
ĠÑħÐ¾ÑĢÐ¾ ÑĪÐ¸Ð¼
ĠÑĢÑĭ ÑĩÐ°
ĠÑģÑĤÐ°Ð² ÐºÐ°
ĠÐ½ÐµÐ´Ð¾ÑĢ Ð¾Ð³Ð¾
x x
ĠÐĳÐ¾Ð»ÑĮ ÑĪÐµ
nÐĳ Ðµ
ĠÐ¿Ð¾Ð¼ Ð¸Ð´
ĠÐ´ Ð¾ÑģÑĥ
ĠÐ¼ÐµÑģÑĤ Ð½Ð¾ÑģÑĤÐ¸
ĠÑĢÐ°ÑģÑĤ Ð¾ÑĢ
ĠÐ¾Ð±Ñĭ ÑĩÐ½ÑĭÑħ
ÐļÐĺ Ðķ
ÑĦ ÑĦÐµÑĢÐµÐ½
k at
Ġb rowser
Ð¾Ð· Ð¸ÑĤÐ°
ĠÐŀÐ± ÑīÐ¸Ðµ
ĠÑĢÐ¸ ÑĤ
ĠÐ²Ñĭ ÑģÐ°
nÐŀÑĤ Ð¿ÑĢÐ°Ð²
ĠÐ²Ð¾Ð¹ ÑģÐºÐ°
ĠÐ¿Ð°ÑĨÐ¸ ÐµÐ½ÑĤ
54 2
ĠÑĢÐµÐ³Ð¸ Ð¾Ð½Ñĭ
4 14
ĠÐ± ÑĢÑĥ
ĠÐ²Ð¾Ð¿ÑĢÐ¾Ñģ Ð¾Ð¼
Ð°Ð´ ÑĢÐµÑģ
4 85
ĠÐ¡ Ð¾ÐµÐ´Ð¸Ð½
Ð ħ
nÐľÐ¸ Ð½Ð¸
ÑĪ ÑģÐºÐ¸Ð¹
ĠÐ·Ð° Ð²ÐµÐ´
5 205
ĠÐ¿ ÐµÐ¹
997 10
Ñĩ ÐºÐ°Ð¼Ð¸
er m
ÑĤÐ¾Ñĩ Ð½ÑĭÐµ
ĠÐĽ ÐµÐ½
ÑģÑĤÐ²Ð¾Ð²Ð° Ð»Ð°
ĠÐ¿Ð»Ð¾ÑīÐ°Ð´ ÑĮÑİ
ÐºÑĥ ÑĥÐ¼
ĠÐ¿Ð¾Ð´ÑħÐ¾Ð´Ñı ÑīÐ¸Ð¹
ĠÐ¾Ñħ ÑĢÐ°Ð½
ĠÐ±Ð»Ð° Ð³Ð¾Ñģ
har e
ĠÐ² Ð¾Ð¸Ð½
ĠÐł Ð¾Ð´
âĨ ĳ
4 08
ĠÐºÐ° Ð·
ĠÑģÐ½Ð° ÑĢÑı
ĠÐ±ÐµÑģÐ¿ Ð¾ÐºÐ¾Ð¸
ĠÐ²Ð¸ ÑĢÑĥ
ĠÐºÐ°Ð±Ð¸Ð½ ÐµÑĤÐµ
ĠÐľÐµÐ´ Ð²Ðµ
ĠÐºÐ° ÑĤÑĥ
ĠI V
ÐĿÐĺ Ðĺ
nÐĴÐ¸ Ð´Ðµ
ĠÐ²Ð¾Ð·Ð¼Ð¾Ð¶ Ð½ÑĭÐµ
ĠÑĢÐµÐºÐ»Ð° Ð¼Ñĥ
ĠÐº Ð¾ÑģÑĤÐ¸
58 9
ĠÐ·Ð°Ð¼ÐµÑĤ Ð½Ð¾
ĠÑĪÐ¸ Ð½
Ð¾Ð± Ð±Ð¸
12 66
ĠÐ¿ÑĢÐµÐ´ Ð¼ÐµÑĤÐ°
ĠÐ²Ð¾ÑģÑĤ Ð¾ÑĢ
ĠÐ¿ÑĢÐ°ÐºÑĤÐ¸ ÐºÑĥ
st ru
ĠÑĥÑģÑĤÑĢÐ° Ð½Ð¸ÑĤÑĮ
Ð¶ÐµÐ½ Ð½Ð¾Ð¹
ĠÐŁÐ¾Ð´ Ð¼Ð¾ÑģÐºÐ¾Ð²
93 66
84 94
Ð½ÐµÐ½ Ð½ÑĭÐ¹
ĠÐĶ Ð¶Ðµ
Ð¼Ð°ÑĢ ÐºÐµÑĤ
ĠL im
ĠÑĪ ÑĤÐ°Ð¼
ĠÐ¸Ð½ÑĤÐµÑĢÐµÑģ Ð½Ð¾Ðµ
ĠÐ¼Ð¸ Ð½ÐµÑĢÐ°
nÐĵ Ð°Ð·
Ð»Ð° Ð´ÐµÐ½
97 90
ĠC he
ĠÐĳ Ð¸ÑĢ
ĠÐ¿ÑĢÐ¸ÑĩÐ¸ Ð½Ñĥ
ĠÑģÐµÐº ÑĢÐµÑĤ
ÐµÐ» Ð¾Ðº
ĠÐ¾Ð´Ð½ Ð¾Ð·Ð½Ð°
ĠÑģÐ°Ð½ ÐºÑĨÐ¸Ð¸
ĠÐ¼Ð¾Ð»Ð¾Ð´Ðµ Ð¶Ð¸
Ð¶Ð° Ñħ
ĠÑĥÐ³ Ð»Ñı
nÐ£ Ð¿ÑĢÐ°Ð²Ð»ÐµÐ½Ð¸Ðµ
ĠÐ¿Ð¾Ð´Ð¿Ð¸ ÑģÐºÐ¸
ĠÐºÑĥ Ð·Ð¾Ð²Ð°
ĠÑģÑĢÐ°Ð² Ð½Ð¸
ĠÐ¾Ð± ÑģÑĤÑĢÐµ
ĠÐ¸Ð· ÑĬ
ĠÐ¢ Ð°ÑĢ
ĠÐ¿Ð¾Ð»ÐµÐ· Ð½Ð¾
ĠÐ½Ð° ÐºÐ»Ð°Ð´
ĠÐ¿ÑĢÐ¸ ÑģÑĤÐ°Ð²
Ð°Ð» Ð¾Ð³Ð¾Ð²
9994 6
9995 7
Ð¾Ð»Ð¾Ð³Ð¸ ÑĩÐµÑģÐºÐ¾Ðµ
ĠÐ¼Ð°ÑĤÐµÑĢÐ¸Ð°Ð» Ð¾Ð¼
Ġ5 9
ĠÐŀ ÑĦÐ¸ÑĨÐ¸Ð°Ð»ÑĮÐ½ÑĭÐ¹
996 25
ĠÐ¿Ð¾Ð²ÑĢÐµÐ¶Ð´ ÐµÐ½Ð¸Ð¹
ĠÑĤÑĢÑĥÐ´ Ð½Ð¾ÑģÑĤÐ¸
ĠÐ¿Ð»Ð°Ð½Ð¸ ÑĢÑĥÐµÑĤ
ĠÑģ Ð¾ÑĢÑĤ
ĠÐ¸ÑģÐ¿ Ð¾Ð»ÑĮ
Ð¶ ÑĮÑı
ĠÐ´ Ð¾ÐºÐ°
ĠÐ·Ð°ÐºÐ¾ Ð½Ñĭ
Ð¾Ð¾Ð± ÑĢÐ°Ð·Ð¾Ð²Ð°
n ÑĥÐ»
ĠÐľ Ð½Ð¾Ð³Ð¾
ĠÐĵ Ðĳ
ĠÑĢÐ° Ð½Ð¾
nÐĲÐ² ÑĤ
Ġm ore
ĠÐ¤Ð¾Ð½ Ð´Ð°
ĠÑįÐ»ÐµÐºÑĤÑĢÐ¾Ð½ Ð½ÑĥÑİ
ĠÑĢÐ°Ð±Ð¾ ÑĩÐµÐµ
ĠÐ»Ñİ Ð±Ð°Ñı
ĠÐ¦ ÐµÐ»ÑĮ
nÐ£Ð²Ð°Ð¶Ð° ÐµÐ¼ÑĭÐµ
ub lic
ĠÐ¿ÑĤÐ¸ ÑĨÑĭ
ĠÑģÐ»Ñĥ Ð¶Ð°
ĠÐ±Ð°Ð» ÐºÐ¾Ð½
ĠÐ® Ð¶Ð½Ð¾Ð¹
ĠÐ´ ÑĭÐ¼
ĠÐ¿ÑĢÐ¾Ð² ÐµÐ»
ÑĢÐ¾Ð±Ð»Ðµ Ð¼Ñĭ
Ð»Ð° ÑĢ
20 64
ĠÑĩ ÑĳÐ¼
ĠÑģÐ½Ð¸ Ð·Ð¸
nÐĿÐ° Ð¶Ð¼Ð¸ÑĤÐµ
ÑĳÐ½ Ð½ÑĭÐµ
ĠÐ½Ð°Ð¿Ð¸ÑģÐ° Ð½Ð¾
ĠÐ¿Ð¾Ð´ÐºÐ»Ñİ ÑĩÐ¸ÑĤÑĮ
ĠÐ¿ÑĢÐ¾Ðµ ÐºÑĤÑĥ
ĠÑģÐ¾Ð·Ð´Ð° Ð½Ð¸Ñİ
Ð¿Ð° Ñħ
ĠÐ¿Ð¾Ð² Ð¾ÑĢ
ĠÐ¿ÑĢÐ¾Ð¸Ñģ ÑħÐ¾Ð´Ñı
ĠÐ¿ÑĢ Ð¾Ð´Ðµ
Ð¿Ð° Ñģ
ĠÑĩÑĢÐµÐ· Ð¼ÐµÑĢ
ĠÐºÐ¾Ñģ Ð¼Ð¾Ñģ
ĠM aster
ĠÑĥÑģÐº Ð¾ÑĢ
ĠÑĢÐ°Ð¹Ð¾Ð½Ð° Ñħ
ĠÐļÐ½Ð¸ Ð³Ð°
ĠD el
Ñģ Ð¾ÑģÑĥÐ´Ð¸
Ġâ Ĥ¬
ĠÐ°Ð»ÐºÐ¾Ð³ Ð¾Ð»Ð¸
ÑĢÐµÐ¼ ÑĮÐµÑĢ
Ð½Ð¸Ñı Ñħ
Ð¼ Ð¿
ĠÐ¿ÑĢÐ¾Ð²Ð° Ð¹
ĠÐ²ÑĭÐ±Ð¸ÑĢÐ° ÑİÑĤ
20 78
ĠÐ¾ÑĤÑĤÐµÐ½ Ð¾Ðº
ĠÐ´Ð°Ð½ Ð½Ð¾Ðµ
ĠÐ·Ð° Ð´Ð°Ð½
oo m
ĠÐ¸Ð½Ð²Ð°Ð»Ð¸ Ð´Ð¾Ð²
Ð¾ÑģÑģÐ¸Ð¹ ÑģÐºÐ°Ñı
ÑĪÐ¸Ðµ ÑģÑı
ĠÐ¤Ð¸Ð½ Ð»ÑıÐ½
ÑĥÐ½ Ð´Ð°
nÐľ Ð½Ðµ
ĠÐ´ÐµÐ½Ðµ Ð¶Ð½ÑĭÐµ
ĠÐ¼ÐµÐ¶Ð´ÑĥÐ½Ð°ÑĢÐ¾Ð´ Ð½Ð¾Ð³Ð¾
Ðµ Ð´Ð¸Ð½
ĠÐ·Ð°Ð´ Ð½ÐµÐ³Ð¾
ĠÐ²Ð¸ Ð´Ð¸ÑĤ
ÑĪ Ð½Ðµ
Ð·Ð° ÑĨÐ¸ÐµÐ¹
ĠÐĳ ÐµÐ»ÑĮ
995 46
Ð»Ñı ÑĤÐ¾ÑĢÑĭ
ic es
ĠÐ¿ÑĢÐ¾Ð¼ÑĭÑĪ Ð»ÐµÐ½Ð½ÑĭÑħ
ĠS ch
4 05
ĠÐ¾ÑĤÐ²ÐµÑĤÑģÑĤÐ²ÐµÐ½ Ð½Ð¾ÑģÑĤÑĮÑİ
nÐŁ Ð°ÑĢÐ°
ĠÑĥÑģÐ»Ð¾Ð²Ð¸ ÑıÐ¼
ĠÐµÐ¶Ðµ Ð³Ð¾Ð´
ÐµÐ»ÑĮ Ð·Ñı
ĠÐ½Ð°Ð»Ð¾Ð³ Ð¾Ð¾Ð±
ÐºÑĢÐµ Ð¿Ð¸
ĠÑģÐµÑĢ ÑĭÐ¹
ĠÐºÑĥ Ð»Ð¸Ð½Ð°
Ñĥ ÑĩÐ½Ð¾
ÐĹÐ° Ð¿Ð°Ð´
ĠÐ´ÐµÐ¹ÑģÑĤÐ²ÑĥÑİ ÑīÐ¸Ð¼
ĠÐ²Ð°ÑĢÐ¸Ð°Ð½ ÑĤÐ¾Ð¼
ĠÐľ Ð
ĠÐŃ Ð½ÐµÑĢ
Ġt rue
ĠÐ±ÑĢÐ¸ ÑĤÐ°Ð½
ĠÑĢÐ°ÑģÑĪÐ¸ ÑĢÐµÐ½
ĠÐľÐ ¾
ĠÐ³Ð¸Ð´ ÑĢÐ¾
ĠÐŀ Ð¿Ð»Ð°ÑĤÐ°
ĠÐ¼Ñĭ ÑĪÐµ
Ðº Ð¾Ð´
ÑĤ ÐµÐ½Ð¸Ðµ
ĠÑģÐ¿Ð¸ Ð½
Ð½Ð¸ Ð»ÑģÑı
ĠÑģÐ° Ð½Ð°
ĠÑĨÐµÑĢ ÐºÐ¾Ð²ÑĮ
ĠÐ·Ð° Ð´ÑĥÐ¼Ð°
d om
Ð£ ÐºÑĢÐ°
T G
ĠÐĴÑı ÑĩÐµÑģÐ»Ð°Ð²
Ð²ÐµÑĢ ÑĮ
ĠÐ¿Ð¾ÐºÐ°Ð·Ð° Ð»
ĠÐ¡ Ðķ
K L
ĠÐ¿ÑĢÐ¾Ð¿Ñĥ ÑģÐºÐ°
nÐŁ Ð¾Ð¼Ð¸Ð¼Ð¾
ĠÐ¿Ð¾Ð´Ð¾Ð· ÑĢÐµ
ĠÑģÐ¼Ð¾ÑĤ ÑĢÐ¸ÑĤÐµ
96 45
ÑĨÐ²ÐµÑĤ Ð°
ĠÐ³ ÑĢÑıÐ·
ĠÐ¿ÐµÑĢÐµ Ð´Ð°ÑĤÑĮ
ĠÑģÐ¾Ð¾ÑĤÐ²ÐµÑĤ ÑģÑĤÐ²ÑĥÑİÑĤ
ĠÐ¸Ð½Ð´Ð¸Ð²Ð¸Ð´Ñĥ Ð°Ð»ÑĮÐ½ÑĭÑħ
ĠÑģÑĥ ÑĤÑĮ
ĠÐ½ÑĥÐ¶Ð´Ð° ÐµÑĤÑģÑı
ĠÐĿÐ¸ ÐºÐ°
ar i
ÐŁ ÑĢÐµ
Ð¹ ÑģÑı
nÐ£ ÑĩÐ°ÑģÑĤ
ĠÐ¾ÑĤÐºÑĢÑĭ ÑĤÐ¸Ðµ
ĠC D
n ational
ĠÑģÐ´ÐµÐ»Ð° ÐµÑĤ
97 03
ĠÐľ Ð¾Ð½Ð¸ÑĤÐ¾ÑĢÐ¸Ð½Ð³
ĠÐ¾ÑĤÐ²ÐµÑĢÑģÑĤÐ¸ Ðµ
ĠÑĦÑĥÑĤ Ð±Ð¾Ð»ÑĮ
54 9
nÐĵÐ»Ð°Ð² Ð½ÑĭÐ¹
ĠÐŀÑĤÐ²ÐµÑĤ Ð¸ÑĤÑĮ
ĠÐ¼ÐµÑģÑĤ Ð¾Ð¼
ĠÑĤÑĥÐ°Ð» ÐµÑĤ
Ð° Ð»Ðµ
996 35
ĠÐ·Ð°Ð¹ Ð¼
ĠÐ³ÐµÐ½ ÐµÑĤÐ¸
ĠÐ± Ð¾ÑĤ
ĠÐ±ÐµÐ½ Ð·Ð¸
f ind
95 35
ÑģÐ¾Ð² ÑĭÑħ
ÑĨ Ð°ÑĢ
ĠÐ²Ñĭ Ð´Ð²Ð¸
ĠÐ·Ð°Ð²ÐµÑĢ ÑĪÐµÐ½Ð¸Ñı
ĠÐ½Ð¾ Ñģ
ĠÐ¿ÑĢÐ¸ Ð¼Ðµ
ĠÐ¾Ð±ÑĬ ÑıÐ²Ð»ÐµÐ½Ð¸Ðµ
ĠÑĦÐ° ÐºÑĤÑĥ
ÐºÑĥ Ð¿Ð°
ĠÐ±Ñĭ ÑĤÐ¾Ð²Ð¾Ð¹
m on
ĠÐ¾Ð¿ÑĢÐµÐ´Ðµ Ð»ÐµÐ½Ð½Ð¾Ð¹
ĠÐ²Ð°Ðº ÑĨÐ¸
ĠÐ·ÐµÐ¼ÐµÐ»ÑĮ Ð½ÑĭÑħ
ĠÐºÑĢÐ°ÑģÐ¸ Ð²ÑĭÐ¹
Ð¿Ð¸ ÑģÑĭ
ĠÑĨÐ¸ÑĦ ÑĢÑĭ
ĠÐ¿Ð¾ÑĤÑĢÐµÐ± Ð»ÐµÐ½Ð¸Ñı
Ð»ÑĥÐ¶ ÑģÐºÐ°Ñı
Ð·Ð¸ ÑĢÑĥ
ĠÐ¿Ð¾ÑģÑĤÐ°Ð½Ð¾Ð² Ð»ÐµÐ½Ð¸Ðµ
8 01
Ð¡ Ñĥ
ÑĢÐµÐ´Ð¸ ÑĤÐµÐ»ÑĮ
97 18
ĠÐļ ÐŀÐĿ
ÑīÐ¸Ð¹ ÑģÑı
ÑĩÐ¸ Ð²Ð°Ñı
qu e
ĠÐ¿ÑĢÐ¸ Ð²ÐµÐ·
ĠÐ¾ÑģÑĤ Ð°Ð»ÑģÑı
20 01
ĠÐ²Ð´Ð¾Ñħ Ð½Ð¾Ð²
ĠÐ·Ð°ÑīÐ¸ ÑīÐ°ÐµÑĤ
ĠÐ¾ÑģÑĥÑīÐµÑģÑĤÐ²Ð¸ ÑĤÑĮ
ĠÑĢÑĭ Ð½Ð¾
ĠÐ´ÐµÑĤ Ð°Ð»ÑĮ
v k
ĠÐŀÐ± Ñĥ
ĠÑĢÐµ Ð±ÑıÑĤÐ°
P X
8 98
ÑģÑĤ ÑģÑı
ĠÑĢÐ¾Ð´Ð¸ Ð»ÑģÑı
ĠÐºÐ°ÑĩÐµ ÑģÑĤÐ²ÐµÐ½Ð½ÑĭÐ¹
ĠÑĨ ÐµÐ½Ð¸
ĠÐ¸Ð¼ Ð¿ÑĥÐ»ÑĮ
Ð»Ð°Ð½Ð´ ÑĪÐ°
nÐŁÐ°ÑĢ Ð¾Ð»ÑĮ
ĠÐ±ÐµÐ» Ð¾ÑĢÑĥÑģ
ĠÐ¨ ÐºÐ¾Ð»Ð°
36 0
n X
ĠÑĢÐ°Ð· Ð»Ð¸ÑĩÐ¸
90 47
st at
Ġ7 3
97 64
ĠÐºÐ¾Ð¼Ð¿Ð»ÐµÐºÑĤ ÑĥÑİÑīÐ¸Ðµ
ĠÑģÐµÐ¼ ÑĮÑİ
Ð½Ð¾ ÑģÐ°
Ð¶ÐµÐ½ Ð
Ð¶ÐµÐ½Ð ¾
ÑĢÐ¸ Ð³Ð¸Ð½Ð°
Ð²Ð¸ ÑĨÐ°
nÐĺ ÑģÐºÐ°ÑĤÑĮ
ĠM on
Ð¸ Ð»Ð°ÑģÑĮ
ĠÐµÐ´Ð¸Ð½ ÑģÑĤÐ²ÐµÐ½Ð½ÑĭÐ¹
ĠÑħÐ¾Ð»Ð¾Ð´ Ð½Ð¾Ð¹
ĠW ar
Ðĵ ÑĨ
ĠÑģÐ°Ð¹ÑĤÐ° Ñħ
s y
ĠÐ½Ðµ Ð¿ÑĢÐ°Ð²
ÑĤÑĭ Ð²Ð°ÐµÑĤ
Ð± ÐºÐ¸
Ġs o
ĠÐ¿ÑĢÐ¾Ð²ÐµÑĢ Ñı
ĠÐĳ Ð¾Ð³Ñĥ
ĠÐ¾Ð±ÑĢÐ°ÑĤÐ¸ ÑĤÐµÑģÑĮ
Ð¸Ð½ ÑĮ
ĠÐ¿ÑĭÑĤÐ° ÐµÑĤÑģÑı
ĠÐ³Ð¾ÑģÑĤÐ¸ Ð½Ð¾Ð¹
re ad
Ð¾Ðº ÑĤÐ¾ÑĢ
84 13
ÑĤÐ¾Ñĩ Ð½Ð°Ñı
ĠÑģÐ¼ ÐµÐ½Ð¸
ĠÐ² Ð¾Ð»ÑĮ
ĠÐ°Ð²ÑĤÐ¾Ð¼Ð°ÑĤÐ¸ Ð·Ð°ÑĨÐ¸Ð¸
ĠÐºÐ¾Ð½ÑĦÐ»Ð¸ ÐºÑĤ
ÑĤÐ¾Ð½ Ð¾Ð¼
u ck
ĠÑģÐ¸Ð½Ð´ ÑĢÐ¾Ð¼
ĠÑģÐ´Ðµ Ð»Ð¾Ðº
ĠÐ²ÑĭÐ³Ð»Ñı Ð´ÑıÑĤ
D BD
ĠÐ¿ÑĢÐ¸ ÑħÐ¾Ð´ÑıÑĤ
ers on
ĠÐł Ð¸Ð¼
ĠÐ¿ÑĢÐ¾Ð³ÑĢÐ°Ð¼Ð¼ Ð½Ð¾Ðµ
nÐŀÑĤ Ð´Ðµ
ĠÑģÐ²Ð¾ ÑĳÐ¼
ĠÐ¿Ñĭ Ð»ÑĮ
S I
ĠÐ¾Ð¿ Ð¸Ñģ
996 56
ĠÐ°Ð»ÑĮ Ð±Ð¾Ð¼
ĠÐĶÐµÑĤ ÑģÐºÐ¸Ðµ
ĠÐ²ÑģÑĤÑĢÐµ ÑĤÐ¸ÑĤÑĮ
ĠÑģÐ¾ÑĤÑĢÑĥÐ´ Ð½Ð¸ÐºÐ°
ÐµÐ² ÑĭÐµ
ã Ĥ
ĠÐĹÐµÐ¼ Ð»Ð¸
Ð´Ð° ÑĤÐµÐ»ÑĮÑģÑĤÐ²Ð¾
nA n
ĠÐ¢Ð¾Ð²Ð° ÑĢÑĭ
ĠÐĵÐ»Ð°Ð² Ð½Ð°Ñı
Ð² Ð·
ĠÐ¿ÑĢÐµÐ´Ð¿Ð¾Ð» Ð¾Ð¶
Ġ6 8
ÐĴ Ðļ
ĠÑģÐ¸ Ð»Ð°Ð¼Ð¸
96 46
4 10
ĠÐ²Ð¾ ÐµÐ½Ð½ÑĭÐµ
ĠÐ¿ ÑĩÐµ
ĠÐ¼ÐµÐ´Ð¸ ÑĨÐ¸Ð½Ð°
av to
all s
ĠÐŁ Ð¾ÑĢÑĤÐ°
ĠÐ¿Ð°ÑģÑģÐ°Ð¶Ð¸ ÑĢÐ¾Ð²
ĠÑģÑĤÐ¾Ð» Ðº
Ð¶ ÐºÐ¾Ð¹
ĠÑĤÐµÐ»Ðµ ÑĦÐ¾Ð½Ñĭ
ĠÐĽ ÐµÑĤ
ĠÑģÐ° Ð´Ñĥ
ĠÐ¡ ÑĥÐ±
ĠÐ´Ð¾ÑĢ Ð¾Ð³Ñĥ
ĠÐĹÐ° ÐºÐ¾Ð½Ð°
ĠÑģÑĤÐ¾ÑĢÐ¾Ð½ Ð¾Ð¹
ĠÑįÐºÑģÐ¿ÐµÑĢÐ¸ Ð¼ÐµÐ½ÑĤÐ°
Ġ Ð»Ð°Ð²
ĠÑģÐ°Ð¼ ÑĥÑİ
ĠÐ¼ÐµÑĢ ÑĤ
ĠÑģÐ¾Ð±Ð¸ ÑĢÐ°ÑĤÑĮ
ĠÐ¿Ð»Ð¾ Ñħ
9423 8895
ĠÐ¡ Ð¾Ð¾ÑĤÐ²ÐµÑĤ
ĠÐ·Ð° ÐºÐ»Ð°Ð´
ĠÐ²Ñĭ ÑĢÐ°Ð²Ð½Ð¸
Ð½Ð° Ð¹
Ġ6 1
99 09
ÑĢÐ¾Ð²Ð°Ð½ Ð½ÑĥÑİ
ĠÑģÑĭ ÑĢ
96 67
ĠÑħ ÑĢÑĥ
ĠÐ½Ð°Ð»Ð¸Ñĩ Ð½ÑĭÐ¼Ð¸
ÑģÑĥ Ð»ÑĮ
ĠÑģÐ¾Ð±Ð¸ÑĢÐ° ÐµÑĤÑģÑı
Ð¾Ð¸Ð·Ð²Ð¾Ð´Ð¸ ÑĤÐµÐ»Ð¸
Ð°Ð¼ÐµÑĤ ÑĢ
ĠÐºÐ° ÑģÑģ
ĠÐ¿ÑĢÐ¸ ÑĪÐ»Ð°
c an
ĠÐ¿Ð¾Ð´ÑĩÐµÑĢ ÐºÐ¸
99 01
ÐµÑĢÐ¼Ð° Ð½Ð¸Ñı
ĠÐ·Ð° Ð¿ÑĢÐ°Ð²
ĠÐĶÐµÐ½Ð¸ Ñģ
ĠÐ¡Ð¾Ð» Ð½Ðµ
ĠÐºÐ¸Ð»Ð¾Ð¼ ÐµÑĤÑĢÐ¾Ð²
ĠÐ¾Ð± ÑīÐ¸Ñħ
Ð»Ñı Ñİ
ĠÐ¿ÑĢÐ¾Ð¸Ð·Ð²Ð¾Ð´ ÑģÑĤÐ²Ñĥ
ĠÑĤÐµÐ°ÑĤ ÑĢ
ĠÐ¡Ðº Ð¾Ð»ÑĮÐºÐ¾
Ð»Ñı Ð¹ÑĤÐµ
ĠÐļ Ð»ÑĥÐ±
?? ??
ĠÐ¾Ñģ Ð»Ð°Ð±
ĠÐĹ Ð²ÐµÐ·
nÐ¡Ð¾Ð² ÐµÑĤÑĭ
ĠÐ¿Ð°ÑĤ Ð¾Ð»Ð¾Ð³Ð¸Ð¸
26 0
Ð± ÑĢ
Ðµ ÑĩÐ°
ĠÐŁ ÑĢÐ¾ÑģÑĤ
ĠÐ¿ÑĢÐµÐ´ÑģÐµÐ´Ð° ÑĤÐµÐ»ÑĮ
Ð¾Ðº Ð°Ð¼
ĠÐ¡ ÑĥÑĢ
st r
ĠÑĢÐ°Ð±Ð¾ÑĤÐ¾Ð´Ð° ÑĤÐµÐ»ÐµÐ¹
4 91
ĠÑģÐºÐ°Ð·Ð° Ð»Ð¸
ĠÑįÐ»ÐµÐºÑĤÑĢÐ¾Ð½ Ð½ÑĭÐµ
ĠÐ¿Ð¾Ð»Ð¾Ð²Ð¸ Ð½Ñĭ
ÐĽ Ð°
ĠÐºÐ°Ð·Ð° Ð»Ð¾ÑģÑĮ
ĠÐ¾ÑģÐ¾Ð± Ð¾Ðµ
ĠÐĺ Ð¸
ÐŀÐŀ Ðŀ
ĠÑģÑĤÐ¾Ð»Ð¸ ÑĨÑĭ
ĠÐºÐ¾Ð»Ð¸ÑĩÐµ ÑģÑĤÐ²Ñĥ
ĠÑįÐºÑģÐ¿ÐµÑĢ ÑĤÑĭ
ĠÑĨÐ¸ÑĦ ÑĢÐ¾Ð²Ð¾Ð¹
nÐŀ Ð´Ð¸Ð½
ĠX IX
ĠÑģÐ»Ñĥ Ð¶Ð¸ÑĤÑĮ
96 76
ĠÐµÐ¼ ÐºÐ¾ÑģÑĤÑĮ
________________ ________________
Ð²Ð¸ ÑĤÑģÑı
ĠÑģÐ²ÑıÐ·Ð° Ð½Ð°
ĠÐºÐ¾Ð½ÑĤ ÐµÐ½ÑĤÐ°
ĠÑģÐ¾Ð¾ÑĤÐ²ÐµÑĤ ÑģÑĤÐ²Ð¸Ðµ
ĠÐ² Ð¾ÑģÐº
B N
ĠÐ¿ÑĢÐ¾ÑģÑĤ ÑĭÐ¼
ĠÐ·Ð° Ð¼ÐµÐ½Ð¸
4 01
ĠÐ¿Ð¾Ð»Ð¸ ÑįÑĤÐ¸
Ð¾Ð»Ðµ ÐºÑĥ
Ð» ÐºÐ¾Ð¹
ÐĽ Ð«
ke y
ÑĤ ÑĢÑĭ
ĠÑĢÐµÐ³Ð¸Ð¾Ð½Ð°Ð»ÑĮ Ð½Ð¾Ð³Ð¾
ĠÐ²ÑĭÐ¿Ð¾Ð» Ð½ÑıÑİÑĤ
Ð²Ðµ ÑīÐµÐ½Ð¸Ðµ
Ð´Ð¼Ð¸ Ð»Ð°
ÑģÑĤÑĭ Ð¼Ð¸
ĠÑģÑĩÐ°ÑģÑĤÑĮ Ñı
ĠÑĦÐ¾ÑĢÐ¼Ð¸ ÑĢÐ¾Ð²Ð°Ð½Ð¸Ðµ
ÐµÐºÐ° ÑĢ
Ð²Ð° ÑİÑīÐµÐ³Ð¾
nÐĲ Ð¿
ĠÐ¾ÑĤ ÐµÐ»ÑĮ
ĠÐĳÐ¾Ð»ÑĮ ÑĪÐ¸Ð½ÑģÑĤÐ²Ð¾
ĠÑģÐ¾Ð´ÐµÑĢÐ¶Ð° Ð½Ð¸ÐµÐ¼
ĠÑĢÑĥÐ± Ð»Ñı
4 84
99 986
Ð¶Ð¸ Ð½Ð°
ĠÑĪ ÑĤÐ¾ÑĢ
ĠÐ¿ÑĢÐ¸ Ð²ÐµÐ´ÐµÐ½
Ð¾Ð½ ÐºÐ°
ĠÐ¼Ð°Ð³Ð½Ð¸ ÑĤÐ¾
9761 953
95 87
ĠÐŀ ÐŀÐĿ
ĠÐ¿ÑĢÐµ Ñģ
94 04
ĠÐ§ Ð°Ð¹
413 7
T W
ĠÑģÐ½Ð¸ Ð¶Ð°ÐµÑĤ
Ð³ ÐµÑĤÐ°
ÑĢÐ° ÑĤÐ¾ÑĢ
ĠÐ½Ð°Ð¿Ð¸ ÑģÐ°Ð½
ĠÐ´Ð¸ÑģÐº ÑĥÑģ
Ð¾Ð» Ð¾Ðº
ĠÑĤÑĢÐ°Ð² Ñĭ
ĠÐ¿Ð¾ÑģÐ¾Ð±Ð¸ Ðµ
ĠÐºÐ°ÑĢÐ°Ð½ Ð´Ð°
ĠÐ¡ ÐºÐ¾ÑĢ
ĠÐ·Ð° ÑģÐ»Ñĥ
ĠÐ»Ð¾ Ñı
ĠÑĦÐ¸Ð½Ð°Ð½ÑģÐ¾Ð² ÑĭÐµ
ĠÐºÐ¾Ð½ÐºÑĥÑĢ ÐµÐ½ÑĤ
ĠÐ´Ð° Ð»Ð¸
ĠÐºÐ¾Ð¼Ð¿Ð»ÐµÐº ÑĤÐ°ÑĨÐ¸Ð¸
nÐĴÑģÐµ Ð³Ð¾
ĠÐ¤ Ð°ÑĢ
nÐŁ Ð½
ĠÑĩÑĤ ÐµÐ½Ð¸Ðµ
ĠÐ¿ÑĢÐ¾ÑģÑĤÑĢÐ°Ð½ ÑģÑĤÐ²Ðµ
9990 3
ĠÐ¿ÑĢÐµÐ´ÐµÐ»Ð° Ð¼Ð¸
Ð¾Ñĩ ÑĥÐ²
ĠÐ´ÑĢÐ¾Ð± Ð»ÐµÐ½Ð¸Ñı
97 43
96 65
K W
ĠH ot
ĠÐ¡ÑĤ ÑĢÐ¾Ð¸ÑĤÐµÐ»ÑĮÑģÑĤÐ²Ð¾
Ġ1 990
ĠÐ¿Ð¾Ð¶ÐµÐ»Ð° Ð½Ð¸Ñı
Ðĳ Ð¾Ð»ÑĮ
ĠÑĢÐ°Ð·Ð¼Ðµ ÑģÑĤÐ¸ÑĤÑĮ
Ð½Ð¸Ðº Ð¾Ð¹
F or
ĠÐ¨ Ð²Ðµ
ĠÐ§Ðµ Ð»Ð¾Ð²ÐµÐº
ĠÐľÐ¾ÑģÐº Ð²Ñĥ
nÐķ Ð»ÐµÐ½Ð°
ĠÐ´ÐµÐ»Ð° ÐµÐ¼
Ġi OS
Ġ1 70
Ð¾Ð²Ð° Ð½Ð½ÑĭÐµ
ĠÑĢÐµÐºÐ»Ð°Ð¼ Ð½ÑĭÑħ
ĠÐºÐ°Ð¼ÐµÐ½ Ð½Ð°Ñı
Ð¤ Ð¸
ĠÐ¿Ð¾Ð²ÐµÑĢÑħ Ð½Ð¾ÑģÑĤÐµÐ¹
ĠÐ¾Ð³ÑĢÐ°Ð½Ð¸ÑĩÐµÐ½ Ð½Ð¾Ð¹
ĠÐ´ Ð¾Ð·Ð¸
Ð¿Ð¾Ð¼ Ð½Ð¸Ð¼
ĠÐºÐ¾ÑĢÐ¾ÑĤ ÐºÐ¸Ðµ
ĠÐ½Ð°Ð¿Ð¸ ÑĤÐºÐ¸
Ð²Ð° ÑİÑīÐ¸Ð¼
nÐĵ Ð¾ÑĤÐ¾Ð²
Ð¾Ñĩ Ð½ÑĭÐ¼Ð¸
ÑģÑģÑĭ Ð»ÐºÐ¸
5 35
ĠÐ¿Ð¾Ð´ Ð±Ð¸ÑĢÐ°
5 07
ĠÑĤÐ¾ ÑĩÐµÐº
Ð»ÑĥÐ¶ Ð±Ð°
Ð»Ñı ÑĨÐ¸Ñİ
ĠÑĥÑĩÐµÑĤ Ð½Ð¾Ð¹
ĠÑģÑĥÐ´ Ð¾Ð²
ĠÑģÐ¾Ð²ÐµÑĤ Ð¾Ð²
ĠÐºÐ»Ð¸ Ð½Ð¸ÐºÐ¸
ĠÑħ Ð¾Ð´Ñĥ
Ð»Ñı ÑĤÑģÑı
ĠÑģÐ¾ ÑĩÐ¸
nÐĴ Ð¸Ð´
Ð»Ð° ÑģÑĤÑĮ
ĠÐ¿ÑĢÐ° Ð²Ðµ
ĠÐļÐ°Ð·Ð° Ð½ÑĮ
ĠÐļ Ð¾Ð·
ĠÐ¿Ð¾Ñģ Ð»Ð°
ÑĦÐ¸ Ð½Ð°Ð½
ĠÑĢÐ°Ð±Ð¾ÑĤ Ð¾ÑģÐ¿Ð¾ÑģÐ¾Ð±
ÑĨÐ¸ Ð¿Ð»Ð¸
af e
Ġ ab
48 9
ĠÐ·Ð´Ð¾ÑĢÐ¾Ð² ÑĮÑİ
ĠÐ³ Ð¾ÑģÐ¿
ĠÐ¿ÐµÑĢÐµÐ´ Ð½ÐµÐ¹
994 14
ĠM ac
ĠÐ´Ð¾ÑĢÐ¾Ð³ Ð¾Ð¹
ĠÑįÐºÑĢÐ° Ð½Ðµ
ĠÐ¿Ð¾Ð´ÐµÐ»Ð¸ ÑĤÑĮÑģÑı
ĠÐ¿Ð¾Ð´ Ð½ÑıÑĤÑĮ
ĠÐ·ÐµÑĢÐºÐ° Ð»Ð°
ĠÐ¶ÐµÐ»Ð° Ð½Ð¸Ð¸
ĠÐ¾Ð±ÑĢÐ°Ð·Ð¾Ð²Ð° Ð½Ð¸Ð¸
ĠÑĤÐ°Ð± Ð»ÐµÑĤÐºÐ¸
ĠÑĦÑĥÐ½Ð´Ð° Ð¼ÐµÐ½ÑĤ
ĠÐ´ÐµÐ¼ Ð
ĠÐ´ÐµÐ¼Ð ¾
Ð±Ðµ Ð³Ð°
ĠÐ¿Ð¾ÑĤÐµÐ½ÑĨÐ¸ Ð°Ð»
ĠÐ½ÐµÐ¾Ð±ÑħÐ¾Ð´Ð¸Ð¼ ÑĥÑİ
ĠÐľ Ð°ÑģÑģÐ°
ĠÐ¿ÐµÑĢÐµÐ´ Ð²Ð¸
Ð¢ Ðĳ
ĠÐĳ ÑĢÐ°Ð·Ð¸
nÐ£ ÑĩÐµÐ±
nÐłÐµ Ð³Ð¸
nÐĺ Ð³
ĠÐľ ÐµÐ»ÑĮ
nÐľ Ð°Ð¹
ĠÐĹ Ð¸
Ð»Ð° Ñģ
ĠÐºÐ° Ð¼ÐµÑĢÐ°
ĠÐ¾Ð±ÑīÐµ ÑģÑĤÐ²Ðµ
ĠÐ³Ð°ÑĢ Ð´ÐµÑĢ
ĠÐĴÐ¾Ð¿ÑĢÐ¾Ñģ Ñĭ
lo v
ĠÑĥÐ¿ÑĢÐ°Ð² Ð»ÐµÐ½Ð¸ÐµÐ¼
Ð±Ð° Ð¼Ð¸
96 77
Ð´ÑĢÐ°Ð² Ð»Ð¸
ÑĩÑĥ Ðº
nÐ¤Ð¾ÑĢ ÑĥÐ¼
ĠÐ»Ð¸ Ð¼
ĠÐĺÐ½ÑĤÐµÑĢ Ð½ÐµÑĤÐµ
ĠÐ¾Ð· Ð²Ñĥ
nÐŁÐ¾Ð½ ÑĢÐ°Ð²Ð¸
nÐĲ Ð½Ð¾Ð½Ð¸Ð¼
ĠÐ° Ð´ÐµÐºÐ²Ð°
ĠÑĢÐµÐ³ÑĥÐ»Ð¸ ÑĢÐ¾Ð²Ð°Ð½Ð¸Ñı
996 05
[...]
