{"<|endoftext|>":0,"!":1,"\"":2,"#":3,"$":4,"%":5,"&":6,"'":7,"(":8,")":9,"*":10,"+":11,",":12,"-":13,".":14,"/":15,"0":16,"1":17,"2":18,"3":19,"4":20,"5":21,"6":22,"7":23,"8":24,"9":25,":":26,";":27,"<":28,"=":29,">":30,"?":31,"@":32,"A":33,"B":34,"C":35,"D":36,"E":37,"F":38,"G":39,"H":40,"I":41,"J":42,"K":43,"L":44,"M":45,"N":46,"O":47,"P":48,"Q":49,"R":50,"S":51,"T":52,"U":53,"V":54,"W":55,"X":56,"Y":57,"Z":58,"[":59,"\\":60,"]":61,"^":62,"_":63,"`":64,"a":65,"b":66,"c":67,"d":68,"e":69,"f":70,"g":71,"h":72,"i":73,"j":74,"k":75,"l":76,"m":77,"n":78,"o":79,"p":80,"q":81,"r":82,"s":83,"t":84,"u":85,"v":86,"w":87,"x":88,"y":89,"z":90,"{":91,"|":92,"}":93,"~":94,"¡":95,"¢":96,"£":97,"¤":98,"¥":99,"¦":100,"§":101,"¨":102,"©":103,"ª":104,"«":105,"¬":106,"®":107,"¯":108,"°":109,"±":110,"²":111,"³":112,"´":113,"µ":114,"¶":115,"·":116,"¸":117,"¹":118,"º":119,"»":120,"¼":121,"½":122,"¾":123,"¿":124,"À":125,"Á":126,"Â":127,"Ã":128,"Ä":129,"Å":130,"Æ":131,"Ç":132,"È":133,"É":134,"Ê":135,"Ë":136,"Ì":137,"Í":138,"Î":139,"Ï":140,"Ð":141,"Ñ":142,"Ò":143,"Ó":144,"Ô":145,"Õ":146,"Ö":147,"×":148,"Ø":149,"Ù":150,"Ú":151,"Û":152,"Ü":153,"Ý":154,"Þ":155,"ß":156,"à":157,"á":158,"â":159,"ã":160,"ä":161,"å":162,"æ":163,"ç":164,"è":165,"é":166,"ê":167,"ë":168,"ì":169,"í":170,"î":171,"ï":172,"ð":173,"ñ":174,"ò":175,"ó":176,"ô":177,"õ":178,"ö":179,"÷":180,"ø":181,"ù":182,"ú":183,"û":184,"ü":185,"ý":186,"þ":187,"ÿ":188,"Ā":189,"ā":190,"Ă":191,"ă":192,"Ą":193,"ą":194,"Ć":195,"ć":196,"Ĉ":197,"ĉ":198,"Ċ":199,"ċ":200,"Č":201,"č":202,"Ď":203,"ď":204,"Đ":205,"đ":206,"Ē":207,"ē":208,"Ĕ":209,"ĕ":210,"Ė":211,"ė":212,"Ę":213,"ę":214,"Ě":215,"ě":216,"Ĝ":217,"ĝ":218,"Ğ":219,"ğ":220,"Ġ":221,"ġ":222,"Ģ":223,"ģ":224,"Ĥ":225,"ĥ":226,"Ħ":227,"ħ":228,"Ĩ":229,"ĩ":230,"Ī":231,"ī":232,"Ĭ":233,"ĭ":234,"Į":235,"į":236,"İ":237,"ı":238,"Ĳ":239,"ĳ":240,"Ĵ":241,"ĵ":242,"Ķ":243,"ķ":244,"ĸ":245,"Ĺ":246,"ĺ":247,"Ļ":248,"ļ":249,"Ľ":250,"ľ":251,"Ŀ":252,"ŀ":253,"Ł":254,"ł":255,"Ń":256,"Ðµ":257,"Ð°":258,"Ð¸":259,"Ð½":260,"ÑĤ":261,"¾Ð":262,"Ð¾Ð":263,"Ñģ":264,"ÑĢ":265,"Ð»":266,"Ðº":267,"Ð²":268,"Ð¿":269,"Ð¼":270,"Ñĥ":271,"\":":272,"Ð´":273,"Ñı":274,"Ñĭ":275,"ÑĮ":276,"ĠÐ¿":277,"ÑģÑĤ":278,"Ð·":279,",\"":280,"ÐµÐ½":281,"Ñĩ":282,"\":\"":283,"ĠÐ²":284,"\",\"":285,"ĠÑģ":286,"ÑĢÐ°":287,"Ð¾Ð²":288,"la":289,"{\"":290,"Ð±":291,"ro":292,"ru":293,"Ð½Ð°":294,"el":295,"Ð³":296,"pro":297,"ĠÐ¸":298,"bel":299,"prob":300,"label":301,"},":302,"Ð¹":303,"Ñħ":304,"nÐ":305,"},{\"":306,"ÑĢÐµ":307,"ĠÐº":308,"Ð½Ð¸":309,"99":310,"ÐµÑĤ":311,"ĠÐ´":312,"Ð¾Ð»":313,"Ð½Ñĭ":314,"¾ÑĤ":315,"¾ÑĢ":316,"Ð¾ÑĢ":317,"Ð¾Ð´":318,"Ð¾ÑĤ":319,"Ð»Ð¸":320,"Ð¶":321,"Ñİ":322,"Ð¾Ð¼":323,"Ð½Ð":324,"Ð½Ð¾":325,"ÑĤÐµ":326,"ÑĨ":327,"ÑĪ":328,"ĠÐ¼":329,"Ð¾Ð³":330,"ÑģÐº":331,"ÑĢÐ¸":332,"Ð½Ðµ":333,"ĠÐ½Ð°":334,"Ð»ÑĮ":335,"Ð¾Ð±":336,"ÑĤÑĮ":337,"Ð»Ð°":338,"ÐµÐ½Ð¸":339,"Ð·Ð°":340,"Ð¾Ð¹":341,"ÐµÑĢ":342,"ÑĤÐ°":343,"ÐºÐ°":344,"ĠÐ±":345,"Ñī":346,"ÑĦ":347,"Ð²Ð°":348,"¾Ñģ":349,"Ð¾Ñģ":350,"ĠÑĥ":351,"Ð»Ðµ":352,".\\":353,"ÑģÑı":354,"ÑĨÐ¸":355,"Ð»Ñı":356,"¾Ð½":357,"Ð¾Ð½":358,"ÑĤÐ¸":359,"ĠÐ½Ðµ":360,"nt":361,"ÐºÐ¸":362,"ul":363,"ÑĤÐ":364,"ÑĤÐ¾":365,"ĠÐ³":366,"ÑĢÑĥ":367,"Ð¡":368,"Ð¾Ð³Ð":369,"Ð¾Ð³Ð¾":370,"ĠÐ·Ð°":371,"ÐµÐ¼":372,"ar":373,"ull":374,"null":375,"Ð¾Ð²Ð°":376,"¾ÑģÑĤ":377,"Ð¾ÑģÑĤ":378,"ĠÐ¿ÑĢ":379,"20":380,"Ð¾Ðº":381,"ĠÑĩ":382,"Ð¼Ð¸":383,"Ð´Ð°":384,"ĠÑĢÐ°":385,"ÐŁ":386,"Ñį":387,"ÑģÑĤÐ²":388,"ĠÑĤ":389,"ÐĴ":390,"Ð¾Ð¶":391,"Ðļ":392,"ĠÐ°":393,"ĠÐ¾Ð±":394,"Ðŀ":395,"ĠÐ¾ÑĤ":396,"Ð¾Ð¿":397,"ÐĲ":398,"Ð°Ð½":399,"ĠÑį":400,"Ð¾Ð»ÑĮ":401,"ent":402,"ÑĩÐµ":403,"ĠÐŁ":404,"âĢ":405,"war":406,"Ð´Ðµ":407,"Ð²Ð¸":408,"ÐµÐ½Ð¸Ñı":409,"ĠÑģÑĤ":410,"ĠÐ¡":411,"98":412,"ĠÐ¿ÑĢÐ¸":413,"ÐĿ":414,"Ð¼Ð°":415,"Ġ(":416,"ĠÐĴ":417,"ĠÐºÐ°":418,"Ð½ÑĭÐµ":419,"Ðł":420,"ÑĩÐ¸":421,"ÑģÐ¸":422,"Ðľ":423,"Ð¾Ð·":424,"ĠÐ¿Ð":425,"ĠÐ¿Ð¾":426,"ÑģÑĤÐ¸":427,"Ð½ÑĭÑħ":428,"warc":429,"Ġ1":430,"00":431,"ÑģÐºÐ¸":432,"Â»":433,"ĠÐ²Ñĭ":434,"ÑĩÐ°":435,"ĠÐļ":436,"co":437,"Ðĺ":438,",{\"":439,"ÑģÐ¿":440,"Ð½Ð¾Ð¹":441,"Ð½ÑĭÐ¹":442,"Ð´Ð¸":443,"ÑĤÐµÐ»ÑĮ":444,"Ð¢":445,"ĠâĢ":446,"ÐµÐ¹":447,"at":448,"id":449,"er":450,"ÐµÐ½Ð¸Ðµ":451,"ĠÑĢÐµ":452,"ÐĶ":453,"Ð½Ð¾Ð³Ð¾":454,"97":455,"Ð½Ñĥ":456,"ĠÐ´Ð»Ñı":457,"Ð¶Ðµ":458,"ĠÐµ":459,"Ð¼ÐµÐ½":460,"ÑĢÐµÐ´":461,"ĠÐ¸Ð·":462,"ĠÐľ":463,"ÑīÐ¸":464,"ĠÑĦ":465,"Ð°ÑĢ":466,"ÑĪÐ¸":467,"22":468,"ÑİÑĤ":469,"ÑģÐµ":470,"Ð³Ð":471,"Ð³Ð¾":472,"ĠÐĿ":473,"ÑģÑĤÑĮ":474,"96":475,"Ð»Ñĥ":476,"Â«":477,"ĠÑĤÐµ":478,"ĠÐł":479,"nÐŁ":480,"ĠÐŀ":481,"998":482,"Ð¶Ð¸":483,"ÑĤÑĭ":484,"ÐºÑĥ":485,"Ðĳ":486,"Ð³Ð°":487,"95":488,"¾Ð¸":489,"Ð¾Ð¸":490,"ĠÐĲ":491,"ĠÐ¿Ð¾Ð´":492,"on":493,"ÐµÑĢÐµ":494,"in":495,"Ð¾Ð´Ð¸":496,"¾Ðµ":497,"Ð¾Ðµ":498,"Ð»Ñİ":499,"ĠÂ«":500,"ÑĢÑĭ":501,"Ð¿Ð°":502,"ÐµÑĤÑģÑı":503,"ĠÑĤÐ°":504,"Ð½Ð°Ñı":505,"Ð³Ð¸":506,"Ð°Ð²":507,"Ð°Ð¼":508,"Ġ20":509,"ĠÑĢÐ°Ð·":510,"en":511,"Ð´Ñĥ":512,"Ðķ":513,"ÑĨÐ¸Ð¸":514,"Ð½Ð¸Ñı":515,"Ð¼Ðµ":516,"94":517,"ĠÐĶ":518,"15":519,"12":520,"ĠÑĩÑĤÐ¾":521,"997":522,"ÐºÑĤ":523,"ÑģÐºÐ°":524,"ÑīÐµ":525,"ĠÑģÐ²":526,"Ðĵ":527,"93":528,"ĠÐ¼Ð°":529,"ĠÐ¿Ð¾Ð»":530,"es":531,"ĠÐ·":532,"ÑģÐ°":533,"Ð¿Ð¸":534,"nÐĴ":535,"ÑĢÐ¾Ð²":536,"ÑĭÐµ":537,"ÐºÐ":538,"sh":539,"ÐºÐ¾":540,"¾Ñĩ":541,"Ð¾Ñĩ":542,"cont":543,"ĠÐ±Ñĭ":544,"ÑĪÐµ":545,"Ð²Ðµ":546,"content":547,"\\\"":548,"17":549,"ĠÐ¢":550,"14":551,"16":552,"ÑģÑĮ":553,"ĠÐĺ":554,"13":555,"Ð½Ð¾Ð²":556,"Ð½Ð¸Ðµ":557,"Ð·Ð¸":558,"Ð»Ð":559,"Ð»Ð¾":560,"ÐĽ":561,"ÐºÐ¾Ð²":562,"ĠÐ¸Ð½":563,"ĠÑħ":564,"ion":565,"ur":566,"10":567,"25":568,"nÐ¡":569,"18":570,"Ð½Ð¾Ðµ":571,"ĠÐºÐ¾ÑĤ":572,"Ð»ÐµÐ½":573,"ĠÐĳ":574,"Ġ-":575,"¾Ð½Ð°":576,"Ð¾Ð½Ð°":577,"Ð¾Ð´Ð°":578,"ÑĤÑĥ":579,"Ð½Ñı":580,"Ð£":581,"Ð°Ð»ÑĮ":582,"or":583,"23":584,"ÑĢÐ°Ð²":585,"Ð±Ð¾ÑĤ":586,"ÑĤÐ¾Ð¼":587,"24":588,"90":589,"Ð»Ð¾Ð²":590,"ty":591,"26":592,"ĠÐ¼Ðµ":593,"ĠÐ¿ÑĢÐµÐ´":594,"fi":595,"ĠÐ¼Ð¾Ð¶":596,"ĠÐ»Ð¸":597,"ĠÐºÐ¾Ð¼":598,"ers":599,"996":600,"Ð¤":601,"27":602,"ad":603,"ÐĹ":604,"nÐļ":605,"ÑĢÐ¾Ð²Ð°":606,"cat":607,"ĠÑı":608,"ÑĭÑħ":609,"Ð½Ð¾Ð¼":610,"ÑĨÐµ":611,"ÑĤÑĮÑģÑı":612,"35":613,"ĠÐºÐ¾ÑĤÐ¾ÑĢ":614,"ÑģÐºÐ¸Ð¹":615,"ÐµÐ·":616,"Ñĳ":617,"Ð°Ð¹":618,"et":619,"ÑĤÐ¾ÑĢ":620,"84":621,"ĠÑĤÐ°Ðº":622,"86":623,"ĠÐ¸Ð»Ð¸":624,"Ð½Ð¾ÑģÑĤÐ¸":625,"ifi":626,"ÑĥÐ´":627,"ÑĭÐ¹":628,"ident":629,"ĠÐ´Ðµ":630,"\":{\"":631,"nÐŀ":632,"identifi":633,"ĠÐĵ":634,"ĠÐºÐ°Ðº":635,"Ð°Ðº":636,"ĠâĢĶ":637,"Ð½Ð¾ÑģÑĤÑĮ":638,"04":639,"Ð½ÑĭÐ¼":640,"Ð²ÐµÑĤ":641,"Ð°Ð»":642,"re":643,"87":644,"ï¿":645,"ï¿½":646,"ĠÐ²ÑģÐµ":647,"07":648,"Ð·Ð¾Ð²Ð°":649,"ĠâĢĵ":650,"ÑģÑĤÐ²ÐµÐ½":651,"85":652,"05":653,"ĠÐºÐ¾Ð½":654,"ÑģÑģ":655,"ÑģÑĤÐ²Ð°":656,"ÑĨÐ¸Ñı":657,"36":658,"34":659,"ÑĦÐ¸":660,"Ð±Ð¸":661,"ÐµÐº":662,"ĠÐ¾Ð¿":663,"ĠÑģÐ¸":664,"06":665,"ÑĢÐ°Ð½":666,"ĠÑģÐ¿":667,"ÑĢÑı":668,"ĠÐ¿ÑĢÐ":669,"ĠÐ¿ÑĢÐ¾":670,"Ð¶Ð°":671,"ÑģÐºÐ¾Ð¹":672,"nÐĿ":673,"Ð·Ñĭ":674,"ÐµÐ½ÑĮ":675,"ĠÐ²Ð°":676,"al":677,"45":678,"ÑĥÑĢ":679,"995":680,"ĠÐ¾Ñģ":681,"11":682,"ÐºÐµ":683,"ÑģÐºÐ°Ñı":684,"Ð¾Ð³Ð¸":685,"ÑģÑĤÐ²Ð":686,"ÑģÑĤÐ²Ð¾":687,"ï¿½ï¿½":688,"37":689,"¾Ñı":690,"Ð¾Ñı":691,"ÑģÑĤÐ°":692,"..":693,"ĠÐ¿Ð¾Ñģ":694,"Ð²ÐµÑĢ":695,"ÑĥÑİ":696,"ÐµÐ½ÑĤ":697,"Ð¾ÑĢÐ¸":698,"ÑĥÑĤ":699,"ÑģÐ»Ð¸":700,"ÑĢÐ¾Ñģ":701,"ÑĢÐ":702,"ÑĢÐ¾":703,"ĠÐ²Ð¾Ð·":704,"44":705,"ÐŃ":706,"ÑĩÐµÑģÐºÐ¸":707,"pe":708,"ĠÑĢÑĥ":709,"ÑĪÐ°":710,"ĠÐ½Ð¸":711,"Ð¾ÐºÐ°":712,"ĠÑįÑĤÐ¾":713,"Ð¾Ð»Ð¸":714,"ĠÐ½Ð¾":715,"ĠÐ²Ð¸":716,"Ð»ÐµÐ½Ð¸Ñı":717,"ÑħÐ¾Ð´Ð¸":718,"ÐµÑĤÐµ":719,"ĠÐ£":720,"ĠÐ¿ÐµÑĢÐµ":721,"ĠÐĽ":722,"ĠÑĨ":723,"ĠÑĢÐ°Ð±Ð¾ÑĤ":724,"08":725,"ĠÐ¼Ð¸":726,"ÑĦÐ¾ÑĢ":727,"28":728,"Ġ3":729,"urn":730,"Ð¾Ð»ÑĮÐºÐ¾":731,"tl":732,"ĠÐ²Ðµ":733,"ĠÐ¸ÑģÐ¿":734,"ĠÐĹ":735,"Ð§":736,"Ð¾Ð»Ðµ":737,"cation":738,"type":739,"ÑĥÐ±":740,"21":741,"Ð¾ÑģÑĤÐ¸":742,"ĠÐ¤":743,"uid":744,":\\":745,"nÐĶ":746,"ÑģÐºÐ¾Ð³Ð¾":747,"76":748,"\":\"<":749,"identification":750,"uuid":751,"},\"":752,"ĠÐķ":753,"ed":754,"tlsh":755,"Ð·Ñĥ":756,"Ð¼Ñĥ":757,"46":758,"ÑĤÑģÑı":759,"Ð¾Ð»ÑĮÐ·Ð¾Ð²Ð°":760,"he":761,"ĠÐ¿ÑĢÐµ":762,"Ð»ÐµÐ¹":763,"ĠÐ¾Ð±ÑĢÐ°":764,"ÐºÐ¾Ð¼":765,"ÑīÐ°":766,"ÑİÑīÐ¸":767,"75":768,"Ð½ÑĥÑİ":769,"03":770,"Ð¾Ð±Ñĭ":771,"ÑĨÐ°":772,"Ð¼Ñĭ":773,"ÑĤÐ¸Ð²":774,"\":[":775,"ĠÐ´Ð":776,"ĠÐ´Ð¾":777,"ĠÐ¶Ð¸":778,"ĠÑĢ":779,"ĠÑĪ":780,"ĠÑģÐµ":781,"Ð±Ðµ":782,"ÑİÑĤÑģÑı":783,"ĠÐ»Ñİ":784,"Ð¼ÐµÑĢ":785,"ÑģÑĤÐ²Ð¸":786,"ĠÑĩÐ°":787,"Ð¾ÑģÑĤÐ°Ð²":788,"ht":789,"Ð¶Ð´":790,"ĠÑĤÐ¾":791,"ÐµÑĢÐ°":792,"ĠÐ¶Ðµ":793,"ĠÐ¿Ð¾Ð¼":794,"19":795,"ÑħÐ¾Ð´":796,"an":797,">\",\"":798,"55":799,"ÐµÐ²":800,"ĠÐ¿ÐµÑĢ":801,"ÐµÐ½Ð¸Ð¸":802,"ÑĬ":803,"ĠÐ°Ð²":804,"ÑĢÐµÐ¼":805,"83":806,"to":807,"ĠÐŃ":808,"Ð»ÐµÑĤ":809,"ĠÐ´Ð°":810,"nÐľ":811,"ÑĤÐ¾Ð²":812,"Ð°Ð½Ð¾Ð²":813,"ce":814,"ÑĥÐ¿":815,"te":816,"ÑĢÐ°Ð²Ð¸":817,"nÐł":818,"¾ÑĢÐ°":819,"ÑĤÐµÑĢÐ¸":820,"Ð¾ÑĢÐ°":821,"ÑģÑĤÑĢÐ°":822,"ĠÑģÐ°Ð¼":823,"Ġ\\\"":824,"lo":825,"ĠÐ´ÑĢÑĥ":826,"Ð¾ÑģÑģÐ¸":827,"ĠÐµÐ³Ð¾":828,"Ð½Ð¸Ð¸":829,"Ð¥":830,"2022":831,"Ð¾Ð¾Ð":832,"Ð¯":833,"ĠÐ¾Ð±Ð»Ð°":834,"Ð¾Ð´Ñĥ":835,"Ð½Ð¸Ð¼Ð°":836,"47":837,"ÑıÑĤ":838,"ĠÑģÑĤÐ°":839,"ÐµÐ´":840,"ĠÑģÐ":841,"ĠÑģÐ¾":842,"ĠÐĿÐ°":843,"ĠÐ½":844,"sent":845,"66":846,"ĠÐ¾Ð´":847,"Ð¾Ð³ÑĢÐ°":848,"Ġ2":849,"ÐµÐ½Ð¸Ð¹":850,"ĠÐ´Ð¸":851,"Ð»ÐµÐ½Ð¸Ðµ":852,"senten":853,"Ġ5":854,";\\":855,"//":856,"Ð¾Ð±Ð¸":857,"ÑģÑĭ":858,"ag":859,"43":860,"ÑĤÐµÑĢ":861,"ing":862,"Ð¾Ð¾Ð±":863,"Ð¾ÑģÑĤÐ°":864,"Ð½ÑĭÐ¼Ð¸":865,"ĠS":866,"ÐµÑģÐ¿":867,"ĠÐ±Ð¾Ð»ÑĮ":868,"ĠÐ¾Ð½":869,"th":870,"ĠÐ¿Ð¾Ð»Ñĥ":871,"ĠÐ§":872,"ĠÐ¼Ð¾Ð¶Ð½Ð¾":873,"ĠÑįÑĤ":874,"Ð¸Ð½":875,"65":876,"Ð»Ð¾Ð¶":877,"ĠÐ±ÐµÐ·":878,"ĠÐ¿Ðµ":879,"Ð½Ð¸ÐºÐ°":880,"ĠÐ´Ð¾Ð»":881,"ĠÐ½Ð¾Ð²":882,"ĠÐ»Ðµ":883,"Ð¾Ð¸Ð·":884,"Ð±Ð°":885,"ĠÑģÐ»Ñĥ":886,"ig":887,"Ð¶ÐµÐ½":888,"Ð²Ñĭ":889,"ĠÐ¿Ð°":890,"tp":891,"ĠÐłÐ¾ÑģÑģÐ¸":892,"nÐĲ":893,"nÐĺ":894,"Ð¨":895,"88":896,"ÑĥÑģ":897,"ĠÐ´Ð°Ð½":898,"Ð¼Ð¾Ð¶":899,"http":900,"://":901,"ck":902,"09":903,"--":904,"77":905,"Ð»ÐµÐ´":906,"Ð¼Ð¾ÑĤ":907,"Ð½Ð¸Ðº":908,"nÐ¢":909,"Ð¿ÑĢÐ°Ð²":910,"ĠÐ¾ÑĢ":911,"ÑĤÐ¾Ð±Ñĭ":912,"ĠÑģÑĥ":913,"ĠÐ¿Ð»Ð°":914,"ÐºÐ¾Ð½":915,"ĠÐ³Ð¾ÑĢ":916,"¾Ð½Ð¸":917,")\\":918,"Ð¾Ð³Ð´Ð°":919,"Ð¾Ð½Ð¸":920,"ÑĢÐ¾Ð¼":921,"ÐµÑĤÐ¸":922,"ĠÐ²ÑĢÐµÐ¼":923,"head":924,"ĠÐ·Ð½Ð°":925,"ĠÑĦÐ¸":926,"01":927,"Ð¾Ð»Ð¾Ð³Ð¸":928,"02":929,"eng":930,"ĠC":931,"ÐµÑĤÐ°":932,"Ð½Ð¸Ð¹":933,"ĠÐ±ÑĥÐ´":934,"eg":935,"Ġ4":936,"ĠÐ¿Ð¾ÑĤ":937,"Ð³Ñĥ":938,"ÐºÐ¾Ð¹":939,"Ð²Ð°ÑĤÑĮ":940,"ĠÐ¸Ð³":941,"ĠÑĩÐµ":942,"est":943,"Ð¸ÑĤÐ°":944,"pp":945,"ĠÐ¿Ð¾Ð²":946,"33":947,"ÑĢÐµÐ½":948,"ÐºÐ°Ð·Ð°":949,"ÑĩÐ½Ð¾":950,"ĠÐ¿ÑĢÐ¾Ð²":951,"ĠÑģÐ°Ð¹":952,"ĠÐ¾Ðº":953,"ĠÑĤÐ¾Ð»ÑĮÐºÐ¾":954,"ĠÐ¼Ð¾Ð¶ÐµÑĤ":955,"ÑħÐ°":956,"Ð¾Ð½Ð°Ð»ÑĮ":957,"ÑĦÐ¾ÑĢÐ¼Ð°":958,"ĠÑĥÑģ":959,"st":960,"ÑĢÐµÑģ":961,"Ð¼Ð":962,"999":963,"Ð¼Ð¾":964,"ÑĤÐµÐ»Ñı":965,"ĠÐºÑĥ":966,"Ð°Ð·":967,"ĠÐ¸Ñħ":968,"Ð°Ñģ":969,"Ð½ÐµÐ¹":970,"Ð¾ÑĤÐ¾Ð²":971,"Ð¾ÑģÑĤÑĮ":972,"Ð»Ñĭ":973,"ĠÑģÐ¾Ð²":974,"ÑĤÐµÐ»ÑĮÐ½Ð¾":975,"ÑĨÐ¸Ð°Ð»ÑĮ":976,"ng":977,"994":978,"ÑĥÐ½":979,"Ð¾Ð´Ðµ":980,"ĠÑĥÑģÑĤ":981,"Ð²Ð»Ñı":982,"Ð¾ÑĢÐ":983,"Ð¾ÑĢÐ¾":984,"ies":985,"Ð¶Ð½Ð¾":986,"ĠÂ»":987,"qu":988,"ĠÑĦÐ¾ÑĢ":989,"BD":990,"Ð¿ÑĢÐ¸":991,"Ð¾ÑĤÐ¸":992,"Ð»Ð°Ð²":993,"Ð´Ñĭ":994,"56":995,"ĠÐ¼Ñĭ":996,"Ð¿Ñĥ":997,"ĠÐ±Ñĥ":998,"ĠA":999,"age":1000,"Ð»ÐµÐº":1001,"Ð¿Ð¾Ð»":1002,"Ð»ÐµÐºÑĤ":1003,"ÑĢÑĮ":1004,"ÐºÐ»Ñİ":1005,"BE":1006,"ate":1007,"ÐµÐ¼Ñĥ":1008,"pla":1009,"ÑĢÐµÐ±":1010,"ÑĩÐµÐ½":1011,"¾ÑģÐº":1012,"Ð¾ÑģÐº":1013,"Ð°Ð»Ð¸":1014,"con":1015,"ÑĨÐ¸Ð¾Ð½":1016,"ĠÑĤÐ°ÐºÐ¶Ðµ":1017,"DE":1018,"ali":1019,"Ð±Ð":1020,"Ð±Ð¾":1021,"ÑģÐ¾Ð²":1022,"Ð±Ð¾ÑĢ":1023,"ÐµÐ»":1024,"ĠÐºÐ¾ÑĢ":1025,"Ð¹ÑĤÐµ":1026,"nÐĹ":1027,"?\\":1028,"ata":1029,"ĠÐºÑĢÐ°":1030,"Ð±Ñĭ":1031,"ĠÑģÑĤÑĢÐ°":1032,"xt":1033,"Ð¦":1034,"ĠM":1035,"Ð²Ð¾Ð´":1036,"ĠÑģÐ¾Ð±":1037,"Ð¾Ð»ÐµÐµ":1038,"har":1039,"ĠÐ½Ñĥ":1040,"blo":1041,"ĠÑĩÑĤÐ¾Ð±Ñĭ":1042,"ÑĢÐ°Ðº":1043,"ĠÐ¼Ñĥ":1044,"met":1045,"Ð½Ð³":1046,"rus":1047,"EF":1048,"Ġâ":1049,"tar":1050,"ĠP":1051,"ÑıÐ·Ð°":1052,"ÑĩÐµÐ½Ð¸Ðµ":1053,"Ð´ÐµÑĢ":1054,"ĠÐ¿ÑĢÐ¾Ð¸Ð·":1055,"}}":1056,"get":1057,"29":1058,"ĠÐ±ÑĥÐ´ÐµÑĤ":1059,"ĠÐ³Ð¾Ð´Ð°":1060,"cor":1061,"ref":1062,"ÑĩÐµÐ½Ð¸Ñı":1063,"Ð¾Ð¼Ñĥ":1064,"Ð·Ð½Ð°":1065,"ĠÐ¥":1066,"uri":1067,"egor":1068,"vers":1069,"74":1070,"categor":1071,"sha":1072,"ÑĤÐ¸Ñı":1073,"nÐĵ":1074,"text":1075,"leng":1076,"ings":1077,"64":1078,"Ð¸ÑĤÑĮ":1079,"BC":1080,"nÐĿÐ°":1081,"block":1082,"ĠÑĢÐ°Ñģ":1083,"length":1084,"ĠÐ°Ðº":1085,"nÐĳ":1086,"ĠÐºÐ¾ÑĤÐ¾ÑĢÑĭÐµ":1087,"date":1088,"mf":1089,"ÐµÐ½Ð¸Ñİ":1090,"cord":1091,"Ġ|":1092,"38":1093,"dig":1094,"ĠÐ´Ð¾Ð¼":1095,"ÐµÐ½Ð°":1096,"ĠÐ²ÑĢÐµÐ¼Ñı":1097,"ality":1098,"ÐºÑĢÐ°":1099,"ÑĨÐ¸Ñİ":1100,"lang":1101,"30":1102,"target":1103,"https":1104,"version":1105,"record":1106,"quality":1107,"uage":1108,"categories":1109,"plain":1110,"warn":1111,"digest":1112,"adata":1113,"headers":1114,"]}}":1115,"language":1116,"metadata":1117,"conversion":1118,"sentence":1119,"warnings":1120,"mful":1121,"harmful":1122,"refers":1123,"identifications":1124,"\"},\"":1125,"ĠÐ¿Ð¾Ð·":1126,"ÑĨÑĭ":1127,"ÐºÑĢÑĭ":1128,"identified":1129,"ĠÐļÐ°":1130,"ÑģÑĤÐµÐ¼":1131,"ÑĢÐ¾Ðº":1132,"ÑĮÑİ":1133,"Ð´Ð°ÑĢ":1134,"BF":1135,"ĠÑĤÐµÑħ":1136,"Ð¿Ðµ":1137,"ÑģÑĤÐ²Ñĥ":1138,"ÑģÑĤÐ°Ð²":1139,"ĠÐ¸ÑģÐ¿Ð¾Ð»ÑĮÐ·Ð¾Ð²Ð°":1140,"),":1141,"ÑĢÐ¾Ð¹":1142,"Ð¸Ð¼":1143,"\":[{\"":1144,"ĠÐ¼Ð¾Ð³":1145,"ĠÐµÑģÐ»Ð¸":1146,"ÑĢÐ°Ð¶":1147,"Ð½ÐµÐµ":1148,"...\\":1149,"Ð¼ÐµÐ½ÑĤÐ°":1150,"ĠÐ¾ÑĢÐ³Ð°":1151,"ï¿½ï¿½ï¿½ï¿½":1152,"}]}}":1153,"ĠÐ¿Ð¸":1154,"ĠÐĹÐ°":1155,"ÐµÐ½Ð¸ÐµÐ¼":1156,"Ð³Ð¾Ð´":1157,"Ð²Ñĥ":1158,"Ġ6":1159,"ĠÐŁÑĢÐ¸":1160,"¾Ð½Ðµ":1161,"Ð¾Ð½Ðµ":1162,"54":1163,"Ð»ÑģÑı":1164,"ĠÑģÑĢÐµÐ´":1165,"ĠÑįÑĤÐ¾Ð¼":1166,"ÑĤÐµÐ»ÐµÐ¹":1167,"Ð¾Ð±ÑħÐ¾Ð´Ð¸":1168,"Ð¾ÑģÑĤÐ¾Ñı":1169,"ĠÐ¿Ð¾Ðº":1170,"ÑģÑĥ":1171,"¾Ñī":1172,"ÐºÐ»Ð°":1173,"ĠÐ±ÑĭÑĤÑĮ":1174,"80":1175,"ĠÐ²Ð":1176,"ĠÐ²Ð¾":1177,"ÑıÐ±":1178,"ĠÐ¾Ð±ÑĬ":1179,"ÑĥÐ±Ð»Ð¸":1180,"ĠÐ²Ñģ":1181,"ĠÐ¼ÐµÐ½":1182,"Ð¾Ñī":1183,"ĠÐ¸Ð¼":1184,"ÑģÑģÐ¸":1185,"ĠÐ¿Ð¾ÑĢ":1186,"nÐ£":1187,"Ð·ÑĭÐ²Ð°":1188,"ÑĢÐ°Ð»ÑĮ":1189,"il":1190,"67":1191,"ĠT":1192,"ĠÐ¸Ð½ÑĦÐ¾ÑĢÐ¼Ð°":1193,"ĠÐĴÑĭ":1194,"Â»,":1195,"ch":1196,"ĠÐ¼Ð°ÑĤÐµÑĢÐ¸":1197,"Ðĸ":1198,"ĠÐºÐ¾Ð¼Ð¿":1199,"Ð½Ð¸ÐºÐ¸":1200,"ĠÐ°Ð²ÑĤÐ¾Ð¼":1201,"ĠÐ¯":1202,"Ð´ÐµÐ»Ð°":1203,"ĠÑįÐº":1204,"ÑĢÑĥÐ¿":1205,"Ð»ÐµÐ´Ñĥ":1206,"\"]":1207,"\":[\"":1208,"\"],\"":1209,"ÑħÐ¸":1210,"it":1211,"ĠÐ½ÐµÐ¾Ð±ÑħÐ¾Ð´Ð¸":1212,"am":1213,"__":1214,"ĠÐ»ÑİÐ±":1215,"ĠÑĢÑĥÐ±":1216,"ĠÑıÐ²Ð»Ñı":1217,"ÑĦÐµ":1218,"68":1219,"ÐºÐ¸Ðµ":1220,"92":1221,"Ð¾Ð¼Ð¸":1222,"ÑģÑĤÑĢÑĥ":1223,"ĠÑģÐ»ÑĥÑĩÐ°":1224,"ĠÑģÐ¿Ðµ":1225,"Ð»Ð¾Ñģ":1226,"ĠÐ¸Ð¼Ðµ":1227,"nÐ§":1228,"Ð»Ð¸ÑģÑĮ":1229,"ÑĤÑĢÐ°":1230,"ÑģÐºÐ¾Ðµ":1231,"ĠB":1232,"57":1233,"Ð¾Ð¶Ð¸":1234,"ĠÐ¿Ð¾Ð¿":1235,"ÑĤÐµÐ»Ð¸":1236,"Ð¾Ð·Ð´Ð°":1237,"ĠÐ¿ÑĢÐ¾ÑģÑĤ":1238,"Ð´ÐµÐ½":1239,"ĠÐ²Ð¾Ð·Ð¼Ð¾Ð¶":1240,"ÑĢÐ¾Ð´":1241,"ĠÑģÐ¸ÑģÑĤÐµÐ¼":1242,"Ð»ÑĥÑĩ":1243,"ĠÐłÐ¾ÑģÑģÐ¸Ð¸":1244,"DF":1245,"ĠÑģÐ²Ð¾Ð¸":1246,"oo":1247,"Ð¾Ð»Ñı":1248,"ĠÑģÐ°":1249,"ĠÐ»ÐµÑĤ":1250,"63":1251,").":1252,"nÐŀÑĤ":1253,"ÑĭÐ¼":1254,"53":1255,"ĠÐµÑģÑĤÑĮ":1256,"!\\":1257,"ĠÐ²ÐµÑĢ":1258,"ÑĤÑĢÐ¸":1259,"ĠÐ¾ÑĢÐ³Ð°Ð½Ð¸":1260,"ÑĢÐµÐ´Ðµ":1261,"ĠÐºÐ°ÑĢ":1262,"ĠÐ±Ð¾Ð»ÐµÐµ":1263,"ĠÐºÐ¾Ð¼Ð¿Ð°":1264,"¾Ñħ":1265,"ĠI":1266,"993":1267,"ĠÐ¨":1268,"ÑīÐµÐ½Ð¸Ñı":1269,"ĠÐ¾Ñĩ":1270,"ÑĢÐ°ÑĤÑĮ":1271,"ÑĩÐµÑģÐºÐ¸Ðµ":1272,"Ð´Ð¾Ð²":1273,"Ð¾ÑģÐ¾Ð±":1274,"ĠÑĩÐµÐ»Ð¾Ð²":1275,"ÑĢÐ¾Ð²Ð°Ð½":1276,"ĠÐ´ÑĢÑĥÐ³Ð¸":1277,"48":1278,"ÑģÑĤÐ":1279,"40":1280,"Ġ2022":1281,"ÑģÑĤÐ¾":1282,"Ð¾Ð¿ÑĢÐ¾Ñģ":1283,"Ġ10":1284,"ÑģÐºÐ¸Ðµ":1285,"ÑıÐ²":1286,"ĠÑĢÐ°ÑģÐ¿":1287,"ÑĪÐµÐ½Ð¸Ñı":1288,"ĠÐ½Ð°ÑĩÐ°":1289,"ÑģÐ¾Ðº":1290,"Ð¾ÐºÐ°Ð·Ð°":1291,"Ð¾Ð³Ð°":1292,"ÐµÐ½Ñĭ":1293,"ĠÑĥÑĩÐ°":1294,"ĠÐ´ÐµÑĤ":1295,"Ð¾Ð³Ð»Ð°":1296,"ĠÑĤÐµÐ¼":1297,"ĠÑģÐ¾Ð¾Ð±":1298,"ĠÑĨÐµ":1299,"Ð³Ð¾Ð²":1300,"ÑĢÐµÐ¼ÐµÐ½":1301,"Ð¸Ñģ":1302,"ÑıÑħ":1303,"Ð½Ð¸ÐºÐ¾Ð²":1304,"91":1305,"ĠÑģÐµÑĢ":1306,"ÑĢÐ¾Ð±":1307,"ÑģÑĤÐµ":1308,"le":1309,"ĠÐ°Ð´":1310,"Ð¾Ð²Ð°Ð½Ð¸Ñı":1311,"ĠÐ¼ÐµÑĤ":1312,"ort":1313,"ÑĢÐ¾Ð¸":1314,"ĠÐ±Ð¸":1315,"ĠR":1316,"Ð¾ÑģÑĥ":1317,"ĠÐ½Ð°ÑģÑĤ":1318,"ĠÐ¿Ð¾ÑģÐ»Ðµ":1319,"Ð¾ÑĢÐ¾Ð²":1320,"985":1321,"Ġ7":1322,"ĠÐ¾Ð±Ð»Ð°ÑģÑĤÐ¸":1323,"ÐºÐ¸Ñħ":1324,"ĠG":1325,"ĠÐ¾Ð½Ð¸":1326,"ÑĩÐµÑĤ":1327,"ĠÐŀÐ±":1328,"ĠÐ¿ÑĢÐ°Ð²":1329,"Ð¹Ð½":1330,"ĠÑģÐ²Ð":1331,"ĠÑģÐ²Ð¾":1332,"Ð¾ÐºÑĥ":1333,"Ð²Ð¾Ð´Ð¸":1334,"Ð»Ð¾Ð²Ð¸":1335,"ĠÐ¿Ð°ÑĢ":1336,"ÑĪÐ¸Ñħ":1337,"is":1338,"ĠÐ´ÐµÐ¹":1339,"ĠÐ¼Ð½":1340,"Ð¾Ð»ÑĮÐ·Ñĥ":1341,"Ð¾Ð¾ÑĤ":1342,"Ð½ÑĮ":1343,"ĠÑĥÐ¶Ðµ":1344,"ĠÐ¿Ñĥ":1345,"ĠÐ¾ÑĩÐµÐ½ÑĮ":1346,"Ġ/":1347,"ĠÐ¿ÑĢÐ°Ð²Ð¸":1348,"ĠÑģÐ¾Ð·Ð´Ð°":1349,"Ð³Ð¾ÑĤÐ¾Ð²":1350,"ĠÐºÐ°ÑĩÐµ":1351,"FE":1352,"Ð»Ð¸ÑĩÐ¸":1353,"ÑĢÐ¾Ð¿":1354,"ĠÐ¿ÐµÑĢÐ²":1355,"Ð¾Ñħ":1356,"Ð»ÑĮÑĤÐ°":1357,"ĠÑĩÐµÐ¼":1358,"73":1359,"ÑĢÑĥÐ´":1360,"ÑĩÐµÑģÐºÐ¸Ñħ":1361,"ÑģÐºÐ¸Ñħ":1362,"ĠÐ´ÐµÐ½ÑĮ":1363,"Ð¼ÐµÑĤ":1364,"ic":1365,"ÑĢÐµÐ´Ð¸":1366,"ĠÑĤÐ¾Ð¼":1367,"ÑĪÐµÐ½":1368,"Ð»Ð°ÑģÑĮ":1369,"ĠL":1370,"Ð²Ð°ÐµÑĤ":1371,"82":1372,"Ð»Ð¾Ð¼":1373,"ĠÐľÐ°":1374,"Ð¶Ð´Ñĥ":1375,"ĠÑĤÐ¾Ð³Ð¾":1376,"Ð»ÑĮÐ½Ð¾":1377,"ÐºÐ°Ð¼Ð¸":1378,"ĠD":1379,"42":1380,"ÐµÐ»ÑĮ":1381,"Ħĸ":1382,"ÑĢÐ°Ð·":1383,"ÑĨÐ¸Ð¹":1384,"ĠÐ½Ð°Ñģ":1385,"Ð½ÐµÑĤ":1386,"ÂŃ":1387,"ww":1388,"ÐµÐ´Ðµ":1389,"nÐķ":1390,"ĠÐ¼Ð¾Ð³ÑĥÑĤ":1391,"Ð¾ÑĢÑĤ":1392,"Ð¾Ð³ÑĢÐ°Ð¼":1393,"ĠÐľÐ¸":1394,"0000":1395,"ĠÐ²Ð¾Ð¿ÑĢÐ¾Ñģ":1396,"ĠÑģÐ»ÐµÐ´Ñĥ":1397,"Ð»Ð°ÑĤ":1398,"ĠÑįÑĤÐ¸":1399,"ĠÐ´ÐµÐ»Ð°":1400,"ĠÐ¶Ð¸Ð·":1401,"Ð»Ð¸Ñĩ":1402,"ma":1403,"ÑĢÐ¾Ð½":1404,"Ð¼Ð¸Ð½Ð¸":1405,"Ð²Ð°ÑĢ":1406,"ĠÑįÑĤÐ¾Ð³Ð¾":1407,"Ð¾Ð´Ñĭ":1408,"ĠÑģÐº":1409,"ĠÐ±Ð°":1410,"ĠÑĢÐµÐ³Ð¸":1411,"Ð®":1412,"EE":1413,"Ð²ÐµÐ´":1414,"ÑĤÐ¾ÑĢÐ°":1415,"58":1416,"ĠÑįÐ»ÐµÐºÑĤ":1417,"ĠÐ¦":1418,"ÑĢÐ°Ð±Ð¾ÑĤ":1419,"Ð»Ð¾ÑģÑĮ":1420,"ĠF":1421,"Ð¾Ð³Ð¾Ð²":1422,"ÑĩÐ¸ÑĤÑĮ":1423,"ra":1424,"ÑģÑĤÐ²Ðµ":1425,"ĠÐ¿Ð¾ÑģÑĤ":1426,"Ð²Ð":1427,"Ð²Ð¾":1428,"nÐĹÐ°":1429,"ĠÐ²Ð¾Ñģ":1430,"ĠÐ±ÑĭÐ»Ð¾":1431,"ĠÐķÑģÐ»Ð¸":1432,"ĠÐĴÐ°":1433,"Ð»Ð¸Ñı":1434,"Ð½Ð¾Ð²Ð°":1435,"ĠÐ½ÑĥÐ¶Ð½Ð¾":1436,"ÑĩÐ¸ÑĤÐ°":1437,"Ð¿ÑĢÐµ":1438,"ĠÐ¾ÑĤÐ½Ð¾":1439,"ĠÐ¶":1440,"ÑĪÐµÐ¹":1441,"ĠN":1442,"ĠÐ¿Ð¾Ñĩ":1443,"ĠE":1444,"Ð°ÑĤ":1445,"000":1446,"Ð¾Ð¶Ðµ":1447,"ÑģÐºÐ¾Ð¼":1448,"Ð½Ð¾Ð¼Ñĥ":1449,"ĠÐµÐµ":1450,"ces":1451,"Ð²Ð¸ÑĤÑĮ":1452,"ÑĢÐ¸Ñı":1453,"ĠÑģÐ¿Ð¾ÑģÐ¾Ð±":1454,"de":1455,"ĠH":1456,"ĠÐºÐ¾ÑĤÐ¾ÑĢÑĭÐ¹":1457,"ĠÐ¿ÑĢÐ¾ÑĨÐµ":1458,"ĠÑĨÐ²ÐµÑĤ":1459,"ÑĢÐ¾Ð²Ð°ÑĤÑĮ":1460,"41":1461,"Ð½Ð¾ÑģÑĤÑĮÑİ":1462,"81":1463,"ĠÑĢÐ°Ð±Ð¾ÑĤÐ°":1464,"Ð²Ð°Ð½Ð¸Ñı":1465,"ÑĦÐµÑĢ":1466,"ÑĪÐµÐ½Ð¸Ðµ":1467,"ĠÐ½Ð°Ð´":1468,"ĠÐĿÐµ":1469,"Ð¼Ð¸Ð½Ð¸ÑģÑĤÑĢÐ°":1470,"Ð¾ÑĤÐ°":1471,"ĠÑĥÑģÑĤÐ°Ð½Ð¾Ð²":1472,"ĠâĦĸ":1473,"ĠÐ»ÑĥÑĩ":1474,"ĠÑĤÐ¾Ð²Ð°":1475,"ÐºÐ°Ñħ":1476,"ÑīÐµÑģÑĤÐ²":1477,"ĠÑģÐ´ÐµÐ»Ð°":1478,"ĠÐľÐ¾ÑģÐº":1479,"Ð¾ÑģÑĥÐ´Ð°ÑĢ":1480,"ĠÐ¸ÑģÑĤ":1481,"ÑİÑīÐ¸Ðµ":1482,"ĠÐºÐ¾Ð³Ð´Ð°":1483,"50":1484,"ÑĮÑı":1485,"ĠÐ¾ÑģÐ½Ð¾Ð²":1486,"Ð¿ÐµÑĢ":1487,"ĠÐ´Ð¾ÑģÑĤ":1488,"ÑĤÐ¾ÑĢÐ¸":1489,"Ð±Ñı":1490,"Ð»Ð°Ð½":1491,"Ð¾Ð¾ÑĤÐ²ÐµÑĤ":1492,"ĠÐ¾Ð¿ÑĢÐµÐ´Ðµ":1493,"ĠÐĺÐ½":1494,"ĠÐ¿ÑĢÐ¾Ðµ":1495,"ĠÑĢÐ°Ð¹":1496,"ĠÑģÑĤÐ¾Ð¸":1497,"ÑīÐµÐ¹":1498,"ĠÑĢÐ°Ð±Ð¾ÑĤÑĭ":1499,"âĢ¦":1500,"Ð¾Ð½ÑĤÐ°":1501,"nÐŁÑĢÐ¸":1502,"ĠÐ¾ÑĤÐ²ÐµÑĤ":1503,"ÐµÑĢÐµÐ·":1504,"ÐºÐ°Ð·":1505,"Ð¾Ð²Ð°Ñı":1506,"ĠÑıÐ²Ð»ÑıÐµÑĤÑģÑı":1507,"Ð½ÐµÑģ":1508,"ÐµÐ½ÑĤÐ°":1509,"ĠÐĿÐ¾Ð²":1510,"ÑĢÐ°Ñģ":1511,"Ð»Ð¾Ðº":1512,"ĠÐºÐ°Ð¶Ð´":1513,"ÐºÐ°Ð½":1514,"nÐŃ":1515,"Ð´ÐµÐ¹":1516,"ĠÐ²Ð°Ð¼":1517,"ÑĥÐ¼":1518,"Ð¾Ð»Ð¾Ð²":1519,"Ġ0":1520,"ct":1521,"Ġ8":1522,"ĠÐ¿ÑĢÐ¾Ð±":1523,"ÑıÑĤÑĮ":1524,"nÐĽ":1525,"Ð½Ð¸Ñİ":1526,"Ð´Ð¸Ð½":1527,"ĠÐŃÑĤÐ¾":1528,"ĠÐ¿Ð¾Ð»Ð¸":1529,"nÐļÐ°Ðº":1530,"ĠÐµÑīÐµ":1531,"ÑĩÐµÑģÐºÐ¸Ð¹":1532,"Ð»ÐµÐ¼":1533,"ÑĪÐºÐ¸":1534,"ÐµÐºÐ°":1535,"Ð³ÑĢÐ°":1536,"Ð¾Ð¿Ð¾Ð»":1537,"ĠÐ¾ÑģÑĤ":1538,"ĠÐ²Ð¸Ð´Ðµ":1539,"Ð«":1540,"Ð¾ÑģÑĤÐ°Ð²Ð»Ñı":1541,"ĠÑĤÑĢÐµÐ±":1542,"ĠÐ¿ÐµÑĢÑģ":1543,"Ð±Ñĥ":1544,"ĠÐ¿Ð¾Ð»ÑĮÐ·Ð¾Ð²Ð°":1545,"Â».":1546,"ÑĪÐµÐ³Ð¾":1547,"Ð·Ð°ÑĨÐ¸Ð¸":1548,"ÑĥÐ¿Ð°":1549,"us":1550,"39":1551,"ĠÑĥÑģÐ»Ð¾Ð²Ð¸":1552,"ĠÑģÐ²Ñı":1553,"31":1554,"ĠÐ·Ð°ÑīÐ¸":1555,"DA":1556,"ÑĪÑĮ":1557,"ĠÐ²Ð·":1558,"Ð¾Ð´ÐµÑĢ":1559,"Ġs":1560,"ÑĨÐµÐ½":1561,"ĠÐ´Ð°Ð½Ð½ÑĭÑħ":1562,"987":1563,"ĠÐ¸Ð½ÑĤÐµÑĢ":1564,"ĠÐ¿ÑĢÐ¾Ð´Ñĥ":1565,"Ð½Ð¾ÑģÑĤ":1566,"ĠÑģÐ¾Ð³Ð»Ð°":1567,"ĠÑĤÐµÐ»Ðµ":1568,"ĠÐ±ÑĥÐ´Ñĥ":1569,"ĠÐ¸Ð½ÑĤÐµ":1570,"nÐ¤":1571,"ĠÐºÐ¾Ð»":1572,"ĠÑģÐ¾Ð¾ÑĤÐ²ÐµÑĤ":1573,"short":1574,"ÑİÑīÐ¸Ñħ":1575,"ĠÐĸ":1576,"Ð»ÐµÐºÑģ":1577,"ĠÐºÐ»Ð¸":1578,"ÑģÑĤÐµÑĢ":1579,"ĠÐ´Ð¾Ð»Ð¶":1580,"Ð½ÑĥÑĤ":1581,"FA":1582,"ĠÐ´Ð¾Ð±":1583,"ÑīÐµÐ½Ð¸Ðµ":1584,"sentences":1585,"ĠÐ¾Ð±Ð»Ð°ÑģÑĤÑĮ":1586,"ÐºÑĨÐ¸Ð¸":1587,"ÑĩÐµÑģÐºÐ¾Ð¹":1588,"ĠÐĿÐ":1589,"ĠÐĿÐ¾":1590,"ĠÐ½ÐµÑĤ":1591,"Ð²Ð°ÐµÑĤÑģÑı":1592,"ol":1593,"Ð²Ð°Ñı":1594,"ĠÑĢÑĭ":1595,"ÐºÐ¾Ð»":1596,"62":1597,"as":1598,"ĠÑĢÐ°Ð·Ð²Ð¸":1599,"ĠÑĤÐµÑĢ":1600,"ĠÑģÐ¼":1601,"ĠÐ±ÐµÑģÐ¿":1602,"32":1603,"ĠÑģÑĤÐ°ÑĤÑĮ":1604,"ĠÐ»Ð°":1605,"Ð´ÐµÑĤ":1606,"ÑıÐ±ÑĢÑı":1607,"Ð»Ð°Ð¹Ð½":1608,"BA":1609,"Ð»ÑĮÐ½ÑĭÐ¹":1610,"ÑĪÐ¸Ðµ":1611,"ÑīÐµÐ½":1612,"Ð½ÐµÑĢ":1613,"9993":1614,"Ð¶Ð´Ð°":1615,"ĠÐºÐ»Ð°":1616,"ÑĥÐ¼Ð°":1617,"ĠÂ»Â»":1618,"9995":1619,"Ð¾Ð·Ð½Ð°":1620,"ÑīÐµÐ³Ð¾":1621,"ĠÐ±ÑĭÐ»":1622,"Ð³Ð¾ÑĢ":1623,"Ġp":1624,"com":1625,"ĠÐ¿Ð¾Ð·Ð²":1626,"ĠW":1627,"ĠÐ°ÑĢ":1628,"ĠÐ½ÐµÑģÐº":1629,"ĠÐŀÑĤ":1630,"ÑģÑĤÐ²Ð¸Ñı":1631,"ĠÐ³Ð¸":1632,"ter":1633,"Ð²Ð°ÑİÑĤ":1634,"Ð»ÐºÐ¸":1635,"Ð¿Ð¸ÑĤÑĮ":1636,"¾ÑĢÐµ":1637,"ÑģÑĤÑĢÐµ":1638,"ĠÐ¸ÑģÐ¿Ð¾Ð»ÑĮÐ·Ñĥ":1639,"Ð¾ÑĢÐµ":1640,"ÐµÐ½Ðµ":1641,"ĠÐĶÐ»Ñı":1642,"9996":1643,"ĠÐ¸ÑģÐº":1644,"Ð»ÐºÐ°":1645,".\",\"":1646,"ĠÐ»":1647,"986":1648,"ĠÐŁÐ":1649,"Ð¾ÑĤÐ¸Ð²":1650,"52":1651,"ĠÐ¿ÑĢÐ¾Ð³ÑĢÐ°Ð¼":1652,"ĠÑģÐµÐ¼":1653,"ĠÐŁÐ¾":1654,"ĠÐ¿ÑĢÐ¾Ð´":1655,"ĠÑħÐ¾ÑĢÐ¾":1656,"89":1657,"Ð¾ÑĤÐ¾ÑĢ":1658,"ÑĤÐ¾Ð¼Ñĥ":1659,"ÑĢÐµÑĤÑĮ":1660,"Ð¾Ð»Ð¸ÑĩÐµ":1661,"ÑıÐ½":1662,"ÑħÐ¾Ð²":1663,"ĠÑĩÐµÑĢÐµÐ·":1664,"ĠÐ´Ð°Ð¶Ðµ":1665,"ÑħÐ¾Ð´Ð¸ÑĤ":1666,"ÑĤÑĢ":1667,"Ð¿Ð¸ÑģÐ°":1668,"59":1669,"Ð¾Ð²Ð°ÑĤÑĮ":1670,"ĠÑĤÑĭ":1671,"ĠÐ´Ð¾Ð¼Ð°":1672,"9994":1673,"Ð½Ð¸ÑĤÐµÐ»ÑĮ":1674,"ĠÐ¾Ð½Ð°":1675,"49":1676,"Ð¾Ð²Ð°Ð½Ð¸Ðµ":1677,"CA":1678,"ĠÐ¾ÑģÐ¾Ð±":1679,"ĠÐ²ÑģÐµÑħ":1680,"ĠÐ²ÑģÐµÐ³Ð¾":1681,"nÐŁÐ¾Ð´":1682,"ĠÑĤÐ¸":1683,"ĠÐ²Ð»Ð°":1684,"ĠÐĿÐ¸":1685,"ĠÐ¼Ð¾Ð¶ÐµÑĤÐµ":1686,"ab":1687,"Ð´Ð°Ð½":1688,"âĢĶ":1689,"Ð¼Ð¾ÑģÑĤÐ¸":1690,"EA":1691,"ÑĢÐ°ÑĤ":1692,"Ð²Ð°Ð½Ð¸Ðµ":1693,"ÑįÑĤÐ¾Ð¼Ñĥ":1694,"ĠÑĥÑģÐ»Ñĥ":1695,"60":1696,"ĠÑģÐ»ÑĥÑĩÐ°Ðµ":1697,"ĠÑĥÐ´Ð°":1698,"Ð°ÑĤÐ°":1699,"ÑĢÐ¾ÑģÑĤ":1700,"Ð¿Ð»Ð°":1701,"Ð½Ð¸ÑĤÑĮ":1702,"ĠÐ³Ð¾Ð´":1703,"61":1704,"FF":1705,"Ð»ÑıÑĢ":1706,"ov":1707,"ÑĩÐµÑģÐºÐ¾Ð³Ð¾":1708,"ĠÐ±Ð¾Ð»ÑĮÑĪÐµ":1709,"Ġt":1710,"Ð»Ð¸Ð½":1711,").\\":1712,"ĠÐ³Ð¾ÑģÑĥÐ´Ð°ÑĢ":1713,"Ð¾ÑĤÐ":1714,"ĠÐ³ÑĢÐ°":1715,"Ð¾ÑĤÐ¾":1716,"ÑģÑĤÑĭ":1717,"ĠÐºÐ¸":1718,"ĠÐ¾Ð±ÑıÐ·Ð°":1719,"ĠÐ½ÐµÐ´":1720,"ĠÐ¾ÑĤÐºÑĢÑĭ":1721,"ÑīÐ¸Ðµ":1722,"ri":1723,"Ð¾ÑĤÐµ":1724,"ĠÐĴÑģÐµ":1725,"Ġ15":1726,"ÐµÑģÐ¿Ðµ":1727,"ÐµÑĤÑĭ":1728,"78":1729,"Ġ[":1730,"Ð²Ð¾ÑĢ":1731,"ÐºÑĤÑĭ":1732,"Ð½Ð°Ð»Ð¸":1733,"Ð°Ð½Ð´":1734,"ĠÐ¾Ð´Ð¸":1735,"ĠÐ¶ÐµÐ½":1736,"ĠÑĢÐ°ÑģÑģ":1737,"ÑīÐ°Ñı":1738,"ĠÐ³Ð¾Ð´Ñĥ":1739,"ÑĨÐµÐ²":1740,"71":1741,"Ð¼ÐµÐ½ÑĤÐ°ÑĢÐ¸":1742,"ĠÐ·Ð°ÐºÐ¾Ð½":1743,"ÐºÐ»ÑİÑĩÐ°":1744,"ĠÐ³Ð°":1745,"ĠÐ¿Ð¾Ð¼Ð¾Ñī":1746,"ĠÐ¼Ð°ÑĢ":1747,"ĠÐ´Ð¾ÐºÑĥ":1748,"ĠV":1749,"ĠÐ¼ÐµÐ¶Ð´Ñĥ":1750,"ÐºÑĤÐ¾Ð²":1751,"ÑīÐ¸Ñħ":1752,"...":1753,"Ð¡Ð¢":1754,"Ð¾Ð»Ð¾Ñģ":1755,"Ð¿Ñĭ":1756,"nÐĴÑĭ":1757,"ÑĩÐ¸Ð½Ð°":1758,"ÐºÐ¸Ð¹":1759,"ÑĦÐµÐº":1760,"ÑĤÐ¸Ðµ":1761,"Ð¹ÑĤÐ¸":1762,"ĠÐ´ÑĢÑĥÐ³":1763,"ĠÐ¾ÑĤÐ´Ðµ":1764,"nÐŀÐ±":1765,"Ð²Ð¾Ð·":1766,"ĠÐ¿ÑĢÐ¾Ñģ":1767,"ĠÐ²ÑĭÐ¿Ð¾Ð»":1768,"ĠÐ³Ð´Ðµ":1769,"ĠÑĦÐ°":1770,"ĠÐ¾Ð±ÐµÑģÐ¿Ðµ":1771,"Ð¸ÑĤ":1772,"ĠÐ¾Ð±ÑĢÐ°Ð·Ð¾Ð²Ð°":1773,"Ð½Ð¸ÐµÐ¼":1774,"Ð³Ðµ":1775,"ĠÐ¤ÐµÐ´Ðµ":1776,"ĠÐ¿ÑĢÐ¸Ð¼ÐµÐ½":1777,"ĠÐ²Ð°Ñģ":1778,"ÐºÑĤÑĥ":1779,"Ð²Ð¸ÑģÐ¸":1780,"ÐºÐ¸Ð¼":1781,"om":1782,"9990":1783,"ÐºÐ°Ñı":1784,"Ð»ÑĮÐ½ÑĭÐµ":1785,"Ð¼ÐµÐ½Ð¸":1786,"¾ÑĦÐ¸":1787,"ĠÑģÐ»":1788,"ĠÐ¼ÐµÐ½Ñı":1789,"ÑģÐ¿Ðµ":1790,"Ð°ÑĢÐ°Ðº":1791,"Ð»ÑĮÐ½Ð¾Ð³Ð¾":1792,"ĠÐ¼Ð¾Ð»":1793,"ĠÐ¢Ð°Ðº":1794,"Ð½Ð¾Ð»Ð¾Ð³Ð¸":1795,"Ð¾ÑĦÐ¸":1796,"ĠÑģÐµÐ±Ñı":1797,"ĠÑİ":1798,"ÑĤÐ¸ÐºÐ°":1799,"Ð³Ð°Ð·Ð¸":1800,"Ð·ÑĥÐ»ÑĮÑĤÐ°":1801,"ÑĦÐ¾Ð½":1802,"ÐĻ":1803,"ĠÐ¿ÐµÑĢÑģÐ¾Ð½Ð°Ð»ÑĮ":1804,"ÑģÑĤÑĢÐ¸":1805,"ĠÑĤÑĢÑĥ":1806,"ie":1807,"ĠÑĢÐµÐ·ÑĥÐ»ÑĮÑĤÐ°":1808,"ĠÐ²ÑĭÑģÐ¾Ðº":1809,"ÑĢÑĥÐ·":1810,"Ð¼ÐµÐ½ÑĤ":1811,"ÑıÐ¼":1812,"ÐºÑĤÐ¾ÑĢ":1813,"Â»\\":1814,"51":1815,"ĠÐ®":1816,"Ð´ÑĮ":1817,"ÑĩÐµÑģÐºÐ°Ñı":1818,"Ð¬":1819,"ÑĨÑĥ":1820,"9997":1821,"988":1822,"ĠÐ´Ð²Ð¸":1823,"ĠÑĨÐµÐ½ÑĤ":1824,"be":1825,"Ð¾Ð¿Ð¸":1826,"ĠÐ¿ÑĢÐµÐ´ÑģÑĤÐ°Ð²":1827,"ÑģÐ»Ñĥ":1828,".,":1829,"69":1830,"ĠÐ³Ð¾Ð²":1831,"Ġ12":1832,"Ð¶ÐµÐ½Ð¸Ñı":1833,"ĠÑĦÑĥÐ½":1834,"Ð²Ð¾Ð¹":1835,"uk":1836,"Ð²ÐµÑģÑĤ":1837,"ĠÑĥÐ³":1838,"Ð¿ÐµÑĢÐ°":1839,"ĠÑģÑĤÐ°Ð½":1840,"Ð°ÑĤÐ¸":1841,"ĠÐ³ÑĢÑĥÐ¿":1842,"ĠÐ·Ð°Ð±":1843,"----":1844,"Ð½Ð¸Ð¼":1845,"Ġ+":1846,"ĠÐ¾Ð±Ð¾ÑĢ":1847,"ĠÑĤÑĥ":1848,"ÑģÑĤÐ°Ð½":1849,"ÑģÑĤÐ²Ð¸Ðµ":1850,"ĠÑĥÑĩÐ°ÑģÑĤ":1851,"ĠÑĤÐ¾ÑĢ":1852,"ÑĥÑĩ":1853,"ĠÐ¿Ð¾ÑģÐ»ÐµÐ´":1854,"ĠÐłÐ°":1855,"ÑĤÐ¾Ñĩ":1856,"Ð½ÐµÐ½Ð¸Ñı":1857,"ĠÐ½Ð¸Ñħ":1858,"ĠÑĢÐ¸":1859,"ĠÑģÐ¾Ð´ÐµÑĢ":1860,"ĠÑĥÐ¿ÑĢÐ°Ð²":1861,"ĠÐ¾Ð½Ð»Ð°Ð¹Ð½":1862,"ÑİÑīÐ¸Ð¹":1863,"ÑĩÐ°ÑĤÑĮ":1864,"ÑīÐµÐµ":1865,"ĠÑĨÐ¸":1866,"ĠÑģÑĤÐ¸":1867,"ĠÐ½ÐµÐ¾Ð±ÑħÐ¾Ð´Ð¸Ð¼Ð¾":1868,"Ð¾Ð¶Ð´":1869,"ĠÐ¼Ð½Ð¾Ð³Ð¾":1870,"ĠÐ¼Ð°ÑĤÐµÑĢÐ¸Ð°":1871,"Ð½Ð¸ÑĨÐ°":1872,"Ð¿ÑĢ":1873,"ÑĨÐ¸Ð°Ð»Ð¸":1874,"ÑĢÑĥÐ³":1875,"ĠâĢ¦":1876,"ĠÐļÐ°Ðº":1877,"ÑĤÐ²ÐµÑĢ":1878,"ĠÐ¿ÑĢÐ¾ÑģÑĤÐ":1879,"ĠÐ¿ÑĢÐ¾ÑģÑĤÐ¾":1880,"ĠÐŁÐ¾Ð´":1881,"ĠÐºÐ¾Ð»Ð¸ÑĩÐµ":1882,"ĠÑĤÑĢÐ°Ð½":1883,"ÑĢÐ¸Ð°Ð½":1884,"Ð²Ð°ÐµÐ¼":1885,"Ð½Ð¸Ñħ":1886,"ÑĪÐ¸Ð¹":1887,"ÐµÑĢÑħ":1888,"ĠÑģÐ¾ÑģÑĤÐ¾Ñı":1889,"ÐµÐ»Ð¸":1890,"ĠÑĪÐ¸":1891,"Ð´Ð¾ÑĢÐ¾Ð²":1892,"ÑĢÐ¾Ð¸ÑĤÐµÐ»ÑĮ":1893,"BB":1894,"72":1895,"ĠÐ³Ð¾ÑĢÐ¾Ð´":1896,"ĠÑĩÑĥ":1897,"ÑģÑĤÐ¾Ð²":1898,"ĠÑģÐ°Ð¹ÑĤÐ°":1899,"ĠÐ¿Ð»Ð¾":1900,"ÐºÑĤÐ°":1901,"ÑĪÐµÐ¼":1902,"ĠÐºÐ¾Ð¼Ð¿Ð°Ð½Ð¸Ð¸":1903,"ĠÑģÐ°Ð¹ÑĤÐµ":1904,"Ð½ÐµÐ²":1905,"li":1906,"ĠÑģÐ¿Ð¸":1907,"Ð¾Ð¿Ð°Ñģ":1908,"ac":1909,"ÐµÐ½Ð½Ð¾":1910,"70":1911,"ot":1912,"ĠÐ°Ð²ÑĤÐ¾Ð¼Ð¾Ð±Ð¸":1913,"CE":1914,"Ð¸Ñĩ":1915,"ĠÑģÐ²Ð¾Ð¹":1916,"ĠÐ¿ÐµÑĢÐµÐ´":1917,"ÑıÐ²Ð¸":1918,"ÑģÑĤÐ²ÑĥÐµÑĤ":1919,"ĠÐ»ÐµÐ³":1920,"ĠÐ±Ð»Ð°":1921,"ÑģÑĤÐ²ÑĥÑİ":1922,"ĠÑĥÑĢÐ¾Ð²":1923,"Ð°Ð´":1924,"AA":1925,"ÐµÐ¿":1926,"ĠÐ²ÑĭÐ±":1927,"ĠÐ¾ÑģÑĤÐ°":1928,"Ġ25":1929,"DD":1930,"ÑĮÐµ":1931,"of":1932,"Ð¼Ð¾ÑģÑĤÑĮ":1933,"Ġf":1934,"ĠÐ¸Ð·Ð¼ÐµÐ½":1935,"Ð½Ð´":1936,"ÐĿÐĺ":1937,"ĠÐ±Ð°Ð½":1938,"ĠÐ¿ÑĢÐ¾Ð¸Ð·Ð²Ð¾Ð´":1939,"Ð²Ð»Ðµ":1940,"ÑħÐ¾Ð´Ñı":1941,"¾ÑĩÐµ":1942,"Ð¸Ð·":1943,"ĠÐ³Ð»Ð°":1944,"Ð¼ÐµÐ½ÑĤÑĭ":1945,"Ð°Ð³":1946,"____":1947,"ĠÑħÐ°ÑĢÐ°Ðº":1948,"ĠÐ¼Ð°Ñģ":1949,"ĠÐ´ÑĢ":1950,"Ð»Ð¾Ð³":1951,"ĠĠ":1952,"un":1953,"Ð²Ð°Ð»Ð¸":1954,"ÑģÑĤÐ²Ð¾Ð¼":1955,"ÑıÑģ":1956,"ĠÑģÐ²Ð¾Ðµ":1957,"ya":1958,"Ð±ÑĥÑĢ":1959,"ĠÐ±ÐµÑģÐ¿Ð»Ð°ÑĤ":1960,"ÑĳÐ½":1961,"ĠÐ¾ÑģÑĥ":1962,"ĠÐ½ÐµÑģÐºÐ¾Ð»ÑĮÐºÐ¾":1963,"ĠÑĥÐ´":1964,"ĠÐ±ÑĭÐ»Ð¸":1965,"ĠÐ¸Ð½ÑĤÐµÑĢÐµÑģ":1966,"ÐµÐ´Ð¸":1967,"ĠÐ¼ÐµÑģÑı":1968,"ĠÐ¾Ð´Ð¸Ð½":1969,"Ð³Ð´Ð°":1970,"ĠÐ¿Ð¾Ð´Ð´ÐµÑĢ":1971,"Ð¾ÑĩÐµ":1972,"ĠÐ¿ÑĢÐ¾ÑĤÐ¸Ð²":1973,"ĠÐ¸ÑģÑĤÐ¾ÑĢÐ¸":1974,"Ġ9":1975,"Ð¹ÑģÐºÐ¾Ð¹":1976,"ĠÑįÑĤÐ¾Ð¹":1977,"Ð¾Ð¶Ð°":1978,"984":1979,"ĠÐ¿ÑĢÐ¾Ð´Ð°":1980,"ĠÐ¡Ð°":1981,"ĠÐ´Ñĥ":1982,"ÑĤÐµÐ½":1983,"ĠÐ¾Ð±ÑĢÐ°Ð·":1984,"Ġ18":1985,"Ð´Ð¶":1986,"Ð½ÐµÐ³Ð¾":1987,"Ð¸Ð½Ð°":1988,"ÑĢÑıÐ´":1989,"ĠÐłÐµ":1990,"ĠÑįÐºÑģÐ¿":1991,"ĠÐ´Ð¾ÑĢ":1992,"79":1993,"ÐºÑĢÐµ":1994,"Ġ30":1995,"ĠO":1996,"ĠÑĥÐºÐ°Ð·Ð°":1997,"ĠÑįÑĤÐ°":1998,"ĠÑįÑĦ":1999,"ÐºÐ¾Ð½Ð¾Ð¼Ð¸":2000,"da":2001,"Ġ2021":2002,"ĠÐ¼Ð½Ðµ":2003,"ĠÐ¶Ð¸Ð·Ð½Ð¸":2004,"Ñĸ":2005,"ĠÐłÐ¤":2006,"ĠÐ¿Ð¾Ð»ÑĥÑĩÐ¸":2007,"Ð»Ð¾ÑĤ":2008,"ÑĪÐ¸Ð¼":2009,"FC":2010,"ÑıÐ´":2011,"ĠÐ²Ð½Ðµ":2012,"990":2013,"ĠÐ¿Ð¾Ð¼Ðµ":2014,"ÑĢÐ¾Ð²Ð°Ð½Ð¸Ðµ":2015,"ĠÑįÑĤÐ¾ÑĤ":2016,"Ð½Ð¸Ñĩ":2017,"ÑĤÐ¸Ð½":2018,"ÑĤÐ¾ÑĢÑĭ":2019,"im":2020,"ĠÐĲÐ²":2021,"nÐķÑģÐ»Ð¸":2022,"ÑĤÐºÐ¸":2023,"Ð´ÐµÑģÑĮ":2024,"ĠÐĶÐ°":2025,"Ġ11":2026,"Ð¾Ð¿Ñĥ":2027,"ÑģÑĤÑĢÐ¾":2028,"ĠÐ²Ð¾Ð´":2029,"ĠÐ´Ð¾Ð¿Ð¾Ð»":2030,"ĠÐ¾Ð±ÑĢÐ°Ð±Ð¾ÑĤ":2031,"9975":2032,"ĠÐ¿ÑĢÐ¾Ð¸Ð·Ð²Ð¾Ð´Ð¸":2033,"ÑīÐ¸Ð¹":2034,"Ġm":2035,"ĠÐ½ÐµÐ¿":2036,"ĠÐĲÑĢ":2037,"Ð¿ÑĢÐ¸Ð¼ÐµÑĢ":2038,"ĠÐ±Ðµ":2039,"Ð±Ð»Ð¸":2040,"ĠÑĩÐ¸Ñģ":2041,"ÐºÑģÐ¸":2042,"ÑĤÐ¸Ð¹":2043,"ĠÐ¡ÑĤÐ°":2044,"ne":2045,"ĠÑĢÐ¾Ñģ":2046,"ĠÑģÐ¾ÑĤ":2047,"ĠÑģÐ¾Ð±ÑģÑĤÐ²ÐµÐ½":2048,"Ð¾Ð³ÑĢÐ°ÑĦÐ¸":2049,"ĠâĢ¦\\":2050,"ĠÐ¿ÐµÑĢÐ¸":2051,"Ð¾ÑĢÐ°Ñı":2052,"ÐµÐ½ÑĤÐ¾Ð²":2053,"ĠÐºÑĥÑĢ":2054,"ÑĢÐ°ÐºÑĤÐ¸":2055,"ĠÐŁÑĢ":2056,"ĠÐ°Ð½":2057,"Ð²ÑĢÐ°":2058,"ĠÐ²Ð°ÑĢÐ¸Ð°Ð½":2059,"Ð¸Ð»Ð¸":2060,"Ġ,":2061,"Ð»ÑĮÐ½ÑĭÑħ":2062,"Ð³Ð¾Ð´Ð½Ñı":2063,"ĠÐ²Ð½Ð¸Ð¼Ð°":2064,"ĠÐ¾Ð±ÑīÐµ":2065,"Â».\\":2066,"ut":2067,"ka":2068,"ÑĦÐ¸ÐºÐ°":2069,"ÐºÐ¾Ð²Ð°":2070,"ĠÑĩÐµÐ»Ð¾Ð²ÐµÐº":2071,"ĠÐ¿ÐµÑĢÑģÐ¾Ð½Ð°Ð»ÑĮÐ½ÑĭÑħ":2072,"ÐµÑģÐ¿ÑĥÐ±Ð»Ð¸":2073,"do":2074,"Ð¶ÐµÐ½Ð¸Ðµ":2075,"Ð¼ÐµÐ½Ð½Ð¾":2076,"ĠÐºÐ¾ÑĤÐ¾ÑĢÐ°Ñı":2077,"Ð»ÐµÐ½Ð¸Ð¸":2078,"ĠÐ±Ð¾Ð»ÑĮÑĪ":2079,"ĠÑĢÐµÐ±":2080,"ÐºÑĨÐ¸Ñı":2081,"ĠÐ¾Ð±Ñĭ":2082,"ĠÑĢÐ°Ð·Ð¼Ðµ":2083,"foo":2084,"ĠÐ¼Ð°ÑĪÐ¸":2085,"ĠÐ´Ð²Ñĥ":2086,"ĠÐ½ÐµÐº":2087,"ĠÑĥÑĩ":2088,"ĠÐ²ÑĢÐ°":2089,"ĠÐ¾ÑĦÐ¸":2090,"ÑĦÐµÑģÑģÐ¸":2091,"ÑıÑĤÐµÐ»ÑĮ":2092,"ĠÑģÐ´ÐµÐ»Ð°ÑĤÑĮ":2093,"ĠÐ¼Ð¾Ð´Ðµ":2094,"ĠÐŀÐ½":2095,"Ð¼ÐµÑĤÐ¸":2096,"ĠÑĥÐ¿":2097,"Ð½Ð¸ÑĨÐ¸":2098,"ÑĨÐ¸Ð¾Ð½Ð°Ð»ÑĮ":2099,"ĠÐ¼ÐµÑģÑĤ":2100,"nÐĶÐ»Ñı":2101,"Ð²ÑĭÐµ":2102,"ĠÐ¼Ð°ÑĤÐµÑĢÐ¸Ð°Ð»":2103,"ĠÐ´Ð¾ÑģÑĤÑĥÐ¿":2104,"ÑĤÐ¸ÑĤÑĮ":2105,"ĠÐºÑĤÐ¾":2106,"ÑĢÐ¾Ð²Ð°Ð½Ð¸Ñı":2107,"âĢĵ":2108,"ĠÐºÐ¾ÑĤÐ¾ÑĢÑĭÑħ":2109,"ĠÐ¾Ð±Ð¾ÑĢÑĥÐ´":2110,"Ð»Ð°Ð´Ð¸":2111,"ĠÐ°Ð´Ð¼Ð¸Ð½Ð¸ÑģÑĤÑĢÐ°":2112,"ĠÐ¸Ð¼ÐµÐµÑĤ":2113,"ĠÐļÐ¾Ð¼":2114,"ÑģÑĥÑĤ":2115,"/\",\"":2116,"ÑĦÐµÑĢÐµÐ½":2117,"Ġ19":2118,"Ð¸Ð»":2119,"ÐºÐ¾Ð¼ÐµÐ½":2120,"ĠÐ¿Ð¾Ð½":2121,"ĠÐ¿Ð¾Ð·Ð²Ð¾Ð»Ñı":2122,"Ð»ÑĮÑĤÑĥ":2123,"ĠÐ¼Ð¾Ð¼":2124,"footer":2125,"ĠÐ·Ð°Ð´Ð°":2126,"ÑĤÐµÐ¼":2127,"ĠÑģÐ¿ÐµÑĨÐ¸Ð°Ð»ÑĮ":2128,"ĠÐ±ÑĭÐ»Ð°":2129,"ÑĢÐ°ÑĨÐ¸Ð¸":2130,"Ð»ÑĮÐ½Ð¾Ð¹":2131,"ÑĩÐ°Ñģ":2132,"ĠÐ¢Ð°":2133,"ĠÐ¾Ð³":2134,"ĠÐ´ÑĢÑĥÐ³Ð¸Ñħ":2135,"Ġ16":2136,"Ð½Ð°ÐºÐ¾":2137,"Ð½Ð°Ð»":2138,"nÐĺÐ½":2139,"Ð²ÐµÑģÑĤÐ¸":2140,"nÐĿÐ¾Ð²":2141,"and":2142,"ĠÐºÐ":2143,"ĠÐºÐ¾":2144,"Ð´ÐµÐ»Ð¸":2145,"ÐµÑĢÑĭ":2146,"ÐłÐŀ":2147,"ĠÐ¿Ð¾ÐºÐ°":2148,"ĠÐ¢Ðµ":2149,"www":2150,"ĠÑĤÑĢÐ°":2151,"ĠÐ±ÐµÐ·Ð¾Ð¿Ð°Ñģ":2152,"ĠÐ±ÑĥÐ´ÑĥÑĤ":2153,"Ð·Ð¼":2154,"ĠÑĢÐ°ÑģÑĤ":2155,"ĠÐ¼ÐµÐ´Ð¸":2156,"ĠÑĩÐ°ÑģÑĤÐ¸":2157,"Ġ14":2158,"ia":2159,"ÑĤÐµÑģÑĮ":2160,"992":2161,"ĠÐ¿ÑĢÐ°":2162,"ÑĪÐºÐ°":2163,"ÐºÑĤÐ¸":2164,"ÑĢÐµÐ¹":2165,"ÑĢÐµÐ²":2166,"ĠK":2167,"ĠÐ½Ð°Ð¿ÑĢÐ°Ð²":2168,"Ð±Ð¾Ð»ÑĮ":2169,"Ð·Ð°ÑĨÐ¸Ñı":2170,"ÐºÑģ":2171,"ÑĨÐ¸ÐµÐ¹":2172,"ĠÐļÐ¸":2173,"Ð¼Ð¾Ð½":2174,"ĠÐ¶Ð¸Ð²":2175,"ĠÐŁÐ¾Ñģ":2176,"Ð»ÑĮÐ½Ð°Ñı":2177,"ĠÑĨÐµÐ½":2178,"ÑĥÐ·":2179,"ĠÐ·Ð°Ð²Ð¸ÑģÐ¸":2180,"ÐµÐ¼Ð°":2181,"ĠÐ³Ð»Ð°Ð²":2182,"ĠÐ³Ð¾ÑĤÐ¾Ð²":2183,"ĠÐ½Ð°Ð¿":2184,"\\\",":2185,"ÐµÐ¼Ð¸":2186,"ĠÐ²ÑģÐµÐ³Ð´Ð°":2187,"ĠÑĢÐµÐ³Ð¸ÑģÑĤÑĢÐ°":2188,"ĠÐ¿Ð¾ÐºÐ°Ð·Ð°":2189,"ĠÑģÐ¸ÑģÑĤÐµÐ¼Ñĭ":2190,"ĠÐ³Ð¾ÑģÑĥÐ´Ð°ÑĢÑģÑĤÐ²ÐµÐ½":2191,"Ð²Ð°ÑĢÑĤÐ¸":2192,"ĠÐ·Ð°Ð¿":2193,"Ð»Ð¾Ð½":2194,"ĠÐ¡Ðµ":2195,"Ð½Ð¸ÑĨÑĭ":2196,"ĠÑĤÐµÑħÐ½Ð¾Ð»Ð¾Ð³Ð¸":2197,"ÑģÑĤÐ°Ð½Ð¾Ð²":2198,"ĠÑĢÐ¾ÑģÑģÐ¸":2199,"Ð¾ÑĢÑĤÐ°":2200,"ÑĤÐµÑĢÐ°":2201,"Ð²Ñı":2202,"ĠÐ¸Ð½ÑģÑĤÑĢÑĥ":2203,"ĠÐ¾Ð¿ÐµÑĢÐ°":2204,"ĠÑģÑĩÐ¸ÑĤÐ°":2205,"ĠÑĩÐ°ÑģÑĤ":2206,"ĠÐ»Ð¸Ñĩ":2207,"ĠÐļÐ¾Ð½":2208,"mail":2209,"ÑĳÑĤ":2210,"ws":2211,"ĠÐ½Ð°Ð¼":2212,"ĠÐ¾ÑģÑĥÑīÐµÑģÑĤÐ²":2213,"ÑĩÑĥ":2214,"ÑıÐ¼Ð¸":2215,"Ð¸Ð´":2216,"ĠÑģÑĤÐ°ÑĢ":2217,"ĠÐ¿ÑĢÐ¾Ð¸":2218,"Ð»Ð°Ð³Ð°":2219,"Ġw":2220,"Ð»ÐµÐµ":2221,"eb":2222,"Ð½ÐµÐ½":2223,"ĠÐ³Ð¾ÑĢÐ¾Ð´Ð°":2224,"ĠÐ»ÑĥÑĩÑĪÐµ":2225,"ÐµÐ¹ÑĩÐ°Ñģ":2226,"ĠÑĢÐµÐºÐ¾Ð¼ÐµÐ½":2227,"ĠÐ¼Ð¼":2228,"ĠÐ¸ÑģÐ¿Ð¾Ð»ÑĮÐ·Ð¾Ð²Ð°ÑĤÑĮ":2229,"¾ÑĩÐ¸":2230,"ĠÑģÑģÑĭ":2231,"Ð¾Ð·Ð°":2232,"ĠÐ´ÐµÑĢÐµ":2233,"ĠÐłÐµÑģÐ¿ÑĥÐ±Ð»Ð¸":2234,"ĠÑĢÐ°Ð·Ð»Ð¸Ñĩ":2235,"Ð½Ð°Ð´":2236,"ĠÑıÐ·Ñĭ":2237,"ĠÐĽÐ¸":2238,"nÐļÐ°":2239,"ĠÐºÐ¾Ð¼Ð¼ÐµÐ½ÑĤÐ°ÑĢÐ¸":2240,"ĠÐ²ÑĭÑģ":2241,"ĠÑģÐ»Ð¾Ð¶":2242,"Ġ2020":2243,"ĠÐĺÐ·":2244,"Ð¾ÑĤÑı":2245,"ÑģÑģÐ»ÐµÐ´":2246,"ĠÐ»Ð¸ÑĨ":2247,"ĠÐ½Ð°ÑĢÑĥ":2248,"Ð¾ÑĢÐ¼Ð°":2249,"ÐµÑĢÐ¸":2250,"ĠÑģÐ¿ÐµÑĨÐ¸Ð°Ð»Ð¸":2251,"ĠÐ½Ð°ÑģÑĤÐ¾Ñı":2252,"DB":2253,"tin":2254,"Ð½ÑıÑı":2255,"Ð½ÐµÐ¼":2256,"Ð¼Ð¾ÑĤÑĢÐµÑĤÑĮ":2257,"Ð½ÑıÑĤÑĮ":2258,"ok":2259,"ÐµÑĤÑĮ":2260,"nÐ¦":2261,"ÑģÑĤÐ²ÐµÐ½Ð½Ð¾":2262,"ĠÐ´ÐµÑıÑĤÐµÐ»ÑĮ":2263,"nÐĿÐµ":2264,"Ð¼Ð°Ð½":2265,"os":2266,"Ð»ÑıÑĤÑĮ":2267,"Ð¿Ð°ÑĢÐ°":2268,"ĠÐ²ÑĢÐµÐ¼ÐµÐ½Ð¸":2269,"Ġ13":2270,"ĠÐ´Ð¾ÑģÑĤÐ°":2271,"ÑĢÐ¸ÑĤÐ¾ÑĢÐ¸":2272,"ĠÐ¿ÑĢÐ¾Ð±Ð»Ðµ":2273,"Ð»ÐµÐºÑģÐ°Ð½Ð´":2274,"ÑıÐ±ÑĢÑĮ":2275,"Ġ24":2276,"ĠÐºÑĢÐµ":2277,"header":2278,"iv":2279,"ÑĦÐ°":2280,"ĠÐ³ÑĢÐ°Ð¶":2281,"ĠÐ´Ð¾Ð²":2282,"ÐºÐ»Ð°Ð´":2283,"ÑģÑĤÐ²Ð¸Ð¸":2284,"976":2285,"ĠÐ¿Ð¾Ð±":2286,"ÑĪÐ°Ñı":2287,"ĠÐ¿ÑĢÐ°ÐºÑĤÐ¸":2288,"ĠÐ½ÐµÐºÐ¾ÑĤÐ¾ÑĢ":2289,"Ð¾Ð²Ð¾Ð¹":2290,"Ð½ÑĥÑĤÑĮ":2291,"Ġ=":2292,"Ġc":2293,"ĠÐ·ÐµÐ¼":2294,"ĠÐºÐ½Ð¸":2295,"ÑĢÐµÐ¶Ð´":2296,"ĠÐĴÐ¸":2297,"Ð³Ð¾ÑĢÐ¸":2298,"ĠÐ½Ð°Ð»Ð¸ÑĩÐ¸":2299,"ĠÐ¿Ð¾Ð¼Ð¾ÑīÑĮÑİ":2300,"ÐłÐĲ":2301,"Ġb":2302,"ÑĤÐµÐ»ÑĮÐ½ÑĭÐµ":2303,"ĠÑĢÐ°ÑģÑģÐºÐ°":2304,"Ð¾ÑĢÐ¾Ð½":2305,"ĠÑģÐ²ÑıÐ·Ð°":2306,"ĠÐ´ÐµÑĤÐµÐ¹":2307,"ĠÑģÐ¾Ð´ÐµÑĢÐ¶Ð°":2308,"ÑģÐºÑĥÑİ":2309,"ĠÑģÐºÐ°":2310,"um":2311,"ÑģÑĤÐ°Ð²Ð¸":2312,"ĠÐ½Ð¾Ð¼":2313,"Ð´Ð°ÑĤÑĮ":2314,"ĠÐ´Ð¾ÑģÑĤÐ°Ð²":2315,"Ð·Ð¸Ð½Ð¾":2316,"ĠÑģÑĤÑĢÐ¾Ð¸ÑĤÐµÐ»ÑĮ":2317,"Ð»ÐµÐ½Ð°":2318,"av":2319,"ĠÑĩÐµÑĢ":2320,"ĠÐ¼ÑĥÐ¶":2321,"Ð³Ð»Ñı":2322,"ÑĳÐ¼":2323,"Ð»ÑıÐµÑĤÑģÑı":2324,"ÑģÐ¸Ð¸":2325,"Ġ100":2326,"nÐłÐµ":2327,"ÑĩÐµÑģÐºÐ¾Ðµ":2328,"ĠU":2329,"ĠÑģÑĥÐ´":2330,"ĠÐ¿ÑĢÐ¾Ð²ÐµÐ´":2331,"ÑĭÑĪ":2332,"Ð¾ÑĩÐ¸":2333,"Ġi":2334,"ĠÐ³Ð¾Ð²Ð¾ÑĢÐ¸":2335,"ĠÐ¿ÑĢÐµÐ´Ð¿ÑĢÐ¸":2336,"ĠÐ¡ÐµÑĢ":2337,"ÑĮÑĤÐµ":2338,"ĠÑģÑĤÐ¾Ð¸ÑĤ":2339,"915":2340,"ÑĭÐ¼Ð¸":2341,"ÑģÑģÐ°":2342,"Ð·Ð¾ÑĢ":2343,"Ð¼ÐµÐ½ÑĤÐ¾Ð²":2344,"ĠÐ·Ð°Ð¿Ð¸":2345,"Ð¾Ð±ÑĢÐ°":2346,"Ð»ÑıÐµÑĤ":2347,"ÑĤÐµÐ»ÑĮÑģÑĤÐ²Ð°":2348,"ĠÐ·Ð°ÑıÐ²":2349,"ĠÐ°ÐºÑĤÐ¸Ð²":2350,"ÑĩÐºÐ¸":2351,"ĠÐ£ÐºÑĢÐ°":2352,"nÐŁÑĢ":2353,"af":2354,"ĠÑģÐºÐ°Ð·Ð°":2355,"nÐŀÑĤÐ²ÐµÑĤ":2356,"ĠÐ·Ð½Ð°ÑĩÐ¸":2357,"ĠÑĩÐµÐ»Ð¾Ð²ÐµÐºÐ°":2358,"ĠÑģÐ¿Ð°":2359,"tiny":2360,"ĠÐ¾Ð±Ñĥ":2361,"Ġ17":2362,"Ġ22":2363,"ĠÑĥÐ´Ð¾Ð±":2364,"ÑĤÐ¾ÑĩÐ½Ð¾":2365,"ÑģÐ¸Ñı":2366,"ÑĩÐ½Ð¾Ð¹":2367,"ĠÐ¿Ð¾ÑįÑĤÐ¾Ð¼Ñĥ":2368,"ÑĩÑĮ":2369,"¾Ð½Ñĭ":2370,"Ð¾Ð½Ñĭ":2371,"Ð²ÑĢÐ¾Ð¿":2372,"ÑģÐºÐµ":2373,"ĠÐ·Ð´Ð¾ÑĢÐ¾Ð²":2374,"Ð±ÑĢÑĮ":2375,"ĠÐĳÐ°":2376,"ÐĿÐŀ":2377,");":2378,"ÑĢÐ¾Ð¼Ðµ":2379,"ĠÐŀÐ´":2380,"Ð»Ð¸Ð²":2381,"Ð¾ÑĤÑĭ":2382,"ĠÑģÐµÐ±Ðµ":2383,"ĠÐ½Ð°Ð·":2384,"989":2385,"983":2386,"ĠÐ¿ÑĢÐ¾ÑĦÐµÑģÑģÐ¸":2387,"ĠÐ¸Ñİ":2388,"Ð¾Ð»Ð°":2389,"Ð¾Ð»Ð¾Ð¶":2390,"¾ÑĦÐ¾ÑĢ":2391,"Ð½Ð¸ÑĨÐ¸Ð¿Ð°":2392,"ĠÐ²Ð¾Ð¹":2393,"ĠÐ´Ð²Ð°":2394,"ĠÐ¿ÑĢÐµÐ´Ð»Ð¾Ð¶":2395,"ĠÐľÑĭ":2396,"ĠÑĦÐ¸Ð»ÑĮ":2397,"ĠÑĤÐµÑĢÑĢÐ¸ÑĤÐ¾ÑĢÐ¸":2398,"ĠÐ²Ð¸Ð´":2399,"Ð³Ð¾Ð´Ð°ÑĢ":2400,"ĠÐľÐ°ÑĢ":2401,"ĠÑĥÑģÑĤÑĢÐ¾Ð¹":2402,"ĠÑģÐ¾Ð²ÐµÑĢ":2403,"Ð¾Ð»ÐµÐ·":2404,"ï¿½ï¿½ï¿½ï¿½ï¿½ï¿½ï¿½ï¿½":2405,"ĠÐ²Ð¼Ðµ":2406,"ĠÐºÐ¾Ð½ÑĤÑĢ":2407,"9977":2408,"ĠÐ¶ÐµÐ½ÑīÐ¸":2409,"Ð¾ÑĦÐ¾ÑĢ":2410,"Ð²Ð¸Ð´":2411,"op":2412,"ĠÐ´Ð¾Ð»Ð¶Ð½Ñĭ":2413,"Ð»ÐµÑĢ":2414,"ĠÐ¼Ð½Ð¾Ð³Ð¸":2415,"Ð½Ð°Ð½":2416,"ÑĪÑĥ":2417,"Ð»Ð°Ð´":2418,"ÑĢÑĤ":2419,"ÑĨÐµÐ¿":2420,"ĠÐ´ÑĢÐ¾Ð±Ð¸":2421,"ĠX":2422,"ĠÑĪÐ°":2423,"ĠÐ¾Ð¿Ð»Ð°":2424,"ĠÑĩÐ°ÑģÑĤÑĮ":2425,"Ð³Ð¾ÑĢÐ¾Ð´":2426,"ĠÑģÑĭ":2427,"ÑĢÐ¾Ð±Ð½ÐµÐµ":2428,"ĠÐ¿ÑĢÐ¾Ð¼":2429,"ĠÑģÐ¾ÑĤÑĢÑĥÐ´":2430,"Ġ23":2431,"ĠÐ½Ð°ÑħÐ¾Ð´Ð¸":2432,"975":2433,"Ð»ÑĥÐ±":2434,"ĠÐ½Ð°Ñĥ":2435,"991":2436,"Ð¾Ð±ÑĢÐµ":2437,"ĠÑģÐ»ÑĥÐ¶":2438,"ÑģÑĤÐ¾Ñı":2439,"ĠÐ²ÑģÑĤÑĢÐµ":2440,"ĠÐ´ÑĢÑĥÐ³Ð¸Ðµ":2441,"ÑĤÐ°Ð¼Ð¸":2442,"Ġ.":2443,"ĠÑĩÐ¸":2444,"ĠÑĤÐµÐ¿":2445,"nÐ¥":2446,"ĠÐļÑĥ":2447,"Ð¾Ð²ÑĭÐµ":2448,"ĠÑĢÐµÐ±ÐµÐ½":2449,"ĠÑģÐ»ÐµÐ´ÑĥÐµÑĤ":2450,"ĠÐ¸Ð³ÑĢÐ¾Ð²":2451,"ĠÐ½ÐµÐ³Ð¾":2452,"ĠÐ¿ÑĢÐ¾ÑĨÐµÑģÑģ":2453,"ĠÐ¼Ð°Ð³Ð°Ð·Ð¸":2454,"nÐĴÐ°":2455,"ĠÑģÐ¼Ðµ":2456,"Ġe":2457,"ÑĭÑĤÐ°":2458,"ÐºÐ¾ÑĢ":2459,"ÑĤÐµÐ»ÐµÐ¼":2460,"ĠÐłÐ¾ÑģÑģÐ¸Ð¹ÑģÐºÐ¾Ð¹":2461,"ĠÐ°Ð¿":2462,"ĠÐ¿Ð¾Ð»ÑĥÑĩÐ°":2463,"nÐļÐ¾Ð¼":2464,"Ġ2019":2465,"ĠÐ·Ð°ÐºÐ°Ð·":2466,"ÑĦÐµÐºÑĤÐ¸Ð²":2467,"ÑīÐµÑģÑĤÐ²Ð°":2468,"Ð¿Ð":2469,"Ð¿Ð¾":2470,"ĠÐºÑĢÐ¸":2471,"Ð²Ð°ÑİÑĤÑģÑı":2472,"ba":2473,"ĠÐ¾Ñħ":2474,"ĠÐ¶ÐµÐ»Ð°":2475,"nÐĴÑģÐµ":2476,"ÑĢÐµÐ³Ð¸":2477,"Ð±Ð¸ÑĢÐ°":2478,"ĠÐ»ÑİÐ´ÐµÐ¹":2479,"ĠÑĢÐ°Ð·ÑĢÐµ":2480,"Ð½Ð½ÑĭÐµ":2481,"Ð´Ð¸Ð²Ð¸":2482,"ĠÑĤÑĢÐµÐ±Ñĥ":2483,"ĠÐºÐ¾Ð½ÑĦÐµÑĢÐµÐ½":2484,"ÑĨÐ¸Ð½":2485,"ĠÑģÑĢÐµÐ´ÑģÑĤÐ²Ð°":2486,"ÑĤÑı":2487,"ĠÐ²ÑĤÐ¾ÑĢ":2488,"od":2489,"ĠÐ¡Ð¾Ð²":2490,"ĠÐĲÐ´":2491,"ÑĤÑĥÐ°":2492,"ÐļÐĲ":2493,"ĠÐľÐµ":2494,"ÐºÐ°Ð¼":2495,"ĠÐ¾ÑĦÐ¾ÑĢ":2496,"Ð¾ÑĢÐ¾Ð¶":2497,"ÑħÐ¾Ð´Ð°":2498,"ik":2499,"ĠÐ¿ÑĢÐ¾Ð¸Ñģ":2500,"ĠÐ»Ð¸Ð±Ð¾":2501,"ÑĢÐ¸Ð¸":2502,"ĠÑĢÑĥÐ±Ð»ÐµÐ¹":2503,"ĠÐ¾Ð³ÑĢÐ°":2504,"ÐºÐ¾Ð³Ð¾":2505,"ĠÐŁÐµÑĢ":2506,"Ð¶Ð°ÑĤÑĮ":2507,"ĠÐļÑĢÐ°Ñģ":2508,"ĠÑĢÑĭÐ½":2509,"Ð»Ð¸ÑĤÑĮ":2510,"ĠÑĥÐ²Ðµ":2511,"nR":2512,"ÑģÐ½Ð¾":2513,"Ð½Ñİ":2514,"ÑĪÐ":2515,"AE":2516,"ÑĪÐ¾":2517,"Ð¿Ð¸ÑĤÐ°":2518,"ĠÑģÑĢÐ¾Ðº":2519,"ĠÑģÐ¾ÑģÑĤÐ°Ð²":2520,"ÑĤÐµÐ»ÑĮÐ½ÑĭÐ¹":2521,"Ð½ÑĥÑĤÑĮÑģÑı":2522,"ĠÐ´ÐµÐ¹ÑģÑĤÐ²Ð¸":2523,"ĠÐºÐ²Ð°ÑĢÑĤÐ¸":2524,"ĠÐ¤ÐµÐ´ÐµÑĢÐ°ÑĨÐ¸Ð¸":2525,"ĠÐ´Ð½ÐµÐ¹":2526,"ĠÐ´Ð¾Ð³Ð¾Ð²":2527,"Â»Â»":2528,"Ġ000":2529,"ĠÑģÑĥÐ¼":2530,"ĠÐ½ÐµÐ¼":2531,"ĠÐ°Ð´ÑĢÐµÑģ":2532,"ĠÑģÐ¾Ð²ÑĢÐµÐ¼ÐµÐ½":2533,"Ð½ÐµÐ½Ð¸Ðµ":2534,"ÐºÐ°ÑĢ":2535,"Ð±ÑĢÑı":2536,"Ð´Ð":2537,"Ð´Ð¾":2538,"ĠÐ¸Ð·Ð²ÐµÑģÑĤ":2539,"ÑģÐ¿Ð¾ÑĢÑĤ":2540,"ĠÐ²Ð¾Ð·Ð¼Ð¾Ð¶Ð½Ð¾ÑģÑĤÑĮ":2541,"âĢĿ":2542,"Ð´Ð¸ÑĤÐµ":2543,"Ð»ÐµÐ½Ñĭ":2544,"ĠÑĤÐ°ÐºÐ¾Ð¹":2545,"ĠÑĤÑĢÐ¸":2546,"ÑĢÑĥÐµÑĤ":2547,"ĠÐ¸Ð½ÑĦÐ¾ÑĢÐ¼Ð°ÑĨÐ¸Ð¸":2548,"ĠÐ¿Ð¾Ð¸":2549,"ĠÐ¿Ð¾Ð²Ñĭ":2550,"ÑĤÐµÐ»ÑĮÐ½ÑĭÑħ":2551,"ĠÑįÐ»Ðµ":2552,"ĠÑģÐ²ÑıÐ·Ð¸":2553,"ĠÑģÐ¾ÑĨÐ¸Ð°Ð»ÑĮ":2554,"ĠÐ¿ÐµÑĢÐµÐ´Ð°":2555,"ĠÐ¾ÐºÑĢÑĥ":2556,"ĠÐ±Ð¸Ð·":2557,"Ð¿ÐµÑĢÐ°ÑĤÑĥ":2558,"ĠÑģÐ¾Ñħ":2559,"9985":2560,"Ġthe":2561,".)":2562,"ĠÑģÐ²Ð¾ÐµÐ¹":2563,"ĠÑĢÑĥÑģ":2564,"ÑĪÐ¸Ð½":2565,"9987":2566,"nÐŁÐ¾Ñģ":2567,"\\\\":2568,"ĠÐ¼ÐµÑĢ":2569,"no":2570,"ÑģÐ¾Ð¼":2571,"nÐ¢Ðµ":2572,"ĠÑģÐ°Ð¹ÑĤ":2573,"977":2574,"ÑİÑīÐµÐ¹":2575,"ĠÑģÐ»Ð¾Ð²Ð°":2576,"ĠÐ±Ð»Ð¸":2577,"Ġof":2578,"ÑĩÐ½ÑĭÐµ":2579,"ÑĩÐµÐ¹":2580,"ÐµÑĤÐµÑĢ":2581,"767":2582,"ÑĩÐ½ÑĭÐ¹":2583,"ĠÑĤÐµÑħÐ½Ð¸":2584,"ÑĤÐ¾Ð¹":2585,"ÑģÑĤÑĢÐ¾Ð¹":2586,"EB":2587,"ĠÐ½Ð°ÑĩÐ¸Ð½Ð°":2588,"ff":2589,"ÑĢÐ°Ð·Ñĥ":2590,"ml":2591,"ÑģÐ¸ÑĤ":2592,"800":2593,"ĠÑĤÑĢÐµ":2594,"Ð¸Ð±":2595,"Ð¾ÑĢÐ¾Ð½Ñĭ":2596,"Ġ21":2597,"Ð¾ÑģÑĤÐ¾ÑıÐ½":2598,"ĠÐ·Ð°Ð±Ð¾Ð»Ðµ":2599,"Ð³Ð°Ð½":2600,"ir":2601,"Ð½Ð¾Ð¿":2602,"ĠÑģÐµÐº":2603,"ĠÐ¿ÑĢÐ¸ÑĩÐ¸":2604,"ĠÐ¿Ð¾Ð¿Ñĥ":2605,"Ð¨ÐĲ":2606,"Ð³Ð»Ð°":2607,"ÑīÐµÐ½Ð¸Ð¹":2608,"Ð¾Ð·Ñı":2609,"ĠÑįÐºÐ¾Ð½Ð¾Ð¼Ð¸":2610,"nÐ¯":2611,"na":2612,"9986":2613,"ÑģÑĤÑĥ":2614,"Ġd":2615,"ÑĢÐ¸ÑĤÐµ":2616,"ĠÑįÐ»ÐµÐºÑĤÑĢÐ¾Ð½":2617,"ðŁ":2618,"ĠÐ¿ÑĢÐ°Ð²Ð°":2619,"ĠÐ²Ð¾Ð·Ð´Ñĥ":2620,"ĠÐºÑĢÐ¾Ð²":2621,"ĠÐ°Ð²ÑĤ":2622,"2021":2623,"Ġ#":2624,"ĠÑģÐ²Ð¾Ñİ":2625,"ĠÐ¸ÑģÑģÐ»ÐµÐ´":2626,"ĠÐ´Ð°Ð²":2627,"ĠÐ´Ð²ÑĥÑħ":2628,"ĠÐ¸ÑģÐ¿Ð¾Ð»":2629,"Ð¾Ð·Ð¸":2630,"ÑĢÐ°Ð¼":2631,"Ð´ÐµÐ»ÑĮ":2632,"ĠÐ¾ÑĤÐ»Ð¸":2633,"ĠÐłÐ°Ð·":2634,"ĠÐ³Ð°Ð·":2635,"ĠÐ¿ÑĢÐ¸Ð·Ð½Ð°":2636,"ec":2637,"ĠÐ¸Ð´Ðµ":2638,"ÐµÐµ":2639,"ĠÐ¿ÑĢÐ¾Ð´Ð¾Ð»":2640,"ĠÐ¼ÑĥÐ½Ð¸ÑĨÐ¸Ð¿Ð°":2641,"9998":2642,"ĠÐ¼ÐµÑģÑĤÐ¾":2643,"Ð¾Ð½Ð¾Ð²":2644,"ĠÐ¡Ð¸":2645,"ĠÐºÑĥÐ»ÑĮÑĤÑĥ":2646,"ĠÐ¸Ð¼ÐµÐ½Ð½Ð¾":2647,"ÑĩÐµÐ³Ð¾":2648,"Ð²Ð°ÑĤÑĮÑģÑı":2649,"ĠÐ¿Ð¸ÑĤÐ°":2650,"ĠÐ¿Ð¾Ð²ÐµÑĢÑħ":2651,"ĠÐ¿Ð»Ð¾ÑīÐ°":2652,"ĠÐ´ÐµÐºÐ°":2653,"Ð³ÑĢÑĥÐ·":2654,"ĠÐ´Ð¾Ð»Ð¶ÐµÐ½":2655,"ĠÐ¾Ð±Ð»":2656,"ĠÐĲÐ»ÐµÐºÑģÐ°Ð½Ð´":2657,"ĠÑĢÐµÐ¶Ð¸":2658,"ĠÐ¿Ð°ÑĢÐ°":2659,"ĠJ":2660,"ÐºÑĥÑĢ":2661,"ĠÐ·Ð´ÐµÑģÑĮ":2662,"ĠÐ²Ð°Ð¶":2663,"ĠÐ¿ÑĥÐ±Ð»Ð¸":2664,"Ð½Ð°Ð¼Ð¸":2665,"944":2666,"807":2667,"ĠÐ´Ð¾Ð¿Ð¾Ð»Ð½Ð¸ÑĤÐµÐ»ÑĮ":2668,"ĠÑģÐ¸ÑĤÑĥÐ°":2669,"ÑīÑĳ":2670,"Ð¿ÐµÑĢÑĮ":2671,"ÑīÐµÐ¼":2672,"ĠÐ¸Ð½ÑĤÐµÑĢÐ½ÐµÑĤ":2673,"Ġ50":2674,"277":2675,"ÑĩÐ°ÑĤ":2676,"ĠÐĴÐ»Ð°Ð´Ð¸":2677,"Ð¾Ð»Ð¾Ð³Ð¸Ñı":2678,"ĠÐ¿Ð¾Ð»ÑĥÑĩÐ¸ÑĤÑĮ":2679,"ÑģÑĤÐ°Ð½Ð°":2680,"ĠÑĢÐµÐ³Ñĥ":2681,"Ð¿Ð¾Ð´":2682,"965":2683,"ÐµÑģ":2684,"ĠÐ´Ð°Ð½Ð½ÑĭÐµ":2685,"Ġ2018":2686,"ĠÐ¿ÑĢÐ¾Ð²ÐµÑĢ":2687,"Ð¾Ð²ÑĭÑħ":2688,"ĠÐ·Ð°Ð½Ð¸Ð¼Ð°":2689,"nÐłÐ°":2690,"ĠÑģÐ²ÐµÑĤ":2691,"ÐºÐµÑĤ":2692,"ĠÐ¸ÑģÐºÐ»Ñİ":2693,"ĠÐ´Ð°Ð»ÑĮ":2694,"!!":2695,"ĠÑĢÐµÐ·":2696,"Ð½Ð²Ð°":2697,"ĠÐ¼ÐµÑĤÐ°Ð»":2698,"Ð»ÐµÐ½Ð½ÑĭÑħ":2699,"nÐ¨":2700,"Ð²Ð°Ð½":2701,"nS":2702,"ĠÑģÐ½Ð¸":2703,"ĠÐ¿ÑĢÐ¸Ð½Ñı":2704,"Ð½Ð¸Ð²ÐµÑĢ":2705,"ĠÐ±ÐµÑģÐ¿Ð»Ð°ÑĤÐ½Ð¾":2706,"ĠÐºÐ¾Ð»Ð¸ÑĩÐµÑģÑĤÐ²Ð¾":2707,"Ð¶Ñĥ":2708,"Ð¸ÑĤÐ°ÑĤÑĮ":2709,"ĠÐ´Ð½Ñı":2710,"ĠÑģÐ¸Ð¼":2711,"ph":2712,"ÑĤÐµÐ³Ð¾ÑĢÐ¸":2713,"Ð¢Ðŀ":2714,"nÐłÐ°Ð·":2715,"Ð²Ð°ÑĢÐ¸":2716,"ĠÑĢÐ°Ð·Ð¼ÐµÑĢ":2717,"ĠÐ¼Ð°ÑĤÐµÑĢÐ¸Ð°Ð»Ð¾Ð²":2718,"ĠÑĢÐ°Ð·Ð´Ðµ":2719,"Ð½Ð°ÑĢÐ¾Ð´":2720,"ĠÐ»ÑİÐ±Ð¸":2721,"ĠÐ¿Ð¾ÑĢÑıÐ´":2722,"ĠÐµÐ¼Ñĥ":2723,"ÑĢÐ¸Ð½Ð°":2724,"ÑģÑģÑĥ":2725,"Ð»Ð»Ð¸":2726,"Ð·Ð¼Ð°":2727,"Ġin":2728,"956":2729,"ĠÑĢÐ¾Ð´Ð¸":2730,"926":2731,"ĠÑĤÐµÐ¼Ð¿ÐµÑĢÐ°ÑĤÑĥ":2732,"ÑĢÐµÐ³Ð¸ÑģÑĤÑĢÐ¸":2733,"ĠÐºÑĢÑĥÐ¿":2734,"ĠÐŁÐ°":2735,"ÑĢÐµÐ·":2736,"CF":2737,"ĠÐ±ÐµÑĢÐµ":2738,"ĠÐºÑĢÐ°Ñģ":2739,"ĠÑģÐ¾Ð±Ð¾Ð¹":2740,"ĠÑĤÐµÐº":2741,"974":2742,"ĠÐ³ÑĢÑĥ":2743,"Ð¿ÑĢÐ°Ð²Ð¸":2744,"ÑĤÐµÐ»ÑĮÐ½Ð¾Ð¹":2745,"Ġ:":2746,"ĠÐŀÑģ":2747,"ÑĤÐµÐ¹":2748,"120":2749,"ĠÐ¾ÑĩÐµ":2750,"ÑĭÑĤ":2751,"ĠÐ¿ÑĢÐµÐ´Ð»Ð°Ð³Ð°":2752,"ÐµÑĢÑĤ":2753,"ĠÐ³Ð¾Ð»Ð¾Ð²":2754,"ĠÐ¼Ð":2755,"ĠÐ¼Ð¾":2756,"ĠâĢľ":2757,"ÐµÐ»ÐµÐ½":2758,"Ð»ÑĮÐ½Ð¾Ðµ":2759,"ĠÑĥÑģÐ¿Ðµ":2760,"ĠÐ´Ð¾Ð±Ð°Ð²":2761,"html":2762,"ĠÐ²ÐºÐ»ÑİÑĩÐ°":2763,"ĠÐ½Ð°Ð´Ðµ":2764,"ĠÐ¼Ð»":2765,"ĠÐ½Ð¾ÑıÐ±ÑĢÑı":2766,"ine":2767,"ĠÑĢÐ°Ð·ÑĢÐ°Ð±Ð¾ÑĤ":2768,"Ġ...\\":2769,"se":2770,"Ġ2017":2771,"Ð¹ÑģÐºÐ¸Ð¹":2772,"ÐŀÐŀ":2773,"ĠÐ¾ÑĤÐ·Ñĭ":2774,"ĠÐ¿ÑĢÐ¸Ð½Ð¸Ð¼Ð°":2775,"bb":2776,"ÑĪÐ»Ð¸":2777,"ĠÐ½ÐµÑģ":2778,"Ð»ÐµÐ½Ð¸ÐµÐ¼":2779,"ĠÐ²Ð¾Ð·ÑĢÐ°":2780,"ĠÐ²Ð¾ÑĤ":2781,"Ð·Ð¾Ð²":2782,"ÑĩÐµÑĢ":2783,"ĠÐºÐ¾ÑĤÐ¾ÑĢÐ¾Ð¹":2784,"ĠÐ¿ÑĢÐµÐ´ÑģÑĤÐ°Ð²Ð¸":2785,"Ð°ÑĢÑĭ":2786,"Ð¼ÐµÑĢÐ¸":2787,"Ð½ÑĥÑĤÑĢÐµÐ½":2788,"ÑĩÐ°ÐµÑĤ":2789,"ÐµÐ»Ð°":2790,"ĠÑįÐ½ÐµÑĢ":2791,"Ð°ÑĢÑĤÐ°":2792,"Ð½Ð°Ñħ":2793,"Ð»ÐµÐ½Ð½ÑĭÐµ":2794,"2020":2795,"ĠÐ¿Ð¾ÑģÑĤÐ¾ÑıÐ½":2796,",\\":2797,"ĠÐºÐ¾Ð½ÑģÑĤÑĢÑĥ":2798,"ĠÑģÐ¾ÑģÑĤÐ°Ð²Ð»Ñı":2799,"ĠÐ°Ð»":2800,"nÐĲÐ²":2801,"ÑİÑīÐ¸Ð¼":2802,"ĠÐ²Ð¾Ð´Ñĭ":2803,"ÑģÐºÐ¾Ð²":2804,"ÑĥÐ´Ð¸":2805,"ĠÐºÐ°ÑĩÐµÑģÑĤÐ²Ðµ":2806,"ĠÐ¼ÐµÑģÑĤÐ°":2807,"ED":2808,"ÑĢÑİ":2809,"ĠÐ²ÑĭÐ¿Ñĥ":2810,"Ð·Ð°Ð´":2811,"ĠÑģÐµÐ¹ÑĩÐ°Ñģ":2812,"Ð¾Ð±Ð°":2813,"ĠÑĥÑĩÐ¸":2814,"ĠÐŁÑĥ":2815,"ĠÑĦÐ¸Ð½Ð°Ð½":2816,"ĠÐ´Ð»Ð¸":2817,"Ġa":2818,"964":2819,"ĠÐ½ÐµÐ¹":2820,"ÑĤÐ¸Ð¸":2821,"ĠÑģÐµÐ³Ð¾Ð´Ð½Ñı":2822,"ÑģÐ¸Ñħ":2823,"Ġv":2824,"ÐļÐŀ":2825,"Ð²Ð°Ð»":2826,"ĠÐ²ÑĭÑĪÐµ":2827,"ÑĢÐ¸Ð½":2828,"ĠÑģÑĢÐµÐ´ÑģÑĤÐ²":2829,"966":2830,"ÑıÐ²Ð»Ñı":2831,"Ð°Ð»ÑĮÐ½ÑĭÐµ":2832,"ĠÑįÑĦÑĦÐµÐºÑĤÐ¸Ð²":2833,"ÑĩÐµÐ±":2834,"Ð¼Ñı":2835,"Ð¾ÑĢÑĭ":2836,"Ð±ÑĥÑĢÐ³":2837,"ĠÑħÐ¾Ð»":2838,"ĠÑģÑĩÐµÑĤ":2839,"ĠÐ¾Ð·Ð½Ð°":2840,"ÑİÑīÐ°Ñı":2841,"ĠÐ²ÑģÐµÐ¼":2842,"nÐĴÐµÑĢ":2843,"Ġh":2844,"ĠÐ¿Ð¾Ð´Ð´ÐµÑĢÐ¶":2845,"ĠÐ¿Ð¾Ð´Ð³Ð¾ÑĤÐ¾Ð²":2846,"ĠÐºÑĢÐ°Ð¹":2847,"ĠÑĢÐ°Ð¹Ð¾Ð½Ð°":2848,"ĠÐ±ÐµÐ»":2849,"Ð½Ð¾ÑģÑĤÐµÐ¹":2850,"ÑĤÐµÐ»ÑĮÐ½Ð¾Ð³Ð¾":2851,"Ð´ÑĢÐ°Ð²":2852,"ĠÐ´ÐµÐ»Ð°ÑĤÑĮ":2853,"ĠÑģÐ²Ð¾Ð¸Ñħ":2854,"9967":2855,"ĠÐ¿Ð¾ÑĤÑĢÐµÐ±":2856,"ĠÐ½ÐµÐ±Ð¾Ð»ÑĮ":2857,"ĠÐ¿Ð¾Ð»Ð¸ÑĤÐ¸":2858,"Ð¡Ð¡":2859,"ĠÐ´Ð¾ÑģÑĤÐ¸":2860,"Ġco":2861,"ĠÐ²Ð¾Ð»":2862,"9976":2863,"nÐŁÐ":2864,"nÐŁÐ¾":2865,"ĠÑĢÐ°Ð±Ð¾":2866,"Ð»ÑĮÑı":2867,"ĠÐ¿Ð¾Ð¿ÑĥÐ»ÑıÑĢ":2868,"Ð¾ÑĢÑĤÐ¸":2869,"ĠÐ¾Ð±ÑĢÐ°Ð·Ð¾Ð¼":2870,"ĠÑĤÐµÐ»ÐµÑĦÐ¾Ð½":2871,"ĠÐ°Ð³":2872,"ÑĤÑĭÐ¹":2873,"ÑĢÐ°Ð·Ð´":2874,"ÑĨÐµÐ½ÑĤ":2875,"ĠÑĤÐµÑĩÐµÐ½Ð¸Ðµ":2876,"ĠÑĢÐ°Ð·Ð²Ð¸ÑĤÐ¸Ñı":2877,"ĠÑĤÐ°ÐºÐ¾Ðµ":2878,"100":2879,"ĠÑĢÑĥÐºÐ¾Ð²":2880,"ĠÑĤÐ°Ð¼":2881,"ĠÐ¿Ð¾Ð»Ð¾Ð¶":2882,"Ð¾Ð¼Ð°":2883,"ÑĩÐ°ÑģÑĤ":2884,">\"},\"":2885,"ÑĥÐ»":2886,"ÐķÐł":2887,"ĠÐ´ÐµÐ½ÑĮÐ³Ð¸":2888,"nA":2889,"fe":2890,"Ð¾ÑĢÐ¾Ð´":2891,"ĠÐ²Ð½Ð¸Ð¼Ð°Ð½Ð¸Ðµ":2892,"ĠÑĢÐ°Ð±Ð¾ÑĤÑĥ":2893,"nÐŀÑĤÐ²ÐµÑĤÐ¸ÑĤÑĮ":2894,"Ð¶Ð½ÑĭÐµ":2895,"ĠÐ½ÐµÐ¾Ð±ÑħÐ¾Ð´Ð¸Ð¼":2896,"ÑģÐºÐ¸Ð¼":2897,"fa":2898,"ĠÐ°Ð½ÑĤÐ¸":2899,"nÐ¡ÑĤÐ°":2900,"ly":2901,"ĠÑĩÐ°ÑģÑĤÐ¾":2902,"ĠÑĤÐ°ÐºÐ¸Ðµ":2903,"Ð¾ÑĢÑı":2904,"ĠÐ¿ÑĢÐ¸Ð¼ÐµÑĢ":2905,"ĠÑĦÐ¾ÑĤÐ¾":2906,"ĠÐ¿ÑĢÐ¸Ð¾Ð±ÑĢÐµ":2907,"ĠÐ¿Ð¾ÐºÑĢÑĭ":2908,"ÑģÐµÑĢ":2909,"ĠÑĩÑĥÐ²":2910,"¾ÑīÐ¸":2911,"ĠÑĥÑĩÐ°ÑģÑĤÐ¸":2912,"Ð¾ÑīÐ¸":2913,"Ġ2016":2914,"Ð´ÑĭÑħ":2915,"ĠÐ´Ð¸Ð·Ð°":2916,"ĠÐºÐ°Ð·Ð¸Ð½Ð¾":2917,"ĠÐ¿Ð¾Ð·Ð²Ð¾Ð»ÑıÐµÑĤ":2918,"Ð´Ð°Ð½Ð¸Ñı":2919,"ĠÑĢÐµÐ¼Ð¾Ð½":2920,"ĠÐ¡Ð¨ÐĲ":2921,"ĠÐ°Ð²ÑĤÐ¾Ð¼Ð°":2922,"ĠÑĤÑı":2923,"Ġ27":2924,"Ð¾Ð¶Ð´ÐµÐ½Ð¸Ñı":2925,"FD":2926,"ub":2927,"ÑĨÐ¾Ð²":2928,"Ð´Ð°ÐµÑĤ":2929,"Ð½Ð½ÑĭÑħ":2930,"Ð²Ð»Ð¸":2931,"ÑıÑĤÑģÑı":2932,"ĠÐ¾ÑĢÐ³Ð°Ð½Ð¸Ð·Ð°ÑĨÐ¸Ð¸":2933,"ĠÐ±ÑĢÐ°":2934,"ĠÐ²ÑĭÐ±Ð¾ÑĢ":2935,"ÐµÐ½ÑĤÐ¸":2936,"ÑĢÐ°Ð½ÐµÐ½Ð¸Ñı":2937,"ĠÐ»Ð¸ÑĪÑĮ":2938,"ĠÐ´Ð¾ÑģÑĤÐ°ÑĤÐ¾ÑĩÐ½Ð¾":2939,"ĠÐ²ÑģÑĳ":2940,"ĠÐ¿ÑĢÐµÐºÑĢÐ°":2941,"DFBC":2942,"ĠÐ´Ð²Ðµ":2943,"ĠÐ¾ÑģÐ½Ð¾Ð²Ð°":2944,"105":2945,"ĠÑĦÐ¸Ð·Ð¸":2946,"Ð¼ÐµÐ½ÑĮ":2947,"ĠÐ·Ð°ÐºÐ°Ð·Ð°":2948,"ĠÐ¿ÑĢÐ¸Ð½":2949,"Ð¾Ð»Ñĥ":2950,"nÐĸ":2951,"ĠÑĪÐµ":2952,"ĠÑħÐ¾ÑĢÐ¾ÑĪÐ¾":2953,"ĠÐ£ÐºÑĢÐ°Ð¸":2954,"ĠÐ¾ÐºÐ°Ð·Ð°":2955,"ÑĤÐµÑĢÐ¸ÑģÑĤÐ¸":2956,"ĠÑĢÐµÐ³Ð¸ÑģÑĤÑĢÐ°ÑĨÐ¸Ð¸":2957,"Ð²Ð¸Ñĩ":2958,"ĠÑģÐµÑĢÐ²Ð¸":2959,"ĠÑĦÐ¾ÑĤ":2960,"813":2961,"fo":2962,"ÐµÐ½Ð½ÑĭÐµ":2963,"Ð·ÑĭÐ²Ð°ÐµÑĤ":2964,"Ð¸Ð¼Ñĥ":2965,"nÐĵÐ»Ð°Ð²":2966,"ĠÐ´ÐµÐºÐ°Ð±ÑĢÑı":2967,"Ð¾ÑĩÐ½ÑĭÐµ":2968,"9984":2969,"ĠÐĶÐ¸":2970,"ÐµÐ½Ð½ÑĭÑħ":2971,"ĠÐĲÐ½":2972,"art":2973,"ĠÑĤÐ¾Ð¶Ðµ":2974,"ÑĦÐ¸ÑĨÐ¸":2975,"Ð¸ÑģÐ°":2976,"ĠÑĦÑĥÐ½Ðº":2977,"ĠÐ²ÑĭÑĢÐ°":2978,"ĠÐ¿Ð¾Ð´Ð¾Ð±":2979,"ĠÐŀÐ½Ð¸":2980,"955":2981,"Ġ*":2982,"ess":2983,"Ð¾ÑĩÐºÐ¸":2984,"ĠÑģÐ¾Ð¿":2985,"ĠÐ¾Ð±ÑĬÐµ":2986,"Ð¶Ð¸ÑĤ":2987,"Ð½Ð¸ÑĤÐµ":2988,"ĠÐ²Ð¾Ð¿ÑĢÐ¾ÑģÑĭ":2989,"ay":2990,"Ð³Ð¸Ð¸":2991,"ĠÐºÑĥÐ¿Ð¸ÑĤÑĮ":2992,"Ð±ÐµÐ»ÑĮ":2993,"ost":2994,"ĠÐŁÑĢÐµ":2995,"ĠÑĢÐ°Ð¹Ð¾Ð½":2996,"og":2997,"ĠÐ¾ÑĤÐ¿ÑĢÐ°Ð²":2998,"ĠÑģÐ¾Ð¾Ð±ÑīÐµÐ½Ð¸Ñı":2999,"ĠÐ¿ÑĢÐ¾Ð²Ð¾Ð´Ð¸":3000,"ÐºÐ¾Ð»Ð°":3001,"ĠÐ²Ð¸Ð´ÐµÐ":3002,"ĠÐ²Ð¸Ð´ÐµÐ¾":3003,"ĠÐ´ÐµÑĢÐµÐ²":3004,"ĠÐ´Ð²Ð¸Ð³Ð°":3005,"Ð¼ÐµÑĩÐ°":3006,"ĠÐ½Ð¾ÑĢÐ¼Ð°":3007,"nÐ§ÑĤÐ¾":3008,"ĠÐ¾ÑĦÐ¾ÑĢÐ¼":3009,"Ð¾ÑģÐ¸":3010,"ĠÐĲÐ´Ð¼Ð¸Ð½Ð¸ÑģÑĤÑĢÐ°":3011,"ÑĩÐ½ÑĭÑħ":3012,"ĠÑģÑĤÐ°ÑĤÑĮÐ¸":3013,"ee":3014,"Ð½Ð¸ÑĨ":3015,"Ġ$":3016,"ÑģÑĤÑĢ":3017,"ĠÑĢÐ°Ð²":3018,"ĠÐ¸ÑģÐ¿Ð¾Ð»ÑĮÐ·Ð¾Ð²Ð°Ð½Ð¸Ñı":3019,"ĠÑĥÐ»":3020,"ĠÐ¿Ð¾Ð´ÑĤÐ²ÐµÑĢ":3021,"up":3022,"925":3023,"Ð¼ÐµÐ½Ð°":3024,"ĠÑĢÐ°Ð´Ð¸":3025,"ĠÑĤÐ°ÐºÐ¸Ñħ":3026,"Ð»ÐµÐ½Ð¸Ð¹":3027,"ÑģÑĤÑĥÐ¿":3028,"CB":3029,"Ð¿Ð¾Ð²":3030,"ĠÐĺÑİ":3031,"9943":3032,"ÑĢÐ°Ð´":3033,"Ġ2015":3034,"ĠÐ±ÑĭÑģÑĤÑĢÐ¾":3035,"Ð½Ð°ÑĤ":3036,"ĠÐ·Ð°Ð½Ñı":3037,"Ð±Ð¸Ð½":3038,"ĠÐ³ÑĢÐ°Ð¶Ð´Ð°Ð½":3039,"954":3040,"ĠÐºÑĢÐµÐ´Ð¸":3041,"ÐĽÐ¬":3042,"ĠÐľÐ¸Ð½Ð¸":3043,"ĠÑĥÐ·Ð½Ð°":3044,"ĠÐ¾Ð±ÑĢÐ°Ð·Ð¾Ð²Ð°Ð½Ð¸Ñı":3045,"nÐļÑĥ":3046,"ÐĿÐ°":3047,"ÐĿÐĲ":3048,"bc":3049,"\\\"\\":3050,"ĠÑĥÑģÐ»Ð¾Ð²Ð¸ÑıÑħ":3051,"Ð½Ð¸ÑĤ":3052,"ÑĤÐµÐ»ÑıÐ¼":3053,"ĠÑģÑĥÑīÐµ":3054,"ĠÐ¿Ð¾Ð»Ð½Ð¾ÑģÑĤÑĮÑİ":3055,"ss":3056,"ĠÐ½Ð°Ð·Ð½Ð°":3057,"ÑħÐ½Ð¸":3058,"ĠÑįÑĤÐ¸Ñħ":3059,"ĠÑĩÐµÐ³Ð¾":3060,"ĠÑĢÐµÐ°Ð»Ð¸":3061,"ĠÑģÐ¸ÑģÑĤÐµÐ¼Ð°":3062,"ĠÐ¼ÐµÐ½ÐµÐµ":3063,"Ð¾Ð»Ð":3064,"Ð¾Ð»Ð¾":3065,"ĠÐ»ÑİÐ±Ð¾Ð¹":3066,"ÑģÐ»ÑĥÐ¶Ð¸":3067,"ĠÐ¿ÐµÑĢÐ¸Ð¾Ð´":3068,"ĠÐºÐ¾Ð½Ðµ":3069,"nÐĿÐ¾Ð²Ð¾ÑģÑĤÐ¸":3070,"ĠÐºÐ¾Ð¼Ð¿ÑĮÑİ":3071,"ĠÐ¸Ð³ÑĢÑĭ":3072,"ĠÐ½ÐµÐ·Ð°":3073,"ĠÑĢÐµÐºÐ»Ð°":3074,"ĠÑģÑĤÐ¾ÑĢÐ¾Ð½Ñĭ":3075,"Ð»Ð¸ÑĤ":3076,"ÑģÑĤÐ²ÐµÐ½Ð½ÑĭÐ¹":3077,"ĠÑĢÐ¾ÑģÑģÐ¸Ð¹":3078,"ĠÐ»Ð¸ÑĨÐ°":3079,"ĠÑĢÐµÑĪÐ¸":3080,"ĠÐ°Ð½Ð°Ð»Ð¸":3081,"ĠÐ½Ð°Ð±":3082,"ĠÐ½Ð°Ð´Ð":3083,"ĠÐ½Ð°Ð´Ð¾":3084,"ĠÐ´ÐµÑıÑĤÐµÐ»ÑĮÐ½Ð¾ÑģÑĤÐ¸":3085,"Ð¼Ð¾Ð²":3086,"Ð¼Ð°ÑĤÐ¸":3087,"ĠÐ¿Ð¾ÐºÑĥÐ¿":3088,"Ð³Ð¾Ð´Ð°ÑĢÑı":3089,"ĠÐ²Ð½ÑĥÑĤÑĢÐµÐ½":3090,"ĠâĢ¢":3091,"Ð²Ð¾Ðµ":3092,"ĠÂ":3093,"ĠÐºÐ°Ð¶Ð´ÑĭÐ¹":3094,"ĠÐ½ÑĥÐ¶":3095,"ĠÐ¡Ð°Ð½":3096,"ĠÐ¿ÑĢÐ¾Ð³":3097,"âĢ¦\\":3098,"ĠÐ¸Ð½ÑĦÐ¾ÑĢÐ¼Ð°ÑĨÐ¸Ñİ":3099,"ĠÐ¾ÑĦÐ¸ÑĨÐ¸Ð°Ð»ÑĮ":3100,"Ġto":3101,"ÑħÐ°Ð½Ð¸":3102,"ÑĤÐ¾ÑĢÐ¾Ð²":3103,"ÐºÐ¾Ð»ÑĮ":3104,"Ġ26":3105,"9983":3106,"ĠÐ¿Ð¾Ð´Ð°":3107,"ĠÑĢÐ°ÑģÐ¿ÑĢÐ¾ÑģÑĤ":3108,"ĠÐĴÐ»Ð°Ð´Ð¸Ð¼Ð¸":3109,"ÑīÐ¸Ð¼":3110,"ÐºÑĥÑİ":3111,"ĠÑĥÐºÑĢÐ°":3112,"em":3113,"ĠÑģÑĤÐµÐ½":3114,"ĠÐ²Ð½ÐµÑĪ":3115,"ĠÐ¸Ð½ÑĦÐ¾ÑĢÐ¼Ð°ÑĨÐ¸Ñı":3116,"ĠÐĽÑİ":3117,"ĠÑħÐ¸":3118,"978":3119,"ĠÐ¸Ñģ":3120,"ÐĴÐĲ":3121,"ĠÐ§Ðµ":3122,"ĠÑĩÐ¸ÑģÐ»Ðµ":3123,"ÑģÑĤÐ²ÐµÐ½Ð½ÑĭÑħ":3124,"945":3125,"ĠÐłÐµÑģÐ¿ÑĥÐ±Ð»Ð¸ÐºÐ¸":3126,"ĠÐ¾Ð³ÑĢÐ°Ð½Ð¸":3127,"ĠÑĢÐ°ÑģÐ¿Ð¾Ð»Ð¾Ð¶":3128,"Ð¾Ð¿ÑĢÐ¸Ñı":3129,"967":3130,"ÑĩÐ¸Ñģ":3131,"Ð»ÐµÐ·":3132,"ĠÐ¿ÑĥÐ½":3133,"ĠÐ¶Ð¸Ð·Ð½ÑĮ":3134,"ĠÑĥÑģÐ»ÑĥÐ³Ð¸":3135,"ĠÐ²Ð¾Ð»Ð¾Ñģ":3136,"nÐľÐ°":3137,"ĠÐ¾Ð´Ð½Ð¾Ð¹":3138,"ĠÐ¿ÑĢÑı":3139,"ĠÐ¼Ð¸Ð½ÑĥÑĤ":3140,"ÑħÐ¾Ð´ÑıÑĤ":3141,"ĠÐºÐ¾Ñģ":3142,"ĠÐ½Ð°ÑģÐµ":3143,"iz":3144,"ĠÑģÑĥÐ±":3145,"ĠÐ¼Ð¸Ð½Ð¸":3146,"ĠÐ´ÐµÐ½Ðµ":3147,"ĠÑĤÐ¾Ð½":3148,"ĠÐ¿ÑĢÐ¾ÑĦÐ¸":3149,"¾Ð½Ð¾":3150,"ĠÐ·Ð°Ð¿Ð°":3151,"ÐµÐ½ÑĤÑĭ":3152,"ÑīÑĥÑİ":3153,"Ð¾Ð½Ð¾":3154,"ĠÑģÐ¾Ð¾ÑĤÐ²ÐµÑĤÑģÑĤÐ²Ð¸Ð¸":3155,"ÐĿÐ«":3156,"ÑĮÐµÑĢ":3157,"ĠÐ¿Ð¾ÑĤÐ¾Ð¼Ñĥ":3158,"ĠÑĥÑģÐ»ÑĥÐ³":3159,"Ð©":3160,"957":3161,"ÑĪÐ°ÑĤÑĮ":3162,"ĠÑĤÑĢÑĥÐ´":3163,"ÑĩÐµÐ½ÑĮ":3164,"ca":3165,"bd":3166,"ĠÐ±Ð¾ÑĢ":3167,"ĠÐ²ÑĢÐµÐ¼ÐµÐ½":3168,"9946":3169,"Ð¾Ð·ÑıÐ¹":3170,"ĠÐĴÐ¾Ð»":3171,"ÑĢÐµÐ½Ð¸Ñı":3172,"200":3173,"ÐºÐ¾ÑģÑĤÑĮ":3174,"Ð»ÑĭÑħ":3175,"ĠÐ½Ð°Ð¹ÑĤÐ¸":3176,"ÐµÑģÑĤÐ¸":3177,"ĠÐ¼Ð°ÑĤÐµÑĢÐ¸Ð°Ð»Ñĭ":3178,"9988":3179,"ĠÐ¼Ñı":3180,"ĠÑģÑĢÐ°Ð·Ñĥ":3181,"ÑĩÐµÑģÐºÐ¸Ð¼":3182,"ou":3183,"174":3184,"ĠÐ½Ð¸Ðº":3185,"ÑģÑĤÐ²ÐµÐ½Ð½Ð¾Ð¹":3186,"9945":3187,"ĠÐºÑĢÑĭ":3188,"Ð»ÐµÐ½Ð¸Ñİ":3189,"ĠÐ¿Ð¾ÑģÐµ":3190,"ÑĪÐµÐ½Ð¸Ð¸":3191,"ĠÑģÐ¼Ð¾Ð¶":3192,"ÐľÐĺ":3193,"Ð¾Ð»ÐµÑĤ":3194,"Ð²ÑĭÐ¹":3195,"ĠÐĴÐ°Ð¼":3196,"953":3197,"Ð»Ð¾Ð¿":3198,"ĠÐ¿Ð»Ð°ÑģÑĤÐ¸":3199,"ĠÑģÐºÐ¾ÑĢ":3200,"ÑĩÐ¸Ðº":3201,"ĠÐ¿Ð¾Ð½Ð¸Ð¼Ð°":3202,"ĠÑģÐ¾Ð²ÐµÑĤ":3203,"Ð°Ð±":3204,"ĠÑıÐ²Ð»ÑıÑİÑĤÑģÑı":3205,"one":3206,"ĠÐºÐ¾ÑĤÐ¾ÑĢÐ¾Ðµ":3207,"ĠÑĥÐ¿ÑĢÐ°Ð²Ð»ÐµÐ½Ð¸Ñı":3208,"ĠÐ±ÐµÐ·Ð¾Ð¿Ð°ÑģÐ½Ð¾ÑģÑĤÐ¸":3209,"ĠÐ¼Ð°ÐºÑģÐ¸":3210,"ĠÐ²ÐºÑĥ":3211,"Ġ28":3212,"ÑĬÐµÐ¼":3213,"ĠÐ¿Ð¾ÐºÑĥÐ¿Ð°":3214,"973":3215,"ÑĢÐ°Ñħ":3216,"ÑģÐºÑĥ":3217,"Ð·Ð¸Ð¸":3218,"ĠÑĢÐµÐºÐ¾Ð¼ÐµÐ½Ð´Ñĥ":3219,"Ð¸Ð±Ð¾Ð»ÐµÐµ":3220,"ob":3221,"ÑıÑĤÐ¸":3222,"ĠÐ»ÑİÐ´Ð¸":3223,"Ð´Ð¸Ð²Ð¸Ð´Ñĥ":3224,"ĠÑģÑĤÐ°Ð²":3225,"¾ÑĦ":3226,"ÑīÐ°ÐµÑĤ":3227,"ĠÐºÐ¾Ð½ÑĦÐµÑĢÐµÐ½ÑĨÐ¸Ð¸":3228,"ĠÐ¿ÑĢÐ¾ÑĪ":3229,"ĠÐ¿Ð¾Ð»ÐµÐ·":3230,"sk":3231,"Ð´ÐµÑĤÑĮ":3232,"205":3233,"ĠÑģÐ±Ð¾ÑĢ":3234,"Ð¼ÐµÐ½Ð¸ÑĤÑĮ":3235,"ÑģÐµÐ¼":3236,"Ð¹ÑĤÐµÑģÑĮ":3237,"ĠÐ²Ð°ÑĪ":3238,"ĠÐ±Ñİ":3239,"ĠÐ¾Ð±ÐµÑģÐ¿ÐµÑĩÐ¸":3240,"Ð½Ð¾Ðº":3241,"ĠÐ¿Ð¾Ð³":3242,"Ð·Ñı":3243,"Ð¾ÑĦ":3244,"Ð²ÑĭÑħ":3245,"Ð°Ð»ÑĮÐ½Ð¾":3246,"ĠÐ½Ð°Ð¿ÑĢÐ¸Ð¼ÐµÑĢ":3247,"nP":3248,"Ð¾Ð¹ÑĤÐ¸":3249,"ĠÑİÑĢÐ¸":3250,"ĠÑĢÐµÐ´Ð°":3251,"CD":3252,"Ð´ÐºÐ¸":3253,"ÑģÑĤÐ²ÐµÐ½Ð½Ð¾Ð³Ð¾":3254,"ĠÐ¿ÑĢÐ¸Ð»Ð¾Ð¶":3255,"ÑģÑĤÐ²ÑĥÑİÑĤ":3256,"nÐŀÑģ":3257,"ĠÐ¼Ð¾Ð¼ÐµÐ½ÑĤ":3258,"413":3259,"963":3260,"ÑĤÐ¾ÑĢÐ¾Ð¼":3261,"nd":3262,"nÐ¿":3263,"ĠÐŀÐ´Ð½Ð°ÐºÐ¾":3264,"ĠÑĦÐ¾ÑĢÐ¼Ð°":3265,"ÑĢÐ°Ð¼Ð¸":3266,"ÑģÑĤÐ¸ÑĤÑĮ":3267,"Ġ2014":3268,"Ð¾Ð»Ð¸ÑĤ":3269,"985767":3270,"Ð¾ÑĩÐ½ÑĭÐ¹":3271,"ĠÐºÐ¾Ð¼Ð°Ð½":3272,"ĠÐ½Ð¾Ð¼ÐµÑĢ":3273,"ĠÐ¡ÑĤ":3274,"ĠÑģÐ¾Ð»":3275,"ĠÑĩÐ°ÑģÐ¾Ð²":3276,"ĠÐŁÑĢÐ¾":3277,"ĠÑĤÑĭÑģÑı":3278,"ĠÐµÑĳ":3279,"ae":3280,"nÐĴÐµÑĢÐ½ÑĥÑĤÑĮÑģÑı":3281,"ÑĪÐµÐ½Ð¸Ð¹":3282,"ĠÐ¾ÐºÑĤ":3283,"]\\":3284,"Ð¾Ð¾ÑĢ":3285,"904":3286,"ĠÐ³Ð¾Ð»Ð¾Ñģ":3287,"ĠÑģÐ²Ð¾Ð±":3288,"ĠÐ¾ÑģÐ¾Ð±ÐµÐ½":3289,"ÑĩÐ½Ð¾Ð³Ð¾":3290,"Ð¾ÑıÑĤ":3291,"¾ÑĪÐ¸":3292,"ĠÑĤÐ¾ÑĢÐ³Ð¾Ð²":3293,"ÐµÑĨ":3294,"ĠÐŁÑĢÐµÐ´":3295,"ĠÐĳÑĥ":3296,"ĠÑģÐ²Ð¾ÐµÐ³Ð¾":3297,"Ð¾ÑĪÐ¸":3298,"¾ÑĨÐµÐ½":3299,"ĠÐºÐ¾ÑĤÐ¾ÑĢÐ¾Ð³Ð¾":3300,"812":3301,"Ð´Ð¾Ð¼":3302,"Ð±Ð°ÑĤÑĭ":3303,"nC":3304,"ÑĨÐ¸Ð¾Ð½Ð½ÑĭÑħ":3305,"Ð»Ð¾Ð¹":3306,"ĠÑģÐ¾Ð¾ÑĤÐ²ÐµÑĤÑģÑĤÐ²ÑĥÑİ":3307,"ĠÐºÐ¾Ð¼Ð¿Ð°Ð½Ð¸Ñı":3308,"ĠÑĤÑĢ":3309,"ĠÐ´ÐµÐ¹ÑģÑĤÐ²Ð¸Ñı":3310,"ÑĤÐµÐ»ÑĮÐ½Ð¾Ðµ":3311,"ĠÑĤÐµÑĢÑĢÐ¸ÑĤÐ¾ÑĢÐ¸Ð¸":3312,"ÑĪÐµÐµ":3313,"Ð³ÑĢÑĭ":3314,"906":3315,"Ð»ÐµÐ½Ð":3316,"Ð»ÐµÐ½Ð¾":3317,"ĠÑĢÑıÐ´":3318,"ĠÐ¿Ð¾Ð¼Ð¾ÑīÐ¸":3319,"ĠÐ¼Ð¾Ñī":3320,"ĠÐ¿Ð¾Ñħ":3321,"ĠÐºÐ³":3322,"ĠÐĿÐ¾Ñı":3323,"ĠÑģÑĤÐ°Ð½Ð¾Ð²":3324,"ÑģÑĤÐ²Ð¾Ð²Ð°ÑĤÑĮ":3325,"ĠÐ¶Ð¸Ð²Ð¾ÑĤ":3326,"ÑģÐ¸Ð±Ð¾":3327,"ÑĤÑĥÑĢ":3328,"ÑİÑīÐµÐ³Ð¾":3329,"ÐķÐĿ":3330,"ÑĢÐ¾Ð·":3331,"Ð°Ð¼Ð¸":3332,"ĠÐ¿ÑĢÐ°Ð·Ð´":3333,"ÑĤÑĮÑı":3334,"ĠÐ¾ÑĤÐ²ÐµÑĤÑģÑĤÐ²ÐµÐ½":3335,"ĠÑĥÐ½Ð¸Ð²ÐµÑĢ":3336,"ĠÐ¸Ð¼ÐµÑİÑĤ":3337,"2017":3338,"Ġ}":3339,"ĠÐŁÐ¾ÑģÐ»Ðµ":3340,"914":3341,"EFBC":3342,"ÑĩÐµÐ¼":3343,"ĠÑģÐ»Ð¾Ð²":3344,"ĠÐ±Ð»Ð¾Ðº":3345,"Ð¾Ð±ÑĢÐ°Ð¶":3346,"bf":3347,"cc":3348,"ÑģÐ¸ÑĤÑĮ":3349,"ÑĤÐ°Ð¼":3350,"ĠÐ¼Ð¾Ð±Ð¸":3351,"Ð´ÑĥÑĤ":3352,"Ð¸ÑĢ":3353,"156":3354,"II":3355,"ĠÐ·Ð°ÐºÑĢÑĭ":3356,"ĠÑĦÐ°Ð¹":3357,"ĠÐ¿ÑĢÐ¾ÑĦÐµÑģÑģÐ¸Ð¾Ð½Ð°Ð»ÑĮ":3358,"ĠÑģÐ¼Ð°":3359,"ÐµÐ¼ÑĭÐµ":3360,"ĠÐłÐ¾ÑģÑģÐ¸Ñı":3361,"¾Ñİ":3362,"dd":3363,"Ð¾Ñİ":3364,"ĠÑģÐ»Ð¸":3365,"Ð¶Ð½ÑĭÑħ":3366,"982":3367,"ĠÐ¾ÑĤÑģÑĥÑĤ":3368,"ĠÐ¿Ð¾ÑģÑĤÐ°Ð²":3369,"ĠÐ¿Ð¾ÑıÐ²Ð¸":3370,"913":3371,"ÑĩÐµÐ½Ð¸Ð¸":3372,"9999":3373,"Ð±ÐµÑĢ":3374,"ĠÑĤÐ¾Ð¿":3375,"ĠÐ½Ð°Ð·ÑĭÐ²Ð°":3376,"916":3377,"ment":3378,"ÑģÑĥÐ»ÑĮÑĤÐ°":3379,"ĠÐ¾ÑĢÐ³Ð°Ð½Ð¸Ð·Ð°":3380,"ĠÐ¿ÐµÐ½":3381,"ĠÐ¼Ð¸Ðº":3382,"ĠÐ³Ð°ÑĢÐ°Ð½":3383,"ĠÐĽÐµ":3384,"ĠÐ½Ð¾Ð²Ð¾ÑģÑĤÐ¸":3385,"Ð»ÐµÐ½ÑĮ":3386,"ĠÐ¼Ð¾ÑĢ":3387,"ĠÑģÑĤÐ¾Ð¸Ð¼Ð¾ÑģÑĤÑĮ":3388,"ĠÑĤÐ¾Ð»":3389,"ĠÐ¼ÐµÐ´Ð¸ÑĨÐ¸Ð½":3390,"ĠÑģÑĤÐ¾Ð»":3391,"ÑģÑģÑĭ":3392,"ĠÑĢÐµÑģ":3393,"ĠÐļÐ°ÑĢ":3394,"936":3395,"ĠÐ²ÑĭÐ±ÑĢÐ°ÑĤÑĮ":3396,"808":3397,"946":3398,"924":3399,"ĠÐ¿Ð¸ÑģÑĮ":3400,"104":3401,"ĠÐŁÐ¾Ð»ÑĮÐ·Ð¾Ð²Ð°":3402,"ĠÐ±Ð¾Ð»ÐµÐ·":3403,"ÐµÐ½Ð½ÑĭÐ¹":3404,"ĠÑħÐ¾ÑĤ":3405,"ĠÑĢÐ¾Ð´":3406,"ĠÐŀÐºÑĤ":3407,"Ð»ÑıÑİÑĤ":3408,"ĠÐºÑĢÑĥ":3409,"ÑĪÐ°ÐµÑĤ":3410,"ÑĢÑĥÑģ":3411,"184":3412,"ĠÑħÐ¾Ñĩ":3413,"ÑģÐºÐ¾Ð¼Ñĥ":3414,"ĠÐºÑĢÐ°ÑģÐ¸":3415,"ĠÑĥÐ»Ð¸":3416,"ÑģÑĤÐ°Ð½Ð°Ð²Ð»Ð¸":3417,"ÑĤÑĥÑĢÐ°":3418,"Ð¾Ð½Ñĥ":3419,"ĠÑģÑĤÐ¾ÑĢÐ¾Ð½":3420,"ĠÑģÐ½Ð°":3421,"ĠÐºÐ½Ð¾Ð¿":3422,"ĠÐ¾ÑĢÐ¸":3423,"ÐµÑĢÐºÐ°":3424,"ĠÐºÐ¾Ð¼Ð¿Ð»ÐµÐº":3425,"ĠÐ¿ÑĢÐ°Ð²Ð":3426,"ĠÐ¿ÑĢÐ°Ð²Ð¾":3427,"ĠÐ³ÐµÑĢ":3428,"ĠÐ§ÑĤÐ¾":3429,"nÐĺÐ·":3430,"177":3431,"ÐļÐ°":3432,"ĠÑģÐ°Ð¼ÑĭÑħ":3433,"ny":3434,"ĠÐ²Ð»Ð¸Ñı":3435,"ĠÑĢÐ¾Ð·":3436,"ĠÑģÐ¾Ñģ":3437,"ĠÑĢÐ°Ð¼":3438,"ĠÑģÑĢÐ°Ð²":3439,"Ð¸Ð»ÑĮ":3440,"ĠÐºÐ°ÐºÐ¾Ð¹":3441,"923":3442,"ÑĤÑĭÐµ":3443,"ĠÐºÐ¾Ð½ÑĦÐ¸":3444,"ĠÐ´Ð¾Ð»Ð¶Ð½Ð¾":3445,"ĠÐ°Ð²ÑĤÐ¾Ð¼Ð°ÑĤÐ¸":3446,"ĠÐ¡Ñĥ":3447,"ĠÐ¿Ð°Ð¼":3448,"ep":3449,"ĠÑĢÐ°Ð±Ð¾ÑĤÐµ":3450,"ÐļÐĺ":3451,"ĠÐļÐ¾ÑĢ":3452,"¾ÑĪ":3453,"ÑģÑĤÐ²ÐµÐ½Ð½ÑĭÐµ":3454,"ĠÐ¸Ð·Ð³Ð¾ÑĤÐ¾Ð²":3455,"ĠÐ¸ÑģÐºÑĥÑģ":3456,"Ð²Ð»ÐµÐºÐ°":3457,"ĠÐ¿ÑĢÐµÐ´Ð¾ÑģÑĤÐ°Ð²":3458,"ĠÐ¼Ð¸ÑĢÐ°":3459,"Ð¾ÑĪ":3460,"9974":3461,"9934":3462,"Ð¾ÑĨÐµÐ½":3463,"ÐµÐ½ÐµÑĢÐ°":3464,"ÐµÐ¼Ð¾Ð½":3465,"ea":3466,"ĠÐ´Ð¾Ð»Ð¶Ð½Ð°":3467,"Ġ40":3468,"Ð¢ÐĲ":3469,"ĠÐľÐ¸Ð½Ð¸ÑģÑĤÐµÑĢ":3470,"________":3471,"Ð¾ÑģÑĤÐ¾Ð²":3472,"ÑĢÐ¸Ð¹":3473,"Ð¼Ð°Ñı":3474,"Ð»ÑĭÐ¹":3475,"ĠÐ¼ÐµÑĢÐ¾Ð¿ÑĢÐ¸Ñı":3476,"ĠÐ½Ð°Ð·Ð°Ð´":3477,"ĠÐºÐ°ÑĤÐµÐ³Ð¾ÑĢÐ¸":3478,"ĠÑģÐ¾ÑħÑĢÐ°":3479,"ÑĤÐ°Ñħ":3480,"nT":3481,"155":3482,"ÑīÐµÑģÑĤÐ²Ð¾":3483,"ĠÐ½Ð°Ð»Ð¸ÑĩÐ¸Ð¸":3484,"ĠÑĥÑĤÐ²ÐµÑĢ":3485,"nE":3486,"ÐĴÐŀ":3487,"ber":3488,"ĠÐ¸ÑģÑĤÐ¾Ñĩ":3489,"9926":3490,"AD":3491,"905":3492,"980":3493,"ĠÐ·Ð°ÑĢÐµÐ³Ð¸ÑģÑĤÑĢÐ¸":3494,"804":3495,"ĠÐ·Ð°ÐºÐ¾Ð½Ð¾Ð´Ð°":3496,"ĠÐŁÐ¾ÑįÑĤÐ¾Ð¼Ñĥ":3497,"ĠÑģÐµÑĤÐ¸":3498,"Ð¼Ð°ÑĤÑĢÐ¸":3499,"106":3500,"ÑģÑĤÐ¾Ð¹":3501,"Ð¶Ð½Ð¾Ð¹":3502,"ÐºÐ¸Ð¼Ð¸":3503,"937":3504,"ÑĤÐ¸Ð²Ð½ÑĭÐµ":3505,"ÐŁÐµÑĤÐµÑĢ":3506,"ĠÐ¾ÑĤÐ»Ð¸ÑĩÐ°":3507,"Ð²ÐµÐ·":3508,"423":3509,"Ð¿ÑĥÑĤÐ°":3510,"ÑĤÐ¾ÑĤ":3511,"ĠÑĦÐ¸Ð½Ð°Ð½ÑģÐ¾Ð²":3512,"ÑĢÑĭÐ¹":3513,"Ð»ÑİÐ´":3514,"ĠÐ¾ÑĪÐ¸":3515,"900":3516,"Ð¾Ð¶ÐµÑĤ":3517,"ĠÑģÑĤÐ°Ð»":3518,"ĠÑģÐµÐ½ÑĤ":3519,"ĠÑģÑĤÑĢ":3520,"Ð¾ÑĢÐ¸Ñı":3521,"ĠÑģÐ°Ð¼Ð¾ÑģÑĤÐ¾Ñı":3522,"Ð²Ð¾Ð»":3523,"ĠÐ¸Ð³ÑĢÐ°":3524,"9966":3525,"918":3526,"ÑĩÐ½Ð°Ñı":3527,"ĠÐ½Ð¸ÐºÐ°":3528,"9944":3529,"ĠÑģÑĤÐ°Ð½Ð´Ð°ÑĢ":3530,"927":3531,"ation":3532,"Ð¾Ð»ÑĮÐ½Ð¾":3533,"ĠÐ·Ð°Ð¿ÑĢÐµ":3534,"sp":3535,"ĠÐ°Ð±":3536,"ĠÐ½Ð°ÑħÐ¾Ð´Ð¸ÑĤÑģÑı":3537,"Ġ2013":3538,"Ð¶Ð´ÐµÐ½Ð¸Ñı":3539,"ĠÐ´Ð¾Ð¼Ð°ÑĪ":3540,"ĠÐ·Ð°Ð´":3541,"ĠÐºÐ°ÑĩÐµÑģÑĤÐ²Ð°":3542,"ĠÐ¤ÐµÐ´ÐµÑĢÐ°Ð»ÑĮ":3543,"366":3544,"ĠÐ¿ÑĢÐµÐ´Ð¾ÑģÑĤÐ°Ð²Ð»Ñı":3545,"ĠÐ½Ð¸Ð·":3546,"Ð¸Ñħ":3547,"nÐľÑĭ":3548,"Ð»ÑıÑħ":3549,"ĠÐ¼ÐµÐ½ÑĮ":3550,"ÑģÑģÐµ":3551,"ĠÐ²Ð¼ÐµÑģÑĤÐµ":3552,"ĠÐ¾ÑĩÐµÑĢÐµÐ´":3553,"ĠÐĺÑģÐ¿":3554,"ÑĨÐ¸Ð¾Ð½Ð½ÑĭÐµ":3555,"ÑĢÑĥÐµÑĤÑģÑı":3556,"ĠÐ½Ð°ÑĪÐµÐ¹":3557,"935":3558,"Ġand":3559,"df":3560,"ĠÑħÐ°ÑĢÐ°ÐºÑĤÐµÑĢÐ¸ÑģÑĤÐ¸":3561,"ĠÐ¿ÑĢÐµÐ´Ð¿ÑĢÐ¸Ñı":3562,"ÐµÐ²Ð°":3563,"Ð¾Ð»ÑĮÐºÑĥ":3564,"Ð¾Ð¼Ð¸Ð½Ð°":3565,"Ð²Ð¸Ð¶Ð¸":3566,"ĠÐŁÐŀ":3567,"ĠÐ¿ÑĢÐ¸Ð¼ÐµÐ½Ñı":3568,"ÑĭÑĪÐ»ÐµÐ½":3569,"ĠÑģÐµÐ»ÑĮ":3570,"ĠÐ¾ÐºÐ¾Ð½":3571,"Ð»ÐµÐ³":3572,"Ð»Ð¸Ð½Ð°":3573,"ÐµÐ¼ÑĭÑħ":3574,"ÑĢÐ¾Ð²ÐºÐ¸":3575,"ÑıÐ²Ð»ÐµÐ½Ð¸Ñı":3576,"ĠÐµÑīÑĳ":3577,"ÑģÑĤÐ¸ÑĤÑĥ":3578,"ĠÐ¿ÑĢÐ°Ð²Ð¸Ð»Ð°":3579,"ak":3580,"ĠÐ²ÐºÐ»Ñİ":3581,"ĠÐľÑĥ":3582,"ĠÐ´ÑĢÑĥÐ³Ð¾Ð¹":3583,"ĠÐ¸Ð½Ð´Ð¸Ð²Ð¸Ð´Ñĥ":3584,"ĠÑĢÐµÐ±ÐµÐ½ÐºÐ°":3585,"ĠÐľÐ¾ÑģÐºÐ²Ð°":3586,"ÑĤÐ°ÑĢ":3587,"ÑģÐ¸Ð»Ð¸":3588,"ĠÐ´ÐµÑĢ":3589,"ef":3590,"ĠÐ½Ð°ÑĢÐ¾Ð´":3591,"ĠÐ¾ÑĨÐµÐ½":3592,"Ð²Ð¸Ð³Ð°":3593,"ĠÑģÐ²Ð¾Ð¸Ð¼Ð¸":3594,"ĠÐ½Ð°ÑĩÐ°Ð»Ñĥ":3595,"ĠÑģÑħ":3596,"Ð°Ð»ÑĮÐ½ÑĭÑħ":3597,"ĠÑģÑĤÑĢÑĥ":3598,"2307":3599,"ĠÑĤÐºÐ°":3600,"204":3601,"ĠÐ½Ð¸Ð¼":3602,"ĠÑĥÐ¼":3603,"ore":3604,"nM":3605,"ĠÐ»Ñĥ":3606,"823":3607,"Ĥ½":3608,"ÐµÑĢÐ¾Ð²":3609,"ĠÑıÑĢ":3610,"Ġ{":3611,"125":3612,"ĠÐ½Ð°ÑĪ":3613,"ĠÐ¾ÐºÐ¾Ð»Ð¾":3614,"zh":3615,"ook":3616,"FAB":3617,"ÑĪÐµÐ»":3618,"Ð½ÐµÑĨ":3619,"Ð¾Ð»Ð¾Ð³Ð¸Ð¸":3620,"2019":3621,"Ð»Ð¾Ð³Ð¾":3622,"ĠÐ¢Ð°ÐºÐ¶Ðµ":3623,"175":3624,"ÑģÐµÐ½":3625,"ite":3626,"ĠÐºÐ¾Ð½ÐºÑĥÑĢ":3627,"ÑĤÐ½ÑĭÐµ":3628,"Ð¾Ð½ÑĤÐ°ÐºÑĤÑĭ":3629,"ĠÐ¾ÑĤÐ½Ð¾ÑģÐ¸":3630,"9965":3631,"ĠÐ¼Ð°ÐºÑģÐ¸Ð¼Ð°":3632,"ĠÐ¼Ð°ÑĤ":3633,"ĠÑĪÐ¸ÑĢÐ¾Ðº":3634,"Ð½Ð°Ð¼":3635,"Ð½Ð¸ÑĨÑĥ":3636,"ĠÐ¿Ð¾Ð´Ð¿Ð¸":3637,"ĠÐ¾ÑĤÐ´ÑĭÑħ":3638,"ĠÐ»ÐµÐ³ÐºÐ¾":3639,"ĠÐ¿ÑĢÐ¾ÑĨÐµÐ´Ñĥ":3640,"Ð°Ð³Ð°":3641,"ĠÐ¿ÑĢÐµÐ´ÑĥÑģ":3642,"ĠÑģÐ¾Ð±Ñĭ":3643,"ĠÐ¿ÑĢÐµÐ¿Ð°ÑĢÐ°":3644,"Ð»ÑİÐ´Ð°":3645,"ĠÐľÐ¾ÑģÐºÐ²Ðµ":3646,"ĠÐĲÐ»":3647,"ĠÐ·Ð°Ð²Ð¸ÑģÐ¸Ð¼Ð¾ÑģÑĤÐ¸":3648,"Ð¼Ð¾Ð¶Ð½Ð¾":3649,"ÑĩÐ¸Ð½":3650,"Ð³Ð¸Ñı":3651,"ĠÐ¼Ð¾Ð´ÐµÐ»Ð¸":3652,"ĠÐ´Ð°Ð»ÐµÐµ":3653,"ÑĤÐ¾Ðº":3654,"ÑĩÐºÐ°":3655,"ĠÐ¾Ð´Ðµ":3656,"ĠÐ¾Ð´Ð½Ð¾Ð³Ð¾":3657,"ĠÐ¿ÑģÐ¸Ñħ":3658,"ÑĨÐ¸Ð¾Ð½Ð½ÑĭÐ¹":3659,"ĠÐ¼Ð°ÑĤÐµÑĢÐ¸Ð°Ð»Ð°":3660,"nÐĴÐ¸":3661,"IN":3662,"ĠÐ°Ð²ÑĤÐ¾Ð¼Ð°ÑĤÑĭ":3663,"Ð±Ð¾ÑĢÐ°":3664,"Ð½Ð¾Ð´":3665,"9937":3666,"ÑĤÑĭÑħ":3667,"ÑĤÐ¾Ð½":3668,"ĠÐ²Ð¾Ð·Ð¼Ð¾Ð¶Ð½Ð¾ÑģÑĤÐ¸":3669,"ĠÐºÐ¾Ð¼Ð½Ð°":3670,"ĠÑĤÐ¾ÑĤ":3671,"ĠÐ¿Ð¾Ð¼Ð¾Ð³Ð°":3672,"Ð¸Ð¿":3673,"Ð½Ð¸ÐºÐ¾Ð¼":3674,"ĠÐ¼ÐµÑħÐ°Ð½Ð¸":3675,"ĠÑĤÐ¸Ð¿Ð°":3676,"ĠÐ¿Ð¾Ð»ÑĥÑĩÐµÐ½Ð¸Ñı":3677,"ĠÐ²ÐµÑģÑĮ":3678,"Ð¾Ð²Ð°Ð»":3679,"ĠÑĢÐµÑģÑĥÑĢ":3680,"ĠÐºÐ°ÐºÐ¸Ðµ":3681,"ow":3682,"ÑĩÐµÐº":3683,"ĠÐ¾Ð±ÑĬÐµÐº":3684,"ÑĤÐµÐ»ÑĮÑģÑĤÐ²Ð¾":3685,"Ð¾ÐºÑĢÐ°":3686,"ĠÐ²Ð¾Ð·Ð¼Ð¾Ð¶Ð½Ð¾":3687,"ĠÐ½Ð¾Ð²ÑĭÐµ":3688,"Ð´Ð¸Ð¸":3689,"nÐŁÐ¾Ð´ÑĢÐ¾Ð±Ð½ÐµÐµ":3690,"Ð¾Ð²Ð°Ð½":3691,"ĠÐ¿Ð¾ÑĤÐ¾Ð¼":3692,"ÑĮÐ¸":3693,"Ġg":3694,"nÑģ":3695,"ÐºÐ»Ð°Ð´Ñĭ":3696,"ĠÐ¾ÐºÐ°":3697,"ĠÑģÑĤÑĢÐ°Ð½Ñĭ":3698,"ĠÑĤÐ¾Ð²Ð°ÑĢÐ°":3699,"ĠÐ¼Ð½Ð¾Ð³":3700,"¾Ñĥ":3701,"Ġ--":3702,"ĠÑĢÐ°Ð±Ð¾ÑĤÐ°ÐµÑĤ":3703,"ĠÐ¿ÑĢÐ¾ÐµÐºÑĤ":3704,"ĠÑģÑĤÐµÐº":3705,"Ð½Ð¸ÑĨÐµ":3706,"ĠÐ½Ð°ÑĢ":3707,"Ð¾Ñĥ":3708,"ĠÐ·Ð°Ð³":3709,"ÑģÐµÑģÑģÑĥ":3710,"ĠÐĵÐµÑĢ":3711,"ĠÐ¶ÑĥÑĢ":3712,"186":3713,"Ð³Ð¸ÑģÑĤÑĢÐ°":3714,"ĠÐ¾ÑĪÐ¸Ð±":3715,"ÑĢÐ¾Ð²ÐºÐ°":3716,"101":3717,"ĠÐ½Ð¾Ð²ÑĭÑħ":3718,"ÑĤÐµÐ»ÑıÐ¼Ð¸":3719,"ĠÑĢÐµÑĪÐµÐ½Ð¸Ñı":3720,"126":3721,"908":3722,"ĠÑĥÐ²Ð¸":3723,"ER":3724,"Ġ35":3725,"Ð´ÐµÐ±":3726,"Ð²ÑĭÐ¼":3727,"Ð´Ð¸Ñı":3728,"ĠÐ¿ÑĢÐ¾Ð¸Ð·Ð²Ð¾Ð´ÑģÑĤÐ²Ð°":3729,"ÑĥÐ±Ð»Ð¸ÐºÐ¾Ð²Ð°":3730,"ĠÐ±ÑİÐ´Ð¶":3731,"ĠÑģÑĤÑĢÐµ":3732,"Ð¾ÑĤÑĢÐµÐ±":3733,"922":3734,"ĠÐ¼Ð¾Ð»Ð¾Ð´":3735,"ĠÑģÐ¾Ðµ":3736,"Ð·Ð°Ñħ":3737,"ĠÐ¾Ð±Ð¾ÑĢÑĥÐ´Ð¾Ð²Ð°Ð½Ð¸Ðµ":3738,"Ð½Ð³ÑĢÐ°Ð´":3739,"ĠÑģÐ²Ðµ":3740,"pt":3741,"ĠÑĥÐ²ÐµÐ»Ð¸ÑĩÐ¸":3742,"Ð»ÑĮÐ½ÑĭÐ¼":3743,"ĠÐľÐ°Ð¹":3744,"Ġ2012":3745,"ÐĽÐĲ":3746,"Ð½ÑĥÑĤÑĢÐ¸":3747,"ÐºÑĤÐµ":3748,"Ð»Ð°Ð²Ð°":3749,"ĠÐ½Ð¾Ð²ÑĭÐ¹":3750,"AB":3751,"ĠÐ´ÑĢÐ¾Ð±Ð¸Ð»ÐºÐ°":3752,"176":3753,"ĠÑįÑĤÑĥ":3754,"99752307":3755,"ĠÐ·Ð²":3756,"ÑİÑīÐµÐµ":3757,"ĠÑįÐºÑģÐ¿Ð»Ñĥ":3758,"Ġ'":3759,"ĠÑģÑĤÐ°Ð»Ð¸":3760,"ĠÑĢÐµÑĪÐµÐ½Ð¸Ðµ":3761,"00003":3762,"145":3763,"ÐĹÐ°":3764,"146":3765,"ĠÑĢÐµÐ¼Ð¾Ð½ÑĤ":3766,"all":3767,"Ð´ÐµÐ½ÑĨÐ¸Ð°Ð»ÑĮ":3768,"Ð¿Ð°Ð½Ð¸Ñı":3769,"('":3770,"ÐłÐĺ":3771,"ĠÐ½ÐµÐ´Ð¾ÑģÑĤÐ°":3772,"Ð¸ÑĤÑģÑı":3773,"ÐĽÐĺ":3774,"Ð³Ð¸Ð½Ð°":3775,"nter":3776,"9947":3777,"ĠÐ²ÑĭÐ´Ð°":3778,"ĠÑĥÐ»ÑĥÑĩ":3779,"ĠÐ¿Ð°ÑĢÑĤ":3780,"ÑĪÐ¸ÑĤÑĮ":3781,"ĠÑĦÐ¾ÑĢÐ¼Ñĥ":3782,"Ð»ÑĥÐ¹":3783,"ĠÑģÐ¿Ð¾ÑĢ":3784,"9935":3785,"ĠÐºÐ¾ÑĤÐ¾ÑĢÐ¾Ð¼":3786,"\\\".":3787,"ĠÐ¸ÑĤ":3788,"ĠÐ²Ð¾Ð·Ð½Ð¸Ðº":3789,"Ð´Ð¸ÑĤÑĮ":3790,"840":3791,"Ð»ÑĭÐµ":3792,"Ð¢Ðķ":3793,"ĠÐ¸Ð·Ð¼ÐµÐ½ÐµÐ½Ð¸Ñı":3794,"Ð¾Ð³Ð¾ÑĢ":3795,"ĠÐ¾Ð±ÑģÐ»ÑĥÐ¶Ð¸":3796,"ĠÑģÐ¾Ð²ÐµÑĢÑĪÐµÐ½":3797,"Ð·Ðµ":3798,"075":3799,"ÑĢÐµÐ²Ð°":3800,"AC":3801,"ĠÐ±ÑĥÐ¼Ð°":3802,"Ð¾ÑĩÐµÐ¼Ñĥ":3803,"154":3804,"ÑĤÐ½Ð¾Ð¹":3805,"aa":3806,"ĠÐºÐ¾ÑĢÐ·Ð¸":3807,"ĠÑĤÑĢÐµÐ±Ð¾Ð²Ð°Ð½Ð¸Ñı":3808,"ÐºÐ¾Ðµ":3809,"ĠÐ¾Ð±ÑĢÐ°ÑĤÐ¸":3810,"ĠÐĴÐ¾Ð·":3811,"934":3812,"Ð·ÑĮ":3813,"ÐĵÐŀ":3814,"ĠÐŁÐµÑĢÐµ":3815,"ction":3816,"ĠÐ¿ÑĢÐ¸Ð³Ð¾ÑĤÐ¾Ð²":3817,"ĠÑĩÐ¸ÑĤÐ°":3818,"ĠÐ¡Ð°Ð¼":3819,"nÐ¢Ð°Ðº":3820,"ĠÐ¿ÑĢÐ¾ÐµÐºÑĤÐ°":3821,"ĠÑĤÐ¾Ð³Ð´Ð°":3822,"ĠÐ½Ð°Ð¸Ð±Ð¾Ð»ÐµÐµ":3823,"ÑĤÐµÐ»ÑĮÐ½Ð°Ñı":3824,"ĠÑĨÐµÐ½Ð°":3825,"ĠÑģÑĦ":3826,"ĠÐ¿Ð»Ð°Ð½Ð¸":3827,"ĠÐ´Ð¾ÐºÑĥÐ¼ÐµÐ½ÑĤÐ°":3828,"ĠÐ³ÑĢÑĥÐ¿Ð¿Ñĭ":3829,"ĠÐ·ÑĥÐ±":3830,"ĠÐ¾Ð´Ð½Ð¾":3831,"Ð¾ÑģÐ¿":3832,"Ð·ÐµÑĢ":3833,"ĠÐ¼ÑĥÐ·Ñĭ":3834,"9973":3835,"ĠÐºÐ°Ð¼":3836,"Ð¾Ð»Ð¾Ð³":3837,"ĠÐ¼Ð¸ÑĢ":3838,"ĠÐ½Ð°Ð»":3839,"Ð½Ð°Ð·Ð½Ð°":3840,"ĠÑĢÐ°Ð·Ð»Ð¸ÑĩÐ½ÑĭÑħ":3841,"ÑĳÑĢ":3842,"ÑĩÐµÑģÑĤÐ²Ð¾":3843,"ĠÐ´ÐµÐ»Ð¾":3844,"ĠÑĢÐ°ÑģÑģÐºÐ°Ð·Ð°":3845,"Ð·Ð¸Ñı":3846,"Ð°Ð»ÑĮÐ½Ð¾Ð¹":3847,"ÐµÐ½Ð":3848,"875":3849,"ÐµÐ½Ð¾":3850,"ĠÐºÐ°ÑĤÐ°":3851,"ĠÐ¿ÑĢÐ°Ð²Ð¸Ð»ÑĮÐ½Ð¾":3852,"ĠÐĳÐµÐ»":3853,"Ġy":3854,"Ð³Ð¾Ñģ":3855,"ĠÐ¾ÑĩÐ¸":3856,"Ð°Ð»Ð°":3857,"ĠÐ¾ÐºÑĤÑıÐ±ÑĢÑı":3858,"ĠÑįÑĤÐ¸Ð¼":3859,"ĠÐĺÐ½ÑĤÐµÑĢ":3860,"Ġ//":3861,"ĠÐ¿ÑĢÐ¾Ð±Ð»ÐµÐ¼Ñĭ":3862,"ĠÐŁÐµÑĤ":3863,"ĠÐ²ÐµÐ´ÑĮ":3864,"ĠÑĥÑģÐ»Ð¾Ð²Ð¸Ñı":3865,"ON":3866,"865":3867,"ĠÐŁÑĢÐ°Ð²Ð¸":3868,"ĠÐ¿Ð¾ÑĩÑĤÐ¸":3869,"ĠÑģÑģÑĭÐ»":3870,"ĠÐ½Ð¸ÑĩÐµÐ³Ð¾":3871,"Ð¼Ð¾Ð¹":3872,"ÑĢÑĥÐ¶Ð¸":3873,"ÑĤÐµÐ»ÑĮÐ½Ð¾ÑģÑĤÑĮ":3874,"ĠÐ¿ÑĢÐ¾Ð¸ÑģÑħÐ¾Ð´Ð¸ÑĤ":3875,"ĠÐĿÐ¾ÑıÐ±ÑĢÑĮ":3876,"ĠÑħÑĢÐ°":3877,"Ð¶Ð½ÑĭÐ¹":3878,"864":3879,"Ð¾ÑģÑĤÐ°Ð²Ð¸":3880,"166":3881,"ĠÑĨÐµÐ½Ñĭ":3882,"9925":3883,"ÑĪÐµÑĤ":3884,"ĠÐ´Ð¾Ð¿Ñĥ":3885,"ĠÐ²Ð°ÑĢÐ¸Ð°Ð½ÑĤ":3886,"ĠÐĶÐ¶":3887,"ĠÐ±ÑĥÐº":3888,"Ð¾Ð¶Ð½Ð¾":3889,"ĠÐŁÐµ":3890,"ĠÐ¸Ð³ÑĢÐ°ÑĤÑĮ":3891,"ĠÐ¿Ð°ÑĨÐ¸":3892,"AF":3893,"ĠÐľÐ¾ÑģÐºÐ¾Ð²":3894,"ĠÐ½Ð¸Ð¶Ðµ":3895,"ĠÑĩÐµÐ»Ð¾Ð²Ðµ":3896,"ĠÐ¿ÑĢÐ¾Ð±Ð»ÐµÐ¼":3897,"ĠÑģÑĢÐµÐ´Ð¸":3898,"ĠÐ´ÑĥÐ¼Ð°":3899,"Ð¼Ð¸Ð½":3900,"ĠÑĤÑĢÐ°Ð½ÑģÐ¿Ð¾ÑĢÑĤ":3901,"ĠÐĳÐ¾Ð»ÑĮ":3902,"Ð¶ÐµÐ½Ð¸Ð¸":3903,"ĠÐ¢Ñĥ":3904,"nÐŁÐµÑĢÐµ":3905,"ĠÐļÑĥÑĢ":3906,"ĠÑĢÐ°Ð·Ð½ÑĭÑħ":3907,"ĠÐ¼Ð¸ÑĢÐµ":3908,"9936":3909,"EC":3910,"ĠÐķÐ²ÑĢÐ¾Ð¿":3911,"ĠÐĴÐ°Ñģ":3912,"ĠÐºÐ¾Ð¼Ð¼Ñĥ":3913,"Ð²ÐµÐ´ÐµÐ½Ð¸Ñı":3914,"ĠÐłÑĥ":3915,"Ð¼Ð¾ÑĤÑĢÐµÐ½":3916,"ĠÐ¸Ð¼Ñı":3917,"968":3918,"ĠÑģÐ»ÐµÐ´":3919,"Ð´Ð°Ð½Ð¸Ðµ":3920,"ĠÐºÐ¾Ð»Ð»ÐµÐº":3921,"ĠÐºÐ¾Ð½ÑĤÐ°":3922,"ĠÐ¾Ð³ÑĢÐ¾Ð¼":3923,"dc":3924,"Ð¾Ð¾Ð±ÑīÐµ":3925,"Ð²Ð¸Ð°":3926,"Ð²Ð¸Ð´ÐµÑĤÐµ":3927,"ÑīÐµÐ½Ð¸Ð¸":3928,"ĠÐºÑĢÐµÐ¿":3929,"Ġ29":3930,"Ð±ÑĢÐ°":3931,"ram":3932,"ĠÐºÐ»Ñİ":3933,"947":3934,"Ð²Ð°Ð¹ÑĤÐµ":3935,"ĠÑĤÐ²Ð¾ÑĢ":3936,"Ð±Ð¾Ð²":3937,"ĠĠĠĠ":3938,"9978":3939,"ĠÐŁÐ¾Ð»Ð¸":3940,"ÑĨÐµÐ½Ð¸":3941,"Ð±Ð¾ÑĤÐ°":3942,"ÑĤÐ½ÑĭÐ¹":3943,"ĠÐ±Ð¾Ð»ÑĮÑĪÐ¾Ð¹":3944,"ÑĤÐµÐ»ÑĮÐ½ÑĭÐ¼":3945,"ĠÐ¿ÑĢÐ¾Ð³ÑĢÐ°Ð¼Ð¼Ñĭ":3946,"ĠÐ±Ð¸Ð·Ð½ÐµÑģ":3947,"Ð°Ð½Ðº":3948,"ĠâĨ":3949,"ĠÐ³Ð¾Ð»":3950,"ÑĦÐ¾ÑĢÐ¼Ð¸":3951,"ĠÐ½Ð°Ð¿ÑĢÑı":3952,"nÐĵÐ»Ð°Ð²Ð½Ð°Ñı":3953,"Ð¸Ð¹":3954,"ĠÐŀÐºÑĤÑıÐ±ÑĢÑĮ":3955,"375":3956,"ĠÐĲÐ½Ð´":3957,"Ð°Ñħ":3958,"164":3959,"Ð¼Ð°ÑĢ":3960,"ÑģÑĤÑĥÐ¿Ð°":3961,"Ð³Ð¾ÑĤ":3962,"--------":3963,"ĠÐ¾Ð±ÑıÐ·Ð°ÑĤÐµÐ»ÑĮÐ½Ð¾":3964,"ĠÐ¿Ð¾Ð»ÑĮÐ·Ð¾Ð²Ð°ÑĤÐµÐ»ÐµÐ¹":3965,"135":3966,"ĠÑģÐ²Ð¾Ð¸Ð¼":3967,"ĠÐ¿ÐµÑĢÐ²ÑĭÐ¹":3968,"ÐºÐ¾ÑģÑĤÐ¸":3969,"ĠÐ¾Ð¶Ð¸":3970,"ÐĽÐķ":3971,"874":3972,"ĠÐ·Ð°ÑīÐ¸ÑĤÑĭ":3973,"....":3974,"ĠÐ±Ð°Ð»":3975,"ĠÐ½Ð°Ð¿Ð¸ÑģÐ°":3976,"165":3977,"ĠÑĢÐ°ÑģÐº":3978,"Ð»Ð¾Ð²Ð°":3979,"Ð¶Ð´Ðµ":3980,"ĠÑħÐ¾Ð·ÑıÐ¹":3981,"ĠÐŀÐ½Ð°":3982,"Ð¸ÑĤÐ°Ð¹":3983,"ÑĢÐ°Ð¹":3984,"Ð²Ð¾Ð´Ð°":3985,"nÐĶÐ°":3986,"ĠÐ±Ð¾Ð»ÑĮÑĪÐ¸Ð½":3987,"ĠÐ¼ÑĥÐ½Ð¸ÑĨÐ¸Ð¿Ð°Ð»ÑĮÐ½Ð¾Ð³Ð¾":3988,"su":3989,"Ð¾Ð¶Ð°Ð»ÑĥÐ¹":3990,"ÑĢÑĥÑİÑĤ":3991,"ĠÐľÐ¸Ð½":3992,"136":3993,"ĠÐ¾Ð¿Ð°Ñģ":3994,"ĠÑģÐ¾Ð¾Ð±ÑīÐ¸":3995,"ĠÐ·Ð°ÑıÐ²Ð¸":3996,"ĠÐ¿ÑĢÐ¸ÐµÐ¼":3997,"ĠÐ·Ð°Ð¿ÑĢÐ¾Ñģ":3998,"ĠÐ¼ÐµÑģÑĤÐµ":3999,"Ð½ÑģÐºÐ¸Ð¹":4000,"ĠÐ½Ð°ÑĪÐµÐ¼":4001,"Ð¾ÑĩÑĮ":4002,"ÐµÐ´Ð¶":4003,"php":4004,"943":4005,"ĠÐ¿ÑĢÐ¾Ðº":4006,"201":4007,"ĠÐ¾ÑģÐ½Ð¾Ð²Ðµ":4008,"2018":4009,"ĠÐ·Ð°Ð¿Ñĥ":4010,"ĠÐºÐ¾Ð½ÑĦÐ¸Ð´ÐµÐ½ÑĨÐ¸Ð°Ð»ÑĮ":4011,"ĠÐ·Ð°Ð²Ð¸ÑģÐ¸ÑĤ":4012,"ĠÑĩÐµÑĤ":4013,"Ð»ÑĮÑĤÐ¸":4014,"ĠÐ¿Ð»Ð°Ð½":4015,"ĠÑĥÑĩÐµÑĤ":4016,"226":4017,"ĠÐ°Ð¿ÑĢÐµ":4018,"ĠÐ²Ð¾Ð·Ð²ÑĢÐ°":4019,"Ð¼Ð¸ÑĤÐµ":4020,"ĠÐ¼Ð°Ð»ÐµÐ½ÑĮ":4021,"Ð¾Ð½Ð´":4022,"ĠÐ¸Ð·Ð¾Ð±ÑĢÐ°Ð¶":4023,"ĠÐ¡Ð°Ð½ÐºÑĤ":4024,"ÑĢÐ¾Ð²Ð¾Ð¹":4025,"ist":4026,"Ð±ÐµÑĢÐ¸ÑĤÐµ":4027,"Ð°Ð»ÑĮÐ½ÑĭÐ¹":4028,"ĠÐ²Ð°ÑĪÐµÐ³Ð¾":4029,"ĠÑıÐ½Ð²Ð°":4030,"ĠÐ§Ð°":4031,"ĠÐķÐ²":4032,"ĠÐ¡Ð¾Ð²ÐµÑĤ":4033,"ĠÐ½Ð°ÑĩÐ°Ð»Ð°":4034,"Ð¾Ð¿Ð°":4035,"ĠÑĤÐµÐ¿ÐµÑĢÑĮ":4036,"ĠÐ·Ð°Ð¼":4037,"ĠÑįÐºÑģÐ¿Ð»ÑĥÐ°ÑĤÐ°":4038,"Ð¿ÑĢÐ°Ð²Ð¸ÑĤÑĮ":4039,"Ð¶Ð´ÐµÐ½Ð¸Ðµ":4040,"ĠÐ²ÑĭÑħÐ¾Ð´":4041,"Ð¾Ð»Ð¾ÑĤ":4042,"Ð¾Ð²Ð¸":4043,"ĠÐ·Ð²Ñĥ":4044,"nÐŁÑĢÐµÐ´":4045,"Ð·Ð°Ð¸Ð¼":4046,"ĠÑħÐ¾ÑĤÑı":4047,"Ð»ÑıÐµÐ¼":4048,"ÑĩÐ¸Ðµ":4049,"nÐ²":4050,"ĠÑĤÐ¾Ð²Ð°ÑĢÐ¾Ð²":4051,"ÐµÐ½Ð½Ð¾Ð¹":4052,"ĠÐ·Ð°ÑĤÐµÐ¼":4053,"ĠÑģÐµÑĤ":4054,"196":4055,"Ð¼Ð¼":4056,"ĠÑģÐ¾Ñĩ":4057,"ĠÐ´ÐµÐ²Ñĥ":4058,"ÑĤÐ¸ÑĦÐ¸ÐºÐ°":4059,"Ġcook":4060,"Ð´Ð°Ð²":4061,"ĠÐ¿Ð¾Ð·Ð¸":4062,"ĠÐ·Ð°Ð²ÐµÑĢ":4063,"nÐĲÑĢ":4064,"Ð³Ð°Ð½Ð¸":4065,"ĠÐ¦ÐµÐ½ÑĤ":4066,"ĠÑģÑĥÐ¿":4067,"ÐľÐĲ":4068,"206":4069,"nÐļÐ¾Ð½":4070,"fc":4071,"ĠÑĢÐµÐ·ÑĥÐ»ÑĮÑĤÐ°ÑĤÐµ":4072,"ĠÐ¾Ð±ÑĬÐµÐ¼":4073,"185":4074,"ĠÑĥÑĩÑĢÐµÐ¶Ð´":4075,"124":4076,"ĠÐ¿ÑĢÐ¸Ð½ÑĨÐ¸":4077,"ĠÑģÐ¾Ð²Ð¼Ðµ":4078,"Ð°Ð³Ð½Ð¾ÑģÑĤÐ¸":4079,"Ð¾ÑģÑĤÐ°Ð²ÐºÐ°":4080,"ĠÑĥÐ¿Ð°":4081,"Ð¶Ð´Ñĭ":4082,"**":4083,"ÑĩÐ°Ð¹":4084,"ĠÐ²ÐµÑĢÑħ":4085,"ĠÑģÐµÐ·":4086,"Ð°Ð»Ñĭ":4087,"ÐµÑĪÑĮ":4088,"ĠÐĺÐ³":4089,"ĠÐ¼Ð¸Ð»Ð»Ð¸":4090,"ÑĤÐµÐ»Ñİ":4091,"DBF":4092,"Ġ60":4093,"ĠÐ²ÑģÐµÐ¹":4094,"ÑģÐºÐ°ÑĤÑĮ":4095,"ĠY":4096,"ĠÐŀÑĢ":4097,"ĠÐ·Ð°ÐºÐ»Ñİ":4098,"ĠÐ´Ð¸Ð·Ð°Ð¹":4099,"AN":4100,"ÐµÐ½Ð½Ð¾Ð³Ð¾":4101,"ĠÐŀÐŀÐŀ":4102,"ĠÐ¸Ð¼Ñĥ":4103,"ĠÐ¾ÑģÐ¾Ð±ÐµÐ½Ð½Ð¾":4104,"ĠÑģÐ¾Ð³Ð»Ð°ÑģÐ¸":4105,"ÑĢÐ¾ÐºÐ°":4106,"Ð¼ÑĭÑģ":4107,"ĠâĤ½":4108,"Ð¾ÑĩÐºÐ°":4109,"Ð¾Ð´Ð¾Ð²":4110,"Ð¿Ð»Ð¸":4111,"Ġon":4112,"ÐºÐ²Ð¸":4113,"ĠÐ°Ð²Ð³Ñĥ":4114,"ĠÐ²Ð¾ÑģÑģÑĤÐ°Ð½Ð¾Ð²":4115,"ĠÐ½Ð°Ð¹":4116,"Ð¾ÑĢÐ¾ÑĤ":4117,"ÑĪÐºÐ¾Ð¼":4118,"ĠÐ¼Ð°Ñı":4119,"195":4120,"ĠÑĨÐµÐ»ÑĮ":4121,"ĠÐ§ÐµÑĢ":4122,"917":4123,"Ð±Ð¸ÑĢ":4124,"Ð¶ÐºÐ¸":4125,"903":4126,"ĠÐ·Ð°Ð¿Ð¾Ð»":4127,"ry":4128,"ĠÑĤÑĥÑĤ":4129,"ĠÐ¾Ð±ÑĭÑĩÐ½Ð¾":4130,"ĠÐºÐ»Ð°ÑģÑģÐ¸":4131,"ÑĪÐµÐº":4132,"ĠÑīÐµ":4133,"ev":4134,"9980":4135,"ĠÑĢÐ°ÑģÑĪÐ¸":4136,"ĠÑģÐ¼Ð¾ÑĤ":4137,"ĠÑİÑĢÐ¸Ð´Ð¸":4138,"io":4139,"Ð¾ÑģÑĤÐµÐ¹":4140,"Ð¾ÑĤÐ¸ÑĤÐµ":4141,"ĠÐ¾Ð±Ð¾ÑĢÑĥÐ´Ð¾Ð²Ð°Ð½Ð¸Ñı":4142,"Ð»ÐµÐ²":4143,"ĠÐ¿ÑĢÐµÐ´Ð½Ð°Ð·Ð½Ð°":4144,"ÑĢÐµÐ¼Ñı":4145,"ĠÐ¸ÑģÑĤÐ¾ÑĢÐ¸Ð¸":4146,"ĠÐ¾Ð´Ð½Ð°":4147,"Ð´Ð½ÐµÐ²":4148,"Ð±Ð¾Ð¹":4149,"ĠÑģÐµÐ½ÑĤÑıÐ±ÑĢÑı":4150,"ĠÐĶÐµ":4151,"âĢ¢":4152,"ÑĦÐ¾Ð½Ð°":4153,"ĠÑĤÑıÐ¶Ðµ":4154,"ĠÐ¿Ð¾Ð¶":4155,"970":4156,"ĠÐ¾Ð±ÑĢÐ°Ð±Ð¾ÑĤÐºÐ¸":4157,"ĠÐ½Ð°ÑĪÐ¸":4158,"134":4159,"Ð³ÐµÐ¹":4160,"Ð¾Ð½Ð¾Ð¼":4161,"ÑĦÑĭ":4162,"Ð°ÑĢÐ¾Ð²":4163,"Ð¾Ð´ÐµÐ»Ð¸":4164,"ĠÐ²Ð°Ð¶Ð½Ð¾":4165,"ÑĢÐ°Ð·Ð¸":4166,"ĠÐ¼Ð¸Ð½Ñĥ":4167,"ki":4168,"Ð¾ÑģÑĤÐ¾Ð¸":4169,"ĠÐ¼ÐµÐ¶Ð´ÑĥÐ½Ð°ÑĢÐ¾Ð´":4170,"ĠÐ·Ð°Ð¿Ð¸ÑģÐ¸":4171,"ĠÑĢÐ°Ð±Ð¾ÑĤÐ°ÑĤÑĮ":4172,"ĠÑĤÑĥÑĢÐ¸":4173,"ĠÑĤÑĢÐµÑĤÑĮ":4174,"ĠÐ´ÐµÑĤÐ°":4175,"ud":4176,"ĠÐ²ÐµÐ»Ð¸":4177,"Ð¾ÑĩÐ½Ð¾Ð¹":4178,"ĠÑģÐ»Ð°":4179,"157":4180,"ÑĤÐµÑĢÐµÑģ":4181,"123":4182,"ÐµÐ´ÐµÑĢÐ°Ð»ÑĮ":4183,"107":4184,"news":4185,"ĠÑģÐ°Ð¼Ð¸":4186,"ĠÐ¾Ð±Ð½Ð°":4187,"ÑģÑıÑĤ":4188,"ÐŀÐ±":4189,"933":4190,"ĠÑĨÐ¸ÑĦ":4191,"ĠÑĦÐ¾ÑĢÐ¼Ð¸":4192,"Ð¶ÐµÐ¼":4193,"ĠÑĤÐ¾Ð²Ð°ÑĢ":4194,"ĠÐºÐ¾ÑĤÐ¾ÑĢÑĥÑİ":4195,"127":4196,"ĠÐ¿ÑĢÐ¾Ð³ÑĢÐ°Ð¼Ð¼":4197,"ÑĤÐ°Ð½":4198,"ÐºÑĢÐµÐ¿":4199,"nÐ§Ð¸ÑĤÐ°ÑĤÑĮ":4200,"ĠÐ²ÐµÐ±":4201,"Ð¢Ðĺ":4202,"ĠÐ½Ð°ÑħÐ¾Ð´Ñı":4203,"ĠÐ¿Ð¾Ð¼Ð¾ÑīÑĮ":4204,"ÑĢÐ¸ÐºÐ¸":4205,"Ð¾ÑĩÐ½ÑĭÑħ":4206,"Ð¾Ð±Ð°Ð²Ð¸ÑĤÑĮ":4207,"ĠÐ¾Ð²":4208,"ĠÑĩÐ¸ÑģÑĤ":4209,"ight":4210,"ĠÐ¶Ð¸Ð´":4211,"9964":4212,"Ġ>":4213,"ÑĤÐ¸Ð²Ð½ÑĭÑħ":4214,"nÐŁÑĢÐ¾":4215,"Ð»Ð¸Ð¸":4216,"Ð¶Ð½Ð°Ñı":4217,"ĠÑĨÐ²ÐµÑĤÐ°":4218,"Ð½Ð°Ð»Ð°":4219,"Ð²ÐµÐ´Ð¾Ð¼":4220,"ĠÐ§ÑĤÐ¾Ð±Ñĭ":4221,"ĠÐ¼Ð¾Ð½ÑĤÐ°":4222,"ÑģÑĤÐ²ÐµÐ½Ð½Ð°Ñı":4223,"ĠÐ¾ÑĤÐ¼ÐµÑĤÐ¸":4224,"ĠÐ¼ÐµÐ´":4225,"ĠÐ²ÐµÑģ":4226,"ĠÐĵÐ»Ð°Ð²":4227,"Ð¸ÑĤÑĮÑģÑı":4228,"ĠÐ°ÑĢÑħÐ¸":4229,"Ð¼Ð¾ÑĤÑĢ":4230,"ĠÐ¾Ð¿Ð¸ÑģÐ°":4231,"ĠÑĦÐµÐ²":4232,"ĠÐ¾Ð¿ÑĤÐ¸":4233,"ÐµÑĤÐµÑģÑĮ":4234,"Ð²Ð¾Ð²":4235,"Ð¾Ð¸Ð·Ð²Ð¾Ð´Ð¸":4236,"ĠÐ´ÑĢÑĥÐ·":4237,"ĠÑĦÐ¾ÑĢÐ¼Ðµ":4238,"ĠÑĥÑĢÐ¾Ð²ÐµÐ½ÑĮ":4239,"ĠÐµÐ´Ð¸":4240,"Ð½ÑıÐµÑĤÑģÑı":4241,"ĠÐ½ÐµÑģÐºÐ¾Ð»ÑĮ":4242,"ĠÐ¿ÑĢÐ°ÐºÑĤÐ¸ÑĩÐµÑģÐºÐ¸":4243,"ĠÐ¾Ð¿ÑĭÑĤ":4244,"nÐĺÑģÑĤ":4245,"Ġ500":4246,"ÑĢÐ¸ÑĤ":4247,"ÑĩÐ¸Ð²":4248,"960":4249,"ĠÐºÐ¾Ð¼Ð¼ÐµÐ½ÑĤÐ°ÑĢÐ¸Ð¹":4250,"ĠÑģÑĤÑĢÐ°Ð½":4251,"Ġn":4252,"ĠÐ´Ð¾ÑģÑĤÐ°Ð²ÐºÐ¸":4253,"ap":4254,"ĠÐ¼Ð¾Ð¸":4255,"ÐĽÐŀ":4256,"846":4257,"ĠÐ¾Ð±Ð½Ð¾Ð²":4258,"ĠÐ¿Ð¾ÑģÐµÑĤÐ¸":4259,"ĠÑħÐ°ÑĢÐ°ÐºÑĤÐµÑĢ":4260,"ID":4261,"ĠÑĥÑĩÐ°ÑģÑĤÐ¸Ðµ":4262,"ÑģÐ¿ÐµÐº":4263,"ĠÑĤÑĥÑĢ":4264,"ĠÐºÐ°Ð¶Ð´Ð¾Ð³Ð¾":4265,"ĠÑĢÐ°ÑģÑħÐ¾Ð´":4266,"ĠÑĤÐ¾Ð¼Ñĥ":4267,"ĠÑĥÑģÑĤÐ°Ð½Ð°Ð²Ð»Ð¸":4268,"ĠÐ¼Ð½Ð¾Ð³Ð¸Ðµ":4269,"876":4270,"Ð´ÐµÑĢÐ¶Ð¸":4271,"ĠÑĥÐ²ÐµÑĢ":4272,"ĠÐ²ÑģÑı":4273,"ÐºÐ¾Ð½Ð°":4274,"ÑĨÐ¸Ð¾Ð½Ð½Ð¾Ð¹":4275,"Ð´ÐµÐ»":4276,"ĠÑĪÑĤ":4277,"ĠÐ¿Ð¾ÑĩÐµÐ¼Ñĥ":4278,"ĠÐ¿Ð¾ÑĢÑĤÐ°":4279,"OR":4280,"Ð·Ð¸ÑĢÐ¾Ð²Ð°Ð½":4281,"Ð´ÐµÐ¼Ð¸":4282,"ĠÐºÐ¸Ñģ":4283,"ĠÑĤÑĢÐ°Ð´Ð¸":4284,"ÑĢÐ¾Ð½Ð¸":4285,"ĠÐ¿ÑĢÐµÐ¸Ð¼Ñĥ":4286,"ĠÑĦÐ°Ðº":4287,"ĠÑĥÑģÑĤÑĢÐ¾Ð¹ÑģÑĤÐ²Ð°":4288,"ĠÑĤÐ°ÐºÐ¾Ð³Ð¾":4289,"ĠÐĴÐµÐ»Ð¸":4290,"ĠÐ²Ð¾Ð·Ð´ÐµÐ¹":4291,"ÑĩÐµÑģÑĤÐ²Ð°":4292,"ĠÐĿÐĲ":4293,"Ð½Ð¾Ð·":4294,"ÑĩÐµÑģÐºÑĥÑİ":4295,"ĠÐ³ÑĢÐ¸":4296,"ÑĢÐµÐ·Ð°":4297,"Ð´ÐºÐ°":4298,"ĠÐ³Ðµ":4299,"ĠÐ°ÑĤ":4300,"ĠÑĢÐµÐ³ÑĥÐ»Ð¸":4301,"ai":4302,"AR":4303,"147":4304,"ĠÐ½ÐµÐ´Ð²Ð¸Ð¶Ð¸":4305,"144":4306,"Ð¼ÑĥÐ»Ñı":4307,"ĠÑĢÐ°Ð¼ÐºÐ°Ñħ":4308,"ĠÑĤÐ¾Ñĩ":4309,"845":4310,"ÑĤÐµÑĪÐµ":4311,"Ð»Ð¸Ð±Ð¾":4312,"ĠÐ¸ÑģÐ¿Ð¾Ð»ÑĮÐ·Ð¾Ð²Ð°Ð½Ð¸Ðµ":4313,"ĠÑĦÐ¾ÑĢÑĥÐ¼Ð°":4314,"ĠÑĤÑĢÐ°Ð²":4315,"ĠÐ¿Ð¾ÑģÐº":4316,"ÐºÐ°Ð·ÑĭÐ²Ð°":4317,"ĠÐĴÐ":4318,"ÑĬÐµ":4319,"ĠÐ¿Ð¾Ð´ÐºÐ»Ñİ":4320,"ĠÑĥÐ´Ð¾Ð²":4321,"ĠÑģÐ²Ð¾Ð±Ð¾Ð´":4322,"ÑĢÐ¾Ð²Ð°ÑĤÑĮÑģÑı":4323,"9923":4324,"855":4325,"Ð¾Ð²Ð°Ð½Ð¸Ð¹":4326,"Ð´Ð¸ÑĤ":4327,"ĠÐ¾ÑĤÐ½Ð¾ÑĪÐµÐ½Ð¸Ñı":4328,"db":4329,"Ð´ÐµÐ»Ð¸Ñı":4330,"Ð½Ð¸Ð½":4331,"nL":4332,"ĠPro":4333,"ĠÐ²Ð°Ð½":4334,"ÐŀÐł":4335,"ĠÐ¿Ð¾Ð¿Ð°":4336,"844":4337,"ĠÐ¿ÑĢÐ¾Ð²ÐµÐ´ÐµÐ½Ð¸Ñı":4338,"ÑģÑĤÐ²ÐµÐ½Ð½Ð¾Ðµ":4339,"Ð¿Ð°Ð´":4340,"ĠÑģÑĥÑĤ":4341,"958":4342,"ĠÐĽÑĥ":4343,"our":4344,"ĠÐ»ÐµÑĩÐµÐ½Ð¸Ñı":4345,"ĠÐĴÐ¾":4346,"ĠÐ²Ð·Ð°Ð¸Ð¼":4347,"ÑģÐ°Ð¹":4348,"9963":4349,"Ð»ÑĮÐ·Ñı":4350,"Ð¾Ð³ÑĥÑĤ":4351,"ĠÐ¿Ð»":4352,"ĠÑĨÐµÐ½ÑĤÑĢ":4353,"Ð¾Ð³Ñĥ":4354,"ĠÐ¿Ð¾Ð´Ð°ÑĢ":4355,"9924":4356,"ÑĩÐ¸ÐºÐ°":4357,"Ð²ÐµÐ´ÐµÐ½":4358,"ĠÐ½ÐµÐ¼Ð½Ð¾Ð³Ð¾":4359,"ÑĩÐ°Ð»Ð°":4360,"ĠÐļÐ¾Ð»":4361,"nÐļÐ¾Ð½ÑĤÐ°ÐºÑĤÑĭ":4362,"Ð»ÐµÐ¶Ð°":4363,"ĠÐºÐ¾Ð¼ÑĦÐ¾ÑĢ":4364,"ĠÐºÐ¾Ð½ÐµÑĩÐ½Ð¾":4365,"2015":4366,"az":4367,"Ð²ÐµÑĢÐ´":4368,"Ð¦Ðĺ":4369,"du":4370,"nÐ¾ÑĤ":4371,"ĠÐ¡Ð°Ð¹":4372,"ĠÑģÐ¾Ð±Ð¸":4373,"ĠÑģÐ¾ÑģÑĤÐ°Ð²Ð»ÑıÐµÑĤ":4374,"ĠÐ¼Ð°ÑģÑĤÐµÑĢ":4375,"ĠÐ¿Ð¸ÑģÐ°":4376,"ĠÐ¼ÐµÑģÑıÑĨÐµÐ²":4377,"ĠÐ¼Ð½Ð¾Ð¶Ðµ":4378,"ÑģÐ¸Ð²":4379,"ĠÐ¼Ð¾Ð´":4380,"Ð²Ð¸Ð´ÐµÑĤÐµÐ»ÑĮ":4381,"9956":4382,"Â©":4383,"ĠÐ¡Ð¿":4384,"ĠÑĢÐ¸Ñģ":4385,"Ð»ÐµÐ½Ð½ÑĭÐ¹":4386,"Ð´Ð°ÑİÑĤ":4387,"ĠÐµÐ¶Ðµ":4388,"ĠÂ»Â»Â»":4389,"Ð¾Ð¸ÑģÐº":4390,"265":4391,"ÑĩÐµÐ½Ð¸ÐµÐ¼":4392,"103":4393,"ĠÐ¼Ð°ÑģÑģ":4394,"ĠÐ¼Ð°ÑĢÑĤÐ°":4395,"ĠðŁ":4396,"ĠÐ¾Ð±ÑģÑĥ":4397,"ĠÐ¸Ð·Ñĥ":4398,"9927":4399,"ĠÐ½Ð°ÑĪÐ¸Ñħ":4400,"ĠÐ¸Ð³ÑĢÐ¾Ð²ÑĭÐµ":4401,"ÑģÐµÑģÑģÑĥÐ°ÑĢÑĭ":4402,"ĠÐ¾Ñī":4403,"ĠÑĦÐ¾ÑĤÐ¾Ð³ÑĢÐ°ÑĦÐ¸":4404,"ĠÐ·Ð½Ð°ÐºÐ¾Ð¼":4405,"ĠÐļÑĢÐ¾Ð¼Ðµ":4406,"ĠÐ½ÐµÐ´Ðµ":4407,"ĠÐ´Ð¾ÐºÑĥÐ¼ÐµÐ½ÑĤÐ¾Ð²":4408,"Ġ200":4409,"OS":4410,"CC":4411,"ĠÐ½Ð°Ð¿Ð¸":4412,"ĠÐ´Ð¾Ð±Ð°":4413,"ĠÐ±Ð°Ð·":4414,"ĠÐ½ÐµÐ»ÑĮÐ·Ñı":4415,"ĠÑģÐ»ÑĥÐ¶Ð±Ñĭ":4416,"ĠÑįÐ»ÐµÐºÑĤÑĢÐ¸":4417,"Ð¿ÑĤÐ¾Ð¼":4418,"187":4419,"ĠÐ²Ð¾Ð¾Ð±ÑīÐµ":4420,"Ð¾ÑģÑĮ":4421,"ÑĩÐµÐ½Ñĭ":4422,"907":4423,"2016":4424,"ĠÑģÐµÑĢÑĮ":4425,"ĠÑħÑĥÐ´":4426,"ÑīÐµÐ½Ñĭ":4427,"ĠÐ·Ð°Ð±Ð¾Ð»ÐµÐ²Ð°Ð½Ð¸Ñı":4428,"Ġ2011":4429,"ĠÐ½Ð°Ðº":4430,"ĠÐ¿Ð»Ð°ÑĤÐµ":4431,"Ð¶ÐµÑĤÑģÑı":4432,"ĠÑĤÑĭÑģÑıÑĩ":4433,"ĠÐºÐ¾Ð»Ðµ":4434,"ĠÑģÑĤÐµÐ¿":4435,"ĠÐ¿ÑĢÐ¸ÑĢÐ¾Ð´":4436,"ĠÑĤÐ°ÐºÐ¸Ð¼":4437,"ci":4438,"%\\":4439,"ĠÐ¿Ð¾ÑĤÐ¾Ð»":4440,"ĠÐ²Ð´":4441,"ĠÐºÐ¾Ð½ÑģÑĥÐ»ÑĮÑĤÐ°":4442,"ĠÐºÐ¾Ð½ÑĦÐ¸Ð´ÐµÐ½ÑĨÐ¸Ð°Ð»ÑĮÐ½Ð¾ÑģÑĤÐ¸":4443,"ĠÐ²Ð¿":4444,"866":4445,"ĠÐ¼Ð¾Ð½":4446,"ĠÐľÐ°Ðº":4447,"ĠÐŁÐ¸":4448,"net":4449,"ĠÑĦÐ¾ÑĢÐ¼Ñĭ":4450,"ĠÐºÐ¾Ð½ÐºÑĢÐµ":4451,"ĠÐ¿ÑĢÐ¾ÑģÑĤÑĢÐ°Ð½":4452,"Ð¼ÐµÑĢÐ¸ÐºÐ°Ð½":4453,"ĠÐľÐ¸Ð½Ð¸ÑģÑĤÐµÑĢÑģÑĤÐ²Ð¾":4454,"ĠÐĳÐ¸":4455,"ĠÐ²ÑĭÐ³Ð»Ñı":4456,"ĠÐ¼ÐµÑģÑıÑĨ":4457,"ĠÐ¿Ð¾ÑģÐºÐ¾Ð»ÑĮÐºÑĥ":4458,"ĠÐĺÐ²Ð°":4459,"Ġfor":4460,"920":4461,"bg":4462,"Ð³Ð¾Ðµ":4463,"225":4464,"ĠÐ¿ÑĢÐ¸Ñģ":4465,"ÑĦÐ¾ÑĢÐ¼Ð°ÑĨÐ¸Ñı":4466,"Ġï¿½ï¿½ï¿½ï¿½":4467,"Ð¾Ð²ÑĭÐ¹":4468,"9335":4469,"9968":4470,"ÑıÑģÑĮ":4471,"cf":4472,"ÑĢÐµÐ±Ð¸":4473,"Ð¾Ð³Ð¸Ðµ":4474,"9955":4475,"9970":4476,"ÐºÐ¾ÑĢÐ°":4477,"nÐļÑĥÐ¿Ð¸ÑĤÑĮ":4478,"ÐºÐ¾Ð²Ð":4479,"ĠÐ½Ð°ÑĪÐµÐ³Ð¾":4480,"Ġth":4481,"ÐºÐ¾Ð²Ð¾":4482,"ĠÐºÐ¾Ð¶":4483,"Ð¼Ð¸ÑĤÑĢÐ¸":4484,"ĠÐ¿ÑĢÐµÐ´Ð¼ÐµÑĤ":4485,"ÑĢÐ¸ÑĤÑĮ":4486,"ĠÐ°Ð²ÑĤÐ¾Ð¼Ð¾Ð±Ð¸Ð»Ñı":4487,"877":4488,"mo":4489,"Ġ*\\":4490,"ĠÑĥÐºÐ°Ð·Ð°Ð½":4491,"ĠÐ½ÐµÐ¿ÑĢÐ¸":4492,"9957":4493,"Ð¶Ð°ÐµÑĤ":4494,"ĠÐ²Ð¸Ð´Ð°":4495,"ÑĪÐ¾Ð¹":4496,"ÐºÐ¸Ð½":4497,"ĠÑĤÑĢÑĥÐ´Ð°":4498,"ĠÐºÐ¼":4499,"ÐºÐ¾Ð²ÑĭÐµ":4500,"ÑĢÐµÑģÑģ":4501,"Ð´ÑĨÐ°":4502,"981":4503,"ÑĢÐµÐ¼ÐµÐ½Ð½Ð¾":4504,"ĠÐ¿Ð¾Ð´ÑĢÐ¾Ð±":4505,"ard":4506,"ĠÑģÐ¼ÐµÑĢ":4507,"ĠÑĢÐµÑĨÐµÐ¿":4508,"Ð°ÑĢÐ°":4509,"ĠÑĪÐºÐ¾Ð»":4510,"ĠÐĿÑĥ":4511,"ÑĩÐµÑĤÐ°":4512,"ÐłÐķ":4513,"ĠÐ¿Ð°ÑĤ":4514,"Ð´ÐµÑĤÑģÑı":4515,"167":4516,"ÐĺÐ½":4517,"ÑĪÑĥÑİ":4518,"ĠÑĥÐ·":4519,"ĠÑĢÑĥÐºÐ°Ð¼Ð¸":4520,"Ð·Ð¸Ð½":4521,"nB":4522,"ĠÐ²Ð¾Ð·Ð½Ð¸ÐºÐ°":4523,"Ð°Ð»ÑĮÐ½Ð¾Ð³Ð¾":4524,"FB":4525,"ĠÑģÐ°Ð¼Ð¾ÑģÑĤÐ¾ÑıÑĤÐµÐ»ÑĮÐ½Ð¾":4526,"ord":4527,"9992":4528,"me":4529,"ĠÐ´Ð¾Ð²Ð¾Ð»ÑĮÐ½Ð¾":4530,"ĠÐ½ÐµÐºÐ¾ÑĤÐ¾ÑĢÑĭÐµ":4531,"Ð¾ÑĢÐ¾Ð½Ðµ":4532,"-%":4533,"ÐºÐ°ÑĤÐµÑĢÐ¸":4534,"Ð¾ÑģÐºÐ¾Ð²":4535,"ÑħÐ":4536,"ni":4537,"ÑħÐ¾":4538,"ĠÐĴÐµ":4539,"ĠÐ¸ÑģÐ¿Ð¾Ð»ÑĮÐ·ÑĥÐµÑĤÑģÑı":4540,"ĠÐºÑĥÑħ":4541,"ĠÑĤÑĢÐµÑħ":4542,"ĠÐ±Ð»Ð°Ð³Ð¾Ð´Ð°ÑĢÑı":4543,"ĠÐºÐ¾Ð´":4544,"ĠÐ¿Ð¸ÑĤÐ°Ð½Ð¸Ñı":4545,");\\":4546,"Ð¾Ð¾ÑĢÑĥ":4547,"ĠÑĥÑĢÐ¾Ð²Ð½Ñı":4548,"873":4549,"ÑīÐ°ÑĤÑĮ":4550,"9886":4551,"ĠÐ¾ÑĤÐº":4552,"Ð¡ÐŁ":4553,"Ð¾Ð¶Ð°Ð»ÑĥÐ¹ÑģÑĤÐ°":4554,"ĠÐºÐ¾ÑĢÐ¿":4555,"ĠÐ¿ÑĥÐ±Ð»Ð¸ÐºÐ°":4556,"ĠÐ±ÐµÑĢÐµÐ¼ÐµÐ½":4557,"ĠÐ°Ð²ÑĤÐ¾":4558,"ĠÐ¸Ð¼ÐµÑĤÑĮ":4559,"nÐŃÑĤÐ¾":4560,"Ġ45":4561,"ĠÑĩÐµÑĤÑĭ":4562,"ÑİÑģÑĮ":4563,"9725":4564,"Ð½Ð¾ÑģÑĤÑĢÐ°Ð½":4565,"Ð¿Ð»Ð°ÑĤÐ°":4566,"ĠÐ¿ÑĢÐ¾Ð¼ÑĭÑĪÐ»ÐµÐ½":4567,"854":4568,"ÑĩÐ¸ÐºÐ¾Ð²":4569,"ÑĢÐ¸Ðº":4570,"Ð½ÑıÐµÑĤ":4571,"ĠÐ²ÑĭÑģÑĤÐ°Ð²":4572,"ÐµÐ·Ð´":4573,"ÑĩÐ¸ÐºÐ¸":4574,"948":4575,"ĠÑģÑĦÐµÑĢÐµ":4576,"Ð¾Ð³Ðµ":4577,"ĠÐ¾ÑĤÐ»Ð¸Ñĩ":4578,"Ð²ÑĪÐ¸Ð¹":4579,"Ìģ":4580,"227":4581,"ĠÐ±Ð¸Ð·Ð½Ðµ":4582,"ĠÐ²ÑĭÐ´Ðµ":4583,"Ð¾ÑģÑĤÐ°Ð²Ð¸ÑĤÑĮ":4584,"nÐĶÐ¸":4585,"ÐĲÐĹ":4586,"ÑģÐ¾Ð»":4587,"ĠÐ¼Ð½Ð¾Ð³Ð¸Ñħ":4588,"Ð²Ð¾Ð±":4589,"ĠÐļÐ¾Ð³Ð´Ð°":4590,"ĠÐ¸Ð¼ÐµÐ½Ð¸":4591,"ÑĢÐºÑĥ":4592,"ĠÐºÐ°ÑģÐ°":4593,"ĠÐ²Ð½ÑĥÑĤÑĢÐ¸":4594,"ĠÐ¾Ð±ÑĢÐ°Ð±Ð¾ÑĤÐºÑĥ":4595,"ĠÑģÐµÐ¼ÐµÐ¹":4596,"ĠÐ¿ÑĢÑıÐ¼Ð¾":4597,"ÑģÑĤÐ°Ð²Ð¸ÑĤÑĮ":4598,"ÐµÐ²Ð¸Ñĩ":4599,"nN":4600,"ĠÐ¼ÐµÐ½ÑĮÑĪÐµ":4601,"ĠÐ¿Ð»Ð°ÑĤ":4602,"ÑĤÐ°Ñı":4603,"ĠÐĲÐº":4604,"Ð¾ÑĤÑĥ":4605,"ĠÑĦÐµÐ²ÑĢÐ°":4606,"Ð±ÐµÐ»Ð¸":4607,"ĠÑĤÐµÐ¼Ñĭ":4608,"Ð¼Ð°Ð³Ð°Ð·Ð¸":4609,"ĠÐ°Ð¿ÑĢÐµÐ»Ñı":4610,"ĠÑĤÑĢÐ°Ð½ÑģÐ¿":4611,"ÑīÐ°ÐµÑĤÑģÑı":4612,"264":4613,"ĠÑģÐºÐ¸":4614,"ĠÐ¿ÐµÑĢÑģÐ¾Ð½Ð°":4615,"Ð»Ð°Ð³":4616,"cd":4617,"Ð¾Ð²Ð°Ð»Ð¸":4618,"Ð½Ð¸ÐºÐ°Ð¼Ð¸":4619,"ĠÐ¿ÑĢÐ¾Ð´ÑĥÐºÑĨÐ¸Ð¸":4620,"nÐĴÐ¾Ð·":4621,"ĠÐ±Ð»Ð¸Ð·":4622,"vo":4623,"ÑĥÐº":4624,"3768":4625,"Ð¿Ð°ÑģÐ¸Ð±Ð¾":4626,"ĠÑıÐ½Ð²Ð°ÑĢÑı":4627,"ÑģÑĤÐ¸ÐºÐ°":4628,"ĠÐĲÐ´Ð¼Ð¸Ð½Ð¸ÑģÑĤÑĢÐ°ÑĨÐ¸Ñı":4629,"Ġhttps":4630,"ĠÐ¿Ð°Ð½Ðµ":4631,"ĠÐ¸ÑİÐ»Ñı":4632,"2014":4633,"ĠÐ¾ÑīÑĥ":4634,"ĠÐ¿ÑĢÐ¾Ð¿":4635,"255":4636,"ÑĦÐµÐºÑĤ":4637,"ĠÐ¾Ð½Ð¾":4638,"Ð´ÑĢ":4639,"ĠÐ´Ð¾Ð³Ð¾Ð²Ð¾ÑĢ":4640,"ĠÑĢÑĥÐºÐ¾Ð²Ð¾Ð´Ð¸":4641,"ÑĤÐ¸Ð²Ð½ÑĭÐ¹":4642,"ÑĤÐ¸Ð½Ð³":4643,"056":4644,"ÑĤÐµÐ»ÑĮÐ½Ð¾ÑģÑĤÐ¸":4645,"ĠÑĤÑĢÑĥÐ±":4646,"ĠÐ¸ÑİÐ½Ñı":4647,"ĠÐ¿ÑĢÐ¾ÑĤ":4648,"ĠÐĽÐ°":4649,"indo":4650,"ÐµÐ´ÐµÐ½Ð¸Ñı":4651,"amp":4652,"ĠÐ°Ð½Ð³":4653,"ĠÐºÐ¾ÑĤÐ¾ÑĢÑĭÐ¼":4654,"ĠÐ½Ð°Ð³ÑĢÑĥÐ·":4655,"ĠÐ¿Ð¾ÑĤÐµÑĢ":4656,"Ð¼Ð¾Ñģ":4657,"ÑħÐ¾Ð´Ð¸ÑĤÑĮ":4658,"Ð¾Ð¹Ð´ÐµÑĤ":4659,"ĠÐ¾ÑĤÐµ":4660,"ĠÐķÐ³Ð¾":4661,"267":4662,"ÑĤÐµÑĤ":4663,"ĠÐ´Ð°Ð»ÑĮÐ½ÐµÐ¹":4664,"Ð´ÑĢÐ°":4665,"ĠSt":4666,"972":4667,"ÑĢÑĥÐ³Ð¸":4668,"ĠÑģÐ°Ð¼Ð¾Ð¼":4669,"ÑħÑĥ":4670,"Ð±Ð¸Ð»Ð¸":4671,"Ġ31":4672,"ÐºÐµÑĢ":4673,"Ð¼Ð¾ÑĢ":4674,"ĠÐ¿ÑĢÐ¾Ð²Ð¾Ð´":4675,"Ð¾Ð²Ð¾Ð³Ð¾":4676,"ĠÑĥÑĩÐµÐ±":4677,"ĠÐ¿ÑĢÐµÐ´ÑĥÑģÐ¼Ð¾ÑĤÑĢÐµÐ½":4678,"nÐ¡Ð¾Ð¾Ð±":4679,"ÑĤÑĥÑĢÑĭ":4680,"ĠÐ´Ð¸ÑĢÐµ":4681,"nÐłÐµÐº":4682,"Ð²Ð°Ð»Ð°":4683,"Ġ09":4684,"ĠÐ¿ÑĢÐ¾Ñĩ":4685,"254":4686,"Ð°ÑĤÑĮ":4687,"856":4688,"ĠÐºÐ¾Ð¶Ð¸":4689,"ĠÐºÐ¾Ð¼Ð¿Ð»ÐµÐºÑģ":4690,"ĠÐ¡ÐµÐ²ÐµÑĢ":4691,"ÑĩÐ¸Ñħ":4692,"Ð½Ð¸ÐºÑĥ":4693,"367":4694,"ĠÑĤÐµÑħÐ½Ð¾Ð»Ð¾Ð³Ð¸Ð¸":4695,"ĠÐ¿ÑĢÑıÐ¼":4696,"ver":4697,"ĠÐ°ÑĢÐµÐ½":4698,"ÐºÐ¾Ð³":4699,"ĠÐ¾ÑĤÐºÐ°Ð·Ð°":4700,"Ð·ÑĭÐ²Ñĭ":4701,"9153768":4702,"ĠÑģÐ¼Ð¾Ð¶ÐµÑĤÐµ":4703,"ĠÐ¿Ð¾ÑģÑĤÐ¾ÑıÐ½Ð½Ð¾":4704,"ÑĩÐµÑģÐºÐ¸Ð¼Ð¸":4705,"Ð¸Ð»Ð°":4706,"Ð»ÐµÐ½Ð½Ð¾Ð¹":4707,"ÑĢÑĥÐµÐ¼":4708,"nÐ¡Ð°Ð¼":4709,"Ð»ÐµÑģ":4710,"Ð¼ÐµÑĢÑĭ":4711,"ĠÐ½ÐµÐ²Ð¾Ð·":4712,"Ð¾Ð´ÐµÐ¹":4713,"ĠÑģÐ»ÑĥÑĩÐ°ÑıÑħ":4714,"ĠÐ¾ÑģÑĥÑīÐµÑģÑĤÐ²Ð»ÑıÐµÑĤÑģÑı":4715,"Ð¶Ð¸ÑĤÐµ":4716,"243":4717,"ÑĨÐ¸Ð¾Ð½Ðµ":4718,"lu":4719,"ÑĩÐµÑģÐºÐ¾Ð¼":4720,"ÑħÐ°Ð½":4721,"ÑĩÐ¸ÑĤÑĭ":4722,"ÑĩÐ½Ð¾Ðµ":4723,"ĠÐ½ÐµÑĢ":4724,"Ð·Ð¸Ð´ÐµÐ½":4725,"ĠÐ¿ÑĢÐ¸ÑıÑĤ":4726,"Ð±Ð¾ÑĢÑĭ":4727,"ĠÐ°Ð»ÑĮ":4728,"Ð¿ÑĤÐ¸":4729,"ĠÐ¿Ð°ÑĢÐ°Ð¼ÐµÑĤ":4730,"ĠÐ¿ÑĢÐ°Ð²Ð¸Ð»Ð¾":4731,"ÑĤÐ°Ðº":4732,"Ð¶ÐµÐ¹":4733,"ĠÐ²Ð¾ÑģÐ¿":4734,"ĠÐ¾ÑĤÐ²Ðµ":4735,"ĠÐĴÐ»Ð°Ð´Ð¸Ð¼Ð¸ÑĢ":4736,"ĠÐ´Ð¾Ð»Ð»Ð°":4737,"ark":4738,"ĠÐ²ÑģÐ¿":4739,"ĠÐ·Ð½Ð°ÑĩÐ¸ÑĤ":4740,"ĠÑįÐºÑģÐ¿ÐµÑĢ":4741,"113":4742,"ĠÐ»Ð¸ÑĤÐµÑĢÐ°":4743,"ĠÐºÑĢÑĥÐ³":4744,"IS":4745,"ĠÐºÐ¾ÑĢÐ·Ð¸Ð½Ñĥ":4746,"fd":4747,"Ð¾ÑĩÐ½Ð¸Ðº":4748,"ĠÑģÐ¼Ð°ÑĢÑĤ":4749,"Ð¾Ð¾Ð±ÑĢÐ°Ð·":4750,"ĠÐ´ÐµÐ»Ðµ":4751,"Ð½ÑĤ":4752,"nÐŁÐ¾ÑģÐ»Ðµ":4753,"ĠÐºÐ°Ð¿Ð¸ÑĤÐ°":4754,"ĠÐºÑĥÐ»ÑĮÑĤÑĥÑĢÑĭ":4755,"055":4756,"Ð´ÐµÐ½ÑĤ":4757,"nÐ¡Ð¿":4758,"ĠÐ³Ð¾Ð²Ð¾ÑĢÐ¸ÑĤ":4759,"ÑĨÐ¸Ð¾Ð½Ð°":4760,"ÑİÑīÐ¸Ð¼Ð¸":4761,"ĠÐµÐ´Ð¸Ð½":4762,"line":4763,"cb":4764,"ÑģÐµÐ´Ð°":4765,"ĠÐ»ÐµÐºÐ°ÑĢ":4766,"ĠÐºÐ¾Ð¼Ð¸":4767,"ĠÐ°ÐºÐºÑĥ":4768,"ÐºÐ½Ñĥ":4769,"Ð¾Ð³ÑĢÐ°Ð´":4770,"ĠÐ½ÐµÐºÐ¾ÑĤÐ¾ÑĢÑĭÑħ":4771,"ĠÐ¼ÑıÐ³":4772,"Ð¾ÐºÐ¾Ð¹":4773,"ĠÑĤÑĢÐµÐ±ÑĥÐµÑĤÑģÑı":4774,"fb":4775,"ÑĩÐ°ÑģÑĤÐ¸":4776,"ĠÑĥÐ½Ð¸Ð²ÐµÑĢÑģÐ¸ÑĤ":4777,"ĠÐ¸Ð·Ð´ÐµÐ»Ð¸Ñı":4778,"Ð³Ð°Ð½Ð¾Ð²":4779,"ĠÑĦÐµÐ´ÐµÑĢÐ°Ð»ÑĮ":4780,"Ð¸Ð²":4781,"end":4782,"847":4783,"ĠÐ³Ð¾ÑĢÐ¾Ð´Ðµ":4784,"ĠÑģÐ°Ð¼ÑĭÐµ":4785,"Ð»Ð¸Ð¹":4786,"ĠÐĲÐ»ÐµÐºÑģÐ°Ð½Ð´ÑĢ":4787,"427":4788,"ĠÐ²ÑĤÐ¾ÑĢÐ¾Ð¹":4789,"ÐµÐºÐ°Ð±ÑĢÑĮ":4790,"ran":4791,"203":4792,"ĠÐ²ÑĭÐ·":4793,"863":4794,"ÑĢÐ°Ð½ÐµÐ½Ð¸Ðµ":4795,"ĠÐ°Ð²ÑĤÐ¾ÑĢ":4796,"ĠÐ½Ð°ÑģÑĤÑĢÐ¾Ð¹":4797,"ĠÐĿÐ¾Ð²Ð¾ÑģÑĤÐ¸":4798,"ÑĤÐ¾Ð³Ð¾":4799,"ĠÐ¼Ð¾Ð³Ñĥ":4800,"Ð¶Ð°Ð¹":4801,"nÐŁÐµÑĢ":4802,"067":4803,"nF":4804,"ĠÐ¾Ð±ÑĬÑıÑģ":4805,"ĠÑĥÑģÐ¿ÐµÑĪ":4806,"ĠÐ²Ð·ÑĢÐ¾Ñģ":4807,"ĠÑĢÐµÐ´":4808,"ko":4809,"Ð¾Ð¼ÐµÐ½":4810,"ÑĥÑĤÐ±":4811,"ĠÐ½ÐµÐµ":4812,"ĠZ":4813,"822":4814,"ĠÐŃÐº":4815,"ĠÐºÐ»Ð°ÑģÑģ":4816,"ĠÐ¾Ð´Ð½Ð¸Ð¼":4817,"ĠÐ¸Ð³ÑĢÐ¾Ðº":4818,"ĠÑĢÑı":4819,"ĠÐ¿Ð¾ÑĢÑıÐ´ÐºÐµ":4820,"ĠÐ¾ÑĢÐ³Ð°Ð½Ð¸Ð·Ð°ÑĨÐ¸Ñı":4821,"ĠÑģÐ¿Ð¸ÑģÐ¾Ðº":4822,"Ð¾ÑģÑĤÐ°Ð½Ð¾Ð²":4823,"ÐµÑģÑĤ":4824,"246":4825,"ĠÐ²Ð½ÐµÑģ":4826,"ĠÑģÐ¾Ð²ÑģÐµÐ¼":4827,"ĠÐ°Ð²Ð³ÑĥÑģÑĤÐ°":4828,"ĠÐ³ÑĢ":4829,"ÑĪÐ¸ÑģÑĮ":4830,"ĠÐ¿ÑĢÐµÐ´Ð¿ÑĢÐ¸Ð½Ð¸Ð¼Ð°":4831,"¾ÑĨÐ¸":4832,"Ð»ÑĮÐ½ÑĥÑİ":4833,"Ð°ÑĢÑĤ":4834,"ĠÑĩÐ»ÐµÐ½":4835,"Ġ)":4836,"ĠÑĥÐ¼ÐµÐ½ÑĮ":4837,"ĠÐļÑĢÑĭ":4838,"194":4839,"ĠÐ³Ð»Ñĥ":4840,"ÑĢÐ¸ÐºÐ°":4841,"ĠÐ¿Ð¾Ð¼ÐµÑīÐµÐ½Ð¸Ñı":4842,"ĠÑĦÐ°ÐºÑĤ":4843,"ĠÑģÐ¾ÑģÑĤÐ¾Ð¸":4844,"ĠÑģÑĥÑīÐµÑģÑĤÐ²":4845,"Ð¾ÑĨÐ¸":4846,"173":4847,"257":4848,"ĠÐ¿ÑĢÐ¸Ð½Ð°Ð´":4849,"ĠÑĥÐ½Ð¸ÐºÐ°":4850,"ĠÐ²Ð°ÑĪÐµÐ¹":4851,"ÐĶÐĲ":4852,"ĠÐ¿Ð¾Ð²ÐµÑĢÑħÐ½Ð¾ÑģÑĤÐ¸":4853,"ĠÐĳÐ»Ð°":4854,"ĠÐ¿ÑĢÐ¾Ð¶Ð¸":4855,"ĠÐĶÑĥ":4856,"9907":4857,"Ð±Ð¸Ð½Ð°":4858,"Ġ<":4859,"Ð·ÑĭÐ²Ð°ÑĤÑĮ":4860,"153":4861,"Ġ01":4862,"266":4863,"163":4864,"Ð¶ÐºÐ°":4865,"912":4866,"US":4867,"Ð¾Ð½ÑĥÑģ":4868,"ĠÑģÐ¾Ð·Ð´Ð°Ð½Ð¸Ñı":4869,"ĠÐ¾Ð´Ð½Ð°ÐºÐ¾":4870,"ĠÐ¼Ð°ÑĪÐ¸Ð½Ñĭ":4871,"Ð½ÑİÑİ":4872,"Ð´ÐµÐ":4873,"Ð´ÐµÐ¾":4874,"ĠÐ²Ð¾Ðº":4875,"ÐĴÐĺ":4876,"Ð¿Ð¾Ð½":4877,"Ġ90":4878,"Ð¸ÑģÐ¿":4879,"ÑĮÐµÐ²":4880,"ĠÐ´Ð¾ÐºÑĥÐ¼ÐµÐ½ÑĤÑĭ":4881,"ĠÐ³ÑĢÑĥÐ·":4882,"for":4883,"Ð¸Ð¼Ð¾ÑģÑĤÑĮ":4884,"137":4885,"Ġre":4886,"Ð¾Ð¿ÑĢÐ¸":4887,"ĠÑģÐºÐ°Ð·Ð°ÑĤÑĮ":4888,"DFFC":4889,"ĠÐ¿Ð¾Ð´Ð´ÐµÑĢÐ¶Ð¸":4890,"ĠIn":4891,"Ð¿Ð°ÑĢÐ°ÑĤ":4892,"ĠÑģÐ»Ð¸ÑĪÐºÐ¾Ð¼":4893,"ĠÐ¾Ð·":4894,"ÑĤÑĥÑĢÐ°Ð»ÑĮ":4895,"Ġat":4896,"ĠÐ±ÑĢÐ°ÑĥÐ·":4897,"ĠÐ¿ÑıÑĤ":4898,"ĠÐ¿Ð¾ÑıÐ²Ð»Ñı":4899,"ĠÐŃÐ»ÐµÐºÑĤ":4900,"ÑħÐ²Ð°":4901,"ĠÐ¿Ð¾Ð¼Ð¾Ð¶ÐµÑĤ":4902,"ĠÑģÐ¾ÑĩÐµÑĤÐ°":4903,"653":4904,"ĠÐ°ÐºÑĤÑĥ":4905,"ĠÐ¸Ð³ÑĢÑĥ":4906,"ĠÑģÐ¿ÑĢÐ°Ð²":4907,"ÑĢÐ¾Ðµ":4908,"Ð¢Ð¬":4909,"ĠÐ¿Ð¾Ð²ÑĤÐ¾ÑĢ":4910,"ĠÐ¾ÐºÑĢÑĥÐ³Ð°":4911,"ĠÐ²ÑģÑĤÑĢÐµÑĩÐ°":4912,"Ð½Ð¸ÐºÐ°Ð¼":4913,"ĠÐºÐ°ÑĩÐµÑģÑĤÐ²Ð¾":4914,"ĠÐĳÑĭ":4915,"Ð¾ÑĩÐ½Ð°Ñı":4916,"Ġ80":4917,"ÑģÐ°Ð½":4918,"ÐµÑĤÐºÐ¸":4919,"ĠÐĴÐµÑĢ":4920,"ÑĢÐ°Ð±Ð°ÑĤÑĭ":4921,"006":4922,"Ġ2010":4923,"ĠÐĽÐµÐ½Ð¸":4924,"Ð¶Ð¸Ð¼":4925,"ĠÐĵÐ°":4926,"9904":4927,"ĠÑĩÐ°ÑģÐ°":4928,"Ð·ÐµÐ¼":4929,"ĠÑĥÐ±Ðµ":4930,"007":4931,"835":4932,"nÐ§ÑĤÐ¾Ð±Ñĭ":4933,"365":4934,"ĠÐ½Ð¸Ð¼Ð¸":4935,"DC":4936,"ÐŀÐĿ":4937,"ÑģÐ½ÑĭÐµ":4938,"ĠÑģÐ°Ð¼ÑĭÐ¹":4939,"ĠÐ·Ð°Ð¼Ðµ":4940,"per":4941,"ĠÐ²Ð°Ð¼Ð¸":4942,"ĠÐ²Ð¾Ð´Ð¸":4943,"ĠÐ¼Ð¾Ð¹":4944,"ĠÐ¿ÑĭÑĤÐ°":4945,"857":4946,"Ð³ÐµÐ½":4947,"\\\":":4948,"ĠÐ½Ð¾Ð³":4949,"ĠÐ°ÑģÑģ":4950,"ĠÑĥÑģÑĤÐ°Ð½Ð¾Ð²ÐºÐ¸":4951,"ÑĩÐ½ÑĭÐ¼":4952,"553":4953,"ge":4954,"¾ÑĨÐµÐ½Ð¸":4955,"ĠÑħÐ¾ÑĤÐ¸ÑĤÐµ":4956,"si":4957,"143":4958,"ĠÑģÐ¾Ð±Ð¸ÑĢÐ°":4959,"ĠÑĥÐ·Ð½Ð°ÑĤÑĮ":4960,"ÑĪÐ¸Ð¼Ð¸":4961,"ĠÐ·Ð¸Ð¼":4962,"Ð¼ÐµÐ½ÑĤÐ¸":4963,"ÑħÐ½Ð¾Ð»Ð¾Ð³Ð¸":4964,"ĠÐ¿Ð¾Ð»ÑĮÐ·Ð¾Ð²Ð°ÑĤÐµÐ»Ñı":4965,"ĠÑģÑĤÐ°Ð½Ð¾Ð²Ð¸ÑĤÑģÑı":4966,"ÑĳÐ»":4967,"224":4968,"Ð¾Ð¼Ð°Ð½":4969,"ÐĶÐķ":4970,"ĠÑĢÑĥÐºÐ¾Ð²Ð¾Ð´":4971,"ĠÐ¼Ð»Ð½":4972,"ĠÑĤÑĢÐµÐ½":4973,"207":4974,"256":4975,"867":4976,"ĠÑģÑĤÑĥÐ´":4977,"Ġr":4978,"AL":4979,"ĠÐ¸Ð½Ð¾ÑģÑĤÑĢÐ°Ð½":4980,"ĠÑįÑĤÐ¾Ð¼Ñĥ":4981,"ĠÐ¿Ð¾Ð»ÑĮÐ·Ñĥ":4982,"ÑĢÐ¾Ð²ÑĭÐµ":4983,"ĠÐĳÐµ":4984,"ÑĤÐ¸Ð½Ð°":4985,"nÐŁÑĢÐµ":4986,"Ð¾Ð½Ð°Ð²Ð¸":4987,"ĠÐ½ÐµÐ¾Ð±ÑħÐ¾Ð´Ð¸Ð¼Ð¾ÑģÑĤÐ¸":4988,"ÐĿÐĺÐķ":4989,"ÑĤÐ½Ð¾":4990,"ĠÐ½Ð¾Ð²Ð¾Ð³Ð¾":4991,"9982":4992,"nÐĲÐ´":4993,"ĠÑģÐ¾Ð±ÑĢÐ°":4994,"ÑĪÑĤÐ°":4995,"ĠÐ»Ð¾Ð¶":4996,"Ð¾Ð¿Ð»Ð°":4997,"ÑģÑĤÐµÐ¼Ñĥ":4998,"Ð¾Ð¸Ð½":4999,"ĠÑĦÐµÐ²ÑĢÐ°Ð»Ñı":5000,"ĠÑģÐ¾Ð³Ð»Ð°ÑģÐ¸Ðµ":5001,"ĠÑģÐºÐ¾Ð»ÑĮÐºÐ¾":5002,"ĠÑģÐ¸ÑĤÑĥÐ°ÑĨÐ¸Ð¸":5003,"nÐľÐ¸":5004,"ĠÑĩÐµÐ¼Ð¿Ð¸":5005,"ĠÐ²Ð»Ð°ÑģÑĤÐ¸":5006,"ĠÐµÐ¹":5007,"ĠÐ¾Ð±Ð»Ð°ÑģÑĤ":5008,"Ð¾ÐºÐ°Ð·Ð°ÑĤÑĮ":5009,"ĠÑĩÐ°ÑīÐµ":5010,"ÑĪÐºÑĥ":5011,"ĠÐ·Ð°Ð±Ñĭ":5012,"pr":5013,"ĠÑģÐºÐ°Ð·Ð°Ð»":5014,"Ð³ÑĥÑģÑĤ":5015,"ÑĤÐ¸Ñİ":5016,"ĠÐ¿ÑĢÐ¸ÑģÑĥÑĤ":5017,"276":5018,"ĠÐºÐ¾Ð¼Ð¿ÑĮÑİÑĤÐµÑĢ":5019,"ĠÐ²Ð·Ð³Ð»Ñı":5020,"ĠÐ´Ð²Ð¸Ð¶ÐµÐ½Ð¸Ñı":5021,"gle":5022,"ĠÑĩÑĤ":5023,"nÐ¢Ð°":5024,"ÑħÐ°ÑĢ":5025,"ĠCh":5026,"ĠÐ¿Ð¾Ð»Ð¾Ð¶Ð¸":5027,"003":5028,"ÑīÐµÐ¼Ñĥ":5029,"Ð¡Ð¡Ðł":5030,"ĠÐ¿Ð»Ð¾ÑĤ":5031,"ÐºÑģÐ°":5032,"412":5033,"Ð²ÑĪÐ¸Ñħ":5034,"066":5035,"ĠÐ¾Ð·Ð½Ð°ÐºÐ¾Ð¼":5036,"ÐµÐ½ÑĤÑıÐ±ÑĢÑĮ":5037,"min":5038,"9335807":5039,"ĠÐ±ÑĢÐµÐ½":5040,"ĠÑģÐ°Ð½":5041,"ĠÐľÐ¾ÑģÐºÐ²Ñĭ":5042,"ĠÐ´Ð°Ð½Ð½Ð¾Ð¹":5043,"ant":5044,"ÑĢÑĭÐ²":5045,"102":5046,"ace":5047,"IT":5048,"ĠÐºÑĢÐ°Ñı":5049,"RO":5050,"ĠÐ¶ÐµÐ»ÐµÐ·":5051,"ĠÐ¸ÑģÐºÐ»ÑİÑĩÐ¸":5052,"ĠÐ³Ð¾Ð´Ñĭ":5053,"Ð¼Ð¾ÑĤÑĢÑı":5054,"ĠÑĤÐ¾Ð²Ð°ÑĢÑĭ":5055,"ÐľÐ°":5056,"ĠÐ³Ð»Ð°Ð·Ð°":5057,"Ð¿Ð¸ÑģÐ°Ð½Ð¸Ðµ":5058,"Ð¿ÑĢÐµÐ»ÑĮ":5059,"bo":5060,"ys":5061,"ÑĪÐµÐ½Ð¸Ñİ":5062,"ĠÐ½Ð°ÑĨÐ¸Ð¾Ð½Ð°Ð»ÑĮ":5063,"ĠÐ²ÑģÑİ":5064,"ĠÑģÐ»Ðµ":5065,"ÑĩÐ¸ÑĤÐ°ÑĤÑĮ":5066,"ÑĢÐµÐµ":5067,"ĠÑĦÐ¸ÑĢ":5068,"Ð¿ÐµÑĩÐ°ÑĤ":5069,"ĠÐ½Ð°Ð»Ð¾Ð³Ð¾Ð²":5070,"245":5071,"nD":5072,"ĠÐ´ÐµÐ¹ÑģÑĤÐ²Ð¸ÑĤÐµÐ»ÑĮÐ½Ð¾":5073,"ÑĤÐµÐ¿":5074,"Ð¾ÑĨÐµÐ½Ð¸":5075,"ÑİÑĢ":5076,"ĠÐ¿ÑĢÐµÐ´Ð²Ð°ÑĢÐ¸":5077,"Ð¿Ð¾Ð¼":5078,"236":5079,"ĠÐ½Ð°ÑĥÑĩ":5080,"ĠÐ´Ð¸Ð°Ð³Ð½Ð¾ÑģÑĤÐ¸":5081,"ÑĨÐ¸Ð¾Ð½Ð½Ð¾Ð³Ð¾":5082,"870":5083,"Ð´Ð¸Ð¼":5084,"ĠÑĥÑĤ":5085,"777":5086,"Ð¾ÐºÐ¾Ð»":5087,"ĠÐ¾ÑĤÑĤÐµÐ½":5088,"Ð³ÐµÑĤÐ¸":5089,"235":5090,"ÑĥÐ³":5091,"ĠÐºÐ»ÐµÑĤ":5092,"ĠÐ¾ÑĩÐµÑĢÐµÐ´ÑĮ":5093,"ÑĢÐ¸ÑĦ":5094,"ĠÐ£ÐºÑĢÐ°Ð¸Ð½Ñĭ":5095,"ÑĢÐ¸Ð¼":5096,"Ð¾ÐºÐ¸":5097,"ÑīÐ¸Ðº":5098,"ĠÑĢÐ°Ð·Ð°":5099,"ĠÐ·Ð´Ð¾ÑĢÐ¾Ð²ÑĮÑı":5100,"ĠÐ³Ð¾ÑĢÑı":5101,"ÑıÑĢ":5102,"nÐŀÐ´":5103,"ĠÑĦÐ¾Ð½":5104,"ÑĢÐ¾Ð²Ð°Ð½Ð½ÑĭÐµ":5105,"ĠÐ³Ð¾ÑģÑĤÐ¸":5106,"ĠÐĿÐ°Ð¿ÑĢÐ¸Ð¼ÐµÑĢ":5107,"ĠÐ¿ÑĢÐ¸Ð±Ñĭ":5108,"ĠÑģÐ¸Ð³":5109,"ĠÑģÐ½Ðµ":5110,"Ð½Ð¾Ð²Ð°Ð½Ð¸Ñı":5111,"Ð¾ÑģÑĤÑĥÐ¿":5112,"nÐĶÐ¾Ð±Ð°Ð²Ð¸ÑĤÑĮ":5113,"ĠÑħÐ¾Ð»Ð¾Ð´":5114,"244":5115,"ĠÐ´ÑĥÑħÐ¾Ð²":5116,"Ð°Ð»ÑĮÐ½Ð°Ñı":5117,"ĠÑĤÐµÐ»Ð°":5118,"ĠÑĢÑĭÐ½ÐºÐµ":5119,"ĠÐ²ÑĭÐ¸":5120,"ĠÐ¾ÑĤÐ»Ð¸ÑĩÐ¸":5121,"ÑĨÐ¸Ð¾Ð½Ð¸":5122,"ĠÐºÐ¾Ð¿Ð¸":5123,"ĠÑĢÐ¾ÑģÑĤ":5124,"Ð²ÐµÐ»Ð¸":5125,"ĠÐ·Ð°ÑĢÐ°Ð±Ð¾ÑĤ":5126,"Ð¼Ð¸Ð¸":5127,"ÑħÐµ":5128,"ĠÐ³ÑĢÐ°Ð¶Ð´Ð°":5129,"ĠÐ¿Ð¾Ð½Ñı":5130,"ide":5131,"ÑĤÐ¾Ð¸Ð¼Ð¾ÑģÑĤÑĮ":5132,"Ð²ÐµÐ¹":5133,"950":5134,"EN":5135,"116":5136,"ĠÐ¤ÐµÐ²":5137,"ĠÑģÐµÑĢÑĮÐµÐ·":5138,"Ð¿Ð¸ÑģÐ°ÑĤÑĮÑģÑı":5139,"ĠÐ¾ÑĤÐ·ÑĭÐ²Ñĭ":5140,"ĠÐ¾Ð±ÑıÐ·Ð°Ð½":5141,"ĠÐĵÐ¾ÑĢ":5142,"ÐŀÐ¡Ð¢":5143,"ĠÑĪÐºÐ°":5144,"ÑģÑģÐ¸Ð¸":5145,"853":5146,"ÐºÐ°Ð´ÐµÐ¼Ð¸":5147,"ÑĤÐ½ÑĭÑħ":5148,"Ð´Ð°Ð³":5149,"ĠÐ¿Ð¾Ð»ÑĥÑĩÐµÐ½":5150,"ĠÐ±ÐµÑĤ":5151,"ĠÐ¿ÑĢÐµÐ¿":5152,"827":5153,"115":5154,"Ġ&":5155,"ĠÐ¾ÑĢÐ³Ð°Ð½Ð¾Ð²":5156,"Ð»ÑĮÐ½Ð¾Ð¼":5157,"Ð¾Ð²Ñĭ":5158,"223":5159,"364":5160,"po":5161,"ĠÐ½Ð¸ÐºÐ¾Ð³Ð´Ð°":5162,"ĠÐ¢ÑĥÑĢ":5163,"ÑĪÐµÐ½Ð¸ÐµÐ¼":5164,"ĠÑĦÐ¾ÑĢÑĥÐ¼":5165,"455":5166,"ĠÑıÐ²":5167,"ÑĢÐ°Ð²Ð¸ÑĤÑģÑı":5168,"ÑĢÐµÐ´Ð°":5169,"ÑĭÐ´Ñĥ":5170,"ĠÐ·Ð°Ð¼ÐµÐ½":5171,"928":5172,"ĠÐ½ÐµÑģÐºÐ¾Ð»ÑĮÐºÐ¸Ñħ":5173,"ĠÐ½Ð°Ð¸":5174,"005":5175,"ĠÐ´ÐµÐ¿ÑĥÑĤÐ°":5176,"ĠÐ½Ð°ÑģÐµÐ»ÐµÐ½Ð¸Ñı":5177,"ĠÐ´ÐµÐ½ÐµÐ³":5178,"ÐĲÐŀ":5179,"ĠÑĢÐ°Ð·Ð½":5180,"183":5181,"Ð»ÑĳÐ½":5182,"Ð²Ð¸Ð½":5183,"ÑĨÐ²ÐµÑĤ":5184,"ĠÐĴÐ¾ÑĤ":5185,"Ð»Ð¾Ð¶ÐµÐ½Ð¸Ñı":5186,"Ð¶Ð°Ð²":5187,"ĠÐ¿ÑĢÐ¾Ð±Ð»ÐµÐ¼Ð°":5188,"ÐºÐ¾Ð²Ð¾Ð¹":5189,"ĠÐ¾Ð¿Ð»Ð°ÑĤÑĭ":5190,"ĠÑģÐ¸ÑģÑĤÐµÐ¼Ñĥ":5191,"ÑģÑĤÑı":5192,"ĠÐ³Ð°ÑĢ":5193,"Ð³Ð¸ÑģÑĤÑĢÐ°ÑĨÐ¸Ñı":5194,"138":5195,"ÑĤÐ¸Ð²Ð½Ð¾":5196,"ÑĥÐ´ÑĮ":5197,"ĠÐ°ÑĥÐ´Ð¸":5198,"ive":5199,"ĠÐ´Ð²ÐµÑĢÐ¸":5200,"ĠÐĳÐµÐ·":5201,"ĠÑĪÐºÐ¾Ð»ÑĮ":5202,"Ð»ÑıÑİÑĤÑģÑı":5203,"ĠÐ¼ÐµÑĤÐ¾Ð´":5204,"ĠÐ´Ð¾Ð¼Ðµ":5205,"ĠÐ¼ÑĭÑĪ":5206,"ĠÐ¼Ð¾Ð¼ÐµÐ½ÑĤÐ°":5207,"ĠÐºÐ¾Ð½ÑĨÐµ":5208,"))":5209,"ĠÑģÐ»ÐµÐ´ÑĥÑİÑīÐ¸Ðµ":5210,"ĠÐ¼ÐµÐ»":5211,"ĠÑģÐ½Ð¾Ð²Ð°":5212,"ÐºÐ¾Ð»Ðµ":5213,"ÑĥÐ²":5214,"Ð½Ð¾ÑģÐ¸":5215,"ĠÐ½Ð¸Ð¶":5216,"ĠÐ¾Ð¿ÑĥÐ±Ð»Ð¸ÐºÐ¾Ð²Ð°":5217,"ĠÐ¡ÐľÐĺ":5218,"ĠÐ²Ð»Ð°Ð´ÐµÐ»ÑĮ":5219,"ĠÐ¿ÑĢÐ¸Ð¼ÐµÐ½ÐµÐ½Ð¸Ñı":5220,"ĠÑĥÑĩÐ¸ÑĤÑĭ":5221,"ĠÐºÐ»Ð¸ÐµÐ½ÑĤÐ¾Ð²":5222,"ĠÑĢÐ°Ð´":5223,"ĠÑĪÑĤÐ°":5224,"ĠÐ¾Ð·Ð½Ð°ÑĩÐ°ÐµÑĤ":5225,"117":5226,"Ð½Ð½ÑĭÐ¹":5227,"Ð³Ð¾Ð½":5228,"Ġ08":5229,"ino":5230,"Ð»Ð°Ð¼":5231,"064":5232,"Ð»ÐµÐ½Ð½Ð¾Ð³Ð¾":5233,"ĠÑģÐ¼ÑĭÑģ":5234,"ĠÑĤÑĢÐ°Ð½Ñģ":5235,"345":5236,"ĠÑģÑĤÑĢÐ¾Ð¸ÑĤÐµÐ»ÑĮÑģÑĤÐ²Ð°":5237,"ĠÐŁÐ°Ð²":5238,"ĠÑģÐ¸Ð»Ñĥ":5239,"ast":5240,"ĠÑģÐ¾Ð·Ð´Ð°ÑĤÑĮ":5241,"ĠÐ±ÑİÐ´Ð¶ÐµÑĤ":5242,"Ð¸Ð½Ð³":5243,"ĠÐ¾ÑĤÐ½Ð¾ÑĪÐµÐ½Ð¸Ð¸":5244,"ĠÑģÐ¸Ð¼Ð¿ÑĤÐ¾Ð¼":5245,"ĠÐ¼ÐµÐ½ÐµÐ´Ð¶":5246,"Ð¿ÑĢÐ°Ð²Ð»ÐµÐ½Ð¸Ðµ":5247,"ĠÐ´ÐµÑģÑı":5248,"ĠÐ¼ÐµÑģÑıÑĨÐ°":5249,"ĠÑĩÐµÑĤÑĭÑĢÐµ":5250,"ĠÐ²ÑĭÐ³Ð¾Ð´":5251,"ĠÐ¾ÐºÐ¾Ð½ÑĩÐ°":5252,"ĠÑįÐ»ÐµÐºÑĤÑĢÐ¾Ð½Ð½Ð¾Ð¹":5253,"log":5254,"ĠÐ¸Ð·Ð±Ðµ":5255,"ÐŀÑĤ":5256,"Ð¾ÑģÑĢÐµÐ´":5257,"108":5258,"ĠÑģÐ¾Ð¾Ð±ÑīÐµÐ½Ð¸Ðµ":5259,"Ð²Ð¸Ñģ":5260,"ĠÐ¿ÑĥÑĤÐµÑĪÐµ":5261,"ĠÐ¿ÑĢÐµÐ´Ð½Ð°Ð·Ð½Ð°ÑĩÐµÐ½":5262,"ĠÐ²ÐºÑĥÑģ":5263,"SS":5264,"Ð¶ÐµÑĤ":5265,"Ð¾Ð¶Ð´ÐµÐ½Ð¸Ðµ":5266,"ĠÐ±Ð¾ÑĢÑĮ":5267,"ĠÐºÐ¾ÑĢÐ¾ÑĤ":5268,"nÐľÐµ":5269,"ĠÐ¾ÑħÑĢÐ°":5270,"ĠÐ¿ÑĢÐ¾Ð´ÑĥÐºÑĤÐ¾Ð²":5271,"938":5272,"ĠÐ¾ÑĨÐµÐ½Ð¸":5273,"ĠÐ¸Ð·Ð´ÐµÐ»Ð¸":5274,"ĠÐ¸Ð½Ð²ÐµÑģÑĤÐ¸":5275,"ĠÐ²Ð¾Ð·ÑĢÐ°ÑģÑĤÐ°":5276,"ÑįÐ½":5277,"Ð»Ð°Ð¼Ð¸":5278,"ĠÑĥÑĤÐ¾Ñĩ":5279,"ĠÑĢÐµÐ³Ð¸Ð¾Ð½Ð°":5280,"ĠÐ»ÐµÑĩÐµÐ½Ð¸Ðµ":5281,"ÑĢÐ¾Ð²Ð¾Ð´":5282,"ĠÐ¾ÑĤÑĢÐ°":5283,"ĠÐ»ÐµÐ½":5284,"004":5285,"253":5286,"ĠÑģÐ²Ð¾Ð¹ÑģÑĤÐ²Ð°":5287,"ĠÐ´Ð°Ð½Ð½ÑĭÐ¹":5288,"ÑĤÐµÐº":5289,"ÐŁÐµÑĤÐµÑĢÐ±ÑĥÑĢÐ³":5290,"Â°":5291,"ÑĨÐ¸ÑıÑħ":5292,"ĠÐºÐ»Ð¸ÐµÐ½ÑĤÐ°":5293,"ĠÐ½Ð°Ð³":5294,"ĠÐ·ÐµÐ»ÐµÐ½":5295,"377":5296,"Ð½Ð¸ÐºÐµ":5297,"Ð½Ð¸Ð»":5298,"ĠÐ²ÐµÑĤ":5299,"ĠÐ²Ð¾ÑģÑĤ":5300,"ĠÐ³ÑĥÐ±":5301,"ĠÐ¸ÑģÑģÐ»ÐµÐ´Ð¾Ð²Ð°Ð½Ð¸Ñı":5302,"ĠÐ±Ð°Ð½ÐºÐ¾Ð²":5303,"ÑģÑĤÑĢÐ°Ð¸":5304,"ĠÐ¾ÑĤÐ²ÐµÑĢ":5305,"ĠÐłÑĥÑģ":5306,"ÐµÐ½Ð½Ð°Ñı":5307,"Ð°Ð¼ÐµÑĤ":5308,"ĠÐ´Ð²ÐµÑĢ":5309,"ĠÐ¶ÐµÐ»":5310,"Ð°ÑĢÑĮ":5311,"Ð¾ÐµÐ²":5312,"Ð»ÐµÑĤÑĭ":5313,"Ð¾Ð»ÐµÐ½":5314,"ĠÐ¾ÑĢÐ¸Ð³Ð¸Ð½Ð°":5315,"ĠÑĤÑĭÑģ":5316,"ÐĿÐ¾Ð²":5317,"ĠÑıÐ·ÑĭÐº":5318,"nÐĿÐ":5319,"nÐĿÐ¾":5320,"ĠÐ°Ð½Ð°Ð»":5321,"ĠÐ¿Ð¾Ð²ÑĢÐµÐ¶Ð´":5322,"ĠÐ¿ÑĢÐµÐ´Ð¿Ð¾Ð»":5323,"9954":5324,"ĠÐ¿Ð¾ÑĤÑĢÐµÐ±Ð¸":5325,"ĠÐ´ÐµÐ¿":5326,"ĠÐ´Ð²":5327,"ĠÐ±Ð¸Ð·Ð½ÐµÑģÐ°":5328,"ĠÐ¾ÑģÑĤÐ°Ð²Ð»Ñı":5329,"Ð»Ð°ÑģÑĤÐ¸":5330,"ÐµÐ½Ð½Ð¾ÑģÑĤÐ¸":5331,"ĠÑĥÐ¿Ð¾ÑĤÑĢÐµÐ±":5332,"940":5333,"ĠÐ´Ð¾Ðº":5334,"ÑĪÐ¸ÑĤÐµ":5335,"ĠÐºÑĢÐ¾Ð²Ð¸":5336,"ex":5337,"ĠÑĢÐ°ÑģÑĤÐ²":5338,"ĠÐ¼Ð°Ð»Ñĭ":5339,"ĠÐ¿ÑĢÐ¸ÑħÐ¾Ð´Ð¸":5340,"376":5341,"Ð¾ÑĩÐ½Ð¾":5342,"ĠÐ´ÑĢÑĥÐ³Ð°":5343,"ÑĢÐ¸Ð»":5344,"Ð»Ð°Ñı":5345,"9943989":5346,"ĠÑģÐ°Ð¼ÑĭÐ¼":5347,"ĠÑĤÐ¾ÑĩÐ½Ð¾":5348,"9953":5349,"ect":5350,"ĠÐĵÐµÑĢÐ¼Ð°":5351,"ÑĥÐ¼Ðµ":5352,"nÐŀÐ¿":5353,"114":5354,"ĠÐ¿ÐµÑģ":5355,"ĠÐ¡Ð¡Ð¡Ðł":5356,"805":5357,"Ð±Ð°Ð½":5358,"ÑĤÐ¸ÑĤÐµ":5359,"Ð°Ð½Ð°":5360,"ĠÐ¾Ð±Ðµ":5361,"ĠÑĢÐµÐºÐ¾Ð¼ÐµÐ½Ð´Ð°":5362,"ĠÐ¿ÑĢÐµÐ´ÑģÑĤÐ°Ð²Ð»ÑıÐµÑĤ":5363,"ÑģÐ°Ñħ":5364,"ĠÐ¶ÐµÑģÑĤ":5365,"ĠÑģÐµÑĢÐµ":5366,"ĠÐ¡Ð²ÐµÑĤ":5367,"ÐµÐ½ÑĤÐ¸Ð»Ñı":5368,"356":5369,"ĠÑĤÑĢÐµÐ½Ð¸":5370,"==":5371,"ĠÐķÐºÐ°ÑĤÐµÑĢÐ¸":5372,"ĠÐ½Ð°Ð¼Ð¸":5373,"ĠÐ¿ÑĢÐ¾Ð³ÑĢÐ°Ð¼Ð¼Ð°":5374,"ĠÐ¼Ð¾Ð´ÐµÐ»ÑĮ":5375,"ĠÐ½Ð¾ÑĢ":5376,"ĠÐ¼ÐµÐ»ÑĮ":5377,"Ð¶Ð¸Ðµ":5378,"ĠÐ´Ð¾Ð³Ð¾Ð²Ð¾ÑĢÐ°":5379,"nÐŁÐ¾Ð»Ð¸":5380,"ĠÑģÐ¾ÑĤÑĢÑĥÐ´Ð½Ð¸":5381,"ĠÐ´Ð°ÐµÑĤ":5382,"ip":5383,"833":5384,"ĠÑĢÑĭÐ±":5385,"Ġï¿½ï¿½ï¿½ï¿½ï¿½ï¿½ï¿½ï¿½":5386,"ÑĢÐ¸ÑģÑĤ":5387,"ĠÐ½ÐµÑĦ":5388,"ĠÑģÐ¾Ð¾Ð±ÑīÐµÐ½Ð¸Ð¹":5389,"ĠÐ²Ð¸Ð´Ñĭ":5390,"9933":5391,"818":5392,"ĠÐ»ÑİÐ±Ð¾Ð²":5393,"097":5394,"ĠÐ²Ð¾Ð·Ð´ÑĥÑħÐ°":5395,"ĠÐ²Ð¸Ð´Ð¾Ð²":5396,"Ġ...":5397,"org":5398,"ĠÐ³Ð¾ÑĢÐ¾Ð´ÑģÐºÐ¾Ð³Ð¾":5399,"ĠÐŃÑĤÐ¾ÑĤ":5400,"ĠÐ¸Ð·Ð¼ÐµÐ½ÐµÐ½Ð¸Ð¹":5401,"ĠÐºÐ¾ÑĢÑĢÐµ":5402,"ĠÑģÐ°Ð¼Ð¾Ðµ":5403,"ell":5404,"Ð´ÐµÐºÑģ":5405,"Ð½Ð²Ð°ÑĢÑĮ":5406,"ĠÐºÐ°ÑĢÑĤÑĭ":5407,"ĠÐµÐ²":5408,"962":5409,"ÑīÐ°ÑĤÑĮÑģÑı":5410,"Ð¾ÐºÑģÐ¸":5411,"ĠÑģÐµÑĢÐ²Ð¸Ñģ":5412,"ÑĨÐ°Ð¼Ð¸":5413,"ĠÐ´Ð°Ð»ÑĮÑĪÐµ":5414,"ĠÐºÐ½Ð¸Ð³Ð¸":5415,"ĠÐŁÑĢÐ°Ð²":5416,"ĠÑĥÐ±Ð¸":5417,"Ð°Ð»ÑĮÐ½Ð¾Ðµ":5418,"ÐºÑĨÐ¸Ñİ":5419,"ĠÐµÑģÑĤÐµ":5420,"046":5421,"Ð¶Ð´ÑĥÐ½Ð°ÑĢÐ¾Ð´":5422,"ÑĢÐ¾Ð¸ÑĤÑĮ":5423,"Ð¾ÑĢÐ°Ð·":5424,"884":5425,"ĠÑĢÐ°Ð½":5426,"ÑĩÐ¸Ð½Ñĭ":5427,"065":5428,"Ð¾Ð¼ÐµÑĤ":5429,"ĠÐ²ÑĭÐ¿Ð»Ð°":5430,"ĠÐ¤ÑĢÐ°Ð½":5431,"ÑĤÑĭÐ¼":5432,"ÑĤÐ½Ð¾Ð³Ð¾":5433,"ĠÐºÐ°ÐºÐ¸Ñħ":5434,"AT":5435,"ĠÐĶÐ¼Ð¸ÑĤÑĢÐ¸":5436,"Ð»Ð¾Ð±":5437,"ÑĤÐ°Ð»ÑĮ":5438,"ĠÐĶÐµÐºÐ°Ð±ÑĢÑĮ":5439,"Ð¾ÑģÐ°":5440,"ĠÑĢÑıÐ´Ð¾Ð¼":5441,"oogle":5442,"346":5443,"Ġk":5444,"ĠÐŁÐ¾Ð»":5445,"ĠÐ¼ÐµÑĤÐ°Ð»Ð»Ð¸":5446,"ĠÐŁÐ¾ÑĤ":5447,"ĠÐ¿ÑĢÐµÐ²Ñĭ":5448,"ÑĤÐ¸Ð²Ð½Ð¾Ð¹":5449,"ĠÑģÐºÑĢÑĭ":5450,"ĠÑģÑĤÑĢÑĥÐºÑĤÑĥ":5451,"ĠÐºÐ¾ÑĢÐ¾Ð½Ð°Ð²Ð¸":5452,"ÑĤÐ¸Ð²Ð½Ð¾Ð³Ð¾":5453,"ÐļÑĢÐ°Ñģ":5454,"275":5455,"ĠÑĢÐµÐ¼":5456,"ĠÑģÑĤÐ¾Ð¸Ð¼Ð¾ÑģÑĤÐ¸":5457,"ĠÐ½Ð¾Ð²Ð¾Ð¹":5458,"ĠÐ³ÑĢÑĥÐ¿Ð¿Ð°":5459,"nÐĲÐ²ÑĤÐ¾ÑĢ":5460,"ĠÐ°Ð¼ÐµÑĢÐ¸ÐºÐ°Ð½":5461,"ĠÐ·Ð½Ð°ÑĤÑĮ":5462,"ÑģÐºÐ":5463,"ĠÐºÐ¾Ð¼Ð¿Ð¾Ð½":5464,"ÑģÐºÐ¾":5465,"Ġ70":5466,"128":5467,"9917":5468,"ÑĢÐ¸ÑģÑĤÐ¸":5469,"ĠÑģÐ²Ð¾ÐµÐ¼":5470,"ĠÑĢÐ°ÑģÑĤÐµÐ½Ð¸Ñı":5471,"ĠÑģÑĤÐ°Ð½ÐµÑĤ":5472,"ĠÐ¿Ð¾Ð¸ÑģÐº":5473,"Ð³Ð°Ð»":5474,"Ð·Ð¸Ð´ÐµÐ½ÑĤ":5475,"ĠÐ³Ð»ÑĥÐ±":5476,"Ġ05":5477,"Ð»Ð¸Ð²Ð°":5478,"ĠÐ¾Ð´Ð½Ð¾Ð¼":5479,"ĠÐ¿ÐµÑĢÐ²Ð¾Ð³Ð¾":5480,"tem":5481,"ĠÐ´Ð¾ÑģÑĤÑĥÐ¿Ð°":5482,"EFFC":5483,"ĠÐ¢ÐµÐ¼":5484,"ĠÑĤÐµÑĢÐ°":5485,"Ð½ÐµÐ½Ð¸Ñİ":5486,"ĠÐ¾ÑĤÐ·ÑĭÐ²":5487,"ĠÐºÑĥÐ¿":5488,"ĠÑģÐ»ÑĥÑĩÐ°ÐµÐ²":5489,"ĠÑĢÑĥÐºÐ¸":5490,"Ð½Ð¸Ð»Ð¸":5491,"ĠÑģÐ¾ÑģÑĤÐ¾ÑıÐ½Ð¸Ðµ":5492,"ĠÐ³ÐµÐ½ÐµÑĢÐ°":5493,"nÐ¡Ð¾Ð²":5494,"ĠÐ·Ð°Ð²Ð¾Ð´":5495,"ÑĪÐ°ÐµÑĤÑģÑı":5496,"ĠÐ¿ÑĢÐ¾ÑĨÐµÑģÑģÐµ":5497,"nÐļÐ¾Ð¼Ð¼ÐµÐ½ÑĤÐ°ÑĢÐ¸":5498,"ÐķÐ¢":5499,"ĠÐ¾ÑģÑĤÐ°Ð½Ð¾Ð²":5500,"ï¿½ï¿½ï¿½":5501,"nH":5502,"ĠÐ´ÑĢÑĥÐ³Ð¸Ð¼Ð¸":5503,"ĠÐ·ÐµÑĢÐºÐ°":5504,"ÃĹ":5505,"ĠÑįÐºÑģÐ¿Ð»ÑĥÐ°ÑĤÐ°ÑĨÐ¸Ð¸":5506,"ĠÐ¸Ð½ÑĦ":5507,"9905":5508,"ĠÐ°Ð¿Ð¿Ð°ÑĢÐ°":5509,"ÑĬÐµÐº":5510,"ĠÑĤÐµÐ±Ñı":5511,"Ð¾Ð¾Ñħ":5512,"ĠÐ¾ÑĤÐ´ÑĭÑħÐ°":5513,"ĠThe":5514,"ĠQ":5515,"ult":5516,"Ð·Ð´":5517,"ĠÐ¶ÐµÐ½ÑīÐ¸Ð½":5518,"00004":5519,"344":5520,"ĠÐ¼Ð°ÑģÑģÐ°":5521,"ĠÐ©":5522,"ÑĢÐµÑĨ":5523,"ĠÐ»ÑĮ":5524,"ĠÐ¡ÑĤÑĢÐ°":5525,"Ð¾ÑĩÐ½Ð¾Ð³Ð¾":5526,"ÐµÑĢÐ½Ð°":5527,"ĠÐ½Ð°ÑĤÑĥÑĢÐ°Ð»ÑĮ":5528,"Ð¶Ð¼Ð¸ÑĤÐµ":5529,"ĠÑģÐ¿Ð¾ÑĢÑĤ":5530,"ĠÐ¿ÑĢÐ¾ÑģÐ¼Ð¾ÑĤ":5531,"Ð·Ð¸ÑĤÑĮ":5532,"dex":5533,"Ġ300":5534,"ĠÐºÐ½Ð¾Ð¿ÐºÑĥ":5535,"Ð¾Ð¸Ð·Ð¾Ð»Ñı":5536,"ĠÑĢÐ¾Ð¶Ð´ÐµÐ½Ð¸Ñı":5537,"Ð¾Ð³ÑĢÐ°ÑĦÐ¸Ñı":5538,"Ð´Ð¸Ð½Ð°":5539,"indows":5540,"Ð±Ð°Ð¹":5541,"nÐŀÑģÐ½Ð¾Ð²":5542,"2013":5543,"Ð½Ð¾Ð´Ð°ÑĢ":5544,"ĠÐĺÐ½ÑĤÐµÑĢÐ½ÐµÑĤ":5545,"ÑĩÐ½ÑĥÑİ":5546,"ĠÑĤÐµÑħÐ½Ð¸ÐºÐ¸":5547,"ĠÑĤÐµÑħÐ½Ð¾Ð»Ð¾Ð³Ð¸Ð¹":5548,"ĠÑĥÑħÐ¾Ð´":5549,"ve":5550,"ĠÑĥÐ¿Ð°ÐºÐ¾Ð²":5551,"ĠÑģÑĤÐ¾Ñı":5552,"ÑģÐ¼":5553,"ĠÑĢÐ°Ð·Ð²Ð¸ÑĤÐ¸Ðµ":5554,"Ð¾Ð´ÐµÐ»Ð¸ÑĤÑĮÑģÑı":5555,"ĠÑģÐ»ÑĥÑĩÐ°Ð¹":5556,"ÑĢÑĥÐ±":5557,"ĠÐ¿Ð°Ðº":5558,"ĠÑģÐ¾ÐµÐ´Ð¸Ð½":5559,"ĠÐ¿Ð°ÑĢÐ¾Ð»ÑĮ":5560,"ĠÐ´ÐµÑĤÐ¸":5561,"ĠÐºÐ°Ð½":5562,"ĠÑĤÐµÐ»ÐµÑĦÐ¾Ð½Ð°":5563,"iya":5564,"ĠÑĢÐµÐ³ÑĥÐ»ÑıÑĢ":5565,"ĠÐ¾ÑģÐ²Ðµ":5566,"ĠÐ´ÐµÐ¹ÑģÑĤÐ²Ð¸Ð¹":5567,"Ð¿Ð¾Ð»Ð½Ðµ":5568,"ĠÑĤÐµÐ½":5569,"arch":5570,"ÐµÐ½Ð½ÑĭÐ¼":5571,"nÐĽÐ¸":5572,"ÑĩÐ¸Ð¹":5573,"9914":5574,"Ð¾ÑģÑģÐ¸Ñı":5575,"047":5576,"ÐĳÐŀ":5577,"9918":5578,"ÑİÑīÐ¸ÑħÑģÑı":5579,"ĠÑģÐ²Ð°":5580,"ĠÑģÑĤÐ°Ð»Ð°":5581,"ĠÑģÐ¿ÑĢÐ¾Ñģ":5582,"ĠÐ±Ð»Ð¾ÐºÐ¸":5583,"ÑĤÐµÐ»ÑĮÑģÑĤÐ²Ð¾Ð¼":5584,"ÑİÑīÑĥÑİ":5585,"ÑĤÐ°ÑĨÐ¸Ð¸":5586,"ĠÑĢÐ°Ð¹Ð¾Ð½Ðµ":5587,"rum":5588,"Ġpro":5589,"ĠÐ¿Ð¾ÑģÑĤÐ°Ð½Ð¾Ð²":5590,"OV":5591,"Ð¼Ð°ÑĤ":5592,"ÐºÑĥÐ¿":5593,"ÑĤÐ¸Ð²Ð°":5594,"038":5595,"nÐ´":5596,"Ġ36":5597,"ĠÐ±Ð¾Ð³Ð°":5598,"ĠÑįÑĦÑĦÐµÐºÑĤ":5599,"9875":5600,"ÑĪÐ»Ð°":5601,"ĠÐ·Ð²Ð¾Ð½":5602,"ĠÐºÐ²Ð°ÑĢÑĤÐ¸ÑĢÑĭ":5603,"ĠÐ¸Ð½ÑĦÐµÐº":5604,"Ð½Ð¾Ñģ":5605,"ĠÐ¿ÑĢÐ¸Ð²Ñĭ":5606,"ÑĪÐ½Ð¸Ð¹":5607,"932":5608,"197":5609,"9928":5610,"ÐŁÑĢÐ¸":5611,"ĠÐ¿Ð»Ð¸":5612,"Ð¼Ð¸Ð½Ð°":5613,"ĠÐºÐ»ÑĥÐ±":5614,"ÑĨÐ¸Ð¾Ð½Ð½Ð°Ñı":5615,"ĠÐĵÐ¾ÑģÑĥÐ´Ð°ÑĢ":5616,"9916":5617,"495":5618,"Ð¶Ð°ÐµÑĤÑģÑı":5619,"ĠÐĹÐ´ÐµÑģÑĮ":5620,"ĠÐ±Ð¾Ðº":5621,"ÐºÐ¾Ð²Ð°Ñı":5622,"ĠÑģÐ¾ÐºÑĢÐ°":5623,"ĠÐ²ÑĢÐ°Ñĩ":5624,"ĠÐ¼Ð¸Ð½":5625,"ÑıÐ²Ð»ÐµÐ½Ð¸Ðµ":5626,"ĠÐ´ÐµÐ¼":5627,"ĠÐ´Ð°Ð½Ð½Ð¾Ð³Ð¾":5628,"ĠÐ´Ð¾ÑħÐ¾Ð´":5629,"ĠÐ¼Ð°Ð³":5630,"ĠÐ¾Ð±ÐµÑģÐ¿ÐµÑĩÐµÐ½Ð¸Ñı":5631,"ĠÐ²Ð¾Ð¹Ð½Ñĭ":5632,"ĠÐ£ÐºÑĢÐ°Ð¸Ð½Ðµ":5633,"208":5634,"ĠÐ²Ð°ÑĪÐ¸":5635,"ĠÑĢÐ°Ð·Ð½ÑĭÐµ":5636,"ĠÐºÐ¾Ð¼Ð¿Ð°Ð½Ð¸Ð¹":5637,"Ð²ÑĪÐ¸Ðµ":5638,"ĠÐ¾ÐºÑĢÑĥÐ¶Ð°":5639,"ĠÑĤÐµÐ¼Ñĥ":5640,"ĠÑģÐ°Ð¼Ð¾Ð³Ð¾":5641,"133":5642,"Ð±Ð¸ÑĤ":5643,"ÑģÐºÐ¾Ð»ÑĮÐºÐ¾":5644,"ÑģÐ¾Ð»ÑİÑĤ":5645,"ĠÐ¿ÑĢÐ¸Ð²Ð»ÐµÐºÐ°":5646,"Ġ07":5647,"Ð°Ð½ÑĤÐ°":5648,"ÑĢÐµÑĤ":5649,"ÑĪÑĢÑĥ":5650,"ÐºÐ»Ð¸":5651,"ĠÐ¿Ð¾ÑģÐ²Ñı":5652,"ĠÐ¿ÐµÑĢÐ²Ð¾Ð¹":5653,"ĠÐĿÐ¸ÐºÐ¾Ð»Ð°":5654,"ĠÑĨÐµÐ»Ð¸":5655,"Ð±ÐµÑĢÐµ":5656,"9960":5657,"ĠÐ´Ð¸Ð°":5658,"ĠÑĤÐ¸Ð¿":5659,"ÑĢÐ¾Ð²Ð°Ð»":5660,"ĠÐ¼Ð°ÑģÐ»Ð°":5661,"ÐĲÐĿ":5662,"Ġph":5663,"out":5664,"ĠÑĢÐ°ÑģÑĩÐµÑĤ":5665,"ĠÐºÐ¾ÑģÑĤ":5666,"ĠÐ¸ÑģÐ¿Ð¾Ð»ÑĮÐ·ÑĥÑİÑĤ":5667,"ĠÐ°Ð»ÐºÐ¾Ð³":5668,"ĠÑĥÑĢÐ¾Ð²Ð½Ðµ":5669,"nÐ¡ÑĤ":5670,"ĠÐ¸Ð´ÐµÑĤ":5671,"Ð¾ÑħÑĢÐ°":5672,"ĠÐ»Ð¸ÑĨÐµÐ½":5673,"Ð¿Ð¾Ñĩ":5674,"2034":5675,"ĠÑħÐ¸Ð¼Ð¸":5676,"ÑģÑĤÐ¾Ð¼":5677,"Ð»ÑıÐ½":5678,"ÑĤÑĮÐ¸":5679,"ÑĢÐ¾Ð²Ð°Ð½Ð½ÑĭÐ¹":5680,"ĠÑģÑĤÐ°Ð»Ð¾":5681,"ĠÐ¾ÑĤÐ½Ð¾ÑģÑı":5682,"374":5683,"ĠÐ´ÐµÐºÐ¾ÑĢÐ°":5684,"ĠÐĿÐ¸Ð¶":5685,"ĠÐºÐ¾ÑĢÐ¾Ð±":5686,"ĠâĤ½\\":5687,"ĠÑģÐ¸Ð»ÑĮÐ½Ð¾":5688,"âĢĻ":5689,"ĠÐ¡ÐµÐ½ÑĤÑıÐ±ÑĢÑĮ":5690,"886":5691,"ĠÑģÐ¸ÑģÑĤÐµÐ¼Ðµ":5692,"ĠÐ¼Ð½Ð¾Ð¶ÐµÑģÑĤÐ²Ð¾":5693,"ÐºÐ°Ð½ÑģÐ¸Ð¸":5694,"ĠÑĥÑĤÐ²ÐµÑĢÐ¶Ð´":5695,"ĠÐºÐ°ÑĤÐµÐ³Ð¾ÑĢÐ¸Ð¸":5696,"ĠÐĳÐµÐ»Ð°":5697,"ÑĤÐ¸Ð²Ð½Ð°Ñı":5698,"ĠÐĶÐ°Ð½":5699,"ĠÑģÐºÐ°ÑĩÐ°ÑĤÑĮ":5700,"nÐ¦ÐµÐ½Ð°":5701,"ĠÐ¿Ð°ÑĢÑĤÐ½Ðµ":5702,"ĠÑĦÑĥÐ½ÐºÑĨÐ¸Ð¸":5703,"ÑĢÐ´":5704,"ĠÑĢÐµÐ°Ðº":5705,"ĠÑĢÐ°ÑģÐ¿ÑĢÐ¾ÑģÑĤÑĢÐ°Ð½":5706,"Ð¾ÑģÐ¸Ð±Ð¸ÑĢ":5707,"ÑĥÐ»ÑĮ":5708,"Ġis":5709,"ÑĢÐ°Ð¶ÐµÐ½Ð¸Ñı":5710,"150":5711,"ĠÐ¼Ð¸Ð½Ð¸Ð¼Ð°":5712,"237":5713,"ĠÑħÐ°ÑĢÐ°ÐºÑĤÐµÑĢÐ¸ÑģÑĤÐ¸ÐºÐ¸":5714,"ÑĤÐ¸ÐºÑĥ":5715,"ĠÑģÐµÐ¼ÑĮÐ¸":5716,"ery":5717,"942":5718,"765":5719,"ĠÐ¢Ñĭ":5720,"ĠâĨĴ":5721,"ĠÐ³Ð°ÑĢÐ°Ð½ÑĤÐ¸":5722,"234":5723,"ĠÐĹÐ°Ðº":5724,"ĠÐ·Ð°ÐºÐ»ÑİÑĩÐ°":5725,"354":5726,"Ð¾Ð·Ñĭ":5727,"nÐ½Ð°":5728,"ĠÑĢÐµÐºÐ¾Ð¼ÐµÐ½Ð´ÑĥÐµÑĤÑģÑı":5729,"ala":5730,"ÑĥÐ¿Ð¸":5731,"ks":5732,"âĢĭ":5733,"ĠÐ¸ÑģÐ¿Ð¾Ð»ÑĮÐ·Ð¾Ð²Ð°Ð½Ð¸ÐµÐ¼":5734,"ĠÐ¿Ð¾Ð´ÑħÐ¾Ð´Ð¸ÑĤ":5735,"ÐµÐ´ÑĮ":5736,"ĠÐ½Ð°Ð»Ð¸ÑĩÐ¸Ðµ":5737,"ÑģÐºÐ¸Ð¼Ð¸":5738,"go":5739,"ÐµÐ¼ÑģÑı":5740,"044":5741,"ĠÐ±Ð¸Ð±Ð»Ð¸":5742,"ST":5743,"Ġhttp":5744,"ÐºÐ°Ð·Ð°ÑĤÑĮ":5745,"ÐµÐ¼Ð¾Ð½ÑĤ":5746,"Ð±Ð¾ÑĢÐµ":5747,"355":5748,"422":5749,"Ð´Ð°Ð»Ð¸":5750,"Ð»ÑĮÐ½Ð¸Ðº":5751,"ĠÐºÐ°Ð¶Ð´Ð¾Ð¹":5752,"ĠÐĲÐ¿ÑĢÐµÐ»ÑĮ":5753,"ĠÐºÐ¾Ð½ÑģÑĤÑĢÑĥÐºÑĨÐ¸Ð¸":5754,"Ð¶Ð½Ð¾ÑģÑĤÐ¸":5755,"ĠÑģÐ²Ð¸Ð´ÐµÑĤÐµÐ»ÑĮ":5756,"ĠÐºÐ¾Ð¼Ð¿Ð»ÐµÐºÑĤ":5757,"nÐ¡ÐµÑĢ":5758,"ĠÐ±Ð¾Ð½ÑĥÑģ":5759,"nG":5760,"ĠÐ·ÐµÐ¼ÐµÐ»ÑĮ":5761,"ĠÐ¿ÑĢÐ¸Ð´ÐµÑĤÑģÑı":5762,"Ð¼ÑĥÐ¼":5763,"book":5764,"nÐļÐ¾Ð³Ð´Ð°":5765,"ĠÐ¾ÑģÐ¾Ð±ÐµÐ½Ð½Ð¾ÑģÑĤÐ¸":5766,"ÑĤÐºÐ°":5767,"ĠÐ½ÐµÐ¿Ð¾ÑģÑĢÐµÐ´":5768,"Ð»Ð¾ÐºÐ°":5769,"alog":5770,"ĠÐ²ÐµÑĢÐ¾ÑıÑĤ":5771,"Ð²Ð¾Ð³Ð¾":5772,"ĠÐ´ÐµÑĪÐµ":5773,"ĠÐ½ÐµÐ¼Ðµ":5774,"ĠÐ¿Ð¾Ð·Ð´":5775,"Ð²Ð¾ÑĢÐ¸":5776,"ĠÑģÐµÑĢÐ¸Ð¸":5777,"Ð²Ð°Ð½Ð¸Ð¹":5778,"ĠÐ¿Ð¾Ð´ÑĤÐ²ÐµÑĢÐ¶Ð´Ð°":5779,"ĠÐ½ÐµÐ´ÐµÐ»Ð¸":5780,"ĠÑĤÑĢÐµÐ±ÑĥÐµÑĤ":5781,"---":5782,"ĠÐ¿ÑĥÑĤÐ¸":5783,"Ð½ÑĥÐ»":5784,"ĠÐ°Ð²Ð¸Ð°":5785,"ĠÐ»ÑİÐ±Ð¾Ð³Ð¾":5786,"843":5787,"ĠÐļÐ°Ð»Ð¸":5788,"ĠÑģÑĤÑĢÐ°Ð½Ðµ":5789,"Ð¶Ð½Ð¾Ð³Ð¾":5790,"Ð¶Ð¸Ð½":5791,"Ð¾Ð»Ñİ":5792,"ĠÐ´ÐµÑıÑĤÐµÐ»ÑĮÐ½Ð¾ÑģÑĤÑĮ":5793,"Ð¶Ð°Ð»":5794,"ÑĢÐ¿Ð¸":5795,"UR":5796,"ĠÐ¡ÐŁ":5797,"Ð¸Ðº":5798,"446":5799,"ĠÐ¢Ð°Ð¼":5800,"4277":5801,"ĠÐ¾Ð´Ð½Ñĥ":5802,"ÐµÑĢÐ¸ÑĤÑĮ":5803,"ĠÐ¼Ð°ÑģÐ»Ð¾":5804,"ĠÐºÐ¾Ð³Ð¾":5805,"ÑĭÑħÐ°":5806,"ÑįÐº":5807,"Ð±ÑĢÐ°Ð½":5808,"ame":5809,"Ð¾Ð²ÐµÑĢ":5810,"ĠÐ¿Ð»Ðµ":5811,"ĠÐ¾Ð±ÑıÐ·Ð°ÑĤÐµÐ»ÑĮ":5812,"ÐĲÑĢ":5813,"ÐµÐ´Ñĭ":5814,"ĠÐ¾ÑĢÐ³Ð°Ð½Ð¸Ð·Ð°ÑĨÐ¸Ð¹":5815,"ĠÐ²ÑĢÐµÐ´":5816,"nI":5817,"ĠÑĢÐ°Ð·Ð»Ð¸ÑĩÐ½ÑĭÐµ":5818,"814":5819,"ont":5820,"ĠÑĨÐµÐ»ÑıÑħ":5821,"Ð»Ð°Ð½Ð´":5822,"ĠÐ·Ð°Ð²":5823,"ĠÑħÐ²Ð°":5824,"ĠÑĤÐ°Ð½":5825,"ĠÐ¸Ð½Ð¾Ð³Ð´Ð°":5826,"ĠÐ¿Ð»Ð¾ÑīÐ°Ð´":5827,"ĠÑģÑĥÑħ":5828,"ÐĴÑĭ":5829,"Ð¸Ð½ÐºÐ¸":5830,"074":5831,"ÑĦÐ»Ð¸":5832,"ĠÐ¸ÑģÐ¿Ð¾Ð»ÑĮÐ·Ð¾Ð²Ð°Ð½Ð¸Ð¸":5833,"Ð¾Ð¶Ð´Ð°":5834,"ĠÐ¿ÐµÑĢÐ²ÑĥÑİ":5835,"ÐºÐ°ÑĩÐ°ÑĤÑĮ":5836,"ĠÐ·Ð½Ð°ÑĩÐµÐ½Ð¸Ðµ":5837,"ĠÐ³ÑĢÐµ":5838,"duct":5839,"ĠÐºÐ»Ñĥ":5840,"ĠÐ¶Ð°Ð»":5841,"ÐºÑĤÑĥÑĢ":5842,"):":5843,"Ð³Ð°Ð¼Ð¸":5844,"ĠÐºÐ¾Ð¼Ð¼ÑĥÐ½Ð¸ÐºÐ°":5845,"357":5846,"ĠÑħÑĢÐ°Ð½ÐµÐ½Ð¸Ñı":5847,"202":5848,"ML":5849,"766":5850,"ĠÐ¡ÐµÑĢÐ³ÐµÐ¹":5851,".:":5852,"nÐĹÐ°Ðº":5853,"ĠÐ´ÐµÐ»Ð°ÐµÑĤ":5854,"Ð½Ð¸ÑĩÑĤ":5855,"ĠÐ¿Ð°Ð»ÑĮ":5856,"ĠÐ´ÐµÐ¹ÑģÑĤÐ²ÑĥÑİ":5857,"ĠÐ¿ÑĢÐ¾Ð´ÑĥÐºÑĤÑĭ":5858,"Ð²ÐµÐ½":5859,"ÑģÑĤÐ°ÑĤÐ¸":5860,"ĠÑģÐ¾Ð²Ð¼ÐµÑģÑĤ":5861,"ĠÐ°Ð³ÐµÐ½ÑĤ":5862,"817":5863,"Ð»Ð¾ÐºÐ¸":5864,"ÑģÑĤÐ²ÐµÐ½Ð½ÑĭÐ¼":5865,"451":5866,"247":5867,"ĠÐ°Ñį":5868,"ĠÐŀÑģÐ½Ð¾Ð²":5869,"ĠÑįÐ¼Ð¾":5870,"ĠÑĨÐµÐ½Ðµ":5871,"Ð¿ÐµÑĨ":5872,"ĠÐĺÐ²Ð°Ð½Ð¾Ð²":5873,"ĠÐ¿ÑĢÐµÐ´Ð¿ÑĢÐ¸ÑıÑĤÐ¸Ñı":5874,"ĠÐ²ÐµÐ´Ñĥ":5875,"Ġst":5876,"ĠÑģÐ¼Ð¾ÑĤÑĢÐµÑĤÑĮ":5877,"363":5878,"ĠÐĲÐ²Ð³ÑĥÑģÑĤ":5879,"ĠÐ²Ð¸Ð½":5880,"263":5881,"ĠÐºÐ¾Ð½ÑĤÑĢÐ°":5882,"mi":5883,"ÑģÑĤÑĥÐ¿Ð¸":5884,"ĠÐ´ÑĢÑĥÐ·ÑĮÑı":5885,"ĠÐ»ÑĥÑĩÑĪÐ¸Ñħ":5886,"ĠÐ²Ð¾Ð²":5887,"ĠÐºÐ²Ð°Ð»Ð¸":5888,"ÑĥÑİÑīÐ¸Ðµ":5889,"Ð¶Ð¸ÑĤÑĮ":5890,"ĠÑģÑĤÑĢÐ°Ð½Ð¸ÑĨÐµ":5891,"ĠÐĳÐ°ÑĢ":5892,"ĠÐ½Ð°Ð²ÐµÑĢ":5893,"ĠÐ¡ÑĢÐµÐ´":5894,"ĠÐĴÐ¾ÑģÑĤ":5895,"Ð»ÐµÐ½Ð½Ð¾":5896,"ÑĨÐµÐ¼":5897,"ĠÑĢÐ°Ð·Ð¼":5898,"054":5899,"9938":5900,"347":5901,"ÑĥÑħ":5902,"ĠÐ²ÑĭÐ¿ÑĥÑģÐºÐ°":5903,"ĠÐ´Ð»Ð¸Ð½":5904,"952":5905,">\\":5906,"ĠÐľÐ°ÑĢÑĤ":5907,"ĠÐ²Ð¾Ð´Ð¾Ð¹":5908,"ja":5909,"ĠÑĥÑģÐ¸":5910,"902":5911,"ĠÐ¿Ð¾Ð¼Ð¾ÑĩÑĮ":5912,"ĠÑģÑĥÐ´ÐµÐ±":5913,"Ġcookie":5914,"ĠÐĺÑģÑĤ":5915,"nÐ¡Ðµ":5916,"ÐºÑĤÐ¾ÑĢÑĭ":5917,"ĠÐ¿Ð¾ÑģÐ»ÐµÐ´Ñĥ":5918,"ĠÐ²Ð¿Ð¾Ð»Ð½Ðµ":5919,"ĠÐ¡Ð¾Ð³Ð»Ð°":5920,"274":5921,"ĠÐ¿ÑĢÐµÐ´Ð»Ð°Ð³Ð°ÐµÑĤ":5922,"045":5923,"99779725":5924,"ĠÑĥÑģÐ»Ð¾Ð²Ð¸Ð¹":5925,"ĠÑģÑĤÐ°ÑĤÑĮÐµ":5926,"ÑĩÐµÐ½Ð¸Ñİ":5927,"nRep":5928,"ĠIP":5929,"ĠÑĢÐ¾Ð»ÑĮ":5930,"ĠÐ¸ÑģÐºÐ»ÑİÑĩÐ¸ÑĤÐµÐ»ÑĮÐ½Ð¾":5931,"ĠÐ¿Ð¾Ð¼Ð¾Ð³Ð°ÐµÑĤ":5932,"nÐ®":5933,"Ð¾Ð³Ð¾ÑĢÑģÐº":5934,"ĠÐ¾ÑĢÑĥ":5935,"ĠÐ´Ð°Ð½Ð½Ð¾Ð¼":5936,"ĠÐ¿ÑĢÐ¸Ð¼ÐµÑĢÐ½Ð¾":5937,"971":5938,"ĠÑģÑĤÑĢÐ°ÑĤÐµ":5939,"ĠÐļÐ¾Ð¼Ð¿":5940,"Ð»ÐºÑĥ":5941,"ĠÐ´ÐµÑĢÐµÐ²ÑıÐ½":5942,"ÑĩÐ½Ð¾ÑģÑĤÑĮ":5943,"Ð½ÐµÑĤÐµ":5944,"ÐºÐ¾Ð²ÑĭÑħ":5945,"ÑĨÐ¸Ð½Ð°":5946,"Ð¾ÑģÑĤÑĮÑİ":5947,"ÑħÐ¾ÑĤ":5948,"ĠÐ¿Ð¸ÑīÐµ":5949,"ĠÐºÑĥÐ´Ð°":5950,"ĠÐľÐ¾Ð¶Ð½Ð¾":5951,"417":5952,"2012":5953,"ĠÐ²ÐµÐºÐ°":5954,"Ð¾ÑģÑģÐ¸Ð¹":5955,"ÑĢÐ¾ÑĤ":5956,"ĠÑĨÐµÐ»ÑĮÑİ":5957,"ÑĢÑıÐ·":5958,"ĠÐ´Ð¾ÑĢÐ¾Ð¶":5959,"ĠÐ¿ÐµÑĢÐµÐ¼Ðµ":5960,"Ġ75":5961,"Ð»ÑĭÐ¼":5962,"nW":5963,"ĠÐºÐ°ÑĢÑĤÐ¸Ð½":5964,"ĠÑĥÑģÑĤÐ°Ð½Ð¾Ð²Ð¸ÑĤÑĮ":5965,"ĠÐ°Ð¼":5966,"ĠÐ¾ÑĤÐºÐ»Ñİ":5967,"Ð´Ñı":5968,"ĠÑģÐ¾ÑģÑĤÐ¾ÑıÐ½Ð¸Ð¸":5969,"ÑĤÐ¸ÐºÐ¸":5970,"ÑĩÐ°ÑģÑĤÑĮ":5971,"ĠÐ¼Ð¾Ð·":5972,"ĠÑĨÐµÑĢ":5973,"Ð½ÐµÑģÑĤÐ¸":5974,"ĠÐ¼Ð³":5975,"Ð¾Ð¿ÑĥÐ»ÑıÑĢ":5976,"ĠÐ³ÑĢÐ°ÑĦÐ¸":5977,"ĠÐĲÐ»ÑĮ":5978,"9915":5979,"ĠÐĹÐĲ":5980,"ĠÐĺÑİÐ½ÑĮ":5981,"ĠÐ±Ð»Ð¸Ð¶Ð°Ð¹":5982,"ĠÑģÑĤÐ¾Ð»Ð¸":5983,"ĠÐ¤ÐµÐ²ÑĢÐ°Ð»ÑĮ":5984,"ÑĢÐ¸ÑĤÐ°":5985,"ĠÑģÑĥÑīÐµÑģÑĤÐ²ÑĥÐµÑĤ":5986,"nÐĶÐ¾Ð±":5987,"ĠÐºÐ¾Ð¼Ð¼ÐµÐ½ÑĤÐ°ÑĢÐ¸ÐµÐ²":5988,"ĠÑĢÐ°Ð½ÐµÐµ":5989,"273":5990,"ua":5991,"ĠÐŁÐ°ÑĢ":5992,"885":5993,"9906":5994,"ÑĤÐ¸Ð»Ð¸":5995,"Ð²ÐµÑĢÐ´Ð»Ð¾Ð²":5996,"ĠÐ¿Ð¾ÑģÐ»ÐµÐ´Ð½Ð¸Ðµ":5997,"ÑįÑĦ":5998,"Ð²Ð¾Ð´Ð¸ÑĤ":5999,"ser":6000,"ÐµÐ¼ÑĭÐ¹":6001,"ÑīÐ¸Ð¼Ð¸":6002,"ĠÐľÐ¾Ð»":6003,"ÑĤÐ°Ð¹":6004,"961":6005,"ĠÐ²ÑĭÐ±Ð¸ÑĢÐ°":6006,"ĠÐ¿Ð¾Ð´Ð´ÐµÑĢÐ¶ÐºÐ¸":6007,"ĠÐ³Ð¾Ñģ":6008,"ĠÐ´Ð°Ð²Ð½Ð¾":6009,"ĠÐ´Ð°Ð½Ð½ÑĭÐ¼":6010,"ĠÐ¯Ð½":6011,"ĠÐĵÐ¾Ñģ":6012,"Ð·ÑĭÐ²Ð°ÑİÑĤ":6013,"ĠÑĢÐ¾Ð»Ð¸":6014,"ĠÐ´ÑĢÐ°":6015,"fr":6016,"ĠÐ»ÑİÐ±Ð¾Ð¼":6017,"Ð¿Ð¾ÑĤ":6018,"ĠÐ¾ÑĤÑģ":6019,"OL":6020,"ĠÑĥÑģÑĤÐ¾Ð¹":6021,"nV":6022,"ĠÐ²ÑģÐµÐ¼Ð¸":6023,"ÑĢÐ¾Ð²Ð°Ð½Ð½ÑĭÑħ":6024,"ÑĥÐ´Ð°":6025,"Ġ55":6026,"ĠÐ¿ÑĢÐµÐ´Ð»Ð¾Ð¶ÐµÐ½Ð¸Ñı":6027,"ÑĥÐµÑĤÑģÑı":6028,"ĠÐ²ÐºÐ»ÑİÑĩÐ°Ñı":6029,"Ġ06":6030,"ĠÑĢÐµÑģÐ¿":6031,"ĠÑģÐ°Ð¼Ð¾Ð¹":6032,"Ð¾ÑģÑĭ":6033,"ĠÐ»Ð¸ÑĨÐ":6034,"ĠÐ»Ð¸ÑĨÐ¾":6035,"ĠÐŁÐ¾ÑĢ":6036,"ĠÑģÐ¾Ð¿ÑĢÐ¾Ð²":6037,"ĠÐ¾Ð±ÑĬÐµÐºÑĤÐ¾Ð²":6038,"ĠÑģÐ¾Ð²ÐµÑĢÑĪÐµÐ½Ð½Ð¾":6039,"Ġ2009":6040,"ÑĦÐ¾Ð½Ñĭ":6041,"ÐłÐ£":6042,"ĠÐ¿ÑĢÐ¾ÑĨÐµÑģÑģÐ°":6043,"9922":6044,"Ð¤ÐĹ":6045,"ĠÐ±Ð¾Ð»ÑĮÑĪÐ¾Ðµ":6046,"ĠÐ»ÑİÐ´":6047,"Ð»Ð°ÐºÑĤÐ¸":6048,"ĠÐŃÑĤÐ¸":6049,"ĠÐ¿Ð¾Ð±Ðµ":6050,"Ð½ÐµÐ½Ð¸Ð¸":6051,"ĠÐ¼Ð°Ð»Ð¾":6052,"ÑĦÐ¸ÐºÐ°ÑĨÐ¸Ð¸":6053,"man":6054,"Ð¾Ð³Ð¾Ð´":6055,"ĠÐ¿Ð¾Ð´Ñģ":6056,"ĠÐ¸ÑģÐ¿ÑĭÑĤÐ°":6057,"ĠÐ´ÐµÐ²":6058,"ĠÐ³Ð»Ð°Ð·":6059,"ĠÐ¾ÑĤÐ²ÐµÑĤÑģÑĤÐ²ÐµÐ½Ð½Ð¾ÑģÑĤÐ¸":6060,"ĠÐ²Ð°Ð»":6061,"ĠÐ¿ÑĢÐ¸ÑĩÐ¸Ð½Ð°":6062,"ĠÐºÐ»Ðµ":6063,"ĠÐ±Ð»Ð°Ð³":6064,"ĠÐ¿ÐµÐ½ÑģÐ¸":6065,"ĠÐ´Ð¸Ð·Ð°Ð¹Ð½":6066,"ÑĢÐ¾Ð²Ð°Ð½Ñĭ":6067,"ĠÐ¿ÑĢÐµÐ¶Ð´Ðµ":6068,"nÐŁÐ¾Ð¸ÑģÐº":6069,"Ġ03":6070,"Ð²ÐµÐ´ÐµÐ½Ð¸Ðµ":6071,"ĠÐºÐ°Ð±Ð¸":6072,"ĠÐ¿ÑĢÐµÐ´ÑĥÐ¿":6073,"ĠÐ¿Ñĭ":6074,"ĠÐ¿ÑĥÑĤÐµÐ¼":6075,"Ð¿ÑĥÑģÐº":6076,"ÑĢÐ°Ð±Ð¾ÑĤÐºÐ°":6077,"ĠÐ¯Ð½Ð²Ð°ÑĢÑĮ":6078,"ĠÐ½Ð¸ÐºÑĤÐ¾":6079,"ĠÐ½ÐµÐ·Ð°Ð²Ð¸ÑģÐ¸":6080,"ĠÑĢÐ¸ÑģÑĥÐ½":6081,"ĠÐ¿Ð¾ÑĤÐµÐ½":6082,"lin":6083,"ÑģÐ°Ð¼Ð¸":6084,"ĠÐºÐ¾Ð¼Ð¼ÐµÐ½ÑĤÐ°ÑĢÐ¸Ð¸":6085,"nÐĶÐ¾ÑģÑĤÐ°Ð²ÐºÐ°":6086,"ĠÑĨÐ²ÐµÑĤÐ¾Ð²":6087,"ĠÑģÑĤÐ°ÑĢÐ°":6088,"Ð²Ð°Ð´":6089,"ĠÐĺÑİÐ»ÑĮ":6090,"894":6091,"ÑĤÐ¸Ð»":6092,"lass":6093,"unction":6094,"\\\".\\":6095,"ĠÐºÐ¾Ð»Ð¸ÑĩÐµÑģÑĤÐ²Ð°":6096,"456":6097,"ĠÐ¿ÑĢÐ¾ÑĤÑı":6098,"ĠÑĤÐ°ÐºÐ°Ñı":6099,"ÑĩÐ°Ñı":6100,"ĠÐ¤Ð¾ÑĢ":6101,"ĠÐ´ÑĢÐµÐ²":6102,"+\\":6103,"ĠÑĢÐµÐ¶Ð¸Ð¼Ðµ":6104,"860":6105,"ĠÐ³Ð¾ÑģÑĥÐ´Ð°ÑĢÑģÑĤÐ²ÐµÐ½Ð½Ð¾Ð¹":6106,"Ð±ÑĥÐ´ÑĮ":6107,"ĠÐ´Ð¾Ð±Ð°Ð²Ð¸ÑĤÑĮ":6108,"ĠÐłÐµÑģÐ¿ÑĥÐ±Ð»Ð¸ÐºÐ°":6109,"Ð½Ð³ÑĢÐ°Ð´ÑģÐºÐ°Ñı":6110,"IM":6111,"nÐŁÐµ":6112,"ĠÐ¾Ð³ÑĢÐ°Ð½Ð¸ÑĩÐµÐ½":6113,"ĠÐ¾Ð±ÑĥÑĩÐµÐ½Ð¸Ñı":6114,"ĠÐĶÐµÑĤ":6115,"ÑĢÐµÑı":6116,"ĠÑģÑĤÑĢÐ°ÑħÐ¾Ð²":6117,"ÐľÐŀ":6118,"ĠÑĩÐ°Ñģ":6119,"ĠÑģÑĥÑĤÐºÐ¸":6120,"ĠÐ¼ÐµÐ¶":6121,"ĠÐ½ÐµÐ¸Ð·":6122,"nÐŁÐ¾ÑĩÐµÐ¼Ñĥ":6123,"ĠÐ¿Ð¾Ð¸ÑģÐºÐ°":6124,"ĠÑģÐ¾Ð±ÑĭÑĤÐ¸Ñı":6125,"ĠÐºÑĢÐ¾Ð¼Ðµ":6126,"ĠÐºÐ¾Ð½ÑĤÑĢÐ¾Ð»ÑĮ":6127,"Ð»ÐµÑĤÐ¸":6128,"9972":6129,"ĠÑĥÑģÐ¸Ð»Ð¸":6130,"ĠÐ»Ð¾Ð³Ð¸":6131,"ÑīÐ°ÑİÑĤ":6132,"343":6133,"nÐŃÐº":6134,"ÑģÐ»ÐµÐ´":6135,"ĠÐ±Ð°ÑĢ":6136,"Ð¾ÑĤÐ¾ÑĢÑĭÐµ":6137,"ĠÑģÑĥÐ´Ð°":6138,"057":6139,"nÐ¡ÑĤÑĢÐ°":6140,"ÐºÐ¾Ð½Ð¾Ð¼":6141,"ĠÐ¸ÑģÑĤÐ¾ÑĢÐ¸Ñı":6142,"ÑīÐ¸ÑħÑģÑı":6143,"ĠÐ·Ð°ÐºÐ°":6144,"ĠÑĥÐ²ÐµÐ´Ð¾Ð¼":6145,"ĠÐ»ÑİÐ±Ð¸Ð¼":6146,"132":6147,"ĠÑĤÐ¾ÑĩÐºÐ¸":6148,"ÐŁÐ¾Ð´":6149,"Ġ02":6150,"ĠÐ½Ð°Ð»Ð¾Ð³":6151,"Ð»ÐµÑĦÐ¾Ð½":6152,"ÑĢÐ°ÑĪÐ¸":6153,"',":6154,"Ð¼ÐµÐ»ÑĮ":6155,"ĠÐºÐ¾Ð½ÑĤÑĢÐ¾Ð»Ñı":6156,"nÐĳÑĭ":6157,"Ð»Ð°Ð¼Ð°":6158,"ĠÐ¿Ð»Ñİ":6159,"ÑĪÐµÐ²":6160,"ĠÑģÐ½Ñı":6161,"ÐµÑģÐ¿Ð»Ð°ÑĤ":6162,"ĠÑĢÐµÐ³Ð¸Ð¾Ð½Ð°Ð»ÑĮ":6163,"ĠÐļÐ°Ð·Ð°Ñħ":6164,"ĠÐ¸ÑģÐ¿Ð¾Ð»ÑĮÐ·ÑĥÑİÑĤÑģÑı":6165,"Ð²Ð¾Ð¸":6166,"764":6167,"ĠÑĢÐ°ÑģÑģÐ¼Ð°ÑĤÑĢÐ¸":6168,"ĠÐŁÑĢÐ¾Ð´":6169,"iew":6170,"ÑĢÑıÐ½":6171,"ĠÐ½Ð°ÑĩÐ°Ð»Ðµ":6172,"ÑĢÑĥÑĢ":6173,"*\\":6174,"Ð»ÑĮÑĤ":6175,"ĠÐ¼ÐµÑĢÐ¾Ð¿ÑĢÐ¸ÑıÑĤÐ¸Ñı":6176,"941":6177,"ÑĢÐ¾Ð´Ðµ":6178,"ĠÐ²Ð¾ÐºÑĢÑĥÐ³":6179,"ĠÐ¿ÑĢÐ¾Ð´Ð°Ð¶Ð¸":6180,"ĠÐ¼Ð¸ÐºÑĢÐ¾":6181,"ĠÐ²Ð·Ñı":6182,"Ð²Ð°Ð½Ð¸Ñİ":6183,"ÐºÑĤÐ¾ÑĢÐ°":6184,"ĠÐ´ÑĢÑĥÐ³Ð¸Ð¼":6185,"ÐµÑħ":6186,"373":6187,"ÐļÐ¡":6188,"Ð¶Ð°Ð½Ð¸Ðµ":6189,"ĠÐ¾Ð´Ð½Ð¾Ð²":6190,"ĠÐ´Ð²Ð¸Ð³Ð°ÑĤÐµÐ»Ñı":6191,"ĠÑģÑĤÐ°ÑĤÑĥ":6192,"ÑĢÐ°Ð»":6193,"ÑİÑīÐ¸ÐµÑģÑı":6194,"Ð¾Ð¼ÐµÑĢ":6195,"ĠÑĥÐ²ÐµÐ»Ð¸":6196,"=\\\"":6197,"ÐķÐ¡":6198,"ĠÐ·Ð°ÑıÐ²Ð¸Ð»":6199,"are":6200,"ĠÑģÐ¸Ð»Ñĭ":6201,"ĠÐ¿ÑĢÐµÑģÑĤÑĥÐ¿":6202,"Ð»ÑıÐ±Ð¸Ð½":6203,"ĠÐķÑģÑĤÑĮ":6204,"ĠÐ´ÑĢÐ¾Ð±Ð¸Ð»ÐºÐ¸":6205,"Ð»ÐµÐ±":6206,"ĠÐ³Ð¸Ð¿ÐµÑĢ":6207,"ÑģÐ»ÑĥÐ³Ð¸":6208,"358":6209,"ÑĢÐ¾Ð²Ð°Ð»Ð¸":6210,"ĠÐ¼Ð°ÐºÑģÐ¸Ð¼Ð°Ð»ÑĮÐ½Ð¾":6211,"ĠÐ¶Ð¸Ð²Ð¾ÑĤÐ½ÑĭÑħ":6212,"ÐºÐ»":6213,"ĠÑĢÐµÐ¹ÑĤÐ¸":6214,"ill":6215,"ÑģÐ°Ð´":6216,"930":6217,"ĠÐ¾ÑģÐ½Ð°":6218,"Ġ150":6219,"Ð½Ð¸Ð½Ð°":6220,"ĠÐŀÐ¿":6221,"ĠÐ¤Ð¸":6222,"ĠÑįÐºÑĢÐ°":6223,"ÐĿÐĺÐ¯":6224,"Ð¾ÐºÐ":6225,"ĠÐ²ÑħÐ¾Ð´":6226,"Ð¾ÐºÐ¾":6227,"Ð²Ð°Ð½Ð¸ÐµÐ¼":6228,"vi":6229,"Ð¡Ð°":6230,"ĠÑĢÐµÐ°Ð»Ð¸Ð·Ð°ÑĨÐ¸Ð¸":6231,"ĠÐ±Ð¾Ð»":6232,"ĠÑĢÐ°Ð·Ð´ÐµÐ»Ðµ":6233,"nÐĽÑİ":6234,"DM":6235,"Ð¾ÐµÐ´Ð¸":6236,"ĠÐ²ÑĭÐ²Ð¾Ð´":6237,"ĠÐ¼Ð°ÑĪÐ¸Ð½":6238,"EL":6239,"Ð¾Ð»Ð¸ÑĩÐµÑģÑĤÐ²Ð¾":6240,"ĠÐ½ÐµÐ´ÐµÐ»Ñİ":6241,"ĠÐ³Ð¾Ð²Ð¾ÑĢ":6242,"Ð³ÐµÑĢ":6243,"ĠÐ§ÐµÐ¼":6244,"2038":6245,"ĠÐ¿Ð¾Ð³Ð¸":6246,"ĠÑĤÐ°Ð¹":6247,"Ġemail":6248,"Ð½Ð¾Ð³Ð¸Ðµ":6249,"ÑģÐºÑĥÑĢ":6250,"AM":6251,"??":6252,"Ð²Ð¸Ð»Ð¸":6253,"ĠÐ²Ð¾Ð´Ñĥ":6254,"ĠÐºÑĢÐµÐ´Ð¸ÑĤ":6255,"Ð¿ÑĢÐ¾":6256,"nÐĺÑģÐ¿":6257,"DBE":6258,"ĠÐ¿Ð¾Ð²ÑĭÑĪÐµÐ½":6259,"ĠÐ¼ÐµÑĩ":6260,"Ð²ÑĢÐ¾Ð¿ÐµÐ¹":6261,"Ġx":6262,"ĠÐ¾ÑĤÑĩÐµÑĤ":6263,"ĠÐ¶ÐµÐ½ÑīÐ¸Ð½Ñĭ":6264,"ĠÑĤÐµÐºÑĥ":6265,"563":6266,"ÐµÐ²Ð½Ð°":6267,"Ġ=>":6268,"ĠÐ»Ð°Ð¼":6269,"ĠÐ°Ð±ÑģÐ¾Ð»ÑİÑĤ":6270,"ÑĪÐµÐ´":6271,"Ð½ÐµÐ½Ð¸Ð¹":6272,"nÐŀÑĤÐ·ÑĭÐ²Ñĭ":6273,"Ð»Ð¾Ð½Ð°":6274,"ĠÐĽÑĥÑĩ":6275,"ĠÑįÐ»ÐµÐºÑĤÑĢÐ¾":6276,"ADE":6277,"ĠÑģÐ²ÑıÐ·ÑĮ":6278,"ÑĢÐ°Ð·Ð¾Ð²Ð°":6279,"ÑĩÐ°ÑİÑĤ":6280,"ĠÑĢÐµÐ»Ð¸":6281,"ÑģÑĤÐµÐ¼Ð°":6282,"ĠÐ¿Ð¾Ð½ÑĢÐ°Ð²Ð¸":6283,"Ð»Ð°Ñħ":6284,"ĠÑĤÐµÐ±Ðµ":6285,"ho":6286,"ÑĪÐ¸Ð²":6287,"ĠÑĩÐµÑĤÐ²ÐµÑĢ":6288,"910":6289,"ĠÑĢÐµÐ¶Ð¸Ð¼":6290,"ĠÐ²ÑĭÑģÐ¾ÐºÐ¾Ð¹":6291,"ĠÐ²ÐµÑĩÐµÑĢ":6292,"043":6293,"ĠÑģÐ´Ðµ":6294,"ÑĤÐ¸ÑĤ":6295,"Ð¾ÑģÐºÐ²Ð°":6296,"ĠÑģÑĩÐ¸ÑĤÐ°ÐµÑĤÑģÑı":6297,"ĠÐ¿Ð¾Ð¿ÑĢÐ¾Ð±":6298,"Ð¿Ð¸ÑģÑĮ":6299,"283":6300,"Ð¾Ð²Ð°ÑĤÑĮÑģÑı":6301,"Ð¼Ð¸ÑĢ":6302,"Ð¼ÑĭÐ¼":6303,"ĠÐ±Ð°Ðº":6304,"ÑĩÐ¸Ð»":6305,"895":6306,"ĠÐĹÐ°Ð¿":6307,"ĠÐ¶Ð¸Ð»Ð¸":6308,"ĠÐ·Ð°Ð¹":6309,"ĠÑģÐ¾ÑģÑĤÐ¾Ð¸ÑĤ":6310,"ÑĢÑĥÐ³Ð¸Ðµ":6311,"ĠÐŀÐ¿ÐµÑĢÐ°":6312,"ÐµÑĢÐ°Ð¼Ð¸":6313,"Ð»Ð¸Ð¼":6314,"Ð¿Ð°Ð½":6315,"ÑĥÐºÐ°":6316,"ĠÐ·Ð°Ð¿Ð¸ÑģÑĮ":6317,"ĠÐºÐ¸ÑĢÐ¿Ð¸":6318,"ĠÐ¿ÐµÑĢÐµÐ²Ð¾Ð´":6319,"ĠÑģÑİ":6320,"ĠÐ³ÑĢÑĥÐ¿Ð¿":6321,"99997":6322,"ÑģÐ¾Ð½":6323,"ĠÐ²Ð¾Ð¿ÑĢÐ¾ÑģÐ°Ð¼":6324,"ÑĳÑĤÑģÑı":6325,"ÑĢÐ½ÑĭÐ¹":6326,"Ð³Ð°ÑĤÑĮ":6327,"ĠÐ¿Ð¾Ð´ÑħÐ¾Ð´Ñı":6328,"465":6329,"ĠÐ·Ð½Ð°ÑĩÐ¸ÑĤÐµÐ»ÑĮÐ½Ð¾":6330,"Ð½ÐµÐ¼Ñĥ":6331,"ÑĩÐ¸ÑĤ":6332,"ĠÑĢÐµÐ°":6333,"ĠÐ¿Ð¾Ð»Ð¾ÑĤ":6334,"ÐŁÐŁ":6335,"ĠÐ·ÑĢÐµÐ½Ð¸Ñı":6336,"ĠÑĪÑĤÑĥ":6337,"ĠÐ´Ð¾Ð»Ð³Ð¾":6338,"ÐĵÐĺ":6339,"755":6340,"ĠÐ¼ÑĥÐ·ÑĭÐºÐ°":6341,"ĠÑĢÐµÐ·ÑĥÐ»ÑĮÑĤÐ°ÑĤ":6342,"ĠÐ¿ÑĢÐ¸Ð³Ð»Ð°":6343,"ke":6344,"ĠÐ¿ÑĢÐµÐºÑĢÐ°Ñģ":6345,"ĠÑģÐµÑĢÑĤÐ¸ÑĦÐ¸ÐºÐ°":6346,"ĠÑĨÐµÐ½ÑĤÑĢÐ°":6347,"cri":6348,"ĠÐ·Ð°ÑĤÑĢÐ°":6349,"ĠÑĥÐ½Ð¸ÑĩÑĤ":6350,"9913":6351,"Ġcom":6352,"ÑĢÑĥÑģÐ°":6353,"ÐµÐ½Ð½Ð¾Ðµ":6354,"Ð¸ÑĤÐ°Ð¹ÑĤÐµ":6355,"ĠÑĨÐµÐ½ÑĤÑĢÐµ":6356,"ĠÐ¿ÑĢÐ¾Ð´ÑĥÐºÑĤÐ°":6357,"ĠÐ¦Ð²ÐµÑĤ":6358,"087":6359,"ĠÐ´Ð½Ð¸":6360,"ĠÐĿÐµÑĤ":6361,"ĠÐ±Ð°Ð½Ðº":6362,"ĠÑĨÐµÐ»Ð¾Ð¼":6363,"by":6364,"Ð¶Ð´ÑĭÐ¹":6365,"ĠÐ½Ð°Ð±Ð»ÑİÐ´Ð°":6366,"ÑĩÐ½Ð¾Ð¼":6367,"ÑĤÐµÑĢÑĭ":6368,"mat":6369,"ĠÐ¾Ð±ÑĢÐ°Ð·Ð¾Ð²Ð°Ð½Ð¸Ðµ":6370,"ĠÑĥÐºÑĢÐ°Ð¸Ð½":6371,"Ġ65":6372,"ĠÐ´Ð¾Ð¼Ð°ÑĪÐ½Ð¸Ñħ":6373,"ĠÐ¼ÐµÑĢÐµ":6374,"ÑīÐ¸ÐºÐ¾Ð²":6375,"ĠÑģÑģÑĭÐ»ÐºÐ¸":6376,"ĠÐ»Ð¾":6377,"Ð½Ð¸ÑĤÐ°ÑĢ":6378,"ĠÐ²Ð¾Ð´Ð°":6379,"ĠÐłÐ°Ñģ":6380,"ĠÐ¿ÐµÑĩÐ°":6381,"ÐºÐ¾ÑĢÐµÐµ":6382,"za":6383,"Ð¾Ð½ÐµÑĩÐ½Ð¾":6384,"457":6385,"ĠÑĥÐ²":6386,"ĠÐļÐ¾Ð¼Ð¸":6387,"AS":6388,"ÑĥÐ»ÐºÐ°Ð½":6389,"ĠÐ¸Ð³ÑĢ":6390,"ĠÐ½ÐµÐ´Ð²Ð¸Ð¶Ð¸Ð¼Ð¾ÑģÑĤÐ¸":6391,"ity":6392,"Ð²Ð¸ÑĤ":6393,"ĠÐ¿ÐµÑĢÐµÐ²Ð¾Ð·":6394,"ĠÑĥÑĩÐ°ÑģÑĤÐ½Ð¸ÐºÐ¾Ð²":6395,"OM":6396,"ÑģÑĤÑĢÐ¾Ð²":6397,"ĠÐ¿ÑĢÐµÐ²ÑĢÐ°":6398,"806":6399,"ĠÐ·Ð´ÑĢÐ°Ð²":6400,"555":6401,"Ð¾ÑģÐ¾Ð±Ñĭ":6402,"ÑĦÐµÐ¹":6403,"ĠÐ¿Ð»ÐµÐ½":6404,"ĠÐ¿ÑĢÐ¸Ð·":6405,"âĶ":6406,"076":6407,"ure":6408,"info":6409,"ĠÑĢÑĭÐ½ÐºÐ°":6410,"836":6411,"ĠÑģÐ¾ÑģÑĤÐ°Ð²Ð¸":6412,"ĠÑĦÑĥÑĤÐ±":6413,"ĠÑĢÑĥÐº":6414,"ĠÐ¾ÑĢÐ³Ð°Ð½Ð¸Ð·Ð¼Ð°":6415,"ĠÐĳÐµÐ»Ð°ÑĢÑĥ":6416,"ĠÐ³Ð¾ÑģÑĥÐ´Ð°ÑĢÑģÑĤÐ²Ð°":6417,"ÑħÐ¾Ð¼":6418,"Ð½Ð¸ÑĤÐµÐ»ÑĮÐ½Ð¾":6419,"ÑħÐ¾Ð¶Ð´ÐµÐ½Ð¸Ñı":6420,"ind":6421,"RU":6422,"ÐłÐµ":6423,"ÐĽÐ¯":6424,"IP":6425,"447":6426,"ĠÐļÑĢÐ°ÑģÐ½Ð¾":6427,"ĠÐ¿Ð¾Ð»Ñı":6428,"ĠÐŀÑģÐ¾Ð±":6429,"ÐµÑħÐ°":6430,"Ð¾Ð¸Ð·Ð²Ð¾Ð´":6431,"ĠÑĦÐ°ÑĢ":6432,"826":6433,"ÑģÑĤÐ²Ð¸ÐµÐ¼":6434,"ĠÐºÐ°Ð½Ð°":6435,"896":6436,"ĠWindows":6437,"ÑĪÐ°ÑİÑĤ":6438,"ĠÐ¼Ð°ÑĢÑĪÑĢÑĥ":6439,"ÑĮÐ¼Ð¸":6440,"ĠÐļÐ¸ÑĤÐ°":6441,"ĠÐ·Ð²ÐµÐ·":6442,"ĠÐ²ÑĭÑģÑĤÑĥÐ¿Ð°":6443,"ĠÑģÐ²ÐµÐ´ÐµÐ½Ð¸Ñı":6444,"Ð¾ÑĤÐ²ÑĢÐ°":6445,"ĠÑĪÐºÐ¾Ð»Ñĭ":6446,"ĠÐºÑĥÑĢÑģ":6447,"ĠÐ·Ð¾Ð»":6448,"%,":6449,"ĠÐ²Ð¸ÑĤÐ°Ð¼Ð¸":6450,"ĠÐŁÐ¾Ð»Ñĥ":6451,"ĠÑĥÐ²Ð°":6452,"ĠÐľÐµÑĤ":6453,"Ð±ÑĥÑĢÐ³Ðµ":6454,"ĠÐ²Ð¾ÑģÐ¿Ð¸ÑĤÐ°":6455,"ĠÐ½Ð°Ð¿ÑĢÐ°Ð²Ð»ÐµÐ½Ð¸Ñı":6456,"ĠÐ»Ð¸Ð½Ð¸Ð¸":6457,"ĠÐ¿Ð¾Ð»Ð¾Ð¶ÐµÐ½Ð¸Ñı":6458,"ĠÐľÐ¸ÑħÐ°":6459,"Ð¾Ð½Ð½ÑĭÐµ":6460,"ĠÐľÐ¾ÑĢ":6461,"ÑĤÐ½Ð°Ñı":6462,"ĠÑĤÐ¾Ð¹":6463,"ÑĢÐ¾Ð²Ð°Ð½Ð¾":6464,"Ð¾Ð¸Ð·Ð²Ð¾Ð´Ð¸ÑĤÐµÐ»ÑĮ":6465,"Ð¿ÐµÑĢÐ²ÑĭÐµ":6466,"ĠÐŁÐ¾Ð¼":6467,"233":6468,"Ð¾Ð¶Ð°Ð»":6469,"ÑĮÐµÑĢÐ°":6470,"ÐĿÐ¸":6471,"Ð»ÐµÐ½Ð½Ð°Ñı":6472,"ĠÐ¶Ð°":6473,"ĠÐ¿Ð¾Ð»Ðµ":6474,"ĠÐ²ÐµÐ½ÑĤÐ¸Ð»Ñı":6475,"Ð½Ð¾Ð²ÐµÐ½Ð¸Ñı":6476,"2011":6477,"ĠÑģÐ½Ð¸Ð¼Ð°":6478,"Ð½Ð¸Ð±ÑĥÐ´ÑĮ":6479,"ary":6480,"ÐºÐ»Ð°Ð´ÐºÐ¸":6481,"Ð¸ÑĤÐµ":6482,"ĠÐ°Ð²ÑĤÐ¾Ð¼Ð¾Ð±Ð¸Ð»ÐµÐ¹":6483,"ĠÐ¿Ð¾Ð»ÑĥÑĩÐ¸Ð»":6484,"Ġde":6485,"Ð¶ÐµÐ½Ð¸ÐµÐ¼":6486,"ĠÑģÑĤÐµÐ¿ÐµÐ½Ð¸":6487,"ĠÂ·":6488,"ÑĢÐ¾Ð¼Ð°":6489,"ÐĲÐ¡":6490,"Ð¾Ð¿Ð¾Ð»ÑĮ":6491,"Ð¶ÑĥÑĤ":6492,"Ġphp":6493,"ĠÐ°ÐºÑĨÐ¸Ð¸":6494,"nÐ³":6495,"ĠÑģÐ»Ð¾":6496,"ĠÐ¼Ð°Ð½":6497,"nÐĽÐµ":6498,"ĠÐ³Ñĥ":6499,"ĠÑĢÐµÐ°Ð»ÑĮ":6500,"ĠÐ´Ð¾Ð»Ð»Ð°ÑĢÐ¾Ð²":6501,"ĠÐ½Ð¾Ð¶":6502,"ÑīÐ¸ÐºÐ°":6503,"ĠÐĺÐ¼ÐµÐ½Ð½Ð¾":6504,"ÑĢÐ¾Ð²Ð°Ð½Ð¸Ð¸":6505,"ĠÐ´Ð¸ÑģÐº":6506,"ĠÐ²ÐµÑīÐµÑģÑĤÐ²":6507,"353":6508,"ta":6509,"ĠÐ¿Ð¾ÐºÐ¾Ð»":6510,"ĠÐ¡ÐµÐ¼":6511,"ĠÑģÑĤÐ°ÑĤÐ¸":6512,"ĠÐ·Ð°ÐºÐ¾Ð½Ð°":6513,"ÐĿÐµ":6514,"Ð¿ÐµÑĢÐµ":6515,"ĠÑģÑĤÐ¾ÑĢÐ¾Ð½Ñĥ":6516,"ĠÑģÐ¾Ð³Ð»Ð°Ñģ":6517,"Ð³Ð¾Ð¼":6518,"ÑĢÐºÑĥÑĤ":6519,"454":6520,"ÑĢÐ½ÑĭÐµ":6521,"ÑĩÑĤÐ¾":6522,"Ð»ÐµÑĨ":6523,"ĠÐ¼Ð¾Ð´Ñĥ":6524,"217":6525,"Ð¾ÑĩÐºÑĥ":6526,"ĠÐ¿Ð¾Ð´ÑħÐ¾Ð´":6527,"oy":6528,"ĠÑĥÑģÑĤÑĢÐ¾Ð¹ÑģÑĤÐ²Ð¾":6529,"nÐĺÐ½ÑĦÐ¾ÑĢÐ¼Ð°ÑĨÐ¸Ñı":6530,"va":6531,"Ð»Ð°Ð¶":6532,"Ð»ÐµÐºÑģÐµÐ¹":6533,"').":6534,"ÑģÑĤÐµÐ¹":6535,"ĠÑĤÐºÐ°Ð½Ð¸":6536,"nÐĺÐ¼Ñı":6537,"ĠAl":6538,"nÐŀÐ¿Ð¸ÑģÐ°Ð½Ð¸Ðµ":6539,"ĠÑģÐ¾Ð¾Ð±ÑīÐ°ÐµÑĤ":6540,"ÑģÑĤÐ²ÑĥÐ¹ÑĤÐµ":6541,"ĠÑģÐµÑĢÐ¸":6542,"ĠÑĤÐµÐ¼Ðµ":6543,"ĠÐ¿Ð¾ÐºÑĥÐ¿ÐºÐ¸":6544,"663":6545,"top":6546,"557":6547,"Ð»ÐµÐºÐ¾":6548,"Â»:":6549,"ĠÐ¿ÑĥÐ±Ð»Ð¸ÐºÐ°ÑĨÐ¸Ð¸":6550,"ros":6551,"ĠÑĦÑĢÐ°Ð½":6552,"152":6553,"ĠÐ¿ÑĤÐ¸":6554,"nÐŀÑĤÐ¿ÑĢÐ°Ð²Ð¸ÑĤÑĮ":6555,"ĠÑģÐ¾Ð³Ð»Ð°ÑģÐ½Ð¾":6556,"Ġ04":6557,"Ð²Ð¾ÑģÑĤ":6558,"ÑģÐ¸Ð¹":6559,"ĠÐ²Ð¾ÑģÐ¿Ð¾Ð»ÑĮÐ·Ð¾Ð²Ð°":6560,"656":6561,"ÑģÐ»Ð°Ð²":6562,"âĨ":6563,"ĠÐ¿Ð¾Ð½ÑıÑĤÑĮ":6564,"ÐµÑĢÑĥ":6565,"ĠÑĢÐ°Ð·Ð´ÐµÐ»":6566,"Ð»ÑıÑĨÐ¸Ð¸":6567,"Ð¾Ð±ÑĢÐ°Ð·Ð¾Ð²Ð°":6568,"ina":6569,"ĠÐĶÐ":6570,"ĠÑĤÐ°Ð±":6571,"ĠÐ½Ð°Ð·Ð²Ð°Ð½Ð¸Ðµ":6572,"ĠÑĨÐµÐ½Ñĥ":6573,"ĠÐ½Ð°Ñĩ":6574,"ĠÑģÐ¾Ð¼":6575,"Ð¸Ð·Ð½ÐµÑģ":6576,"ĠÐ¾Ð±ÐµÑģÐ¿ÐµÑĩÐ¸Ð²Ð°ÐµÑĤ":6577,"Ð°Ð¿":6578,"ĠÐ¸Ð¼Ð¸":6579,"ĠÑįÐ¿Ð¸":6580,"âĦĸ":6581,"ĠÐ¾ÑģÐ½Ð¾Ð²Ð½ÑĭÑħ":6582,"ĠÐ½ÐµÐ²Ð¾Ð·Ð¼Ð¾Ð¶Ð½Ð¾":6583,"122":6584,"ĠÐ¢Ð¸":6585,"ÑģÑģÐ¸Ñı":6586,"sr":6587,"ÑĨÐ¸Ð¾Ð½Ð½Ð¾":6588,"ĠÐ·Ð´Ð¾ÑĢÐ¾Ð²ÑĮÐµ":6589,"Ġ2008":6590,"ĠÐĶÐ¾":6591,"ÐĶÐĺ":6592,"ĠÐ¼Ð°Ð³Ð°Ð·Ð¸Ð½":6593,"ĠÑĥÑĤÑĢÐ°":6594,"ÑĨÑĥÐ·":6595,"ĠÐĴÐ°ÑĪ":6596,"ĠÑĢÐ°ÑģÑĤÐ¸":6597,"ĠÐ¿Ð¾Ð»Ð½Ð¾Ð¼":6598,"ÑģÑĤÑĢÑĭÐ¹":6599,"ÐŀÐŁ":6600,"ÑĢÑĥÑİÑĤÑģÑı":6601,"ĠÑĤÐ°ÐºÐ¾Ð¼":6602,"ĠÐ¸Ð½ÑģÑĤÐ¸ÑĤÑĥ":6603,"ĠÐ´Ñĭ":6604,"Ð¾ÑĢÑĥÑģ":6605,"ĠiP":6606,"ĠÐ¿Ð¾Ð²ÐµÑĢÑħÐ½Ð¾ÑģÑĤÑĮ":6607,"OT":6608,"Ð½ÑıÑİÑĤ":6609,"ĠÐ¿Ð¾ÑĢÑĤ":6610,"ĠÐ»ÑİÐ±Ð¾Ðµ":6611,"453":6612,"ĠÑĢÐ°Ð½ÑĮ":6613,"nReply":6614,"ĠÐ¿Ð¾Ð»Ð°":6615,"ĠÑįÐ»ÐµÐ¼ÐµÐ½ÑĤÑĭ":6616,"111":6617,"ĠÐłÐµÐº":6618,"ET":6619,"834":6620,"ĠÑģÐ¾ÑģÑĤÐ¾ÑıÐ½Ð¸Ñı":6621,"ÑİÐ¼Ðµ":6622,"ÑĩÐµÐµ":6623,"216":6624,"ÑıÐ·":6625,"IL":6626,"893":6627,"ĠÑĢÐ°Ð½ÑĮÑĪÐµ":6628,"ĠÐ¿Ð°Ð¼ÑıÑĤÐ¸":6629,"ÑĢÐ¾Ð¶":6630,"ÑĤÐ¸Ð²Ñĭ":6631,"ĠÑģÐ¾Ð±Ð°":6632,"ĠÐ¿Ð¾Ð·Ð½Ð°":6633,"ĠÐĹÐ½Ð°":6634,"ĠÐ¿Ð¾Ð·Ð²Ð¾Ð»Ð¸ÑĤ":6635,"ĠÑģÑħÐµÐ¼":6636,"ÐļÐ¢":6637,"ĠÐ±Ð¾Ðµ":6638,"ĠÑĢÐ°Ð²Ð½Ð¾":6639,"Ð·Ð¸Ð´ÐµÐ½ÑĤÐ°":6640,"ĠÐ»ÐµÑģ":6641,"Ð³ÐµÐ»ÑĮ":6642,"ÑĩÑĳÑĤ":6643,"Ð½Ð°Ð±":6644,"850":6645,"old":6646,"ÑĨÐ°Ð¼":6647,"und":6648,"CS":6649,"ÐļÐ¾Ð¼":6650,"ĠÑĪÐ°ÑĢ":6651,"ust":6652,"ĠÐ¾Ð±Ð½Ð°ÑĢÑĥÐ¶Ð¸":6653,"ĠÑĤÐµÐ»ÐµÑĦÐ¾Ð½Ñĥ":6654,"ĠÐ²ÐµÑīÐµÑģÑĤÐ²Ð°":6655,"rad":6656,"ĠÑģÑĢÐ¾ÐºÐ¸":6657,"nÐ¡Ð¸":6658,"ÑīÐ¸ÐºÐ¸":6659,"ĠÑĢÐµÐ·ÑĥÐ»ÑĮÑĤÐ°ÑĤÑĭ":6660,"Ð¼Ð¸Ñı":6661,"PS":6662,"ÑıÑĤÐ½Ð¾":6663,"ÐµÐ½Ð¾Ñģ":6664,"ĠÐĳÐ°Ð½":6665,"ĠÐ½Ð°ÑģÑĤÐ¾ÑıÑīÐµÐµ":6666,"Ð°Ð¹ÑĤ":6667,"Ð´ÑĥÐ¼Ð°":6668,"ĠÑĢÐ¸ÑģÐº":6669,"ĠÐĶÐµÐ½ÑĮ":6670,"ĠÐĿÐµÐº":6671,"ÑĢÐµÐ½Ð¸Ðµ":6672,"ĠÐ¾Ð±ÑĢÐ°ÑĤÐ¸ÑĤÑĮÑģÑı":6673,"Ð¿ÑĤ":6674,"ĠÐºÐ¸Ð½Ð¾":6675,"Ð·Ð°Ð½":6676,"Ð¶Ð¸Ð³Ð°":6677,"ÐĲÐ²":6678,"ĠÐ±Ð¾Ð»ÐµÐ·Ð½Ð¸":6679,"077":6680,"ĠÑĢÐ°ÑģÑģÑĤÐ¾Ñı":6681,"754":6682,"ĠÑĤÐµÐºÑģÑĤ":6683,"ÑĤÐ¸ÐµÐ¼":6684,"ĠÑģÑĥÐ¼Ð¼Ñĥ":6685,"803":6686,"ĠÑĥÐ¼ÐµÑĢ":6687,"ĠÐļÐ°Ð¼":6688,"ĠÐ¿ÑĢÐµÐ´ÐµÐ»Ð°":6689,"ĠÐ¢Ð¾Ð¼":6690,"nÐĵÐ°":6691,"ĠÐºÐ¾Ð½ÑĤ":6692,"ĠÐ´Ð¾ÑģÑĤÐ°Ð²ÐºÐ°":6693,"ĠÑĥÐ¿ÑĢÐ°Ð²Ð»ÐµÐ½Ð¸Ðµ":6694,"ĠÑĢÐ°Ð±Ð¾ÑĤÐ°ÑİÑĤ":6695,"Ð¡Ð¸":6696,"ÑĢÐ¾ÑģÐ»Ð°Ð²":6697,"Ġj":6698,"ÑĥÑĤÐ±Ñĥ":6699,"Ð°Ð¹ÑĤÐµ":6700,"466":6701,"ĠÐ²Ð¿ÐµÑĩÐ°ÑĤ":6702,"nÐŁÑĢÐ°Ð²Ð¸":6703,"ĠÐ¿Ð¾Ð¶Ð°ÑĢ":6704,"ĠÐ´ÐµÑĤÐ°Ð»Ð¸":6705,"ĠÐ¿ÑĢÐ¸ÑĪ":6706,"ĠÑĤÐµÐ¼Ð¿ÐµÑĢÐ°ÑĤÑĥÑĢÑĭ":6707,"ĠÑĥÐ´Ð¾Ð²Ð¾Ð»ÑĮ":6708,"port":6709,"ĠÐ´Ð¸Ð°Ð¼ÐµÑĤ":6710,"ĠÐ°Ð´Ð¼Ð¸Ð½Ð¸ÑģÑĤÑĢÐ°ÑĤÐ¾ÑĢÐ¾Ð¼":6711,"ĠÐ´Ð¾Ð¼Ð¾Ð²":6712,"ĠÐ°Ð´ÑĢÐµÑģÑĥ":6713,"ĠÐ¼Ð°ÑĢÐºÐ¸":6714,"/\\":6715,"product":6716,"ĠÐ¾ÑĤÐ²ÐµÑĢÑģÑĤÐ¸":6717,"ÑĢÐ¸Ñģ":6718,"ĠÐ·Ð°Ð¼ÐµÑĩÐ°":6719,"ĠÐ·Ð°ÑıÐ²ÐºÑĥ":6720,"ĠÐ½Ð°Ð±Ð¾ÑĢ":6721,"ï¿½ï¿½ï¿½ï¿½ï¿½ï¿½ï¿½ï¿½ï¿½ï¿½ï¿½ï¿½ï¿½ï¿½ï¿½ï¿½":6722,"nÐĴÐ°ÑĪ":6723,"ĠÐ¿Ð¾ÑģÐ°Ð´":6724,"ĠÐ²Ð°ÑĪÐµÐ¼":6725,"ĠÐ¸Ð·Ð¼ÐµÐ½Ð¸":6726,"ĠÐ¿Ð¾ÑıÑģ":6727,"ĠÐ°Ð´Ð¼Ð¸Ð½Ð¸ÑģÑĤÑĢÐ°ÑĨÐ¸Ð¸":6728,"ÐµÐ¼Ð¾Ð³Ð¾":6729,"250":6730,"ĠÐłÐ¸":6731,"ĠÐ·Ð°ÑĢÐ°":6732,"ĠÐŀÐĳ":6733,"Ð½Ð°ÑĩÐµ":6734,"ĠÐ±ÑĥÐ´ÐµÑĤÐµ":6735,"ĠÐľÐŀ":6736,"ĠÐ¾Ð´Ð½":6737,"ĠÐ¾ÑĤÐ»Ð¸ÑĩÐ°ÐµÑĤÑģÑı":6738,"ĠÐ·Ð°ÑīÐ¸ÑīÐµÐ½Ñĭ":6739,"Ð»Ð¾Ðµ":6740,"ÐłÐ°":6741,"nÐĴÐ":6742,"ĠÑĤÑīÐ°":6743,"Ġif":6744,"ÐµÐ²Ð":6745,"193":6746,"ÑģÑĤÐ°Ð»":6747,"ÐµÐ²Ð¾":6748,"nÐĴÐ¾":6749,"Ð²Ð¸Ð»":6750,"ĠÐ¼Ð¾Ð³Ð»Ð¸":6751,"9900":6752,"MW":6753,"nO":6754,"ĠÑģÐ¿ÐµÑĨ":6755,"ĠÐ¿Ð¾Ð¼ÐµÑīÐµÐ½Ð¸Ð¹":6756,"444":6757,"ĠÑħÐ¾Ð´Ðµ":6758,"ĠÑĢÐ°ÑģÐ¿ÑĢÐµÐ´Ðµ":6759,"ĠÐ¿ÑĢÐµÑģÑģ":6760,"Ð²Ð°Ð¹":6761,"ÐĿÐ«Ðķ":6762,"ĠÐ¿Ð¾Ð±ÐµÐ´Ð¸":6763,"Ð¼Ð¸ÑĤÑĮ":6764,"ĠÑĢÐµÐºÐ»Ð°Ð¼":6765,"Ð¼Ð°Ñħ":6766,"ĠÑģÐ¾ÑĢ":6767,"012":6768,"ĠÐ¸Ð´":6769,"ĠÐ¼Ð¸ÑĢÐ¾Ð²":6770,"ĠÑģÑĢÐµÐ´ÑģÑĤÐ²Ð¾":6771,"Ġ34":6772,"ĠÐ¿ÑĢÐ¾Ð¿Ñĥ":6773,"Ð²Ð°Ð½Ð¸Ð¸":6774,"nÐŁÐ¾Ð´ÐµÐ»Ð¸ÑĤÑĮÑģÑı":6775,"ĠÐ¾Ð±Ð¼ÐµÐ½":6776,"ĠÐ¾ÑĦÐ¾ÑĢÐ¼Ð»ÐµÐ½Ð¸Ñı":6777,"Ð²Ð¾Ð¼":6778,"094":6779,"ÑĤÐµÐ»ÑĮÐ½ÑĥÑİ":6780,"ĠÐĴÑģ":6781,"ĠÐ³ÑĢÑĥÐ´":6782,"Ð¶Ð°ÑİÑĤ":6783,"ĠÐ°Ð²ÑĤÐ¾Ð¼Ð¾Ð±Ð¸Ð»ÑĮ":6784,"ĠÐĺÑħ":6785,"ĠÐ¿Ð¾ÑģÐ¼Ð¾ÑĤÑĢÐµÑĤÑĮ":6786,"ĠÑĢÐ°Ð·ÑĢÑĥ":6787,"ĠÐ¼Ð°Ð¼":6788,"ĠÐºÐ¾Ð¼Ð¼ÐµÑĢ":6789,"ÑĢÐ½ÑĭÑħ":6790,"ĠÑģÑĤÑĢÐ°Ñħ":6791,"ÑįÐ½ÐµÑĢ":6792,"ĠÐ²ÐµÑĢÑģÐ¸Ð¸":6793,"Ð»Ð¾Ð²Ð¾Ð¹":6794,"âĶĢ":6795,"ĠÐ²Ð·Ð°Ð¸Ð¼Ð¾Ð´ÐµÐ¹":6796,"ĠÐ¢Ð¾Ð»ÑĮÐºÐ¾":6797,"ĠÐµÐ¶ÐµÐ´Ð½ÐµÐ²":6798,"ĠÐ½ÐµÐ¾Ð±Ñĭ":6799,"Ð±ÑĢÐ°ÑĤÑĮ":6800,"ĠÑĤÑĢÑĥÐ´Ð¾Ð²":6801,"ĠÐ¾Ð¿ÑĢÐµÐ´ÐµÐ»Ð¸ÑĤÑĮ":6802,"ĠÑĩÐ¸ÑģÐ»Ð¾":6803,"ĠÐ½Ð°ÑĩÐ°ÑĤÑĮ":6804,"ian":6805,"ÑĢÐ¸ÑĨÐ°":6806,"oft":6807,"ĠÐ¢Ð":6808,"ĠÐ³Ð»Ð°Ð²Ð½Ð¾Ðµ":6809,"Ð¾Ð²Ð":6810,"ĠÐ¼ÐµÐ±ÐµÐ»ÑĮ":6811,"ÐµÑĢÐµÐ¹":6812,"ĠÐ´ÐµÐ»Ð°ÑİÑĤ":6813,"Ð¾Ð²Ð¾":6814,"ĠÐ¿ÑĢÐµÐ´Ð¾ÑĤÐ²ÑĢÐ°":6815,"Ð¾Ð»ÑĮÑĪÐµ":6816,"ĠÐ¼Ð¾Ð´ÐµÑĢÐ°":6817,"Ð»ÐµÐ½Ð½ÑĭÐ¼":6818,"ĠÐ¾ÑĢÐ³Ð°Ð½Ð¸Ð·Ð¾Ð²Ð°":6819,"756":6820,"9920":6821,"ĠÐ´ÑĢÑĥÐ³Ð¾Ðµ":6822,"ĠÐ¿ÑĢÐ¾Ð²ÐµÑģÑĤÐ¸":6823,"ĠÐ¿Ð¾Ð»ÑĥÑĩÐ°ÑĤÑĮ":6824,"ÑİÐº":6825,"ĠÑĤÐµÑĢÐ°Ð¿Ð¸":6826,"ĠÑģÐ¿Ð¾ÐºÐ¾Ð¹":6827,"Ð²ÑĭÐ¼Ð¸":6828,"ĠÐĲÐ»ÐµÐº":6829,"ĠÐ²ÑĭÐ±Ð¾ÑĢÐ°":6830,"Ġ----":6831,"nÐ§Ð°":6832,"ÑĢÐ¾Ð´Ð°":6833,"so":6834,"ÑīÐµÐ½Ð":6835,"ÑīÐµÐ½Ð¾":6836,"ĠÐļÐ»Ð¸":6837,"Ð¾ÐºÐ°Ñı":6838,"ĠÐ¢Ð¾":6839,"ĠÐ±ÐµÑĢÐµÐ¼ÐµÐ½Ð½Ð¾ÑģÑĤÐ¸":6840,"ĠÐ¾ÑĤÐ¿ÑĢÐ°Ð²Ð¸":6841,"ĠÐ¼Ð°Ð»ÑĮ":6842,"ĠphpBB":6843,"ĠÐ·Ð°Ð¼ÐµÑĤ":6844,"Ð¾Ð½Ð¸ÑĤÐ¾ÑĢ":6845,"ek":6846,"if":6847,"ĠÐ¸Ð·Ð¾Ð±ÑĢÐ°Ð¶ÐµÐ½Ð¸Ñı":6848,"Ð±Ð¸ÑĢÐ°ÑĤÑĮ":6849,"ĠÐŃÑĤÐ°":6850,"ÐºÑĥÐ´Ð°":6851,"ĠÑįÐ»ÐµÐ¼ÐµÐ½ÑĤÐ¾Ð²":6852,"ĠÐĳÐ¾Ð³":6853,"nÐ¢Ð°ÐºÐ¶Ðµ":6854,"ĠÑģÐ¿Ð¾ÑģÐ¾Ð±Ð¾Ð¼":6855,"ĠÑħÐ¾ÑĤÐµÐ»":6856,"ĠÐ¿ÑĢÐµÐ´Ð¿Ð¾Ð»Ð°Ð³Ð°":6857,"763":6858,"ĠÐºÐ²":6859,"ĠÐ½Ð°ÑħÐ¾Ð´ÑıÑĤÑģÑı":6860,"ĠÑĢÐ°ÑģÐºÑĢÑĭ":6861,"Ð¾Ð¶Ð¸Ðµ":6862,"ich":6863,"ĠÐ¿ÑĥÐ½ÐºÑĤ":6864,"ĠÑĥÐ½Ð¸Ð²ÐµÑĢÑģÐ°":6865,"ĠÐ°Ð½Ð°Ð»Ð¾Ð³Ð¸":6866,"ĠÑĥÐ²Ð¸Ð´ÐµÑĤÑĮ":6867,"ĠÐ²ÑĭÐ¿Ð¾Ð»Ð½ÐµÐ½Ð¸Ñı":6868,"DEB":6869,"pl":6870,"ĠÐ²Ð¾ÑģÐ¿Ð°":6871,"ÑīÐ¸Ð½Ð°":6872,"ĠÐ¡Ð¾Ð»":6873,"ĠÐ´ÐµÐ¹ÑģÑĤÐ²Ð¸Ðµ":6874,"ĠÐ¢ÐµÐ¿ÐµÑĢÑĮ":6875,"Ð³Ð°ÑĢ":6876,"Ð±ÑĢÐ¸":6877,"ÑĢÐµÐ»":6878,"ĠÐ¿Ð»Ð¸ÑĤ":6879,"ĠÐłÑĭ":6880,"ĠÐ¾ÑģÐ½Ð¾Ð²Ð½Ð¾Ð¼":6881,"ÑģÑĤÐ²Ð¾Ð²Ð°":6882,"Â·":6883,"Ð»ÑĥÐ¶":6884,"Ġ32":6885,"99837":6886,"ÑĤÐ°ÐºÐ¸":6887,"ĠÐ¸Ð·Ð¼ÐµÑĢ":6888,"ÑĨÐºÐ¸Ð¹":6889,"ĠÐ¿Ð¾Ð¶Ð°Ð»ÑĥÐ¹ÑģÑĤÐ°":6890,"ĠÐĹÐµÐ¼":6891,"Ð¶Ð½Ð¾ÑģÑĤÑĮ":6892,"ĠÑĩÐµÐ¼Ð¿Ð¸Ð¾Ð½Ð°":6893,"757":6894,"ÑģÐ":6895,"ĠÐ¡Ðº":6896,"ĠÑħÐ¾ÑĩÐµÑĤ":6897,"ĠÐ¾ÑĤÐ»Ð¸ÑĩÐ½Ð¾":6898,"che":6899,"ÑĢÐµÐ²Ðµ":6900,"IX":6901,"ĠÑģÐ²Ð¸":6902,"ÑģÐ¾":6903,"Ġl":6904,"ĠÐ¡Ð¼":6905,"897":6906,"ĠÑĤÐµÑħÐ½Ð¸ÐºÐ°":6907,"ĠÐ¸Ð½ÑĤÐµÑĢÐµÑģÐ½Ð¾":6908,"Ð¾ÑĢÐ¸Ð·":6909,"ĠÑģÐ¿ÐµÑĨÐ¸Ð°Ð»Ð¸ÑģÑĤÐ¾Ð²":6910,"ĠÐ¿Ð¾Ð»Ð¸ÑĤÐ¸ÐºÐ¸":6911,"816":6912,"ĠÐºÐ°ÑģÐ°ÐµÑĤÑģÑı":6913,"roid":6914,"Ð¡Ð¢Ðĺ":6915,"Ð½Ð¾Ð½Ð¸Ð¼":6916,"ĠÐĵÐµ":6917,"ÑĢÐ¾Ð²Ð¸Ñĩ":6918,"ĠÐ±ÑĢÐ¸":6919,"ÐµÐ¹ÑĤÐ¸Ð½Ð³":6920,"ĠÐ¿Ð¾Ð´Ð²ÐµÑĢ":6921,"________________":6922,"ĠÐ¾Ð¿ÐµÑĢÐ°ÑĨÐ¸Ð¸":6923,"pri":6924,"ĠÑģÐ²ÐµÑĢÑħ":6925,"ĠÐ°ÑĢÑħÐ¸ÑĤÐµ":6926,"774":6927,"ĠÐ»ÑİÐ±ÑĭÐµ":6928,"ĠÑĩÐ°Ð¹":6929,"474":6930,"ĠÐ½Ð°ÑĢÐº":6931,"ÑĤÐ¾Ð²Ð¾Ð¹":6932,"9866":6933,"ĠÑģÐ´Ð°":6934,"ĠÐ¿ÑĢÐ¸Ð¾Ð±ÑĢÐµÑģÑĤÐ¸":6935,"ĠÐ¾Ð±Ð»Ð°Ð´Ð°ÐµÑĤ":6936,"nÐłÐ°Ñģ":6937,"ĠÐ¿ÑĢÐ¾ÑĤÐ¸":6938,"ĠÐ°ÑģÑģÐ¾ÑĢÑĤÐ¸":6939,"ĠÐ¾ÑĤÐ´Ð°":6940,"ĠÐ°Ð²ÑĤÐ¾Ð¼Ð°ÑĤ":6941,"nÐŁÐ¾Ð»Ð¸ÑĤÐ¸ÐºÐ°":6942,"ĠÐ¢ÐµÑĢ":6943,"825":6944,"ĠÐ¾Ð±ÑĬÐµÐ´Ð¸Ð½":6945,"EX":6946,"ĠÑįÐºÑģÐ¿Ðµ":6947,"ĠÐĲÐ½Ð³":6948,"887":6949,"ĠÐºÐ¾Ð½ÑĨÐ°":6950,"ĠÐ¿ÑıÑĤÑĮ":6951,"Ð³Ð¾Ð²Ð¾ÑĢ":6952,"ĠÐ½Ð°ÑĢÑĥÑĪÐµÐ½Ð¸Ñı":6953,"SB":6954,"ĠÐ¿ÑĢÐ¾Ð·":6955,"ith":6956,"ĠÐ½Ð°ÑģÑĤÑĢÐ¾":6957,"ĠÐŀÑĩÐµÐ½ÑĮ":6958,"063":6959,"ĠÐºÐ¾Ð½Ð´Ð¸":6960,"ĠÐ¿ÐµÐ´Ð°Ð³":6961,"ĠÐ½ÐµÐ³Ð°":6962,"ĠÑģÑĤÐ¾Ð¹":6963,"ÑĢÐ¾ÐºÐ¸":6964,"112":6965,"ÑīÐµÐ½Ð°":6966,"ĠAr":6967,"hone":6968,"Ð´Ð²Ð¸":6969,"ĠÑģÐµÑĢÐ´":6970,"ĠÐ¿Ð¾ÑĢÐ°":6971,"ÑģÑĤÑĢÑĭ":6972,"ĠÐ¿Ð°ÑĢÑĥ":6973,"ĠÐ¸Ð·Ð²ÐµÑģÑĤÐ½Ð¾":6974,"Ð²ÑĮÑİ":6975,"Ð½Ð½Ð°Ñı":6976,"ĠÐ¾ÑĤÐ¼ÐµÑĤÐ¸ÑĤÑĮ":6977,"ĠÐ¿ÑĢÐ¾Ð¸Ð·Ð²Ð¾Ð´ÑģÑĤÐ²Ð¾":6978,"ug":6979,"ĠÐ´Ð°Ð²Ð»ÐµÐ½Ð¸Ñı":6980,"ĠÐºÐ¾ÑĢÐ¸":6981,"ĠÐ¼ÐµÐ½Ñİ":6982,"ĠÐ¡ÐµÐ³Ð¾Ð´Ð½Ñı":6983,"ĠÑģÐ°Ð¼Ð":6984,"ÑĤÐ¸Ð²Ð¸":6985,"ĠÑģÐ°Ð¼Ð¾":6986,"ĠÐ²ÐµÐ´":6987,"Ð¸Ð½ÑĤÐµÑĢÐµÑģ":6988,"ĠÑģÑĤÐµÐ½Ñĭ":6989,"ĠÐ´Ð°ÑĤ":6990,"ĠÐ»Ð¸ÑĪ":6991,"ĠÐ´Ð¸ÑĢÐµÐºÑĤÐ¾ÑĢ":6992,"ĠÐ³ÑĢÑĥÐ½":6993,"ĠÐ³Ð¸Ð¿":6994,"ĠÑĦÑĢÑĥ":6995,"118":6996,"ÑĦÐ¸Ð»ÑĮ":6997,"ĠÐºÐ»Ð°ÑģÑģÐ°":6998,"567":6999,"sung":7000,"ÑīÑĥ":7001,"ĠÐ»Ð¸ÑģÑĤÑĮ":7002,"ĠÐ¾ÑģÑĤÐ°Ð²":7003,"ens":7004,"ĠÐ¸Ð·Ð´Ð°":7005,"ĠÑĦÑĥÐ½Ð´Ð°":7006,"ĠÐļÐ¸ÑĤÐ°Ð¹":7007,"ĠÐķÐ²Ð³":7008,"242":7009,"ĠÐ½Ð°Ð¿Ð¾Ð»":7010,"Ġus":7011,"ÑĩÐµÑĢÐ°":7012,"ĠÑĢÐ¾ÑģÑĤÐ°":7013,"ĠÂ»\\":7014,"ĠÐľÐµÐ¶Ð´ÑĥÐ½Ð°ÑĢÐ¾Ð´":7015,"ĠÑģÐ¼Ð¾Ð¶ÐµÑĤ":7016,"99866":7017,"ĠÑģÐ¾ÑĤÑĢÑĥÐ´Ð½Ð¸ÐºÐ¾Ð²":7018,"IC":7019,"Ġ00":7020,"ÑĥÐ±Ð°":7021,"ĠÐºÐ¾Ð»ÑĮ":7022,"ĠÐ³Ð¾Ð²Ð¾ÑĢÐ¸ÑĤÑĮ":7023,"086":7024,"ĠÐ¾ÑĤÐ¾Ð¿":7025,"ÐĶÐŀ":7026,"ÐĺÐ¡":7027,"ĠÐ¨Ð¸":7028,"ĠÐ³Ð¸Ð´":7029,"ÑħÐ½Ð¸ÐºÐ°":7030,"nÐļÐ¾ÑĢ":7031,"ĠÑĢÐµÑģÐ¿ÑĥÐ±Ð»Ð¸":7032,"Ġ2023":7033,"110":7034,"ĠÐ¾Ð´Ð½Ð¾Ð²ÑĢÐµÐ¼ÐµÐ½Ð½Ð¾":7035,"ĠÑģÑĢÐ¾ÐºÐ°":7036,"ĠÐ¥Ð°":7037,"ÑĨÐµÐ¹":7038,"ÑĢÐ°ÑĤÐ½Ð¾":7039,"ĠÐľÐ°ÐºÑģÐ¸":7040,"roup":7041,"ĠÐ¾Ð¿ÑĤÐ¸Ð¼Ð°":7042,"753":7043,"ĠÐºÐ¾Ð¶Ñĥ":7044,"Ð²ÑĪÐ¸ÑģÑĮ":7045,"amsung":7046,"ĠÐ¼ÐµÑĢÑĭ":7047,"ĠÑģÐ¾Ð´ÐµÑĢÐ¶Ð¸ÑĤ":7048,"ĠÐ·Ð°ÑĤ":7049,"ÑĢÐ°Ð·Ð´Ðµ":7050,"ĠÐ¡Ð¿Ðµ":7051,"ĠÐ¾Ð±Ð»Ð¸":7052,"ĠÐ¿ÑĢÐ¸ÑĩÐ¸Ð½Ñĭ":7053,"ĠÑĥÐ¼Ðµ":7054,"Ġ400":7055,"ron":7056,"Ð²ÑıÐ·Ð°":7057,"Ð²Ð¾Ð»Ñİ":7058,"Ð³Ð¾ÑģÑı":7059,"ĠÐĴÐµÐ´ÑĮ":7060,"Ð¾Ð»Ð°Ð³Ð°":7061,"ĠÐ¿Ð¾ÑģÑĤÑĢÐ¾":7062,"ÑģÐ¸Ñİ":7063,"nÐŀÐ½":7064,"Ð»ÑİÐ¼Ð¸":7065,"ĠÑģÐ¾ÑĨÐ¸Ð°Ð»ÑĮÐ½ÑĭÑħ":7066,"Ð³ÑĢÑĥ":7067,"ÑģÑĤÐºÐ¸":7068,"Ð½Ð¾ÑģÑĤÑıÐ¼Ð¸":7069,"ĠGoogle":7070,"ĠÑģÑĤÑĢÐ°Ð½Ð¸ÑĨÐ°":7071,"083":7072,"ÑĢÐ°Ð½Ñģ":7073,"ĠÐ¿ÑĢÐ¸Ð²Ð»Ðµ":7074,"ÐµÐ´ÐµÐ½Ð¸Ðµ":7075,"ĠÐ±Ð°Ð·Ðµ":7076,"ĠÐ½Ð°ÑĥÐºÐ¸":7077,"ĠÐŁÐ»Ð°":7078,"ÑĢÐ½Ð¾Ð³Ð¾":7079,"ĠÐ²Ð·ÑıÑĤÑĮ":7080,"Ð´Ð¸Ð¹":7081,"Ð½ÐµÑĢÑĭ":7082,"ÑĤÐºÐ¾Ð²":7083,"ÐĲÐł":7084,"Ð¾ÐºÐ¾Ð¼":7085,"ÑĢÐµÐ»Ð¸":7086,"ĠÑģÐ²Ð¾ÐµÐ¼Ñĥ":7087,"Ð¾ÑģÐºÑĢÐµÑģ":7088,"ĠÑĪÐºÐ¾Ð»Ð°":7089,"053":7090,"ĠÐ´ÐµÐ¿ÑĥÑĤÐ°ÑĤÐ¾Ð²":7091,"ĠÐ²Ð°ÑĪÐµ":7092,"Ð¾ÑĢÐ°Ð·Ð´Ð¾":7093,"nÐŁÐ¾ÑģÐ»ÐµÐ´":7094,"ĠÐ¾ÐºÐ°Ð·ÑĭÐ²Ð°":7095,"ĠÐ´Ð¾Ð±Ð¸":7096,"nÐŃÐ»ÐµÐºÑĤ":7097,"ĠÐºÐ¾Ð½ÑĤÐ°ÐºÑĤ":7098,"ĠÐ²Ð¾ÑģÐ¿ÑĢÐ¸":7099,"ĠÐ±ÐµÐ½":7100,"catalog":7101,"Ð½Ð¾Ð²Ð¸Ð´":7102,"ĠÑĢÐ°Ð±Ð¾ÑĤÐ¾Ð´Ð°":7103,"..\\":7104,"nÐĺÑģÑĤÐ¾ÑĩÐ½Ð¸Ðº":7105,"ĠÐ¾Ð±ÐµÐ·":7106,"Ð°Ð²Ð¾Ð´":7107,"ĠÐ¿Ð¾Ð»ÑĮÐ·Ð¾Ð²Ð°ÑĤÐµÐ»ÑĮ":7108,"ÑģÑĤÐ²Ð¸Ð¹":7109,"Ð±Ð°Ð²":7110,"url":7111,"ĠÐ¼ÑĥÑģ":7112,"dl":7113,"ĠÐ·Ð°Ð±Ð¾Ð»ÐµÐ²Ð°Ð½Ð¸Ð¹":7114,"883":7115,"ĠÐľÐ¾ÑģÐºÐ¾Ð²ÑģÐºÐ¾Ð¹":7116,"ĠÑĥÐ¿ÑĢÐ°Ð¶":7117,"ĠÐµÐ²ÑĢÐ¾Ð¿ÐµÐ¹":7118,"Ð¼Ð¾Ð·":7119,"ĠÐ¿ÑĢÐ¸Ð½Ð¸Ð¼Ð°ÑĤÑĮ":7120,"ĠÐ²Ð°ÑĢÐ¸Ð°Ð½ÑĤÐ¾Ð²":7121,"nÐĲÐ½":7122,"ĠÑģÐ¾ÑĨ":7123,"\\\\/":7124,"ÑĪÐºÐµ":7125,"ĠÐŁÐłÐŀ":7126,"ĠÐ°Ð²ÑĤÐ¾Ð½Ð¾Ð¼":7127,"ÑģÑĤÐµÑĢÐ°":7128,"ÐµÐ¼Ð¾Ð¹":7129,"2010":7130,"ĠÐºÐ°Ð¿":7131,"Ġ2000":7132,"Ġ1000":7133,"ĠÐ¿ÑĢÐµÐ´ÑĭÐ´Ñĥ":7134,"Ð¾ÐºÑĥÐ¿Ð°":7135,"213":7136,"ĠÐĲÐ½Ð°":7137,"ÑĤÐ°ÑĨÐ¸Ñı":7138,"556":7139,"Ð¿Ð»Ð¾Ð¼":7140,"Ð¾Ð±Ñĥ":7141,"ÑĢÐ¾ÑģÑĤÐ":7142,"ÑĢÐ¾ÑģÑĤÐ¾":7143,"nÐ¤Ð¾ÑĤÐ¾":7144,"Ð¾Ð»ÑĮÐ½ÑĭÐµ":7145,"ÑĢÐµÑģÐ°":7146,"ÐºÐ°ÑĥÐ½":7147,"nÐŁÐ¾Ð»":7148,"ĠÐ¼ÐµÐ±ÐµÐ»Ð¸":7149,"ĠÑģÐ¿Ñĥ":7150,"ĠÐ¾Ð±ÑģÑĤÐ¾Ñı":7151,"ĠÑģÑģÑĭÐ»ÐºÐ°":7152,"ĠÐ²ÐµÑīÐ¸":7153,"ĠÑģÐ¾ÑĨÐ¸Ð°Ð»ÑĮÐ½Ð¾Ð¹":7154,"ĠÑģÐ½Ð°ÑĩÐ°Ð»Ð°":7155,"ĠÑĨÐµÐ»ÐµÐ¹":7156,"Ð¸ÑģÑĤ":7157,"nÐĲÐº":7158,"Î¿":7159,"ĠÐ¼ÐµÑĤÑĢÐ¾Ð²":7160,"ÑĪÐ°Ð»":7161,"ĠÑģÐ¾Ð±Ð»ÑİÐ´":7162,"ÑİÑīÐµÐ¼":7163,"nÐľÑĥ":7164,"824":7165,"ÑĨÐµÐ½Ð°":7166,"ĠÑģÐµÐ»ÑĮÑģÐºÐ¾Ð³Ð¾":7167,"9912":7168,"ĠÐ¿Ð¾Ð½Ð°Ð´":7169,"ĠEx":7170,"ĠÑĥÑĩÐµÐ½":7171,"Ð½Ð¸ÐµÐ¹":7172,"ĠÑĢÐ°ÑģÑģÐºÐ°Ð·Ð°Ð»":7173,"ÐµÐ¼Ð°Ñı":7174,"Ð¼Ð¸ÑĤ":7175,"815":7176,"464":7177,"ĠRe":7178,"ĠÐ»ÑİÐ´ÑıÐ¼":7179,"ĠÐ·Ð°Ð¼ÐµÑĤÐ¸":7180,"ĠÐ¿ÑĢÐ°Ð²Ð¸Ð»":7181,"ĠÐ¿Ð¾Ð¼Ð¾Ð³ÑĥÑĤ":7182,"ĠÐ²Ð°ÑĪÐ¸Ñħ":7183,"ĠÐ²Ð°ÑĢ":7184,"ĠÑĢÐ¾ÑģÑģÐ¸Ð¹ÑģÐºÐ¸Ñħ":7185,"Ð»ÑĮÐµ":7186,"ĠÐ¾Ð±ÑīÐµÑģÑĤÐ²Ð°":7187,"ĠÐ±ÑĭÐ²Ð°ÐµÑĤ":7188,"ĠÑĨÐµÐ½ÑĤÑĢÐ°Ð»ÑĮ":7189,"ĠÐ¿ÑĢÐ¸Ð³Ð¾ÑĤÐ¾Ð²Ð»ÐµÐ½Ð¸Ñı":7190,"ĠÐ½Ð°Ð½ÐµÑģ":7191,"ĠÑĢÐ¾Ð´Ð¸ÑĤÐµÐ»ÐµÐ¹":7192,"ĠÐ¿ÑıÑĤÐ¸":7193,"ĠÐ¾ÑĤÐ½Ð¾ÑĪÐµÐ½Ð¸Ð¹":7194,"ĠÑģÐ»Ð¾Ð¶Ð½Ð¾":7195,"ĠÑĢÐµÐ¼Ð¾Ð½ÑĤÐ°":7196,"ĠÐ¿ÑĢÐ¾Ð´ÑĥÐºÑĤ":7197,"ĠÐ¾Ð±ÑīÐµÐ³Ð¾":7198,"ÑĢÐµÑģÑĤ":7199,"033":7200,"Ð²Ð°Ð»Ð¸ÑģÑĮ":7201,"Ð³ÑĢÐ°ÑĤÑĮ":7202,"ĠÑģÐµÐ·Ð¾Ð½":7203,"ĠÑģÐºÑĥ":7204,"ĠÑģÐ¾Ñİ":7205,"ĠÐ³ÑĢÐ°Ð´Ñĥ":7206,"ĠÐ¿Ð¾ÑģÑĤÑĥÐ¿":7207,"ĠÐ°ÑĤÐ¼Ð¾Ñģ":7208,"ĠÐ¢Ð¾ÑĢ":7209,"Ð»ÑıÐ¼Ð¸":7210,"ĠÐ¾ÑģÐ²Ð¾Ð±":7211,"ĠÑıÐ·ÑĭÐºÐ°":7212,"ĠÐ¿Ð¸ÑģÑĮÐ¼ÐµÐ½":7213,"Ð¾ÑģÐ»Ð°Ð²":7214,"051":7215,"Ð½ÐµÑĢÐ°":7216,"ĠÐ»ÑİÐ±ÑĭÑħ":7217,"cript":7218,"Ġdo":7219,"ĠÐ¾ÐºÐ½Ð°":7220,"nik":7221,"ĠÐ¡ÐµÑĢÐ³Ðµ":7222,"ÑĤÐµÑĢÐ½Ð°":7223,"ĠÐ¿ÑĢÐ¾Ð´Ð°Ð¶":7224,"ĠÐ±Ð¸Ð»ÐµÑĤ":7225,"Ð±Ð¾Ð¼":7226,"Ð»ÑĮÐ½ÑĭÐ¼Ð¸":7227,"ĠÐ¿ÐµÑĢÐµÑħÐ¾Ð´":7228,"ube":7229,"ĠÐ¸Ð¼Ð¿":7230,"ĠÑĥÐ³Ð¾Ð»Ð¾Ð²":7231,"ĠÐĿÐ¾Ð²Ð¾ÑģÐ¸Ð±Ð¸ÑĢ":7232,"ĠÐ¿ÑĢÐ¸Ð½Ð°Ð´Ð»Ðµ":7233,"ĠÑįÐ½ÐµÑĢÐ³ÐµÑĤÐ¸":7234,"Ð½Ð¾Ð³":7235,"ÑĨÐ¸ÑıÐ¼Ð¸":7236,"ÐµÐ·Ñĥ":7237,"Ð³ÑĥÐ»Ð¸":7238,"ĠÑģÑģÑĭÐ»ÐºÐµ":7239,"ĠÑĥÐ¶":7240,"ĠÐ¼ÐµÑĤÐ¾Ð´Ð¸":7241,"MS":7242,"Ð´Ð¶Ð°":7243,"ĠÐºÐ¾Ð¼Ð¸ÑĤ":7244,"ĠÐ·Ð½Ð°Ñİ":7245,"ĠAnd":7246,"ĠÐ¿ÑĢÐ¾ÑĦÐ¸Ð»Ð°ÐºÑĤÐ¸":7247,"ĠÐ¾ÑģÐ½Ð¾Ð²Ð°Ð½Ð¸Ð¸":7248,"ÑĢÐ¾Ð²Ð°Ð½Ð¸Ñİ":7249,"nÐ§Ð¸ÑĤÐ°Ð¹ÑĤÐµ":7250,"ĠÐ¿ÑĢÐ¾ÑĦÐµÑģÑģÐ¸Ð¾Ð½Ð°":7251,"nÐ·Ð°":7252,"ĠÑģÑĤÐ¸Ð»Ðµ":7253,"407":7254,"ĠÑĩÐ°ÑģÑĤÐ½Ð¾ÑģÑĤÐ¸":7255,"Ġby":7256,"ÑĤÐµÑĢÐ¾Ð²":7257,"ĠÐ²ÐµÑĤÐµ":7258,"ĠÐ²Ð°ÑĢÐ¸Ð°Ð½ÑĤÑĭ":7259,"ÑįÑĤÐ°":7260,"Ð½Ð½Ð¾Ð¹":7261,"467":7262,"ĠÑĩÑĢÐµÐ·":7263,"ĠÐ¿ÐµÑĢÐ²ÑĭÑħ":7264,"ĠÐŀÑĤÐ²ÐµÑĤ":7265,"ĠÐ¼Ð¾Ðµ":7266,"ĠÑĩÑĥÑĤÑĮ":7267,"ĠÐ²Ð¾Ð¿ÑĢÐ¾ÑģÐ¾Ð²":7268,"9896":7269,"wit":7270,"ĠÐĿÐ°ÑĢ":7271,"ÐĴÐĶ":7272,"Ð¾ÑĤÐµÑĢÐ°":7273,"ĠÐ¾ÑģÑĤÐ°ÐµÑĤÑģÑı":7274,"ĠÐ²Ð¾Ð·Ð´ÑĥÑĪ":7275,"ÑīÐµÑĢ":7276,"ĠÐ¼ÑıÑģ":7277,"Ð²Ð¾Ñģ":7278,"ail":7279,"ĠÑįÐºÐ¾Ð»Ð¾Ð³Ð¸":7280,"214":7281,"....\\":7282,"Ð¾ÐµÐºÑĤ":7283,"ĠÑģÐ¾Ð·Ð´Ð°Ð½Ð¸Ðµ":7284,"IG":7285,"ĠÐŀÐ»ÑĮ":7286,"ÑĦÐ¸ÑĨÐ¸Ð°Ð»ÑĮ":7287,"ĠÑĥÑĩÐ°ÑģÑĤÐºÐ°":7288,"ĠÑĢÐ°ÑģÐ¿ÑĢÐ¾ÑģÑĤÑĢÐ°":7289,"ĠÐ°Ð²ÑĤÐ¾ÑĢÐ¸":7290,"ÐºÐ¾Ð²ÑĭÐ¹":7291,"ĠÐ³Ð¾Ð»Ð¾ÑģÐ¾Ð²":7292,"Ð¡Ðŀ":7293,"ĠÑħÐ¾Ð´":7294,"ĠÑĢÐ°ÑģÑĤÐµÐ½Ð¸Ð¹":7295,"Ð¾ÑĩÐ½Ð¾Ðµ":7296,"ÑĥÑģÐ»Ð¾Ð²":7297,"215":7298,"ÑģÐ»Ð¾Ð²Ð¸":7299,"ĠÑĢÐ°Ð·Ð¼ÐµÑĢÐ°":7300,"ĠÐ¾ÑĢÐ³Ð°Ð½":7301,"837":7302,"ĠÐ²ÐºÐ»ÑİÑĩÐ°ÐµÑĤ":7303,"ĠÐ¿ÑĢÐ¸Ð±Ð¾ÑĢ":7304,"pple":7305,"¾ÑĩÐ°":7306,"Ð½Ð¸Ð·":7307,"ĠÐ²Ð¼ÐµÑģÑĤÐ¾":7308,"nov":7309,"ĠÑĥÐ»Ð¸ÑĨÐ°":7310,"ĠÑģÐµÑĢÐ¸Ñı":7311,"Ġ.\\":7312,"Ð´Ð°Ð¼":7313,"ÑĢÐ¾Ð±Ð¸":7314,"ÑĥÐ¼Ñĭ":7315,"ĠÐŁÐµÐ½":7316,"nÐĿÐ¸":7317,"!!!":7318,"ÑĨÐ":7319,"Ð¾Ð¿Ð¾Ð»Ð½Ð¸ÑĤÐµÐ»ÑĮ":7320,"ĠÐ¿Ð¾ÑģÐµÐ»ÐµÐ½Ð¸Ñı":7321,"ÑĨÐ¾":7322,"ĠÐĶÐ¾Ð¼":7323,"654":7324,"ĠÐ²ÑģÐµÐ¼Ñĥ":7325,"ĠÐĶÐ¾Ð±":7326,"ĠÐ¿Ð¾Ð»Ð¾Ð²Ð¸":7327,"ĠNe":7328,"Ð¾ÑĩÐ°":7329,"160":7330,"ĠÐ¿ÑĢÐ¸Ð½ÑıÑĤÑĮ":7331,"ĠÑħÐ¾ÑĤÑĮ":7332,"ĠÐ¼Ð¾Ð¶ÐµÐ¼":7333,"nÐŁÐ¾Ð»Ñĥ":7334,"ĠÐ¿Ð¾ÐµÐ·":7335,"ĠÑģÐºÐ»Ð°":7336,"ÑĤÐ¸Ð²Ð½Ð¾Ðµ":7337,"ÑĩÐ¸ÑĤÑĮÑģÑı":7338,"ÑħÐ°Ð¹":7339,"ĠÐ½ÐµÐ¾Ð±ÑħÐ¾Ð´Ð¸Ð¼ÑĭÐµ":7340,"ĠÐ·Ð°Ð´ÐµÑĢ":7341,"forum":7342,"ĠÐ½Ð¾Ð²ÑĥÑİ":7343,"Ð²Ð¾Ð½Ð¸":7344,"Ð¾Ð»Ñĭ":7345,"ĠÐ¿ÑĢÐ¸Ð²ÐµÑģÑĤÐ¸":7346,"ĠÐ¸Ð¼Ð¼Ñĥ":7347,"Ġad":7348,"Ð°ÑĤÐ°ÑĢ":7349,"ĠÐ¿Ð¾Ð·Ð²Ð¾Ð»ÑıÑİÑĤ":7350,"Ð¾ÑĢÐ¾Ð½ÐµÐ¶":7351,"ĠÐ¾Ð±ÐµÑģÐ¿ÐµÑĩÐµÐ½Ð¸Ðµ":7352,"ĠÐ¿ÑĢÐ¸ÐµÐ¼Ð°":7353,"ĠÑĥÑĩÐµÑĤÐ¾Ð¼":7354,"ĠÐ¿ÑĢÐ¾ÑĤÐµ":7355,"ĠÑįÐ½ÐµÑĢÐ³Ð¸Ð¸":7356,"Ð½ÐµÑĪ":7357,"ĠÑģÑĤÑĢÐ°Ð½Ð¸ÑĨÑĭ":7358,"ĠÐ¾ÐºÑĢÑĥÐ³":7359,"ĠÐ½Ð°Ð²Ñĭ":7360,"ĠÐ¿ÑĥÑĤÑĮ":7361,"ĠÑģÐºÐ¾ÑĢÐµÐµ":7362,"ĠÐłÐ¾ÑģÑĤÐ¾Ð²":7363,"ÑĳÐ²":7364,"ĠÑģÐ¾Ð´ÐµÑĢÐ¶Ð°Ð½Ð¸Ðµ":7365,"IV":7366,"ĠÐ½Ð¾ÑĥÑĤÐ±Ñĥ":7367,"ĠÂ©":7368,"lat":7369,"ĠÐ¾ÑĢÐ³Ð°Ð½Ð¸Ð·Ð¼":7370,"Ġ120":7371,"Ð¾ÑİÐ·":7372,"âĸ":7373,"ĠÐ·Ð°ÐºÐ¾Ð½Ð¾Ð´Ð°ÑĤÐµÐ»ÑĮÑģÑĤÐ²Ð¾Ð¼":7374,"ĠÐ¾ÑĤÐ²ÐµÑĤÑģÑĤÐ²ÐµÐ½Ð½Ð¾ÑģÑĤÑĮ":7375,"Ð¿ÐµÐ²":7376,"ÐºÑĤÐ¾ÑĢÐ¾Ð²":7377,"ĠÐ¡Ðŀ":7378,"ĠÑģÐ¸Ð»":7379,"Ġ44":7380,"PL":7381,"9897":7382,"ĠÐ±Ð»Ð°Ð³Ð¾Ð´Ð°ÑĢ":7383,"ĠÐºÐ°Ð±Ð¸Ð½ÐµÑĤ":7384,"ib":7385,"Ð¶ÐµÐ½Ð¸Ð¹":7386,"ĠÐĵÑĢÐ¸":7387,"Ð¿Ð¸ÑģÐ°ÑĤÑĮ":7388,"001":7389,"ĠÑĢÐ°Ð·ÑĢÐµÑĪÐµÐ½Ð¸Ñı":7390,"ÑĩÐµÐ½Ð°":7391,"Ð²ÐµÐ´Ð¸ÑĤÐµ":7392,"ÑĢÐ¾Ð²Ð¸":7393,"ÑĤÐ°ÐµÑĤ":7394,"ĠÐºÑĥÑħÐ½Ð¸":7395,"ĠÐ´Ð¾Ð¿ÑĥÑģÐºÐ°":7396,"ĠÐ¿ÐµÑĢÐ²ÑĭÐµ":7397,"ĠÐ¿Ð¾ÑģÑĢÐµÐ´":7398,"ĠÐ³Ð¾ÑĢÐ°Ð·Ð´Ð¾":7399,"ĠÐ¸Ð½Ð¶ÐµÐ½":7400,"ĠÐŁÐ¾Ð´ÑĢÐ¾Ð±Ð½ÐµÐµ":7401,"Ð²Ð°ÑİÑīÐ¸Ðµ":7402,"Ð¾Ð»ÑĮÐ·Ð¾Ð²Ð°Ð½Ð¸Ðµ":7403,"Ð°Ð»ÑĮÐ½ÑĭÐ¼":7404,"Ð»Ð°Ð±":7405,"ÑĢÐ°Ð¶ÐµÐ½Ð¸Ðµ":7406,"rol":7407,"ĠÑģÑĢÐ°Ð²Ð½ÐµÐ½Ð¸Ñİ":7408,"ĠÐ¼Ð¾ÑĢÐµ":7409,"ÑĦÐµÐ»ÑĮ":7410,"9887":7411,"017":7412,"ĠÑĪÑĤÑĢÐ°":7413,"eleg":7414,"ÑĩÐµÐ²":7415,"Ð»Ð¾Ð¶ÐµÐ½Ð¸Ðµ":7416,"ÑģÑģÐµÐ¹":7417,"Ġ37":7418,"ĠÐ¾ÑģÐ½Ð¾Ð²Ð½ÑĭÐµ":7419,"Ġ%":7420,"ĠÐºÐ¾Ð½ÑĦÐ»Ð¸":7421,"969":7422,"Ð¼Ð¾ÑĤÑĢÐ¸ÑĤÐµ":7423,"ĠÐ¸ÑģÑģÐ»ÐµÐ´Ð¾Ð²Ð°":7424,"res":7425,"ĠÐ²ÑĢÐ°ÑĩÐ°":7426,"ÑħÐ¸Ð²":7427,"ĠÐ¸Ð½ÑĦÐ¾ÑĢÐ¼Ð°ÑĨÐ¸Ð¾Ð½Ð½ÑĭÑħ":7428,"ĠÑģÐ¿Ð¾ÑĢÑĤÐ°":7429,"211":7430,"Ð´Ð°Ð¼Ð¸":7431,"667":7432,"ĠÐºÐ¸ÑģÐ»Ð¾ÑĤ":7433,"ĠÐ¿Ð¾ÑĢÑıÐ´Ð¾Ðº":7434,"ĠÑģÐ¾ÑģÑĤÐ°Ð²Ðµ":7435,"ĠÐ²ÐµÑģÑĮÐ¼Ð°":7436,"ĠÐĹÐ°ÑĤÐµÐ¼":7437,"acebook":7438,"Ð·Ð°ÑĨÐ¸Ñİ":7439,"ĠÐ»Ð¸ÑĩÐ½Ð¾":7440,"ĠÑĢÐµÑĩÑĮ":7441,"ĠÐĲÐ½Ð´ÑĢÐµÐ¹":7442,"ĠÐ¶Ð¸ÑĤÐµÐ»ÐµÐ¹":7443,"ĠÑģÐ¼Ð°ÑĢÑĤÑĦÐ¾Ð½":7444,"Ġbe":7445,"ĠÑĢÐµÐ·Ð¸":7446,"9895":7447,"ĠÐ±ÑĥÐ´ÐµÐ¼":7448,"ĠÑģÐ¼Ð¾Ð³":7449,"ÑĢÐµÐ¿":7450,"ĠÐºÐ¾Ð¼Ð½Ð°ÑĤÑĭ":7451,"ÑģÑĤÐ°Ð½Ð¾Ð²ÐºÐ°":7452,"Ð»Ð°ÑģÑģ":7453,"ĠÐĹÐµÐ»ÐµÐ½":7454,"Ġ250":7455,"ĠÑģÐ¿Ð°ÑģÐ¸Ð±Ð¾":7456,"ĠÐ¿ÑĢÐ¾Ð´Ð²Ð¸":7457,"ĠÐ¸Ð½ÑĭÑħ":7458,"Ð¾Ð½Ð½ÑĭÐ¹":7459,"ĠÑģÐ¿ÐµÑĨÐ¸Ð°Ð»Ð¸ÑģÑĤÑĭ":7460,"Ð½ÑıÑİÑĤÑģÑı":7461,"nÐĴÐµ":7462,"Ð¿Ð°Ð½Ð¸Ð¸":7463,"ĠÐ¾Ð±ÑĢÐ°Ð±Ð°ÑĤÑĭ":7464,"Ð¾ÑģÑĤÐ°Ð½Ð¾Ð²Ð»ÐµÐ½Ð¸Ðµ":7465,"ĠÑĢÐ°Ð±Ð¾ÑĩÐ¸Ñħ":7466,"/%":7467,"359":7468,"Ð·Ð¾ÑĢÐ°":7469,"ÑĨÐµÑĢ":7470,"ÑĤÐµÑĢÐ¸Ð°Ð»Ñĭ":7471,"ĠÐ¾ÑĤÐ½Ð¾ÑģÐ¸ÑĤÐµÐ»ÑĮÐ½Ð¾":7472,"ĠÐ¿ÑĢÐ¾ÑħÐ¾Ð´Ð¸ÑĤ":7473,"ÑģÑĤÐ¾ÑĢÐ°":7474,"ĠÑĥÑĩÑĢÐµÐ¶Ð´ÐµÐ½Ð¸Ñı":7475,"ĠÐ½Ð°ÑģÐ»ÐµÐ´":7476,"¾ÑĦÐµÑĢ":7477,"au":7478,"ĠÐ¾Ð¿Ð¸":7479,"ĠÐ½ÐµÐ´Ð°Ð²":7480,"ĠÑĥÐ³Ð¾Ð»":7481,"Ð¾ÑĦÐµÑĢ":7482,"rov":7483,"190":7484,"ĠÐ°Ð½Ð°Ð»Ð¸Ð·":7485,"ÑĤÐ¾ÑĢÐ°Ð¼Ð¸":7486,"nÐĿÐ°ÑĪÐ¸":7487,"ĠÐ²Ð¾ÑģÐ¿Ð¾Ð»ÑĮÐ·Ð¾Ð²Ð°ÑĤÑĮÑģÑı":7488,"ðŁĩ":7489,"ĠÐ¿ÑĢÐ¾Ð¸Ð·Ð¾ÑĪ":7490,"ĠÐĲÐ¿":7491,"Ð½Ð¸Ð¼Ð¸":7492,"ĠÑģÐ»Ñĭ":7493,"9967174":7494,"ĠÐ¼Ð°Ð³Ð°Ð·Ð¸Ð½Ðµ":7495,"ĠÐ¸Ð·Ð¼ÐµÐ½Ð¸ÑĤÑĮ":7496,"ĠÐºÐ¾Ð½ÑģÑĤÑĢÑĥÐº":7497,"ĠÐļÐ°ÑĢÐ°":7498,"ĠÐ¿ÑĢÐ¾Ð´Ð°Ð²":7499,"nÐ¡Ñĥ":7500,"ÐµÑģÑĤÐ¸Ð²Ð°":7501,"ĠÐĴÐ¡":7502,"ĠCom":7503,"Ð»Ð¾Ð²ÑĭÐµ":7504,"ĠÐ¸Ð·Ð´ÐµÐ»Ð¸Ð¹":7505,"ĠÐ¼ÐµÑĢÐ¾Ð¿ÑĢÐ¸ÑıÑĤÐ¸Ð¹":7506,"Ð»Ð¾ÑĤÐ°":7507,"ĠÐ¼ÑĥÐ¶ÑĩÐ¸Ð½":7508,"ĠÐºÐ°ÑĢÑĤÐ¾":7509,"ĠÐ¼Ð¾Ð½Ð°":7510,"ĠÐ¿ÑĢÐ¾ÑĨ":7511,"ĠÐĳÐ»Ð°Ð³Ð¾Ð´Ð°ÑĢÑı":7512,"Ð±ÑĢÐµ":7513,"Ð¾ÑĢÐ¸Ð¸":7514,"ÑīÐ°ÑİÑĤÑģÑı":7515,"ĠÐ³Ð¾ÑģÑĥÐ´Ð°ÑĢÑģÑĤÐ²ÐµÐ½Ð½ÑĭÐ¹":7516,"ÑĢÑĥÐ±Ðµ":7517,"ĠÑģÐ²ÑıÐ·Ð°Ð½Ð¾":7518,"ĠÑģÐµÐºÑĥ":7519,"ÐļÐ£":7520,"ĠÐºÐ¾Ð²":7521,"ĠÐ¿ÑĢÐ¾Ð²Ð¾Ð´Ð¸ÑĤÑĮ":7522,"Ð½ÐºÐ¸":7523,"ĠÐ°ÐºÐºÑĥÐ¼ÑĥÐ»Ñı":7524,"nÐĶÐµ":7525,"Ð·ÐµÐ¹":7526,"UT":7527,"979":7528,"ĠÐ°Ð½Ð°":7529,"ĠÐ¿ÑĢÐ¸Ð²Ð¾Ð´Ð¸ÑĤ":7530,"ĠÑĦÐ¾ÑĢÑĥÐ¼Ðµ":7531,"Ð±Ð°ÑĢ":7532,"ĠÐ½ÐµÐ±Ð¾Ð»ÑĮÑĪÐ¾Ð¹":7533,"ĠÐ¡Ð¿Ð°ÑģÐ¸Ð±Ð¾":7534,"ĠÐ°Ð²ÑĤÐ¾Ð¼Ð°ÑĤÐ¸ÑĩÐµÑģÐºÐ¸":7535,"ĠÐ¸Ð¼ÑĥÑīÐµÑģÑĤÐ²Ð°":7536,"Ð»ÑıÑĤÑĮÑģÑı":7537,"ĠÐ¿Ð¾ÑĢÐ½Ð¾":7538,"ĠÐ¢Ð¾Ð²Ð°":7539,"ĠÐ¾ÑĤÐ½Ð¾ÑģÐ¸ÑĤÑģÑı":7540,"ÑģÐ¾ÑĢ":7541,"ĠÐºÐ°Ð¶ÐµÑĤÑģÑı":7542,"ĠÐºÐ¾Ð¼Ð°Ð½Ð´Ñĭ":7543,"UN":7544,"ÑģÐºÐ°Ð·Ð°":7545,"852":7546,"ĠÐ¶ÐµÐ»Ðµ":7547,"ÑģÑĤÐ°Ñı":7548,"ĠÐ¿ÐµÑĢÐ²Ð¾Ð¼":7549,"ÑĤÐµÑĢÐ¸Ð°Ð»":7550,"369":7551,"ĠÐļÑĢÐ°":7552,"Ð¾Ð¶ÐµÐ»Ð°":7553,"ÑģÑĤÑĢÐ¾Ð¹ÑģÑĤÐ²Ð¾":7554,"ĠÐ¸Ð¼ÐµÐ½":7555,"ÑĢÐµÐ½Ð°":7556,"Ð¾ÐºÐ¾Ð½":7557,"ĠÐ¿ÑĢÐ¾Ð²ÐµÑĢÐºÐ¸":7558,"151":7559,"ĠÐ³Ð¾Ð²Ð¾ÑĢÑıÑĤ":7560,"ĠÐ±ÐµÐ´":7561,"ĠÐ¿Ð¾Ð»Ð½Ð¾":7562,"ĠÑĢÐµÐ±ÐµÐ½Ð¾Ðº":7563,"ĠÐ¿ÑĢÐ¾ÑĨÐµÐ´ÑĥÑĢÑĭ":7564,"ĠÐºÐ°ÑĢÑĮ":7565,"ÑģÐ¸ÑħÐ¸":7566,"ĠÐ¾Ð¿Ð¸ÑģÐ°Ð½Ð¸Ðµ":7567,"form":7568,"ĠÐ±Ð°ÑĤÐ°":7569,"ĠÐ´Ð¾ÑĢÐ¾Ð³Ð¸":7570,"ĠÑĦÑĥÐ½ÐºÑĨÐ¸Ð¾Ð½Ð°Ð»ÑĮ":7571,"nÐĳÐµÐ·":7572,"yd":7573,"9876":7574,"ÑĤÐ°ÑĤÑĮ":7575,"ĠÐ¿ÑĢÐ¾Ð¸Ð·Ð²Ð¾Ð´Ð¸ÑĤÑģÑı":7576,"ĠÑģÐ»Ð¾Ð²Ð°Ð¼":7577,"ĠÐ±Ð¾Ñı":7578,"Ð¾Ð²Ð¾Ðµ":7579,"ĠÑģÐ²ÐµÑĤÐ°":7580,"Ð±ÐµÐ·":7581,"ĠÑĥÐ´Ð¾Ð²Ð»ÐµÑĤ":7582,"ĠÐ´Ð²ÑĥÐ¼Ñı":7583,"Ð²ÑĢÐ°ÑĤ":7584,"nÐŀÑģÐ¾Ð±":7585,"ÑĤÐ¾Ðµ":7586,"ĠÐ´ÑĢÑĥÐ³Ð¾Ð¼":7587,"ĠÐ½Ð°Ð³ÑĢÐ°":7588,"ĠÐ·Ð´ÑĢÐ°Ð²Ð¾Ð¾Ñħ":7589,"ĠÐ·Ð°ÐºÐ°Ð·Ð°ÑĤÑĮ":7590,"ĠÐ¿ÑĢÐ¸Ð»Ð¾Ð¶ÐµÐ½Ð¸Ñı":7591,"ii":7592,"ĠÐ¿ÑĢÐ¸Ð¾Ð±ÑĢÐµÑĤ":7593,"Ð¾Ð¶Ð´Ðµ":7594,"Ð¾ÐºÑģ":7595,"Ð¾Ð·Ð¸ÑĤ":7596,"ÑĢÑĤÑĥ":7597,"Ð¡Ð¿":7598,"ĠÐ¾Ð¿ÑĢÐ¾Ñģ":7599,"ĠÑĢÐ°ÑģÐ¿Ð¾Ð»Ð°Ð³Ð°":7600,"ĠÐ¿ÑĢÐ¸ÑħÐ¾Ð´Ð¸ÑĤÑģÑı":7601,"ĠÐºÐ¾ÑĢÐ¿Ñĥ":7602,"Ð¼ÐµÐ½Ñĭ":7603,"ĠÐ±Ð¾Ð»ÑĮÑĪÐ¸Ð¼":7604,"ĠÐ¼Ð°ÑĢÐºÐµÑĤ":7605,"ner":7606,"les":7607,"Ð¶Ð¸ÑĤÐµÑģÑĮ":7608,"ĠÐ¾Ð»Ð¸":7609,"Ġwww":7610,"ĠÐ´Ð¾ÑĢÐ¾Ð³":7611,"192":7612,"ĠÐ¦ÐµÐ½ÑĤÑĢÐ°Ð»ÑĮ":7613,"ÑĤÐ¾ÑĢÑĥ":7614,"Ð±ÑĥÑĢÐ³Ð°":7615,"862":7616,"ĠÐ¶Ð¸ÑĤÑĮ":7617,"ĠÐºÐ°Ð´":7618,"AG":7619,"ĠÐºÐ¾Ð½ÑĤÑĢÐ¾Ð»Ð¸":7620,"ĠÐ¿ÑĢÐ¾Ð²ÐµÑĢÐ¸ÑĤÑĮ":7621,"ÑģÑĤÑĢÐµÐµ":7622,"2024":7623,"âĶĢâĶĢ":7624,"ĠÐ½ÐµÐ¿Ð¾ÑģÑĢÐµÐ´ÑģÑĤÐ²ÐµÐ½Ð½Ð¾":7625,"Ð¾Ð³Ð¾Ð²Ð¾ÑĢ":7626,"BDC":7627,"ĠÑĢÐµÐ¹":7628,"ĠÑĢÐµÐ´Ð°ÐºÑĨÐ¸Ð¸":7629,"093":7630,"666":7631,"ĠÐŁÑĢÐ¾Ñģ":7632,"Ð´ÑĢÐ°Ð²ÑģÑĤÐ²ÑĥÐ¹ÑĤÐµ":7633,"ĠÐļÐ¸ÐµÐ²":7634,"Ð´Ð¸Ð»Ð¸":7635,"ĠÐłÐ¾Ñģ":7636,"ĠÐ¿Ð¾Ð´Ð³Ð¾ÑĤÐ¾Ð²ÐºÐ¸":7637,"Ð¼Ð¸ÑĢÐ°":7638,"9865":7639,"Â»Â»Â»":7640,"ĠÐ²Ð¾Ð»Ð¾ÑģÑĭ":7641,"Ð»Ð»Ñİ":7642,"ĠÑĥÐ´Ð¸Ð²Ð¸":7643,"162":7644,"ĠÐ¿Ð¾Ð»Ð¾Ð¶ÐµÐ½Ð¸Ðµ":7645,"ĠÐ»ÑĥÑĩÑĪÐ¸Ðµ":7646,"ĠÐŁÐ¾ÑĩÐµÐ¼Ñĥ":7647,"ÐĵÐ£":7648,"ĠÐºÐ°ÐºÐ¸Ð¼":7649,"ÑĤÐµÐ»Ðµ":7650,"ES":7651,"ĠÐ½ÐµÐ¿ÑĢÐ¸ÑıÑĤ":7652,"Ð²Ð°Ð»ÑģÑı":7653,"ĠÐ³Ð¾ÑĤÐ¾Ð²Ñĭ":7654,"ĠÐ¡Ð":7655,"nRe":7656,"ĠÐ²ÑĭÐ±ÑĢÐ°Ð½":7657,"Ð°ÑģÑģÐ°":7658,"ĠÑĥÐ´Ð°Ð»Ð¸ÑĤÑĮ":7659,"Ġ600":7660,"Ð³Ð¸Ð½":7661,"ĠÐ¿ÐµÑĢÑģÐ¿ÐµÐº":7662,"Ġ2007":7663,"ire":7664,"ĠÑģÑĢÐµÐ´Ñĭ":7665,"ĠÐ¾Ð±ÑĬÐµÐºÑĤ":7666,"ĠÑĥÐ´Ð°Ð»Ð¾ÑģÑĮ":7667,"ÑģÐ¸Ð»ÑĮ":7668,"ÑĩÐ¸Ð²Ð°ÐµÑĤÑģÑı":7669,"Ð¿Ð°ÑĢ":7670,"ÑĦÑĤ":7671,"ĠÐ½Ð°Ð¹Ð´":7672,"ĠÐłÐ°Ð±Ð¾ÑĤÐ°":7673,"921":7674,"ĠÐ½ÐµÐ¿ÑĢÐ°Ð²Ð¸":7675,"Ð¡Ðµ":7676,"ĠÐ¼Ð°ÑĪÐ¸Ð½Ð°":7677,"ĠÐ¾Ð±ÑĢÐ°ÑīÐµÐ½Ð¸Ñı":7678,"ĠÑĥÐ½Ð¸Ð²ÐµÑĢÑģÐ¸ÑĤÐµÑĤ":7679,"nÐĿÐµÑĤ":7680,"Ð¾ÑĤÐµÐºÐ°":7681,"ĠÐ¸Ð·Ð±Ð°":7682,"ĠÐĳÐµÑĢ":7683,"ang":7684,"463":7685,"Ð»Ð°Ð¹":7686,"ÑĹ":7687,"ĠÑĦÐ¾ÑĤÐ¾Ð³ÑĢÐ°ÑĦÐ¸Ð¸":7688,"Ð¾Ð³ÑĢÐ°Ð¼Ð¼Ð°":7689,"ÑĤÐµÐ»ÑĮÐ½ÑĭÐ¼Ð¸":7690,"Ð°Ð¹ÑĤÐ¸":7691,"ĠÐ²Ð¿ÐµÑĢÐ²ÑĭÐµ":7692,"ĠÐ²ÑĭÑıÑģ":7693,"ĠÐ°Ð´Ð°":7694,"Ð¾Ð´Ð½ÑĭÐµ":7695,"ĠÐ½ÐµÐ²ÐµÑĢ":7696,"9885":7697,"ĠÐ¾Ð´Ð¸Ð½Ð°":7698,"Ġ77":7699,"ĠÐ¿ÑĢÐ¾ÑıÐ²Ð»Ñı":7700,"ĠÐ¿Ð¾ÐºÑĢÑĭÑĤÐ¸Ñı":7701,"095":7702,"hat":7703,"Ð¸Ð½Ð°Ð½":7704,"Ð»Ð°Ð´Ð°":7705,"');":7706,"ÑīÐµÐ½Ð¸Ñİ":7707,"lor":7708,"ĠÐ¿ÑĢÐ¾ÑĤÑıÐ¶ÐµÐ½Ð¸Ð¸":7709,"ĠÑģÐ¼ÐµÑĢÑĤÐ¸":7710,"ĠÐ·Ð½Ð°ÑĩÐµÐ½Ð¸Ñı":7711,"ĠÐ²ÑĢÐµÐ¼ÐµÐ½ÐµÐ¼":7712,"091":7713,"9910":7714,"Ð·ÑĥÐµÑĤÑģÑı":7715,"ĠII":7716,"ĠÑģÐ¾Ð±ÑģÑĤÐ²ÐµÐ½Ð½Ð¾ÑģÑĤÐ¸":7717,"ĠÑħÐ¾Ð»Ð¾Ð´Ð¸":7718,"ĠÐ¿Ð¾Ð»ÑĥÑĩÐ¸Ð»Ð¸":7719,"ĠÑĢÑĭÐ½Ð¾Ðº":7720,"ÐºÐ¾Ð±":7721,"ĠÑĤÑĥÑĢÐ½Ð¸":7722,"ĠÐ°Ð±ÑģÐ¾Ð»ÑİÑĤÐ½Ð¾":7723,"nÑĥ":7724,"ÐµÐ½ÑĤÑĥ":7725,"ĠÐ¿Ð¾Ð¿Ð¾Ð»":7726,"BDD":7727,"ĠÑĥÐºÐ°":7728,"ĠÐĲÐ²ÑĤÐ¾Ð¼":7729,"ĠÐ¾ÑĤÐ½Ð¾ÑģÑıÑĤÑģÑı":7730,"ĠÑĢÐ°ÑģÑĤÐ²Ð¾ÑĢ":7731,"ĠÐ¿ÑĢÐ¾ÑģÑĤÐ¾Ð¹":7732,"Ð³ÑĥÑĢ":7733,"lay":7734,"ÑīÐ¸Ð½Ñĭ":7735,"ĠÐ²ÐµÑĢÑģÐ¸Ñı":7736,"ĠÐ¾ÑĦÐ¸Ñģ":7737,"ĠÐ²ÑĭÐ¿Ð¾Ð»Ð½ÐµÐ½":7738,"nÐĿÑĥ":7739,"Ð½ÑĨÐµ":7740,"ĠÐ½Ð°ÑĩÐ¸Ð½Ð°ÐµÑĤ":7741,"Ð¾Ð¼ÐµÐ½Ð´Ñĥ":7742,"nÐŁÐ¾Ð¿ÑĥÐ»ÑıÑĢ":7743,"ĠÑģÑĤÐ°ÑĤÑĮÑı":7744,"ĠÐļÐ°Ð·Ð°":7745,"ics":7746,"Ð³Ð¾Ð²Ðµ":7747,"ĠÐĶÐµÐ¿":7748,"500":7749,"ĠÑħÑĥÐ´Ð¾Ð¶":7750,"ĠÐ½Ð¾Ð¼ÐµÑĢÐ°":7751,"xn":7752,"ÑĩÐµÐ½Ð¸Ð¹":7753,"ĠÐ¡Ð°ÑĢÐ°":7754,"Ð³Ð¾Ð³ÑĢÐ°Ð´":7755,"9884":7756,"ĠÐ·Ð´Ð°Ð½Ð¸Ñı":7757,"Ð½Ð¸ÑģÑĤ":7758,"ĠÐ´Ð¸Ð½Ð°Ð¼Ð¸":7759,"ĠÐ¿Ð°Ð½ÐµÐ»Ð¸":7760,"ĠÐºÐ²Ð°ÑĢ":7761,"ĠÑģÐ¾ÐµÐ´Ð¸":7762,"Ð¸Ðµ":7763,"ĠÐ´Ð¾ÑģÑĤÐ¸Ð³":7764,"ĠÐ·ÐµÐ¼Ð»Ð¸":7765,"ÑĩÐµÐ½Ð":7766,"ĠÑģÐºÐ¾ÑĢÐ¾ÑģÑĤÑĮ":7767,"ÑĩÐµÐ½Ð¾":7768,"191":7769,"ÑĩÐµÑģÐºÐ¾Ð¼Ñĥ":7770,"ĠÐķÐºÐ°ÑĤÐµÑĢÐ¸Ð½":7771,"Ð¶Ð°Ð½":7772,"ĠÑģÐ¸Ð¼Ð²":7773,"ÑĩÐºÑĥ":7774,"ÐŁÐŀ":7775,"ĠÐ¿Ð»Ð°ÑĤÑĦÐ¾ÑĢ":7776,"ĠÐ¿ÑĢÐµÐ¸Ð¼ÑĥÑīÐµÑģÑĤÐ²Ð°":7777,"ĠÐ´ÑĢÑĥÐ³Ð¾Ð³Ð¾":7778,"ĠÐ¾ÑħÐ»Ð°":7779,"ĠÐºÐ¾Ð¼Ð°Ð½Ð´":7780,"ĠÑģÐ¾Ð¾ÑĢÑĥ":7781,"ĠÐ±Ð°Ð»Ð°Ð½":7782,"HT":7783,"ĠÑģÑĤÐ°Ð²ÐºÐ¸":7784,"ĠÐ»ÑİÐ±Ð²Ð¸":7785,"ĠÐ²ÑħÐ¾Ð´Ð¸ÑĤ":7786,"ĠÐ½Ñĭ":7787,"ĠÐ´Ð¾Ð¿Ð¾Ð»Ð½Ð¸ÑĤÐµÐ»ÑĮÐ½ÑĭÐµ":7788,"ÑģÐµÑĤ":7789,"ÑĢÐ°Ð½ÑģÐ¿Ð¾ÑĢÑĤ":7790,"ĠÐ¿ÑĢÐµÐ´Ð¿Ð¾Ñĩ":7791,"ÐµÐ½Ñı":7792,"XX":7793,"400":7794,"ĠÑģÐ°ÑħÐ°ÑĢ":7795,"ĠÐ¸ÑĤÐ¾Ð³Ðµ":7796,"ÐĽÐµÐ½Ð¸":7797,"ĠÑĤÐ°ÐºÑĥÑİ":7798,"Ð¶Ð½Ð¾Ðµ":7799,"ĠÐ¿Ð¾Ð´ÑĢÐ°Ð·Ð´Ðµ":7800,"ĠÐŁÐ¾Ð±":7801,"rav":7802,"300":7803,"ĠÐ²Ð½Ð¸Ð¼Ð°Ð½Ð¸Ñı":7804,"ĠÐĵÐ¸":7805,"ĠÐ½Ð¸ÐºÐ°ÐºÐ¸Ñħ":7806,"109":7807,"act":7808,"ĠÐºÐ¾ÑĢÐ¿ÑĥÑģ":7809,"ÑĥÑĪÐºÐ¸":7810,"ĠÐ¸Ð³ÑĢÐ¾Ð²Ð¾Ð¹":7811,"ÑĨÐ¸Ðº":7812,"ĠÐ¾Ð±Ð¾Ð·Ð½Ð°":7813,"ĠÑģÐ°Ð¼Ð°":7814,"ÑĥÐºÐ¾Ð²":7815,"477":7816,"ĠÐ¸Ð·Ð±ÐµÐ¶Ð°ÑĤÑĮ":7817,"ĠÐºÐ°Ð·Ð°":7818,"Ð»Ð»ÐµÐºÑĤ":7819,"ĠÐ¿ÑĢÐµÑĤÐµÐ½":7820,"Ð¾Ð¾ÑĤÐ½Ð¾":7821,"931":7822,"ĠÑĢÐ°Ð·Ð¼ÐµÑīÐµÐ½Ð¸Ñı":7823,"Ð½Ð°ÑĩÐ°":7824,"ĠÐ¿Ð¾Ð´Ð²Ðµ":7825,"ĠÑģÐ°Ð´":7826,"ĠÐ¿ÑĢÐ¾ÐµÐºÑĤÐ¾Ð²":7827,"ĠÐ´Ð¾ÐºÐ°Ð·Ð°":7828,"nÐłÐµÐ³Ð¸ÑģÑĤÑĢÐ°ÑĨÐ¸Ñı":7829,"ÐºÐ¾Ð»Ð°Ð¹":7830,"ÐĳÐ°":7831,"EO":7832,"ĠÐ´ÐµÑĢÐµÐ²Ð°":7833,"ĠÐ¾ÑĤÐ´ÐµÐ»":7834,"ÐºÐ¾Ð²ÑĮ":7835,"ue":7836,"ĠÐ´Ð¸ÑģÐ¿":7837,"ĠÑĤÐ°Ð±Ð»Ð¸":7838,"ÑĦÐµÑĢÐ°":7839,"ĠÑħÐ¾Ð·ÑıÐ¹ÑģÑĤÐ²Ð°":7840,"ĠÐ¾Ð±ÑĥÑĩÐµÐ½Ð¸Ðµ":7841,"Ð»Ð¸Ð·Ð¾Ð²Ð°":7842,"ĠÐĲÐ»ÐµÐºÑģÐµ":7843,"ĠÐ´Ð°ÑĤÑĮ":7844,"473":7845,"nÐĺÐ½ÑĤÐµÑĢ":7846,"ĠÐ²Ð¾Ð·Ð½Ð¸ÐºÐ°ÐµÑĤ":7847,"ADD":7848,"ĠÐ¡ÐµÐ¹ÑĩÐ°Ñģ":7849,"ĠÐŀÐ¼":7850,"ĠÑĢÐ°Ð±Ð¾ÑĤÐ½Ð¸ÐºÐ¾Ð²":7851,"ĠÐ±Ð¾Ð»ÑĮÑĪÐ¸Ðµ":7852,"ĠÐ¼ÐµÑģÑĤÐ°Ñħ":7853,"ÑĢÐµÐ³Ð°":7854,"ĠÐ¿ÑĢÐµÐ¿Ð¾Ð´Ð°":7855,"ĠÐ¾ÑģÐ½Ð¾Ð²Ð½Ð¾Ð¹":7856,"ĠÐĳÐ¾ÑĢÐ¸":7857,"Ð¾ÑĤÑĮ":7858,"ÐķÐľ":7859,"ĠÐ¿ÑĢÐ¾Ð¹ÑĤÐ¸":7860,"ĠÑħÐ¾ÑĩÑĥ":7861,"Ġcookies":7862,"elegram":7863,"ĠÐ´Ð¾ÐºÑĥÐ¼ÐµÐ½ÑĤ":7864,"ĠÐ¿Ð¾Ð»ÑĮÐ·Ð¾Ð²Ð°ÑĤÑĮÑģÑı":7865,"ÐºÐ¾Ð½ÐµÑĨ":7866,"027":7867,"mer":7868,"ĠÐ·Ð°ÐºÐ»ÑİÑĩÐ°ÐµÑĤÑģÑı":7869,"ĠÑģÑĩÐ°ÑģÑĤÑĮ":7870,"452":7871,"ĠÐļÑĢÐ¸":7872,"ĠÐºÐ¾ÑģÐ¼ÐµÑĤÐ¸":7873,"Ð¢Ð¡":7874,"ĠÐ°ÐºÐºÐ°ÑĥÐ½":7875,"ĠÑģÐ»Ð¾Ð²Ð":7876,"ÐµÐ·ÑĥÐ»ÑĮÑĤÐ°":7877,"ĠÐ¾Ð¿Ñĭ":7878,"ĠÐ²ÑĭÐ³Ð»ÑıÐ´Ð¸ÑĤ":7879,"ĠÑģÐ»Ð¾Ð²Ð¾":7880,"ĠÐ¢Ð°ÐºÐ¸Ð¼":7881,"ĠÐ¿Ð°Ð¼ÑıÑĤ":7882,"nhttps":7883,"ĠÐŁÐ¾Ð¿":7884,"ĠÑĥÑĤÐµ":7885,"ĠÑĤÑĢÐµÐ±Ð¾Ð²Ð°Ð½Ð¸Ð¹":7886,"ÑĦÐ¾Ð²":7887,"ĠÐ¼ÐµÑĤÐ¾Ð´Ñĭ":7888,"ĠÐ¾Ð¶Ð¸Ð´Ð°":7889,"ÐµÐºÑģ":7890,"ÑĨÐ¸Ð¾Ð½Ð½Ð¾Ðµ":7891,"ĠÐ±Ð¾Ð»ÑĮÑĪÐ¸Ð½ÑģÑĤÐ²Ð¾":7892,"ÐºÑĤÑĥÑĢÐ°":7893,"ĠÐ¾Ð±Ð·Ð¾ÑĢ":7894,"ĠÐºÐ¾ÑĢÐ°":7895,"182":7896,"ĠÐ³Ð¾ÑĢÐ¾Ð´ÑģÐºÐ¾Ð¹":7897,"ĠÑģÐ¾Ð¶Ð°Ð»":7898,"ÐľÐ¾ÑģÐºÐ¾Ð²":7899,"ĠÐ½ÑĢÐ°Ð²Ð¸ÑĤÑģÑı":7900,"Ð¡ÑĤÐ°":7901,"ĠÐĿÐ¾Ð²ÑĭÐ¹":7902,"951":7903,"ĠÑĥÐ±ÐµÐ´Ð¸":7904,"ĠÐ¼ÐµÑĤÑĢÐ¾":7905,"ĠÐ¼Ð»ÑĢÐ´":7906,"Ð¾Ð¿ÑĢ":7907,"ĠÐ²ÑĭÐ¸Ð³ÑĢÑĭ":7908,"à¸":7909,"Ð»ÐµÐ½Ð´Ð°":7910,"ÑĤÑĭÐ¼Ð¸":7911,"ĠÐºÑĢÐµÐ¼":7912,"ĠÑģÐ²Ð°ÑĢ":7913,"ĠÐ¿Ð¾ÑĩÑĤÑĭ":7914,"ÑĤÐ¾Ð²ÑĭÐµ":7915,"ĠÑĥÐºÐ°Ð·ÑĭÐ²Ð°":7916,"ĠÐ½ÐµÐ¼Ñĥ":7917,"nÐķÑīÐµ":7918,"EM":7919,"ĠÐ¿ÑĢÐ¸Ð»Ð¾Ð¶ÐµÐ½Ð¸Ðµ":7920,"nÐĹÐ°ÐºÐ°Ð·Ð°ÑĤÑĮ":7921,"333":7922,"ĠÐ¾ÑĤÐ¼ÐµÑĩÐ°":7923,"ĠÐļÐ¾Ð¼Ð¿Ð°Ð½Ð¸Ñı":7924,"ÑģÐ¿Ð¾ÑģÐ¾Ð±":7925,"Ð¶Ð¸Ð¼Ð°":7926,"ĠÑģÐ°Ð»":7927,"ĠÐ²Ð¾Ð·ÑĢÐ°ÑģÑĤÐµ":7928,"ĠÐ¸Ð½Ð°ÑĩÐµ":7929,"433":7930,"nÐļÐ°ÑĤÐ°":7931,"EG":7932,"nye":7933,"nÐłÑĥÐ±":7934,"ÑĢÐ¾Ð²ÐµÑĢ":7935,"9894":7936,"ĠÐºÐ°Ð¶Ð´Ð¾Ð¼":7937,"ÑģÐºÐ»Ñİ":7938,"188":7939,"ÑħÐ³Ð°Ð»":7940,"Ð¼ÑĭÐµ":7941,"ĠÐ²ÐµÑĢÑĤÐ¸ÐºÐ°":7942,"âĢĶâĢĶ":7943,"ĠÐ¸Ð½Ð²Ð°Ð»Ð¸":7944,"ĠÐ¿ÑĥÐ½ÐºÑĤÐ°":7945,"ĠÑįÐ»ÐµÐ¼ÐµÐ½ÑĤÐ°":7946,"OP":7947,"ĠÐ¾ÑģÑĤÐ°Ð²Ð¸ÑĤÑĮ":7948,"xy":7949,"ĠðŁĩ":7950,"ass":7951,"ĠÐ¼Ð¾Ð»Ð¾Ð´Ðµ":7952,"Ġyou":7953,"ĠÐ¿ÑĢÐ¾Ð´Ð¾Ð»Ð¶Ð¸":7954,"ĠÑģÐ²ÐµÑĤÐ¸":7955,"ĠÐ¿Ð¾Ð»ÑĮ":7956,"ĠÑģÐ¾Ð»Ð½Ðµ":7957,"Ð´ÐµÐ»Ð¸ÑĤÑĮ":7958,"ÑģÐµÐ»":7959,"ÐĹÐĺ":7960,"ory":7961,"ÑĢÐ°Ð²Ð°":7962,"RA":7963,"ÑĩÐµÐ½Ð¸":7964,"ĠÐ¿ÑĢÐ¾Ð¸Ð·Ð²Ð¾Ð´Ð¸ÑĤÐµÐ»Ñı":7965,"ĠÑģÐµÐºÑĢÐµ":7966,"ĠÐ´ÐµÐ»":7967,"ĠÐ·Ð°ÑĢÐ°Ð½ÐµÐµ":7968,"ĠÑģÐ¾Ð³Ð»Ð°ÑģÐ¸Ñı":7969,"ld":7970,"ĠÑĢÐ¾Ð²":7971,"ĠÐ½Ð°Ð¶Ð¼Ð¸ÑĤÐµ":7972,"ĠÐ³ÑĢÐ°Ð¼Ð¾ÑĤ":7973,"ĠÐ³ÑĢÐ½":7974,"ĠÐ¼Ð¸Ð½Ð¸Ð¼ÑĥÐ¼":7975,"ÑģÐ¿Ð¸":7976,"ĠÑģÑĩÐµÑĤÐ°":7977,"raz":7978,"ĠÑĢÐ°ÑģÑģÐ¼Ð¾ÑĤ":7979,"ĠÐ·Ð°Ð´Ð°ÑĩÐ¸":7980,"CH":7981,"ĠÐ¸ÑģÑĤÐ¸":7982,"901":7983,"ĠÑĢÐ°Ð´Ð¸Ð°":7984,"ĠÐ¾ÑĤÐ´ÐµÐ»ÑĮÐ½ÑĭÑħ":7985,"Ð»ÑİÐ´Ð°ÑĤÑĮ":7986,"ĠÐ·Ð°ÐºÐ¾Ð½Ð¾Ð¼":7987,"443":7988,"ĠÐ²Ð°Ð»ÑİÑĤ":7989,"ĠÐ²Ð·Ð³Ð»ÑıÐ´":7990,"ĠÐ¼ÑĥÐ»ÑĮÑĤÐ¸":7991,"9893":7992,"ĠÐ³Ð¾ÑģÑĥÐ´Ð°ÑĢÑģÑĤÐ²ÐµÐ½Ð½Ð¾Ð³Ð¾":7993,"ÐĽÐ¸":7994,"ĠÐ·Ð°ÑĢ":7995,"UM":7996,"ays":7997,"ĠÐĺÐ¼":7998,"ĠÐĲÐ¼ÐµÑĢÐ¸":7999,"ĠÐ»Ð¾Ðº":8000,"nÐŁÑĢÐ¾Ð´":8001,"ĠÑģÐ±":8002,"ĠÑģÐ°Ð´Ð¾Ð²":8003,"ĠÐŁÐ¾Ð»ÑĮÐ·Ð¾Ð²Ð°ÑĤÐµÐ»ÑĮ":8004,"ĠÐ½Ð°ÑģÑĭ":8005,"ĠÐºÐ²Ð°ÑĢÑĤÐ¸ÑĢÑĥ":8006,"ĠÑģÐ¾Ðº":8007,"148":8008,"ĠÐ²ÑĭÐ¿ÑĥÑģÐº":8009,"Ð·Ð¸ÑĢÐ¾Ð²Ð°ÑĤÑĮ":8010,"ĠÐ±ÑĭÑģÑĤÑĢÐµÐµ":8011,"Ð¿Ð°Ð·":8012,"ĠÑģÑĤÑĢÐ°Ð½Ð¸ÑĨÑĥ":8013,"403":8014,"ÐºÐ°Ðº":8015,"ÑĥÐ´Ð¾Ð²Ð°Ð½Ð¸Ðµ":8016,"ĠÐ¸Ð·Ð³Ð¾ÑĤÐ¾Ð²Ð»ÐµÐ½Ð¸Ñı":8017,"ĠÑĦÐ°Ð¹Ð»Ñĭ":8018,"ÑĪÐºÐ¾Ð¹":8019,"296":8020,"ĠÐ¿Ð°ÑģÑģÐ°":8021,"ĠÐºÐ¾Ð¼Ñĥ":8022,"ĠÑĪÐ°Ð½":8023,"ĠÐ¾ÑĤÐ´ÐµÐ»Ð°":8024,"ĠÐľÐµÐ´Ð¸":8025,"ÐºÑĢÑĥ":8026,"ÑįÑĢ":8027,"ĠÐ¼ÑĭÑģÐ»Ð¸":8028,"2028":8029,"ĠÐ¾Ð±ÐµÑģÐ¿ÐµÑĩÐ¸ÑĤÑĮ":8030,"ÑģÐµÐ¹":8031,"ĠÐ¿ÑĢÐ¸ÑĩÐ¸Ð½":8032,"ÐĿÐ¡":8033,"ĠÐ¥Ð¾ÑĤÑı":8034,"Ð»Ð¾ÑĢÐ¸":8035,"ĠÑĥÑĩÐµÑĤÐ°":8036,"ĠÐĶÐ¼Ð¸ÑĤÑĢÐ¸Ð¹":8037,"141":8038,"].":8039,"Ð·Ð¼Ðµ":8040,"ÑģÐ°Ð¼":8041,"its":8042,"ĠÑĥÑģÐ¿":8043,"ĠÐ°Ð»Ð»ÐµÑĢ":8044,"Ð¿Ð¸Ð½":8045,"ĠÐ½ÑĥÐ¶ÐµÐ½":8046,"ish":8047,"9735":8048,"Ð´Ð¸Ð´Ð°":8049,"Ð´Ð°Ñħ":8050,"657":8051,"ĠÑģÐºÐ¸Ð´":8052,"ĠÑĢÐµÐºÐ»Ð°Ð¼Ñĭ":8053,"ĠÐ¼Ð½ÐµÐ½Ð¸Ðµ":8054,"ÐµÐºÐµ":8055,"Ð¾ÑģÑĤÐ¾Ð¹":8056,"Ð»ÐµÐ½Ð½Ð¾Ðµ":8057,"ĠÐ§ÐµÐ»ÑıÐ±Ð¸Ð½":8058,"Ð²Ð°Ñİ":8059,"ĠÐ»Ð¸Ð´ÐµÑĢ":8060,"ĠÐµÐ¼":8061,"ÐµÐ½ÑĮÐµ":8062,"ĠÐ¶ÐµÐ»Ñĥ":8063,"ĠÐ·Ð½Ð°Ð½Ð¸Ñı":8064,"-\\":8065,"ĠÐ£Ð¿ÑĢÐ°Ð²Ð»ÐµÐ½Ð¸Ðµ":8066,"ĠÐ¢Ñİ":8067,"ĠÐ¼Ð¾Ð¸Ñħ":8068,"ÑĢÐ°ÑĨÐ¸Ñı":8069,"209":8070,"ĠÐºÐ¾ÑĦÐµ":8071,"ĠÑģÐ¾Ð²ÐµÑĤÑĭ":8072,"Ġ:\\":8073,"ĠÐ¾Ð´ÐµÐ¶Ð´Ñĭ":8074,"Ð»Ð¾Ð¶Ð¸ÑĤÑĮ":8075,"Ð¼ÑĭÑħ":8076,"868":8077,"ÐµÐ²Ð¾Ð¹":8078,"ĠÐĲÐŀ":8079,"ĠÑģÐ¾Ð·Ð½Ð°":8080,"ĠÐ»ÑİÐ±Ð¾Ð²ÑĮ":8081,"ÐµÐ½Ð½Ð¾ÑģÑĤÑĮ":8082,"br":8083,"ĠÐ¾Ð±Ð¾Ð¸":8084,"ĠÐ¿ÑĢÐ¾Ð¼ÑĭÑĪÐ»ÐµÐ½Ð½Ð¾ÑģÑĤÐ¸":8085,"Ð³Ð¸Ñİ":8086,"ĠÐĵÑĥ":8087,"ĠÐ°Ð½Ð³Ð»Ð¸Ð¹":8088,"ĠÐ¶ÐµÐ½ÑīÐ¸Ð½Ð°":8089,"ĠÑĢÐ°ÑģÑģÑĭ":8090,"Ð¾Ð»Ð¾Ð³Ð¸ÑĩÐµÑģÐºÐ¸Ðµ":8091,"Ð¾ÑģÑĤÐ¾Ð²ÐµÑĢ":8092,"ÑĤÐ¾ÑĢÐ¸Ð¸":8093,"ĠÐ¾ÑĤÐ»Ð¸ÑĩÐ¸Ðµ":8094,"ĠÐ¿Ð¾Ð´ÑĩÐµÑĢ":8095,"ĠÐ¿Ð¾Ð»Ð½Ð¾Ð¹":8096,"ĠÐ²ÑģÐº":8097,"ĠÑģÑĤÑĢÐ¾Ð¸ÑĤÐµÐ»ÑĮÑģÑĤÐ²Ð¾":8098,"ĠÐ¿ÐµÑĤ":8099,"ĠÑıÐ¹":8100,"ÐµÐ½ÑģÐ°":8101,"ĠÐļÐŀ":8102,"ĠÑģÐºÐ°Ð·":8103,"Ð¼ÑĥÑĢ":8104,"ĠÐ±Ð¾Ð»Ð¸":8105,"ĠÑĤÐµÑħÐ½Ð¸ÑĩÐµÑģÐºÐ¸Ðµ":8106,"nÐĴÐ¸Ð´ÐµÐ¾":8107,"ĠÐĺÑĤÐ°":8108,"9908":8109,"ĠÐ¡Ð²Ñı":8110,"nÐ¡ÑĤÐ¾Ð¸Ð¼Ð¾ÑģÑĤÑĮ":8111,"Ð¾ÑĢÑıÐ´":8112,"ÐºÑĢÑĭÑĤÑĮ":8113,"ĠÐ¾Ð±ÑīÐµÐ¹":8114,"ĠÐ´Ð¸Ñģ":8115,"ĠÐ¾ÑģÐ½Ð¾Ð²Ð°Ð½Ð¸Ñı":8116,"ÑĢÐ°Ð²Ðµ":8117,"ĠÐ°ÐºÐ°Ð´ÐµÐ¼Ð¸":8118,"180":8119,"ĠÑģÐ¼ÐµÑģÐ¸":8120,"ĠÐºÐ°ÑĢÑĤÑĥ":8121,"ĠÐ²Ð¾ÑĢ":8122,"ĠÐ²ÑĭÑĢÐ°ÑīÐ¸":8123,"ĠSamsung":8124,"ÑīÐ¸ÐµÑģÑı":8125,"ÐµÐ½ÐºÐ¾":8126,"nK":8127,"ĠÑĥÐ»Ð¸ÑĨÐµ":8128,"9846":8129,"ĠÐ¸Ð´ÐµÐ½":8130,"ĠÑģÑĥÐ±ÑĬÐµ":8131,"ÑĩÐ¸ÑĤÐµ":8132,"ĠÐ¾ÑĦÐµÑĢ":8133,"ĠÑĥÑģÑĤÐ°Ð½Ð¾Ð²ÐºÐ°":8134,"........":8135,"SD":8136,"ĠÐ±ÑĢÐ°ÑĤÑĮ":8137,"ĠÐĶÐ°Ð¶Ðµ":8138,"ĠÐ´Ð¾Ð±Ñĭ":8139,"Ð¾ÐµÐ´Ð¸Ð½":8140,"ĠÐ±ÐµÐ»ÑĮ":8141,"Ð½Ð¾Ð²ÑĮ":8142,"Ð·Ð¸Ð²":8143,"ĠÐ´ÐµÐ¼Ð¾Ð½":8144,"ÑĩÐ½Ð¸ÐºÐ°":8145,"ĠÐ¿ÐµÑĢÐµÐ´Ð°ÑĩÐ¸":8146,"ĠÑĤÐ°ÑĢÐ¸ÑĦ":8147,"ĠÑĢÐ¾":8148,"9950":8149,"ĠÑħÐ¸ÑĢÑĥÑĢ":8150,"ĠÐ½Ð°ÑģÑĤÑĢÐ¾Ð¹ÐºÐ¸":8151,"Ð¶ÐµÐº":8152,"ĠÐ±Ð¾Ð»ÑĮÑĪÐ¸Ñħ":8153,"ÐĵÐĲ":8154,"682":8155,"ĠÐ¾Ð±ÑĬÑıÐ²":8156,"ĠÐºÐ¾ÑĢÐ¿Ð¾ÑĢÐ°":8157,"ĠÐ³Ð¾Ð´Ð¾Ð²":8158,"Ð¾Ð³ÑĢÐ°ÑĦÐ¸Ð¸":8159,"ĠÐ½ÑĥÐ¶Ð´Ð°":8160,"ĠÐ¡Ð¾":8161,"ÐºÐ²Ð°":8162,"ĠÐ¾Ð±ÑģÐ»ÑĥÐ¶Ð¸Ð²Ð°Ð½Ð¸Ñı":8163,"142":8164,"ĠÐ»Ð¸ÑģÑĤ":8165,"Ð¶Ð´Ð°Ñı":8166,"ĠÐ½Ð°Ð¿Ð¾Ð¼Ð¸Ð½Ð°":8167,"ĠÑĤÐµÐ¿Ð»Ð¾":8168,"Ð²Ð¾ÐºÐ°":8169,"ĠÑģÐµÑĢÐ´ÑĨÐ°":8170,"ĠÑģÐ°Ð¹ÑĤÐ¾Ð²":8171,"ĠÐºÐ¾Ð½ÑĨÐµÐ½ÑĤ":8172,"880":8173,"Ð³Ð°Ñħ":8174,"ÑģÑĤÐ°Ð¼Ð¸":8175,"Ð¾ÐºÑĥÐ¿":8176,"ÐĴÐķ":8177,"ĠÐĶÑĥÐ¼Ð°":8178,"ÑĢÐ¾Ð²Ð°Ñı":8179,"ÑĤÐ¸ÐºÑĥÐ»":8180,"Ð»Ð¾Ð²Ð":8181,"Ð»Ð¸Ð·Ð°ÑĨÐ¸Ð¸":8182,"Ð»Ð¾Ð²Ð¾":8183,"IA":8184,"Ð¢ÐŁ":8185,"ĠÐ³Ð³":8186,"ÐºÐ¾Ñģ":8187,"Ð²ÑĪÐµÐ³Ð¾":8188,"ĠÐºÐ¾Ð¿":8189,"ĠÐ¿ÑĢÐ¾Ð²Ð¾Ð´Ð¸ÑĤÑģÑı":8190,"ĠÑĤÐµÐ»ÐµÐ²Ð¸":8191,"2009":8192,"ĠÐ¿Ð¾Ð´ÐµÐ»Ð¸":8193,"IR":8194,"rom":8195,"Ð¼ÑĥÑİ":8196,"ĠÐ´ÑĭÑħÐ°":8197,"9793":8198,"ions":8199,"Ð°ÑĢÐ¸":8200,"ĠÐ´Ð°Ð»ÑĮÐ½ÐµÐ¹ÑĪÐµÐ¼":8201,"ĠÑįÐºÑģÐºÑĥÑĢ":8202,"ÑİÐ¹":8203,"nÐŁÐ¾Ñħ":8204,"ĠÑĤÐµÐ°ÑĤ":8205,"ÐĳÐ£":8206,"ĠÐ½ÑĥÐ¶Ð½Ð°":8207,"ÑĩÐ½Ð¾ÑģÑĤÐ¸":8208,"Ġma":8209,"ĠÐĲÐ±":8210,"ti":8211,"ĠÐ¿Ð¾ÑģÑĤÐµÐ¿":8212,"ÐºÐ¾Ð½Ð¾Ð¼Ð¸ÐºÐ°":8213,"ĠÐ¿Ð¾ÑģÑĤÑĥÐ¿Ð°":8214,"ĠÐ¡Ð²ÐµÑĢÐ´Ð»Ð¾Ð²":8215,"ĠÐ»Ð°Ð±Ð¾ÑĢÐ°":8216,"ĠÐĵÐµÑĢÐ¼Ð°Ð½Ð¸Ð¸":8217,"Ð°Ð½ÑĮ":8218,"ÑĩÑĳ":8219,"Ð¾Ð¿ÑĢÐ¾Ð²":8220,"ÑĩÐµÐ½ÐºÐ¾":8221,"index":8222,"ÑĤÐµÑħÐ½Ð¸":8223,"810":8224,"nÐļÐ¾Ð¼Ð¿":8225,"ĠÐĴÐ¾Ñģ":8226,"ĠÐ·Ð°Ð´Ð°ÑĩÐ°":8227,"2006":8228,"ÑĪÐµÐ¼Ñĥ":8229,"ÑģÐ¼Ð¾ÑĤÑĢÑı":8230,"ÑĪÐµÐ½Ð":8231,"ÑĪÐµÐ½Ð¾":8232,"9903":8233,"ĠÐ´ÑĢÐµÐ²Ðµ":8234,"Ð¾Ð½ÑĤÐ°Ð¶":8235,"9877":8236,"ÑİÐºÐ·Ð°":8237,"ĠÐ¸Ð½ÑģÑĤÑĢÑĥÐ¼ÐµÐ½ÑĤ":8238,"ÑıÐ±ÑĢÐµ":8239,"ĠÐ¿Ð¾Ð¹":8240,"Ð¡Ðļ":8241,"ress":8242,"ĠÐ¾ÑĢÐ¸ÐµÐ½ÑĤÐ¸":8243,"ome":8244,"ĠÐºÐ°Ð¼ÐµÐ½":8245,"Ð³Ð¾Ð´Ð½Ð¾":8246,"ĠÑģÐ¾Ð²ÑĢÐµÐ¼ÐµÐ½Ð½ÑĭÑħ":8247,"ĠÑģÐ¾Ð±ÑĭÑĤÐ¸Ð¹":8248,"ĠÐ¡Ñĭ":8249,"ux":8250,"Ð´Ð°Ð»ÐµÐµ":8251,"Ð±ÑĭÑĩÐ½Ð¾":8252,"ÑĢÐ¾Ð²Ð°Ð½Ð½Ð¾Ð³Ð¾":8253,"ĠÐ¿Ð¾ÑģÐ¾Ð±Ð¸":8254,"ÑģÑĤÐµÐ¼Ñĭ":8255,"ĠÐ³Ð°Ð·Ð°":8256,"Ġ33":8257,"ĠÑĢÐ°Ð·Ð½Ð¾Ð¾Ð±ÑĢÐ°Ð·":8258,"ÑĢÐ¾Ð²Ð°Ð½Ð½Ð¾Ð¹":8259,"ĠÐ¿ÑĢÐµÐ´ÑģÑĤÐ°Ð²Ð»ÐµÐ½Ñĭ":8260,"ÑīÐ¸ÑĤÐ°":8261,"ĠÐºÐ°ÑĤÐ°Ð»Ð¾Ð³":8262,"ĠÐ¼Ð¾Ð´ÐµÐ»ÐµÐ¹":8263,"ĠÐ´Ð°Ð»ÐµÐºÐ¾":8264,"Ð¿ÐµÐ»ÑĮ":8265,"ÐĴÑģÐµ":8266,"nÐĶÐ°ÑĤÐ°":8267,"Ð½ÑĥÐ»ÑģÑı":8268,"ĠÑģÐ¾Ð³Ð»Ð°ÑĪÐ°":8269,"ĠÐ½ÐµÐ¸ÑģÐ¿":8270,"ÐµÑģÐ»Ð¸":8271,"ĠÐ¢Ð¾Ð³Ð´Ð°":8272,"ĠÐ¸ÑģÐ¿Ð¾Ð»Ð½Ð¸ÑĤÐµÐ»ÑĮ":8273,"ĠÐ¿Ð°ÑĨÐ¸ÐµÐ½ÑĤÐ¾Ð²":8274,"ĠiPhone":8275,"ÐļÐ¸":8276,"ĠÐ·Ð´ÑĢÐ°Ð²Ð¾Ð¾ÑħÑĢÐ°Ð½ÐµÐ½Ð¸Ñı":8277,"oc":8278,"Ð²Ð¾ÑĢÐµ":8279,"ĠÐ·Ð´Ð°":8280,"Ð²ÐµÑĢÑħ":8281,"ĠÐ°Ð²ÑĤÐ¾ÑĢÐ°":8282,"ĠÐ²Ð¾Ð·Ð´ÑĥÑħ":8283,"ÑįÑĤ":8284,"ĠÑħÑĥ":8285,"ĠÑģÐ¾Ð¶Ð°Ð»ÐµÐ½Ð¸Ñİ":8286,"ĠÑģÐ»ÑĥÐ¶Ð±Ð°":8287,"ÐµÑĤÑĢÐ¾Ð²":8288,"ĠÐ¿Ð»Ð¾ÑīÐ°Ð´Ð¸":8289,"ĠÑģÐ»Ð°Ð´":8290,"089":8291,"BEC":8292,"ĠÑģÐµÑĢÐ´Ðµ":8293,"ÑįÐ¹":8294,"ĠÐºÐ°ÑĢÑĤÐ¸":8295,"ĠÐ¾Ð±ÑĬÐµÐºÑĤÐ°":8296,"ĠÐ¿Ð°ÑģÑģÐ°Ð¶Ð¸":8297,"ĠÐ¸Ð½Ð¸ÑĨÐ¸":8298,"ĠÑģÑĤÐ°Ð±Ð¸":8299,"ĠÐ½Ð¾Ð²Ð¾Ðµ":8300,"Ð»Ð¾ÑīÐ°":8301,"ÑĩÐ¾Ðº":8302,"ÑĩÐ½ÑĭÐ¼Ð¸":8303,"828":8304,"ÑģÑĤÑĢÑĥÐºÑĨÐ¸Ñı":8305,"ĠÐ±ÐµÐ·Ð¾Ð¿Ð°ÑģÐ½Ð¾ÑģÑĤÑĮ":8306,"ĠÑģÐ¾ÑħÑĢÐ°Ð½":8307,"Ð»ÑĮÐ½Ð¾ÑģÑĤÐ¸":8308,"Ð¾Ð»ÐµÐ²":8309,"ĠÐ¿Ð¾ÑĤÑĢÐµÐ±ÑĥÐµÑĤÑģÑı":8310,"ÑĤÐµÐ½ÑģÐ¸Ð²":8311,"ere":8312,"ĠÐ°ÐºÑĤÐ¸Ð²Ð½Ð¾":8313,"ĠÑĢÐ°Ð·Ð¼ÐµÑĢÑĭ":8314,"Ð±Ð¸ÑĤÑĢÐ°Ð¶":8315,"ÑģÐ»Ð¾Ð²Ð¸Ñı":8316,"ĠÐ¿ÑĢÐµÐ¿Ð°ÑĢÐ°ÑĤÑĭ":8317,"ĠÑıÐ·ÑĭÐºÐµ":8318,"ĠÐĲÐ»ÐµÐºÑģÐµÐ¹":8319,"ĠÐ¿ÑĢÐ¸Ð²Ð¾Ð´":8320,"ÐµÐ·Ð´Ðµ":8321,"ÐºÐ¾Ð²ÑģÐºÐ°Ñı":8322,"witter":8323,"ÑģÐ¸Ð½":8324,"ĠÑĥÑģÐº":8325,"ĠÐºÐ¾ÑĤÐ¾ÑĢÐ¾Ð¼Ñĥ":8326,"ĠÐ¿Ð¾Ð»ÑĮÐ·Ð¾Ð²Ð°ÑĤÐµÐ»Ð¸":8327,"ĠÐ¿Ð°ÑĨÐ¸ÐµÐ½ÑĤÐ°":8328,"ĠÑĢÐµÐºÐ¾Ð¼ÐµÐ½Ð´Ð°ÑĨÐ¸Ð¸":8329,"ĠÑģÐ²ÐµÑĢ":8330,"Ð¼ÐµÑĢÐ°":8331,"ĠÐ½ÐµÑĥ":8332,"ÐºÐ¾Ð²Ð¾Ð³Ð¾":8333,"ĠÑģÑĥÐ±ÑĬÐµÐº":8334,"9856":8335,"ĠÐ¾Ð¿Ñĥ":8336,"ĠÐ¾ÑģÑĤÑĢÐ¾Ð²":8337,"ĠÑħÐ¾ÑĩÐµÑĤÑģÑı":8338,"ĠÐļÑĢÐ°ÑģÐ½Ð¾ÑıÑĢ":8339,"ÑĤÐ¾ÑģÑĤÐ¸":8340,"Ð´Ð¸Ð½Ð³":8341,"PR":8342,"ĠÐ¥Ð¾ÑĢÐ¾":8343,"ĠÐ¿ÑĢÐ¸Ð¼ÐµÑĢÑĥ":8344,"nÐŁÐ¾ÐºÐ°Ð·Ð°ÑĤÑĮ":8345,"ĠÑĦÐ¸Ð»ÑĮÐ¼Ñĭ":8346,"ĠÐ¼ÑĭÑģ":8347,"ĠÑģÐ»Ð¾Ð¹":8348,"ĠÑģÐµÑĢÐ´ÑĨÐµ":8349,"ĠÐ¾ÑĤÐ¿Ñĥ":8350,"ĠÑģÐµÐ²ÐµÑĢ":8351,"ÑĤÐµÐ»ÑĮÐ½Ð¾Ð¼":8352,"Ð¾Ð¾Ð¿":8353,"ĠÐ¿Ð»Ð¾ÑīÐ°Ð´ÑĮ":8354,"ns":8355,"ĠÐ¿Ð¾Ð½Ð°Ð´Ð¾Ð±Ð¸":8356,"Ð³ÑĢÑĥÐ·ÐºÐ°":8357,"ĠÑĦÐ°Ð½ÑĤÐ°":8358,"Ð§Ðµ":8359,"ÑĩÐ°ÐµÑĤÑģÑı":8360,"ĠÐļÐ¸ÑĢÐ¾Ð²":8361,"Ð¾ÑĤÐ¾Ð¹":8362,"ÑĨÐµÐ½ÐºÐ°":8363,"ĠÐ¼Ð°Ð¹":8364,"9855":8365,"ix":8366,"ĠÐ°ÑĢÐ¾Ð¼":8367,"ĠÐ¿ÑĢÐ¾ÑĦ":8368,"ĠÐ·Ð¾Ð»Ð¾ÑĤ":8369,"asino":8370,"ĠÐ¾Ð±ÑģÐ»ÑĥÐ¶Ð¸Ð²Ð°Ð½Ð¸Ðµ":8371,"ĠÑĥÑģÑĤÐ°Ð½Ð¾Ð²Ð»ÐµÐ½":8372,"ÑĩÐ¸Ð²Ð°ÑĤÑĮ":8373,"ĠÐ±Ð°Ð½ÐºÐ°":8374,"Ð°Ð²Ð»Ð¸":8375,"Ð¾ÑĨÐ¸Ð°":8376,"Ð¼ÐµÐ½Ñı":8377,"ĠÑĢÐµÐ¹ÑĤÐ¸Ð½Ð³":8378,"ÑĦÐµÐ´":8379,"ĠÐ²Ð¸Ð·Ñĥ":8380,"ĠÑģÐ¾Ð±Ð°Ðº":8381,"ĠÐ¿Ð¾Ð³Ð¸Ð±":8382,"ĠÐ¸Ð½ÑĤÐµÑĢÐ½ÐµÑĤÐµ":8383,"ĠÑĢÐµÐ·ÑİÐ¼Ðµ":8384,"ÑĢÐ°ÑģÑĤÑĢÑĥ":8385,"ĠÐ¿ÑĢÐ¾ÑĤÐ¸Ð²Ð¾Ð¿":8386,"Ð²Ð¸ÑĤÑĮÑģÑı":8387,"Ð¶Ð½ÑĭÐ¼":8388,"ĠÐ¿Ð»Ñı":8389,"ĠÐľÐ½Ðµ":8390,"665":8391,"ĠÐ·Ð½Ð°ÐµÑĤ":8392,"ĠÑĩÐ¸ÑĤÐ°ÑĤÑĮ":8393,"229":8394,"ĠÐ±Ð°ÑģÑģÐµÐ¹":8395,"ĠÐĲÑĦ":8396,"ĠÐ¡Ð¾Ð²ÐµÑĤÐ°":8397,"Ð¾ÑĩÐµÐ¼":8398,"959":8399,"artic":8400,"ĠÐ¾ÑĤÑģÑĥÑĤÑģÑĤÐ²Ð¸Ðµ":8401,"ĠÐ±ÑĢÐ¾Ñģ":8402,"ÐľÑĭ":8403,"ĠÐ¿ÑĢÐµÐ·":8404,"Ð¾Ð¼Ð¸Ð¼Ð¾":8405,"ĠÑī":8406,"ĠÑģÐ¼Ð¾Ð³ÑĥÑĤ":8407,"ÐĹÐĲ":8408,"Ġvar":8409,"ĠÐ½Ð°ÑĥÐº":8410,"ĠÐºÐ²Ð°Ð´":8411,"ÐĴÐ¡":8412,"ĠSh":8413,"ĠÐļÐ¾ÑģÑĤ":8414,"ĠÐķÐ²ÑĢÐ¾Ð¿Ñĭ":8415,"ime":8416,"ĠÐ¼ÑĥÐ¶ÑĩÐ¸Ð½Ð°":8417,"nÐŃÑĤÐ¾ÑĤ":8418,"ĠÐ¤ÐµÐ´ÐµÑĢÐ°Ð»ÑĮÐ½Ð¾Ð¹":8419,"ĠÑĢÐ°Ð·Ð¼ÐµÑĢÐµ":8420,"ĠÐ¿Ð¸ÑĪÐµÑĤ":8421,"119":8422,"nÐ¡Ðº":8423,"nÐĴÐ¾Ð¿ÑĢÐ¾Ñģ":8424,"ĠÐ·Ð°ÐºÐ¾":8425,"nÐ½Ðµ":8426,"Ð»Ð°Ðº":8427,"Ġyour":8428,"ĠÐ¿Ð¾Ð²Ð¾Ð´Ñĥ":8429,"ile":8430,"ĠÐ¸Ð³ÑĢÐ¾Ð²ÑĭÑħ":8431,"ĠÐ´Ð¸Ð¿Ð»Ð¾Ð¼":8432,"ĠÐ¿Ð¾Ð»ÑĥÑĩÐ°ÐµÑĤÑģÑı":8433,"ÐĴÑĤ":8434,"ĠÑĤÑİ":8435,"ĠÐ¼ÐµÑħÐ°Ð½Ð¸Ð·Ð¼":8436,"ÐŃÐļ":8437,"ĠÑĥÐ½Ð¸ÑĩÑĤÐ¾Ð¶":8438,"land":8439,"----------------":8440,"Ġan":8441,"ĠÑĢÐµÐ·ÑĥÐ»ÑĮÑĤÐ°ÑĤÐ¾Ð²":8442,"Ġ800":8443,"Ġ43":8444,"Ð»ÑıÑı":8445,"ĠÐ¿Ð¸ÑĤÐ°Ð½Ð¸Ðµ":8446,"ica":8447,"ÑĤÐ¸Ð¼":8448,"ÑīÐµÐ½Ð½ÑĭÐµ":8449,"ĠÐ·Ð°ÑıÐ²Ð»ÐµÐ½Ð¸Ðµ":8450,"ÑģÐ°Ð¹ÑĤ":8451,"Ð´Ð¾Ð²Ð°":8452,"Ð»Ð¸Ð²Ð¾":8453,"nÐ¡Ð»ÐµÐ´Ñĥ":8454,"178":8455,"1476":8456,"ĠÐ²Ð·ÑĢÐ¾ÑģÐ»ÑĭÑħ":8457,"ĠÐ¿ÑĢÐ¾Ð¸Ð·Ð²Ð¾Ð´Ð¸ÑĤÐµÐ»ÐµÐ¹":8458,"ĠÐ°ÐºÑĤÐ¸Ð²Ð¸":8459,"ĠÑĢÐµÐ·ÐµÑĢ":8460,"ÑĤÐµÑĢÐµ":8461,"ÐºÐ°Ð½Ð°":8462,"ĠÐ·Ð°Ð¸Ð½ÑĤÐµÑĢÐµÑģ":8463,"ĠÐ²Ð¾Ð·ÑĢÐ°ÑģÑĤ":8464,"dlya":8465,"ĠÐ»Ð¾Ð²":8466,"ĠÐ²Ð½Ð¾Ð²ÑĮ":8467,"ÑĢÐ½Ð¾Ð¹":8468,"nÐŁÐ¾Ð¼":8469,"ĠÑģÑĥÐ´ÑĮ":8470,"ÐºÐ¾Ð²Ð¸":8471,"013":8472,"Ð±ÐµÑĤ":8473,"ÐºÐ¸Ñı":8474,"app":8475,"ÑģÐ½ÑĭÐ¹":8476,"nÐŁÐ¾Ð´Ð¿Ð¸":8477,"ĠÐ¿ÑĢÐ¸Ð¼ÐµÐ½ÐµÐ½Ð¸Ðµ":8478,"002":8479,"ĠÐ¾Ð±Ð½Ð°ÑĢÑĥ":8480,"161":8481,"ĠÑģÐ¿Ð¾ÑģÐ¾Ð±Ñĭ":8482,"ĠÑĦÐµÑĢ":8483,"ĠÐ½Ð°ÐºÐ°":8484,"348":8485,"nÐĽÑĥÑĩ":8486,"ĠÐŁÐµÑĢÐµÐ´":8487,"ÐĿÐ«ÐĻ":8488,"Ð´Ð¾Ð±":8489,"ĠÐ¿ÑĢÐµÐ´Ð¾ÑģÑĤÐ°Ð²Ð»ÐµÐ½Ð¸Ñı":8490,"121":8491,"ÑĥÐ´Ð¾Ð²":8492,"Ð°ÑĢÐº":8493,"ĠÐ±Ð»Ð¾Ð³":8494,"Ð»ÐµÐ³Ð°":8495,"ĠÑĥÐºÑĢÐµÐ¿":8496,"ĠÐ±Ð¾Ð¹":8497,"ĠÐĺÑĢÐºÑĥÑĤ":8498,"ĠÑĢÐ¾Ð´Ð°":8499,"nÐļÐ°ÑĢÑĤÐ°":8500,"ĠÐ²ÑĢÑĥ":8501,"Ð¼ÐµÐ½ÑĤÐ¾Ð¼":8502,"nÐĳÐ¾Ð»ÑĮ":8503,"ĠÐ¿Ð¾ÑģÐµÐ»":8504,"ĠÐ¶Ð¸Ð´ÐºÐ¾ÑģÑĤÐ¸":8505,"ĠÑĥÑģÐ¿ÐµÑĪÐ½Ð¾":8506,"Ð»Ð¾ÑĢ":8507,"ĠÑģÐ¾Ð½":8508,"ĠÐ¸Ð¼ÐµÐµÑĤÑģÑı":8509,"ĠÐ°ÐºÑĤ":8510,"ĠÑĩÐ°ÑģÑĤÑĮÑİ":8511,"ĠÐ¸ÑģÐ¿Ð¾Ð»ÑĮÐ·ÑĥÐµÑĤ":8512,"ĠÑĩÐµÐ¼Ñĥ":8513,"ĠÐļÑĥÐ·":8514,"99884":8515,"ĠÐ±Ð¾Ð»ÑĮÑĪÐ°Ñı":8516,"Ð¾Ð¿ÐµÑĢÐ°":8517,"ĠÑĦÐ¸Ð»ÑĮÐ¼":8518,"ĠÐ²Ð°Ð½Ð½Ð¾Ð¹":8519,"ĠÐ½Ð°ÑģÑĤÐ¾ÑıÑīÐµÐ³Ð¾":8520,"nÐĶÐµÑĤ":8521,"ÐºÑĤÐ¸ÑĢÐ¾Ð²Ð°ÑĤÑĮ":8522,"ĠÑģÑĥÑģÑĤÐ°Ð²":8523,"269":8524,"ĠÐ·Ð°ÑīÐ¸ÑĤÐµ":8525,"Ð¶Ð¸Ð²Ð°ÑĤÑĮ":8526,"ĠÐ¿ÑĢÐ¸Ð±Ð»Ð¸":8527,"ĠÑĢÐµÑĪÐµÐ½Ð¸Ð¹":8528,"ĠÐ²ÑĭÐ±Ð¾ÑĢÐµ":8529,"ĠÐļÑĢÑĭÐ¼":8530,"Ġ|--":8531,"Ð¶Ð°Ð»Ð¸":8532,"CEB":8533,"Ð½Ð¾Ð²ÑĭÐµ":8534,"red":8535,"ĠÐ²ÐµÑģÐµ":8536,"Ð°ÑĢÐ´":8537,"ĠÐłÐ¾ÑģÑģÐ¸Ð¹":8538,"ĠÑįÐºÐ¾Ð½Ð¾Ð¼Ð¸ÐºÐ¸":8539,"ĠÑĤÑĢÑĥÐ±Ñĭ":8540,"\\\":\\\"":8541,"ĠÐ·Ð½Ð°Ð¼ÐµÐ½Ð¸":8542,"ĠÐ¶Ð¸Ð»Ð¸Ñī":8543,"ĠÐ²Ð½ÐµÑģÐµÐ½Ð¸Ð¸":8544,"ĠÑģÐ¾Ð¾Ð±ÑīÐ¸Ð»":8545,"ĠÑģÑĤÑĢÐ°Ð½Ð°Ñħ":8546,"ÑģÑĤÑĢÐ¾Ð¹ÑģÑĤÐ²Ð°":8547,"ĠÐ³Ð¾ÑĢÐ¸Ð·":8548,"tr":8549,"ÑĪÐ°Ð½":8550,"ĠÐ¸Ð½ÑĤÐµÑĢÑĮÐµÑĢ":8551,"140":8552,"ĠÑħÐ¾Ð·Ñı":8553,"ĠÐºÐ°Ð±Ðµ":8554,"ĠÐĿÐ¾Ð²Ð³Ð¾ÑĢÐ¾Ð´":8555,"ĠÐļÑĥÐ¿Ð¸ÑĤÑĮ":8556,"nÐ¡Ð¾Ð³Ð»Ð°":8557,"ĠÑĤÐµÐ¼Ð°":8558,"ĠÐŀÑĤÐµ":8559,"Ð¾Ð»ÑĮÑģÐºÐ¸Ð¹":8560,"ode":8561,"ĠÐ¼Ð¾ÑĤ":8562,"ĠÐ´ÐµÑĤÑıÐ¼":8563,"ĠÐ¼Ð°Ð³Ð°Ð·Ð¸Ð½Ð°":8564,"ĠÐ½Ð°ÑĩÐ¸Ð½Ð°ÐµÑĤÑģÑı":8565,"nÐŁÑĢÐ¾Ñģ":8566,"ĠÑģÐ¿ÐµÑĨÐ¸Ð°Ð»ÑĮÐ½ÑĭÐµ":8567,"ĠÑģÐµÐºÑģ":8568,"ĠÑįÑĦÐ¸":8569,"ĠÑĥÑģÑĤÑĢÐ¾Ð¹ÑģÑĤÐ²":8570,"ĠÐ¼Ð¾ÑĪÐµÐ½":8571,"ĠÑģÑĤÑĢÐµÐ¼Ð¸":8572,"ĠÑģÐ»ÐµÐ´ÑĥÑİÑīÐ¸Ð¹":8573,"Ð»ÐµÑĢÐ°":8574,"Ð±Ð°ÑĢÐ¸":8575,"ÐĿÐķ":8576,"ĠÑģÐ¾Ð³Ð»Ð°ÑĪÐµÐ½Ð¸Ðµ":8577,"ĠÑĢÐ°Ð·Ð²Ð¸ÑĤÐ¸Ñİ":8578,"ĠÐ»Ð¸Ð½ÐµÐ¹":8579,"ĠÐ·Ð°ÑħÐ²Ð°":8580,"ĠÑģÑĥÐ¿ÐµÑĢ":8581,"ĠÑģÐ¾Ð»Ð¸":8582,"ts":8583,"ÐµÐºÑģÐ°":8584,"ĠÐ¿Ð¾Ð»Ð¾Ð²":8585,"Ð¼ÑĥÐ»Ð¸":8586,"ĠÐ²Ð¾Ð·Ð±Ñĥ":8587,"ĠÑħÐ¾Ð´Ð¸":8588,"008":8589,"ĠÐ´Ð°Ð²Ð»ÐµÐ½Ð¸Ðµ":8590,"ĠÐĶÐµÐ¿Ð°ÑĢÑĤÐ°":8591,"ĠÐ¸ÑģÑģÐ»ÐµÐ´Ð¾Ð²Ð°Ð½Ð¸Ð¹":8592,"ĠÐ¿ÑĢÐ¾ÐµÐºÑĤÑĭ":8593,"Ð²Ð°ÑİÑīÐ¸Ñħ":8594,"Ġ2006":8595,"EBE":8596,"ĠÐ¾Ð±ÑīÐµÐ¼":8597,"ĠÐ£ÐºÑĢÐ°Ð¸Ð½Ð°":8598,"168":8599,"848":8600,"ĠÐºÐ¾Ð¼Ð¿Ð¾Ð·Ð¸":8601,"872":8602,"ĠÐ²ÐµÐ»Ð¾Ñģ":8603,"ĠÐ³ÑĢÐ°Ð´ÑĥÑģÐ¾Ð²":8604,"âĢ¦âĢ¦":8605,"Ð½Ð¾ÑģÐ¸ÑĤÑĮ":8606,"ĠÐ±Ð¾Ð½Ñĥ":8607,"med":8608,"ech":8609,"ĠÐ½Ð°Ð·Ð½Ð°ÑĩÐµÐ½Ð¸Ñı":8610,"ĠÐ²Ð¿ÑĢÐ°Ð²Ðµ":8611,"ĠÐĴÑĥÐ»ÐºÐ°Ð½":8612,"ĠÐļÐ½Ð¸":8613,"ÑĩÐ¸Ð¼":8614,"ĠÐ±Ð¾Ð»ÑĮÑĪÑĥÑİ":8615,"ĠÐ¿Ð¾Ð´Ð¾Ð±ÑĢÐ°ÑĤÑĮ":8616,"ÑģÑĤÐ¸ÐºÐ¸":8617,"nÐ¡Ð¿Ð°ÑģÐ¸Ð±Ð¾":8618,"ĠÐ¾Ð±Ð¸":8619,"ĠÐ¿Ð¾Ð´ÑĢÐ¾ÑģÑĤ":8620,"ĠÐ¸ÑģÐ¿Ð¾Ð»Ð½ÐµÐ½Ð¸Ñı":8621,"ĠÐ¿ÑĢÐ¾ÑģÑĤÑĢÐ°Ð½ÑģÑĤÐ²Ð¾":8622,"Ð°Ð»ÑģÑı":8623,"ĠÐ¸Ð½ÑģÑĤÑĢÑĥÐºÑĨÐ¸Ñı":8624,"ĠÐ¾ÑĨÐµÐ½ÐºÐ¸":8625,"Ð»ÑĮÐ½Ð¾ÑģÑĤÑĮ":8626,"9867":8627,"ĠÐºÐ¾ÑĤÐ¾ÑĢÑĭÐ¼Ð¸":8628,"ÑħÐ°Ð½Ð³ÐµÐ»ÑĮ":8629,"ĠÐ¶ÑĥÑĢÐ½Ð°Ð»Ð¸":8630,"Ð¾Ð»Ð¾Ð³Ð¸ÑĩÐµÑģÐºÐ¸Ñħ":8631,"Ð½Ð¸Ð¼Ð°Ð½Ð¸Ðµ":8632,"158":8633,"ÐµÑĢÑĪÐµÐ½":8634,"ĠÐ¾Ð±Ð»Ð°Ð´Ð°":8635,"ÐĿÐĵ":8636,"ĠÐ³Ð¾ÑģÑĤ":8637,"ĠÐĴÐŀ":8638,"ĠÐ°ÐºÑģÐµÑģÑģÑĥÐ°ÑĢÑĭ":8639,"ĠÑĦÐ°Ð¹Ð»Ð¾Ð²":8640,"ĠÐ¾Ð±ÑĬÑıÐ²Ð»ÐµÐ½Ð¸Ñı":8641,"ĠÐ¦ÐµÐ½Ð°":8642,"ĠÐ¿Ð¾ÑģÑĤÐ°":8643,"ÐłÐ¾ÑģÑģÐ¸Ñı":8644,"nÐļÐ¾Ð¼Ð¿Ð°Ð½Ð¸Ñı":8645,"ÐĴÐ«":8646,"ĠÑĤÐµÐ¼Ð¿ÐµÑĢÐ°ÑĤÑĥÑĢÐ°":8647,"Ð¾Ð´ÐµÑĢÐ¶Ð°Ð½Ð¸Ðµ":8648,"ĠÐ²ÑĭÐ¿":8649,"ĠÑĥÑĤÐ²ÐµÑĢÐ¶Ð´Ð°":8650,"ĠÐ²ÐºÐ»Ð°Ð´":8651,"Ð¼ÐµÐ½ÑĤÐµ":8652,"Ð²ÑģÐµ":8653,"ĠÐ²ÐµÑģÑĤÐ¸":8654,"ÑħÐ¾Ð´Ð¾Ð²":8655,"ÑĢÐ¾Ð²Ð°Ð½Ð½Ð°Ñı":8656,"ĠÐŁÐ¾Ð»ÑĮÐ·Ð¾Ð²Ð°ÑĤÐµÐ»Ñı":8657,"ree":8658,"Ð»ÑĮÑģÐºÐ¸Ð¹":8659,"ĠÐ¶Ð°ÑĢ":8660,"073":8661,"ÑĦÑĦ":8662,"Ð»Ð°ÑģÑģÐ¸":8663,"ĠÑĥÐ´Ð¾Ð±Ð½Ð¾":8664,"ÑĨÐ¾Ð¼":8665,"526":8666,"ĠÑĥÑĩÐµÐ½Ð¸":8667,"ÐºÑĤÑĥÑĢÑĭ":8668,"ĠÐ°Ð·Ð°":8669,"ÑĤÑĮÑıÐ½Ð°":8670,"lar":8671,"view":8672,"ÃĹ\\":8673,"ĠÑĥÑģÑĤÐ¾Ð¹ÑĩÐ¸Ð²":8674,"nÐļÐ°ÑĢ":8675,"tle":8676,"ĠÐľÐ¾Ð½":8677,"nÐ¢ÐµÐ»ÐµÑĦÐ¾Ð½":8678,"ĠÑĦÑĥÐ½ÐºÑĨÐ¸Ñı":8679,"ĠÐļÑĢÐ°ÑģÐ½Ð¾Ð´Ð°ÑĢ":8680,"ĠÑģÐ¸ÑĤÑĥÐ°ÑĨÐ¸Ñı":8681,"ĠÐ¿Ð»Ð¾ÑħÐ¾":8682,"ĠÐµÐ²ÑĢÐ¾":8683,"ĠÑĤÐµÑĢÑı":8684,"ÑĢÐ°Ð³":8685,"ĠÑįÐºÑģÐ¿ÐµÑĢÐ¸":8686,"Ð²Ð¾Ð´Ð¸ÑĤÑĮ":8687,"Ð¸Ð½Ð³Ð°":8688,"ĠÑģÑģÑĭÐ»ÐºÑĥ":8689,"ĠÑģÐ»ÐµÐ´ÑĥÑİÑīÐ¸Ñħ":8690,"ĠÐ¼Ð½ÐµÐ½Ð¸Ñİ":8691,"Ð»Ð°Ð½Ð°":8692,"ĠÐ²Ð°ÐºÐ°Ð½ÑģÐ¸Ð¸":8693,"Ð½ÐµÑĢÐ°Ð»ÑĮ":8694,"Ð¾ÐºÐµ":8695,"189":8696,"Ð½Ð½Ð¾Ð³Ð¾":8697,"ĠÐ¿Ð¾Ð´Ð½Ñı":8698,"we":8699,"ĠÑģÐ¿ÐµÑĨÐ¸Ð°Ð»Ð¸ÑģÑĤ":8700,"âĢĤ":8701,"Ð½Ð¾Ð¼ÐµÑĢ":8702,"248":8703,"EBF":8704,"nÐŀÑģÐ½Ð¾Ð²Ð½ÑĭÐµ":8705,"ÑĥÑĢÐ¼Ð°Ð½":8706,"nÐļÐ°ÑĤÐ°Ð»Ð¾Ð³":8707,"ÐµÐ½ÑĤÐ¾Ð¼":8708,"Ð¾Ð½ÑĮ":8709,"99988":8710,"FBB":8711,"Ð¢Ðµ":8712,"ĠÐ¼Ð°ÑģÑĪÑĤÐ°":8713,"Ð¶Ð°Ñı":8714,"ink":8715,"ĠÐºÐ½Ð¸Ð³":8716,"ĠÑĥÑĤÐ²ÐµÑĢÐ¶Ð´ÐµÐ½Ð¸Ð¸":8717,"ĠÐ¤Ð¾ÑĤÐ¾":8718,"ĠÑĥÐº":8719,"99875":8720,"ÑĢÑĥÐ¿Ð¿Ð°":8721,"ĠÐ§Ñĥ":8722,"149":8723,"UB":8724,"ors":8725,"Ð´Ð¸ÐºÐ°":8726,"ĠÐŁÑģÐºÐ¾Ð²":8727,"ĠÐ°Ð»ÑİÐ¼Ð¸":8728,"ĠÐ·Ð°ÑģÐµ":8729,"ÐľÐ¸":8730,"ĠÐ¿Ð¾ÑģÐ»ÐµÐ´Ð¾Ð²Ð°":8731,"ĠÐ¿Ð¸ÑģÑĮÐ¼Ð¾":8732,"ĠTh":8733,"><":8734,"ÐºÐ¾Ð¼Ñĥ":8735,"uz":8736,"ork":8737,"nÐĳÐ¸":8738,"Ġ46":8739,"ĠÐ´Ð¾ÑģÑĤÐ¾Ð¸Ð½":8740,"ĠÐ¡Ð¸Ð¼":8741,"ĠÐĸÐļ":8742,"ĠÐ³Ð¾ÑģÑĥÐ´Ð°ÑĢÑģÑĤÐ²ÐµÐ½Ð½ÑĭÑħ":8743,"ĠÑĢÐ°ÑģÑģÑĩÐ¸ÑĤÑĭ":8744,"ĠÑĢÐµÑĪÐ¸Ð»Ð¸":8745,"nÐ¡Ð°":8746,"ĠÑħÐ°ÑĢÐ°ÐºÑĤÐµÑĢÐ°":8747,"Ð·Ð°Ð¹Ð½":8748,"Ð²Ð°ÐµÐ¼ÑĭÐµ":8749,"ĠÑĤÑīÐ°ÑĤÐµÐ»ÑĮÐ½Ð¾":8750,"ĠÑĦÑĥÐ½ÐºÑĨÐ¸Ð¾Ð½Ð¸":8751,"Ð¾Ð´ÐµÐ»ÑĮ":8752,"Ð»ÐµÐ½Ð½ÑĥÑİ":8753,"()":8754,"ÑĤÑĥÑİ":8755,"ÑĢÐ°Ð²Ð¸ÑĤÑĮ":8756,"ĠÐºÐ°ÐºÐ¾Ðµ":8757,"ĠÐ½Ð°Ð´Ð·Ð¾ÑĢ":8758,"ĠÐ±ÐµÐ»ÑĭÐ¹":8759,"ĠÐ´ÑĢÑĥÐ·ÐµÐ¹":8760,"Ð·ÐµÐ½":8761,"ÑģÑĤÐ°Ð²Ð°":8762,"ps":8763,"ĠÐ¿ÑĢÐ¾Ð´Ð°Ð¶Ðµ":8764,"ĠÐ³ÑĢÑĥÐ¿Ð¿Ðµ":8765,"nÐ¡ÐµÐ³Ð¾Ð´Ð½Ñı":8766,"ĠÐ¾ÑĤÐ²ÐµÑĤÐ°":8767,"nÐłÐµÐºÐ»Ð°Ð¼Ð°":8768,"ĠÐºÐ¾Ð¼Ð¼ÑĥÐ½Ð¸ÐºÐ°ÑĨÐ¸Ð¹":8769,"ĠÐ³Ð»ÑĥÐ±Ð¸":8770,"Ð¿ÑĢÐµÐ´":8771,"ĠÐ¿ÑĢÐ¾Ð³ÑĢÐ°Ð¼Ð¼Ðµ":8772,"ĠÐĶÐŀ":8773,"vy":8774,"press":8775,"861":8776,"ĠÑĦÐ¸Ð³Ñĥ":8777,"ĠÐ¾Ð±Ð»ÐµÐ³":8778,"842":8779,"ĠÐĿÐ°ÑĤÐ°":8780,"ĠÐ¿ÑĢÐ¾ÑģÐ¼Ð¾ÑĤÑĢÐ°":8781,"ĠÐ¾ÑĤÐ¾Ð¿Ð»ÐµÐ½Ð¸Ñı":8782,"ĠÐºÐ¸ÑĤÐ°Ð¹":8783,"Ð½Ð¸Ð½Ð³":8784,"ĠÐ½Ð°ÑģÐ¾Ñģ":8785,"ÑģÐ»ÑĥÐ¶":8786,"ĠÐľÐĺ":8787,"ĠÑģÐ¼ÐµÑģÑĮ":8788,"ĠÐ´ÐµÑĤÐ°Ð»ÐµÐ¹":8789,"ĠÐ½Ð°ÑĩÐ°Ð»":8790,"ĠÑĤÐµÐ»Ð¾":8791,"ĠÐ½Ð°ÑĪÐ¸Ð¼":8792,"ĠÐ°Ð½Ð°Ð»Ð¸Ð·Ð°":8793,"PA":8794,"ÑĢÐ¾Ð³":8795,"nÐ¡ÑĤÐ°ÑĤÑĮÐ¸":8796,"ĠÐ´Ð¸ÑģÑĤÐ°Ð½":8797,"ĠÐ´Ð¾Ð»Ð³":8798,"ase":8799,"Ð³Ð¾ÑĤÐ°Ð²Ð»Ð¸":8800,"Ð»ÑĮÑıÐ½Ð¾Ð²":8801,"ĠÑģÐ¾ÑĢÐµÐ²":8802,"Ð»ÑĮÑĤÑĢÐ°":8803,"nÐļÑĢÐ¾Ð¼Ðµ":8804,"Ð°Ð½Ð´Ð°":8805,"BED":8806,"Ġcon":8807,"ÐĿÐĲÐ¯":8808,"ĠÐ¿ÑĢÐµÐ´ÑģÐµÐ´Ð°":8809,"ĠÐ¾ÑĤÐ»Ð¸ÑĩÐ°ÑİÑĤÑģÑı":8810,"181":8811,"ĠâĨĴ\\":8812,"ÑĤÐ°Ð»ÑĮÑıÐ½":8813,"Ġal":8814,"ĠÐ¿Ð¾ÑĤÐµÑĢÑı":8815,"ĠÐ¿ÑģÐ¸ÑħÐ¸":8816,"ĠÐľÐ¸ÑħÐ°Ð¹":8817,"ÐµÐ½Ð½ÑĥÑİ":8818,"ĠÐ¾Ð±Ð²Ð¸":8819,"ĠÐĸÐ¸":8820,"ĠÐ²ÐµÐ½":8821,"ĠÐľÐµÐ´":8822,"ĠÐ·Ð°Ð½ÑıÑĤÐ¸Ñı":8823,"ÐŁÐµÑĢ":8824,"int":8825,"UL":8826,"ĠÐ¤ÐµÐ´ÐµÑĢÐ°Ð»ÑĮÐ½Ð¾Ð³Ð¾":8827,"ĠÐ¿Ð°ÐºÐµÑĤ":8828,"ÑĥÑİÑīÐ¸Ñħ":8829,"ÑģÑĤÐ¸Ð»":8830,"ĠÐ¿ÐµÑĢÐ²ÑĭÐ¼":8831,"ĠÑģÑĩÐ°ÑģÑĤ":8832,"ÑĤÐ¾Ð¿":8833,"\\\",\\\"":8834,"ĠÐºÑĢÐ°ÑģÐ¾ÑĤÑĭ":8835,"ony":8836,"ĠÐ¿ÑĢÐ¸Ð¼ÐµÐ½ÑıÐµÑĤÑģÑı":8837,"nÐľÐ¾Ð¶Ð½Ð¾":8838,"Ð¾Ð¿Ð¾Ð»Ð¾Ð¶":8839,"ĠÐºÐ»ÑİÑĩÐµ":8840,"ĠÐºÐ°Ð»ÑĮ":8841,"ÑĢÐµÑģÑģÐ¸Ð²":8842,"Ð¢Ð£":8843,"ĠÑĤÑĢÐ°Ð½ÑģÐ¿Ð¾ÑĢÑĤÐ°":8844,"ĠÐ½Ð°ÑĢÐºÐ¾ÑĤÐ¸":8845,"ĠÑĩÐµÑĢÐ½ÑĭÐ¹":8846,"IK":8847,"ĠÐ¾ÑĤÐµÑĩÐµ":8848,"ĠÐ°ÑįÑĢÐ¾Ð¿":8849,"ÑĤÐ¾ÑĢÐµ":8850,"ĠÐ¸ÑģÐºÐ»ÑİÑĩÐµÐ½Ð¸ÐµÐ¼":8851,"ĠÐļÐĲ":8852,"nÐķÑģÑĤÑĮ":8853,"ÐļÑĥ":8854,"ÑĤÐµÐºÐ°":8855,"Ð´Ð¶Ð¸":8856,"Ð´Ð»Ñı":8857,"ĠAndroid":8858,"ĠÐĵÐ¾ÑĢÐ¾Ð´":8859,"ĠÐľÐ¸ÑħÐ°Ð¸Ð»":8860,"ĠÐ·Ð°Ð´Ð°Ñĩ":8861,"ave":8862,"ical":8863,"ĠÐ·Ð°ÐºÑĥÐ¿":8864,"Ð²Ð°ÑİÑīÐ¸Ð¹":8865,"ena":8866,"ĠÑĢÐµÑģÑĤÐ¾ÑĢÐ°":8867,"ĠÑħÐ»Ð¾Ð¿":8868,"282":8869,"ĠÐ»Ð¸Ð½Ð¸Ñı":8870,"ÑĩÐ°ÑĤÐºÐ¸":8871,"Ð½Ð¸ÐºÐ°Ñħ":8872,"ĠÐ·Ð°Ð½Ð¸Ð¼Ð°ÐµÑĤ":8873,"ood":8874,"ÐµÑĢÐ¾Ð¼":8875,"CBF":8876,"ĠÐ·ÑĢÐ¸":8877,"ĠÐ¿Ð¾Ð»Ð½ÑĭÐ¹":8878,"ĠÑģÑĥÐ¼Ð¼Ñĭ":8879,"ÑĥÐ¹ÑĤÐµ":8880,"ĠÑĪÐºÐ¾Ð»Ðµ":8881,"939":8882,"Ð³Ð¾ÑĢÐ°":8883,"ĠÐ¾ÑĤÐ¾Ð±ÑĢÐ°":8884,"ĠÐ½ÑĥÐ¶Ð½Ñĭ":8885,"ĠÐĳÐ¾Ð»":8886,"ĠÐ¸Ð´ÐµÐ¸":8887,"ĠÑĤÑĢÐµÐ±Ð¾Ð²Ð°Ð½Ð¸ÑıÐ¼":8888,"Ð½Ð¾Ð³Ð¾ÑĢÑģÐº":8889,"ĠÐ¿Ð¾Ð»ÑĥÑĩÐµÐ½Ð¸Ðµ":8890,"ĠÐ¿Ð¾Ð»ÑĥÑĩÐ¸ÑĤÐµ":8891,"ĠÑĩÐ°ÑģÑĭ":8892,"ĠÑģÑĤÐ¸Ð»ÑĮ":8893,"Ð¿Ð¾Ð»Ð¸":8894,"ĠÑģÐ¾ÑĢÑĤÐ°":8895,"ĠÐ²ÑģÐ¿Ð¾Ð¼":8896,"ĠÑĤÐ¾Ð¿Ð»Ð¸Ð²Ð°":8897,"ĠÐºÐ²Ð°ÑĢÑĤÐ¸ÑĢÐµ":8898,"ÐµÐ½ÑĮÑİ":8899,"ĠÐ½ÐµÑĢÐ²":8900,"nÐĹÐ´ÑĢÐ°Ð²ÑģÑĤÐ²ÑĥÐ¹ÑĤÐµ":8901,"232":8902,"ĠÐ¿ÑĢÐ¾Ð³ÑĢÐ°Ð¼Ð¼Ñĥ":8903,"9874":8904,"Ð»ÑİÐ±":8905,"ĠÐ²ÑĭÐ¿Ð¾Ð»Ð½Ð¸ÑĤÑĮ":8906,"Ð»ÑĥÑİ":8907,"ĠÐ²Ð¾Ð´Ðµ":8908,"ĠÐ·Ð½Ð°ÐµÑĤÐµ":8909,"ĠÐĻ":8910,"ĠÑģÐ»Ð°Ð±":8911,"ÑīÐµÐ½Ð¸ÐµÐ¼":8912,"ÐĺÐ·":8913,"Ġ(Â«":8914,"nÐĿÐ°Ð·":8915,"ĠÐ·Ð°ÐºÐ¾Ð½Ð¾Ð´Ð°ÑĤÐµÐ»ÑĮÑģÑĤÐ²Ð°":8916,"ĠÐ¿ÑĢÐ¸Ð¼ÐµÐ½ÑıÑĤÑĮ":8917,"ÑĤÐ¾Ð²Ð°":8918,"ÑĢÐ¾Ð¿Ð¸":8919,"99924":8920,"ĠÐ¾ÑĦÐ¾ÑĢÐ¼Ð¸ÑĤÑĮ":8921,"909":8922,"252":8923,"ĠÑĩÐ¸ÑģÐ»Ð°":8924,"ĠÐ¿ÑĢÐ¾ÑīÐµ":8925,"nÐļÐ°ÑĤÐµÐ³Ð¾ÑĢÐ¸":8926,"99896":8927,"ÑĪÐ¾Ðµ":8928,"ĠÐ·Ð°ÑıÐ²Ð»ÐµÐ½Ð¸Ñı":8929,"Ð»ÑĮÐ½Ð¸ÐºÐ¸":8930,"iss":8931,"ĠÐ¾ÑĢÑĥÐ¶Ð¸":8932,"ĠÐºÐ»ÑİÑĩ":8933,"ĠÐºÐ°ÐºÐ°Ñı":8934,"Ð¿ÐµÑĢÐµÐ´":8935,"ĠÐ½ÐµÑģÐµÑĤ":8936,"ĠÑģÐµÐ¼ÑĮÑı":8937,"ÑĢÐ°ÑģÑĤ":8938,"ĠÐ°ÑĤÐ¼Ð¾ÑģÑĦÐµÑĢ":8939,"554":8940,"nÐ¢Ð¸Ð¿":8941,"ĠÐ½Ð°Ð¼Ð½Ð¾Ð³Ð¾":8942,"Ð½Ð°Ð¿ÑĢÐ¸Ð¼ÐµÑĢ":8943,"292":8944,"ĠÐ¿Ð¾ÐºÑĢÑĭÑĤÐ¸Ðµ":8945,"nÐłÐ°ÑģÐ¿":8946,"262":8947,"ĠÑĢÐ¾Ð¼Ð°Ð½":8948,"ĠÐ¿ÑĢÐ¾Ð³Ð½Ð¾Ð·":8949,"Ġo":8950,"052":8951,"99874":8952,"ĠÐŁÐµÑĤÐµÑĢ":8953,"Ð¼Ð¾ÑĤÑĢÐ¾Ð²":8954,"ĠÐ¾ÐºÑĢÐ°":8955,"ĠÐºÐ¾Ð¼Ð½Ð°ÑĤ":8956,"ĠÐĳÐ¾Ð»ÐµÐµ":8957,"ĠÐ´Ð¾ÑģÑĤÐ¸Ð¶ÐµÐ½Ð¸Ñı":8958,"ÑĢÐ°Ñı":8959,"ÑĥÐ³Ð¾Ð»ÑĮ":8960,"ÑĨÐµÑģÑģ":8961,"ĠÐ²ÑĭÐ±ÑĢÐ°":8962,"ĠÐ²ÐµÐ»Ð¸ÑĩÐ¸":8963,"ĠApple":8964,"ĠÑĤÐµÑĢÐ¼Ð¸":8965,"ĠÐ½ÐµÐ·Ð½Ð°":8966,"080":8967,"ĠÐ´Ð²Ð¾ÑĢ":8968,"ĠÐ½ÐµÐ¼Ð°":8969,"ÑĢÐ¾Ð²ÐºÑĥ":8970,"ĠÐ¼Ð°ÑĤÐµ":8971,"ĠÐ½Ð°Ð·ÑĭÐ²Ð°ÑİÑĤ":8972,"Ġwith":8973,"ÐľÐ¾ÑģÐºÐ¾Ð²ÑģÐºÐ°Ñı":8974,"ÑĩÐµÐ½Ð½ÑĭÐµ":8975,"ĠÐ°Ð²Ð°":8976,"ĠÑĦÐ¸ÐºÑģÐ¸":8977,"ĠÐ¸Ð½ÑģÑĤÑĢÑĥÐ¼ÐµÐ½ÑĤÑĭ":8978,"ÑģÑĤÐ²ÐµÐ½Ð½ÑĥÑİ":8979,"Ġne":8980,"ÑĥÐ±Ð»Ð¸ÐºÐ¾Ð²Ð°Ð½Ð¾":8981,"ĠÑĤÐµÐ¿Ð»":8982,"ĠÐ¿ÑĢÐ¾ÐµÐºÑĤÐµ":8983,"ĠÐ¿Ð¾Ð²ÑĭÑĪÐµÐ½Ð¸Ñı":8984,"ĠÐĺÐ»Ð¸":8985,"ĠÑģÑĢÐµÐ´Ð½ÐµÐ³Ð¾":8986,"ĠÐ¿Ð¾ÑģÑĤÑĢÐ°":8987,"ÑĦÐ¾ÑĢÐ¼":8988,"ĠÐ¹":8989,"ÐµÐ»ÐµÐ·":8990,"169":8991,"Ð°Ð»Ð»Ð¸":8992,"ĠÐĵÐ¾Ð»":8993,"ĠÐ´ÐµÑĤÑĮÐ¼Ð¸":8994,"ĠÐ¿ÐµÑĢÐµÑĩÐ¸Ñģ":8995,"ĠÐķÑīÐµ":8996,"nÐ¸":8997,"Ð¾ÑĢÐ¸ÑĤÑĮ":8998,"ĠÐ´ÐµÐ¹ÑģÑĤÐ²ÑĥÐµÑĤ":8999,"ĠÐ±Ð»Ðµ":9000,"ĠÑĩÐµÑģÑĤ":9001,"Ð°Ñı":9002,"ÐºÐ³":9003,"Ð²Ð¸Ð²":9004,"ÑģÑĤÐºÐ°":9005,"ax":9006,"ĠÐ»Ð¾Ð´":9007,"ÑĤÐ½Ð¾Ðµ":9008,"ĠÐºÐ¾Ð¼Ð¸ÑģÑģÐ¸Ð¸":9009,"ĠÐŁÑĢÐ¾Ð´Ð°":9010,"ĠÐ¸Ð½Ð½Ð¾Ð²Ð°":9011,"Ġ38":9012,"Ð¾Ð½Ð°ÑĩÐ°":9013,"ĠÐ²Ð°ÑĪÑĥ":9014,"ĠÐºÐ°Ð¼ÐµÑĢ":9015,"ÑĪÐ¾Ðº":9016,"unt":9017,"ĠÐ±Ð»Ð°Ð³Ð¾":9018,"ĠÐļÐ¾Ð½ÐµÑĩÐ½Ð¾":9019,"ĠÐ¡Ð¾Ð±":9020,"ĠÐºÐ¾Ð¼Ð°Ð½Ð´Ð°":9021,"ĠÑĤÐµÑĢÐ¼":9022,"Ð¿Ð¸ÑģÐ¾Ðº":9023,"ĠÐ±Ð°ÐºÑĤÐµÑĢÐ¸":9024,"9845":9025,"ĠÐ»Ð¸ÑĨÐ°Ð¼":9026,"ĠÐ½ÐµÐ¼ÐµÑĨ":9027,"ĠÐ¿Ð¾Ð´Ð°ÑĢÐ¾Ðº":9028,"ĠÑĥÑĩÐ¸ÑĤÑĭÐ²Ð°ÑĤÑĮ":9029,"ĠÐ¸ÑģÑĤÐ¾ÑĩÐ½Ð¸Ðº":9030,"ĠÑĢÐµÑĪÐ¸ÑĤÑĮ":9031,"752":9032,"ĠÐ¸Ð·Ð±ÑĢÐ°Ð½":9033,"9327":9034,"nÐľÐµÑĤ":9035,"ÑĢÐ°Ð¶Ð´Ð°Ð½":9036,"ĠÐ¸ÑģÑĤÐ¾ÑĢÐ¸Ñİ":9037,"ĠÑģÐ¾ÑģÐµÐ´":9038,"ĠÐļÐ°Ð¶Ð´ÑĭÐ¹":9039,"ĠÐ²ÑĭÐ¿Ð¾Ð»Ð½ÑıÑĤÑĮ":9040,"ÐºÐ¾Ð¼Ð¿":9041,"ument":9042,"ĠÐºÐ°ÑĢÐºÐ°":9043,"ĠÑģÑĥÐ¼Ð¼Ð°":9044,"ĠÑįÑĤÐ°Ð¿Ðµ":9045,"ĠÐ¼Ð¾ÐµÐ¹":9046,"ĠÐ½ÐµÐ´Ð¾ÑĢ":9047,"ĠÑħÑĥÐ´Ð¾Ð¶Ðµ":9048,"258":9049,"nÐ¡Ð¿Ðµ":9050,"ĠÐ²Ð¾Ð·Ð´ÐµÐ¹ÑģÑĤÐ²Ð¸Ñı":9051,"ĠÑģÐ²ÑıÐ·Ð°Ð½Ð½ÑĭÑħ":9052,"nJ":9053,"ĠÐ¿Ð¾Ð´Ð´ÐµÑĢÐ¶ÐºÑĥ":9054,"Ð¾Ð»Ð¾Ð³Ð°":9055,"Ð¾Ð±ÑĢÐ°Ð·":9056,"ĠÐ³ÐµÐ½":9057,"ĠÐ·Ð°Ð³ÑĢÑĥ":9058,"ĠÐĴÑĭÑģ":9059,"858":9060,"ĠÑģÐ¸Ð½":9061,"ĠÐ±Ð°ÑĢÐ°":9062,"ĠÐ¿ÑĢÐ¸Ð½Ð°Ð´Ð»ÐµÐ¶Ð°":9063,"ĠÐ¿ÐµÑĢÐ¸Ð¾Ð´Ð¸":9064,"ÑĢÐ°Ð²Ð»ÐµÐ½Ð¸Ñı":9065,"172":9066,"Ð²ÑıÑĤ":9067,"ĠÐ¿Ð¸ÑĤÑĮ":9068,"ÑĤÐ½ÑĭÐ¼":9069,"Ð¶Ð°ÑĤÑĮÑģÑı":9070,"664":9071,"222":9072,"ÑĢÐ¸ÑģÑĤÐ¸Ð°Ð½":9073,"ĠÐ¸Ð½ÑĤÐµÐ»Ð»ÐµÐºÑĤ":9074,"Ð½Ð¾Ð¶":9075,"ĠÐºÑĢÑĥÐ¿Ð½ÐµÐ¹":9076,"ĠÐ¾ÑĤÐ²ÐµÑĤÑĭ":9077,"ĠÐļÐ°ÑĤÐ°":9078,"ĠÑģÐºÐ»Ð°Ð´":9079,"ĠÐ¿ÑĢÐµÐ´Ð¾ÑģÑĤÐ°Ð²Ð»ÑıÐµÑĤ":9080,"Ð¾ÑİÐ·Ð°":9081,"Ð»Ð¸Ð·Ð°":9082,"nÐŁÑĥ":9083,"ĠÐ½ÐµÐ²":9084,"ÑģÐ½ÑĭÑħ":9085,"ĠÐĺÐĿ":9086,"ĠÑĦÐ°ÐºÑĤÐ¸":9087,"ĠÐĲÐ´Ð¼Ð¸Ð½Ð¸ÑģÑĤÑĢÐ°ÑĨÐ¸Ð¸":9088,"ĠÑĤÑĥÐ´Ð°":9089,"ÑĤÑıÐ³Ð¸":9090,"Ð³Ð¾Ð»Ð¾Ð²":9091,"ÑĢÑĭÐ¼":9092,"ÑĤÐ¸ÑĢÐ¾Ð²Ð°ÑĤÑĮ":9093,"ĠÑĥÑģÑĤÑĢÐ°":9094,"ĠÐļÑĤÐ¾":9095,"Ð»ÑıÑĨÐ¸Ñı":9096,"9864":9097,"ĠÐ»Ð¸ÑĨÐµÐ½Ð·Ð¸":9098,"Ð¡ÐĲ":9099,"ĠÑĢÐ¾Ð´ÑģÑĤÐ²ÐµÐ½":9100,"ĠÐ¯ÑĢÐ¾ÑģÐ»Ð°Ð²":9101,"9883":9102,"ĠÐºÐ½Ð¸Ð³Ð°":9103,"PT":9104,"ĠÐ²Ð¸ÑĢÑĤÑĥ":9105,"Ð¼ÐµÐ¹":9106,"ÑĩÐ¸Ð»Ð¸":9107,"ĠÑĦÐµÑģÑĤÐ¸Ð²Ð°":9108,"ĠÐ½Ð°ÑĩÐ°Ð»Ð¸":9109,"ĠÐ²ÑģÑĤÐ°Ð²":9110,"ĠÐ±ÑĢÑİ":9111,"Ð»Ð¸ÑĨÐ°":9112,"Ġ64":9113,"nÐº":9114,"ÑģÐºÐ¾Ð¿":9115,"ÑĤÑĮÐµ":9116,"ĠÐ¿Ð¾Ð·Ð²Ð¾Ð»Ð¸":9117,"ĠÑĦÐ¾Ð½Ðµ":9118,"ial":9119,"ĠÐ±Ð¾Ð»ÑĮÑĪÐ¸Ð½ÑģÑĤÐ²Ðµ":9120,"ĠÐºÑĥÑĢÐ¸":9121,"Ð²Ð°ÑıÑģÑĮ":9122,"ĠÑģÐ¸Ñħ":9123,"ence":9124,"99966":9125,"ĠÑıÐ±":9126,"CEA":9127,"ĠÐŀÐ´Ð¸Ð½":9128,"ĠÑĥÑĩÐ°ÑģÑĤÐ¾Ðº":9129,"ĠÐŁÐ¾Ð²":9130,"ĠÑģÑĤÑĢÐ¾":9131,"ĠÐĳÑĢÑıÐ½":9132,"911":9133,"ĠÐĳÐ¾ÑĢ":9134,"228":9135,"3034":9136,"ĠÐ¿Ð¾ÐºÑĥÐ¿ÐºÐµ":9137,"ĠÐ²Ð¸Ð´Ñĥ":9138,"ĠÐ´Ð¾ÑģÑĤÐ¸Ð³Ð°":9139,"ĠÐ¶ÐµÑĢÑĤ":9140,"ÑģÐºÑĥÑģ":9141,"ÑĪÐ¸Ð½Ð°":9142,"99915":9143,"ĠÐ³Ð¾Ð»Ð¾Ð²Ñĥ":9144,"ÑĤÐ¸Ðº":9145,"Ð³ÑĢÐ°Ð¼":9146,"ÑįÑĦÑĦÐ¸ÑĨÐ¸":9147,"ĠÐ¸ÑģÐ¿Ð¾Ð»ÑĮÐ·ÑĥÑı":9148,"nÐŁÐµÑĢÐµÐ¹ÑĤÐ¸":9149,"nÐ¦Ð²ÐµÑĤ":9150,"890":9151,"ĠÐ¿Ð¾ÑģÐ»ÐµÐ´ÑģÑĤÐ²Ð¸Ñı":9152,"ign":9153,"ĠÐ¸ÑģÑĩÐµ":9154,"ĠÐ²ÑĭÐ·ÑĭÐ²Ð°ÐµÑĤ":9155,"ero":9156,"nÐłÐ°Ð±Ð¾ÑĤÐ°":9157,"ĠÐ±Ð»Ð¾ÐºÐ°":9158,"ĠÐ·Ð°Ð¿Ð»Ð°":9159,"Ð²ÑĭÑĩÐ°Ð¹":9160,"ĠÐ¿Ð¾Ð´Ð±Ð¾ÑĢ":9161,"ĠÐ¡Ð¾ÑĩÐ¸":9162,"ild":9163,"ĠÐºÐ°Ð½Ð´Ð¸Ð´Ð°":9164,"ÐľÐµ":9165,"362":9166,"Ð»ÑıÑĤÐ¾ÑĢ":9167,"ĠÐ²Ð°Ðº":9168,"ĠÐ·Ð°Ð±Ð¾ÑĤ":9169,"Ð¾Ð½Ð½ÑĭÑħ":9170,"Ð¼ÐµÐ½ÐµÐ½Ð¸Ðµ":9171,"ĠÐŀÐ¢":9172,"ĠÐ»ÐµÑģÑĤ":9173,"Ð¸Ð¼Ð¸":9174,"nEmail":9175,"ĠÐ¾Ð±ÑĬÐµÐ´Ð¸":9176,"ĠÐĴÐµÑĢÑħ":9177,"ĠÐ½Ð¾ÑĩÑĮ":9178,"ÑĥÐ´Ñĭ":9179,"PN":9180,"97075":9181,"ĠÐĴÑĭÐ±ÐµÑĢÐ¸ÑĤÐµ":9182,"ĠÐ·Ð°Ð½Ð¸Ð¼Ð°ÑĤÑĮÑģÑı":9183,"ĠÐ¿Ð¾Ð´Ð¾Ð·":9184,"Ð¾ÑĢÐ¾Ð½Ð°":9185,"ĠÐľÐĲ":9186,"ĠÐ·Ð°ÑĢÑıÐ´":9187,"Ð±Ð°Ð½Ðº":9188,"ÑģÑĤÐ°Ð½Ðµ":9189,"ĠÑģÑĤÑĢÐ°ÑĪ":9190,"ĠÐºÐ°Ð¼Ð½Ñı":9191,"ĠĠĠĠĠĠĠĠ":9192,"ĠÐ¢ÑĢÑĥ":9193,"ĠÐ´Ð¾Ð²ÐµÑĢ":9194,"ÐĶÐ¡":9195,"ĠÐ¡Ð°ÑĢÐ°ÑĤÐ¾Ð²":9196,"ĠÐ¼Ð¾Ð½ÑĤÐ°Ð¶":9197,"9835":9198,"ĠÐĹÐ°Ð¼":9199,"ĠÐ¼Ð¾ÑĩÐµ":9200,"ĠÐ¿ÑĢÐµÐºÑĢÐ°ÑģÐ½Ð¾":9201,"ĠÐ²Ð½ÑĥÑĤÑĢÐµÐ½Ð½Ð¸Ñħ":9202,"Ð²ÑĮ":9203,"Ð´ÐµÐ²":9204,"ĠÐ¾ÑĤÐ¼Ðµ":9205,"Ð±Ð°Ñı":9206,"ĠÐ¸ÑģÐºÑĥÑģÑģÑĤÐ²Ð°":9207,"Ð½Ð¾Ð½":9208,"Ð³ÑĢ":9209,"068":9210,"Ð³Ð¾ÑĢÑĮ":9211,"179":9212,"ĠÐ±ÑĢÐ¾Ð½":9213,"ÑĪÐµÐ»ÑĮ":9214,"ĠÑĦÑĢÐ¾Ð½":9215,"ĠÐ¸ÑģÐ¿Ñĭ":9216,"ĠÑģÐ¾ÑħÑĢÐ°Ð½Ð¸ÑĤÑĮ":9217,"CO":9218,"ĠÑĢÐµÐ±ÑĳÐ½":9219,"nÐŃÑĤÐ°":9220,"ĠÐ·Ð°Ð³ÑĢÑıÐ·":9221,"ĠÐ¾ÑģÑĤÐ°Ð½":9222,"Ð§ÐµÑĢ":9223,"ĠÑģÐ½ÑıÑĤÑĮ":9224,"nÐŁÐ°":9225,"ĠÐ¿ÑĢÐµÐ´Ð¿ÑĢÐ¸ÑıÑĤÐ¸Ð¹":9226,"Ð¿Ð°Ð´Ð°":9227,"ack":9228,"99913":9229,"9962":9230,"ÑĤÐ¾ÑĢÐ¾Ð¹":9231,"ond":9232,"Ð¿Ð¾Ñģ":9233,"ÐµÐ½Ð½ÑĭÐ¼Ð¸":9234,"nÐļÐ¾Ð»Ð¸ÑĩÐµÑģÑĤÐ²Ð¾":9235,"ĠÐ¾ÑĤÑĢÐ¸ÑĨÐ°":9236,"ĠÑĢÐµÑģÑĥÑĢÑģÐ¾Ð²":9237,"ÐµÑĢÐµÐ²":9238,"ÐļÐ¾Ð½":9239,"Ð»ÐµÑĤÐ°":9240,"ĠÐŀÐ½Ð»Ð°Ð¹Ð½":9241,"ĠÐ¿Ð¾ÑģÑĤÐ°Ð²Ð¸ÑĤÑĮ":9242,"ĠÑģÐ¸Ð¼Ð¿ÑĤÐ¾Ð¼Ñĭ":9243,"Ð´Ð¸Ð°":9244,"TA":9245,"ĠÑģÑĤÐ°ÑĤÑĮÑİ":9246,"nÐłÐµÐ¹ÑĤÐ¸Ð½Ð³":9247,"ox":9248,"ĠÑĦÐ¸Ð»Ð¾Ñģ":9249,"ÐľÐ¡":9250,"288":9251,"ĠÑģÐ¿Ð¾ÑģÐ¾Ð±Ð¾Ð²":9252,"ĠÐ¿Ð¾ÑıÐ²Ð»ÑıÐµÑĤÑģÑı":9253,"ĠÑĥÐ´Ð¸":9254,"ĠHP":9255,"ĠÐ¸Ð½ÑģÑĤÑĢÑĥÐ¼ÐµÐ½ÑĤÐ°":9256,"ĠÐ¿ÑĢÐµÐ´Ð»Ð¾Ð¶ÐµÐ½Ð¸Ðµ":9257,"ĠÐ¿Ð¾ÑģÑĤÐµÐ¿ÐµÐ½Ð½Ð¾":9258,"ĠÐºÐ°ÑĢÑĤÐµ":9259,"026":9260,"ĠÐ´Ð°ÑİÑĤ":9261,"ĠÐ»ÑİÐ±Ñĭ":9262,"ĠÐ½ÐµÐ½Ð°":9263,"Ð¶ÐµÐ³Ð¾ÑĢÐ¾Ð´":9264,"Ð²ÑĪÐµÐ¹":9265,"ĠÐ¿ÑĢÐµÐ´ÐµÐ»Ð°Ñħ":9266,"ĠÑģÐ¿ÐµÑĨÐ¸":9267,"ĠÐ´Ð²Ð¸Ð¶ÐµÐ½Ð¸Ðµ":9268,"ÐºÐ¾Ð±ÑĢÐ¸ÑĤÐ°":9269,"ÐĴÐ°":9270,"ĠÐ·Ð²Ð¾Ð½Ð¾Ðº":9271,"ĠÐ¸Ð½ÑĤÐµÐ½ÑģÐ¸Ð²":9272,"219":9273,"ĠÑģÑĩÐ¸ÑĤÐ°ÐµÑĤ":9274,"ĠÑģÑĥÑĤÐ¾Ðº":9275,".)\\":9276,"ÐĶÐ°":9277,"Ð¡ÑĤ":9278,"Ð»Ð¾Ð³Ð°":9279,"ĠÑĥÐ¿ÑĢÐ°Ð²Ð»Ñı":9280,"Ð°ÑĢÐ°ÐºÑĤÐµÑĢÐ¸ÑģÑĤÐ¸":9281,"nÐĴÐ¾ÑĤ":9282,"ĠÐ¢Ð°ÑĤÐ°ÑĢ":9283,"Ð½ÐµÑĤÐ°":9284,"ÑĪÑĤ":9285,"nÐĲÐ´ÑĢÐµÑģ":9286,"ĠÐ±Ð¾Ð»ÑĮÑĪÐ¾Ð³Ð¾":9287,"ÑģÑĤÐ¾Ð¸":9288,"ÐŁÐļ":9289,"ĠÐ¿Ð¾Ð·Ð¶Ðµ":9290,"Ð½Ð°Ð´ÑĨÐ°":9291,"ĠÐĴÐ¾Ð·Ð¼Ð¾Ð¶Ð½Ð¾":9292,"ĠÑĢÐµÐ³ÑĥÐ»ÑıÑĢÐ½Ð¾":9293,"Ð¾ÑģÐ¿Ð¾ÑģÐ¾Ð±":9294,"%.":9295,"Ð·ÑĭÐºÐ°":9296,"ĠÐĲÐ²ÑĤÐ¾ÑĢ":9297,"ĠÐ½Ð°ÑĪÐµ":9298,"ĠÐ½Ð°ÑģÐºÐ¾Ð»ÑĮÐºÐ¾":9299,"ĠÑģÐ¿ÐµÑĨÐ¸Ð°Ð»ÑĮÐ½Ð¾":9300,"cess":9301,"ĠÐŀÑĢÐ³Ð°Ð½Ð¸":9302,"ĠÐ½Ð°ÑĪÐ°":9303,"ÑĤÐ¾Ð²ÑĭÐ¹":9304,"ĠÐ¸Ð³ÑĢÐ¾ÐºÐ¾Ð²":9305,"ĠÐ¿Ð¾Ð´Ð¾Ð¹Ð´ÐµÑĤ":9306,"159":9307,"ĠÐŁÑĢÐ°Ð²Ð¸ÑĤÐµÐ»ÑĮÑģÑĤÐ²Ð°":9308,"ĠCo":9309,"iki":9310,"Ð´Ð¾Ñħ":9311,"Ð¶ÐµÐ»Ð¸":9312,"Ð¾ÑĤÐµÑĢÐ°Ð¿Ð¸":9313,"EW":9314,"ĠÐ¶Ð´":9315,"ÑĢÐ¾Ð²Ð°Ð½Ð°":9316,"ĠÐ¦ÐµÑĢ":9317,"ĠÑĥÐ±Ð¾ÑĢ":9318,"ĠÐ¸Ð³ÑĢÐµ":9319,"ĠÐ´ÐµÑģÑıÑĤÐ¸":9320,"ĠÐ±ÑĥÐºÐ²Ð°":9321,"ĠÐ²Ð»Ð¸ÑıÐ½Ð¸Ðµ":9322,"ĠÐ¼Ð¾Ð½ÑĤÐ°Ð¶Ð°":9323,"ĠÐ²ÑĭÑĢÐ¾Ñģ":9324,"ÐºÐ¾Ð¼Ð°":9325,"Ð½ÑĥÐ»Ð¸":9326,"ĠÑģÐµÑĤÑĮ":9327,"Ð´ÑĥÐ¼Ñĭ":9328,"ĠÐ¼ÐµÑģÑĤÐ½Ð¾Ð³Ð¾":9329,"ĠÐ¤Ð¡":9330,"TC":9331,"ÑħÐ¾Ð´Ñĭ":9332,"241":9333,"Ð»ÐµÑĤÐºÐ¸":9334,"ĠÐĴÐ°Ð¼Ð¸":9335,"ĠÐĵÐŀÐ¡Ð¢":9336,"ĠÐ·Ð¾Ð½Ñĭ":9337,"023":9338,"ÑĦÐ¸ÐºÐ°ÑĨÐ¸Ñı":9339,"ĠÐºÑĢÐ°ÑĤ":9340,"ÐĽÐµÐ½Ð¸Ð½Ð³ÑĢÐ°Ð´ÑģÐºÐ°Ñı":9341,"Ð¾Ð±Ð¾ÑĢÐ¾ÑĤ":9342,"ĠÑĤÐ¾ÑĢÐ¼Ð¾Ð·":9343,"99927":9344,"ĠÐ½ÐµÑģÐ¼Ð¾ÑĤÑĢÑı":9345,"pol":9346,"ĠÐºÑĢÑĥÐ¿Ð½ÑĭÑħ":9347,"ĠÐ¿ÑĢÐ¾Ð¸Ð·Ð¾ÑĪÐ»Ð¾":9348,"ĠÐ¸Ð½ÑĤÐµÑĢÑĮÐµÑĢÐ°":9349,"Ð±Ð¸ÑĤÑĮ":9350,"blog":9351,"ĠÐķÐ»ÐµÐ½Ð°":9352,"âĢľ":9353,"ĠÐ¼Ð¾ÑĤÐ¾ÑĢ":9354,"ĠÐ¿Ð¾ÑĢÐ¾":9355,"ĠÐ´ÐµÑĤÑģÐºÐ¸Ð¹":9356,"Ð´Ð¾ÑĢ":9357,"ĠÑĦÐ¸Ð»ÑĮÑĤ":9358,"Ð½Ð¾Ð²Ð":9359,"ĠÐ¡Ð°Ð¼Ð°":9360,"ĠÑįÑĦÑĦÐµÐº":9361,"ĠÑħÐ¾ÑĢÐ¾ÑĪÐ¸Ð¹":9362,"Ð½Ð¾Ð²Ð¾":9363,"ĠÐŁÐ¾ÑģÐ»ÐµÐ´":9364,"ĠÐ´ÐµÐ»Ñĥ":9365,"ĠÐ¾ÑĢÐ³Ð°Ð½Ñĭ":9366,"ÑĢÐ°ÐºÑĤÐ¸ÐºÐ°":9367,"Ð»Ð¸Ð½Ð´":9368,"Ð¾Ð²Ð°ÑĢÐ¸":9369,"ĠÐ¸Ð½ÑĦÑĢÐ°ÑģÑĤÑĢÑĥ":9370,"Ð»ÑĮÐ½Ð¸ÐºÐ°":9371,"Ð½Ð¾Ð²ÑĭÐ¹":9372,"ĠÐ²ÑĭÑħÐ¾Ð´Ð°":9373,"ĠÐ³ÑĢÐ¾Ð¼":9374,"99920":9375,"ĠÑĥÐ±Ñĭ":9376,"ÑģÑģÐµÑĢ":9377,"ĠÑģÑĩÐ¸ÑĤÐ°ÑİÑĤ":9378,"ĠÐ¼ÑĥÐ¶ÑĩÐ¸Ð½Ñĭ":9379,"ĠÐ½Ð°ÑĪÑĥ":9380,"131":9381,"99806":9382,".),":9383,"ĠÑĩÐµÐ»Ð¾Ð²ÐµÐºÑĥ":9384,"nÐŀÐ±ÑĢÐ°":9385,"ĠÐ¯Ð½Ð´ÐµÐºÑģ":9386,"ÐļÐ°Ðº":9387,"Ð²Ð¸Ñı":9388,"ĠÐºÐ°Ð¶Ð´Ð¾Ð¼Ñĥ":9389,"ĠÑĨÐ¸ÑĦÑĢÐ¾Ð²":9390,"ĠÑĥÐ´Ð°ÑĢ":9391,"ĠÑĦÐ¾ÑĢÐ¼":9392,"ĠÐļÑĥÐ±":9393,"ĠÐŀÐ±ÑĢÐ°":9394,"ĠÑĢÐ°ÑģÑĤÐµÐ½Ð¸Ðµ":9395,"ĠÐ¿ÑĢÐ¸ÑĩÐ¸Ð½Ðµ":9396,"Ð»ÑĮÑĤÑĥÑĢÐ°":9397,"sm":9398,"ĠÐ±ÐµÑģ":9399,"ĠÐ²ÑģÑĤÑĢÐ¾":9400,"ĠÐ¾ÑģÐ¾Ð·Ð½Ð°":9401,"888":9402,"nÐŁÐ¾ÑħÐ¾Ð¶Ð¸Ðµ":9403,"ĠÐ¾Ð¿ÑĢÐµÐ´ÐµÐ»ÐµÐ½Ð¸Ñı":9404,"ÑĩÐ¸Ð½Ð°Ñı":9405,"Ð¶ÐµÐ½Ñĭ":9406,"Ð·Ð¸ÑĤ":9407,"ÑĩÐµÐ½Ð½ÑĭÑħ":9408,"Ð´ÑĮÐ¼Ð¸":9409,"327":9410,"ĠÐ¡Ð°Ð¹ÑĤÐ°":9411,"ĠÐ¢Ð°ÐºÐ¸Ðµ":9412,"99885":9413,"ĠÐ½Ð¾Ð²ÑĭÐ¼":9414,"ĠÐ¼ÐµÑĤÐ°":9415,"ÐĹÐŀ":9416,"ĠÐ´Ð¾Ð¿Ð¾Ð»Ð½Ð¸ÑĤÐµÐ»ÑĮÐ½ÑĭÑħ":9417,"ĠÐ¸Ð½Ð´Ñĥ":9418,"ÐµÐ¼ÐµÑĢÐ¾Ð²":9419,"Ð½ÐºÐ°":9420,"ĠÐ±ÑİÐ´Ð¶ÐµÑĤÐ°":9421,"ĠÐĵÑĢÐ°":9422,"ÐºÐ¾ÑģÑĤÑĮÑİ":9423,"nÐĴÑĭÐ±ÐµÑĢÐ¸ÑĤÐµ":9424,"Ð½Ð¸ÑĨÐµÐ¹":9425,"ĠÑģÑĬÐµÐ¼":9426,"nÐŁÑĢÐ°Ð²Ð¸Ð»Ð°":9427,"ĠÐ¿ÑĢÐµÐ±Ñĭ":9428,"ÑīÑĳÐ½":9429,"nÐ¡Ð¾Ð¾Ð±ÑīÐµÐ½Ð¸Ð¹":9430,"ĠÐ¿Ð¾ÑıÐ²":9431,"ĠÐ·Ð°Ñģ":9432,"Ð²Ð°ÐµÑĤÐµ":9433,"1201":9434,"ĠÐ¶ÑĥÑĢÐ½Ð°":9435,"9844":9436,"ĠÐĿÐ¸ÐºÐ¾Ð»Ð°Ð¹":9437,"ÑĩÐµÑģÑĤÑĮ":9438,"TV":9439,"ĠÐ·Ð°Ð¼ÐµÐ½Ð¸ÑĤÑĮ":9440,"ÑĥÑĢÐµ":9441,"Ð¿ÑĢÐ¾Ð´Ñĥ":9442,"ĠÐ²Ð½ÐµÐ´":9443,"nÐĴÐ¾Ð¹ÑĤÐ¸":9444,"ĠÐ½Ð°ÑĩÐ°Ð»Ð¾":9445,"nÐ¡Ð°Ð¹ÑĤ":9446,"ĠÐ¿Ð¾ÑĢÑıÐ´ÐºÐ°":9447,"ĠÐºÑĢÐ¸Ð·Ð¸":9448,"nÐ¿ÑĢÐ¸":9449,"ĠÐ¡ÑĤÐ¾Ð¸Ð¼Ð¾ÑģÑĤÑĮ":9450,"ĠÐĲÐļ":9451,"Ð²ÐµÑĢÐ°":9452,"ĠÑģÐ¾ÑģÑĤÐ°":9453,"ï»":9454,"ĠÑĪÐ¸ÑĢÐ¸":9455,"99876":9456,"ĠÑģÐ¸Ð¼Ð²Ð¾Ð»":9457,"ĠÐ¾ÑĦÐ¸ÑĨÐ¸Ð°Ð»ÑĮÐ½ÑĭÐ¹":9458,"ĠÐŀÐ´Ðµ":9459,"ĠÐºÑĢÐ°Ð¹Ð½Ðµ":9460,"ÐµÐ·Ð´Ð°":9461,"Ð½Ð¾Ð²Ð¾Ð¹":9462,"Ð¼Ð¾Ð½Ð¸":9463,"Ð¾Ð½ÐºÐ¸":9464,"Ð·Ð½Ð°ÑĤÑĮ":9465,"ĠÐ¤Ð°":9466,"ĠÐ½Ð¾ÑģÐ¸":9467,"ĠÐ±ÑĥÑħÐ³Ð°Ð»":9468,"99900":9469,"ĠÐ½ÐµÐ¾Ð±ÑħÐ¾Ð´Ð¸Ð¼Ð¾ÑģÑĤÑĮ":9470,"ĠÑĦÑĢÐ°Ð½ÑĨÑĥÐ·":9471,"nÐŁÐ¾ÑģÑĤÐ°Ð½Ð¾Ð²Ð»ÐµÐ½Ð¸Ðµ":9472,"ĠÐ³Ð¾Ð²Ð¾ÑĢÑı":9473,"ĠÐ¿ÐµÑĢÐµÐ¶Ð¸":9474,"nÐļÑĥÑĢ":9475,"ĠÐµÐ´":9476,"ĠÐ¾Ð±ÑĢÐµ":9477,"ĠÐ±Ð°Ð·Ð°":9478,"450":9479,"ÑĢÐµÐ¸":9480,"nÐŀÐ¿Ð»Ð°ÑĤÐ°":9481,"ĠÐĿÐµÐºÐ¾ÑĤÐ¾ÑĢÑĭÐµ":9482,"871":9483,"ĠÐ¿Ð¾Ð¼Ð¾Ð³":9484,"99977":9485,"ĠÐ¿ÐµÑĢÐµÐ½Ð¾Ñģ":9486,"ĠÐ¡Ð¼Ð¾Ð»ÐµÐ½":9487,"2008":9488,"Ð½Ð¾ÑģÑĤÑıÑħ":9489,"ĠÑģÐºÐ¾ÑĢÐ¾ÑģÑĤÐ¸":9490,"RL":9491,"ĠÐ¿ÑĢÐ¾Ð²ÐµÐ´ÐµÐ½Ð¸Ð¸":9492,"9707544":9493,"ject":9494,"ĠÐ½ÐµÐ´ÐµÐ»ÑĮ":9495,"ĠÐ°Ð³ÑĢÐµÐ³Ð°":9496,"nÐĺÑģÑĤÐ¾ÑĢÐ¸Ñı":9497,"nÐŁÐ¾Ð»ÑĮÐ·Ð¾Ð²Ð°":9498,"ÑĥÑĩÐ¸":9499,"ĠÐ¿Ð¾Ð»Ð½Ð¾ÑĨÐµÐ½":9500,"259":9501,"ÑħÐ°ÑĢÐ°":9502,"ï»¿":9503,"ÑĢÐ°Ð²ÐµÐ´":9504,"ĠÐ¿Ð°Ð¼ÑıÑĤÑĮ":9505,"nÐ¿Ð¾Ð´":9506,"ĠÐļÐ¾Ð¼Ð¼ÐµÐ½ÑĤÐ°ÑĢÐ¸":9507,"OW":9508,"99833":9509,"ÐºÐ¾Ð¼Ð¼Ñĥ":9510,"851":9511,"ĠÐ¿ÑĢÐ¸Ð²ÐµÑĤ":9512,"9824":9513,"ÑīÐµÐ½Ð½ÑĭÑħ":9514,"ĠÐ¿Ð¾Ð´Ð¿Ð¸ÑģÐ°":9515,"ĠÑħÑĢÐ¾Ð½Ð¸":9516,"ĠÐ·ÐµÐ¼Ð»Ðµ":9517,"ĠÐłÐŀ":9518,"ĠÐŁÐ¾ÐºÑĥÐ¿Ð°":9519,"nÐ¡ÑĤÐ°ÑĤÑĮÑı":9520,"div":9521,"uro":9522,"ĠÐŀÐ±ÑıÐ·Ð°":9523,"ĠÐ¸ÑĤÐ¾Ð³":9524,"Ð±Ð¾Ð»Ð¸":9525,"ĠÐ¿Ð¾ÐºÐ°Ð·ÑĭÐ²Ð°ÐµÑĤ":9526,"ĠÑģÐµÑĢÐµÐ´Ð¸":9527,"564":9528,"ÐĿÐł":9529,"ĠÑĢÐ¾ÑģÑģÐ¸Ð¹ÑģÐºÐ¾Ð³Ð¾":9530,"ĠÑģÐ»Ð¸Ð²":9531,"ĠÐ±Ð»ÑİÐ´Ð°":9532,"ÑĥÐ½Ðº":9533,"ale":9534,"ĠÐ´ÐµÐ»Ð¸":9535,"ĠÐºÐ¾Ð½ÐºÑĥÑĢÑģÐ°":9536,"Ð¾Ð±ÑĥÑģ":9537,"ÑīÐµÐ½Ð½ÑĭÐ¹":9538,"Ð³Ð°Ð¼":9539,"041":9540,"Ġli":9541,"âĢĿ,":9542,"Ð¶ÐµÐ½Ð¸Ñİ":9543,"ĠÐ·Ð°Ð¿ÑĥÑģÐºÐ°":9544,"Qu":9545,"ft":9546,"my":9547,"ĠÐ½Ð°ÑĥÑĩÐ½Ð¾":9548,"ÑģÐ½Ð¾Ð¹":9549,"ÑĦÐµÑģÑģÐ¸Ð¾Ð½Ð°Ð»ÑĮ":9550,"ÑĢÐµÐ½Ð´Ð°":9551,"ĠÐ¿Ð¾Ð»ÑĥÑĩÐ°ÐµÑĤ":9552,"ĠÐ½Ð°Ð¼ÐµÑĢ":9553,"ĠÐĵÑĢÑĥ":9554,"ĠÐ¼Ð¾ÑĤÐ¸":9555,"ÐŃÐ¡":9556,"ĠÐ¿ÑĢÐ¾ÐµÐºÑĤÐ¸":9557,"ĠÐºÑĥÐ¿Ð¸":9558,"ÑĩÐ½ÐµÐ²":9559,"ĠÐ´Ð¸Ð°Ð¿Ð°Ð·":9560,"ĠÐºÑĢÐµÐ¿Ð»ÐµÐ½Ð¸Ñı":9561,"ĠÐ¿ÑĢÐ¾Ñħ":9562,"352":9563,"nÐŁÐµÑĢÐµÐ´":9564,"ĠÐºÐ»ÑĥÐ±Ð°":9565,"ĠÐ±ÑĥÐ¼Ð°Ð³Ð¸":9566,"ĠÐ¸ÑģÐºÐ°":9567,"9890":9568,"ĠÐ¿ÑĢÐµÐ´Ðµ":9569,"ĠÐ¾Ð±Ð¾ÑĢÑĥÐ´Ð¾Ð²Ð°":9570,"ĠÑĢÐ°Ð·Ð¼ÐµÑĢÐ¾Ð²":9571,"ĠÐºÐ¾Ð½Ð´Ð¸ÑĨÐ¸Ð¾Ð½Ðµ":9572,"ĠÐ·Ð°Ñħ":9573,"Ð¼Ð¾Ð¼":9574,"Ð·ÑĭÐ²":9575,"ÑĥÐµÑĤ":9576,"2007":9577,"Ð¶Ð°ÑĤ":9578,"ah":9579,"ĠÐ²Ð»Ð¸ÑıÐµÑĤ":9580,"Ð¾Ð²ÑĭÐ¼":9581,"ĠÑģÐµÐ¼ÑĮÐµ":9582,"Â»)":9583,"ĠÐ¾ÑĤÐ½Ð¾ÑĪÐµÐ½Ð¸Ðµ":9584,"ĠÑģÐ¸Ð´":9585,"ĠÐ¾ÑĢÐµ":9586,"ĠÐ¿ÑĢÐ¾ÑģÑĤÐ°":9587,"Ð³Ð¸Ð¹":9588,"nÐļÐ¾Ð»":9589,"Ð»Ð¸Ðº":9590,"ĠÐ±ÑĥÐºÐ¼Ðµ":9591,"ĠÐ½Ð°ÐºÐ°Ð·Ð°":9592,"ĠÐ¾Ð¿ÑĤÐ¸Ð¼Ð¸":9593,"ĠÑĢÐ¾Ð±":9594,"ĠÐ¿ÑĢÐµÐ¿Ð°ÑĢÐ°ÑĤÐ¾Ð²":9595,"ÑĢÐ¾Ð¸ÑĤÐµÐ»ÑĮÑģÑĤÐ²Ð¾":9596,"ĠÐ¨Ð°":9597,"ÐłÐ°Ð·":9598,"ĠÐļÐ¾Ð½ÑģÑĤÐ°Ð½":9599,"ÑĤÐ¾Ð²ÑĭÑħ":9600,"ĠÐĹÐ°Ð²":9601,"ĠÐ¿Ð¾ÑĩÑĤÑĥ":9602,"ĠÐ¿ÑĢÐ°Ð²Ð´Ð°":9603,"ĠÐ¿Ð¾ÑģÑĤÑĥÐ¿Ð¸":9604,"OG":9605,"Ð±ÐµÐº":9606,"ĠÑįÐºÑģÐ¿ÐµÑĢÑĤÐ¸":9607,"ĠÐ¿Ð¾Ð»ÑĥÑĩÐ¸ÑĤÑģÑı":9608,"ĠÐ¾Ð´Ð¾Ð±":9609,"ĠÐ¾Ð·Ð½Ð°ÐºÐ¾Ð¼Ð¸ÑĤÑĮÑģÑı":9610,"ĠÑģÐ¾Ð·Ð´Ð°Ð½Ð¸Ð¸":9611,"ĠÐ¾ÑģÑĤÑĢÐ¾Ð²Ð°":9612,"/\"},\"":9613,"ĠÐĵÐµÐ½":9614,"ĠÑĢÐ°Ð·Ð²Ð»Ðµ":9615,"ÐºÐ¾Ð²ÑģÐºÐ¸Ð¹":9616,"Ð¢Ð«":9617,"ĠÐºÐ¾Ð¼Ð¿Ð»ÐµÐºÑģÐ°":9618,"ĠÐ½Ð¾Ð³Ð¸":9619,"Ð½Ð°ÑĩÐ°Ð»Ð°":9620,"Ð¾ÑĩÐµÐº":9621,"ĠÑĤÑĢÑĥÐ´Ð½Ð¾":9622,"832":9623,"ĠÐ»ÑİÐ´ÑĮÐ¼Ð¸":9624,"096":9625,"ĠÑģÐ¾Ð¾ÑĤÐ²ÐµÑĤÑģÑĤÐ²ÐµÐ½Ð½Ð¾":9626,"ĠÐ´ÐµÐ²ÑĥÑĪÐºÐ°":9627,"ĠÑģÑĬ":9628,"022":9629,"ĠÐ¾Ð¿ÑĢÐµÐ´ÐµÐ»ÑĳÐ½":9630,"Ð¼Ð°Ð³Ð°Ð·Ð¸Ð½":9631,"ĠGroup":9632,"ĠÐ¾ÑĤÐºÐ°Ð·Ð°ÑĤÑĮÑģÑı":9633,"ĠÐºÐ²Ð°Ð´ÑĢÐ°ÑĤ":9634,"ĠÐ¿ÑĢÐµÐ²Ð¾Ñģ":9635,"ĠÐºÐ¸Ð½":9636,"ĠÐ´Ð²Ð¾Ð¹":9637,"ĠÐĿÐ°ÑĨÐ¸Ð¾Ð½Ð°Ð»ÑĮ":9638,"ĠÐ²Ð¸Ð´ÐµÑĤÑĮ":9639,"ĠÐ¾Ð¿ÑıÑĤÑĮ":9640,"ĠÐ³Ð¸Ð±":9641,"ĠÐ¼Ð¸Ð»Ð»Ð¸Ð¾Ð½Ð¾Ð²":9642,"Ð²Ð°ÐµÐ¼ÑĭÑħ":9643,"ĠÐĳÐ°Ð¹":9644,"ĠÐ±ÑĥÑĢ":9645,"ÑĤÐ¸Ð²Ð½ÑĭÐ¼":9646,"Ð°Ð½Ð½ÑĭÐ¹":9647,"ĠÑħÐ¾ÑĤÑıÑĤ":9648,"ĠÑĥÐ»Ñĭ":9649,"ĠÐ°Ð»ÑĮÑĤÐµÑĢÐ½Ð°":9650,"769":9651,"368":9652,"Ð¾ÑĤÑĢÑĥÐ´":9653,"949":9654,"AV":9655,"ĠÐłÐµÐ³Ð¸":9656,"Ð°Ð½Ð½ÑĭÐµ":9657,"ĠÐ´Ð¾ÑģÑĤÑĥÐ¿Ð½Ñĭ":9658,"ĠÑĢÐµÐ³Ð¸ÑģÑĤÑĢÐ°ÑĨÐ¸Ñİ":9659,"ĠÐ¥ÑĢÐ¸":9660,"ĠÐ¢Ð°Ð¹":9661,"ÑħÐ¾Ð¹":9662,"ĠÐ¸ÑģÐ¿ÑĭÑĤÑĭ":9663,"ĠÐ½Ð°Ð»Ð¸Ñĩ":9664,"ĠÐ¿Ð»Ð¾Ð´":9665,"8339":9666,"ĠÐºÐ¸ÑĪÐµ":9667,"ĠÐ¿Ð¾Ð´ÑĥÐ¼Ð°":9668,"ĠÐ·Ð°Ð¿Ð°Ð´":9669,"ĠÐ²ÑĭÑģÑĤÑĥÐ¿":9670,"ain":9671,"ĠÑģÐ²ÑıÐ·Ð°Ð½Ð½ÑĭÐµ":9672,"ĠÐ½Ð°ÑģÑĤÐ¾Ð»ÑĮÐºÐ¾":9673,"ĠÐ¿Ð¾Ð´ÐºÐ»ÑİÑĩÐµÐ½Ð¸Ñı":9674,"99886":9675,"nÐĲÑĢÑĤÐ¸ÐºÑĥÐ»":9676,"ĠÐ¸Ð½ÑĤÐµÑĢÐµ":9677,"ĠÐĿÐķ":9678,"ĠÐ½Ð¾Ð²Ð¾ÑģÑĤÐµÐ¹":9679,"9834":9680,"ĠÐ¿ÑĢÐ¾ÑħÐ¾Ð´Ð¸":9681,"ĠÐ³Ð»Ð°Ð²Ð°":9682,"SM":9683,"iy":9684,"ĠÑģÐ¾Ð´ÐµÑĢÐ¶Ð°Ð½Ð¸Ñı":9685,"9952":9686,"99997926":9687,"ĠÐľÐ¾Ð¶ÐµÑĤ":9688,"ĠÐ½ÐµÐ´Ð²Ð¸Ð¶Ð¸Ð¼Ð¾ÑģÑĤÑĮ":9689,"Ð·Ð¸Ð½Ð°":9690,"ĠÐ»Ð¸ÑĩÐ½Ð¾ÑģÑĤÐ¸":9691,"ĠÐ»ÑİÐ±ÑĥÑİ":9692,"ĠÑĩÐµÑĢÐµ":9693,"Ð°Ð»Ð¾ÑģÑĮ":9694,"291":9695,"ĠÐºÑĥÑģ":9696,"/?":9697,"PG":9698,"ÑģÐ¿Ð¾ÑĢ":9699,"ÑĤÐ¸ÑĩÐµÑģÐºÐ¸Ðµ":9700,"nÐļÐ°ÐºÐ¸Ðµ":9701,"249":9702,"171":9703,"ĠÐ´Ð¸Ð·Ð°Ð¹Ð½Ð°":9704,"ÑįÐ»ÐµÐºÑĤ":9705,"ĠÐ¿Ð¾ÑħÑĥÐ´":9706,"9814":9707,"ĠDe":9708,"Ġ47":9709,"Ð¶ÐµÐ²":9710,"ĠÑĢÐµÐ´ÐºÐ¾":9711,"Ð¾ÐºÑĥÐ¼ÐµÐ½ÑĤÑĭ":9712,"Ð´ÐµÑĢÐ°":9713,"Ð»ÐµÐºÑģÐ°Ð½Ð´ÑĢ":9714,"ĠÐ¾Ð¼":9715,"atch":9716,"ĠÑģÐ¾ÑģÑĤÐ°Ð²Ð°":9717,"uch":9718,"ÑıÐ³":9719,"Ð±Ð¾ÑĢÑĥÐ´Ð¾Ð²Ð°Ð½Ð¸Ðµ":9720,"ĠÐ°Ð¿Ð¿Ð°ÑĢÐ°ÑĤ":9721,"ĠÐºÑĢÐ¾Ð²Ð°":9722,"ĠÑģÐµÑĤÑıÑħ":9723,"ĠÐ·Ð°ÑĢÑĥÐ±Ðµ":9724,"ĠSp":9725,"ĠÐºÐ°ÑĢÑĤÐ¾Ñĩ":9726,"ĠÑĤÑĢÐµÐ±ÑĥÑİÑĤ":9727,"9837":9728,"ÑĢÐ¾Ð»Ð¸":9729,"Ð¿ÐºÐ¸":9730,"ĠCol":9731,"ÑįÐºÐ¾Ð½Ð¾Ð¼Ð¸":9732,"ĠÐļÐ¾Ñģ":9733,"ĠÑįÑĤÐ°Ð¿Ð°":9734,"ÑĩÐ¸ÐºÐ¾Ð¼":9735,"ĠÐľÐ½Ð¾Ð³Ð¸Ðµ":9736,"ota":9737,"ĠÑģÐ¿Ð¾ÑģÐ¾Ð±ÑģÑĤÐ²ÑĥÐµÑĤ":9738,"ĠÐ¾Ð±ÑĥÑĩÐ°":9739,"ĠÑĥÑģÐ»Ð¾Ð²Ð¸ÑıÐ¼Ð¸":9740,"ĠÐ¸Ð·Ð´Ð°Ð½Ð¸Ñı":9741,"ĠÐ°Ð·Ð°ÑĢÑĤ":9742,"ĠÐ¿Ð¾ÑģÐ»ÐµÐ´Ð½Ð¸Ð¹":9743,"878":9744,"ĠÐµÐ·":9745,"ĠÑģÑĢÐµÐ´ÑģÑĤÐ²Ð°Ð¼Ð¸":9746,"Ð»Ð¸Ð¹ÑģÐºÐ¸Ð¹":9747,"ĠÑģÐ¸ÑģÑĤÐµÐ¼Ð¾Ð¹":9748,"OK":9749,"Ð´Ð¾ÑĢÐ¾Ð²ÑĮÐµ":9750,"ĠÐ¿ÑĢÐ¾ÑĨÐµÐ½ÑĤÐ¾Ð²":9751,"ĠÑģÐ²Ð°Ð´ÑĮ":9752,"ĠÐŁÐ¾Ð·":9753,"ÑĢÐ¸Ð´Ð¸":9754,"ĠÐ¿Ð¾Ð´Ð°ÑĩÐ¸":9755,"ĠÐĴÑĤ":9756,"ĠÐĲÐ»ÐµÐºÑģÐ°Ð½Ð´ÑĢÐ°":9757,"OVID":9758,"ĠÐ·Ð°ÐºÑĢÐµÐ¿":9759,"ĠÐŁÐĴ":9760,"ĠÑģÑĢ":9761,"062":9762,"Ð½Ð¾Ð´Ð¾ÑĢÐ¾Ð¶":9763,"Ð¾Ð³ÑĢÐµÐ²Ð°":9764,"ĠÐºÐ¾Ð¶Ð°":9765,"ĠÐ¿ÑĢÐ¾Ð·ÑĢÐ°":9766,"ĠÐ¥Ð¾Ð»":9767,"129":9768,"ĠÐ¾Ð³ÑĢÐ°Ð½Ð¸ÑĩÐµÐ½Ð¸Ñı":9769,"ĠÐ·Ð½Ð°Ð½Ð¸Ð¹":9770,"ÐĴÐ¸":9771,"ĠÐ¼Ð°ÑģÑģÐ¾Ð²ÑĭÑħ":9772,"post":9773,"ĠÐĵÐ»Ð°Ð²Ð½ÑĭÐ¹":9774,"ĠÑĥÐ¿Ð»Ð°":9775,"ĠÐ¿Ð¾Ð´Ð´ÐµÑĢÐ¶ÐºÐ°":9776,"ÑĤÐµÐ»ÑĮÑģÑĤÐ²":9777,"ĠÐĴÐ¾Ð»Ð³Ð¾Ð³ÑĢÐ°Ð´":9778,"ĠÑģÐ°Ð¼Ð°Ñı":9779,"Ð¿ÑĢÐ°Ð²ÐºÐ°":9780,"ĠÐ´ÑĥÑĪÐ¸":9781,"ĠÐ½ÐµÑģÐ¾Ð²":9782,"Ð»ÑĭÐ¼Ð¸":9783,"ĠÐ¿Ð¾Ð¼Ð¸":9784,"625":9785,"nÐ°":9786,"Ð¸Ð¼ÐµÐ½":9787,"ĠÑĥÑħ":9788,"ĠÑĥÐ´Ð¾Ð²Ð»ÐµÑĤÐ²Ð¾ÑĢ":9789,"ĠÐŁÐ¾Ñĩ":9790,"050":9791,"379":9792,"ĠÐ¿Ð¾Ð´Ð²Ð¸":9793,"ĠÑĥÑģÐ»Ð¾Ð²Ð¸Ð¸":9794,"Ð»Ð¸Ð½Ð³":9795,"FABA":9796,"ĠÑĨÐµÐ¿":9797,"ĠÐĲÐ³":9798,"882":9799,"ĠÐ¼Ð¾ÑīÐ½Ð¾ÑģÑĤÐ¸":9800,"Ð»Ð¾Ð½Ñĭ":9801,"Ð°Ð»ÑĮÐ½ÑĥÑİ":9802,"Ð³Ð¾ÑĤÐ¾Ð²ÐºÐ°":9803,"ĠÑģÐ¾Ð·Ð´Ð°Ð²Ð°ÑĤÑĮ":9804,"ystem":9805,"ĠÐĴÐ¾Ð´":9806,"ĠÐ¿ÑĢÐ¸ÑĩÐ¸Ð½Ð¾Ð¹":9807,"ĠÑĦÐ°ÐºÑĤÐ¾ÑĢÐ¾Ð²":9808,"99834":9809,"268":9810,"ĠÐĺÑģÐ¿Ð¾Ð»ÑĮÐ·Ñĥ":9811,"mp":9812,"ÑģÑĤÑĭÐµ":9813,"ĠÑģÐ¿ÐµÑĨÐ¸Ð°Ð»ÑĮÐ½ÑĭÑħ":9814,"ĠÐ¿Ð¾ÑģÑĭ":9815,"ÑīÐ°ÐµÐ¼":9816,"ÑģÑĤÐµÑĤÐ¸":9817,"ĠÑĩÐ°ÑģÑĤÐµÐ¹":9818,"ĠÐ·Ð°Ð¼ÐµÑģÑĤÐ¸":9819,"ĠÐ½Ð¾Ð²Ð°Ñı":9820,"ĠÑĢÐµÑĪÐ¸Ð»":9821,"low":9822,"ĠÐ¿Ð¾Ð¼ÐµÑīÐµÐ½Ð¸Ðµ":9823,"ĠÐ±Ð¾Ð»Ðµ":9824,"ĠÐ¿Ð¾Ð´Ð½Ð¸Ð¼Ð°":9825,"ĠÐ¿ÐµÑĩÐ°ÑĤÐ¸":9826,"nÐ¤Ð¾ÑĢ":9827,"Ġ::":9828,"9857":9829,"Ð³Ð¸Ð¿":9830,"ĠÐ¼ÐµÐ»ÑĮÐ½Ð¸ÑĨÐ°":9831,"ĠÐ¿ÐµÑĢÐ¸Ð¾Ð´Ð°":9832,"ĠÐĳÑĥÐ´":9833,"ments":9834,"ĠÐ¾ÑĤÐºÑĢÑĭÑĤÑĮ":9835,"Ð¾Ð½Ð½Ð¾Ð³Ð¾":9836,"ĠÐ³Ð»Ð°Ð²Ð½ÑĭÐ¹":9837,"ĠÐłÑıÐ·Ð°":9838,"ĠÐ²Ð¾ÐµÐ½Ð½Ð¾":9839,"ÐłÐ«":9840,"078":9841,"ĠÐĳÐµÑģÐ¿Ð»Ð°ÑĤ":9842,"ĠÑİÑĢÐ¸Ð´Ð¸ÑĩÐµÑģÐºÐ¸Ñħ":9843,"ÑĢÑĥÑİÑīÐ¸Ðµ":9844,"ĠÐ¿Ð°ÑĢÑĤÐ½ÐµÑĢ":9845,"ĠÑĥÑħÐ¾Ð´Ð°":9846,"ĠÑĢÐµÐ¿":9847,"773":9848,"./":9849,"ĠÐ±ÑĭÑģÑĤÑĢ":9850,"ĠÑĪÐ»Ð¸":9851,"ĠÐ²Ð°ÑĪÐµÐ¼Ñĥ":9852,"OC":9853,"Ð¾Ð¸Ð·Ð²Ð¾Ð´ÑģÑĤÐ²Ð¾":9854,"ĠÐ´Ð²ÐµÑĢÑĮ":9855,"ĠÐ³Ð¾ÑĢÐ¸Ð·Ð¾Ð½ÑĤÐ°":9856,"ĠÑģÑĤÑĢÐ¾Ð¸":9857,"ĠÐ¾ÑĤÐºÐ°Ð·":9858,"ĠÐ¿ÑĢÐµÐ¿ÑıÑĤ":9859,"ÑĢÐ°ÑĤÑĮÑģÑı":9860,"nÐ§ÐµÐ¼":9861,"462":9862,"841":9863,"ÐľÐ°Ð½":9864,"ĠÑĩÐµÑĤÑĭÑĢÐµÑħ":9865,"nÐļÐ¾Ð¼Ð¼ÐµÐ½ÑĤÐ°ÑĢÐ¸Ð¸":9866,"ĠÐ³Ð»Ð¾Ð±":9867,"nÐ¡Ð¾Ð·Ð´Ð°":9868,"ĠÐ¸ÑģÑħÐ¾Ð´":9869,"ĠÐĺÐ³ÑĢÐ°":9870,"ĠÐºÐ¾Ð¼Ð¿Ð°Ð½Ð¸ÐµÐ¹":9871,"ĠÐ²ÑĭÐ¿Ð»Ð°ÑĤÑĭ":9872,"ÑĤÐ¾Ð¸ÑĤ":9873,"ĠÐľÐ°Ð½":9874,"ĠÐ¸Ð·Ð±Ð°Ð²Ð¸ÑĤÑĮÑģÑı":9875,"nÐŁÐ°ÑĢ":9876,"Ð¿Ð¾ÑĩÐ¸ÑĤÐ°":9877,"Ð°Ð±Ð°ÑĢÐ¾Ð²":9878,"EV":9879,"ms":9880,"nÐŁÐŀ":9881,"ĠÐĺÐ²Ð°Ð½":9882,"ÐĲÐ»":9883,"ĠÐĸÐµÐ½":9884,"ĠÐ¿ÐµÑĢÐµÐ¹":9885,"ĠÐºÑĢÐ¸ÑĤÐµÑĢÐ¸":9886,"ÐºÐ»Ðµ":9887,"Ġthis":9888,"nÐŁÑĢÐ°Ð²":9889,"ĠÐ¼ÐµÐ´Ð¸ÑĨÐ¸":9890,"nÐŀÑĢ":9891,"ĠÐ´Ð¾Ñģ":9892,"ĠÑīÐ¸":9893,"nÐĿÐ°Ð¹ÑĤÐ¸":9894,"092":9895,"shop":9896,"ĠÐ¿Ð¸ÑīÐ¸":9897,"ĠÑĢÑİÐºÐ·Ð°":9898,"9836":9899,"ĠÐ¿ÑĢÐµÐ¿Ð°ÑĢÐ°ÑĤÐ°":9900,"ĠÑĤÐµÐ¼Ð°ÑĤÐ¸":9901,"99823":9902,"ĠÐĺÑģÑĤÐ¾ÑĢÐ¸Ñı":9903,"Ð¾ÑģÐ½Ð°Ð±":9904,"Ð·ÐºÐ¸":9905,"ĠÑģÑĤÐµÐºÐ»Ð°":9906,"nÐŁÐ¾Ð»ÐµÐ·":9907,"ÑĢÐ°Ð´Ð¸":9908,"ĠÑģÑĤÐ°Ð½ÑĨÐ¸Ð¸":9909,"9991":9910,"Ð½Ð¸ÑĤÐ°":9911,"Ð¾Ð¾Ð±ÑĢÐ°Ð·Ð¸":9912,"ĠÐ¿ÑĢÐ¾Ð±Ð»ÐµÐ¼Ñĥ":9913,"ĠÑģÐµÐ·Ð¾Ð½Ð°":9914,"Ð²ÑĢÐµÐ¼ÐµÐ½":9915,"ĠÑģÐ¾Ð¿ÑĢ":9916,"nÐĲÐ´Ð¼Ð¸Ð½Ð¸ÑģÑĤÑĢÐ°":9917,"Ð½Ð¸Ð»Ð°":9918,"DEA":9919,"ote":9920,"ĠÐ½ÐµÐ´Ð°Ð²Ð½Ð¾":9921,"ĠÐłÐĲ":9922,"ĠÐ¿Ð¾ÑģÑĢÐµÐ´ÑģÑĤÐ²Ð¾Ð¼":9923,"Ġ!":9924,"ÑĢÐ¾Ð²Ð½Ð°":9925,"ĠÐ¼Ð½Ð¾Ð³Ð¾Ðµ":9926,"ÑĬÑıÑģ":9927,"ong":9928,"Ð¿ÑĢÐ¾Ð¼":9929,"ther":9930,"ĠInter":9931,"ĠÑģÐµÑĤÐµ":9932,"ĠÐ¾Ð±ÑĢÐ°Ð±Ð¾ÑĤÐºÐ°":9933,"ĠÐ¾ÑģÐº":9934,"ĠÑģÑĤÐ°Ð½Ð¾Ð²ÑıÑĤÑģÑı":9935,"ÑĦÑĥ":9936,"Ð¼Ð¾Ð¶Ð½Ð¾ÑģÑĤÑĮ":9937,"ĠÐŁÐ¾Ð»Ð¸ÑĤÐ¸ÐºÐ°":9938,"val":9939,"alaxy":9940,"99827":9941,"ĠÐ¿Ð¾ÐºÐ¾Ð»ÐµÐ½Ð¸Ñı":9942,"ĠÐ¿Ð¾Ð¶ÐµÐ»Ð°":9943,"ÑģÑĥÐ»ÑĮÑĤÐ¸":9944,"ĠÐ¶ÐµÐ»Ð°Ð½Ð¸Ðµ":9945,"ĠÑıÐ¿Ð¾Ð½":9946,"Ð½Ð¾Ð¼Ð¾Ñĩ":9947,"ĠÐ½Ð°ÑĪÐ»Ð¸":9948,"ĠÐĺÐ·ÑĢÐ°":9949,"Ð»Ð¾Ð´":9950,"Ð´Ð°ÑĩÐ°":9951,"ĠÑģÑĤÑĥÐ¿":9952,"Ð¶ÐµÑĢ":9953,"ĠÐºÐµÐ¼":9954,"ĠÐ·Ð°Ð²Ð¸":9955,"ator":9956,"ĠÐ¿Ð¾ÐµÐ·Ð´":9957,"Ð»Ð¾Ð¼Ð°":9958,"ĠÐ¿Ð¾Ð´ÑĬ":9959,"ĠÐ±Ð¾ÑĢÑĮÐ±Ñĭ":9960,"Ġ2005":9961,"ĠÐ½Ð°Ð³ÑĢÑĥÐ·ÐºÐ¸":9962,"RM":9963,"ÑĢÐµÐ´ÐºÐ¾":9964,"ĠÐ¿Ð¾Ð¼Ð¾Ð³Ð°ÑİÑĤ":9965,"ÑĪÐºÐ¸Ð½":9966,"ĠÐ¼Ð¾Ñı":9967,"EK":9968,"ada":9969,"Ð¾Ð±ÑħÐ¾Ð´Ð¸Ð¼Ð¾":9970,"ĠÐ¿Ð°ÑĢÑĤÐ¸Ð¸":9971,"ĠÐĴÐ°ÑĪÐ¸":9972,"ĠÐ¼Ð¾ÑĢÑı":9973,"ĠÐ¿Ð°ÑĢÐ°Ð¼ÐµÑĤÑĢÑĭ":9974,"ÑĤÐ¾ÑĢÐ°Ñı":9975,"ĠÐ·Ð½Ð°ÑİÑĤ":9976,"ĠÑģÐµÐ¼ÑĮ":9977,"ĠÐºÑĢÐ°ÑģÐºÐ¸":9978,"orld":9979,"ĠÐ¡ÑĢÐµÐ´Ð¸":9980,"ĠÐ¿ÑĢÐ°Ð·Ð´Ð½Ð¸Ðº":9981,"ĠÐ¿ÑĢÐµÐ´ÑĥÐ¿ÑĢÐµÐ¶Ð´":9982,"ĠÐ¿ÑĢÐµÐ´ÑĬ":9983,"349":9984,"ĠÐłÐµÐ¼Ð¾Ð½ÑĤ":9985,"9847":9986,"99895":9987,"ĠÑĢÐµÐ°Ð»Ð¸Ð·Ð¾Ð²Ð°":9988,"ĠÐ²ÐµÑĢÐ½ÑĥÑĤÑĮ":9989,"ĠÑĢÐµÐ²Ð¾Ð»Ñİ":9990,"289":9991,"ĠÑĢÐµÐ¶Ð¸Ð¼Ð°":9992,"ĠÑģÐ¾Ð¾ÑĤÐ²ÐµÑĤÑģÑĤÐ²ÑĥÐµÑĤ":9993,"Ð½Ð¾Ð²ÐµÐ½Ð¸Ðµ":9994,"ĠÐ´Ð¾ÑģÑĤÐ°ÑĤÐ¾Ñĩ":9995,"ĠÑģÐ¾Ð¿ÑĢÐ¾Ð²Ð¾Ð¶Ð´Ð°":9996,"ĠÐ½Ð°ÑĢÐ¾Ð´Ð°":9997,"ĠÐ²ÑĭÐ¿Ð¸":9998,"ĠÐ±ÑĥÐ´ÑĥÑīÐµÐ¼":9999,"ĠÐļÐ¾ÑĤ":10000,"ĠÐ¾Ð³ÑĢÐ¾Ð¼Ð½Ð¾Ðµ":10001,"ÐĺÐĲ":10002,"ĠÑģÐ´ÐµÐ»Ð°Ð»":10003,"ÑĢÑĥÐ¹ÑĤÐµ":10004,"ĠÐ³Ð¾ÑģÑĤÐµÐ¹":10005,"ideo":10006,"ÑĪÐµÐ±":10007,"nÐłÐ°Ð·Ð¼ÐµÑĢ":10008,"ĠÑģÐ±Ð¾ÑĢÐ°":10009,"ĠÐ¸Ð½ÑģÑĤÑĢÑĥÐ¼ÐµÐ½ÑĤÐ¾Ð²":10010,"ÐºÐ¸Ð½Ð°":10011,"461":10012,"ĠÑĨÐµÐ¼":10013,"ĠÐ¦ÐµÐ½ÑĤÑĢ":10014,"UX":10015,"ĠÐºÐ¾Ð¼Ð±Ð¸":10016,"ĠÐ¾ÑĪÐ¸Ð±ÐºÐ¸":10017,"ĠÐ¼ÐµÑĤÐ°Ð»Ð»Ð°":10018,"ĠÐ¿Ð¾Ð·Ð¸ÑĨÐ¸Ð¸":10019,"Ð¿ÐµÐºÑĤ":10020,"ĠÐ²Ð°ÑĪÐ°":10021,"Ð³Ð¸Ð¾Ð·":10022,"ĠÑĪÑĤÑĥÐºÐ°":10023,"ĠÐ²ÑĭÐ±Ð¸ÑĢÐ°ÑĤÑĮ":10024,"082":10025,"ĠÐ¿Ð¾Ð¿ÑĥÐ»ÑıÑĢÐ½ÑĭÑħ":10026,"ĠÐ¾Ð¿ÑĢÐµÐ´ÐµÐ»Ð¸":10027,"nÐĹÐ½Ð°":10028,"ĠÐ¿ÑĢÐµÐ´Ð»Ð°Ð³Ð°ÐµÐ¼":10029,"99917":10030,"ÑĨÐ¸ÑıÐ¼":10031,"use":10032,"ĠÐ²ÑĭÐ¿Ð¾Ð»Ð½Ñı":10033,"ĠÑģÑĢÐµÐ´Ð½ÐµÐ¼":10034,"nÐļÐ¾Ð¼Ð¼ÐµÐ½ÑĤÐ°ÑĢÐ¸Ð¹":10035,"Ð¾Ð¿ÑĢÐ¸ÑıÑĤ":10036,"ĠÐ¿ÑĢÐµÐ¿Ð¾Ð´Ð°Ð²Ð°":10037,"ĠÐ¡Ð»ÐµÐ´Ñĥ":10038,"ÑħÐ½Ð¾Ð»Ð¾Ð³Ð¸Ð¸":10039,"ĠÐ½Ð°Ð·ÑĭÐ²Ð°ÐµÑĤÑģÑı":10040,"ĠÐłÐķ":10041,"ĠÑĢÐ°Ð·Ð´ÐµÐ»Ð°":10042,"ĠÐ¾Ð±ÑģÐ»ÐµÐ´":10043,"9930":10044,"ĠÐłÐ°ÑģÐ¿":10045,"ĠÐ¼Ð°ÑĪÐ¸Ð½Ñĥ":10046,"Ġfunction":10047,"ĠÐ³ÑĢÑı":10048,"Ð´Ð°Ð»ÑĮ":10049,"ĠÐĶÐ¾Ð»":10050,"ĠÐ¿Ð¾Ð¼ÐµÑīÐµÐ½Ð¸Ð¸":10051,"TX":10052,"ĠÑįÑĤÐ°Ð¿":10053,"ĠÑĪÐµÑĢ":10054,"ĠÐ´ÐµÐ½ÐµÐ¶Ð½ÑĭÑħ":10055,"ĠÐ±Ð¸ÑĤ":10056,"ĠÐ½Ð°Ð¿ÑĢÑıÐ¼ÑĥÑİ":10057,"99923":10058,"OX":10059,"ĠÐ¿ÑĢÐµÐ´ÑģÑĤÐ°Ð²Ð¸ÑĤÐµÐ»ÐµÐ¹":10060,"ank":10061,"ĠÐºÐ¾ÑĢÐ¿ÑĥÑģÐ°":10062,"ĠÐºÐ»Ð¸ÐµÐ½ÑĤ":10063,"ĠÐºÐ²Ð°ÑĢÑĤÐ°":10064,"ĠÐĵÐ»Ð°Ð²Ð°":10065,"nb":10066,"TS":10067,"ĠÑħÐ¾ÑĤÐµ":10068,"016":10069,"(\\\"":10070,"ÑĪÐºÐ¾ÑĢ":10071,"ÑĨÐº":10072,"ĠÑħÐ°":10073,"ĠÑģÐ¸Ð»ÑĮ":10074,"nÐŁÐ¾Ð´Ð¿Ð¸ÑģÐ°ÑĤÑĮÑģÑı":10075,"nÐĹÐ°ÑĢÐµÐ³Ð¸ÑģÑĤÑĢÐ¸":10076,"342":10077,"ĠÐ¿ÑĢÐ¾Ð¿Ð¸":10078,"99826":10079,"ĠÐ³ÐµÐ¼":10080,"ĠÐ±ÑĥÑĤÑĭ":10081,"ĠÐ¿Ð¾ÑıÐ²Ð»ÐµÐ½Ð¸Ñı":10082,"Ð´Ð°Ð»":10083,"ĠÐ¿ÑĢÐ¸Ð½Ð¸Ð¼Ð°ÐµÑĤ":10084,"ĠÐ½ÐµÐ¸ÑģÐ¿ÑĢÐ°Ð²":10085,"ĠÐĶÐµÐ¿Ð°ÑĢÑĤÐ°Ð¼ÐµÐ½ÑĤ":10086,"rows":10087,"ĠÐ²Ð¾Ð¿":10088,"nÐŀÐ´Ð½Ð°ÐºÐ¾":10089,"221":10090,"ĠÐĳÐµÐ»Ð°ÑĢÑĥÑģÑĮ":10091,"Ð¶Ð½ÑĥÑİ":10092,"ĠÑĤÐ¾Ð½Ð½":10093,"99893":10094,"ĠÐ¿ÑĢÐ¾Ð¹":10095,"ĠÑģÑĤÐ¾ÑĢÐ¾Ð½Ð°":10096,"ĠÐ´ÑĥÐ¼Ð°Ñİ":10097,"Ð½Ð´Ð°ÑĢ":10098,"ĠÐºÐ°ÐºÐ¾Ð³Ð¾":10099,"99914":10100,"ĠÐ¾Ð±ÑīÐµÐ½Ð¸Ñı":10101,"ĠÑģÐ²ÐµÐ´":10102,"ey":10103,"Ð¾Ð´Ð¸ÑĤÐµÐ»ÑĮ":10104,"Ð¾Ð¶Ð´ÐµÐ½Ð¸Ð¸":10105,"ÐľÐķ":10106,"YN":10107,"ĠÐ¿Ð¾ÑıÐ²Ð»ÑıÑİÑĤÑģÑı":10108,"ÑīÐµÑģÑĤÐ²ÑĥÐµÑĤ":10109,"99918":10110,"ydra":10111,"Ġweb":10112,"Ġ48":10113,"ÐĶÐĶ":10114,"ĠÐ¸Ð´ÐµÐ°Ð»ÑĮÐ½Ð¾":10115,"ĠÑĢÑĥÐºÐ°":10116,"ĠÑģÐ²Ð¾Ñĳ":10117,"ĠÑĥÐ³ÑĢÐ¾Ð·":10118,"ĠÐĶÐ°Ð»ÑĮ":10119,"ï¸":10120,"ĠÑĩÑĢÐµÐ·Ð²ÑĭÑĩÐ°Ð¹":10121,"ĠÐ¸ÑģÐºÐ°ÑĤÑĮ":10122,"ĠÐĶÐ°Ð»ÐµÐµ":10123,"ĠÑĦÑĥÐ½ÐºÑĨÐ¸Ð¹":10124,"ÐĺÐĿ":10125,"ĠÐ¼Ð½Ð¾Ð¹":10126,"DR":10127,"99926":10128,"ĠÐ²Ð¾ÑģÑģÑĤÐ°Ð½Ð¾Ð²Ð»ÐµÐ½Ð¸Ñı":10129,"ĠÑĪÑĥÐ¼":10130,"ĠÐ¾Ð¿ÑĭÑĤÐ°":10131,"ĠÐ¾ÑĤÐ¿ÑĢÐ°Ð²ÐºÐ¸":10132,"ĠÑĥÐ¶Ð°":10133,"nÐłÑĥÐ±ÑĢÐ¸ÐºÐ¸":10134,"ĠÐ¾Ð¿ÑĢÐµÐ´ÐµÐ»ÑıÐµÑĤÑģÑı":10135,"Ð¾Ð³ÑĢÐ°Ð¼Ð¼Ñĭ":10136,"ÑĨÐ¸Ð¿":10137,"ĠÐ¸ÑģÑĤÐ¾ÑĩÐ½Ð¸ÐºÐ¾Ð²":10138,"ĠÑĢÐ°Ð·Ð¾Ð±ÑĢÐ°":10139,"ĠÐºÐ°Ð±Ð¸Ð½":10140,"Ð»ÑıÐ¼":10141,"ĠÐ¾ÑĤÐ´ÐµÐ»ÑĮÐ½Ð¾":10142,"ÐµÐ²ÑģÐºÐ°Ñı":10143,"ĠÑģÐ¸ÑĤÑĥÐ°ÑĨÐ¸Ñİ":10144,"ĠÐºÐ°Ð¼ÐµÑĢÑĭ":10145,"Ð²ÐµÑĢÐ¸":10146,"ĠÑĥÐ´Ð¾ÑģÑĤÐ¾Ð²ÐµÑĢ":10147,"ĠÐ§Ð¸ÑĤÐ°ÑĤÑĮ":10148,"ÑīÐµÐ³Ð¾ÑģÑı":10149,"ĠÐĵÐļ":10150,"ÑĪÐºÐ¾ÑĢÑĤÐ¾":10151,"ÑģÐ½Ð°Ñı":10152,"9817":10153,"3038":10154,"ĠÐ½Ð°ÑģÑĤÐ¾ÑıÑīÐµÐ¹":10155,"ĠÑĢÐµÐ³Ð¸Ð¾Ð½Ðµ":10156,"Ð»Ð¾Ð½Ðµ":10157,"Ġ[âĢ¦":10158,"99855":10159,"ÑĢÐ¾ÑĦÐ¸":10160,"ÑģÑĤÐ²ÐµÐ½Ð½Ð¾Ð¼":10161,"ĠÑĪÐ°Ð³":10162,"ĠÐ¿ÐµÐ´Ð°Ð³Ð¾Ð³Ð¸":10163,"ÑĥÑģÐ°":10164,"ĠÐºÐ¾Ð½ÐºÑĥ":10165,"Ð½Ð½Ð¾Ðµ":10166,"ition":10167,"ĠÐ³Ð»ÑĥÐ±Ð¾Ðº":10168,"ÑıÐµÑĤ":10169,"ĠÑĢÐµÐ³Ð»Ð°":10170,"ĠÐĶÐ¾Ð½":10171,"nÐ¾Ð±":10172,"ĠÑģÑĭÑĢÑĮ":10173,"ĠÐĲÐ½Ð°ÑĤ":10174,"lt":10175,"ĠÑģÑĤÑĥÐ´Ð¸":10176,"9854":10177,"eta":10178,"ĠÐºÐ°ÐºÑĥÑİ":10179,"Ġ42":10180,"Ð¾Ð¶Ð¸Ð´Ð°Ð½":10181,"):\\":10182,"ĠÐ½Ð°ÑĩÐ¸Ð½Ð°ÑİÑĤ":10183,"Ð°Ð³Ð°Ð½":10184,"ĠÐ²Ð¾Ð¾ÑĢÑĥ":10185,"ĠÐ²Ð½ÐµÑĪÐ½Ð¸Ð¹":10186,"mod":10187,"ited":10188,"ĠÑĥÑĩÐ°ÑģÑĤÐ¸Ñı":10189,"99925":10190,"ĠÑģÐ¾Ð³Ð»Ð°ÑĪÐ°ÐµÑĤÐµÑģÑĮ":10191,"ĠÐ¿Ð°Ð»":10192,"ĠÐ¿ÑĢÐµÐ´Ð¿Ð¾ÑĩÑĤ":10193,"ĠÑģÐ¿ÐµÑĨÐ¸Ð°Ð»Ð¸Ð·Ð¸ÑĢÐ¾Ð²Ð°Ð½":10194,"Ð¾ÑģÐ½Ð¾Ð²Ð°":10195,"ĠÐ½ÐµÐ¿ÑĢÐµ":10196,"ĠÐ±ÑĭÐ²Ð°ÑİÑĤ":10197,"ĠÐ¿ÐµÑĢÑģÐ¾Ð½Ð°Ð»ÑĮÐ½ÑĭÐµ":10198,"ĠÐºÐ°ÑĦÐµ":10199,"ĠÑģÑĤÐ¾Ð»Ð¾Ð²":10200,"ĠÐ±Ð°Ð³Ð°":10201,"ĠÐ²ÑĤÐ¾ÑĢÐ¾Ð³Ð¾":10202,"ĠÐ±ÑĥÐ´ÑĤÐ¾":10203,"130":10204,"ĠÐ¸Ð½Ð¾ÑģÑĤÑĢÐ°Ð½Ð½ÑĭÑħ":10205,"Ð»ÐµÐ½Ð´Ð°ÑĢÑĮ":10206,"Ð´Ð¸Ð»":10207,"ĠÐ²ÑģÐ»ÐµÐ´":10208,"ĠÐ¢Ð¾Ð»":10209,"Ð¸Ð½ÑģÐºÐ¸Ð¹":10210,"Ð·ÐµÑĢÐ±Ð°Ð¹":10211,"ĠÑģÑĤÐ¾Ð»ÑĮÐºÐ¾":10212,"ÑıÐ²Ð¸ÑĤÑĮ":10213,"ĠÐĲÐºÑģÐµÑģÑģÑĥÐ°ÑĢÑĭ":10214,"Ġsays":10215,"IF":10216,"ÑĢÑĭÐµ":10217,"ĠÐ½Ð°Ð¿Ð¸ÑģÐ°ÑĤÑĮ":10218,"ĠÐ±ÐµÑģÑģ":10219,"ĠÐ½Ð°ÑĢÑĥÑĪÐµÐ½Ð¸Ðµ":10220,"ĠÐºÐ¾Ð¼Ð¿Ð°Ð½Ð¸Ñİ":10221,"9825":10222,"ĠÐŁÐļ":10223,"ï¸ı":10224,"ĠÐ²ÑĭÑģÐ¾ÐºÐ¾Ð³Ð¾":10225,"ĠÐ½Ð¾Ð²Ð¾ÑģÑĤ":10226,"inter":10227,"ĠÐķÐ²ÑĢÐ¾Ð¿Ðµ":10228,"ÑĢÐ°ÑģÑĤÐ°":10229,"ĠÐ¿ÑĢÐ°ÐºÑĤÐ¸ÐºÐµ":10230,"ĠÑĩÑĤÐ¾Ð±":10231,"ĠÐ¼Ð¾Ð»Ð¸ÑĤ":10232,"ĠÑģÐ»Ð¾Ð¶Ð½Ð¾ÑģÑĤÐ¸":10233,"ĠÐ¼Ð°ÑģÑģÐ¸":10234,"ĠÐ´ÑĢÑĥÐ³ÑĥÑİ":10235,"ĠÐ¿ÑĢÐ¾ÑģÐ¼Ð¾ÑĤÑĢ":10236,"ĠÐ¸Ð·Ð¼ÐµÐ»ÑĮ":10237,"ÑĢÐ°Ð±Ð¾ÑĤÐºÐ¸":10238,"ava":10239,"ÑĩÐ°Ð»":10240,"99846":10241,"ĠÐ½Ð¾ÑģÐ¸ÑĤ":10242,"ĠÐĴÐ°ÑģÐ¸Ð»ÑĮ":10243,"ÐļÐ¾ÑĢ":10244,"ĠÑĤÐ°ÐºÐ¸Ð¼Ð¸":10245,"ĠÑģÑĤÑĢÐ¸":10246,"ÐµÐ½Ð¾Ð²":10247,"nÐ¡ÑĢÐµÐ´":10248,"ĠÐ¼Ð¾ÑģÐºÐ¾Ð²":10249,"ĠÐ²ÑĭÐºÐ»ÑİÑĩÐ°":10250,"ĠÐ°Ð²ÑĤÐ¾Ð¼Ð¾Ð±Ð¸Ð»Ð¸":10251,"ĠÐ§Ð¸":10252,"nÐ£ÑģÐ»ÑĥÐ³Ð¸":10253,"ÑĤÐ¾Ð½Ð°":10254,"nÐ¡Ð¿Ð¾ÑĢÑĤ":10255,"ĠÐ¿Ð¾Ð·Ð²Ð¾Ð½Ð¸":10256,"Ð´Ð½Ð¾":10257,"99805":10258,"ĠÑĦÐ°ÑģÐ°":10259,"ÑģÑĤÐ½ÑĭÐµ":10260,"ĠÑĦÐ°Ð¼Ð¸":10261,"enie":10262,"Ð´Ð°ÑĨÐ¸Ð¸":10263,"ĠÑģÐ²ÐµÑĤÐ¾Ð´Ð¸":10264,"Ð¸Ð¼ÑĥÑīÐµÑģÑĤÐ²Ð°":10265,"nÐ¡Ð²Ðµ":10266,"ĠÐ²Ð°ÑĪÐ¸Ð¼":10267,"ĠÐ¾Ð²Ð¾Ñī":10268,"ĠÑģÐ¾ÑĤÑĢÑĥÐ´Ð½Ð¸ÐºÐ¸":10269,"ĠÐ½ÐµÐ¾Ð±ÑħÐ¾Ð´Ð¸Ð¼ÑĭÑħ":10270,"ĠÐ¿ÑĢÐµÐ´Ð¿Ð¾ÑĩÐ¸ÑĤÐ°":10271,"ĠÐ¶Ð¸Ð»ÑĮÑı":10272,"ĠÑģÐ»Ð¾Ð²Ð°Ð¼Ð¸":10273,"ĠÐ¾ÑģÐ»Ð¾Ð¶":10274,"ĠÐ¿Ð¾Ð¶Ð¸":10275,"9826":10276,"ĠÐ¿ÑĢÐµÐ´Ð¾ÑģÑĤÐ°Ð²Ð¸ÑĤÑĮ":10277,"ĠÐ¼ÑĥÐ·Ðµ":10278,"ĠÐ¿ÑĢÐ¸ÑĪÐ»Ð¾ÑģÑĮ":10279,"ÑģÐºÐ°Ð¼Ð¸":10280,"Ð²ÐµÐ»":10281,"ĠÐ¾ÑĩÐµÐ²Ð¸Ð´":10282,"ĠÐ¢Ð°ÐºÐ¾Ð¹":10283,"ĠÐ·ÑĥÐ±Ð¾Ð²":10284,"ĠÐĴÐ¾Ð¿ÑĢÐ¾Ñģ":10285,"Ð²Ð°Ð¶Ð°":10286,"ĠÑĤÐ¾Ðº":10287,"ower":10288,"BS":10289,"ĠÑĢÐ°ÑģÐ¿Ð¾ÑĢÑı":10290,"Ð´Ð°Ð»Ð¸ÑĤÑĮ":10291,"Ð¾ÑģÐºÐ¾Ð»ÑĮÐºÑĥ":10292,"Ð²Ð°Ð»Ð°ÑģÑĮ":10293,"ĠÑģÐ¾ÐµÐ´Ð¸Ð½ÐµÐ½Ð¸Ñı":10294,"BAB":10295,"ĠÑĢÐ°ÑģÑħÐ¾Ð´Ñĭ":10296,"par":10297,"ĠĠĠ":10298,"Ð¾ÑĢÑĥ":10299,"ĠÐ¦Ð¸":10300,"ÐµÐ²ÑģÐºÐ¸Ð¹":10301,"ĠÐľÐµÑĢ":10302,"ĠÑĨÐ°ÑĢ":10303,"ĠÐ¾ÑĤÑĢÐ°Ñģ":10304,"ĠÐ¼Ð¾Ð·Ð³Ð°":10305,"ÑĢÐ°Ð±":10306,"ĠÐ´Ð²ÐµÑĢÐµÐ¹":10307,"ĠÑĥÐºÐ°Ð·Ð°Ð½Ð½ÑĭÑħ":10308,"ĠÐĳÐ¾Ð³Ð°":10309,"Ð°Ð»ÑĮÐ½Ð¾Ð¼":10310,"ĠÐĳÐ°Ð»":10311,"ĠÐ²Ð·Ñĭ":10312,"ĠÐ¾ÑĤÐ¿ÑĢÐ°Ð²Ð¸ÑĤÑĮ":10313,"ĠÐ¼Ð°ÑĤÑĩÐµ":10314,"Ð¼ÑĭÐ¼Ð¸":10315,"Ð½ÐµÐº":10316,"Ġam":10317,"ĠÐ¿Ð¾Ð»Ð½Ð¾Ð³Ð¾":10318,"ÑģÐ¿ÐµÑĢ":10319,"ĠÐĴÐ¸Ð½":10320,"ĠÐ¼Ð¸ÑĢÑĥ":10321,"ÐŁÐĲ":10322,"ĠÐ²ÐµÑīÐµÐ¹":10323,"ĠÐŀÐ±ÑĭÑĩÐ½Ð¾":10324,"ĠÐ¾Ð±ÑģÑĥÐ¶Ð´Ð°":10325,"ĠÐ¤ÐµÐ´":10326,"ĠÐ¡Ð¿Ð°":10327,"ĠÐ¸Ð·Ð¼ÐµÐ½ÐµÐ½Ð¸Ðµ":10328,"ĠÐŁÑĢÐ¾Ð²":10329,"ĠÑģÑĢÐµÐ´Ð½ÐµÐ¹":10330,"ÑģÑĭÐ»ÐºÐ°":10331,"ĠÑĥÑĢ":10332,"Ð¾Ð½ÑĤÐ°ÐºÑĤ":10333,"ĠÑģÐ¾Ð»ÑĮ":10334,"ĠÐ¾Ð±ÑĢÐ°Ð·Ñĥ":10335,"ÑĢÐµÐ·Ð°ÑĤÑĮ":10336,"Ġor":10337,"ĠÐ¿Ð¾ÑĢÑĤÐ°Ð»":10338,"ÑĢÐ½Ð°Ñı":10339,"nhttp":10340,"lex":10341,"ÐºÐ»ÑİÑĩÐµÐ½Ð¸Ñı":10342,"ĠÐ¿Ð¾ÑĤÐµÐ½ÑĨÐ¸Ð°Ð»ÑĮ":10343,"ĠÑĥÐ²ÐµÐ»Ð¸ÑĩÐ¸ÑĤÑĮ":10344,"ĠÐ»ÑĥÑĩÑĪÐ¸Ð¹":10345,"ĠÐºÐ¾ÑĢÐ¼":10346,"ĠÐºÑĥÑĢÑģÐ°":10347,"ash":10348,"();":10349,"ĠÑĤÑĭÑģÑıÑĩÐ¸":10350,"Ð¾ÑĩÑĥ":10351,"ÑĢÐ¾Ð±Ð»Ðµ":10352,"nÐ¢ÐµÐ¼":10353,"ĠÐ¼Ð½Ð¾Ð³Ð¾ÑĩÐ¸Ñģ":10354,"ĠÐ¸Ð½Ð¾Ð¹":10355,"nÐĵÐ´Ðµ":10356,"nÐŀÑģÑĤÐ°Ð²Ð¸ÑĤÑĮ":10357,"lub":10358,"ÑĪÐ¸Ð»":10359,"ĠÐ¼Ð¾ÑīÐ½Ð¾ÑģÑĤÑĮ":10360,"ĠÑģÑĤÑĥÐ´ÐµÐ½ÑĤÐ¾Ð²":10361,"99836":10362,"ĠÐ´Ð²Ð¸Ð³Ð°ÑĤÐµÐ»ÑĮ":10363,"ĠÐ¿ÑĢÐµÐ·Ð¸Ð´ÐµÐ½ÑĤ":10364,"OD":10365,"ÑģÑĥÐ¶Ð´ÐµÐ½Ð¸Ðµ":10366,"kak":10367,"ĠÐĵÐ¸Ð´":10368,"ÑħÐ°ÑĤÑĮ":10369,"ĠÑĩÑĥÐ²ÑģÑĤÐ²Ð¸":10370,"9785":10371,"ĠÐĵÑĢÐµ":10372,"ĠÐ¿ÑĢÐ¾ÑģÑĤÑĢÐ°Ð½ÑģÑĤÐ²Ð°":10373,"ĠÐ³ÑĢÐ¸Ð±":10374,"QL":10375,"ĠÑĤÐµÐºÑģÑĤÐ°":10376,"nÐŁÑĢÐ¾Ð²":10377,"Ð¸Ð¼Ð½Ð°":10378,"ĠÑģÑĤÐ¾ÑĢÐ¾Ð½Ðµ":10379,"ÑĪÐ»Ð¾":10380,"Ð¡Ð":10381,"Ð¾Ð²Ðµ":10382,"ĠÐ·Ð°Ð³ÑĢÑĥÐ·":10383,"ĠÐ¾ÑģÑĤÐ¾ÑĢÐ¾Ð¶":10384,"Ð°Ð½Ð°Ð»Ð¸":10385,"Ð¾Ð½ÑĤ":10386,"Ð¸ÑģÐ°Ð½Ð¸Ðµ":10387,"AX":10388,"ĠÐ¾Ð±ÑĬÐµÐ¼Ð°":10389,"99262017":10390,"ĠÐĺÑģÐ¿Ð°":10391,"ĠÐ³ÐµÑĢÐ¼ÐµÑĤÐ¸":10392,"ĠÐ¿ÐµÑĢÐ²Ð¾Ðµ":10393,"ĠÐ²ÑĭÐ¿Ð¾Ð»Ð½":10394,"ÑĢÐ¾ÑģÐ¸ÑĤÑĮ":10395,"525":10396,"ĠÐ¿Ð¾Ð»Ð¸ÑĤÐ¸ÐºÐ°":10397,"Ġare":10398,"ÑįÑĤÐ¸":10399,"ĠÑĢÐ¾Ð¼Ð°":10400,"ĠCan":10401,"ĠÐ¸Ð¿":10402,"ĠÐ¿ÑĢÐ¾ÐºÐ°":10403,"Ð¾Ð¼Ð°ÑĤ":10404,"Ð´ÐµÐ¼":10405,"ĠÐ²Ð¾Ð²ÑģÐµ":10406,"Ð¾Ð²ÐµÑĤ":10407,"nÐĶÑĢÑĥÐ³Ð¸Ðµ":10408,"ĠÐºÐ¾Ð¼Ð¿ÐµÐ½ÑģÐ°":10409,"Ð½Ð³Ð°":10410,"nÐŁÐ¸":10411,"****":10412,"ĠÑģÐ´ÐµÐ»Ð°Ð»Ð¸":10413,"Ð»Ð»Ðµ":10414,"084":10415,"Ð³Ð¾Ð´Ð°":10416,"ĠÑģÑĤÐµ":10417,"99824":10418,"ĠÐ¿ÑĢÐ¸Ð³Ð¾ÑĤÐ¾Ð²Ð¸ÑĤÑĮ":10419,"ky":10420,"Ð¶Ð¸Ð¼Ð°Ñı":10421,"Ð»ÐµÑĢÑĭ":10422,"ĠÐ¾ÑģÐ½Ð¾Ð²Ñĭ":10423,"ĠÑįÐ»ÐµÐºÑĤÑĢÐ¾ÑįÐ½ÐµÑĢ":10424,"ĠÑĥÐ±Ð¸Ð¹":10425,"ĠÐºÐ¸Ð¿":10426,"99916":10427,"99894":10428,"139":10429,"nÐŁÐ¾Ð¿ÑĥÐ»ÑıÑĢÐ½ÑĭÐµ":10430,"ĠÑĤÐ¾Ð»ÑīÐ¸":10431,"ĠÐ¡ÑĤÐ°Ð²ÑĢÐ¾Ð¿":10432,"Ð¢ÐķÐĽÐ¬":10433,"ĠÐºÑĢÐ¾":10434,"Ð½ÑĥÐ»Ð°":10435,"Ð¿Ð¾Ð»Ð½Ð¾Ð¼Ð¾Ñĩ":10436,"add":10437,"ĠÐŁÑĥÑĤÐ¸Ð½":10438,"ĠÑģÐ°Ð¼Ð¾Ð»":10439,"ĠÐĴÐ¾ÑĢÐ¾Ð½ÐµÐ¶":10440,"nÐłÐµÐ¼Ð¾Ð½ÑĤ":10441,"ĠÐ²ÑģÑĤÑĢÐµÑĩÐ¸":10442,"ÑģÑĤÐ°ÑĢ":10443,"ĠÐ¿Ð¾Ð·Ð½Ð°ÐºÐ¾Ð¼":10444,"ÐĴÐ¾Ð»":10445,"ance":10446,"ĠÐĹÐ°Ð¿Ð¾ÑĢÐ¾Ð¶":10447,"ÐµÐ²ÐºÐ°":10448,"99800":10449,"ĠÐ¤Ð¾Ð½":10450,"ÐĶÐ¸":10451,"srp":10452,"ĠÐ¿Ð¾ÑıÐ²Ð¸ÑĤÑģÑı":10453,"Ð·ÑĥÑİ":10454,"TR":10455,"ĠÐŁÐ¾Ðº":10456,"nÐłÐ¾ÑģÑģÐ¸Ñı":10457,"ÐĺÐĳ":10458,"Ð¾Ð½Ð°ÑĤ":10459,"ĠÑģÐ¾Ð³Ð»Ð°ÑĪÐµÐ½Ð¸Ñı":10460,"ÐµÑĤÐ¸Ñı":10461,"025":10462,"Ð¾ÐºÐ¾Ð¸":10463,"ĠÐ¾Ð´ÐµÐ¶Ð´Ð°":10464,"nÐ¡ÐºÐ°ÑĩÐ°ÑĤÑĮ":10465,"ĠÑģÑĦÐµÑĢ":10466,"nÐŀÐ¿ÑĥÐ±Ð»Ð¸ÐºÐ¾Ð²Ð°Ð½Ð¾":10467,"ĠÐĹÐ°Ð¿Ð°Ð´":10468,"ush":10469,"ÑĢÐ°Ð·Ð¾Ð²Ð°Ð½Ð¸Ðµ":10470,"Ġ95":10471,"088":10472,"ĠÑĥÐ²ÐµÑĢÐµÐ½Ñĭ":10473,"ĠÐ¾ÑĤÐ·ÑĭÐ²Ð°":10474,"ĠÐ¿Ð¾Ð´ÑħÐ¾Ð´ÑıÑĤ":10475,"ĠÐ¼Ð°ÑģÑĤÐµÑĢÐ°":10476,"ach":10477,"ĠÐ²ÑĭÐ½Ñĥ":10478,"ĠÐļÐ°Ð·Ð°ÑħÑģÑĤÐ°Ð½":10479,"lus":10480,"Ð·Ð¼Ñĭ":10481,"Ð½ÑıÐºÐ°":10482,"ĠÑģÐ¿Ð°Ð»ÑĮ":10483,"ĠÐºÑĢÑİ":10484,"ener":10485,"ĠÐ½Ð°Ð¾Ð±Ð¾ÑĢÐ¾ÑĤ":10486,"ĠÐºÐ¾Ðº":10487,"ĠÐ¿ÑĢÐ¾ÑĨÐµÑģÑģÑĭ":10488,"ĠÐ¸Ð·Ð¾Ð±ÑĢÐ°Ð¶ÐµÐ½Ð¸Ðµ":10489,"ĠÐºÐ¾ÑįÑĦÑĦÐ¸ÑĨÐ¸":10490,"ÑĳÑħ":10491,"nÐĳÐ°":10492,"ÑĩÐ°ÑģÑĤÑĥÑİ":10493,"ĠÐļÐ":10494,"ĠÑĥÐ½Ð¸Ð²ÐµÑĢÑģÐ¸ÑĤÐµÑĤÐ°":10495,"838":10496,"ĠÐ¼ÐµÑģÑĤÑĥ":10497,"nÐŁÐ¾ÑģÐ¼Ð¾ÑĤÑĢÐµÑĤÑĮ":10498,"ĠÑĢÑĥÑģÑģÐºÐ¸Ð¹":10499,"ĠÐŁÐ¾Ð»ÑĮ":10500,"ĠÐºÐ¾Ð½ÑģÑĤÑĢÑĥÐºÑĨÐ¸Ñı":10501,"ÐĳÐµÐ»":10502,"Ð»Ð°Ð´Ð¸Ð¼Ð¸ÑĢ":10503,"ÑģÑĤÐ²Ð¾Ð²Ð°Ð»":10504,"869":10505,"ĠÑĤÐµÑģÑĤÐ¸":10506,"nÐĴÐ°Ð¶Ð½Ð¾":10507,"ĠÑĩÐ»ÐµÐ½Ð¾Ð²":10508,"ĠÐ¾Ð¿Ð»Ð°ÑĤÐ°":10509,"061":10510,"Ð½Ð¾Ð»ÐµÑĤ":10511,"ĠÐłÐ¾ÑģÑģÐ¸Ñİ":10512,"YS":10513,"HL":10514,"ĠÐ³Ð¾Ð»Ð¾Ð²Ñĭ":10515,"ĠÐļÐ¾":10516,"ĠÐºÐ»Ð¸Ðº":10517,"9823":10518,"ĠÐ¾ÑĤÐ·ÑĭÐ²Ð¾Ð²":10519,"ĠÐ¾ÑĢÐ³Ð°Ð½Ð°":10520,"ĠÐ¾ÑĦ":10521,"ĠÐ¡ÑĤÐ¸":10522,"nÐĳÐ»Ð°":10523,"Ð²ÑĪÐ°Ñı":10524,"9827":10525,"ĠÐ²ÑĢÐ¾Ð´Ðµ":10526,"ĠÑĥÑĤÐµÐ¿":10527,"ĠÐļÑĢÐµ":10528,"ĠÐ¢ÐµÐ»Ðµ":10529,"ĠÑĢÐ¾Ð´Ð¸ÑĤÐµÐ»Ð¸":10530,"ĠÑĢÐµÐµ":10531,"KS":10532,"Ð»Ñĳ":10533,"ĠÐºÐ°ÑĢÑĤ":10534,"99995":10535,"tag":10536,"ĠÐºÐ¾Ð½ÑĨÐµÐ¿":10537,"ĠÐ¿ÑĢÐµÐ·Ð¸Ð´ÐµÐ½ÑĤÐ°":10538,"ĠÑģÑĦÐ¾ÑĢÐ¼Ð¸":10539,"ĠÐ¸ÑģÐ¿Ð¾Ð»Ð½Ð¸":10540,"ĠÐ²ÑħÐ¾Ð´ÑıÑĤ":10541,"ĠÐ¿Ð¾Ð´ÑĢÐ¾Ð±Ð½Ð¾":10542,"99865":10543,"ĠÐ£Ð·":10544,"Ð¾ÑĤÐµÐºÐ¸":10545,"9804":10546,"ĠÐŁÐ¾ÐºÐ°":10547,"ĠÐ¿ÐµÑĢÐµÑģÑĤÐ°":10548,"Ð¾ÑĢÐ¸ÑĤ":10549,"Ð½Ð½ÑĭÐ¼":10550,"ĠÐ·ÐµÑĢÐºÐ°Ð»Ð¾":10551,"ĠÐ¾Ð±ÑĢÐ°ÑĤÐ½Ð¾Ð¹":10552,"ĠÐŀÐ»ÑĮÐ³Ð°":10553,"ĠÐĶÐ°ÑĤÐ°":10554,"ĠÐºÐ¾Ð½ÑģÐµÑĢ":10555,"ĠÐ¿ÑĢÐ¸Ð¼":10556,"ĠÐºÑĥÑĢÑĮÐµÑĢ":10557,"Ð·Ð°ÑīÐ¸":10558,"442":10559,"ÑĨÐ¸Ð¾Ð½Ð½ÑĭÐ¼":10560,"ÑĢÑĭÑĤÑĮ":10561,"ĠÑĢÐ°Ð·ÑĥÐ¼":10562,"ĠÐ´Ð¾Ð¿ÑĥÑģÑĤÐ¸":10563,"ÑĤÐµÑħ":10564,"ĠÑģÑĨÐµÐ½Ð°":10565,"ĠÐłÐµÐ³Ð¸ÑģÑĤÑĢÐ°ÑĨÐ¸Ñı":10566,"ĠÐ½Ð°Ð¿ÑĢÐ°Ð²Ð»ÐµÐ½Ð¸Ð¸":10567,"ĠÑģÑĤÑĢÐ¾Ð³Ð¾":10568,"99825":10569,"DS":10570,"ĠÐ¿ÐµÑĩÐµÐ½Ð¸":10571,"ĠÑĢÐµÐºÐ¾Ð¼ÐµÐ½Ð´ÑĥÐµÐ¼":10572,"ÑĢÐ¾Ð²Ð°Ð½Ð½ÑĭÐ¼":10573,"ĠÐļÑĢÐ°ÑģÐ½":10574,"ĠÐ¿Ð°Ð´":10575,"nÐŀÐ±Ð·Ð¾ÑĢ":10576,"Ð¾Ð¿Ð¾Ð»Ð¸":10577,"hats":10578,"stag":10579,"ĠÐ¿ÑĢÐ¾Ð¸Ð·Ð²Ð¾Ð´ÑģÑĤÐ²Ðµ":10580,"FAA":10581,"ĠÐ¼Ð¾Ð½Ð°ÑģÑĤÑĭ":10582,"ĠÐ±Ð¸ÑĢ":10583,"ĠÐ¡Ð°Ð¼Ð°ÑĢ":10584,"ÐºÑĢÐ¾":10585,"ÑĢÑĥÐ³Ð°":10586,"ĠÐºÐ°ÑĢÑĤÐ°":10587,"ĠÐ´Ð¾ÑģÑĤÐ¾Ð¹":10588,"ĠÐ¿Ð¾Ð²Ðµ":10589,"ĠÐ¿Ð°Ð»Ð°":10590,"ĠÑĢÐ°Ð´Ð¸Ð":10591,"ĠÑĢÐ°Ð´Ð¸Ð¾":10592,"AP":10593,"Ð»Ð¾Ð³Ð¸":10594,"ĠGalaxy":10595,"ĠÑĤÐµÐ½Ð´ÐµÐ½":10596,"BL":10597,"2000":10598,"ĠÐĿÐ°ÑĪÐ¸":10599,"ĠÐ³Ð»Ð¸":10600,"ĠÐ²Ð´Ð¾Ñħ":10601,"ĠÐĺÐŁ":10602,"ĠÑģÐµÐ³Ð¾Ð´Ð½ÑıÑĪÐ½Ð¸Ð¹":10603,"ĠÐ¿ÐµÑĢÐµÐ½Ðµ":10604,"ÑĪÐ¸Ð¿":10605,"Fi":10606,"ĠÐ¼ÐµÐ´Ð¸ÑĨÐ¸Ð½ÑģÐºÐ¸Ñħ":10607,"ĠÑĢÐ°Ð·ÑĢÐ°Ð±Ð¾ÑĤÐºÐ¸":10608,"ĠÐ¼Ð½Ð¾Ð³Ð¾Ðº":10609,"ĠÐºÐ¾Ð»Ð»Ðµ":10610,"ĠÐ²ÐµÑģÐ°":10611,"ÑĦÐµÑģÑģ":10612,"ÐµÐ½Ð½Ð¾Ð¼":10613,"Ð³ÑĢÐ°Ð½":10614,"ĠÐ½Ð°Ð¸Ð¼ÐµÐ½":10615,"nÐŁÐ»Ð°":10616,"Ð°ÑĤÑĢÐ°":10617,"ĠÐ¼ÐµÑĤÐ¾Ð´Ð°":10618,"9765":10619,"ĠÑģÐ¾Ð²ÐµÑĤÐ°":10620,"ĠÑģÐ¼ÑĭÑģÐ»":10621,"ĠÐ¼Ð¾Ð½Ð¸ÑĤÐ¾ÑĢ":10622,"ĠÑĢÐµÐ´Ð°ÐºÑĤÐ¾ÑĢ":10623,"ĠÐ¿Ð¾Ð½Ð¸Ð¼Ð°ÑĤÑĮ":10624,"ĠÐ¾Ð±Ð¾Ð»":10625,"ĠCOVID":10626,"ĠÐ²Ð¾Ð·Ð¼Ð¾Ð¶Ð½Ð¾ÑģÑĤÐµÐ¹":10627,"085":10628,"nÐľÐ¾ÑģÐºÐ²Ð°":10629,"ÐķÑģÐ»Ð¸":10630,"ĠÐ£Ð½Ð¸Ð²ÐµÑĢ":10631,"ĠÐ¢ÐĴ":10632,"ĠÑĥÐ´Ðµ":10633,"ĠÐ´Ð¾Ð±Ð°Ð²Ð»ÑıÑĤÑĮ":10634,"ĠÐ¼Ð¸ÑĢÐ¾Ð²Ð¾Ð¹":10635,"ĠÑĤÐµÑĢÐ°Ð¿Ð¸Ð¸":10636,"nÐĺÐ½ÑĤÐµÑĢÐµÑģ":10637,"ĠÐ¾Ð³ÑĢÐ°Ð½Ð¸Ñĩ":10638,"ĠÐ½Ð°ÐºÐ¾Ð½ÐµÑĨ":10639,"Ð¿ÑĢÐ¾Ð´Ð°":10640,"Ð¾ÑīÑĮ":10641,"ĠÑĢÐ°ÑģÑģÑĩÐ¸ÑĤÐ°":10642,"Ð¶ÑģÐºÐ¸Ð¹":10643,"lish":10644,"ĠÐ¿ÐµÑĢÐµÑģÐµ":10645,"ĠÐĺÐ³ÑĢÐ¾Ð²ÑĭÐµ":10646,"naya":10647,"ÑĢÑĥÑı":10648,"Ð³Ð¾Ð»":10649,"nÐ²Ñĭ":10650,"281":10651,"ÑĤÐ¾ÑĢÐ¸Ñı":10652,"ĠÐ½Ð¸ÐºÐ°Ðº":10653,"ĠÐ²ÑħÐ¾Ð´Ð°":10654,"nÐĴÐ°Ð¼":10655,"ĠÐ¸Ð½Ð²ÐµÑģÑĤ":10656,"Ð¼Ð°Ð¹":10657,"99845":10658,"ĠÐ¿ÑĢÐ¾Ð¼Ñĭ":10659,"âĸº":10660,"ĠÐ¿ÑĢÐ¾ÑĪÐ»Ð¾Ð¼":10661,"ĠÐ¿Ð¾ÐºÐ°Ð·Ð°ÑĤÐµÐ»Ð¸":10662,"ĠÐĵÐ°Ð·":10663,"9736":10664,"ĠÐºÐ¾ÑģÑĤÑİ":10665,"ĠÐ½Ð°Ð¿ÑĢÑıÐ¶ÐµÐ½Ð¸Ñı":10666,"oto":10667,"ĠÐ¢ÑĢÐ¸":10668,"ĠÐ¿Ð¾Ð»ÑĥÑĩÐ°ÑİÑĤ":10669,"ĠÐ¡Ð¾Ð¾Ð±":10670,"ĠÐ¿Ð¾Ð½Ð°Ð´Ð¾Ð±Ð¸ÑĤÑģÑı":10671,"ĠÐ½Ð°Ð´Ð·Ð¾ÑĢÑĥ":10672,"Ð»Ð¾Ð²ÐµÐº":10673,"ĠÃ":10674,"III":10675,"ĠÐ½Ð¾Ð²Ð¾Ð¼":10676,"ĠÐ¿ÑĢÐµÐ·ÐµÐ½ÑĤÐ°":10677,"ĠÐºÐ¾ÑĢÐ°Ð±":10678,"ĠÐ¼ÐµÐ½ÑıÑĤÑĮ":10679,"Ð²Ð°ÑĢÐ¸Ð¹":10680,"ĠÐ½Ð¾Ð²Ð¸Ð½ÐºÐ¸":10681,"ĠÐ¿Ð¾ÐºÐ¸":10682,"ĠÐłÐ°Ð´Ð¸":10683,"Ð³Ð¾ÑĤÐ²Ð¾ÑĢÐ¸":10684,"642":10685,"Ð¼Ð¾Ð½Ð°":10686,"ĠÐĿÐ°Ð´Ðµ":10687,"ĠÐ¿ÑĢÐµÐ´ÑģÑĤÐ°Ð²Ð»Ñı":10688,"ĠÐ¡ÑĤÑĥ":10689,"ÑĦÐ¸ÑĨÐ¸Ð°Ð»ÑĮÐ½ÑĭÐ¹":10690,"ĠÑģÑĤÑĭ":10691,"ÐºÐ¾Ð½Ðµ":10692,"nÐĿÐµÐ´":10693,"('.":10694,"box":10695,"rosoft":10696,"ĠYou":10697,"ĠÑĤÐµÑħÐ½Ð¸ÑĩÐµÑģÐºÐ¸Ñħ":10698,"ced":10699,"UP":10700,"ĠÐĲÑĢÐ¼":10701,"Ð¼Ð°ÑĤÑĭ":10702,"ĠÐ¿ÑĢÐ¾ÑĨÐµÑģÑģÐ¾Ð²":10703,"ĠÐºÐ»Ð¸Ð½Ð¸":10704,"ĠÐŁÐµÑĢÐ¼":10705,"ÑĢÑĭÐ²Ð°":10706,"ĠÐ¡Ð¼Ðµ":10707,"ÑģÐ¿Ð¾ÑĢÑĤÐ°":10708,"ĠÐ¼ÑĥÐ¶ÑĩÐ¸":10709,"ĠÐĹÐ°ÐºÐ°Ð·":10710,"Ð¶ÐµÐ½Ð½ÑĭÑħ":10711,"nÐĴÑħÐ¾Ð´":10712,"ÑĭÑĢ":10713,"Ð´Ð¶ÐµÑĤ":10714,"ĠÐ´ÑĥÑĪÐµ":10715,"Ð¶Ð°Ð²Ðµ":10716,"ĠÐ²Ð¾Ð·Ð½Ð¸ÐºÐ½Ð¾Ð²ÐµÐ½Ð¸Ñı":10717,"ĠÐ½Ð°Ð±Ð»ÑİÐ´":10718,"pan":10719,"9888":10720,"ĠÐ¶Ð¸Ð·Ð½ÐµÐ½":10721,"Ð°Ð´Ð°":10722,"99887":10723,"ĠÐ±ÐµÑģÐº":10724,"ĠÐ´ÑĢÑĥÐ·ÑĮÑıÐ¼Ð¸":10725,"ear":10726,"Ð§ÐķÐ¡":10727,"ĠÐ»Ð¾Ð³":10728,"ĠÑĢÑĥÐºÐ°Ñħ":10729,"029":10730,"ĠÐ¿ÑĢÐ¸Ð½ÑıÐ»Ð¸":10731,"ĠÐ¿ÑĢÐ¸ÑĩÐµÐ¼":10732,"ĠÐ²Ð¸Ð´Ð¸":10733,"ĠÐ¸Ñī":10734,"ĠÐ´Ð°ÑĤÑĭ":10735,"arket":10736,"ÐŃÐº":10737,"ĠÐ¿ÑĢÐ¾ÑģÑĮ":10738,"Ġ66":10739,"ĠÑģÐµÐºÑģÑĥ":10740,"ĠÐĶÐ¾ÑģÑĤÐ°Ð²ÐºÐ°":10741,"9807":10742,"ĠÐ¸ÑģÑģÐ»ÐµÐ´Ð¾Ð²Ð°Ð½Ð¸Ðµ":10743,"IZ":10744,"Ð³Ð¾Ð´Ð¸":10745,"ÐĿÐ«Ð¥":10746,"ĠÑįÑĦÑĦÐµÐºÑĤÐ¸Ð²Ð½Ð¾ÑģÑĤÐ¸":10747,"ĠÑĨÐ²ÐµÑĤÑĭ":10748,"ĠÐ¸ÑģÐ¿Ð¾Ð»ÑĮÐ·ÑĥÐµÐ¼":10749,"nÐŀÑģÐ¾Ð±ÐµÐ½Ð½Ð¾ÑģÑĤÐ¸":10750,"TP":10751,"ĠÐ¡ÐºÐ°ÑĩÐ°ÑĤÑĮ":10752,"ĠÐ¢Ð²ÐµÑĢ":10753,"ÑģÐµÐ´":10754,"ĠÑĤÐµÑģÑĤ":10755,"ĠÐ¾Ð±ÑĬÑıÐ²Ð¸":10756,"Ð§Ðķ":10757,"Ð¼Ð°Ðº":10758,"cument":10759,"ĠÐĹÐ°ÐºÐ¾Ð½":10760,"ÐĽÐ£":10761,"ĠÐ´ÐµÐ²ÑĥÑĪÐºÐ¸":10762,"081":10763,"ĠÑĢÐµÐ°Ð»ÑĮÐ½ÑĭÐµ":10764,"ĠÐ¡ÐºÐ°":10765,"tom":10766,"ĠÐ°Ð´Ð²Ð¾ÐºÐ°":10767,"ĠÑĤÐ°Ð¼Ð¾Ð¶":10768,"278":10769,"ÑĤÑĢÐ¸Ð´Ð¶":10770,"Ð²Ð¾Ð½Ð¾":10771,"ĠÐ¸Ð½ÑĤÐµÑĢÑĦÐµÐ¹":10772,"ĠÐ¿ÑĥÐ±Ð»Ð¸ÑĩÐ½Ð¾Ð¹":10773,"YL":10774,"ĠÐĴÐµÐ»Ð¸ÐºÐ¾Ð±ÑĢÐ¸ÑĤÐ°":10775,"ÐŁÑĢ":10776,"ÐĶÐ»Ñı":10777,"pg":10778,"Ð¶Ð¸ÑĤÑģÑı":10779,"Ð½Ð¾Ð²ÑĭÑħ":10780,"ĠÑĥÑĩÐ°ÑģÑĤÐºÐµ":10781,"ĠÐ´Ð°ÑĢ":10782,"ĠÑĦÐ¾Ð½Ð´Ð°":10783,"ĠÐ¿Ð¾Ð¿ÑĭÑĤ":10784,"ember":10785,"ĠÐ¿Ð¸ÑģÑĮÐ¼Ð°":10786,"ĠÐ±ÑĥÐ»ÑĮ":10787,"Ð»Ðº":10788,"441":10789,"stagram":10790,"ĠÑĤÐ¾ÑĢÐ¶Ðµ":10791,"Ð¾Ð»ÑĩÐ°":10792,"ĠÐ²ÐµÐ´Ð¾Ð¼":10793,"ĠÑĥÑİÑĤ":10794,"3534":10795,"ĠÑģÑĤÑĢÑĥÐºÑĤÑĥÑĢ":10796,"ĠÐ¿Ð¾ÑĩÑĤÐµ":10797,"ĠÐĿÐŀ":10798,"ĠÐ²ÑĭÑģÐ¾ÐºÐ¸Ð¼":10799,"ÑģÐµÐ»ÑĮ":10800,"ĠÐºÑĢÐ¸Ð¿ÑĤ":10801,"ĠÐ³Ð¸Ð´ÑĢ":10802,"279":10803,"ĠÐ»ÐµÑĩÐµÐ±":10804,"omi":10805,"Ð±Ð¾Ð»":10806,"9561476":10807,"nY":10808,"ĠÐĺÐ½ÑĦÐ¾ÑĢÐ¼Ð°":10809,"272":10810,"ĠÑģÐ°Ð½Ð¸ÑĤÐ°ÑĢ":10811,"ĠÐ¡Ð¾Ð·Ð´Ð°":10812,"Ð¼ÑĭÐ¹":10813,"600":10814,"ĠÐ»Ð¸ÐºÐ²Ð¸":10815,"AEE":10816,"ĠÐ·Ð°Ð²Ðµ":10817,"ton":10818,"99810":10819,"ĠÑģÐ¿ÐµÑĨÐ¸Ð°Ð»ÑĮÐ½Ð¾Ð¹":10820,"ĠÐ¯Ð¿Ð¾":10821,"ĠÑģÑĤÐ°ÑĤÐµÐ¹":10822,"ĠÑģÐ¾Ð²ÑĢÐµÐ¼ÐµÐ½Ð½Ð¾Ð¹":10823,"ĠÑĦÐ¸ÑĢÐ¼Ñĭ":10824,"ĠÐ²Ð´ÑĢÑĥÐ³":10825,"Ð¼Ð°Ð½Ð°":10826,"ĠÐ´Ð¸Ð°Ð±":10827,"ĠÐ¿ÐµÑĢÐµÐ³Ð¾Ð²":10828,"ĠÐ¿ÑĢÐ¾Ð¸Ð·Ð²Ð¾Ð´Ð¸ÑĤÐµÐ»ÑĮ":10829,"ĠÐºÐ¾ÑĢÐ¾Ð½Ð°Ð²Ð¸ÑĢÑĥÑģÐ°":10830,"ĠÐ¼ÐµÐ´Ð¸ÑĨÐ¸Ð½ÑģÐºÐ¾Ð¹":10831,"Ð½Ð³ÑĢÐ°Ð´ÑģÐºÐ¾Ð¹":10832,"ĠÐ½ÐµÐ·Ð°ÐºÐ¾Ð½":10833,"ĠÑįÑĦÑĦÐµÐºÑĤÐ¸Ð²Ð½Ð¾ÑģÑĤÑĮ":10834,"MD":10835,"Ð°ÑĢÐ°ÐºÑĤÐµÑĢÐ¸ÑģÑĤÐ¸ÐºÐ¸":10836,"lack":10837,"ĠÐ·Ð²ÑĥÐº":10838,"ĠÐĵÐ»Ð°Ð²Ð½Ð¾Ðµ":10839,"ÑİÑīÐ¸Ð¹ÑģÑı":10840,"ÐºÑĥÐ»ÑĮ":10841,"ĠÑģÐ¿Ð¾ÑĢÑĤÑģ":10842,"ĠÐ°Ð¿ÑĤÐµ":10843,"ĠÐ¿Ð¾Ð´Ð»ÐµÐ¶Ð°":10844,"Ġpost":10845,"ĠÐ´Ð¾ÑĢÐ¾Ð³Ð°":10846,"ÐŁÐ°":10847,"372":10848,"ĠÐ¿Ð»Ð°Ð²":10849,"ĠÐ¾Ð¿ÑĢÐ°Ð²":10850,"ĠÐ¸Ð½Ð¶ÐµÐ½ÐµÑĢ":10851,"ĠÐºÐ°Ð¼ÐµÐ½ÑĮ":10852,"ÑĦÐ¸Ðº":10853,"ĠÐ¼Ð¾ÐµÐ³Ð¾":10854,"ÑĤÐ½ÑĥÑİ":10855,"ĠÐ°ÑģÑģÐ¾ÑĢÑĤÐ¸Ð¼ÐµÐ½ÑĤ":10856,"Ð°ÐºÑģÐ¸":10857,"831":10858,"090":10859,"ĠÐ½Ð°Ð¹Ð´ÐµÑĤÐµ":10860,"ÑİÑĢÐ°":10861,"Ð¾Ð¶Ð°ÑĢ":10862,"ÐĲÐº":10863,"earch":10864,"ĠÐ¿Ð¸ÑĤÐ¾Ð¼":10865,"DFB":10866,"ĠÐºÐ°Ð½Ð°Ð»":10867,"ĠÐ¿Ð»Ð°ÑĤÑĭ":10868,"Ġ});":10869,"ĠÐ¡Ð²ÐµÑĢÐ´Ð»Ð¾Ð²ÑģÐºÐ¾Ð¹":10870,"ĠÑģÐµÐ¼Ð¸Ð½Ð°":10871,"ĠÐ¿ÑĢÐµÐ´ÑĥÑģÐ¼Ð°ÑĤÑĢÐ¸":10872,"Ð¾ÐºÐ¾Ð»Ð°Ð´":10873,"015":10874,"ÑģÑĤÐ°Ð²ÑĮÑĤÐµ":10875,"ĠÐ°Ð²ÑĤÐ¾Ð¼Ð°ÑĤÐ¾Ð²":10876,"ĠÑģÑĤÐ°Ð´Ð¸Ð¸":10877,"ĠÐĺÑģ":10878,"ĠÑĩÐµÐ»Ð¾Ð²ÐµÐºÐ¾Ð¼":10879,"ÑĪÐ½ÑĭÐµ":10880,"ĠÐĽÑĮ":10881,"Ð¿Ð¿":10882,"Ð³ÑĢÐ¸":10883,"ĠÐ¿ÑĢÐµÐ´Ð²Ð°ÑĢÐ¸ÑĤÐµÐ»ÑĮÐ½Ð¾":10884,"Ð¶ÐºÑĥ":10885,"ath":10886,"ĠÑĤÐ¾Ð¿Ð»Ð¸Ð²":10887,"era":10888,"ĠÐ²Ð¾Ð¹ÑĤÐ¸":10889,"ÐºÐ¾Ð½Ð¾Ð¼Ð¸ÑĤÑĮ":10890,"ĠÑģÐ¿Ð¾ÑģÐ¾Ð±Ð°Ð¼Ð¸":10891,"ĠÐ¿ÑģÐ¸ÑħÐ¾Ð»Ð¾Ð³Ð¸":10892,"ĠÐ¸Ð·Ð³Ð¾ÑĤÐ°Ð²Ð»Ð¸":10893,"929":10894,"ÐľÐ°ÑĢ":10895,"ĠÐ¸Ð½ÑĦÐ¾ÑĢÐ¼Ð°ÑĨÐ¸ÐµÐ¹":10896,"ĠÐµÐ¶ÐµÐ´Ð½ÐµÐ²Ð½Ð¾":10897,"ĠÐ»ÐµÐ³ÐµÐ½":10898,"ĠÑĤÐ°Ð»Ð°Ð½":10899,"ĠÐ½ÐµÐ²ÐµÑĢÐ¾ÑıÑĤ":10900,"ĠÑĩÑĥÐ²ÑģÑĤÐ²Ð°":10901,"Ġï¿½ï¿½":10902,"ĠÑĦÐ¸Ð»Ð¸":10903,"ĠÐ´ÑİÐ¹":10904,"Ð¿ÑĢÐ¾ÑĩÐµÐ¼":10905,"ĠÐ¸Ð½ÑĭÐµ":10906,"ĠÐ½Ñİ":10907,"ÑĪÐ¸Ð½ÑģÑĤÐ²Ð¾":10908,"ĠÐ¸Ð´ÑĤÐ¸":10909,"ĠÐ¾ÑĤÑģÐ»Ðµ":10910,"Ð¡ÐµÑĢ":10911,"Ð²ÐºÐ°":10912,"ĠÐ¾ÑĦÐ¸ÑĨÐ¸Ð°Ð»ÑĮÐ½Ð¾Ð¼":10913,".-":10914,"ĠHD":10915,"ĠÐĴÐ¸ÑĤÐ°":10916,"ĠÐ·Ð°ÑīÐ¸ÑĤÑĥ":10917,"ĠÐļÐ¾ÑĢÐµ":10918,"nÐļÐ¸":10919,"ĠÐ¿ÐµÑĢÐµÑĩÐµÐ½ÑĮ":10920,"yan":10921,"ĠÐļÐ°Ð»Ð¸Ð½Ð¸":10922,"Ð¾Ð¾Ð±ÑĢÐ°":10923,"ĠÐ´Ð½ÐµÐ²":10924,"CFF":10925,"ĠÐºÑĥÐ»ÑĮÑĤÑĥÑĢ":10926,"ÑĢÐ¾Ð²ÐºÐµ":10927,"271":10928,"014":10929,"ĠÐ¾Ð±ÑīÐµÑģÑĤÐ²Ð¾":10930,"ĠÐ¸Ð½Ð³":10931,"Ð»Ð¸Ð¼Ð¿Ð¸":10932,"ĠÑĢÐ°Ð·Ð½Ð¾Ð²Ð¸Ð´":10933,"ĠÐ¸Ð½ÑĤÐµÑĢÐ²ÑĮÑİ":10934,"ĠÐ¾ÑħÑĢÐ°Ð½Ñĭ":10935,"849":10936,"ĠÐĴÐ°ÑĢ":10937,"ĠÑĤÐ¾ÑĢÐ³Ð¾Ð²Ð»Ð¸":10938,"ĠÑģÑĩÐ¸ÑĤÐ°ÑĤÑĮ":10939,"ĠÑģÐµÑĢÐ²ÐµÑĢ":10940,"ĠÑģÑĤÑĢÐ¾Ð¹":10941,"site":10942,"9981":10943,"ĠÐ²Ð»Ð¾Ð¶":10944,"ĠÑģÐµÑĢÐ²Ð¸ÑģÐ°":10945,"Ð©Ðķ":10946,"ĠÑĤÐµÐºÑģÑĤÐ¾Ð²":10947,"ĠÐ¾ÐºÐ¾Ð½ÑĩÐ°Ð½Ð¸Ñı":10948,"ĠÑīÑĳ":10949,"ĠÐ·Ð°ÑģÑĤÑĢÐ¾Ð¹":10950,"Ð¾Ð²ÑĭÐ²Ð¾Ð·":10951,"ĠÐĲÐ½Ð½Ð°":10952,"Ð¾Ð´Ð½ÑĭÐ¹":10953,"ĠÐ»Ð¸ÑĨÐ¾Ð¼":10954,"ĠAd":10955,"ĠÑģÐ¾Ð±Ð»ÑİÐ´Ð°ÑĤÑĮ":10956,"ĠÐ²Ð»Ð°Ð´Ðµ":10957,"Ð¾Ð»ÑĮÐ½ÑĭÐ¹":10958,"nÐľÐµÐ½":10959,"ĠÐºÐ°Ð¿Ñĥ":10960,"ĠÐºÑĢÐ¾Ñģ":10961,"ÑīÐ°Ð¹":10962,"ĠÐ´Ð¾Ð¿Ð¾Ð»Ð½Ð¸ÑĤÐµÐ»ÑĮÐ½Ð¾Ð¹":10963,"ÑĤÑĥÑĢÑĥ":10964,"99867":10965,"ĠÐ¿Ð¾ÑıÐ²Ð¸Ð»Ð¸ÑģÑĮ":10966,"Ð³Ð¾ÑĢÐ¸ÑĤ":10967,"ĠÑģÐ¾ÑİÐ·":10968,"ĠÐ¿Ð¾ÑģÐ»ÐµÐ´Ð½ÐµÐµ":10969,"ĠÐ½ÐµÐ¸Ð·Ð²ÐµÑģÑĤ":10970,"ÑĪÐµÐ½Ñĭ":10971,"ĠÐ¡ÐµÑĢÐ¸Ñı":10972,"nÐĲÐ²ÑĤÐ¾Ð¼":10973,"nÐ¡Ð¾Ð´ÐµÑĢÐ¶Ð°Ð½Ð¸Ðµ":10974,"ĠÐ¿Ð¾ÐºÑĥÐ¿Ð°ÑĤÑĮ":10975,"261":10976,"ĠÐļÐŁ":10977,"ick":10978,"ÑĢÑĥÑİ":10979,"ÐĽÑİ":10980,"ĠMic":10981,"ĠÑĢÑıÐ´Ð°":10982,"nÐļÑĢÐ°Ñģ":10983,"ĠÐ³Ð¾ÑĢÐ¾Ð´Ð¾Ð²":10984,"ĠÐ²Ð¿Ð¸":10985,"472":10986,"ĠÐ»Ð¸ÑĩÐ½Ð¾Ð¼":10987,"ĠÐ´ÑĢÐµÐ²ÐµÑģÐ¸":10988,"ĠÑģÐ»ÐµÐ´ÑĥÑİÑīÐ¸Ð¼":10989,"!\",\"":10990,"tyle":10991,"ĠÐºÐ°ÐºÐ¾Ð¼":10992,"Ð½Ð¸ÑĤÑĮÑģÑı":10993,"ÑĢÐ¾Ð·Ð¸":10994,"ĠÑģÐ°Ð¼Ð¾Ð»ÐµÑĤ":10995,"Ġdata":10996,"ĠÐ¿ÑĢÐµÐ´Ð»Ð°Ð³Ð°ÑİÑĤ":10997,"Ð¾Ð¿ÑĢÐ¸Ð¼ÐµÑĩÐ°":10998,"ĠÐĶÑĥÐ±":10999,"ĠÐĲÐ½Ð´ÑĢÐµ":11000,"ĠÐ¿Ð»ÑİÑģ":11001,"9795":11002,"ĠÐ½ÐµÑĳ":11003,"99804":11004,"ĠÐ²Ð½ÑĥÑĤÑĢÐµÐ½Ð½ÐµÐ¹":11005,"ĠÐľÐ°Ñģ":11006,"ĠÐºÑĢÐµÑģ":11007,"ĠÑģÑĤÐ¾Ð¿":11008,"ÑĪÐºÐ¾ÑĢÑĤÐ¾ÑģÑĤÐ°Ð½":11009,"Ð½Ð¾ÑģÐ¸ÑĤ":11010,"ĠÐ±ÐµÑĢ":11011,"ĠÑģÐ²ÐµÑĢÑħÑĥ":11012,"ĠÑĢÐµÑĨÐµÐ¿ÑĤ":11013,"ij":11014,"ĠÑģÑĥÑīÐµÑģÑĤÐ²ÐµÐ½Ð½Ð¾":11015,"ĠÐ°ÑĢÐ¼Ð¸Ð¸":11016,"ĠÐ²Ð¾ÑģÐºÑĢÐµÑģ":11017,"nÐĶÐ°Ð»ÐµÐµ":11018,"4177":11019,"238":11020,"kom":11021,"Ġï¿½":11022,"99817":11023,"Ð»ÐµÑĢÐµÑı":11024,"ĠÐ¤Ð¸Ð»ÑĮ":11025,"648":11026,"ĠÐĵÑĥÐ±":11027,"99835":11028,"ĠÐ»ÑİÐ±Ð¸ÑĤ":11029,"ĠÑĢÐ¾ÑģÑģÐ¸Ð¹ÑģÐºÐ¾Ð¹":11030,"ÑĢÐµÑģÑģÐ¸":11031,"ÑĩÑĮÑİ":11032,"ĠÐºÐ²Ð°Ð»Ð¸ÑĦÐ¸ÐºÐ°ÑĨÐ¸Ð¸":11033,"ĠÐļÐ°Ð½Ð°":11034,"ĠÑĦÐ¾Ð½Ð´":11035,"ĠÐ½Ð°Ð·Ð²Ð°Ð½Ð¸ÐµÐ¼":11036,"ĠÐ°Ð´ÑĢÐµÑģÐ°":11037,"ĠÑħÐ°ÑĢÐ°ÐºÑĤÐµÑĢÐ¸":11038,"ĠÐ¿Ð¾Ð¿ÑĢÐ¾Ð±Ð¾Ð²Ð°ÑĤÑĮ":11039,"ĠÐ´Ð¾Ð±Ð¸ÑĤÑĮÑģÑı":11040,"ĠÐ½Ð°Ð¿Ð¸ÑģÐ°Ð»":11041,"ĠÑĢÐ°Ð±":11042,"ĠÐ½ÐµÐ²Ñĭ":11043,"ĠÐ´ÐµÑĢÐµÐ²Ð¾":11044,"ĠTDM":11045,"ĠÐ±Ð°Ð·Ñĭ":11046,"ĠÐºÐ½Ð¸Ð³Ñĥ":11047,"ĠÑĪÐ°Ð±":11048,"Ð¼Ð°Ð³Ð°Ð·Ð¸Ð½Ðµ":11049,"Ð¥Ðŀ":11050,"ÑĢÐ°Ð½ÑĤÐ¸Ñı":11051,"Ð¾Ð¿Ð¾Ð´":11052,"ĠÐ¾Ð±Ð»Ð°Ð´Ð°ÑİÑĤ":11053,"99814":11054,"ÐºÐ¾Ð¼Ð½Ð°ÑĤ":11055,"ĠÐ·Ð¸Ð¼Ð¾Ð¹":11056,"ove":11057,"99787":11058,"Ð³ÑĢÐ¾Ð¼":11059,"ÐłÐ¢":11060,"ĠÑĢÑĥÑģÑģÐºÐ¾Ð³Ð¾":11061,"sid":11062,"HP":11063,"ÐºÐ°Ð»":11064,"ĠÐŀÑģÐ¾Ð±ÐµÐ½Ð½Ð¾":11065,"ĠÐ·Ð°ÐºÐ°Ð½":11066,"ÑģÑĤÑĮÑİ":11067,"99873":11068,"ĠÑģÐ»ÑĥÑĪÐ°":11069,"ĠÐľÐ°ÑĢÐ¸":11070,"ĠÐŃÐ»":11071,"ĠÑĦÐ°ÐºÑĤÑĭ":11072,"kh":11073,"ĠÑģÐ²ÑıÐ¶Ð¸ÑĤÐµÑģÑĮ":11074,"ĠÑģÑĤÐ°ÑĤÑĥÑģ":11075,"9816":11076,"HD":11077,"IW":11078,"Ð¾ÑĤÐ°ÑĢÐ¸":11079,"ĠÐ¾Ð±ÑĢÐ°ÑĤÐ¸ÑĤÑĮ":11080,"ÑĳÐ·":11081,"ras":11082,"ĠÑģÐºÐ¾ÑĢÐ¾":11083,"ĠÐ¿Ð¾ÑĤÐ¾Ðº":11084,"99877":11085,"ĠÐķÐµ":11086,"99685":11087,"ĠÐ½Ð¾Ð²Ð¸Ñĩ":11088,"ĠÑģÑĤÐ²":11089,"ĠÑħÐ²Ð°ÑĤÐ°ÐµÑĤ":11090,"Ð½ÐµÐ¿":11091,"ĠÐ³Ð»Ð°Ð´":11092,"ĠÐ¾ÑģÑĥÑīÐµÑģÑĤÐ²Ð»Ñı":11093,"NT":11094,"ĠÑĪÐ¾Ñĥ":11095,"ĠÐ¸Ð½ÑĤÐµÐ»Ð»ÐµÐºÑĤÑĥ":11096,"ĠÐ·Ð°ÐºÐ°Ð·Ð¾Ð²":11097,"99857":11098,"ĠÐ´Ð¾Ð±ÑĢÐ¾Ð²":11099,"ĠTelegram":11100,"ĠÑĪÐ¸ÑĢÐ¾ÐºÐ":11101,"ĠÑĪÐ¸ÑĢÐ¾ÐºÐ¾":11102,"ÑģÑĤÐ¸ÑĤÐµ":11103,"ÑĢÐ°Ð²Ð½Ð¸":11104,"Ð±ÐµÐºÐ¸":11105,"ÑģÑĤÐ½ÑĭÐ¹":11106,"Ð²ÐµÐ´ÐµÐ½Ñĭ":11107,"99727":11108,"ĠÑģÑĤÐ¾Ð»ÑĮ":11109,"ĠÐľÐ¸Ð½Ð¸ÑģÑĤÐµÑĢÑģÑĤÐ²Ð°":11110,"ĠÑĥÐºÐ°Ð·Ð°ÑĤÑĮ":11111,"ĠÐ¶ÑĥÑĢÐ½Ð°Ð»Ð°":11112,"ĠÐ·Ð°ÑĩÐµÐ¼":11113,"ĠÐºÐµÑĢÐ°Ð¼Ð¸":11114,"St":11115,"ĠÐ²Ð¸Ð´Ð½Ð¾":11116,"ĠÐ·Ð°Ð²Ð¾Ð´Ð°":11117,"Ð±Ð°Ð»":11118,"Ġ2004":11119,"ĠÐºÑĥÑħÐ½Ñı":11120,"ĠÐ¿ÑĢÑıÐ¼Ð¾Ð¹":11121,"ĠÐ½Ð°Ð·Ð²Ð°Ð½Ð¸Ñı":11122,"ĠÐ¸Ð½Ð³ÑĢÐµÐ´Ð¸":11123,"37504":11124,"ĠÐ¾ÑģÑĤÐ°Ð»ÑĮÐ½ÑĭÑħ":11125,"231":11126,"99897":11127,"ĠÐ²ÑĭÑıÐ²":11128,"ĠÐ»Ð¸ÑĩÐ½ÑĭÐ¹":11129,"Ð¾Ð²Ð°ÑĢ":11130,"ĠÑģÐ¿ÐµÐºÑĤ":11131,"ĠÐĿÐ¾Ð²Ð°Ñı":11132,"VD":11133,"ĠÐ¾ÑĤÑĢÐ°ÑģÐ»Ð¸":11134,"Ð´Ð°ÐºÑĨÐ¸Ñı":11135,"Ð¾Ð±Ðµ":11136,"nÐľÐ°ÑĢ":11137,"NS":11138,"],":11139,"ĠÐºÐ¾Ð¼Ð½Ð°ÑĤÐµ":11140,"9803":11141,"99785":11142,"ĠÐ¾ÑģÐ¾Ð±Ð":11143,"ĠÐ¾ÑģÐ¾Ð±Ð¾":11144,"802":11145,"men":11146,"ĠBMW":11147,"ĠÐ¸Ð½ÑĦÐ¾ÑĢÐ¼Ð¸":11148,"ĠÐ¿ÑĢÐ¸ÑĢÐ¾Ð´Ñĭ":11149,"ĠÐ¼Ð°Ð¼Ð°":11150,"page":11151,"¾ÑĢÐ°Ð½":11152,"ĠÐ·Ð¾Ð½Ðµ":11153,"Ð¶ÐµÐ»Ð°":11154,"9873":11155,"function":11156,"042":11157,"Ð¾Ð²Ð°Ð½Ð¸Ñİ":11158,"Ġ[âĢ¦]\\":11159,"ĠÐĴÐ¼Ðµ":11160,"ĠÐ·Ð°Ð²ÑĤÑĢÐ°":11161,"nÐ¢ÐµÐ¿ÐµÑĢÑĮ":11162,"ĠÐ±ÑĢÐ°ÑĥÐ·ÐµÑĢÐµ":11163,"ĠÐ¿Ð¾Ð»ÑĥÑĩÐµÐ½Ð¸Ð¸":11164,"ĠÑĥÐ²Ð»Ð°Ð¶":11165,"ĠÐĴÐļ":11166,"ÑĦÐ¸ÐºÑģÐ¸":11167,"load":11168,"ĠÐ·Ð°ÑīÐ¸ÑĤÐ°":11169,"99807":11170,"ĠÐºÐ¸Ð»Ð¾Ð¼":11171,"ĠÐ½ÐµÐ´Ð¾ÑģÑĤÐ°ÑĤÐ¾Ñĩ":11172,"ĠÐ¿ÑĢÐ¾Ð´ÑĥÐºÑĨÐ¸Ñı":11173,"Ġ85":11174,"UG":11175,"Ð¨Ðķ":11176,"ĠÐĵÐŀ":11177,"quot":11178,"ĠÑįÐ»ÐµÐ¼ÐµÐ½ÑĤ":11179,"Ð¼ÑĭÑĪ":11180,"ĠÐ´ÐµÑĪÐµÐ²Ð»Ðµ":11181,"ĠÐĺÐ½ÑģÑĤÐ¸ÑĤÑĥ":11182,"Ð²Ð¾ÑĢÐ¾ÑĤ":11183,"Ġel":11184,"ĠÐ»Ð¸ÑĩÐ½Ð¾Ð³Ð¾":11185,"ĠÐ½ÐµÐ¾Ð¶Ð¸Ð´Ð°Ð½":11186,"Ð¾ÑģÑĥÐ´Ð¸":11187,"ĠÑĦÐ¸Ð½Ð°Ð½ÑģÐ¸":11188,"Ð²Ð¾Ð´Ð¸ÑĤÑģÑı":11189,"ĠÑįÐ½Ð´":11190,"ĠÐ¸Ð½ÑģÑĤÑĢÑĥÐºÑĨÐ¸Ð¸":11191,"ĠÐ³Ð¾Ð»ÑĥÐ±":11192,"ĠÑĤÑĢÐµÐ²":11193,"ÑĥÑĢÐ°":11194,"ĠÐ¼Ð¾Ð»Ð¾Ð´ÑĭÑħ":11195,"ĠÐ¿ÑĢÐ¾Ð¸Ð·Ð²ÐµÐ´":11196,"Ð¦ÐĺÐ¯":11197,"ĠÑĤÐ¸Ð¿Ð¾Ð²":11198,"ĠÐ¿Ð¾Ð½ÑıÑĤÐ½Ð¾":11199,"Ġex":11200,"ÑģÐ¾Ð½Ð°":11201,"ĠÑģÐ°Ð¹ÑĤÑĭ":11202,"ĠÐ¾ÐºÑĢÑĥÐ¶Ð°ÑİÑīÐµÐ¹":11203,"ĠÐºÐ¾Ð¼Ð¿ÑĮÑİÑĤÐµÑĢÐ°":11204,"ĠÐ¿ÑĢÐ¾Ð´Ð°Ð¶Ð°":11205,"ÑĢÐ°ÑģÐ¿":11206,"Ð´Ð¾Ð½":11207,"ĠÐ»Ð¸ÑĩÐ½ÑĭÐµ":11208,"ĠÐ·Ð°Ð¿ÑĢÐµÑīÐµÐ½Ð¾":11209,"ĠÑĢÐ°Ð·Ð±Ð¸ÑĢÐ°":11210,"Ġ900":11211,"Ð»Ð°Ð´Ñĭ":11212,"ĠÐ¿Ð¾Ð»ÑĮÐ·Ð¾Ð²Ð°ÑĤÐµÐ»ÑıÐ¼":11213,"Ġfi":11214,"XL":11215,"ĠÐºÐ¾Ð¼Ð±Ð¸Ð½Ð°":11216,"ĠÐ·Ð°ÑģÑĤÐ°Ð²":11217,"94437504":11218,"ĠÐºÐ¾Ð¼Ð¿Ð°ÐºÑĤ":11219,"ĠÐ¶Ð´Ð°ÑĤÑĮ":11220,"ĠÐ¿Ð¾ÑģÑĤÐ°Ð²Ð¸":11221,"Ð¾Ð·ÐµÑĢ":11222,"9805":11223,"nÐ¢Ñĥ":11224,"ĠÐ¸Ð·Ð¾Ð»Ñı":11225,"ĠÐŁÑĢÐ¾ÑģÑĤÐ¾":11226,"ĠÑģÑĤÐ¾Ð»Ðµ":11227,"ĠÐŁÐĴÐ¥":11228,"ĠÐ²ÑĭÑģÐ¾ÐºÐ¸Ð¹":11229,"ĠÐ²Ð¾Ð´Ð¸ÑĤÐµÐ»ÑĮ":11230,"ĠÐ¾ÑĤÑģÑĥÑĤÑģÑĤÐ²Ð¸Ð¸":11231,"87084":11232,"ĠXV":11233,"ĠÐ³Ð»Ð°Ð²Ñĭ":11234,"ÑĢÑıÐ´Ð°":11235,"ĠÑĢÐ°ÑģÑĩÐµÑĤÐ°":11236,"nÐ¦Ð¸ÑĤÐ°":11237,"035":11238,"ÐĴÐµ":11239,"cy":11240,"ĠÐ±ÑĥÐ´ÑĥÑīÐµÐ³Ð¾":11241,"ĠÐ´Ð¾Ð¿ÑĥÑģÐºÐ°ÐµÑĤÑģÑı":11242,"ÑĤÐ¾ÑĢÐ°Ð¼":11243,"ĠÐ·Ð°Ð´Ð¾Ð»":11244,"UK":11245,"ĠÐ´Ð¾ÑħÐ¾Ð´Ð°":11246,"Ð²Ð¾ÑĩÐµÐº":11247,"ĠÑĦÐ¾ÑĢÐ¼Ð¸ÑĢÐ¾Ð²Ð°Ð½Ð¸Ñı":11248,"sia":11249,"ĠÐ¾ÑģÑĥÑīÐµÑģÑĤÐ²Ð»ÐµÐ½Ð¸Ñı":11250,"ĠÑģÑĤÐ°ÑĤÐ¸ÑģÑĤÐ¸":11251,"ĠÐ¾Ð±ÑģÑĤÐ¾ÑıÑĤÐµÐ»ÑĮÑģÑĤÐ²Ð°":11252,"ĠÐ¼Ð°ÑĤÑĩÐ°":11253,"Ð¾ÑĢÐ°Ð½":11254,"99818":11255,"ĠÐ¾Ð±Ð½Ð¾Ð²Ð»ÐµÐ½Ð¸Ñı":11256,"ĠÐ¸Ð½ÑĤÐµÑĢÐµÑģÐ½ÑĭÐµ":11257,"ÑĮÐµÑĤ":11258,"ĠÑĤÐºÐ°Ð½ÐµÐ¹":11259,"Ð¦ÐĺÐĺ":11260,"ĠÐ³Ð¾ÑĢÐµ":11261,"UZ":11262,"ĠÐ¼Ð°ÑģÑģÑĭ":11263,"ĠÐ£Ðļ":11264,"ĠÐ¼Ð°ÑĤÑĩ":11265,"ĠÐ¾ÑĦÐµÑĢÑĤÐ¾Ð¹":11266,"ĠÐľÐ°Ð»":11267,"Ð´Ð°ÑĤ":11268,"ĠÑģÑħÐµÐ¼Ð°":11269,"ade":11270,"nÐĴÐ°ÑĪÐµ":11271,"ÑĪÐµÑĢ":11272,"Ð»ÐµÐ²Ð¾Ð¹":11273,"ĠÑĤÐ²ÐµÑĢÐ´":11274,"ÑĪÐµÐ½Ð°":11275,"ĠÑĢÐµÐºÐ»Ð°Ð¼Ð°":11276,"nÐ¤Ð¾ÑĤ":11277,"ĠÑĥÐ»ÑĮÑĤÑĢÐ°":11278,"8277":11279,"ĠÐºÐ»Ð¸ÐµÐ½ÑĤÐ°Ð¼":11280,"Â®":11281,"ĠÐĴÐ°ÑĪÐµÐ³Ð¾":11282,"Ð»Ð¾Ð²ÑĭÑħ":11283,"ler":11284,"ÑĩÐµÐ½Ð½ÑĭÐ¹":11285,"ÐºÐ½Ð¾Ð²":11286,"ĠÑģÐ»Ð°Ð²":11287,"ĠÐĺÐ»ÑĮ":11288,"ĠMar":11289,"ĠÐĶÐµÐ²":11290,"99856":11291,"ĠÐĲÐ¹":11292,"Ð¾ÑħÑĢÐ°Ð½Ð¸ÑĤÑĮ":11293,"ĠÐ¾ÑģÑĤÐ°Ð»ÑĮÐ½ÑĭÐµ":11294,"ÑīÐµÑģÑĤÐ²Ð¾Ð¼":11295,"ĠÐ´Ð°ÑĤÐ°":11296,"Ð¾Ð¿Ð°ÑģÐ½Ð¾ÑģÑĤÑĮ":11297,"ĠÑĥÐ³Ð»Ðµ":11298,"ĠÐ¸Ð·Ð´Ð°Ð½Ð¸Ðµ":11299,"ĠÐ¿Ð¾ÐºÑĥÐ¿Ð°ÑĤÐµÐ»ÐµÐ¹":11300,"Ð¾Ð±ÐµÑĤ":11301,"ĠÐ»Ð¸ÑĩÐ½ÑĭÑħ":11302,"ĠÐ±Ð¾Ð½ÑĥÑģÑĭ":11303,"rod":11304,"432":11305,"ĠÑħÐ¾ÑĢÐ¾ÑĪÐµÐ¼":11306,"ĪĴ":11307,"ÐºÐ¾Ð»ÐµÐ¿":11308,"762":11309,"ĠÐ°ÐºÑĤÐ¸Ð²Ð½Ð¾Ð¹":11310,"9958":11311,"ĠÑĪÐµÑģÑĤÐ¸":11312,"ĠÐºÐ¾ÑĢÑĢÑĥÐ¿":11313,"ĠÑģÐ¿Ð¾ÑģÐ¾Ð±Ð½Ñĭ":11314,"Ð¸Ð½ÐºÐ°":11315,"Ð¾ÑħÐ¾Ð·ÑıÐ¹":11316,"ĠÑĥÑīÐµÑĢ":11317,"MT":11318,"ÐĲÐ½":11319,"9813":11320,"Ð¾Ð¿Ðµ":11321,"yr":11322,"99705":11323,"ĠÐ°Ð´Ð°Ð¿":11324,"ĠÑģÐ±Ð¾ÑĢÐ½Ð¾Ð¹":11325,"ÐĸÐķ":11326,"ĠÑģÑİÐ´Ð°":11327,"ĠÑģÐ¾Ð²Ð¼ÐµÑģÑĤÐ½Ð¾":11328,"ÑĥÐ¿ÐµÑĢ":11329,"FAF":11330,"ĠÐ¿Ð¾Ð»Ð°Ð³Ð°":11331,"Ð¿Ð¾ÑĢ":11332,"ĠÐ¿Ð¾Ð½Ð¸":11333,"ĠÐľÑĥÐ¶":11334,"ĠÐ¸Ð»Ð»Ñİ":11335,"251":11336,"ĠÑģÐ¾ÑĨÐ¸Ð°Ð»ÑĮÐ½Ð¾Ð³Ð¾":11337,"ĠÐ·Ð´Ð°Ð½Ð¸Ð¹":11338,"ĠÐ¿ÑĢÐ¾Ð²ÐµÐ´ÐµÐ½Ð¸Ðµ":11339,"ĠÑĤÐ¾Ð²Ð°ÑĢÐ¸":11340,"ĠÐķÐ¡":11341,"ĠÑįÑĤÐ°Ð¶":11342,"ÑĪÐµÑģÑĤÐ²Ð¸Ñı":11343,"031":11344,"nÐ¼":11345,"426":11346,"pos":11347,"nÐļÑĤÐ¾":11348,"ĠÐĲÐ»Ð¸":11349,"ĠÑĦÑĥÐ½Ð´Ð°Ð¼ÐµÐ½ÑĤÐ°":11350,"ĠÐ¡Ð°Ð¹ÑĤ":11351,"ĠÐ¾Ð¿ÑĢÐµÐ´ÐµÐ»ÐµÐ½Ð½ÑĭÑħ":11352,"ÑĦÑĢÐ¸":11353,"ĠÐ¡Ð¾Ð±ÑĢÐ°":11354,"nÐĶÐ":11355,"ĠÑĤÐµÐ¼Ð¿ÐµÑĢÐ°ÑĤÑĥÑĢÐµ":11356,"ĠÑĪÐ¿Ð°":11357,"ĠÐ¿Ð¾Ð²ÐµÐ´ÐµÐ½Ð¸Ñı":11358,"99822":11359,"nÐĶÐ¾":11360,"ÐºÐ¾Ð½ÑģÑĤÑĢÑĥ":11361,"ĠÐ´ÐµÑĤÑģÐºÐ¸Ðµ":11362,"9766":11363,"ÐµÐ½ÑĤÑĢ":11364,"ĠÐ¿Ð¾Ð´ÑĢÑıÐ´":11365,"ĠÐ§ÐµÑĢÐµÐ·":11366,"ĠÐĴÑı":11367,"ĠÐ¸Ð¼ÑĥÑīÐµ":11368,"Ð»ÐµÐ½Ð½ÑĭÐ¼Ð¸":11369,"99844":11370,"ĠÑĢÑĥÐ±Ðµ":11371,"ĠRus":11372,"ÐĶÐ¤":11373,"ĠÐ¿ÑĢÐ¸Ð²ÐµÐ´":11374,"Ð¼ÑģÑı":11375,"ĠÑĦÑĥÑĤ":11376,"ĠÐ¾Ð±ÑĢÐ°ÑīÐ°ÑĤÑĮÑģÑı":11377,"ÑģÐ¾Ð½Ð°Ð»ÑĮ":11378,"742":11379,"\\\"\\\"":11380,"ĠÐ·Ð°Ð»":11381,"ĠSer":11382,"ĠÑĢÐ°Ð·Ð³Ð¾Ð²":11383,"Ð·Ð¸Ð¹":11384,"nÐ±":11385,"ĠÑģÐ¾ÑĨÐ¸Ð°Ð»ÑĮÐ½Ð¾":11386,"ÑĢÐ°ÑĤÐ½Ð°Ñı":11387,"ĠÐ¾ÑĤÐ´ÐµÐ»ÐµÐ½Ð¸Ñı":11388,"ĠÐ»ÐµÑĤÐ¾Ð¼":11389,"ÑĩÐµÑģÑĤÐ²Ðµ":11390,"ĠÐ´Ð½ÐµÐ¼":11391,"ĠÐ»ÑİÐ±ÑĭÐ¼":11392,"ĠÐĿÐµÐ´":11393,"Ð»Ð¸ÑĩÐ¸Ðµ":11394,"ĠÐĵÐ°Ð½":11395,"99912":11396,"ĠÐ¿ÑĥÐ·Ñĭ":11397,"Ð²Ð°Ð»Ð¾ÑģÑĮ":11398,"ĠÑĢÐµÐ³Ð¸ÑģÑĤÑĢÐ°ÑĨÐ¸Ñı":11399,"ĠÐ²ÑĭÐ±ÐµÑĢÐ¸ÑĤÐµ":11400,"Ġ110":11401,"ĠÑģÐ¿ÑĢÐ°Ð²Ð¸":11402,"ĠÐ¿Ð¾Ð´ÑĢÐ¾Ð±Ð½ÐµÐµ":11403,"ÐĺÐŀ":11404,"ĠÐ´ÐµÐ²Ð¾ÑĩÐµÐº":11405,"ĠÐ½ÐµÐ½":11406,"Ð¾Ð»ÑĩÐ°Ð½Ð¸Ñİ":11407,"AZ":11408,"ĠÐĴÐĲ":11409,"ÑıÑĤÐ¸Ñı":11410,"ĠÐ¼Ð¸Ð½ÐµÑĢÐ°Ð»ÑĮ":11411,"Ð¾Ð´ÐµÑĢÐ½Ð¸":11412,"Ð¡ÐļÐĲ":11413,"ĠÐ¸ÑģÐ¿Ð¾Ð»ÑĮÐ·ÑĥÐ¹ÑĤÐµ":11414,"ĠÐĶÐ¾Ð¼Ð°":11415,"ÑĨÐ°Ñħ":11416,"able":11417,"ĠÐ°Ð´Ð¼Ð¸Ð½Ð¸ÑģÑĤÑĢÐ°ÑĤÐ¾ÑĢ":11418,"ĠÑĢÐ°ÑģÑĤÐ²Ð¾":11419,"Ð¿ÐµÑĢÐ²ÑĭÑħ":11420,"ĠÐ¿ÑĢÐ°Ð·Ð´Ð½Ð¸Ñĩ":11421,"ĠÐ½Ð°ÐºÐ¾Ð¿":11422,"ĠÐ¼Ð°Ð³Ð½Ð¸ÑĤ":11423,"ĠÐ¸Ð³ÑĢÐ°ÐµÑĤ":11424,"ool":11425,"ĠÐ¼Ð»Ð°Ð´":11426,"ĠÐ½ÐµÑģÐ¾Ð²ÐµÑĢÑĪÐµÐ½":11427,"ĠÐ¿ÑĢÐµÐ´ÑģÑĤÐ°Ð²Ð¸ÑĤÐµÐ»Ð¸":11428,"ĠÐ·Ð²ÐµÐ·Ð´":11429,"ĠÐ³ÑĢÑĥÐ¿Ð¿Ñĥ":11430,"859":11431,"ĠÐ¿ÑĢÐ¾Ð¹Ð´ÐµÑĤ":11432,"024":11433,"ĠÐ´Ð¾Ð¼Ð¾Ð¹":11434,"ĠÐ´Ð°Ð»":11435,"999362":11436,"nÐŀÑĨÐµÐ½ÐºÐ°":11437,"Ð¾Ð±Ð½Ð¾Ð²":11438,"ĠÐ±ÑĥÐ´ÑĥÑīÐµÐµ":11439,"Ġ180":11440,"ĠÐ»Ð¸ÑĨÐµ":11441,"ÑĤÐ½Ð¸Ðº":11442,"ĠÑĤÐºÐ°Ð½ÑĮ":11443,"nÐ¤Ð¸":11444,"ĠÐĴÐµÐ½":11445,"ĠÐ¢Ðŀ":11446,"Ð´Ð¶Ð°Ð½":11447,"ĠÐ¿Ð¾Ð¶Ð°":11448,"UV":11449,"ĠFacebook":11450,"371":11451,"ĠÐ¼Ð°Ð»ÑĭÑĪÐ°":11452,"nÐ¡Ð":11453,"ĠÐ¿ÑĢÐ¸Ð½ÑıÑĤÐ¾":11454,"ĠÐ¿ÑĥÑģÑĤÑĮ":11455,"ĠÐ·Ð°Ð½Ð¸Ð¼Ð°ÐµÑĤÑģÑı":11456,"ĠÐĶÐ¢ÐŁ":11457,"2005":11458,"ÑĤÑĥÑĢÐµ":11459,"ĠÐ±ÑĢÐ°ÑĥÐ·ÐµÑĢ":11460,"ĠÐ³ÑĢÑĥÐ´Ð¸":11461,"ĠÑĤÐ¾ÐºÑģÐ¸":11462,"ĠÐ¿ÑĢÐ¾Ð¶Ð¸Ð²Ð°Ð½Ð¸Ñı":11463,"ÑģÑĤÐ¸Ð»Ð¸":11464,"99890":11465,"ÐºÐ¾Ð²ÐºÐ°":11466,"ĠÑĦÐ¸Ð·Ð¸ÑĩÐµÑģÐºÐ¸Ñħ":11467,"361":11468,"OY":11469,"ĠÐ¿ÑĢÐµÐ¼Ð¸":11470,"ĠÑģÑį":11471,"9806":11472,"ĠÐºÐ²Ð°ÑĢÑĤÐ¸ÑĢ":11473,"ĠÐ¿ÑĢÐ¾ÑĪÐ»Ð¾Ð³Ð¾":11474,"ĠÐ¿Ð¾ÑģÐ»ÐµÐ´Ð½Ð¸Ñħ":11475,"NG":11476,"ĠÑģÐ¾Ð²ÑĢÐµÐ¼ÐµÐ½Ð½ÑĭÐµ":11477,"nÐ¡Ð¾":11478,"ÑĢÐ¾ÑĢÐ¸":11479,"ĠÐ¿Ð¾ÑĤÑĢÐµÐ±Ð¸ÑĤÐµÐ»ÐµÐ¹":11480,"ÐµÐ³Ð¾":11481,"382":11482,"nÐĴÐµÑģ":11483,"ĠÐ¿ÑĢÐ¾ÑĨÐµÐ½ÑĤ":11484,"ĠÐ¿ÑĢÐ¾Ð²Ð¾Ð´ÑıÑĤ":11485,"Ġla":11486,"ÑģÑĤÐ²Ð¾Ð²Ð°Ð»Ð¸":11487,"ĠÐ·Ð°ÑĢÐµÐ³Ð¸ÑģÑĤÑĢÐ¸ÑĢÐ¾Ð²Ð°ÑĤÑĮÑģÑı":11488,"ÐµÑģÑı":11489,"99996":11490,"ĠÐĲÐ²ÑĤ":11491,"ĠÑĪÐ»Ð°":11492,"bet":11493,"ĠÐ¿Ð°Ð½":11494,"ĠÐºÐ½Ñı":11495,"ĠÑıÐ³Ð¾Ð´":11496,"ĠÐºÐ°Ð½Ð°Ð»Ð°":11497,"nÐľÐµÐ´Ð¸":11498,"378":11499,"ĠÐ¾ÑĢÐ³Ð°Ð½Ð¸Ð·Ð¼Ðµ":11500,"ÑģÑĤÐ¸Ð»Ð°":11501,"ĠÐ¿Ð¾Ð·Ð°":11502,"Ð½Ð°Ð´Ð·Ð¾ÑĢ":11503,"ĠÐ¤Ð¸Ð»Ð¸":11504,"Ġ(+":11505,"ĠÐ¾ÑĤÐ²ÐµÑĩÐ°ÐµÑĤ":11506,"reen":11507,"ĠÐ¡ÑĥÐ´":11508,"ÑĤÐ¸ÑĦÐ¸ÑĨÐ¸":11509,"ÑģÑĤÐ°Ð²ÐºÐ¸":11510,"ĠÐ±Ð¾Ð»ÑĮÑĪÐµÐ¹":11511,"ĠÐ¸Ð½ÑĦÐµÐºÑĨÐ¸Ð¸":11512,"1205":11513,"Ð²ÐµÐ½Ð¸":11514,"ÌĨ":11515,"ÑĳÑĤÐµ":11516,"ĠÐ¿ÑĢÐ¾Ð¼Ðµ":11517,"Ð½ÑģÐºÐ°Ñı":11518,"wn":11519,"ÑĤÑĥÑģ":11520,"ĠÐ¿ÑĢÐ¾Ð´ÑĥÐºÑĨÐ¸Ñİ":11521,"Ð¾ÑĩÐ½ÑĥÑİ":11522,"ĠÐ´Ð¾ÑģÑĤÐ¾Ð²ÐµÑĢ":11523,"ĠÑįÑĦÑĦÐµÐºÑĤÐ¸Ð²Ð½Ð¾":11524,"ÐŁÐµÑĤÐµÑĢÐ±ÑĥÑĢÐ³Ðµ":11525,"ĠÐ¾ÑĩÐ¸ÑģÑĤÐºÐ¸":11526,"ÐºÐ¾Ð²Ð¾Ðµ":11527,"nÐ¨Ð¸":11528,"ÑģÑĭÐ¿Ð°":11529,"ÑĢÑĥÐ¹ÑĤÐµÑģÑĮ":11530,"ĠÐ¿Ð¾ÑĢÑĥ":11531,"ĠÐ¾Ð±ÑĥÐ²ÑĮ":11532,"ĠÐ¿ÑĢÐµÐ´ÑģÑĤÐ°Ð²Ð¸ÑĤÑĮ":11533,"ĠÐ·Ð°ÐºÐ»Ð°Ð´ÐºÐ¸":11534,"Ġï¿½ï¿½ï¿½ï¿½ï¿½":11535,"ĠÐºÐ°ÑĢÐ°Ð½":11536,"ĠÑĢÑĥÐºÑĥ":11537,"ĠÐ´Ð¾ÑĢÐ¾Ð³Ð¾":11538,"ĠÐĺÑģÐ¿Ð¾Ð»":11539,"ĠÐĴÑģÑĳ":11540,"nÐĶÐ¾Ð±Ð°Ð²":11541,"ĠÑĦÐ¸Ð»ÑĮÐ¼Ð°":11542,"ini":11543,"CL":11544,"ĠTor":11545,"ĠÐ¸ÑģÐ¿ÑĢÐ°Ð²":11546,"Ð¾Ð²Ð°Ð½Ð¸Ð¸":11547,"ĠÐ°Ð»ÐºÐ¾Ð³Ð¾Ð»ÑĮ":11548,"!!!\\":11549,"448":11550,"ĠÑĢÐµÐ»Ð¸Ð³Ð¸Ð¾Ð·":11551,"nÐĲÐ»ÐµÐºÑģÐ°Ð½Ð´ÑĢ":11552,"ret":11553,"Ð¼Ð°Ð·":11554,"ĠÐ¿Ð»Ð°Ð½ÐµÑĤ":11555,"ĠÐ¾ÑĢÑĥÐ¶Ð¸Ñı":11556,"ĠÐ´Ð¾Ð¿Ð¾Ð»Ð½Ð¸ÑĤÐµÐ»ÑĮÐ½Ð¾":11557,"Ð»ÐµÐ³ÐºÐ°":11558,"ĠÐ¿ÑĢÐµÐ¿Ð°ÑĢÐ°ÑĤ":11559,"879":11560,"ĠÑįÐ»ÐµÐºÑĤÑĢÐ¾Ð¿":11561,"ĠÐ²ÐµÑĢÑħÐ½ÐµÐ¹":11562,"ÐŁÐ£":11563,"Ġï¿½ï¿½ï¿½ï¿½ï¿½ï¿½":11564,"ĠÐ·Ð½Ð°Ðº":11565,"Ð¾ÑĢÐ¾Ð¼":11566,"ÑıÑİÑĤ":11567,"ĠÐľÐµÐ½":11568,"ÑĩÐ½Ð¸Ðº":11569,"ĠÑįÐºÑģÐ¿ÐµÑĢÑĤ":11570,"ÑĢÐ¾Ð²Ð°Ð»Ð°":11571,"ĠÑĥÐ¼Ð¾Ð»ÑĩÐ°Ð½Ð¸Ñİ":11572,"ĠÑģÐ¾Ð¾Ð±ÑīÐ¸Ð»Ð¸":11573,"ÑĢÐµÐ½Ð±ÑĥÑĢÐ³":11574,"ÐºÐ»Ð°ÑģÑģ":11575,"Ġ|----":11576,"ÐµÑĢÐ½Ð°ÑĤÐ¾ÑĢ":11577,"ĠÑĦÐ¾ÑĢÐ¼Ð°ÑĤÐµ":11578,"ĠÐ½Ð¾Ð²Ð¾Ð³Ð¾Ð´":11579,"ĠÐ²Ð¾ÑģÑĤÑĢÐµÐ±":11580,"ĠÐŁÐ¾ÑĤÐ¾Ð¼Ñĥ":11581,"ĠÑįÐºÑģÑĤÑĢÐ°":11582,"Ð¶ÑĥÑĢ":11583,"Ð¾Ð²Ð°Ð»Ð°":11584,"].\\":11585,"ÑģÐ¾Ð²ÑĭÐµ":11586,"ĠÐ¿ÑĢÐµÐ¼":11587,"ĠÐ¾Ð±ÑĢÐ°ÑĤÐ½Ð¾":11588,"ĠÐ¿ÑĢÐ¾ÑĦÐ¸Ð»ÑĮ":11589,"ĠÐ¿ÑĢÐ¾ÐºÑĥ":11590,"mag":11591,"ĠÑģÐ»Ð¾Ñı":11592,"ĠÐĶÐĽÐ¯":11593,"ĠÑįÐºÐ·Ð°":11594,"ĠÐ·ÐµÐ¼Ð»Ñı":11595,"ÐºÐ¾ÑĢÐ¸":11596,"ĠÐ¤ÑĢÐ°Ð½ÑĨÐ¸Ð¸":11597,"ĠÑĦÐ°Ð¹Ð»":11598,"Ð¾ÐºÐ°ÑĢ":11599,"ĠÐ¾Ð±ÑĬÑıÐ²Ð»ÐµÐ½Ð¸Ð¹":11600,"ĠÑģÑĤÐ¾Ð¼Ð°ÑĤ":11601,"ĠÑģÐ¿ÐµÑĨÐ¸Ð°Ð»Ð¸ÑģÑĤÐ°":11602,"px":11603,"ĠÐ»Ð¸ÑĤ":11604,"ĠÐłÐ¾Ð´Ð¸":11605,"ÑĢÐ¾Ð¸Ñģ":11606,"ĠÐ»Ð¸Ð½":11607,"9727":11608,"ĠÐ¼ÑĥÐ·ÐµÐ¹":11609,"ĠÐ¿Ð¾Ð»ÑĥÑĩÐ¸Ð»Ð°":11610,"nÐŁÑĢÐ¾Ð¸Ð·Ð²Ð¾Ð´Ð¸ÑĤÐµÐ»ÑĮ":11611,"ĠÑģÐ´ÐµÐ»ÐºÐ¸":11612,"ĠÑĤÑĥÐ°Ð»":11613,"Ð»ÑİÑģ":11614,"ĠÐ¿ÑĢÐµÐ´Ð¼ÐµÑĤÑĭ":11615,"ĠÐ¿Ð¾Ð²ÐµÑĢ":11616,"ĠÐ²Ð²ÐµÑĢÑħ":11617,"351":11618,"ĠÑħÑĢÐ¸ÑģÑĤÐ¸Ð°Ð½":11619,"ĠÐ¿ÑĢÐ¸ÑĩÐ¸Ð½Ð°Ð¼":11620,"bal":11621,"cial":11622,"820":11623,"ĠÐ¾ÑĦÐ¾ÑĢÐ¼Ð»ÐµÐ½Ð¸Ðµ":11624,"ÑıÐ½ÑģÐºÐ¸Ð¹":11625,"ĠÐ¿Ð¾Ð²ÑĭÑĪÐµÐ½Ð¸Ðµ":11626,"ĠÑĢÐ°Ð±Ð¾ÑĩÐµÐ³Ð¾":11627,"ĠÐ½Ð¾ÑĢÐ¼Ñĭ":11628,"ĠÑģÐ¾Ð¿ÑĢÐ¾ÑĤÐ¸Ð²":11629,"481":11630,"nÐĳÑĭÑģÑĤÑĢÑĭÐ¹":11631,"ÑĤÑĢÐ¾Ð»ÑĮ":11632,"9423":11633,"ÑıÑĤÐ¸Ðµ":11634,"ÑģÐµÐ´Ð½ÐµÐ²":11635,"ÑĢÐ¾ÐµÐº":11636,"Ð²ÑĪÐ¸Ð¼":11637,"nÐŁÐ¾Ð·":11638,"rowser":11639,"ĠÐļÐ¾Ð´":11640,"ĠÑģÐ»Ð¸Ð·Ð¸":11641,"ĠÑĢÐµÐ³Ð¸Ð¾Ð½Ð¾Ð²":11642,"ĠÐľÐ¸ÑĢ":11643,"ÑĢÐ¾Ð²Ð¾Ðº":11644,"ÑħÐ¾Ð¶Ð´ÐµÐ½Ð¸Ðµ":11645,"ĠÐ¿ÐµÑĢÐ²Ð°Ñı":11646,"ĠÑģÑĤÑĢÐ¾Ñı":11647,"Ð°Ð»Ð¾Ð³":11648,"ĠÐ³Ð»Ð°Ð²Ð½Ð¾Ð¹":11649,"nÐĵÐ»Ð°Ð²Ð°":11650,"ĠÐ²Ð¾Ð¹Ð½Ð°":11651,"9815":11652,"ÑĢÐ°ÑīÐ¸":11653,"CEE":11654,"032":11655,"ÑĩÐ°Ð»Ð¾":11656,"ĠÑĥÑĩÐ°ÑģÑĤÐºÐ¾Ð²":11657,"ÑĪÐ¸Ð½Ñĭ":11658,"ĠÐ½Ð°Ð³ÑĢÐµÐ²Ð°":11659,"ĠÑĢÐ°ÑģÑħÐ¾Ð´Ð¾Ð²":11660,"ÐĶÐ£":11661,"ĠÐĲÐ½ÑĤÐ¸":11662,"ĠÑĤÐ¾ÐºÐ°":11663,"ova":11664,"ĠÐ·ÐµÐ¼Ð»Ñİ":11665,"ĠÑģÐµÐºÑĥÐ½Ð´":11666,"ĠÐ¿Ð»Ð°Ð½Ðµ":11667,"9843":11668,"ĠÐ¿Ð¾ÑĤÑĢÑı":11669,"ÑĢÐ°ÐºÑĤÐ°":11670,"ĠÐ²ÑĭÑĢÐ°Ð¶ÐµÐ½":11671,"ĠÐ¿Ð¾Ð³ÑĢÑĥ":11672,"ĠÐĲÑģÑĤÑĢÐ°":11673,"nÐ¡Ð²ÐµÑĤ":11674,"ĠÐºÐ¾Ð»Ð¸ÑĩÐµÑģÑĤÐ²Ð¾Ð¼":11675,"ĠÐ¿Ð°ÑĢÐº":11676,"ĠÐ²ÑĢÐµÐ¼ÐµÐ½Ð°":11677,"ĠÑĩÐµÑģÑĤÑĮ":11678,"Ð¶Ð½ÑĭÐ¼Ð¸":11679,"ĠÐ²Ð¾ÐµÐ½Ð½Ð¾Ð¹":11680,"ĠÑģÑĤÐ°Ð´Ð¸":11681,"ÑįÐ»":11682,"ĠÐĽÑİÐ±":11683,"99922":11684,"ÑĨÐµÐ½ÑĤÑĢ":11685,"Ĥ¬":11686,"Ð¾Ð»Ð¾Ð¼":11687,"ĠÐ½Ð°ÑģÑĤÐ¾ÑıÑīÐ¸Ð¹":11688,"ĠÐ¿Ð¾Ð²ÑĢÐµÐ¶Ð´ÐµÐ½Ð¸Ñı":11689,"¾Ð½Ð":11690,"ĠÐ½Ð°Ð¿ÑĢÐ°Ð²Ð»ÐµÐ½Ð¸Ðµ":11691,"99784":11692,"ĠÐ²ÑĭÐ·Ð²Ð°ÑĤÑĮ":11693,"ĠÐ¾ÑĤÐ²ÐµÑĤÐ¸Ð»":11694,"ĠÐ¿Ð¾ÑģÐ»Ñĥ":11695,"Ð¾ÑģÑģÐµ":11696,"Ð¾Ð½Ð":11697,"ĠÐĴÑģÐµÑĢ":11698,"ĠÑĥÐ²ÐµÐ´Ð¾Ð¼Ð»ÐµÐ½Ð¸Ñı":11699,"Ġ\\\\":11700,"Ġ?":11701,"nÐŁÐ¾ÑģÐ»ÐµÐ´Ð½Ð¸Ðµ":11702,"ĠÐ¿Ð»Ð°Ð½ÑĪÐµÑĤ":11703,"ĠÑģÐ¿Ð¾ÑģÐ¾Ð±ÐµÐ½":11704,"551":11705,"ĠÐ³Ð¸Ð³Ð¸":11706,"ÑĪÐºÐ°Ð¼Ð¸":11707,"ĠST":11708,"ĠÐºÑĢÐ¸ÑĤÐ¸":11709,"ĠÑģÐ°Ð¼Ð¾Ð¼Ñĥ":11710,"ĠÐ¿Ð¾ÑģÐµÑĤÐ¸ÑĤÐµÐ»ÐµÐ¹":11711,"Ġ700":11712,"ĠÑįÐ¼Ð¾ÑĨÐ¸Ð¾Ð½Ð°Ð»ÑĮ":11713,"Ð½ÐµÐ·":11714,"ĠÑĢÑĥÑģÑģÐºÐ¾Ð¼":11715,"ĠÑģÑĩÑĳÑĤ":11716,"ĠÐ¿ÑĢÐ¾ÑħÐ¾Ð´ÑıÑĤ":11717,"ÑĥÐ½ÐºÑĨÐ¸Ð¾Ð½Ð°Ð»ÑĮ":11718,"Ġas":11719,"rue":11720,"ĠÐ¾Ð¿ÐµÑĢÐ°ÑĨÐ¸Ð¹":11721,"9863":11722,"Ð³Ð¾Ð¹":11723,"Ð¾Ð¡":11724,"ĠÑģÐ¼ÐµÐ½":11725,"Ð¾ÑĩÐ½ÑĭÐ¼":11726,"ÑħÐ¾Ð·":11727,"ÑĶ":11728,"ÑĢÐ¾Ð¼ÑĭÑĪÐ»ÐµÐ½":11729,"nÐĳÐµÑģÐ¿Ð»Ð°ÑĤ":11730,"ÑĤÐ¸Ð²Ð½ÑĥÑİ":11731,"99796":11732,"GB":11733,"81887084":11734,"ĠÐ±Ð»Ð¸Ð¶Ð°Ð¹ÑĪÐµÐµ":11735,"SP":11736,"ĠÐ¾ÑĨÐµÐ½ÐºÐ°":11737,"ĠÐ±Ð¾Ð»ÐµÐ·Ð½ÑĮ":11738,"881":11739,"ĠÑĥÑģÑĤÐ°Ð½Ð°Ð²Ð»Ð¸Ð²Ð°ÐµÑĤÑģÑı":11740,"ĠÐ¿Ð¾ÑĤÐµÐ½ÑĨÐ¸":11741,"ĠÐ¼ÑĥÐ½Ð¸ÑĨÐ¸Ð¿Ð°Ð»ÑĮÐ½ÑĭÑħ":11742,"ĠÐĲÐºÐ°Ð´ÐµÐ¼Ð¸":11743,"ĠÐ¿ÐµÑģÐ½Ð¸":11744,"8895":11745,"ÑĥÐ±Ð»Ð¸ÐºÐ°":11746,"ĠÑĢÐµÑģÑĥÑĢÑģ":11747,"ĠÐ¾ÑĩÐ°":11748,"Ġ39":11749,"ĠÐºÐ¾Ð»Ð¸ÑĩÐµÑģÑĤÐ²Ðµ":11750,"ÑĢÐ°Ð¶Ð°":11751,"ÑĢÐµÐ´Ð¸ÑĤ":11752,"ÑħÐ°Ð»Ð¸Ð½":11753,"ĠÐ²ÑĭÑģÐ¾ÐºÐ°Ñı":11754,"¾Ð°Ð½":11755,"Ð³ÑĢÐ°Ð»":11756,"ĠÐ·Ð°Ð½ÑıÑĤÐ¸Ð¹":11757,"ĠÐ½ÐµÐ¿Ð»Ð¾":11758,"ĠÐ¾ÑĤÐ¼ÐµÑĤÐ¸Ð»":11759,"ern":11760,"ÐłÑĥÑģ":11761,"ĠÐ¿ÑĢÐ¾ÐºÑĥÑĢÐ°":11762,"ĠÑģÐ²ÐµÐ´ÐµÐ½Ð¸Ð¹":11763,"ĠÐĵÐ´Ðµ":11764,"ĠÐ·Ð°ÐºÑĥ":11765,"Ð¾Ð°Ð½":11766,"ĠÐ¸ÑģÑĤÐµ":11767,"ĠÐ°ÑĢÑĤÐ¸":11768,"Ð²Ð¸Ð¶Ð¸Ð¼Ð¾ÑģÑĤÑĮ":11769,"ĠÑĤÑĥÑĢÐ°":11770,"ÑħÐ¾Ð»":11771,"ĠÑģÐ²ÑıÐ·Ð°ÑĤÑĮÑģÑı":11772,"ĠÐ´Ð°Ð½Ð½ÑĭÐ¼Ð¸":11773,".).":11774,"ĠÑĢÐ¸ÑģÐºÐ°":11775,"ĠÑģÐ¿Ð¾ÑģÐ¾Ð±Ð½Ð¾ÑģÑĤÑĮ":11776,"ĠÐ´ÐµÑĤÑģÐºÐ¾Ð¹":11777,"ĠÐ¿ÐµÑĢÐµÐ¹ÑĤÐ¸":11778,"ĠÐ½Ð°Ð·Ð²Ð°ÑĤÑĮ":11779,"ĠÐ¡Ð¿ÐµÑĨÐ¸Ð°Ð»Ð¸":11780,"ĠÐ¿Ð°ÑģÐ¿Ð¾ÑĢÑĤ":11781,"ĠÑĢÐµÐ³Ð¸Ð¾Ð½Ð°Ñħ":11782,"ÑģÐ¾Ð²ÐµÑĤ":11783,"Ð²Ð°ÑģÑĤ":11784,"ĠÐŁÑĢÐ¾Ð´Ð¾Ð»":11785,"Ð¾ÑĢÐ°ÑĩÐ¸":11786,"Ð¾Ð¼Ñı":11787,"ĠÑĥÐ¿ÑĢÐ°Ð¶Ð½ÐµÐ½Ð¸Ñı":11788,"nÐŀÑĩÐµÐ½ÑĮ":11789,"HR":11790,"ĠÑĪÐ¸ÑĢÐ¾ÐºÐ¸Ð¹":11791,"9942":11792,"YM":11793,"ĠÐ¾ÑĤÐ²ÐµÑĤÐ¸ÑĤÑĮ":11794,"ital":11795,"622":11796,"ÑĥÑĢÐ½Ð¸":11797,"Ð¶Ð´ÑĥÑİ":11798,"8407":11799,"ĠÑģÑĤÑĢÐµÐ¼":11800,"ual":11801,"Ð³Ð°Ð·Ð¸Ð½":11802,"ĠÑĤÑĢÐ°Ð½ÑģÐ¿Ð¾ÑĢÑĤÐ¸":11803,"Ð²ÑĥÑİ":11804,"ÑģÐ°Ð»":11805,"ĠHT":11806,"lan":11807,"ĠÐ´Ð¾Ð·":11808,"ĠÐłÐ¾Ð¼Ð°Ð½":11809,"ĠÐ¼Ð¾Ð³Ð»Ð°":11810,"ĠÐ½ÐµÐ²Ð¾Ð·Ð¼Ð¾Ð¶":11811,"ĠÐ´ÐµÑĤÑģÐºÐ¸Ñħ":11812,"9853":11813,"ĠÐŀÑĤÐºÑĢÑĭ":11814,"ÑħÐ¸Ðµ":11815,"99813":11816,"ĠÐ¤Ð¾ÑĤ":11817,"ĠÐ²Ð¾ÑģÐ¿ÑĢ":11818,"ĠÑĢÐ°Ð·ÑĢÐµÑĪÐµÐ½Ð¸Ðµ":11819,"ĠÐ¸ÑĤÐ°Ð»ÑĮÑıÐ½":11820,"Ð·Ð²Ñĥ":11821,"ĠÐ¿Ð¾Ð´Ð´ÐµÑĢÐ¶ÐºÐµ":11822,"ĠÐ²Ð½Ð¸Ð¼Ð°ÑĤÐµÐ»ÑĮÐ½Ð¾":11823,"Ð²Ð¾Ð´Ñĭ":11824,"ĠÑĢÑĭÐ±Ð°":11825,"ĠÑģÑĤÐµÐºÐ»Ð¾":11826,"AK":11827,"ĠÐ½ÑİÐ°Ð½":11828,"ĠÐ·Ð°ÐºÐ»ÑİÑĩÐµÐ½Ð¸Ñı":11829,"99775":11830,"ĠÐ·Ð¸":11831,"ĠÐ¿ÑĢÐ°ÐºÑĤÐ¸ÐºÐ°":11832,"ĠÑĩÑĥÐ´":11833,"ĠÐŀÐ±ÑīÐµÑģÑĤÐ²Ð¾":11834,"</":11835,"FL":11836,"ans":11837,"ĠÐ¾ÑĦÐ¾ÑĢÐ¼Ð»ÐµÐ½Ð¸Ð¸":11838,"ĠÑĪÑĤÑĥÐºÐ°ÑĤÑĥÑĢ":11839,"App":11840,"Ð»Ð¸ÑģÑĤ":11841,"ĠÑģÐ¿ÐµÑĨÐ¸ÑĦÐ¸":11842,"Ð·Ð°Ð¿":11843,"nÐ¡ÐµÐ¼":11844,"Ð´Ð½ÑĭÐµ":11845,"Ð¾Ð»Ð¾Ð¶ÐµÐ½Ð¸Ðµ":11846,"Ð§Ðĺ":11847,"ÑıÐµÑĤÑģÑı":11848,"Ð°Ð½ÑĤÑĭ":11849,"ĠÐ¼Ð¾ÑģÑĤ":11850,"ĠÐ¿ÑĢÐ¸ÑıÑĤÐ½Ð¾":11851,"411":11852,"ĠÐ¥Ð°ÑĢÑĮ":11853,"ÑĩÐ°Ð½":11854,"99816":11855,"XV":11856,"Ð¼ÐµÑĤÑĢÐ¾Ð²":11857,"341":11858,"ĠÐ¼ÐµÑĤÐ¾Ð´Ð¾Ð¼":11859,"ĠÑįÐ½":11860,"ĠÑĥÑĩÑĢÐµÐ¶Ð´ÐµÐ½Ð¸Ð¹":11861,"ĠÐŁÐµÑĢÐ²ÑĭÐ¹":11862,"ĠÐ´Ð¾ÑģÑĤÐ°Ð²ÐºÑĥ":11863,"ĠÑģÑĥÑīÐµÑģÑĤÐ²ÑĥÑİÑĤ":11864,"ĠÑĥÐ»ÑĭÐ±":11865,"Ġpm":11866,"ĠÐ¿Ð¾ÐºÐ°Ð·Ð°ÑĤÑĮ":11867,"ĠÐ²ÐµÑĢÐ¾ÑıÑĤÐ½Ð¾ÑģÑĤÑĮ":11868,"ĠÐºÐ¾Ð»Ð¾Ð½":11869,"ÐµÐ²Ðµ":11870,"ĠÐļÐ°Ð½":11871,
[...]
