{
  "version": "1.0",
  "truncation": null,
  "padding": null,
  "added_tokens": [
    {
      "id": 0,
      "content": "<eos>",
      "single_word": false,
      "lstrip": false,
      "rstrip": false,
      "normalized": false,
      "special": true
    },
    {
      "id": 1,
      "content": "<unk>",
      "single_word": false,
      "lstrip": false,
      "rstrip": false,
      "normalized": false,
      "special": true
    },
    {
      "id": 2,
      "content": "<pad>",
      "single_word": false,
      "lstrip": false,
      "rstrip": false,
      "normalized": false,
      "special": true
    }
  ],
  "normalizer": {
    "type": "NFKC"
  },
  "pre_tokenizer": {
    "type": "Metaspace",
    "replacement": "▁",
    "prepend_scheme": "always",
    "split": true
  },
  "post_processor": null,
  "decoder": {
    "type": "Metaspace",
    "replacement": "▁",
    "prepend_scheme": "always",
    "split": true
  },
  "model": {
    "type": "BPE",
    "dropout": null,
    "unk_token": "<unk>",
    "continuing_subword_prefix": null,
    "end_of_word_suffix": null,
    "fuse_unk": false,
    "byte_fallback": false,
    "ignore_merges": false,
    "vocab": {
      "<eos>": 0,
      "<unk>": 1,
      "<pad>": 2,
      "\t": 3,
      "\n": 4,
      "!": 5,
      "\"": 6,
      "#": 7,
      "$": 8,
      "%": 9,
      "&": 10,
      "'": 11,
      "(": 12,
      ")": 13,
      "*": 14,
      "+": 15,
      ",": 16,
      "-": 17,
      ".": 18,
      "/": 19,
      "0": 20,
      "1": 21,
      "2": 22,
      "3": 23,
      "4": 24,
      "5": 25,
      "6": 26,
      "7": 27,
      "8": 28,
      "9": 29,
      ":": 30,
      ";": 31,
      "<": 32,
      "=": 33,
      ">": 34,
      "?": 35,
      "@": 36,
      "A": 37,
      "B": 38,
      "C": 39,
      "D": 40,
      "E": 41,
      "F": 42,
      "G": 43,
      "H": 44,
      "I": 45,
      "J": 46,
      "K": 47,
      "L": 48,
      "M": 49,
      "N": 50,
      "O": 51,
      "P": 52,
      "Q": 53,
      "R": 54,
      "S": 55,
      "T": 56,
      "U": 57,
      "V": 58,
      "W": 59,
      "X": 60,
      "Y": 61,
      "Z": 62,
      "[": 63,
      "\\": 64,
      "]": 65,
      "^": 66,
      "_": 67,
      "`": 68,
      "a": 69,
      "b": 70,
      "c": 71,
      "d": 72,
      "e": 73,
      "f": 74,
      "g": 75,
      "h": 76,
      "i": 77,
      "j": 78,
      "k": 79,
      "l": 80,
      "m": 81,
      "n": 82,
      "o": 83,
      "p": 84,
      "q": 85,
      "r": 86,
      "s": 87,
      "t": 88,
      "u": 89,
      "v": 90,
      "w": 91,
      "x": 92,
      "y": 93,
      "z": 94,
      "{": 95,
      "|": 96,
      "}": 97,
      "~": 98,
      "¡": 99,
      "£": 100,
      "§": 101,
      "«": 102,
      "­": 103,
      "®": 104,
      "°": 105,
      "±": 106,
      "·": 107,
      "»": 108,
      "À": 109,
      "Á": 110,
      "Â": 111,
      "Ä": 112,
      "Å": 113,
      "Æ": 114,
      "Ç": 115,
      "È": 116,
      "É": 117,
      "Í": 118,
      "Î": 119,
      "Ñ": 120,
      "Ó": 121,
      "Ö": 122,
      "×": 123,
      "Ø": 124,
      "Ú": 125,
      "Ü": 126,
      "Þ": 127,
      "ß": 128,
      "à": 129,
      "á": 130,
      "â": 131,
      "ã": 132,
      "ä": 133,
      "å": 134,
      "æ": 135,
      "ç": 136,
      "è": 137,
      "é": 138,
      "ê": 139,
      "ë": 140,
      "ì": 141,
      "í": 142,
      "î": 143,
      "ï": 144,
      "ð": 145,
      "ñ": 146,
      "ò": 147,
      "ó": 148,
      "ô": 149,
      "õ": 150,
      "ö": 151,
      "ø": 152,
      "ù": 153,
      "ú": 154,
      "û": 155,
      "ü": 156,
      "ý": 157,
      "þ": 158,
      "ÿ": 159,
      "Ā": 160,
      "ā": 161,
      "ă": 162,
      "ą": 163,
      "Ć": 164,
      "ć": 165,
      "Č": 166,
      "č": 167,
      "ď": 168,
      "Đ": 169,
      "đ": 170,
      "ē": 171,
      "ė": 172,
      "ę": 173,
      "ě": 174,
      "ğ": 175,
      "ġ": 176,
      "ī": 177,
      "İ": 178,
      "ı": 179,
      "ļ": 180,
      "Ľ": 181,
      "ľ": 182,
      "Ł": 183,
      "ł": 184,
      "ń": 185,
      "ņ": 186,
      "ň": 187,
      "ŋ": 188,
      "Ō": 189,
      "ō": 190,
      "ŏ": 191,
      "ő": 192,
      "Œ": 193,
      "œ": 194,
      "Ř": 195,
      "ř": 196,
      "Ś": 197,
      "ś": 198,
      "Ş": 199,
      "ş": 200,
      "Š": 201,
      "š": 202,
      "ţ": 203,
      "ť": 204,
      "ū": 205,
      "ŭ": 206,
      "ů": 207,
      "ű": 208,
      "ų": 209,
      "ź": 210,
      "Ż": 211,
      "ż": 212,
      "Ž": 213,
      "ž": 214,
      "Ə": 215,
      "ơ": 216,
      "ư": 217,
      "ǎ": 218,
      "ǐ": 219,
      "ǔ": 220,
      "ǧ": 221,
      "Ș": 222,
      "ș": 223,
      "Ț": 224,
      "ț": 225,
      "ə": 226,
      "ɛ": 227,
      "ʻ": 228,
      "ʼ": 229,
      "ʾ": 230,
      "ʿ": 231,
      "ˈ": 232,
      "ː": 233,
      "́": 234,
      "̣": 235,
      "Α": 236,
      "Β": 237,
      "Γ": 238,
      "Δ": 239,
      "Ε": 240,
      "Η": 241,
      "Θ": 242,
      "Ι": 243,
      "Κ": 244,
      "Λ": 245,
      "Μ": 246,
      "Ν": 247,
      "Ο": 248,
      "Π": 249,
      "Ρ": 250,
      "Σ": 251,
      "Τ": 252,
      "Φ": 253,
      "Χ": 254,
      "Ω": 255,
      "ά": 256,
      "έ": 257,
      "ή": 258,
      "ί": 259,
      "α": 260,
      "β": 261,
      "γ": 262,
      "δ": 263,
      "ε": 264,
      "ζ": 265,
      "η": 266,
      "θ": 267,
      "ι": 268,
      "κ": 269,
      "λ": 270,
      "μ": 271,
      "ν": 272,
      "ξ": 273,
      "ο": 274,
      "π": 275,
      "ρ": 276,
      "ς": 277,
      "σ": 278,
      "τ": 279,
      "υ": 280,
      "φ": 281,
      "χ": 282,
      "ω": 283,
      "ό": 284,
      "ύ": 285,
      "ώ": 286,
      "А": 287,
      "Б": 288,
      "В": 289,
      "Г": 290,
      "Д": 291,
      "Е": 292,
      "Ж": 293,
      "З": 294,
      "И": 295,
      "К": 296,
      "Л": 297,
      "М": 298,
      "Н": 299,
      "О": 300,
      "П": 301,
      "Р": 302,
      "С": 303,
      "Т": 304,
      "У": 305,
      "Ф": 306,
      "Х": 307,
      "Ц": 308,
      "Ч": 309,
      "Ш": 310,
      "Э": 311,
      "Я": 312,
      "а": 313,
      "б": 314,
      "в": 315,
      "г": 316,
      "д": 317,
      "е": 318,
      "ж": 319,
      "з": 320,
      "и": 321,
      "й": 322,
      "к": 323,
      "л": 324,
      "м": 325,
      "н": 326,
      "о": 327,
      "п": 328,
      "р": 329,
      "с": 330,
      "т": 331,
      "у": 332,
      "ф": 333,
      "х": 334,
      "ц": 335,
      "ч": 336,
      "ш": 337,
      "щ": 338,
      "ъ": 339,
      "ы": 340,
      "ь": 341,
      "э": 342,
      "ю": 343,
      "я": 344,
      "ё": 345,
      "і": 346,
      "ї": 347,
      "ј": 348,
      "ա": 349,
      "ն": 350,
      "ր": 351,
      "ְ": 352,
      "ָ": 353,
      "ּ": 354,
      "א": 355,
      "ב": 356,
      "ד": 357,
      "ה": 358,
      "ו": 359,
      "ח": 360,
      "י": 361,
      "ל": 362,
      "ם": 363,
      "מ": 364,
      "ן": 365,
      "נ": 366,
      "ע": 367,
      "פ": 368,
      "ק": 369,
      "ר": 370,
      "ש": 371,
      "ת": 372,
      "ا": 373,
      "ب": 374,
      "ت": 375,
      "د": 376,
      "ر": 377,
      "س": 378,
      "ش": 379,
      "ع": 380,
      "ل": 381,
      "م": 382,
      "ن": 383,
      "ه": 384,
      "و": 385,
      "ي": 386,
      "ی": 387,
      "र": 388,
      "ा": 389,
      "्": 390,
      "་": 391,
      "ა": 392,
      "ე": 393,
      "ი": 394,
      "ḍ": 395,
      "ḏ": 396,
      "Ḥ": 397,
      "ḥ": 398,
      "Ḫ": 399,
      "ḫ": 400,
      "ṣ": 401,
      "ṭ": 402,
      "ṯ": 403,
      "ạ": 404,
      "ả": 405,
      "ầ": 406,
      "ế": 407,
      "ễ": 408,
      "ệ": 409,
      "ị": 410,
      "ồ": 411,
      "‐": 412,
      "‒": 413,
      "–": 414,
      "—": 415,
      "‘": 416,
      "’": 417,
      "‚": 418,
      "“": 419,
      "”": 420,
      "„": 421,
      "†": 422,
      "•": 423,
      "‰": 424,
      "′": 425,
      "‹": 426,
      "›": 427,
      "⁄": 428,
      "€": 429,
      "←": 430,
      "↑": 431,
      "→": 432,
      "↔": 433,
      "−": 434,
      "≈": 435,
      "≤": 436,
      "─": 437,
      "│": 438,
      "▁": 439,
      "▭": 440,
      "♀": 441,
      "♂": 442,
      "⚭": 443,
      "の": 444,
      "ン": 445,
      "ー": 446,
      "一": 447,
      "三": 448,
      "东": 449,
      "中": 450,
      "乡": 451,
      "京": 452,
      "人": 453,
      "会": 454,
      "公": 455,
      "北": 456,
      "区": 457,
      "南": 458,
      "县": 459,
      "古": 460,
      "司": 461,
      "和": 462,
      "国": 463,
      "地": 464,
      "址": 465,
      "城": 466,
      "大": 467,
      "天": 468,
      "子": 469,
      "学": 470,
      "安": 471,
      "家": 472,
      "寺": 473,
      "山": 474,
      "市": 475,
      "平": 476,
      "文": 477,
      "新": 478,
      "族": 479,
      "日": 480,
      "有": 481,
      "本": 482,
      "村": 483,
      "民": 484,
      "水": 485,
      "江": 486,
      "河": 487,
      "海": 488,
      "王": 489,
      "田": 490,
      "石": 491,
      "研": 492,
      "社": 493,
      "街": 494,
      "西": 495,
      "道": 496,
      "遗": 497,
      "金": 498,
      "镇": 499,
      "院": 500,
      "集": 501,
      "龙": 502,
      "er": 503,
      "en": 504,
      "ch": 505,
      "▁d": 506,
      "in": 507,
      "ie": 508,
      "un": 509,
      "st": 510,
      "an": 511,
      "ei": 512,
      "sch": 513,
      "on": 514,
      "▁S": 515,
      "al": 516,
      "es": 517,
      "ein": 518,
      "au": 519,
      "te": 520,
      "ar": 521,
      "▁der": 522,
      "und": 523,
      "ge": 524,
      "or": 525,
      "ur": 526,
      "▁1": 527,
      "it": 528,
      "▁w": 529,
      "▁B": 530,
      "▁A": 531,
      "▁und": 532,
      "el": 533,
      "at": 534,
      "▁v": 535,
      "ich": 536,
      "▁s": 537,
      "▁D": 538,
      "▁M": 539,
      "\n\n": 540,
      "ung": 541,
      "▁die": 542,
      "▁in": 543,
      "▁b": 544,
      "▁(": 545,
      "em": 546,
      "▁ein": 547,
      "▁K": 548,
      "hr": 549,
      "as": 550,
      "▁G": 551,
      "▁i": 552,
      "de": 553,
      "▁F": 554,
      "▁P": 555,
      "isch": 556,
      "am": 557,
      "▁E": 558,
      "▁z": 559,
      "ter": 560,
      "ten": 561,
      "ol": 562,
      "▁H": 563,
      "▁au": 564,
      "is": 565,
      "gen": 566,
      "▁R": 567,
      "▁19": 568,
      "▁L": 569,
      "and": 570,
      "▁m": 571,
      "▁W": 572,
      "▁T": 573,
      "▁er": 574,
      "ach": 575,
      "▁2": 576,
      "il": 577,
      "ber": 578,
      ".\n\n": 579,
      "▁von": 580,
      "den": 581,
      "le": 582,
      "▁J": 583,
      "▁f": 584,
      "▁n": 585,
      "us": 586,
      "▁V": 587,
      "▁N": 588,
      "▁I": 589,
      "ig": 590,
      "um": 591,
      "der": 592,
      "et": 593,
      "ier": 594,
      "om": 595,
      "ion": 596,
      "▁C": 597,
      "ut": 598,
      "lich": 599,
      "re": 600,
      "▁den": 601,
      "▁des": 602,
      "ra": 603,
      "▁20": 604,
      "eit": 605,
      "ür": 606,
      "ck": 607,
      "▁im": 608,
      "▁St": 609,
      "▁ge": 610,
      "▁h": 611,
      "ro": 612,
      "ik": 613,
      "▁mit": 614,
      "ent": 615,
      "ir": 616,
      "rei": 617,
      "ann": 618,
      "▁k": 619,
      "se": 620,
      "ft": 621,
      "▁al": 622,
      "▁O": 623,
      "▁wur": 624,
      "ab": 625,
      "eb": 626,
      "▁\n": 627,
      "▁das": 628,
      "ahr": 629,
      "ischen": 630,
      "▁Sch": 631,
      "▁Z": 632,
      "▁auf": 633,
      "▁U": 634,
      "iel": 635,
      "▁ver": 636,
      "▁an": 637,
      "sen": 638,
      "▁zu": 639,
      "▁dem": 640,
      "▁be": 641,
      "wei": 642,
      "▁wurde": 643,
      "ist": 644,
      "kt": 645,
      "ah": 646,
      "sp": 647,
      "ien": 648,
      ")\n": 649,
      "▁g": 650,
      "ell": 651,
      "ad": 652,
      "▁für": 653,
      "▁als": 654,
      "▁ist": 655,
      "ff": 656,
      "▁Die": 657,
      "he": 658,
      "▁Ver": 659,
      "ger": 660,
      "▁In": 661,
      "eh": 662,
      "▁war": 663,
      "ver": 664,
      "t.": 665,
      "scha": 666,
      "▁aus": 667,
      "än": 668,
      "▁Jahr": 669,
      "la": 670,
      "est": 671,
      "▁o": 672,
      "icht": 673,
      "▁eine": 674,
      "ul": 675,
      "),": 676,
      "os": 677,
      "▁sich": 678,
      "▁bei": 679,
      "lie": 680,
      "ation": 681,
      "lin": 682,
      "▁sein": 683,
      "ot": 684,
      "men": 685,
      "ri": 686,
      "▁Er": 687,
      "ern": 688,
      "eut": 689,
      "▁An": 690,
      "rie": 691,
      "ün": 692,
      "ben": 693,
      "ische": 694,
      "eil": 695,
      "▁201": 696,
      "eich": 697,
      "eu": 698,
      "hn": 699,
      "ru": 700,
      "▁200": 701,
      "▁t": 702,
      "ster": 703,
      "och": 704,
      "▁st": 705,
      "eg": 706,
      "schaft": 707,
      "t,": 708,
      "ungen": 709,
      "▁18": 710,
      "ed": 711,
      "über": 712,
      "all": 713,
      "og": 714,
      "▁un": 715,
      "op": 716,
      "▁Au": 717,
      "19": 718,
      "eutsch": 719,
      "ort": 720,
      "ing": 721,
      "ow": 722,
      "ran": 723,
      "▁nach": 724,
      "▁bis": 725,
      "im": 726,
      "▁\n\n": 727,
      "▁am": 728,
      "en,": 729,
      "00": 730,
      "ehr": 731,
      "ag": 732,
      "▁Sp": 733,
      "urch": 734,
      "▁auch": 735,
      "ang": 736,
      "▁„": 737,
      "▁über": 738,
      "en.": 739,
      "ät": 740,
      "▁p": 741,
      "ler": 742,
      "ind": 743,
      "ic": 744,
      "▁Un": 745,
      "ser": 746,
      "▁Al": 747,
      "▁sie": 748,
      "ungs": 749,
      "ör": 750,
      "▁Ein": 751,
      "ischer": 752,
      "iv": 753,
      "▁3": 754,
      "aus": 755,
      "sten": 756,
      "▁Ar": 757,
      "mer": 758,
      "end": 759,
      "ert": 760,
      "▁–": 761,
      "tel": 762,
      "igen": 763,
      "art": 764,
      "▁Ge": 765,
      "▁zum": 766,
      "▁einer": 767,
      "pp": 768,
      "▁199": 769,
      "▁zur": 770,
      "ks": 771,
      ".\n": 772,
      "reich": 773,
      "uch": 774,
      "▁l": 775,
      "är": 776,
      "rä": 777,
      "▁unter": 778,
      "▁sch": 779,
      "ech": 780,
      "▁durch": 781,
      "gel": 782,
      "etz": 783,
      "ers": 784,
      "▁um": 785,
      "be": 786,
      "▁j": 787,
      "▁Be": 788,
      "ord": 789,
      "land": 790,
      "stell": 791,
      "▁En": 792,
      "urg": 793,
      "ia": 794,
      "ste": 795,
      "▁ihr": 796,
      "▁vor": 797,
      "spiel": 798,
      "▁Der": 799,
      "erk": 800,
      "▁ab": 801,
      "▁hat": 802,
      "ige": 803,
      "▁Pro": 804,
      "itz": 805,
      "▁Ber": 806,
      "▁wir": 807,
      "ne": 808,
      "eben": 809,
      "inz": 810,
      "hal": 811,
      "hl": 812,
      "iz": 813,
      "geb": 814,
      "ap": 815,
      "ts": 816,
      "od": 817,
      "enn": 818,
      "▁ent": 819,
      "tern": 820,
      "▁Mit": 821,
      "▁wie": 822,
      "ud": 823,
      "ück": 824,
      "▁einem": 825,
      "e,": 826,
      "ühr": 827,
      "auf": 828,
      "▁wer": 829,
      "weise": 830,
      "her": 831,
      "oll": 832,
      "eln": 833,
      "rit": 834,
      "▁198": 835,
      "▁nicht": 836,
      "▁Ma": 837,
      "▁sp": 838,
      "ichte": 839,
      "adt": 840,
      "lichen": 841,
      "▁Or": 842,
      "gr": 843,
      "▁a": 844,
      "ön": 845,
      "eiter": 846,
      "▁werden": 847,
      "elt": 848,
      "Die": 849,
      "ass": 850,
      "18": 851,
      "arb": 852,
      "▁sind": 853,
      "ug": 854,
      "ahl": 855,
      "atz": 856,
      "▁Ab": 857,
      "uss": 858,
      "chen": 859,
      "ard": 860,
      "id": 861,
      "rau": 862,
      "▁(*": 863,
      "tz": 864,
      "ep": 865,
      "20": 866,
      "▁wird": 867,
      "▁Ch": 868,
      "ak": 869,
      "▁197": 870,
      "▁Land": 871,
      "t.\n\n": 872,
      "ess": 873,
      "▁Mar": 874,
      "▁es": 875,
      "atur": 876,
      "ohn": 877,
      "▁and": 878,
      "ner": 879,
      "ill": 880,
      "▁Aus": 881,
      "▁einen": 882,
      "▁oder": 883,
      "ust": 884,
      "ges": 885,
      "ant": 886,
      "▁deutsch": 887,
      "ub": 888,
      "pf": 889,
      "uf": 890,
      "burg": 891,
      "of": 892,
      "▁zwei": 893,
      "-S": 894,
      "mal": 895,
      "ob": 896,
      "liche": 897,
      "▁196": 898,
      "▁Gr": 899,
      "▁4": 900,
      "▁Nach": 901,
      "ok": 902,
      "che": 903,
      "ov": 904,
      "ilm": 905,
      "▁wurden": 906,
      "gt": 907,
      "ph": 908,
      "links": 909,
      "▁Im": 910,
      "ierte": 911,
      "berg": 912,
      "vers": 913,
      "ähr": 914,
      "er\n": 915,
      "oren": 916,
      "alt": 917,
      "reis": 918,
      "Web": 919,
      "▁Das": 920,
      "uß": 921,
      "▁Sie": 922,
      "ick": 923,
      "anz": 924,
      "eister": 925,
      "Weblinks": 926,
      "▁of": 927,
      "▁194": 928,
      "rat": 929,
      "äl": 930,
      "▁Auf": 931,
      "ens": 932,
      "ay": 933,
      "▁Her": 934,
      "▁dass": 935,
      "ational": 936,
      "▁Br": 937,
      "amm": 938,
      "▁17": 939,
      "ib": 940,
      "fol": 941,
      "▁r": 942,
      "▁195": 943,
      "eiten": 944,
      "▁Re": 945,
      "omm": 946,
      "ahn": 947,
      "▁Vor": 948,
      "▁sow": 949,
      "bau": 950,
      "▁5": 951,
      "sk": 952,
      "gl": 953,
      "roß": 954,
      "▁Am": 955,
      "▁Fl": 956,
      "for": 957,
      "ss": 958,
      "▁(19": 959,
      "av": 960,
      "ian": 961,
      "Einz": 962,
      "▁Stadt": 963,
      "qu": 964,
      "ende": 965,
      "ild": 966,
      "enz": 967,
      "▁le": 968,
      "rach": 969,
      "ial": 970,
      "▁Deutsch": 971,
      "mann": 972,
      "▁The": 973,
      "pt": 974,
      "▁de": 975,
      "eite": 976,
      "achweise": 977,
      "▁9": 978,
      "onn": 979,
      "▁Gem": 980,
      "elnachweise": 981,
      "ften": 982,
      "üd": 983,
      "Einzelnachweise": 984,
      "eim": 985,
      "ast": 986,
      "▁zw": 987,
      "▁vom": 988,
      "–19": 989,
      "▁Zeit": 990,
      "▁Fran": 991,
      "oh": 992,
      "hund": 993,
      "▁193": 994,
      "eter": 995,
      "rech": 996,
      "▁IS": 997,
      "wa": 998,
      "fl": 999,
      "iter": 1000,
      "ark": 1001,
      "lag": 1002,
      "▁Kon": 1003,
      "er,": 1004,
      "ez": 1005,
      "eits": 1006,
      "BN": 1007,
      "ließ": 1008,
      "▁Jahrhund": 1009,
      "olit": 1010,
      "io": 1011,
      "inn": 1012,
      "▁Kl": 1013,
      "▁Reg": 1014,
      "ivers": 1015,
      "▁ISBN": 1016,
      "glie": 1017,
      "arl": 1018,
      "iert": 1019,
      "te,": 1020,
      "aat": 1021,
      "zeich": 1022,
      "rich": 1023,
      "schichte": 1024,
      ").": 1025,
      "▁Pl": 1026,
      "▁gew": 1027,
      "ktion": 1028,
      "eine": 1029,
      "stand": 1030,
      "einde": 1031,
      "ball": 1032,
      "äch": 1033,
      "th": 1034,
      "ock": 1035,
      "orf": 1036,
      "raf": 1037,
      "▁sowie": 1038,
      "ität": 1039,
      "ais": 1040,
      "utz": 1041,
      "▁ander": 1042,
      "te.": 1043,
      "▁15": 1044,
      "s,": 1045,
      "wer": 1046,
      "▁seiner": 1047,
      "▁mehr": 1048,
      "▁Jahrhundert": 1049,
      "tem": 1050,
      "olog": 1051,
      "e.": 1052,
      "ikan": 1053,
      "ieder": 1054,
      "ath": 1055,
      "▁16": 1056,
      "öl": 1057,
      "▁6": 1058,
      "pl": 1059,
      "▁geh": 1060,
      "ex": 1061,
      "ember": 1062,
      "teil": 1063,
      "dem": 1064,
      "-M": 1065,
      "az": 1066,
      "nis": 1067,
      "▁et": 1068,
      "iteratur": 1069,
      "▁nur": 1070,
      "me": 1071,
      "a,": 1072,
      "schl": 1073,
      "▁gegen": 1074,
      "det": 1075,
      "att": 1076,
      "▁weiter": 1077,
      "In": 1078,
      "▁(S": 1079,
      "zeit": 1080,
      "lung": 1081,
      "▁seine": 1082,
      "▁Mus": 1083,
      "elle": 1084,
      "rü": 1085,
      "ym": 1086,
      "führ": 1087,
      "ium": 1088,
      "▁noch": 1089,
      "per": 1090,
      "-B": 1091,
      "ek": 1092,
      "ac": 1093,
      "ammen": 1094,
      "rag": 1095,
      "▁neu": 1096,
      "our": 1097,
      "ha": 1098,
      "raß": 1099,
      "omp": 1100,
      "ew": 1101,
      "▁Kir": 1102,
      "iger": 1103,
      "eld": 1104,
      "ine": 1105,
      "gem": 1106,
      "sel": 1107,
      "ierung": 1108,
      "▁US": 1109,
      "du": 1110,
      "\n\nEinzelnachweise": 1111,
      "öff": 1112,
      "en.\n\n": 1113,
      "▁Bau": 1114,
      "-A": 1115,
      "änd": 1116,
      "ober": 1117,
      "▁Jahre": 1118,
      "▁so": 1119,
      "ommen": 1120,
      "rupp": 1121,
      "▁aber": 1122,
      "keit": 1123,
      "▁dar": 1124,
      "schie": 1125,
      "fahr": 1126,
      "dern": 1127,
      "▁(1": 1128,
      "sb": 1129,
      "▁bes": 1130,
      "ult": 1131,
      "issen": 1132,
      "org": 1133,
      "Qu": 1134,
      "fin": 1135,
      "Der": 1136,
      "ater": 1137,
      "mit": 1138,
      "▁Unter": 1139,
      "▁7": 1140,
      "▁Geb": 1141,
      "▁eines": 1142,
      "▁ber": 1143,
      "▁S.": 1144,
      "ont": 1145,
      "spieler": 1146,
      "ale": 1147,
      "net": 1148,
      "if": 1149,
      "s.": 1150,
      "bar": 1151,
      "pr": 1152,
      "nah": 1153,
      "▁Univers": 1154,
      "▁zwischen": 1155,
      "▁Berlin": 1156,
      "▁Y": 1157,
      "arr": 1158,
      "ingen": 1159,
      "▁lie": 1160,
      "▁So": 1161,
      "-P": 1162,
      "iet": 1163,
      "eist": 1164,
      "urop": 1165,
      "äter": 1166,
      "▁For": 1167,
      "▁8": 1168,
      "ite": 1169,
      "▁Spiel": 1170,
      "\nG": 1171,
      "▁Teil": 1172,
      "ten,": 1173,
      "amer": 1174,
      "kl": 1175,
      "iker": 1176,
      "usammen": 1177,
      "rieg": 1178,
      "▁Th": 1179,
      "ekt": 1180,
      "▁(18": 1181,
      "erson": 1182,
      "enden": 1183,
      "werk": 1184,
      "▁Film": 1185,
      "ip": 1186,
      "ten.": 1187,
      "▁Ges": 1188,
      "▁wieder": 1189,
      "ald": 1190,
      "▁fol": 1191,
      "ken": 1192,
      "▁seit": 1193,
      "amil": 1194,
      "ou": 1195,
      "▁Welt": 1196,
      "\nM": 1197,
      "aupt": 1198,
      ".\n\nL": 1199,
      "▁Le": 1200,
      "▁c": 1201,
      "schaften": 1202,
      "21": 1203,
      "▁gen": 1204,
      "ost": 1205,
      "mus": 1206,
      "78": 1207,
      "ußball": 1208,
      "▁best": 1209,
      "▁Chr": 1210,
      "glied": 1211,
      "amen": 1212,
      "▁dies": 1213,
      "▁Ph": 1214,
      "ett": 1215,
      "ös": 1216,
      "undes": 1217,
      "▁Staat": 1218,
      "▁Bl": 1219,
      "▁Gemeinde": 1220,
      "▁Schw": 1221,
      "▁Jahren": 1222,
      "▁drei": 1223,
      "▁erh": 1224,
      "▁deutscher": 1225,
      "▁gr": 1226,
      "iele": 1227,
      "meister": 1228,
      "age": 1229,
      "-K": 1230,
      "▁dieser": 1231,
      "fer": 1232,
      "hm": 1233,
      "tet": 1234,
      "heit": 1235,
      "▁Es": 1236,
      "orden": 1237,
      "▁all": 1238,
      "ition": 1239,
      "ire": 1240,
      "iss": 1241,
      "rieb": 1242,
      "glich": 1243,
      "önig": 1244,
      "▁jed": 1245,
      "ans": 1246,
      "▁El": 1247,
      "▁14": 1248,
      "ried": 1249,
      "tschaft": 1250,
      "ce": 1251,
      "▁Ü": 1252,
      "\n\nWeblinks": 1253,
      "▁bet": 1254,
      "▁Bei": 1255,
      "▁re": 1256,
      "acht": 1257,
      "old": 1258,
      "ähl": 1259,
      "eigen": 1260,
      "wick": 1261,
      "assen": 1262,
      "äu": 1263,
      "olle": 1264,
      "ehmen": 1265,
      "fall": 1266,
      "ate": 1267,
      ".\n\nA": 1268,
      "▁gehör": 1269,
      "▁Aug": 1270,
      "ron": 1271,
      "▁Qu": 1272,
      "▁Um": 1273,
      "▁the": 1274,
      "▁Jan": 1275,
      "▁Schl": 1276,
      "▁1.": 1277,
      "ey": 1278,
      "vor": 1279,
      "0.": 1280,
      "sterreich": 1281,
      "▁ausge": 1282,
      "▁Ober": 1283,
      "▁13": 1284,
      "bst": 1285,
      "ährend": 1286,
      "oss": 1287,
      "haus": 1288,
      "form": 1289,
      "imm": 1290,
      "schen": 1291,
      "min": 1292,
      "eboren": 1293,
      "Ge": 1294,
      "▁Gl": 1295,
      "hen": 1296,
      "amt": 1297,
      "–1": 1298,
      "hof": 1299,
      "▁Pr": 1300,
      "▁ersten": 1301,
      "-3": 1302,
      "▁waren": 1303,
      "▁192": 1304,
      "tt": 1305,
      "-W": 1306,
      "▁hatte": 1307,
      "istor": 1308,
      "uni": 1309,
      "▁12": 1310,
      "bl": 1311,
      "entr": 1312,
      "▁Ent": 1313,
      "▁später": 1314,
      "lage": 1315,
      "iff": 1316,
      "entlich": 1317,
      "▁Jul": 1318,
      "1.": 1319,
      "off": 1320,
      "▁(A": 1321,
      "Im": 1322,
      "eid": 1323,
      "ßer": 1324,
      "äd": 1325,
      "▁Bo": 1326,
      "rift": 1327,
      "▁erst": 1328,
      "ive": 1329,
      "inter": 1330,
      "ule": 1331,
      "rad": 1332,
      "ame": 1333,
      ".\n\nS": 1334,
      "▁jedoch": 1335,
      "▁Ad": 1336,
      "unst": 1337,
      "kann": 1338,
      "zen": 1339,
      "gte": 1340,
      "▁Se": 1341,
      "▁hab": 1342,
      "stein": 1343,
      "enk": 1344,
      "▁August": 1345,
      "onder": 1346,
      "-R": 1347,
      "Ver": 1348,
      "▁konn": 1349,
      "▁man": 1350,
      "setz": 1351,
      "▁(H": 1352,
      "▁groß": 1353,
      "▁her": 1354,
      "000": 1355,
      "▁kl": 1356,
      "▁ges": 1357,
      "yn": 1358,
      "▁Mün": 1359,
      "▁Gen": 1360,
      "a.": 1361,
      "▁Band": 1362,
      "-F": 1363,
      "▁Über": 1364,
      "zeu": 1365,
      "ton": 1366,
      "af": 1367,
      "▁Bundes": 1368,
      "ielt": 1369,
      "Er": 1370,
      "▁dam": 1371,
      "ker": 1372,
      "▁Mär": 1373,
      "gend": 1374,
      "man": 1375,
      "br": 1376,
      "gesch": 1377,
      "gab": 1378,
      "▁führ": 1379,
      "▁etwa": 1380,
      "Das": 1381,
      "ütz": 1382,
      "▁Neu": 1383,
      "nung": 1384,
      "▁Arb": 1385,
      "▁Juni": 1386,
      "itel": 1387,
      "ond": 1388,
      "▁König": 1389,
      "▁sel": 1390,
      "ellen": 1391,
      "ohl": 1392,
      "gew": 1393,
      "urz": 1394,
      "räs": 1395,
      "uar": 1396,
      "iden": 1397,
      "▁West": 1398,
      "▁beim": 1399,
      "asser": 1400,
      "▁\nDie": 1401,
      "irk": 1402,
      "▁Ger": 1403,
      "igkeit": 1404,
      "raph": 1405,
      "ma": 1406,
      "ubl": 1407,
      "▁Nord": 1408,
      "els": 1409,
      ")\n\n": 1410,
      "▁beg": 1411,
      "-L": 1412,
      "▁Haupt": 1413,
      "▁Ö": 1414,
      "▁Ro": 1415,
      "aten": 1416,
      ".\n\nWeblinks": 1417,
      "▁Ort": 1418,
      "▁zurück": 1419,
      "▁gl": 1420,
      "▁(D": 1421,
      "ott": 1422,
      "nen": 1423,
      "ffen": 1424,
      "▁soll": 1425,
      "▁Juli": 1426,
      "▁(B": 1427,
      "▁191": 1428,
      "▁Nov": 1429,
      "▁Famil": 1430,
      "raße": 1431,
      "pro": 1432,
      "olf": 1433,
      "▁Verein": 1434,
      "als": 1435,
      "▁Mai": 1436,
      "ity": 1437,
      "unk": 1438,
      "-G": 1439,
      "▁seinem": 1440,
      "▁Okt": 1441,
      "▁Frank": 1442,
      "reu": 1443,
      "ied": 1444,
      "angen": 1445,
      "▁Par": 1446,
      "▁Lu": 1447,
      "▁Groß": 1448,
      "▁je": 1449,
      "22": 1450,
      "ct": 1451,
      "▁Oktober": 1452,
      "str": 1453,
      "alen": 1454,
      ".\n\nDie": 1455,
      "ung,": 1456,
      "yst": 1457,
      "▁März": 1458,
      "▁Sep": 1459,
      "▁ihre": 1460,
      "alien": 1461,
      "▁190": 1462,
      "bach": 1463,
      "▁Co": 1464,
      "▁Platz": 1465,
      "▁Januar": 1466,
      "200": 1467,
      "zw": 1468,
      "licher": 1469,
      "▁seinen": 1470,
      "wohn": 1471,
      "auer": 1472,
      "inder": 1473,
      "ierten": 1474,
      "▁Pf": 1475,
      "eute": 1476,
      "\nMann": 1477,
      "▁kann": 1478,
      "-T": 1479,
      "ose": 1480,
      "ultur": 1481,
      "▁Deutschland": 1482,
      "geben": 1483,
      "▁ihn": 1484,
      "bahn": 1485,
      ":\n": 1486,
      "issenschaft": 1487,
      "tember": 1488,
      "▁Mann": 1489,
      "ina": 1490,
      "ohann": 1491,
      "aison": 1492,
      "ül": 1493,
      "kreis": 1494,
      "▁Zu": 1495,
      "geh": 1496,
      "ank": 1497,
      "ain": 1498,
      "-1": 1499,
      "▁Europ": 1500,
      "amerikan": 1501,
      "▁II": 1502,
      "g.": 1503,
      "▁September": 1504,
      "▁Ol": 1505,
      "sh": 1506,
      "pril": 1507,
      "ev": 1508,
      "▁(F": 1509,
      "stadt": 1510,
      "ister": 1511,
      "öffentlich": 1512,
      "▁Bes": 1513,
      "▁verb": 1514,
      "ranz": 1515,
      "eht": 1516,
      "▁diese": 1517,
      "ograph": 1518,
      "▁April": 1519,
      "änger": 1520,
      "ys": 1521,
      "irtschaft": 1522,
      "▁nah": 1523,
      "▁Hand": 1524,
      "eck": 1525,
      "▁Polit": 1526,
      "▁Mal": 1527,
      "▁Süd": 1528,
      "▁Ende": 1529,
      "fen": 1530,
      "kehr": 1531,
      "▁Aut": 1532,
      "▁kön": 1533,
      "aut": 1534,
      "▁Vol": 1535,
      "-D": 1536,
      "ünde": 1537,
      "orben": 1538,
      "ander": 1539,
      "0,": 1540,
      "-H": 1541,
      "▁erfol": 1542,
      "asse": 1543,
      "▁Mon": 1544,
      "Un": 1545,
      "▁Dez": 1546,
      "yp": 1547,
      "unde": 1548,
      "▁Fried": 1549,
      "▁Part": 1550,
      "ätz": 1551,
      "ürger": 1552,
      "schieden": 1553,
      "▁Johann": 1554,
      "▁Min": 1555,
      "len": 1556,
      "▁Christ": 1557,
      "▁kam": 1558,
      "▁Frau": 1559,
      "▁eigen": 1560,
      "es,": 1561,
      "iste": 1562,
      "ternational": 1563,
      "orn": 1564,
      "▁Kunst": 1565,
      "-8": 1566,
      "▁geb": 1567,
      "▁Leben": 1568,
      "spr": 1569,
      "▁Dezember": 1570,
      "ogen": 1571,
      "▁Bet": 1572,
      "zer": 1573,
      "reck": 1574,
      "isches": 1575,
      "bild": 1576,
      "▁November": 1577,
      "▁folgen": 1578,
      "▁erste": 1579,
      "deut": 1580,
      "Nach": 1581,
      "itt": 1582,
      "▁La": 1583,
      "▁dort": 1584,
      "elm": 1585,
      "▁Person": 1586,
      "ystem": 1587,
      "ht": 1588,
      "egen": 1589,
      "▁ins": 1590,
      "rik": 1591,
      "gang": 1592,
      "0er": 1593,
      "res": 1594,
      "▁National": 1595,
      "▁eh": 1596,
      "▁zusammen": 1597,
      "▁vier": 1598,
      "walt": 1599,
      "▁189": 1600,
      "weg": 1601,
      "▁wo": 1602,
      "ologie": 1603,
      "halb": 1604,
      "▁(P": 1605,
      "▁ihm": 1606,
      "▁†": 1607,
      "eum": 1608,
      "emal": 1609,
      "ienst": 1610,
      ":\n\n": 1611,
      "▁Universität": 1612,
      "▁bekann": 1613,
      "satz": 1614,
      "▁verl": 1615,
      "gestell": 1616,
      "▁In:": 1617,
      "▁liegt": 1618,
      "▁Ex": 1619,
      "▁978": 1620,
      ".\n\nB": 1621,
      "i,": 1622,
      "▁Grund": 1623,
      "urt": 1624,
      "amp": 1625,
      "unden": 1626,
      "▁gem": 1627,
      "änder": 1628,
      "r.": 1629,
      "▁Hoch": 1630,
      "-amerikan": 1631,
      "iere": 1632,
      "Literatur": 1633,
      "oph": 1634,
      "23": 1635,
      "▁Men": 1636,
      "▁Reich": 1637,
      "engl": 1638,
      "▁Ste": 1639,
      "o,": 1640,
      "▁Pol": 1641,
      "up": 1642,
      "▁ihrer": 1643,
      "▁gel": 1644,
      "heim": 1645,
      "gesetz": 1646,
      "▁Man": 1647,
      "ragen": 1648,
      "ke": 1649,
      "ossen": 1650,
      "ernse": 1651,
      "ong": 1652,
      "▁hin": 1653,
      "ruppe": 1654,
      "▁Werk": 1655,
      "▁Saison": 1656,
      "▁Gesch": 1657,
      "ls": 1658,
      "):": 1659,
      "▁teil": 1660,
      "anis": 1661,
      "zial": 1662,
      "äuf": 1663,
      "hne": 1664,
      "▁(M": 1665,
      "ebru": 1666,
      "stellung": 1667,
      "▁dann": 1668,
      "▁km": 1669,
      "Geboren": 1670,
      "öst": 1671,
      "gar": 1672,
      "▁gleich": 1673,
      "ranzös": 1674,
      "-0": 1675,
      "ebruar": 1676,
      "äm": 1677,
      "ack": 1678,
      "war": 1679,
      "buch": 1680,
      "▁Rech": 1681,
      "201": 1682,
      "fe": 1683,
      "▁Musik": 1684,
      "schließ": 1685,
      "ünd": 1686,
      "▁Wil": 1687,
      "▁Landes": 1688,
      "▁Februar": 1689,
      "grund": 1690,
      "▁Kirche": 1691,
      "▁Frei": 1692,
      "abei": 1693,
      "▁befin": 1694,
      "▁New": 1695,
      "lagen": 1696,
      "lig": 1697,
      "▁letz": 1698,
      "▁Fol": 1699,
      "ies": 1700,
      "▁Art": 1701,
      "such": 1702,
      "▁verw": 1703,
      "ationen": 1704,
      "▁Cl": 1705,
      "▁Ju": 1706,
      "▁pro": 1707,
      "wahl": 1708,
      "▁erreich": 1709,
      "hand": 1710,
      "ruck": 1711,
      "ßen": 1712,
      "▁Zwei": 1713,
      "▁Stud": 1714,
      "arbeite": 1715,
      "rain": 1716,
      "▁wurde.": 1717,
      "-C": 1718,
      "▁bereits": 1719,
      "feld": 1720,
      "▁Mo": 1721,
      "▁Vert": 1722,
      "▁2.": 1723,
      "halten": 1724,
      "ius": 1725,
      "unkt": 1726,
      "▁Als": 1727,
      "▁während": 1728,
      "isten": 1729,
      "▁spiel": 1730,
      "ternehmen": 1731,
      "y,": 1732,
      "▁Med": 1733,
      "▁Geschichte": 1734,
      "rs": 1735,
      "▁Von": 1736,
      "ymp": 1737,
      "▁US-amerikan": 1738,
      "eins": 1739,
      "fte": 1740,
      "ünst": 1741,
      "app": 1742,
      "zeichnet": 1743,
      "▁(K": 1744,
      "ograf": 1745,
      "ellschaft": 1746,
      "schn": 1747,
      "▁Mitglied": 1748,
      "–18": 1749,
      "rom": 1750,
      "öglich": 1751,
      "ere": 1752,
      "▁Verlag": 1753,
      "▁da": 1754,
      "▁Fußball": 1755,
      "richt": 1756,
      "ren": 1757,
      "igung": 1758,
      "▁Nieder": 1759,
      "▁anderen": 1760,
      "inger": 1761,
      "alter": 1762,
      "▁2008": 1763,
      "▁Für": 1764,
      "▁&": 1765,
      "▁Verb": 1766,
      "ille": 1767,
      "aul": 1768,
      "50": 1769,
      "▁Wien": 1770,
      "▁2011": 1771,
      "hin": 1772,
      "▁10": 1773,
      "▁ern": 1774,
      "Or": 1775,
      "▁gab": 1776,
      "bert": 1777,
      "cht": 1778,
      "▁Wei": 1779,
      "▁ersch": 1780,
      "zu": 1781,
      "▁2009": 1782,
      "lex": 1783,
      "▁%": 1784,
      "▁Beg": 1785,
      "mals": 1786,
      "▁2012": 1787,
      "▁eben": 1788,
      "ächst": 1789,
      "▁ange": 1790,
      "ons": 1791,
      "einen": 1792,
      "▁Arch": 1793,
      "ionen": 1794,
      "▁Rom": 1795,
      "▁Dar": 1796,
      "ings": 1797,
      "unt": 1798,
      "▁Ser": 1799,
      "▁heute": 1800,
      "▁2007": 1801,
      "▁(T": 1802,
      "▁188": 1803,
      "▁beiden": 1804,
      "-4": 1805,
      "essen": 1806,
      "ismus": 1807,
      "ähn": 1808,
      "ehen": 1809,
      "▁zun": 1810,
      "stit": 1811,
      "li": 1812,
      "▁ger": 1813,
      "ilit": 1814,
      "▁fin": 1815,
      "reg": 1816,
      "▁Eis": 1817,
      "▁süd": 1818,
      "öß": 1819,
      "dorf": 1820,
      "▁Karl": 1821,
      "aden": 1822,
      "▁bef": 1823,
      "▁Phil": 1824,
      "äng": 1825,
      "eitung": 1826,
      "räsiden": 1827,
      "fang": 1828,
      "ehmer": 1829,
      "schule": 1830,
      ".\n\nGe": 1831,
      "5.": 1832,
      "▁Schau": 1833,
      "oc": 1834,
      "▁Rei": 1835,
      "ator": 1836,
      "▁Sh": 1837,
      "isch-": 1838,
      "▁2013": 1839,
      "falls": 1840,
      "ständ": 1841,
      "▁2006": 1842,
      "ieren": 1843,
      "-St": 1844,
      "▁Schwei": 1845,
      "eral": 1846,
      "▁Komm": 1847,
      "achsen": 1848,
      "▁2014": 1849,
      "▁werden.": 1850,
      "ält": 1851,
      "▁Best": 1852,
      "er\nGeboren": 1853,
      "kir": 1854,
      "▁Ind": 1855,
      "ibt": 1856,
      "▁Haus": 1857,
      "tete": 1858,
      "▁Hö": 1859,
      "recht": 1860,
      "unter": 1861,
      "▁besch": 1862,
      "äude": 1863,
      "▁dessen": 1864,
      "▁einz": 1865,
      "iert.": 1866,
      "leg": 1867,
      "▁Krieg": 1868,
      "rieben": 1869,
      "red": 1870,
      "▁konnte": 1871,
      "riff": 1872,
      "▁diesem": 1873,
      "ore": 1874,
      "▁Zw": 1875,
      "▁französ": 1876,
      "ung.": 1877,
      "5,": 1878,
      "son": 1879,
      "ehn": 1880,
      "▁Mittel": 1881,
      "▁wel": 1882,
      "2.": 1883,
      "zug": 1884,
      "west": 1885,
      "▁Hal": 1886,
      "ide": 1887,
      "ernseh": 1888,
      "krieg": 1889,
      "reib": 1890,
      "“,": 1891,
      "▁Ham": 1892,
      "ommer": 1893,
      "halt": 1894,
      "..": 1895,
      "▁verschieden": 1896,
      "ieg": 1897,
      "ork": 1898,
      "zie": 1899,
      "oge": 1900,
      "▁Friedrich": 1901,
      "▁2010": 1902,
      "ling": 1903,
      "▁ehemal": 1904,
      "ffiz": 1905,
      "ände": 1906,
      "▁2016": 1907,
      "ade": 1908,
      "▁978-3": 1909,
      "▁(L": 1910,
      "estorben": 1911,
      "keiten": 1912,
      "▁fün": 1913,
      "akt": 1914,
      "▁-": 1915,
      "▁Meister": 1916,
      "lauf": 1917,
      "eth": 1918,
      "▁erhielt": 1919,
      "▁(C": 1920,
      "▁Bild": 1921,
      "▁alle": 1922,
      "hein": 1923,
      "\n\nS": 1924,
      "erst": 1925,
      ".\n\nLeben": 1926,
      "▁frü": 1927,
      "▁hier": 1928,
      "ritt": 1929,
      "▁Buch": 1930,
      "öm": 1931,
      "▁bel": 1932,
      "▁Diese": 1933,
      "▁Lei": 1934,
      "▁(R": 1935,
      "ausen": 1936,
      "▁Einwohn": 1937,
      "schul": 1938,
      "▁Wasser": 1939,
      "üt": 1940,
      "▁186": 1941,
      "-9": 1942,
      "echsel": 1943,
      "▁selbst": 1944,
      "ublik": 1945,
      "▁Tur": 1946,
      "▁St.": 1947,
      "äft": 1948,
      "ischof": 1949,
      "▁Em": 1950,
      "▁Hein": 1951,
      "▁187": 1952,
      "\nGestorben": 1953,
      "▁Ant": 1954,
      "agen": 1955,
      "ations": 1956,
      "▁Fr": 1957,
      "-E": 1958,
      "film": 1959,
      "▁Schul": 1960,
      "▁mus": 1961,
      "▁11": 1962,
      "zahl": 1963,
      "reuz": 1964,
      "▁Bahn": 1965,
      "iehe": 1966,
      "ipp": 1967,
      "▁Is": 1968,
      "2,": 1969,
      "ie,": 1970,
      "mar": 1971,
      "in\n": 1972,
      "ktur": 1973,
      "▁Durch": 1974,
      "▁2004": 1975,
      "verb": 1976,
      "mä": 1977,
      "▁einge": 1978,
      "u.": 1979,
      "▁deutschen": 1980,
      "▁Ed": 1981,
      "mittel": 1982,
      "▁Eine": 1983,
      "▁2017": 1984,
      "ute": 1985,
      "▁Peter": 1986,
      "hard": 1987,
      "▁Mich": 1988,
      "▁gibt": 1989,
      "aum": 1990,
      "▁2015": 1991,
      "co": 1992,
      "▁Ost": 1993,
      "▁damit": 1994,
      "helm": 1995,
      "▁Sohn": 1996,
      "adem": 1997,
      "wig": 1998,
      "▁Fre": 1999,
      "▁for": 2000,
      "kon": 2001,
      "igt": 2002,
      "▁Ä": 2003,
      "▁ben": 2004,
      "\nS": 2005,
      "▁Fahr": 2006,
      "in,": 2007,
      "▁gef": 2008,
      "▁wen": 2009,
      "▁begann": 2010,
      "▁Dan": 2011,
      "▁Tr": 2012,
      "denk": 2013,
      "▁Gra": 2014,
      "rsg.": 2015,
      "▁ihren": 2016,
      "▁Bar": 2017,
      "▁stell": 2018,
      "▁München": 2019,
      "▁aller": 2020,
      "uten": 2021,
      "deck": 2022,
      "▁sei": 2023,
      "gebiet": 2024,
      "tag": 2025,
      "fü": 2026,
      "▁Prof": 2027,
      "▁Lin": 2028,
      "ument": 2029,
      "so": 2030,
      "▁keine": 2031,
      "▁Bay": 2032,
      "igte": 2033,
      "▁Alb": 2034,
      "iat": 2035,
      "aff": 2036,
      "▁2019": 2037,
      "▁/": 2038,
      "▁Bas": 2039,
      "▁De": 2040,
      "▁Rep": 2041,
      "▁Sal": 2042,
      "▁deren": 2043,
      "▁Sk": 2044,
      "eig": 2045,
      "österreich": 2046,
      "▁erw": 2047,
      "echs": 2048,
      "▁Berg": 2049,
      "▁gewann": 2050,
      "straße": 2051,
      "oten": 2052,
      "▁Titel": 2053,
      "▁\nDer": 2054,
      "arch": 2055,
      ".\n\nW": 2056,
      "▁Web": 2057,
      "ölker": 2058,
      "▁Me": 2059,
      "▁zunächst": 2060,
      "ign": 2061,
      "▁19.": 2062,
      ".\n\nE": 2063,
      "▁Franz": 2064,
      "▁entstand": 2065,
      "▁Su": 2066,
      "3.": 2067,
      "zw.": 2068,
      "▁(N": 2069,
      "schrift": 2070,
      "üb": 2071,
      "athol": 2072,
      "opp": 2073,
      "▁Kar": 2074,
      "raum": 2075,
      "▁Fin": 2076,
      "lehr": 2077,
      "▁Produ": 2078,
      "▁Te": 2079,
      "▁Hol": 2080,
      "-N": 2081,
      "▁3.": 2082,
      "kommen": 2083,
      "ry": 2084,
      "steller": 2085,
      "zent": 2086,
      "▁e": 2087,
      "cher": 2088,
      "schluss": 2089,
      "ish": 2090,
      "▁And": 2091,
      "ift": 2092,
      "▁Komp": 2093,
      "▁2020": 2094,
      "▁sehr": 2095,
      "Deutsch": 2096,
      "▁He": 2097,
      "räger": 2098,
      "irekt": 2099,
      "tr": 2100,
      "a\n": 2101,
      "▁Sc": 2102,
      "▁weitere": 2103,
      "anden": 2104,
      "▁Region": 2105,
      "▁24": 2106,
      "▁gesch": 2107,
      "wicklung": 2108,
      "echn": 2109,
      "ruppen": 2110,
      "▁(G": 2111,
      "▁Kreis": 2112,
      "aler": 2113,
      "let": 2114,
      "▁bzw.": 2115,
      "▁deutsche": 2116,
      "alis": 2117,
      "▁Lehr": 2118,
      "6.": 2119,
      "bo": 2120,
      "ünstler": 2121,
      "▁Deutschen": 2122,
      "▁2018": 2123,
      "▁viel": 2124,
      "▁Namen": 2125,
      "sitz": 2126,
      "▁Kinder": 2127,
      "▁Tod": 2128,
      "ange": 2129,
      "nahme": 2130,
      "yl": 2131,
      "stitut": 2132,
      "▁Mill": 2133,
      "▁ch": 2134,
      "-7": 2135,
      "legen": 2136,
      "▁20.": 2137,
      "▁fünf": 2138,
      "gleich": 2139,
      "fach": 2140,
      "riv": 2141,
      "▁Wahl": 2142,
      "▁worden": 2143,
      "glieder": 2144,
      "▁Rück": 2145,
      "1,": 2146,
      "▁Natur": 2147,
      "▁Ur": 2148,
      "▁ex": 2149,
      "▁genann": 2150,
      ".\n\nIm": 2151,
      "▁2003": 2152,
      "ue": 2153,
      "uk": 2154,
      "ampf": 2155,
      "sche": 2156,
      "▁Landkreis": 2157,
      "icher": 2158,
      "▁Hans": 2159,
      "▁John": 2160,
      "▁Kap": 2161,
      "folge": 2162,
      "we": 2163,
      "▁Ak": 2164,
      "▁2005": 2165,
      "vinz": 2166,
      "▁ur": 2167,
      "▁Familie": 2168,
      "▁Inter": 2169,
      "zeug": 2170,
      "▁\"": 2171,
      "▁Ho": 2172,
      "ze": 2173,
      "apan": 2174,
      "ats": 2175,
      "punkt": 2176,
      "richte": 2177,
      "▁Ha": 2178,
      "▁veröffentlich": 2179,
      "\nF": 2180,
      "▁ohne": 2181,
      "▁gegr": 2182,
      "▁X": 2183,
      "nahm": 2184,
      "\nB": 2185,
      "▁Fest": 2186,
      "nehmer": 2187,
      "geschichte": 2188,
      "tre": 2189,
      "hol": 2190,
      "ruch": 2191,
      "▁Flug": 2192,
      "ix": 2193,
      "▁Gegen": 2194,
      "wend": 2195,
      "▁allem": 2196,
      "igten": 2197,
      "raft": 2198,
      "▁ebenfalls": 2199,
      "utt": 2200,
      "▁Rad": 2201,
      "▁anderem": 2202,
      "-5": 2203,
      "ax": 2204,
      "▁Zusammen": 2205,
      "▁arbeite": 2206,
      "schutz": 2207,
      "▁Graf": 2208,
      "▁Dorf": 2209,
      "öch": 2210,
      "▁Form": 2211,
      "ament": 2212,
      "▁Unternehmen": 2213,
      "▁nahm": 2214,
      "nisse": 2215,
      "▁Bürger": 2216,
      "schlossen": 2217,
      "▁was": 2218,
      "▁Wilhelm": 2219,
      "▁trat": 2220,
      "lei": 2221,
      "fas": 2222,
      "7.": 2223,
      "eile": 2224,
      "▁184": 2225,
      "▁(Hrsg.": 2226,
      "▁Personen": 2227,
      "üs": 2228,
      "▁befindet": 2229,
      "▁Con": 2230,
      "iven": 2231,
      "spieler\n": 2232,
      "▁Auch": 2233,
      "▁Car": 2234,
      "▁son": 2235,
      "esen": 2236,
      "▁San": 2237,
      "▁Olymp": 2238,
      "ilitär": 2239,
      "anst": 2240,
      "30": 2241,
      "sicht": 2242,
      "▁2021": 2243,
      ")\nF": 2244,
      "▁Kil": 2245,
      "es.": 2246,
      "▁bil": 2247,
      "▁Österreich": 2248,
      "iver": 2249,
      "ester": 2250,
      "lo": 2251,
      "▁Liste": 2252,
      "▁2000": 2253,
      "unktion": 2254,
      "zog": 2255,
      "▁1999": 2256,
      "jahr": 2257,
      "gemein": 2258,
      "-J": 2259,
      "▁Mag": 2260,
      "äs": 2261,
      "▁Schrift": 2262,
      "▁Ne": 2263,
      ".\n\nIn": 2264,
      "örder": 2265,
      "▁Sommer": 2266,
      "▁All": 2267,
      "6,": 2268,
      "äus": 2269,
      "▁General": 2270,
      "▁Volks": 2271,
      "10": 2272,
      "▁Paul": 2273,
      "▁\nA": 2274,
      "▁Bel": 2275,
      "▁Bern": 2276,
      "▁(E": 2277,
      "jekt": 2278,
      "ender": 2279,
      "port": 2280,
      "“.": 2281,
      "reuß": 2282,
      "sprach": 2283,
      "▁Kr": 2284,
      "▁Kultur": 2285,
      "▁a.": 2286,
      "omin": 2287,
      "▁Seit": 2288,
      "▁lang": 2289,
      "stru": 2290,
      ".\n\nLiteratur": 2291,
      "▁0": 2292,
      "isk": 2293,
      "▁Ob": 2294,
      "▁Per": 2295,
      "eng": 2296,
      "ode": 2297,
      "den,": 2298,
      "▁Kirchen": 2299,
      "▁Burg": 2300,
      "ai": 2301,
      "emen": 2302,
      "zieh": 2303,
      "▁denen": 2304,
      "el,": 2305,
      "25": 2306,
      "eira": 2307,
      "sol": 2308,
      "▁steht": 2309,
      "▁komm": 2310,
      "lau": 2311,
      "▁Will": 2312,
      "▁Paris": 2313,
      "sport": 2314,
      "▁Gu": 2315,
      "euer": 2316,
      "▁gest": 2317,
      "▁neuen": 2318,
      "na": 2319,
      "8.": 2320,
      "▁erschien": 2321,
      "▁University": 2322,
      "ieb": 2323,
      "▁dabei": 2324,
      "▁Di": 2325,
      "▁18.": 2326,
      "arriere": 2327,
      "platz": 2328,
      "geord": 2329,
      "ätig": 2330,
      "ande": 2331,
      ".\n\nDer": 2332,
      "schied": 2333,
      "▁US-amerikanischer": 2334,
      "▁Dies": 2335,
      "änge": 2336,
      "ions": 2337,
      "▁Mart": 2338,
      "▁neue": 2339,
      "▁haben": 2340,
      "osten": 2341,
      "▁kurz": 2342,
      "▁B.": 2343,
      "▁Histor": 2344,
      "▁abge": 2345,
      ".\n\nGeschichte": 2346,
      "▁Jose": 2347,
      "▁Arbeit": 2348,
      "▁zahl": 2349,
      "▁Gew": 2350,
      "Mit": 2351,
      "60": 2352,
      "24": 2353,
      "ient": 2354,
      "dr": 2355,
      "▁Tor": 2356,
      "▁Herr": 2357,
      "genommen": 2358,
      "▁Jahrhundert)\n": 2359,
      "▁Gemein": 2360,
      "uth": 2361,
      "▁u.": 2362,
      "▁spielte": 2363,
      "▁Heim": 2364,
      "ael": 2365,
      "üss": 2366,
      "▁Weltkrieg": 2367,
      "▁stat": 2368,
      "ice": 2369,
      "▁Meter": 2370,
      "rank": 2371,
      "chn": 2372,
      "eren": 2373,
      "▁Ern": 2374,
      "zirk": 2375,
      "▁Stel": 2376,
      "spiele": 2377,
      "ographie": 2378,
      "dings": 2379,
      "entrum": 2380,
      "▁brit": 2381,
      "on,": 2382,
      "▁Folge": 2383,
      "▁185": 2384,
      "arm": 2385,
      "arten": 2386,
      "▁kon": 2387,
      "DR": 2388,
      "▁war,": 2389,
      "▁Kais": 2390,
      "ec": 2391,
      "osition": 2392,
      "aj": 2393,
      "▁außer": 2394,
      "▁York": 2395,
      "▁4.": 2396,
      "▁jewei": 2397,
      "▁Kn": 2398,
      "nungen": 2399,
      "lieb": 2400,
      "schw": 2401,
      "azu": 2402,
      "▁Partei": 2403,
      "jähr": 2404,
      "zig": 2405,
      "▁1998": 2406,
      "▁Stein": 2407,
      "▁erstmals": 2408,
      "wirtschaft": 2409,
      "▁Provinz": 2410,
      "▁15.": 2411,
      "▁2022": 2412,
      "▁Sa": 2413,
      "inen": 2414,
      "urger": 2415,
      "15": 2416,
      "▁immer": 2417,
      ".\n\nK": 2418,
      "7,": 2419,
      "▁Bi": 2420,
      "▁mach": 2421,
      "6),": 2422,
      ".\n\nF": 2423,
      "▁Georg": 2424,
      "7),": 2425,
      "3,": 2426,
      "▁Ru": 2427,
      "▁könn": 2428,
      "▁Lebens": 2429,
      "innen": 2430,
      "▁(Hrsg.):": 2431,
      "englisch": 2432,
      "eiß": 2433,
      "9.": 2434,
      "2),": 2435,
      "yr": 2436,
      "utter": 2437,
      "ien,": 2438,
      "dienst": 2439,
      "one": 2440,
      "esse": 2441,
      "räsident": 2442,
      "▁Heinrich": 2443,
      "▁bezeichnet": 2444,
      "▁Webs": 2445,
      "wissenschaft": 2446,
      "▁Sport": 2447,
      "▁Alt": 2448,
      "angel": 2449,
      "70": 2450,
      "▁Jugend": 2451,
      "iges": 2452,
      "▁Sprach": 2453,
      "▁Menschen": 2454,
      "▁stud": 2455,
      "▁2001": 2456,
      "stütz": 2457,
      "wert": 2458,
      "ffiziel": 2459,
      "▁darauf": 2460,
      "▁Wohn": 2461,
      "oster": 2462,
      "gabe": 2463,
      "▁ging": 2464,
      "▁war.": 2465,
      "4),": 2466,
      "▁Port": 2467,
      "▁Rich": 2468,
      "wie": 2469,
      "ae": 2470,
      "▁polit": 2471,
      "-V": 2472,
      "▁Staats": 2473,
      "er.": 2474,
      "ondere": 2475,
      "reh": 2476,
      "▁Mor": 2477,
      "furt": 2478,
      "ometer": 2479,
      "▁Straß": 2480,
      "fern": 2481,
      "▁1945": 2482,
      "▁Tex": 2483,
      "▁entwick": 2484,
      "▁neben": 2485,
      "79": 2486,
      "tor": 2487,
      "erg": 2488,
      "▁International": 2489,
      "klär": 2490,
      "▁2002": 2491,
      "▁Name": 2492,
      "3),": 2493,
      "▁Staaten": 2494,
      "▁Pat": 2495,
      "▁Je": 2496,
      "ografie": 2497,
      "ichts": 2498,
      "▁Gel": 2499,
      "▁rund": 2500,
      "gesamt": 2501,
      "kirche": 2502,
      "▁errichte": 2503,
      "▁zweiten": 2504,
      "▁Vers": 2505,
      "▁Sil": 2506,
      "minister": 2507,
      "▁Mot": 2508,
      "▁16.": 2509,
      "recke": 2510,
      "4,": 2511,
      "▁Nor": 2512,
      "▁Politiker": 2513,
      "▁akt": 2514,
      "ündet": 2515,
      "▁Dem": 2516,
      "hren": 2517,
      "riften": 2518,
      "▁schw": 2519,
      "▁17.": 2520,
      "ward": 2521,
      "ourn": 2522,
      "▁Wolf": 2523,
      "ungen,": 2524,
      "▁schon": 2525,
      "are": 2526,
      "▁Lud": 2527,
      "▁Wor": 2528,
      "▁stark": 2529,
      ".\n\nEinzelnachweise": 2530,
      "▁schließ": 2531,
      "I.": 2532,
      "▁Tag": 2533,
      "tes": 2534,
      "▁Lig": 2535,
      "▁zahlreich": 2536,
      "▁Jahrhunderts": 2537,
      "othe": 2538,
      "▁seines": 2539,
      "▁Str": 2540,
      "▁Schiff": 2541,
      "ochter": 2542,
      "▁Erz": 2543,
      "itter": 2544,
      "ka": 2545,
      "stoff": 2546,
      "▁Stand": 2547,
      "ologe": 2548,
      "▁verm": 2549,
      "gemeinde": 2550,
      "tragen": 2551,
      "▁sondern": 2552,
      "28": 2553,
      "▁(W": 2554,
      "▁Amer": 2555,
      "▁Bereich": 2556,
      "örd": 2557,
      "▁It": 2558,
      "sprün": 2559,
      "\nGeboren": 2560,
      "ockey": 2561,
      "essor": 2562,
      "prä": 2563,
      "▁Ev": 2564,
      "▁Mannschaft": 2565,
      "▁gehörte": 2566,
      "▁schl": 2567,
      "bt": 2568,
      "anad": 2569,
      "▁fest": 2570,
      "▁ihrem": 2571,
      "▁einige": 2572,
      "▁an.": 2573,
      "1),": 2574,
      "▁österreich": 2575,
      "▁auf.": 2576,
      "orp": 2577,
      "▁Familien": 2578,
      "▁Lond": 2579,
      "hält": 2580,
      "nahmen": 2581,
      "-Ver": 2582,
      "▁Da": 2583,
      "d.": 2584,
      "▁Frauen": 2585,
      "gramm": 2586,
      "▁br": 2587,
      "pen": 2588,
      "▁Forsch": 2589,
      "▁heut": 2590,
      "par": 2591,
      "5),": 2592,
      "äh": 2593,
      "▁ist.": 2594,
      "▁Jahres": 2595,
      "▁ist,": 2596,
      "urm": 2597,
      "▁5.": 2598,
      "▁1,": 2599,
      "40": 2600,
      "lav": 2601,
      "ink": 2602,
      "▁10.": 2603,
      "▁Museum": 2604,
      "’s": 2605,
      "▁wenn": 2606,
      "▁wegen": 2607,
      "fahren": 2608,
      "▁verwende": 2609,
      "▁fand": 2610,
      "▁andere": 2611,
      "schau": 2612,
      "techn": 2613,
      "ücke": 2614,
      "▁größ": 2615,
      "den.": 2616,
      "▁wurde,": 2617,
      "elte": 2618,
      "▁el": 2619,
      "hausen": 2620,
      "▁Hamburg": 2621,
      "▁können": 2622,
      "▁gemeins": 2623,
      "▁100": 2624,
      "a)": 2625,
      "▁Dav": 2626,
      "▁Hof": 2627,
      "amb": 2628,
      ".\n\nNach": 2629,
      "umen": 2630,
      "▁Leip": 2631,
      "▁Ben": 2632,
      "▁histor": 2633,
      "▁setz": 2634,
      "auft": 2635,
      "ief": 2636,
      "ins": 2637,
      "dig": 2638,
      "▁aufge": 2639,
      "Person": 2640,
      "▁Verwalt": 2641,
      "▁mehrere": 2642,
      "▁13.": 2643,
      "italien": 2644,
      "iam": 2645,
      "▁Politik": 2646,
      "\n\nLiteratur": 2647,
      "29": 2648,
      "staat": 2649,
      "▁Sitz": 2650,
      "▁letzten": 2651,
      "isse": 2652,
      "ammer": 2653,
      "▁Wer": 2654,
      "eicht": 2655,
      "▁Mark": 2656,
      "▁Bru": 2657,
      "bildung": 2658,
      "sbes": 2659,
      ".\n\nD": 2660,
      "ider": 2661,
      "▁12.": 2662,
      "▁14.": 2663,
      "▁international": 2664,
      "ych": 2665,
      "▁Bro": 2666,
      "anc": 2667,
      "▁verk": 2668,
      "ennen": 2669,
      "▁west": 2670,
      "e\n": 2671,
      "▁werden,": 2672,
      "▁Anfang": 2673,
      "rid": 2674,
      "▁wechsel": 2675,
      "▁Kur": 2676,
      "▁\nDas": 2677,
      ".\n\nP": 2678,
      "ürz": 2679,
      "▁Nr.": 2680,
      "eda": 2681,
      "▁Köl": 2682,
      ").\n": 2683,
      "▁Bischof": 2684,
      "arz": 2685,
      "alif": 2686,
      "ias": 2687,
      "▁Carl": 2688,
      "sl": 2689,
      "nete": 2690,
      "an,": 2691,
      "völker": 2692,
      "▁II.": 2693,
      "ement": 2694,
      "orie": 2695,
      "14": 2696,
      "▁1990": 2697,
      "▁Schauspieler": 2698,
      "▁I.": 2699,
      "▁=": 2700,
      "iert,": 2701,
      "▁la": 2702,
      "▁gegründe": 2703,
      "anten": 2704,
      "äche": 2705,
      "▁Weiter": 2706,
      "gaben": 2707,
      "ica": 2708,
      "▁Alex": 2709,
      "ash": 2710,
      "▁Tochter": 2711,
      "▁dieses": 2712,
      "ana": 2713,
      "▁Michael": 2714,
      "▁Heil": 2715,
      "üh": 2716,
      "omas": 2717,
      "herr": 2718,
      "ierungs": 2719,
      "75": 2720,
      "▁nun": 2721,
      "schiff": 2722,
      "▁klein": 2723,
      "▁wicht": 2724,
      "▁Einwohner": 2725,
      "▁Neben": 2726,
      "folg": 2727,
      "13": 2728,
      "▁studierte": 2729,
      "les": 2730,
      "scher": 2731,
      "▁Rechts": 2732,
      "ammlung": 2733,
      "▁Zweiten": 2734,
      "▁Betrieb": 2735,
      "▁6.": 2736,
      "itä": 2737,
      "omb": 2738,
      "▁inner": 2739,
      "iqu": 2740,
      "ämpf": 2741,
      "▁|": 2742,
      "▁Team": 2743,
      "ret": 2744,
      "16": 2745,
      "bet": 2746,
      "ournal": 2747,
      "▁Org": 2748,
      "▁Sü": 2749,
      "zeichnung": 2750,
      ")\nFußball": 2751,
      "▁„S": 2752,
      "ision": 2753,
      "letz": 2754,
      "▁,": 2755,
      "izin": 2756,
      "▁(St": 2757,
      "▁große": 2758,
      "▁Pal": 2759,
      "▁Hil": 2760,
      "▁sechs": 2761,
      "ums": 2762,
      "▁Frankreich": 2763,
      "▁(englisch": 2764,
      "▁Dort": 2765,
      "▁War": 2766,
      "ügel": 2767,
      "-Un": 2768,
      "schließend": 2769,
      "▁erfolg": 2770,
      "\nT": 2771,
      "▁Erst": 2772,
      "ric": 2773,
      "▁Ludwig": 2774,
      "▁Tour": 2775,
      "▁rech": 2776,
      "▁Schweizer": 2777,
      "ical": 2778,
      "aw": 2779,
      "▁Grün": 2780,
      "▁Gebäude": 2781,
      "opf": 2782,
      "▁großen": 2783,
      "assung": 2784,
      "ibli": 2785,
      "ept": 2786,
      "anisation": 2787,
      "zogen": 2788,
      "▁Kilometer": 2789,
      "▁1989": 2790,
      "▁frei": 2791,
      "schein": 2792,
      "80": 2793,
      "werb": 2794,
      "emat": 2795,
      "▁diesen": 2796,
      "▁Archite": 2797,
      "▁Go": 2798,
      "▁Rhein": 2799,
      "▁At": 2800,
      "teilung": 2801,
      "▁Sel": 2802,
      "ühl": 2803,
      "▁Res": 2804,
      "▁Luft": 2805,
      "▁Gott": 2806,
      "ure": 2807,
      "\n\nA": 2808,
      "▁USA": 2809,
      "▁arbeitete": 2810,
      "alk": 2811,
      "obei": 2812,
      "ika": 2813,
      "kte": 2814,
      "▁(†": 2815,
      "aur": 2816,
      "istischen": 2817,
      "26": 2818,
      "▁voll": 2819,
      "lungen": 2820,
      "schnitt": 2821,
      "ission": 2822,
      "-6": 2823,
      "jet": 2824,
      "▁183": 2825,
      "▁Mitte": 2826,
      "▁ganz": 2827,
      "mäß": 2828,
      "onist": 2829,
      "ichten": 2830,
      "▁Do": 2831,
      "obert": 2832,
      "\nK": 2833,
      "anstalt": 2834,
      "▁Met": 2835,
      "urn": 2836,
      "arbeit": 2837,
      "▁Auft": 2838,
      "▁stand": 2839,
      "▁Fach": 2840,
      "raun": 2841,
      "▁nieder": 2842,
      "▁Rah": 2843,
      "rop": 2844,
      "ara": 2845,
      "annte": 2846,
      "▁Wald": 2847,
      "▁führte": 2848,
      "▁Sein": 2849,
      "alb": 2850,
      "▁Count": 2851,
      "▁gehört": 2852,
      "▁Eng": 2853,
      "▁qu": 2854,
      "▁Col": 2855,
      "▁heraus": 2856,
      "▁Einsatz": 2857,
      "piel": 2858,
      "zel": 2859,
      "▁London": 2860,
      "ritten": 2861,
      "▁tätig": 2862,
      "▁Grenz": 2863,
      "▁Schn": 2864,
      "▁Wirtschaft": 2865,
      "▁Ter": 2866,
      "▁hand": 2867,
      "▁Bü": 2868,
      "▁180": 2869,
      "o.": 2870,
      "rug": 2871,
      "ise": 2872,
      "Deutscher\nGeboren": 2873,
      "\nA": 2874,
      "ase": 2875,
      "häng": 2876,
      "länd": 2877,
      "verein": 2878,
      "▁nörd": 2879,
      "▁Schm": 2880,
      "▁Schloss": 2881,
      "steil": 2882,
      "▁wobei": 2883,
      "▁Lauf": 2884,
      "▁gewähl": 2885,
      "▁1988": 2886,
      "schei": 2887,
      "▁Du": 2888,
      "use": 2889,
      "▁7.": 2890,
      "▁Literatur": 2891,
      "ith": 2892,
      "führung": 2893,
      "ern,": 2894,
      "äre": 2895,
      "▁[": 2896,
      "ler,": 2897,
      "-Sch": 2898,
      "▁Tran": 2899,
      "▁Stutt": 2900,
      "▁Website": 2901,
      "ößer": 2902,
      "uren": 2903,
      "▁Seite": 2904,
      "▁Kaiser": 2905,
      "▁Künstler": 2906,
      "bereich": 2907,
      "▁Kloster": 2908,
      "azz": 2909,
      "▁allerdings": 2910,
      "▁Gebiet": 2911,
      "wort": 2912,
      "▁8.": 2913,
      "▁äl": 2914,
      "rim": 2915,
      "▁Wie": 2916,
      "▁erfolgte": 2917,
      "▁Gold": 2918,
      "▁verst": 2919,
      "99": 2920,
      "ski": 2921,
      "76": 2922,
      "▁Alter": 2923,
      "omit": 2924,
      "▁FC": 2925,
      "▁Vater": 2926,
      "dent": 2927,
      "sych": 2928,
      "▁Seine": 2929,
      "solv": 2930,
      "▁11.": 2931,
      "▁Jo": 2932,
      "▁1996": 2933,
      "▁1994": 2934,
      "▁Gesellschaft": 2935,
      "▁Ul": 2936,
      "ernsehser": 2937,
      "▁Konz": 2938,
      "▁Leipzig": 2939,
      "heiten": 2940,
      "druck": 2941,
      "▁erz": 2942,
      "schreib": 2943,
      "sbesondere": 2944,
      "welt": 2945,
      "ames": 2946,
      "ativ": 2947,
      "▁Regie": 2948,
      "74": 2949,
      "mannschaft": 2950,
      "▁Max": 2951,
      "osoph": 2952,
      "▁(Deutsch": 2953,
      "▁\nS": 2954,
      "▁Techn": 2955,
      "▁Ass": 2956,
      "fr": 2957,
      "▁Ep": 2958,
      "dens": 2959,
      "ilder": 2960,
      ".\n\nV": 2961,
      "indung": 2962,
      "▁besteht": 2963,
      "eilnehmer": 2964,
      "tlich": 2965,
      "▁9.": 2966,
      "gen,": 2967,
      "lehrer": 2968,
      "▁Eisen": 2969,
      "▁1997": 2970,
      "fäl": 2971,
      "sweise": 2972,
      "sburg": 2973,
      "▁Lie": 2974,
      "▁Roman": 2975,
      "ors": 2976,
      "▁30": 2977,
      "ve": 2978,
      "fel": 2979,
      "ino": 2980,
      "▁an,": 2981,
      "rainer": 2982,
      "▁Winter": 2983,
      "90": 2984,
      "▁Bad": 2985,
      "▁Mod": 2986,
      ".\n\nDas": 2987,
      "lang": 2988,
      "▁Hier": 2989,
      "▁\n\nA": 2990,
      "▁Olympischen": 2991,
      "▁Bevölker": 2992,
      "ennt": 2993,
      "wald": 2994,
      "auch": 2995,
      "▁Gruppe": 2996,
      "▁Während": 2997,
      "ichtung": 2998,
      "▁bede": 2999,
      "▁Har": 3000,
      "▁italien": 3001,
      "▁(I": 3002,
      "▁Pfarr": 3003,
      "▁Thomas": 3004,
      "▁jeweils": 3005,
      "▁Amt": 3006,
      "▁Ott": 3007,
      ".\n\nH": 3008,
      "▁Män": 3009,
      "▁Des": 3010,
      "▁weiteren": 3011,
      "▁möglich": 3012,
      "▁viele": 3013,
      "ho": 3014,
      "▁besonder": 3015,
      "▁(O": 3016,
      "▁Hann": 3017,
      "▁dah": 3018,
      "▁Ehe": 3019,
      "elig": 3020,
      "hil": 3021,
      "▁wechselte": 3022,
      "▁Rahmen": 3023,
      "▁hinter": 3024,
      "▁vert": 3025,
      "▁ursprün": 3026,
      "▁Theater": 3027,
      "▁Maria": 3028,
      "yd": 3029,
      "▁musste": 3030,
      "▁\n\nDie": 3031,
      "▁1992": 3032,
      "▁(20": 3033,
      "▁weit": 3034,
      "stät": 3035,
      "▁übernahm": 3036,
      "ij": 3037,
      "▁Ko": 3038,
      "▁Institut": 3039,
      "grenz": 3040,
      "unft": 3041,
      "11": 3042,
      "▁blieb": 3043,
      "wür": 3044,
      "äss": 3045,
      "wand": 3046,
      "▁Sol": 3047,
      "aup": 3048,
      "▁\n\nF": 3049,
      "ademie": 3050,
      "bei": 3051,
      "▁On": 3052,
      "▁Norden": 3053,
      "▁Kat": 3054,
      "▁Denk": 3055,
      "uer": 3056,
      "ge,": 3057,
      "▁ließ": 3058,
      "▁Comp": 3059,
      "tin": 3060,
      "n,": 3061,
      "tet.": 3062,
      "low": 3063,
      "östlich": 3064,
      "▁1995": 3065,
      "eier": 3066,
      "duz": 3067,
      "▁folgenden": 3068,
      "98": 3069,
      "ehl": 3070,
      "over": 3071,
      "steh": 3072,
      "üter": 3073,
      "cken": 3074,
      "Ort": 3075,
      "▁schließlich": 3076,
      "▁(200": 3077,
      "line": 3078,
      "ettbe": 3079,
      "-Z": 3080,
      "▁dazu": 3081,
      "inde": 3082,
      "▁Robert": 3083,
      "▁Stat": 3084,
      "▁nord": 3085,
      "▁Pla": 3086,
      "iversität": 3087,
      "öh": 3088,
      "onnen": 3089,
      "▁Mat": 3090,
      "▁Orts": 3091,
      "▁ob": 3092,
      "▁Frankfurt": 3093,
      "45": 3094,
      "▁Klein": 3095,
      "lager": 3096,
      "örper": 3097,
      "▁Raum": 3098,
      "ven": 3099,
      "▁aufgrund": 3100,
      "73": 3101,
      "▁Kol": 3102,
      "ündung": 3103,
      "arbeiten": 3104,
      "▁Ihr": 3105,
      "▁Seiten": 3106,
      "▁Heimat": 3107,
      "urs": 3108,
      "▁Album": 3109,
      "okrat": 3110,
      "▁Dis": 3111,
      "▁Martin": 3112,
      "setzung": 3113,
      "burger": 3114,
      "▁Russ": 3115,
      "▁kein": 3116,
      "▁Entwicklung": 3117,
      "▁welche": 3118,
      "▁gelang": 3119,
      "attung": 3120,
      "iment": 3121,
      "▁Höhe": 3122,
      "▁Ele": 3123,
      "▁Regierung": 3124,
      "▁30.": 3125,
      "▁dav": 3126,
      "oth": 3127,
      "▁Kant": 3128,
      "▁Eigen": 3129,
      "ohen": 3130,
      "weiter": 3131,
      "▁Ku": 3132,
      "eller": 3133,
      "▁Pa": 3134,
      "▁fl": 3135,
      "▁1993": 3136,
      "gart": 3137,
      ".\n\nEr": 3138,
      "▁Os": 3139,
      "▁Il": 3140,
      "ox": 3141,
      "vol": 3142,
      "int": 3143,
      "esser": 3144,
      "berger": 3145,
      "US": 3146,
      "▁Ac": 3147,
      "–200": 3148,
      "geordne": 3149,
      "ari": 3150,
      "▁Besitz": 3151,
      "▁1991": 3152,
      "▁Don": 3153,
      "itglied": 3154,
      "▁eingesetz": 3155,
      "12": 3156,
      "▁verschiedenen": 3157,
      "▁Autor": 3158,
      "ersön": 3159,
      "sen,": 3160,
      "▁besuch": 3161,
      "▁insgesamt": 3162,
      "geber": 3163,
      "name": 3164,
      "ley": 3165,
      "▁Fir": 3166,
      "▁Pap": 3167,
      "▁Bis": 3168,
      "68": 3169,
      "ufen": 3170,
      "ata": 3171,
      "oder": 3172,
      "berg,": 3173,
      "igit": 3174,
      "heits": 3175,
      "▁Gö": 3176,
      "▁Kreuz": 3177,
      "▁Tro": 3178,
      "▁System": 3179,
      "▁hatte,": 3180,
      "issenschaften": 3181,
      ".\n\nZ": 3182,
      "▁Christian": 3183,
      "▁Vier": 3184,
      "cker": 3185,
      "fluss": 3186,
      "▁Rolle": 3187,
      "ary": 3188,
      "rechen": 3189,
      "▁\nB": 3190,
      "▁25": 3191,
      "ld": 3192,
      "stelle": 3193,
      ")\nFußballspieler": 3194,
      "▁Jur": 3195,
      "▁erreichte": 3196,
      "rab": 3197,
      "com": 3198,
      "▁Kommun": 3199,
      "▁Wal": 3200,
      "zeichnungen": 3201,
      "trag": 3202,
      "▁Dienst": 3203,
      "–201": 3204,
      "▁Gro": 3205,
      "▁Andre": 3206,
      "▁ne": 3207,
      "▁Herzog": 3208,
      "oln": 3209,
      "wehr": 3210,
      "▁21.": 3211,
      "▁Mutter": 3212,
      "▁Beispiel": 3213,
      "38": 3214,
      "fan": 3215,
      "▁meist": 3216,
      "▁Mil": 3217,
      "emp": 3218,
      "liga": 3219,
      "räsent": 3220,
      "ter,": 3221,
      "▁Millionen": 3222,
      "▁Fer": 3223,
      "iegel": 3224,
      "17": 3225,
      "schech": 3226,
      "▁Prozent": 3227,
      "▁bestand": 3228,
      "65": 3229,
      ".,": 3230,
      "▁wird.": 3231,
      "▁verh": 3232,
      "echt": 3233,
      ".\n\n19": 3234,
      "▁erneut": 3235,
      "ochen": 3236,
      "▁folgender": 3237,
      "leben": 3238,
      "▁Straße": 3239,
      "verkehr": 3240,
      "läuf": 3241,
      "atten": 3242,
      "die": 3243,
      "scheid": 3244,
      "35": 3245,
      "ail": 3246,
      "▁früher": 3247,
      "▁2,": 3248,
      "▁(V": 3249,
      "ibliothe": 3250,
      "denkmal": 3251,
      "ars": 3252,
      "gebäude": 3253,
      "▁50": 3254,
      ".\n\nM": 3255,
      "füg": 3256,
      "▁gil": 3257,
      "-O": 3258,
      "▁Inform": 3259,
      "fest": 3260,
      "vent": 3261,
      "allen": 3262,
      "einander": 3263,
      "fasst": 3264,
      "orge": 3265,
      "▁oft": 3266,
      "9),": 3267,
      "▁leb": 3268,
      "wär": 3269,
      "-2": 3270,
      "aint": 3271,
      "▁röm": 3272,
      "▁kommt": 3273,
      "▁Bu": 3274,
      "▁Dabei": 3275,
      "ikation": 3276,
      "48": 3277,
      "▁Anton": 3278,
      "▁di": 3279,
      "eisten": 3280,
      "ment": 3281,
      "▁größer": 3282,
      "▁ein.": 3283,
      "▁dien": 3284,
      "▁Deutsche": 3285,
      "▁Zug": 3286,
      "meisterschaft": 3287,
      "ürk": 3288,
      "ette": 3289,
      "gebie": 3290,
      "egr": 3291,
      "verband": 3292,
      "ool": 3293,
      "▁erfolgreich": 3294,
      "▁statt": 3295,
      "erstör": 3296,
      "▁Produktion": 3297,
      "amens": 3298,
      "▁Professor": 3299,
      "alz": 3300,
      "gruppe": 3301,
      "de,": 3302,
      "▁25.": 3303,
      "▁Kriegs": 3304,
      "own": 3305,
      "ürt": 3306,
      "▁Ap": 3307,
      "▁Mont": 3308,
      "treten": 3309,
      "ollen": 3310,
      "lech": 3311,
      "▁(Aus": 3312,
      "ican": 3313,
      "▁russ": 3314,
      "▁Et": 3315,
      "▁Sozial": 3316,
      "▁1980": 3317,
      "▁Verlag,": 3318,
      "...": 3319,
      "▁Wieder": 3320,
      "▁1978": 3321,
      "ram": 3322,
      "see": 3323,
      "immen": 3324,
      "lan": 3325,
      "▁Sen": 3326,
      "▁Hen": 3327,
      "▁Zahl": 3328,
      "ines": 3329,
      "▁Spr": 3330,
      "▁Vereinigten": 3331,
      "▁Bedeut": 3332,
      "▁DDR": 3333,
      "seite": 3334,
      "▁Italien": 3335,
      "▁Weg": 3336,
      "baut": 3337,
      "▁Tal": 3338,
      "radition": 3339,
      "unn": 3340,
      "▁bew": 3341,
      "land)\n": 3342,
      "▁Auflage": 3343,
      "stieg": 3344,
      "▁Militär": 3345,
      "fred": 3346,
      "▁()": 3347,
      "ham": 3348,
      "▁schwer": 3349,
      "9,": 3350,
      "▁Holz": 3351,
      "▁dan": 3352,
      "▁2023": 3353,
      "▁Comm": 3354,
      "▁1968": 3355,
      "eiger": 3356,
      "gestellt": 3357,
      "ätze": 3358,
      "▁engl": 3359,
      "bes": 3360,
      "▁to": 3361,
      "eder": 3362,
      "iert.\n\n": 3363,
      "▁As": 3364,
      "okal": 3365,
      "olitik": 3366,
      "▁insbesondere": 3367,
      "▁Feld": 3368,
      "▁starb": 3369,
      "ymn": 3370,
      "▁zähl": 3371,
      "sprech": 3372,
      "nt": 3373,
      "schreibung": 3374,
      "▁reg": 3375,
      "▁ehemaligen": 3376,
      "▁Beginn": 3377,
      "schafts": 3378,
      "▁ober": 3379,
      "erner": 3380,
      "▁gegenüber": 3381,
      "genden": 3382,
      "▁Ins": 3383,
      "▁auf,": 3384,
      "anischen": 3385,
      "▁stamm": 3386,
      "▁Insel": 3387,
      "▁Kal": 3388,
      "▁(„": 3389,
      "▁1970": 3390,
      "▁Frü": 3391,
      "▁häuf": 3392,
      "▁Punk": 3393,
      "igh": 3394,
      "▁Tri": 3395,
      "▁Mos": 3396,
      ".\n\nAm": 3397,
      "33": 3398,
      "eigt": 3399,
      "kten": 3400,
      "stag": 3401,
      "istische": 3402,
      "▁Schweiz": 3403,
      "anien": 3404,
      "ile": 3405,
      "richtung": 3406,
      "ekte": 3407,
      "ummer": 3408,
      "▁Gef": 3409,
      "ution": 3410,
      "▁Tre": 3411,
      ".\n\nT": 3412,
      "“)": 3413,
      "▁Einzel": 3414,
      "onz": 3415,
      "▁Eur": 3416,
      "eis": 3417,
      "▁Amts": 3418,
      "oz": 3419,
      "omen": 3420,
      "▁Park": 3421,
      "▁22.": 3422,
      "führt": 3423,
      "▁Ernst": 3424,
      "▁Ortsteil": 3425,
      "▁Af": 3426,
      "▁Stuttgart": 3427,
      "oppel": 3428,
      "▁Zwischen": 3429,
      "s\n": 3430,
      "▁Regel": 3431,
      "-In": 3432,
      "▁Halb": 3433,
      "lungs": 3434,
      "▁Geh": 3435,
      "annt": 3436,
      "gef": 3437,
      "los": 3438,
      "rän": 3439,
      "tler": 3440,
      "▁William": 3441,
      "▁erhalten": 3442,
      "▁sol": 3443,
      "ieren.": 3444,
      "rägt": 3445,
      "iken": 3446,
      "▁Ziel": 3447,
      "▁angeb": 3448,
      "▁innerhalb": 3449,
      "komm": 3450,
      "gen.": 3451,
      "▁Markt": 3452,
      "▁zehn": 3453,
      "liches": 3454,
      "▁26.": 3455,
      "▁führt": 3456,
      "ane": 3457,
      "t.\n": 3458,
      "arlament": 3459,
      "aß": 3460,
      "▁Europa": 3461,
      "ustrie": 3462,
      "ikanischen": 3463,
      "omat": 3464,
      "gangen": 3465,
      "▁Dam": 3466,
      "▁Gast": 3467,
      "▁Dieser": 3468,
      "▁bestimm": 3469,
      "▁fast": 3470,
      "95": 3471,
      "ehm": 3472,
      "uchs": 3473,
      "▁Köln": 3474,
      "▁Kurz": 3475,
      "▁Straßen": 3476,
      "▁du": 3477,
      "für": 3478,
      "▁Vertrag": 3479,
      "▁Fall": 3480,
      "▁\n\nS": 3481,
      "▁national": 3482,
      "usätz": 3483,
      "ois": 3484,
      "akter": 3485,
      "▁gelegen": 3486,
      "▁24.": 3487,
      "▁Syn": 3488,
      "stra": 3489,
      "▁Außer": 3490,
      "fried": 3491,
      "▁Verwaltungs": 3492,
      "27": 3493,
      "▁Den": 3494,
      "▁(Sch": 3495,
      "▁Städ": 3496,
      "▁28.": 3497,
      "ben.": 3498,
      "▁Sachsen": 3499,
      "▁(s": 3500,
      "zeitig": 3501,
      "▁23.": 3502,
      "arbeiter": 3503,
      "▁Journal": 3504,
      "irektor": 3505,
      "▁Rest": 3506,
      "▁ab.": 3507,
      "▁Johannes": 3508,
      "▁ro": 3509,
      "ameister": 3510,
      "▁beleg": 3511,
      "bezirk": 3512,
      "▁Award": 3513,
      "ood": 3514,
      "▁eigenen": 3515,
      "erei": 3516,
      ")\n\nEinzelnachweise": 3517,
      "▁Lang": 3518,
      "▁Arme": 3519,
      "▁Fot": 3520,
      "schullehrer": 3521,
      "▁zweite": 3522,
      "▁Gi": 3523,
      "▁aus.": 3524,
      "▁Ren": 3525,
      "ca": 3526,
      "▁hatten": 3527,
      "▁Bur": 3528,
      "uel": 3529,
      "racht": 3530,
      "▁1987": 3531,
      "affel": 3532,
      "▁1972": 3533,
      "▁zog": 3534,
      "▁gesam": 3535,
      "▁Rec": 3536,
      "▁ind": 3537,
      "▁davon": 3538,
      "▁1984": 3539,
      "▁Gesamt": 3540,
      "umb": 3541,
      "ight": 3542,
      "▁Wir": 3543,
      "mb": 3544,
      "▁ev": 3545,
      "▁(=": 3546,
      "le,": 3547,
      "inner": 3548,
      "▁Rud": 3549,
      "▁Beh": 3550,
      "▁J.": 3551,
      "▁Funktion": 3552,
      "inal": 3553,
      ".\n\nG": 3554,
      "DF": 3555,
      "fahrt": 3556,
      "okument": 3557,
      "▁Dreh": 3558,
      "▁Zur": 3559,
      "▁Arbeits": 3560,
      "▁darunter": 3561,
      "▁Minister": 3562,
      "▁Sied": 3563,
      "▁Mer": 3564,
      "▁muss": 3565,
      "\n|": 3566,
      "64": 3567,
      "ole": 3568,
      "▁\n\nB": 3569,
      "▁sieben": 3570,
      "▁komp": 3571,
      "▁Charl": 3572,
      "ime": 3573,
      "▁27.": 3574,
      "ese": 3575,
      "▁üb": 3576,
      "58": 3577,
      "▁Akt": 3578,
      "abel": 3579,
      "34": 3580,
      "▁heutigen": 3581,
      "ständig": 3582,
      "▁Air": 3583,
      "▁öff": 3584,
      "▁\nIn": 3585,
      "▁sollte": 3586,
      "▁wurden.": 3587,
      "▁gilt": 3588,
      "▁Spieler": 3589,
      "ford": 3590,
      "▁en": 3591,
      "ucht": 3592,
      "▁Hel": 3593,
      "▁Fort": 3594,
      "lass": 3595,
      "PD": 3596,
      "schlag": 3597,
      "ffizielle": 3598,
      "▁Char": 3599,
      "▁v.": 3600,
      "▁ar": 3601,
      "rist": 3602,
      "▁Schule": 3603,
      "▁Ang": 3604,
      "produ": 3605,
      "ing,": 3606,
      "▁Bayern": 3607,
      "ia,": 3608,
      "anzen": 3609,
      "ilde": 3610,
      "▁meisten": 3611,
      "▁bekannt": 3612,
      "▁Gre": 3613,
      "ündete": 3614,
      "entral": 3615,
      "▁Dist": 3616,
      "▁allen": 3617,
      "▁Zür": 3618,
      "▁1986": 3619,
      "gesellschaft": 3620,
      "▁Kü": 3621,
      "rück": 3622,
      "▁Hor": 3623,
      "▁Joseph": 3624,
      "ieger": 3625,
      "forder": 3626,
      "▁Bruder": 3627,
      "▁Vorsitz": 3628,
      "ordnung": 3629,
      "forsch": 3630,
      "ome": 3631,
      ".\n\nN": 3632,
      "▁Ta": 3633,
      "▁absolv": 3634,
      "räge": 3635,
      "▁Dres": 3636,
      "asil": 3637,
      "endete": 3638,
      "▁französischen": 3639,
      "▁Frie": 3640,
      "y.": 3641,
      "▁Wissenschaft": 3642,
      "ession": 3643,
      "äischen": 3644,
      "Verein": 3645,
      "▁(Auswahl": 3646,
      "▁zeit": 3647,
      "▁Süden": 3648,
      "gest": 3649,
      "ival": 3650,
      "94": 3651,
      "▁also": 3652,
      "▁1960": 3653,
      "▁Cal": 3654,
      "iew": 3655,
      "licht": 3656,
      "preis": 3657,
      "II": 3658,
      "▁Geschäft": 3659,
      "ative": 3660,
      "\n\nB": 3661,
      "▁Leist": 3662,
      "96": 3663,
      "upp": 3664,
      "zü": 3665,
      "was": 3666,
      "spro": 3667,
      "edaille": 3668,
      "oden": 3669,
      "▁Schutz": 3670,
      "ymnas": 3671,
      "orth": 3672,
      "▁Bahnhof": 3673,
      "abhäng": 3674,
      "▁Otto": 3675,
      "▁Che": 3676,
      "ettbewerb": 3677,
      "77": 3678,
      "▁deut": 3679,
      "▁unterschied": 3680,
      "▁We": 3681,
      "▁Richard": 3682,
      "▁||": 3683,
      "aterial": 3684,
      "▁Math": 3685,
      "▁Führ": 3686,
      "▁Main": 3687,
      "▁Rot": 3688,
      "▁1985": 3689,
      "▁David": 3690,
      "▁ä": 3691,
      "schaff": 3692,
      "▁A.": 3693,
      "▁1974": 3694,
      "▁weil": 3695,
      "mark": 3696,
      "▁\nIm": 3697,
      "▁Daten": 3698,
      "▁kommen": 3699,
      "▁29.": 3700,
      "exik": 3701,
      "isseur": 3702,
      "▁Stu": 3703,
      "▁damals": 3704,
      "oy": 3705,
      "▁Tra": 3706,
      "▁acht": 3707,
      "illa": 3708,
      "izei": 3709,
      "▁Beruf": 3710,
      "achen": 3711,
      "▁Stad": 3712,
      "▁Soc": 3713,
      "▁Rund": 3714,
      "istik": 3715,
      "öt": 3716,
      "▁genutz": 3717,
      "ürttem": 3718,
      "▁ca.": 3719,
      "ranken": 3720,
      "stad": 3721,
      "▁1938": 3722,
      "las": 3723,
      "ibliothek": 3724,
      "ären": 3725,
      "▁mittel": 3726,
      "▁Bor": 3727,
      "ake": 3728,
      "▁Po": 3729,
      "▁Reichs": 3730,
      "▁Gut": 3731,
      "ikt": 3732,
      "▁Ag": 3733,
      "nam": 3734,
      "▁Hinter": 3735,
      "-,": 3736,
      "omot": 3737,
      "▁My": 3738,
      "bel": 3739,
      "▁1933": 3740,
      "▁Schriftsteller": 3741,
      "bruch": 3742,
      "ivision": 3743,
      "wasser": 3744,
      "▁em": 3745,
      "▁Oper": 3746,
      "mann,": 3747,
      "▁z.": 3748,
      "▁„B": 3749,
      "▁hinaus": 3750,
      "▁(190": 3751,
      "ig,": 3752,
      "lichkeit": 3753,
      "▁wür": 3754,
      "▁gemeinsam": 3755,
      "▁Fluss": 3756,
      "▁Lau": 3757,
      "onen": 3758,
      "▁Franc": 3759,
      "▁Sim": 3760,
      "▁bisher": 3761,
      "▁höch": 3762,
      "▁Gar": 3763,
      "▁erwähn": 3764,
      "wendung": 3765,
      "▁erm": 3766,
      "▁sowohl": 3767,
      "▁.": 3768,
      "▁Sing": 3769,
      "folger": 3770,
      "wagen": 3771,
      "ene": 3772,
      "▁lange": 3773,
      "▁Kirch": 3774,
      "▁sogen": 3775,
      "ennung": 3776,
      "▁reich": 3777,
      "▁40": 3778,
      "ikel": 3779,
      "▁\nE": 3780,
      "▁Drei": 3781,
      "us,": 3782,
      "anal": 3783,
      "▁zahlreiche": 3784,
      "93": 3785,
      "ässt": 3786,
      "gegen": 3787,
      "▁danach": 3788,
      "▁Gest": 3789,
      "gericht": 3790,
      "ull": 3791,
      "▁siehe": 3792,
      "gement": 3793,
      "▁Bot": 3794,
      "66": 3795,
      "▁„A": 3796,
      "is,": 3797,
      "stens": 3798,
      "▁Verkehr": 3799,
      "blem": 3800,
      "▁verschiedene": 3801,
      "▁versuch": 3802,
      "test": 3803,
      "▁zudem": 3804,
      "ben,": 3805,
      "▁Turn": 3806,
      "▁Preis": 3807,
      "▁besteh": 3808,
      "ager": 3809,
      "rachte": 3810,
      "▁1920": 3811,
      "▁Plan": 3812,
      "▁1983": 3813,
      "▁Song": 3814,
      "▁Lou": 3815,
      "wohl": 3816,
      "▁Sam": 3817,
      "▁World": 3818,
      "rivat": 3819,
      "▁1975": 3820,
      "▁Kin": 3821,
      "▁Hin": 3822,
      "▁Saint": 3823,
      "alten": 3824,
      "iker\n": 3825,
      "▁alten": 3826,
      "isch-k": 3827,
      "lag,": 3828,
      "▁besitz": 3829,
      "sen.": 3830,
      "▁Mad": 3831,
      "▁3-8": 3832,
      "▁(z": 3833,
      "obil": 3834,
      "\nP": 3835,
      "iller": 3836,
      "▁1982": 3837,
      "88": 3838,
      "hang": 3839,
      "riech": 3840,
      "▁Republik": 3841,
      "▁Les": 3842,
      "ktor": 3843,
      "▁Colle": 3844,
      "reise": 3845,
      "▁Rang": 3846,
      "ateg": 3847,
      "▁Bed": 3848,
      "alität": 3849,
      "ungen.": 3850,
      "▁Richtung": 3851,
      "▁folgte": 3852,
      "▁wei": 3853,
      "▁1979": 3854,
      "▁doch": 3855,
      "▁damal": 3856,
      "▁Sand": 3857,
      "best": 3858,
      "▁on": 3859,
      "ja": 3860,
      "▁Hermann": 3861,
      "äß": 3862,
      "-An": 3863,
      "-Welt": 3864,
      "▁Ersten": 3865,
      "▁eröff": 3866,
      "▁1976": 3867,
      "▁Außerdem": 3868,
      ")\nS": 3869,
      "▁woll": 3870,
      "aren": 3871,
      "▁Hei": 3872,
      "▁Chem": 3873,
      "▁zuvor": 3874,
      "ches": 3875,
      "▁Präsident": 3876,
      "▁(J": 3877,
      "ächlich": 3878,
      "dien": 3879,
      "▁1969": 3880,
      "ital": 3881,
      "zy": 3882,
      "▁Karriere": 3883,
      "spielsweise": 3884,
      "▁Studium": 3885,
      "▁Mc": 3886,
      "ichter": 3887,
      "▁ähn": 3888,
      "älfte": 3889,
      "▁Silber": 3890,
      "▁Not": 3891,
      "▁Ton": 3892,
      "fter": 3893,
      "je": 3894,
      "eint": 3895,
      "▁Stift": 3896,
      "▁Bach": 3897,
      "-Pro": 3898,
      "rauch": 3899,
      "▁ant": 3900,
      "pfer": 3901,
      "land,": 3902,
      "▁Ged": 3903,
      "ändern": 3904,
      "plan": 3905,
      "55": 3906,
      "▁Mel": 3907,
      "▁31.": 3908,
      "heater": 3909,
      "last": 3910,
      "▁End": 3911,
      "annten": 3912,
      "ama": 3913,
      "i.": 3914,
      "▁1971": 3915,
      "för": 3916,
      ")\nT": 3917,
      "stück": 3918,
      "rieges": 3919,
      "▁Nachdem": 3920,
      "▁bevor": 3921,
      "▁gut": 3922,
      "ritte": 3923,
      "▁Ir": 3924,
      "▁Gebie": 3925,
      "▁Typ": 3926,
      "▁d’": 3927,
      "▁1950": 3928,
      "▁:": 3929,
      "▁Kont": 3930,
      "▁Westen": 3931,
      "hö": 3932,
      "afür": 3933,
      "alle": 3934,
      "▁Philosoph": 3935,
      "\n\nF": 3936,
      "▁beteil": 3937,
      "▁besonders": 3938,
      "▁1973": 3939,
      "meisterschaften": 3940,
      "–20": 3941,
      "kur": 3942,
      "\nE": 3943,
      "entlichen": 3944,
      "gebau": 3945,
      "▁schn": 3946,
      "ask": 3947,
      "▁Akademie": 3948,
      "▁1939": 3949,
      "▁1958": 3950,
      "▁Erd": 3951,
      "▁City": 3952,
      "▁1981": 3953,
      "▁Jazz": 3954,
      "\nH": 3955,
      "▁Osten": 3956,
      "▁Geist": 3957,
      "gerichte": 3958,
      "▁findet": 3959,
      "▁Bedeutung": 3960,
      "▁Philipp": 3961,
      "▁hoch": 3962,
      "▁Ehren": 3963,
      "▁Walter": 3964,
      "▁hatte.": 3965,
      "ele": 3966,
      "stab": 3967,
      "▁Com": 3968,
      "appen": 3969,
      "flug": 3970,
      "▁Königreich": 3971,
      "▁sind.": 3972,
      "ürttemberg": 3973,
      "▁Beit": 3974,
      "altung": 3975,
      "▁Klasse": 3976,
      "ume": 3977,
      "au,": 3978,
      "sozial": 3979,
      "▁Krit": 3980,
      "enen": 3981,
      "▁kehr": 3982,
      "▁Sant": 3983,
      "ike": 3984,
      "inc": 3985,
      "▁Mitglieder": 3986,
      "▁Pe": 3987,
      "▁(20.": 3988,
      "▁Pet": 3989,
      "oot": 3990,
      "▁schrieb": 3991,
      "ance": 3992,
      "▁häufig": 3993,
      "▁Boden": 3994,
      "ern.": 3995,
      "zeuge": 3996,
      "▁sozial": 3997,
      "zt": 3998,
      "ote": 3999,
      "serv": 4000,
      "sdorf": 4001,
      "way": 4002,
      "▁übern": 4003,
      "ros": 4004,
      "▁leben": 4005,
      "▁(201": 4006,
      "36": 4007,
      "beck": 4008,
      "▁Reihe": 4009,
      "tum": 4010,
      "▁Ergeb": 4011,
      "▁Berliner": 4012,
      "weit": 4013,
      "itu": 4014,
      "▁Bevölkerung": 4015,
      "▁Fernseh": 4016,
      "▁1964": 4017,
      "▁Japan": 4018,
      "des": 4019,
      "▁Pra": 4020,
      "stat": 4021,
      "▁Nä": 4022,
      "urf": 4023,
      "▁Rein": 4024,
      "▁Baden": 4025,
      "▁Salz": 4026,
      "▁teilweise": 4027,
      "▁lassen": 4028,
      "▁Wein": 4029,
      "ädag": 4030,
      "zess": 4031,
      "frei": 4032,
      "mund": 4033,
      "▁Press": 4034,
      "iw": 4035,
      "▁1944": 4036,
      "▁Hom": 4037,
      "▁aufgenommen": 4038,
      "▁See": 4039,
      "▁stellte": 4040,
      "fra": 4041,
      "▁erziel": 4042,
      "▁wahr": 4043,
      "▁Studien": 4044,
      "▁lag": 4045,
      "üll": 4046,
      "da": 4047,
      "ik,": 4048,
      "mäßig": 4049,
      "▁Zürich": 4050,
      "iol": 4051,
      "31": 4052,
      "▁Dom": 4053,
      "w.": 4054,
      "▁Fra": 4055,
      "itsch": 4056,
      "▁erklär": 4057,
      "lust": 4058,
      "mbH": 4059,
      "▁ho": 4060,
      "▁1977": 4061,
      "▁Pass": 4062,
      "▁Ka": 4063,
      "▁Gemeinden": 4064,
      "▁Mehr": 4065,
      "▁Eben": 4066,
      "▁Ach": 4067,
      "97": 4068,
      "führer": 4069,
      "dam": 4070,
      "-Universität": 4071,
      "dete": 4072,
      "▁Denkmal": 4073,
      "▁Regie:": 4074,
      "igur": 4075,
      "▁Komponist": 4076,
      "öhn": 4077,
      "▁Wa": 4078,
      "▁müs": 4079,
      "mo": 4080,
      "▁wissenschaft": 4081,
      "üler": 4082,
      "ertig": 4083,
      "▁inter": 4084,
      "▁Op": 4085,
      ".\n\nR": 4086,
      "get": 4087,
      "▁beispielsweise": 4088,
      "anische": 4089,
      "▁unterstütz": 4090,
      "rep": 4091,
      "\nR": 4092,
      "irks": 4093,
      "immer": 4094,
      "▁Sänger": 4095,
      "▁(Auswahl)": 4096,
      "▁Wolfgang": 4097,
      "▁Chor": 4098,
      "▁1948": 4099,
      "92": 4100,
      "ösung": 4101,
      "strecke": 4102,
      "▁American": 4103,
      "isch-kathol": 4104,
      "etten": 4105,
      "▁Spiele": 4106,
      "lingen": 4107,
      "▁Prä": 4108,
      "44": 4109,
      "legt": 4110,
      "▁1967": 4111,
      "▁Schwer": 4112,
      "▁Serie": 4113,
      "▁größten": 4114,
      "▁spez": 4115,
      "kreuz": 4116,
      "▁setzte": 4117,
      "band": 4118,
      "ace": 4119,
      "rigen": 4120,
      "ets": 4121,
      "▁Begriff": 4122,
      "ema": 4123,
      "▁Far": 4124,
      "yc": 4125,
      "▁erk": 4126,
      "▁1:": 4127,
      "orte": 4128,
      "▁nachdem": 4129,
      "▁Brit": 4130,
      "\nFrau": 4131,
      "▁etwas": 4132,
      "▁Post": 4133,
      "▁Hannover": 4134,
      "▁or": 4135,
      "▁Kind": 4136,
      "▁Parlament": 4137,
      "▁fort": 4138,
      "t.\n\nA": 4139,
      "▁(mit": 4140,
      "ington": 4141,
      "▁Hälfte": 4142,
      "▁hervor": 4143,
      "▁Zeich": 4144,
      "71": 4145,
      "by": 4146,
      "▁Red": 4147,
      "▁geht": 4148,
      "▁Selbst": 4149,
      "▁finden": 4150,
      "itten": 4151,
      "zentrum": 4152,
      "▁Freund": 4153,
      "z,": 4154,
      "▁entfern": 4155,
      "▁Männer": 4156,
      "91": 4157,
      "▁Motor": 4158,
      "▁Hu": 4159,
      "▁Leag": 4160,
      "ko": 4161,
      "▁Jean": 4162,
      "▁Pfl": 4163,
      "gän": 4164,
      "▁Bürgermeister": 4165,
      "▁Sieg": 4166,
      "haupt": 4167,
      "▁japan": 4168,
      "ios": 4169,
      "ächen": 4170,
      "owjet": 4171,
      "▁(Stand": 4172,
      "▁Albert": 4173,
      "▁per": 4174,
      "zehn": 4175,
      "▁Alexander": 4176,
      "gelöst": 4177,
      "▁konnten": 4178,
      "ien.": 4179,
      "yt": 4180,
      "▁Hessen": 4181,
      "\n\nSiehe": 4182,
      "ano": 4183,
      "▁näch": 4184,
      "▁Text": 4185,
      "▁Gesetz": 4186,
      "burg,": 4187,
      "irg": 4188,
      "uter": 4189,
      "▁besuchte": 4190,
      "▁amer": 4191,
      "▁1966": 4192,
      "gehend": 4193,
      "ena": 4194,
      "olden": 4195,
      "äuser": 4196,
      "▁Fel": 4197,
      "werke": 4198,
      "▁ihnen": 4199,
      "▁Intern": 4200,
      "▁Regen": 4201,
      "▁1940": 4202,
      "itäten": 4203,
      "▁Del": 4204,
      "▁Sicher": 4205,
      "▁1965": 4206,
      "▁letzte": 4207,
      "ini": 4208,
      "nach": 4209,
      "ar,": 4210,
      "ächs": 4211,
      "gress": 4212,
      "▁verlie": 4213,
      "▁europ": 4214,
      "ymnasium": 4215,
      "▁absolvierte": 4216,
      "▁Spitz": 4217,
      "▁statt.": 4218,
      "▁zusätz": 4219,
      "▁Zum": 4220,
      "finale": 4221,
      "glichen": 4222,
      "gende": 4223,
      "ón": 4224,
      "▁Arm": 4225,
      "spielen": 4226,
      "▁Prinz": 4227,
      "ona": 4228,
      "anlage": 4229,
      "▁Kampf": 4230,
      "\n\nWeblinks\n\nEinzelnachweise": 4231,
      "▁Austr": 4232,
      "aud": 4233,
      "haft": 4234,
      "stellungen": 4235,
      "rick": 4236,
      "struktur": 4237,
      "ikal": 4238,
      "▁ursprünglich": 4239,
      "eldorf": 4240,
      "▁Bd.": 4241,
      "adurch": 4242,
      "andid": 4243,
      "▁Eisenbahn": 4244,
      "etter": 4245,
      "elt.": 4246,
      "reite": 4247,
      "▁Nik": 4248,
      "ction": 4249,
      "fläche": 4250,
      "▁GmbH": 4251,
      "l.": 4252,
      "ouver": 4253,
      "▁Innen": 4254,
      "tex": 4255,
      "weis": 4256,
      "bischof": 4257,
      "▁Projekt": 4258,
      "▁ersetz": 4259,
      "▁M.": 4260,
      "▁Erw": 4261,
      "▁get": 4262,
      "abrik": 4263,
      "▁kleine": 4264,
      "V.": 4265,
      "▁Chr.": 4266,
      "▁Super": 4267,
      "tement": 4268,
      "▁Nachfolger": 4269,
      "▁„M": 4270,
      "beh": 4271,
      "in.": 4272,
      "▁Nutz": 4273,
      "▁Viz": 4274,
      "▁Früh": 4275,
      "förm": 4276,
      "▁Vo": 4277,
      "zähl": 4278,
      "▁Druck": 4279,
      "▁Han": 4280,
      "85": 4281,
      "▁deutlich": 4282,
      "ingt": 4283,
      "▁Cor": 4284,
      "▁1963": 4285,
      "▁eigene": 4286,
      "▁Landtag": 4287,
      "ologische": 4288,
      "rief": 4289,
      "▁einigen": 4290,
      "ligen": 4291,
      "uhr": 4292,
      "erb": 4293,
      "angs": 4294,
      "leist": 4295,
      "alog": 4296,
      "▁bek": 4297,
      "row": 4298,
      "▁daher": 4299,
      "▁kleinen": 4300,
      "▁Fil": 4301,
      "al,": 4302,
      "▁Kor": 4303,
      "▁Arten": 4304,
      "–194": 4305,
      "▁1961": 4306,
      "63": 4307,
      "▁bedeuten": 4308,
      "agement": 4309,
      "ima": 4310,
      "iber": 4311,
      "rüf": 4312,
      "▁verheira": 4313,
      "▁Masch": 4314,
      "law": 4315,
      "▁kn": 4316,
      "▁Wind": 4317,
      "ologischen": 4318,
      "▁Ritter": 4319,
      "gegeben": 4320,
      "▁unbe": 4321,
      "▁heira": 4322,
      "reif": 4323,
      "▁1962": 4324,
      "▁Preuß": 4325,
      "organis": 4326,
      "▁star": 4327,
      "▁*": 4328,
      "▁gleichen": 4329,
      "▁Inn": 4330,
      "▁kathol": 4331,
      "▁produz": 4332,
      "▁Stamm": 4333,
      "met": 4334,
      "rhein": 4335,
      "▁Nähe": 4336,
      "▁offen": 4337,
      "▁erster": 4338,
      "▁Josef": 4339,
      "din": 4340,
      "wirk": 4341,
      "▁Sold": 4342,
      "kund": 4343,
      "▁poln": 4344,
      "▁vielen": 4345,
      "▁regel": 4346,
      "▁Kraft": 4347,
      "frau": 4348,
      "ache": 4349,
      "▁Rat": 4350,
      "▁nor": 4351,
      "▁südlich": 4352,
      "▁französischer": 4353,
      "uc": 4354,
      "▁CD": 4355,
      "Geschichte": 4356,
      "schriften": 4357,
      "▁folgende": 4358,
      "▁Mül": 4359,
      "▁wes": 4360,
      "▁Val": 4361,
      "▁1946": 4362,
      "▁habe": 4363,
      "▁(Deutschland)\n": 4364,
      "erv": 4365,
      "72": 4366,
      "as,": 4367,
      "▁hö": 4368,
      "▁\nNach": 4369,
      "schließlich": 4370,
      "▁van": 4371,
      "▁Programm": 4372,
      "▁Wirtschafts": 4373,
      "ora": 4374,
      "53": 4375,
      "museum": 4376,
      "▁Gleich": 4377,
      "▁befinden": 4378,
      "▁Pri": 4379,
      "▁schloss": 4380,
      "▁Bank": 4381,
      "▁direkt": 4382,
      "84": 4383,
      "▁978-3-8": 4384,
      "▁1956": 4385,
      "\nEr": 4386,
      "▁somit": 4387,
      "▁erf": 4388,
      "▁Lage": 4389,
      "üsseldorf": 4390,
      "54": 4391,
      "▁Braun": 4392,
      "-Amer": 4393,
      "wiegend": 4394,
      "▁Leiter": 4395,
      "▁wird,": 4396,
      "▁0,": 4397,
      "recken": 4398,
      "▁außerdem": 4399,
      "aktion": 4400,
      "uck": 4401,
      "▁Spielen": 4402,
      "vert": 4403,
      "▁Arn": 4404,
      "schuss": 4405,
      "▁neun": 4406,
      "äuft": 4407,
      "▁sog": 4408,
      "irche": 4409,
      "ierungen": 4410,
      "▁Rock": 4411,
      "▁Turm": 4412,
      "ie.": 4413,
      "▁steh": 4414,
      "jährigen": 4415,
      "▁evangel": 4416,
      "▁Zeitschrift": 4417,
      "▁Regierungs": 4418,
      "ation,": 4419,
      "▁veröffentlichte": 4420,
      "ola": 4421,
      "wesen": 4422,
      "rang": 4423,
      "▁Lo": 4424,
      "▁Dr.": 4425,
      "▁ehemalige": 4426,
      "86": 4427,
      "uft": 4428,
      "▁Grab": 4429,
      "udem": 4430,
      "schwei": 4431,
      "▁mehreren": 4432,
      "tens": 4433,
      "kel": 4434,
      "t.\n\nS": 4435,
      "iens": 4436,
      "▁dafür": 4437,
      "▁Bezeichnung": 4438,
      "ics": 4439,
      "▁Wh": 4440,
      "▁Münch": 4441,
      "▁Werke": 4442,
      "▁Psych": 4443,
      "▁lässt": 4444,
      "▁Ast": 4445,
      "▁mm": 4446,
      "▁zwar": 4447,
      "deutsch": 4448,
      ".\n\nWeblinks\n\nEinzelnachweise": 4449,
      "mel": 4450,
      "▁Strecke": 4451,
      "arn": 4452,
      "▁Uhr": 4453,
      "▁Hall": 4454,
      "iesen": 4455,
      "gten": 4456,
      "▁in:": 4457,
      "▁Untersuch": 4458,
      "ochschullehrer": 4459,
      "leb": 4460,
      "▁Jac": 4461,
      "▁Feuer": 4462,
      "▁einfach": 4463,
      "▁zerstör": 4464,
      "▁1952": 4465,
      "▁anschließend": 4466,
      "▁Ath": 4467,
      "latz": 4468,
      "▁zeigt": 4469,
      "▁Elekt": 4470,
      "▁exist": 4471,
      "▁einmal": 4472,
      "▁Hau": 4473,
      "▁County": 4474,
      "▁kamen": 4475,
      "ico": 4476,
      "▁österreichischer": 4477,
      "▁„K": 4478,
      "aupts": 4479,
      "etzt": 4480,
      "▁Armee": 4481,
      "-Al": 4482,
      "▁beide": 4483,
      "▁mittler": 4484,
      "antwort": 4485,
      "▁Kom": 4486,
      "▁nördlich": 4487,
      "▁Orgel": 4488,
      "▁Bezirk": 4489,
      "ieß": 4490,
      "▁Angel": 4491,
      "ierter": 4492,
      "▁Son": 4493,
      "ella": 4494,
      "▁elekt": 4495,
      "▁tro": 4496,
      "▁ein,": 4497,
      "mon": 4498,
      "▁George": 4499,
      "▁gründete": 4500,
      "führt.": 4501,
      "▁(Verein": 4502,
      "▁Sin": 4503,
      "oper": 4504,
      "edizin": 4505,
      "▁ihres": 4506,
      "▁aus,": 4507,
      "kauf": 4508,
      "egründet": 4509,
      "▁befand": 4510,
      "tet,": 4511,
      "kap": 4512,
      "▁Lü": 4513,
      "erin": 4514,
      "ühle": 4515,
      "▁H.": 4516,
      "▁dritten": 4517,
      "▁Energ": 4518,
      "▁1959": 4519,
      "▁Bla": 4520,
      "uther": 4521,
      ")\nE": 4522,
      "emann": 4523,
      "▁Danach": 4524,
      "hei": 4525,
      "▁Verf": 4526,
      "▁Herren": 4527,
      "▁zurück.": 4528,
      "▁Ros": 4529,
      "▁Tage": 4530,
      "iers": 4531,
      "▁cm": 4532,
      "▁Kateg": 4533,
      "▁klass": 4534,
      "zirks": 4535,
      "▁1949": 4536,
      "▁Maß": 4537,
      "▁Wert": 4538,
      "▁leite": 4539,
      "▁Ven": 4540,
      "▁Mensch": 4541,
      "án": 4542,
      "▁Pil": 4543,
      "/0": 4544,
      "▁Deb": 4545,
      "▁gehören": 4546,
      "▁AG": 4547,
      "▁Zentrum": 4548,
      "▁Offizielle": 4549,
      "▁21": 4550,
      "▁Stil": 4551,
      "▁weniger": 4552,
      "▁3,": 4553,
      "ict": 4554,
      "ner,": 4555,
      "▁Königs": 4556,
      "anger": 4557,
      "▁Fußballspieler\n": 4558,
      "▁Gruppen": 4559,
      "▁Stadtteil": 4560,
      "änden": 4561,
      "▁Außen": 4562,
      "▁Phys": 4563,
      "▁Stelle": 4564,
      "▁Stern": 4565,
      "lassen": 4566,
      "39": 4567,
      "▁Geschäfts": 4568,
      ".\n\nVer": 4569,
      "▁(d": 4570,
      "▁Jer": 4571,
      "system": 4572,
      "▁selben": 4573,
      "ville": 4574,
      "▁Sek": 4575,
      "▁Record": 4576,
      "▁Verm": 4577,
      "▁Rudolf": 4578,
      "▁Wiener": 4579,
      "▁jüd": 4580,
      "ehens": 4581,
      "▁Gener": 4582,
      "histor": 4583,
      "▁1943": 4584,
      "▁kehrte": 4585,
      "▁Dep": 4586,
      "bü": 4587,
      "▁wohl": 4588,
      "▁Liga": 4589,
      "▁1941": 4590,
      "ula": 4591,
      "▁James": 4592,
      "▁Fern": 4593,
      "andenburg": 4594,
      "56": 4595,
      "volution": 4596,
      "▁1942": 4597,
      "▁1957": 4598,
      ".\n\nAus": 4599,
      "▁bie": 4600,
      "▁England": 4601,
      "▁wenig": 4602,
      "autor": 4603,
      "▁verlor": 4604,
      "ited": 4605,
      "t.\n\nDie": 4606,
      "agn": 4607,
      "voll": 4608,
      "▁Wider": 4609,
      "▁Gründung": 4610,
      "▁Pop": 4611,
      "fur": 4612,
      "▁höher": 4613,
      "▁denn": 4614,
      "▁Brand": 4615,
      "abeth": 4616,
      "▁Kan": 4617,
      "gehör": 4618,
      "rch": 4619,
      "▁Erfolg": 4620,
      "▁Düsseldorf": 4621,
      "89": 4622,
      "▁2:": 4623,
      "▁Lied": 4624,
      "▁Tab": 4625,
      "▁„H": 4626,
      "▁Position": 4627,
      "ris": 4628,
      "▁machte": 4629,
      "▁Medizin": 4630,
      "▁Ann": 4631,
      "wind": 4632,
      "ruktur": 4633,
      "▁einzeln": 4634,
      "lieben": 4635,
      "37": 4636,
      "▁Schlacht": 4637,
      "32": 4638,
      "▁III.": 4639,
      "stellen": 4640,
      "runde": 4641,
      "ifiz": 4642,
      "▁Prem": 4643,
      "▁60": 4644,
      "ifor": 4645,
      "eidel": 4646,
      "▁Jahrhunder": 4647,
      "verwalt": 4648,
      ");": 4649,
      "ieur": 4650,
      "isch,": 4651,
      "▁welt": 4652,
      "▁Scien": 4653,
      "▁Teile": 4654,
      "reie": 4655,
      "part": 4656,
      "de.": 4657,
      "▁1954": 4658,
      "han": 4659,
      "ernsehserie,": 4660,
      "akte": 4661,
      "ätigkeit": 4662,
      "▁Personen:\n\n": 4663,
      "▁Ehr": 4664,
      "▁Rh": 4665,
      "▁Lö": 4666,
      "▁Kauf": 4667,
      "▁1955": 4668,
      "wissenschaftler": 4669,
      "bürger": 4670,
      "gestellt.": 4671,
      "iten": 4672,
      "▁geboren": 4673,
      "athlet": 4674,
      "▁Kanton": 4675,
      "▁äuß": 4676,
      "▁„W": 4677,
      "▁„G": 4678,
      "annt.": 4679,
      "eres": 4680,
      "rakt": 4681,
      "entwicklung": 4682,
      "ült": 4683,
      "▁abger": 4684,
      "\nW": 4685,
      "▁Bus": 4686,
      "▁ung": 4687,
      "▁Bal": 4688,
      "▁Ander": 4689,
      "▁Polizei": 4690,
      "▁Wirk": 4691,
      "▁Truppen": 4692,
      "merk": 4693,
      "jekte": 4694,
      "teten": 4695,
      "ministerium": 4696,
      "▁beginn": 4697,
      "ideo": 4698,
      "▁Ausbildung": 4699,
      "rand": 4700,
      ".\n\nSiehe": 4701,
      "|}": 4702,
      "▁Mathemat": 4703,
      "▁Dé": 4704,
      "▁älter": 4705,
      "▁Zudem": 4706,
      "▁Finanz": 4707,
      "-Amerikan": 4708,
      "ier,": 4709,
      "park": 4710,
      "▁vorhand": 4711,
      "▁Gal": 4712,
      "igkeiten": 4713,
      "▁Recht": 4714,
      "ship": 4715,
      "▁(auch": 4716,
      "lowak": 4717,
      "s:": 4718,
      "▁1953": 4719,
      "elten": 4720,
      "republik": 4721,
      "ppen": 4722,
      "▁Heraus": 4723,
      "immt": 4724,
      "asen": 4725,
      "\n\nK": 4726,
      "▁)": 4727,
      "▁Schön": 4728,
      "emb": 4729,
      "üsse": 4730,
      "▁Arbeiten": 4731,
      "▁NS": 4732,
      "▁nie": 4733,
      "▁französische": 4734,
      "▁Aust": 4735,
      "▁blei": 4736,
      "▁Forschungs": 4737,
      "▁Herz": 4738,
      "geordneter": 4739,
      "▁Stück": 4740,
      "▁Evangel": 4741,
      "▁Jak": 4742,
      "▁Schüler": 4743,
      "reb": 4744,
      "gra": 4745,
      "räsidenten": 4746,
      "▁stellt": 4747,
      "67": 4748,
      "▁bed": 4749,
      "▁Veröffentlich": 4750,
      "▁handelt": 4751,
      "▁Tier": 4752,
      "▁hät": 4753,
      "62": 4754,
      "▁Dach": 4755,
      "arian": 4756,
      "▁Brun": 4757,
      "neten": 4758,
      "▁Wo": 4759,
      "ierenden": 4760,
      "▁Vertre": 4761,
      "aub": 4762,
      "▁Mu": 4763,
      "halten.": 4764,
      "▁gek": 4765,
      "erischen": 4766,
      "funk": 4767,
      "▁genannt": 4768,
      "▁umfasst": 4769,
      "▁welches": 4770,
      "wegen": 4771,
      "sprechen": 4772,
      "▁Roy": 4773,
      "renn": 4774,
      "liste": 4775,
      "▁Marc": 4776,
      "▁Fußballspieler": 4777,
      "andlung": 4778,
      "▁Helm": 4779,
      "lichkeiten": 4780,
      "▁e.": 4781,
      "alerie": 4782,
      "▁Möglich": 4783,
      "strahl": 4784,
      "▁1919": 4785,
      "▁Sub": 4786,
      "ternehmer": 4787,
      "▁Auftrag": 4788,
      "▁C.": 4789,
      "▁prom": 4790,
      "aters": 4791,
      "lern": 4792,
      "▁Folgen": 4793,
      "▁1918": 4794,
      "di": 4795,
      "▁1936": 4796,
      "▁Champ": 4797,
      "ielle": 4798,
      "ig.": 4799,
      "▁Bud": 4800,
      "Um": 4801,
      "unge": 4802,
      "▁entdeck": 4803,
      "▁Kron": 4804,
      "wegung": 4805,
      "87": 4806,
      "anne": 4807,
      "▁Gött": 4808,
      "▁Leitung": 4809,
      "ürn": 4810,
      "▁Bö": 4811,
      "\n\nG": 4812,
      "▁bau": 4813,
      "rael": 4814,
      "▁erweiter": 4815,
      "▁1934": 4816,
      "westlich": 4817,
      "gebung": 4818,
      "▁League": 4819,
      "ässer": 4820,
      "ots": 4821,
      "▁aktiv": 4822,
      "-West": 4823,
      "ago": 4824,
      "▁Förder": 4825,
      "▁Orch": 4826,
      "Über": 4827,
      "▁heiratete": 4828,
      "hältnis": 4829,
      "otor": 4830,
      "▁Just": 4831,
      "69": 4832,
      "ney": 4833,
      "testen": 4834,
      "oben": 4835,
      "▁Länder": 4836,
      "otte": 4837,
      "▁Herrschaft": 4838,
      "mat": 4839,
      "▁Tim": 4840,
      "▁Geld": 4841,
      "mäler": 4842,
      "nitz": 4843,
      "▁Verband": 4844,
      "Österreich": 4845,
      "▁Verbindung": 4846,
      "8,": 4847,
      "partement": 4848,
      "▁rel": 4849,
      "▁Charles": 4850,
      "▁Zuge": 4851,
      "▁Bund": 4852,
      "\nL": 4853,
      "▁Münster": 4854,
      "▁Bezieh": 4855,
      "anischer": 4856,
      "61": 4857,
      "ular": 4858,
      "▁sind,": 4859,
      "▁Ide": 4860,
      "iforn": 4861,
      "▁1947": 4862,
      "läss": 4863,
      "▁Linie": 4864,
      "▁„T": 4865,
      "▁jün": 4866,
      "▁Engl": 4867,
      "▁fiel": 4868,
      "▁lin": 4869,
      "▁Schles": 4870,
      "air": 4871,
      "ächt": 4872,
      "lö": 4873,
      "bare": 4874,
      "aar": 4875,
      "▁del": 4876,
      "▁Unterstütz": 4877,
      "\nD": 4878,
      "betrieb": 4879,
      "▁Volk": 4880,
      "üst": 4881,
      "atein": 4882,
      "▁nahe": 4883,
      "▁stammt": 4884,
      "▁Star": 4885,
      "▁Fund": 4886,
      "titel": 4887,
      "▁stammen": 4888,
      "▁Medien": 4889,
      "▁schwar": 4890,
      "ya": 4891,
      "acher": 4892,
      "83": 4893,
      "▁Mitarbeiter": 4894,
      "▁britischen": 4895,
      "▁Euro": 4896,
      "▁US-amerikanische": 4897,
      "ieren,": 4898,
      "▁1930": 4899,
      "▁Runde": 4900,
      "der,": 4901,
      "umän": 4902,
      "▁Zust": 4903,
      "wal": 4904,
      "▁anges": 4905,
      "reten": 4906,
      "▁will": 4907,
      "▁versch": 4908,
      "▁Sprache": 4909,
      "▁Union": 4910,
      "ausch": 4911,
      "wart": 4912,
      "▁Andreas": 4913,
      "ones": 4914,
      "dung": 4915,
      "▁erhiel": 4916,
      "▁Publ": 4917,
      "▁offiziel": 4918,
      "os,": 4919,
      "umm": 4920,
      "üm": 4921,
      "musik": 4922,
      "▁Louis": 4923,
      "linie": 4924,
      "scheiden": 4925,
      "ingen,": 4926,
      "▁end": 4927,
      "▁land": 4928,
      "▁Familienname": 4929,
      "51": 4930,
      "▁entstanden": 4931,
      "▁\n\nM": 4932,
      "▁1951": 4933,
      "▁eng": 4934,
      "amilie": 4935,
      "alifiz": 4936,
      "▁Besuch": 4937,
      "▁Eltern": 4938,
      "▁\n\nE": 4939,
      "asch": 4940,
      "▁1937": 4941,
      "▁Staffel": 4942,
      "usst": 4943,
      "▁Test": 4944,
      "▁verfü": 4945,
      "▁Kern": 4946,
      "▁\nF": 4947,
      "iell": 4948,
      "sek": 4949,
      "onie": 4950,
      "wissenschaften": 4951,
      "gn": 4952,
      "▁frühen": 4953,
      "lands": 4954,
      "▁liegen": 4955,
      "rate": 4956,
      "ita": 4957,
      "▁\n\nDer": 4958,
      "▁Cap": 4959,
      "\n\nW": 4960,
      "▁hohen": 4961,
      "▁verz": 4962,
      "▁Dieses": 4963,
      "▁Südwest": 4964,
      ".\n\nAn": 4965,
      "▁„F": 4966,
      "▁Fürst": 4967,
      "▁Körper": 4968,
      "▁ausgezeichnet": 4969,
      "swahl": 4970,
      "fäh": 4971,
      "42": 4972,
      "▁Anna": 4973,
      "▁nutz": 4974,
      "▁politischen": 4975,
      "ux": 4976,
      "ante": 4977,
      "▁Privat": 4978,
      "81": 4979,
      "▁Problem": 4980,
      "▁Ihre": 4981,
      "▁damaligen": 4982,
      "▁preuß": 4983,
      "▁Miss": 4984,
      "▁Maler": 4985,
      "▁Länge": 4986,
      "stud": 4987,
      ".\n\nBei": 4988,
      "▁Dipl": 4989,
      "▁\nM": 4990,
      "▁Organisation": 4991,
      "baren": 4992,
      "\n\nP": 4993,
      "ique": 4994,
      "▁Hochschule": 4995,
      "▁Wall": 4996,
      "▁finanz": 4997,
      "kampf": 4998,
      "ory": 4999,
      "fert": 5000,
      "▁Doppel": 5001,
      "bol": 5002,
      "4.": 5003,
      "▁1900": 5004,
      "▁Friedhof": 5005,
      "hafen": 5006,
      "endet": 5007,
      "aun": 5008,
      "-s": 5009,
      "▁einzige": 5010,
      "rimin": 5011,
      "fasste": 5012,
      "▁ehemaliger": 5013,
      "igt.": 5014,
      "irt": 5015,
      "krä": 5016,
      "bank": 5017,
      "▁(Z": 5018,
      "▁internationalen": 5019,
      "▁Wehr": 5020,
      "▁Club": 5021,
      "▁(Un": 5022,
      "▁Rö": 5023,
      "heb": 5024,
      "lösung": 5025,
      "teste": 5026,
      "▁Damit": 5027,
      "el.": 5028,
      "▁Industrie": 5029,
      "▁Aben": 5030,
      "▁haben.": 5031,
      "isierung": 5032,
      "▁Fischer": 5033,
      "tegr": 5034,
      "lich,": 5035,
      "▁Top": 5036,
      "▁Klaus": 5037,
      "▁ebenso": 5038,
      "▁German": 5039,
      "▁selten": 5040,
      "▁\n\nOrt": 5041,
      "fiel": 5042,
      ")\nB": 5043,
      "kraft": 5044,
      "straß": 5045,
      "unternehmen": 5046,
      "reiten": 5047,
      "gut": 5048,
      "hung": 5049,
      "▁Eing": 5050,
      "▁griech": 5051,
      "▁Dresden": 5052,
      "rechts": 5053,
      "aben": 5054,
      "▁Gran": 5055,
      "▁School": 5056,
      "▁entwickelte": 5057,
      "▁Werner": 5058,
      "um,": 5059,
      "ünder": 5060,
      "▁schwed": 5061,
      "pe": 5062,
      "▁Leg": 5063,
      "▁Bonn": 5064,
      "▁Camp": 5065,
      "etzung": 5066,
      "▁Nacht": 5067,
      "▁1935": 5068,
      "▁Wort": 5069,
      "elt,": 5070,
      "endorf": 5071,
      "on.": 5072,
      "vis": 5073,
      "▁par": 5074,
      "▁Wochen": 5075,
      "▁verein": 5076,
      "▁Bef": 5077,
      "ki": 5078,
      "atte": 5079,
      "go": 5080,
      "utlich": 5081,
      "▁Renn": 5082,
      "▁Sonder": 5083,
      "lant": 5084,
      "spekt": 5085,
      "▁stehen": 5086,
      "letzt": 5087,
      "82": 5088,
      "liefer": 5089,
      "▁Licht": 5090,
      "▁Hart": 5091,
      "äger": 5092,
      "wertung": 5093,
      "▁wichtig": 5094,
      "▁Publik": 5095,
      "illen": 5096,
      "▁Blü": 5097,
      "graf": 5098,
      "erie": 5099,
      "▁1928": 5100,
      "▁britischer": 5101,
      "▁Epis": 5102,
      "▁High": 5103,
      "▁Hör": 5104,
      "▁„P": 5105,
      "▁Gattung": 5106,
      "iga": 5107,
      "▁Start": 5108,
      "▁techn": 5109,
      "▁D.": 5110,
      "lt": 5111,
      "\n\nM": 5112,
      "▁Tel": 5113,
      "-Jahr": 5114,
      "view": 5115,
      ".“": 5116,
      "▁3-4": 5117,
      "zi": 5118,
      "reibt": 5119,
      "▁Wol": 5120,
      "achten": 5121,
      "▁Sym": 5122,
      "▁Anschließend": 5123,
      "▁niederländ": 5124,
      "▁sogar": 5125,
      "▁weiterhin": 5126,
      "▁Güter": 5127,
      "▁späteren": 5128,
      "▁Artikel": 5129,
      "52": 5130,
      "▁Vic": 5131,
      "gänger": 5132,
      "fft": 5133,
      "▁App": 5134,
      "spruch": 5135,
      "▁beschäft": 5136,
      "▁jähr": 5137,
      "▁Fuß": 5138,
      "erne": 5139,
      "59": 5140,
      "47": 5141,
      "▁Fen": 5142,
      ".\n\nSch": 5143,
      "▁Gust": 5144,
      "schaffen": 5145,
      "or,": 5146,
      "öße": 5147,
      "union": 5148,
      "▁Meth": 5149,
      "▁Schwarz": 5150,
      "▁Qualif": 5151,
      "anken": 5152,
      "herap": 5153,
      "▁River": 5154,
      "▁Alten": 5155,
      "hockey": 5156,
      "igungs": 5157,
      "▁weiß": 5158,
      "kunft": 5159,
      "reihe": 5160,
      "▁Jes": 5161,
      "imeter": 5162,
      "▁größte": 5163,
      "okomot": 5164,
      "ombin": 5165,
      "male": 5166,
      "rolle": 5167,
      "/19": 5168,
      "46": 5169,
      "oß": 5170,
      "ätzen": 5171,
      "wurf": 5172,
      "ne,": 5173,
      "lecht": 5174,
      "▁Kopf": 5175,
      "▁können.": 5176,
      "US-Amerikan": 5177,
      "stätte": 5178,
      "▁Heiligen": 5179,
      "▁Wand": 5180,
      "▁Brem": 5181,
      "▁Schauspiel": 5182,
      "DA": 5183,
      "teilt": 5184,
      "▁östlich": 5185,
      "itte": 5186,
      "▁Orig": 5187,
      "▁3:": 5188,
      "▁Rel": 5189,
      "▁Fritz": 5190,
      "▁×": 5191,
      "▁aktu": 5192,
      "St": 5193,
      "auwerk": 5194,
      "▁Grand": 5195,
      "reiben": 5196,
      "ces": 5197,
      "▁\nW": 5198,
      "zip": 5199,
      "igitalis": 5200,
      "rika": 5201,
      "rem": 5202,
      "lam": 5203,
      "punk": 5204,
      "▁Versuch": 5205,
      "en\n": 5206,
      "▁Mau": 5207,
      "'s": 5208,
      "▁Finale": 5209,
      "▁Mein": 5210,
      "erke": 5211,
      "▁(in": 5212,
      "cke": 5213,
      "bed": 5214,
      "▁\nD": 5215,
      "▁Schmid": 5216,
      "▁„E": 5217,
      "▁Heidel": 5218,
      "▁Music": 5219,
      "Ch": 5220,
      "rät": 5221,
      "irchen": 5222,
      "▁wurden,": 5223,
      "▁Trans": 5224,
      "Mitglied": 5225,
      "▁To": 5226,
      "würdig": 5227,
      "▁Stock": 5228,
      "lad": 5229,
      "▁Département": 5230,
      "43": 5231,
      "-Reg": 5232,
      "▁South": 5233,
      "▁ad": 5234,
      "kau": 5235,
      "emin": 5236,
      "57": 5237,
      "▁Societ": 5238,
      "emeinde": 5239,
      "gemeinschaft": 5240,
      "orps": 5241,
      "vest": 5242,
      "▁Bil": 5243,
      "▁gebau": 5244,
      "▁(b": 5245,
      "▁Relig": 5246,
      "ener": 5247,
      "▁Vorsitzender": 5248,
      "▁beträgt": 5249,
      "▁Kab": 5250,
      "arf": 5251,
      "iellen": 5252,
      "41": 5253,
      "▁Grenze": 5254,
      "▁Kranken": 5255,
      "▁Netz": 5256,
      "ishockey": 5257,
      "▁Gru": 5258,
      "▁Öff": 5259,
      "leiter": 5260,
      "▁recht": 5261,
      "▁Anschluss": 5262,
      "ölf": 5263,
      "▁Division": 5264,
      ".de": 5265,
      "▁Schwe": 5266,
      "h,": 5267,
      "▁Drehbuch": 5268,
      "änn": 5269,
      "▁ledig": 5270,
      "▁waren.": 5271,
      "▁Kategorie": 5272,
      "ätter": 5273,
      "▁Anzahl": 5274,
      "▁westlich": 5275,
      "▁Bon": 5276,
      "▁Auss": 5277,
      "nehmen": 5278,
      "se,": 5279,
      "agd": 5280,
      "0.000": 5281,
      "▁diente": 5282,
      "▁1932": 5283,
      "zeiten": 5284,
      "▁Lab": 5285,
      "▁gebor": 5286,
      "haber": 5287,
      "▁geschlossen": 5288,
      "▁vers": 5289,
      "stu": 5290,
      "▁China": 5291,
      "▁Steuer": 5292,
      "▁Nationalsozial": 5293,
      "maß": 5294,
      "richten": 5295,
      "▁fanden": 5296,
      "▁Direktor": 5297,
      "▁(The": 5298,
      "▁organis": 5299,
      "▁Einwohnern": 5300,
      "lehn": 5301,
      "osit": 5302,
      "▁1914": 5303,
      "▁Dor": 5304,
      "▁Bestand": 5305,
      "wes": 5306,
      "odor": 5307,
      "49": 5308,
      "▁beh": 5309,
      "▁Flor": 5310,
      "iner": 5311,
      "▁\n\nK": 5312,
      "o\n": 5313,
      "▁gestell": 5314,
      "eland": 5315,
      "▁Verfüg": 5316,
      "▁1929": 5317,
      "asp": 5318,
      "▁Gün": 5319,
      "▁College": 5320,
      "von": 5321,
      "▁hat,": 5322,
      "▁Modell": 5323,
      "▁North": 5324,
      "etball": 5325,
      "▁Material": 5326,
      "zentr": 5327,
      "any": 5328,
      "-Mitglied": 5329,
      "immung": 5330,
      ")\nH": 5331,
      "▁V.": 5332,
      "cup": 5333,
      "▁(16": 5334,
      "▁Internet": 5335,
      "▁Nachbar": 5336,
      "hemal": 5337,
      "ua": 5338,
      "▁Baum": 5339,
      "▁Fläche": 5340,
      "▁Hum": 5341,
      "▁belegte": 5342,
      "kn": 5343,
      "geschoss": 5344,
      "riester": 5345,
      "▁Offiz": 5346,
      "▁Vereins": 5347,
      "▁Wahr": 5348,
      "orm": 5349,
      "▁verließ": 5350,
      "lege": 5351,
      "▁Pan": 5352,
      "isch)\n": 5353,
      "▁hat.": 5354,
      "ingen.": 5355,
      "ivil": 5356,
      "leitung": 5357,
      "t.\n\nB": 5358,
      "▁geprä": 5359,
      "▁Abschluss": 5360,
      "▁Sar": 5361,
      "▁Reise": 5362,
      "▁krit": 5363,
      "▁Hilfe": 5364,
      "▁durchge": 5365,
      "▁Regisseur": 5366,
      "wohner": 5367,
      "tliche": 5368,
      "▁Bezirks": 5369,
      "▁Lager": 5370,
      "▁Mac": 5371,
      "retär": 5372,
      "▁Dat": 5373,
      "▁wirtschaft": 5374,
      "▁Firma": 5375,
      "sph": 5376,
      "▁lediglich": 5377,
      "▁Alfred": 5378,
      "hauses": 5379,
      ")\nG": 5380,
      "archiv": 5381,
      "ferenz": 5382,
      "▁Lib": 5383,
      "▁Lim": 5384,
      "▁Journalist": 5385,
      "▁Nordwest": 5386,
      "▁Einfluss": 5387,
      "▁4,": 5388,
      "▁empf": 5389,
      "▁Hit": 5390,
      "eichtathlet": 5391,
      "▁Daniel": 5392,
      "▁Tschech": 5393,
      "za": 5394,
      "▁Dokument": 5395,
      "▁politische": 5396,
      "▁vor.": 5397,
      "▁Ra": 5398,
      "öpf": 5399,
      "ocken": 5400,
      "▁W.": 5401,
      "▁knapp": 5402,
      "▁heiß": 5403,
      "▁Elis": 5404,
      "▁Barb": 5405,
      "▁Vertreter": 5406,
      "arkt": 5407,
      "▁Nic": 5408,
      "schafter": 5409,
      "win": 5410,
      "-19": 5411,
      "▁E.": 5412,
      "vier": 5413,
      "▁(englisch)\n": 5414,
      "yer": 5415,
      "▁Rand": 5416,
      "▁Christoph": 5417,
      "wärts": 5418,
      "neur": 5419,
      "irol": 5420,
      "gehö": 5421,
      "▁not": 5422,
      "leich": 5423,
      "mod": 5424,
      "brit": 5425,
      "▁Brü": 5426,
      "selben": 5427,
      "▁Später": 5428,
      "▁kanad": 5429,
      "▁gez": 5430,
      "▁(2": 5431,
      "ando": 5432,
      "▁Wes": 5433,
      "▁y": 5434,
      "net.": 5435,
      ")\nPerson": 5436,
      "▁besten": 5437,
      "▁Halle": 5438,
      "err": 5439,
      "anlagen": 5440,
      "garn": 5441,
      "▁Temp": 5442,
      "▁Nürn": 5443,
      "▁Zeitpunkt": 5444,
      "u,": 5445,
      "▁zweit": 5446,
      "▁Luc": 5447,
      "▁schnell": 5448,
      "▁Politiker\n": 5449,
      "▁Sowjet": 5450,
      "▁ab,": 5451,
      "bro": 5452,
      "▁qualifiz": 5453,
      "▁Eich": 5454,
      "▁\nH": 5455,
      "▁Kammer": 5456,
      "ii": 5457,
      "ollar": 5458,
      "▁Jung": 5459,
      "▁Bronz": 5460,
      "gentin": 5461,
      "▁„R": 5462,
      "äum": 5463,
      "medaille": 5464,
      "ional": 5465,
      "ee": 5466,
      "▁É": 5467,
      "▁978-3-9": 5468,
      "▁hohe": 5469,
      "▁Cast": 5470,
      "▁90": 5471,
      "▁Namens": 5472,
      "zeichen": 5473,
      "▁„L": 5474,
      "21.": 5475,
      "▁Version": 5476,
      ".\n\nEin": 5477,
      "auptsächlich": 5478,
      "▁Kamer": 5479,
      "üste": 5480,
      "▁seh": 5481,
      "laub": 5482,
      "\nPerson": 5483,
      "dach": 5484,
      "tal": 5485,
      "keits": 5486,
      "US-Amerikaner\nGeboren": 5487,
      "▁erbau": 5488,
      "chron": 5489,
      "▁Demokrat": 5490,
      "rig": 5491,
      "\nDeutscher\nGeboren": 5492,
      "▁stieg": 5493,
      "assungs": 5494,
      "tlichen": 5495,
      "▁ausgetragen": 5496,
      "▁Bilder": 5497,
      "▁United": 5498,
      "▁1925": 5499,
      "▁Belg": 5500,
      "▁Basis": 5501,
      "▁vor,": 5502,
      "geben.": 5503,
      "▁Klav": 5504,
      "▁eher": 5505,
      "ernsehserie": 5506,
      "ebend": 5507,
      "ugh": 5508,
      "ärk": 5509,
      "▁(PDF": 5510,
      "▁Los": 5511,
      "▁Thr": 5512,
      "AS": 5513,
      "yth": 5514,
      "▁Gottes": 5515,
      "will": 5516,
      "\n\nH": 5517,
      "ré": 5518,
      "irm": 5519,
      "e)": 5520,
      "ral": 5521,
      "ther": 5522,
      "halle": 5523,
      "▁Exp": 5524,
      "▁Streit": 5525,
      "▁enthält": 5526,
      "arte": 5527,
      "ürgen": 5528,
      "▁Av": 5529,
      "enter": 5530,
      "i:": 5531,
      "▁Hir": 5532,
      "erkehr": 5533,
      "▁Haf": 5534,
      "utor": 5535,
      "ktionen": 5536,
      "▁jeder": 5537,
      "▁Mainz": 5538,
      "▁Sammlung": 5539,
      "rikt": 5540,
      "ross": 5541,
      "▁Press,": 5542,
      "▁Naturschutz": 5543,
      "▁alte": 5544,
      "erkunft": 5545,
      "▁gleichnam": 5546,
      "▁bildet": 5547,
      "▁Wild": 5548,
      "at.": 5549,
      "▁moder": 5550,
      "▁Gab": 5551,
      "▁Mun": 5552,
      "▁entsprechen": 5553,
      "▁Metern": 5554,
      "-Verlag,": 5555,
      "ia.": 5556,
      "▁gegründet": 5557,
      "▁militär": 5558,
      "fil": 5559,
      "▁22": 5560,
      "peratur": 5561,
      "car": 5562,
      "▁Jack": 5563,
      "▁Stimmen": 5564,
      "▁Berlin,": 5565,
      "▁Lehrer": 5566,
      "▁Tenn": 5567,
      "▁(Vereinigte": 5568,
      "▁zahlreichen": 5569,
      "sprechend": 5570,
      "▁Jakob": 5571,
      "iffer": 5572,
      "▁Adolf": 5573,
      "▁keinen": 5574,
      "▁R.": 5575,
      "▁nächsten": 5576,
      "▁Verbr": 5577,
      "▁bilden": 5578,
      "▁öffentlichen": 5579,
      "▁Stre": 5580,
      "▁entst": 5581,
      "sträger": 5582,
      "▁gesamte": 5583,
      "▁zurück,": 5584,
      "▁1921": 5585,
      ".\n\nVon": 5586,
      "▁23": 5587,
      "▁Hochschul": 5588,
      "zwischen": 5589,
      "▁Gustav": 5590,
      "▁promov": 5591,
      "▁Glas": 5592,
      "▁1927": 5593,
      "▁Rob": 5594,
      "▁Müller": 5595,
      "ić": 5596,
      "▁tätig.": 5597,
      "do": 5598,
      "▁Bra": 5599,
      "▁Mur": 5600,
      "seit": 5601,
      "\n\nE": 5602,
      "▁3-9": 5603,
      "▁ich": 5604,
      "waff": 5605,
      "▁bas": 5606,
      "▁No": 5607,
      "würdigkeiten": 5608,
      "anstaltung": 5609,
      "▁Cup": 5610,
      "aust": 5611,
      "ikanische": 5612,
      "=\"": 5613,
      "jor": 5614,
      "▁bekannt,": 5615,
      "▁Eishockey": 5616,
      "▁ermöglich": 5617,
      "▁Q": 5618,
      "antin": 5619,
      "mitglied": 5620,
      "indestens": 5621,
      "leger": 5622,
      "▁Deutscher": 5623,
      "▁Verteid": 5624,
      "▁Tom": 5625,
      "▁besitzt": 5626,
      "fführ": 5627,
      "▁80": 5628,
      ")\nA": 5629,
      "en.\n": 5630,
      "zuf": 5631,
      "▁500": 5632,
      "\nMitglied": 5633,
      "▁Steph": 5634,
      "▁italienischer": 5635,
      "blick": 5636,
      "ird": 5637,
      "▁Radio": 5638,
      "tra": 5639,
      "▁Besch": 5640,
      "fanter": 5641,
      "▁Meisterschaft": 5642,
      "s-": 5643,
      "▁verläuft": 5644,
      "▁bezeich": 5645,
      "ationalmannschaft": 5646,
      "▁1924": 5647,
      "▁Kop": 5648,
      "insel": 5649,
      "▁G.": 5650,
      "▁spielt": 5651,
      "▁wenige": 5652,
      "allel": 5653,
      "ativen": 5654,
      "▁rechts": 5655,
      "▁(Fernsehserie,": 5656,
      "▁Geburt": 5657,
      "erte": 5658,
      "▁erreicht": 5659,
      "▁Alle": 5660,
      "▁(U": 5661,
      "▁staat": 5662,
      "▁darüber": 5663,
      "ony": 5664,
      "ww.": 5665,
      "▁Bre": 5666,
      "▁Bist": 5667,
      "hi": 5668,
      "▁Bill": 5669,
      "iana": 5670,
      "▁mindestens": 5671,
      "text": 5672,
      "▁Sw": 5673,
      "entliche": 5674,
      "▁Reform": 5675,
      "▁Trainer": 5676,
      "▁Punkt": 5677,
      "äte": 5678,
      "▁Papst": 5679,
      "▁Cas": 5680,
      "▁Großen": 5681,
      "▁sein.": 5682,
      "▁Straf": 5683,
      "ga": 5684,
      "▁Kas": 5685,
      "ruf": 5686,
      "▁„D": 5687,
      "ischem": 5688,
      "en.\n\nA": 5689,
      "▁Moder": 5690,
      "ams": 5691,
      "▁verwendet": 5692,
      "▁übernommen": 5693,
      "klasse": 5694,
      "▁Det": 5695,
      "▁Mass": 5696,
      "ehenswürdigkeiten": 5697,
      "kan": 5698,
      "▁hauptsächlich": 5699,
      "▁Forschung": 5700,
      "▁Viertel": 5701,
      "▁Got": 5702,
      "lu": 5703,
      "▁chines": 5704,
      "urnier": 5705,
      "riebe": 5706,
      "▁unmittel": 5707,
      "scheinlich": 5708,
      "▁Besatz": 5709,
      "▁hal": 5710,
      "▁Academ": 5711,
      "▁ak": 5712,
      "Unter": 5713,
      "denkmäler": 5714,
      "▁Landwirtschaft": 5715,
      "▁Spez": 5716,
      "▁Zusammenarbeit": 5717,
      "▁Wissenschaften": 5718,
      ")\nDeutscher\nGeboren": 5719,
      "▁Vergleich": 5720,
      "itzer": 5721,
      "▁Zentral": 5722,
      "▁Gegensatz": 5723,
      "▁Francis": 5724,
      "▁Liebe": 5725,
      "yle": 5726,
      "stil": 5727,
      ".\n\nMit": 5728,
      "achim": 5729,
      "\nSch": 5730,
      "östlichen": 5731,
      "▁(,": 5732,
      "ik.": 5733,
      "▁tradition": 5734,
      "isiert": 5735,
      "fre": 5736,
      "▁Wagen": 5737,
      "erlin": 5738,
      "▁Herbst": 5739,
      ")\n\nWeblinks": 5740,
      "▁Bundesstaat": 5741,
      "▁SS": 5742,
      ")\nK": 5743,
      "▁1931": 5744,
      "gewicht": 5745,
      "▁Spielzeit": 5746,
      "▁besser": 5747,
      "bach,": 5748,
      "falen": 5749,
      "▁Leb": 5750,
      "denten": 5751,
      "abl": 5752,
      "▁Gerhard": 5753,
      "▁Szen": 5754,
      "▁Festival": 5755,
      "▁Royal": 5756,
      "sbach": 5757,
      "hau": 5758,
      "gliche": 5759,
      "Von": 5760,
      "▁Sä": 5761,
      "▁Beim": 5762,
      "▁Archiv": 5763,
      "▁Entscheid": 5764,
      "ierre": 5765,
      "ean": 5766,
      ",\n": 5767,
      "▁zuletzt": 5768,
      "▁Arbeiter": 5769,
      "▁Garten": 5770,
      "ashington": 5771,
      "▁Vort": 5772,
      "▁Erk": 5773,
      "▁Bul": 5774,
      "pol": 5775,
      "▁(17": 5776,
      "äten": 5777,
      "iedlung": 5778,
      "-Spiel": 5779,
      "komp": 5780,
      ".\n\nKarriere": 5781,
      "eisen": 5782,
      "▁\n\n|}": 5783,
      "no": 5784,
      "sprung": 5785,
      "▁Mittelalter": 5786,
      "t:": 5787,
      "▁betrieben": 5788,
      "rats": 5789,
      "▁dadurch": 5790,
      "▁Unterstützung": 5791,
      "▁1926": 5792,
      "▁min": 5793,
      "▁Russland": 5794,
      "dinand": 5795,
      "van": 5796,
      "▁Ox": 5797,
      "nant": 5798,
      "▁Voll": 5799,
      "minist": 5800,
      "▁erheb": 5801,
      "markt": 5802,
      "sa": 5803,
      "rö": 5804,
      "er:": 5805,
      "▁Black": 5806,
      "zwei": 5807,
      "ierende": 5808,
      ".\n\nAls": 5809,
      "▁daraufhin": 5810,
      "▁waren,": 5811,
      "sberg": 5812,
      "d,": 5813,
      "ida": 5814,
      "städ": 5815,
      "▁Instr": 5816,
      "▁erzielte": 5817,
      "hor": 5818,
      "▁You": 5819,
      "statt": 5820,
      "▁Jos": 5821,
      "▁Bauern": 5822,
      "▁Anlage": 5823,
      "▁\n\nR": 5824,
      "oche": 5825,
      "▁Edu": 5826,
      "▁\n\nP": 5827,
      "bus": 5828,
      "▁Hoff": 5829,
      "▁Städte": 5830,
      "leit": 5831,
      "▁teil.": 5832,
      "ow,": 5833,
      "▁35": 5834,
      "▁Aufstieg": 5835,
      "geln": 5836,
      "stift": 5837,
      "▁einzelnen": 5838,
      "▁Ortschaft": 5839,
      "\n\nR": 5840,
      "ly": 5841,
      "que": 5842,
      "stall": 5843,
      "▁verkauf": 5844,
      "schütz": 5845,
      "\n\nT": 5846,
      "▁vollständig": 5847,
      "▁Mas": 5848,
      "▁indem": 5849,
      "▁sowjet": 5850,
      "forschung": 5851,
      "hauer": 5852,
      "beg": 5853,
      "▁Energie": 5854,
      "ädagog": 5855,
      "▁150": 5856,
      "▁zunehmen": 5857,
      "iation": 5858,
      "▁Nieders": 5859,
      "▁ir": 5860,
      "britann": 5861,
      "▁Gall": 5862,
      "▁vermutlich": 5863,
      "▁Zusammenhang": 5864,
      "▁verbunden": 5865,
      "▁Widerstand": 5866,
      "ücken": 5867,
      "▁Lieder": 5868,
      "ängen": 5869,
      "▁gleichzeitig": 5870,
      "▁Harr": 5871,
      "▁mo": 5872,
      "ior": 5873,
      "amin": 5874,
      "▁Hauptstadt": 5875,
      "mitt": 5876,
      "▁Hotel": 5877,
      "▁bald": 5878,
      "verwaltung": 5879,
      "unden.": 5880,
      "▁Juden": 5881,
      "gy": 5882,
      "lasse": 5883,
      "▁Rem": 5884,
      "werks": 5885,
      "usik": 5886,
      "▁Verkehrs": 5887,
      "▁beruf": 5888,
      "▁Abst": 5889,
      "▁Baden-W": 5890,
      "fahrer": 5891,
      "▁geworden": 5892,
      "▁1910": 5893,
      "▁Kapelle": 5894,
      "▁länger": 5895,
      "▁zentr": 5896,
      "▁genau": 5897,
      "▁at": 5898,
      "formen": 5899,
      "▁leicht": 5900,
      "▁Tätigkeit": 5901,
      "onym": 5902,
      "estag": 5903,
      "atür": 5904,
      "irch": 5905,
      "▁neuer": 5906,
      "▁entspr": 5907,
      "▁Inner": 5908,
      "▁Architektur": 5909,
      "▁Jurist": 5910,
      "▁Schlag": 5911,
      "▁Tages": 5912,
      "deten": 5913,
      "▁Mess": 5914,
      "▁Aller": 5915,
      "▁Zuf": 5916,
      "-Ar": 5917,
      "ower": 5918,
      "▁gewesen": 5919,
      "richtungen": 5920,
      "▁1923": 5921,
      "▁F.": 5922,
      "▁Mannschaften": 5923,
      "▁\nZ": 5924,
      "hnen": 5925,
      "et,": 5926,
      "fassen": 5927,
      "\n\nD": 5928,
      "▁Umwelt": 5929,
      "▁brachte": 5930,
      "▁Pflanzen": 5931,
      "legt.": 5932,
      "▁Nav": 5933,
      "▁Disk": 5934,
      "–199": 5935,
      "▁Darstellung": 5936,
      "▁Handels": 5937,
      "\nN": 5938,
      "▁Elisabeth": 5939,
      "▁1912": 5940,
      "kirchen": 5941,
      "▁entlang": 5942,
      "▁Spanien": 5943,
      ".\n\nSt": 5944,
      "ähnung": 5945,
      "▁hinz": 5946,
      "▁Kanad": 5947,
      "umpf": 5948,
      "▁Mik": 5949,
      "▁kont": 5950,
      "▁betrug": 5951,
      "▁...": 5952,
      "▁Rosen": 5953,
      "▁zwölf": 5954,
      "▁Gesund": 5955,
      "▁historischen": 5956,
      "▁\nG": 5957,
      "rot": 5958,
      "▁gegründet.": 5959,
      "–198": 5960,
      "▁Brandenburg": 5961,
      "läufer": 5962,
      "▁(z.": 5963,
      "eimar": 5964,
      "▁ged": 5965,
      "▁gesamten": 5966,
      "dessen": 5967,
      "▁Viel": 5968,
      "▁Tat": 5969,
      "Ol": 5970,
      "▁Grä": 5971,
      "igitalisat": 5972,
      "deutschen": 5973,
      "▁Weitere": 5974,
      "olitiker": 5975,
      "reiber": 5976,
      "▁Lov": 5977,
      "▁sah": 5978,
      "▁Hy": 5979,
      "▁wuchs": 5980,
      "anwalt": 5981,
      "ungsp": 5982,
      "▁Schriftstell": 5983,
      "▁1922": 5984,
      "▁sogenannten": 5985,
      "-Meter": 5986,
      "hen.": 5987,
      "▁genommen": 5988,
      "▁Siedlung": 5989,
      ".\n\nSeit": 5990,
      "werbe": 5991,
      "▁lebte": 5992,
      "▁Bereits": 5993,
      "geordneten": 5994,
      "▁Maschinen": 5995,
      "▁tran": 5996,
      "ecklen": 5997,
      "▁erwarb": 5998,
      "▁Ca": 5999,
      "▁Quellen": 6000,
      "▁Tür": 6001,
      "▁bem": 6002,
      "▁Portug": 6003,
      "▁Tradition": 6004,
      "▁trotz": 6005,
      "▁Charakter": 6006,
      "▁Bernhard": 6007,
      "▁Ly": 6008,
      "▁Leon": 6009,
      "▁Ausgabe": 6010,
      "uz": 6011,
      "anzer": 6012,
      "i\n": 6013,
      "▁Autom": 6014,
      "▁Karls": 6015,
      "▁Erzbischof": 6016,
      "ständige": 6017,
      "reifen": 6018,
      "▁Ferdinand": 6019,
      "ridge": 6020,
      "▁‚": 6021,
      "▁Richter": 6022,
      "▁persön": 6023,
      "ão": 6024,
      "▁Bart": 6025,
      "▁Fak": 6026,
      "rige": 6027,
      "funktion": 6028,
      "ugen": 6029,
      "roh": 6030,
      "namen": 6031,
      "▁Macht": 6032,
      "▁Merk": 6033,
      "üssel": 6034,
      "arbeitung": 6035,
      "endes": 6036,
      "▁Braunschwei": 6037,
      "ader": 6038,
      "▁Samm": 6039,
      "üch": 6040,
      "ootball": 6041,
      "▁Aktiv": 6042,
      "▁wiederum": 6043,
      "▁priv": 6044,
      "▁Cont": 6045,
      "▁Mäd": 6046,
      "gu": 6047,
      "▁dän": 6048,
      "länder": 6049,
      "▁römisch-kathol": 6050,
      "▁Polen": 6051,
      "arts": 6052,
      "rest": 6053,
      "▁70": 6054,
      "out": 6055,
      "▁Soldaten": 6056,
      "▁Stefan": 6057,
      "Quellen": 6058,
      "▁«": 6059,
      "lich.": 6060,
      "con": 6061,
      "kord": 6062,
      "act": 6063,
      "▁beschrieben": 6064,
      "▁überwiegend": 6065,
      "FA": 6066,
      "aux": 6067,
      "▁Dek": 6068,
      "ental": 6069,
      "hoch": 6070,
      "osen": 6071,
      "ira": 6072,
      "es\n": 6073,
      "▁1970er": 6074,
      "quenz": 6075,
      "▁Zent": 6076,
      "▁170": 6077,
      "▁ausschließlich": 6078,
      "ual": 6079,
      "▁Dör": 6080,
      "ing.": 6081,
      "kunde": 6082,
      "sm": 6083,
      "▁Schwar": 6084,
      "rin": 6085,
      "▁Kurt": 6086,
      "▁sod": 6087,
      "axim": 6088,
      "▁Priester": 6089,
      "▁Washington": 6090,
      "▁legte": 6091,
      "igen,": 6092,
      "ump": 6093,
      "eiden": 6094,
      "▁Ländern": 6095,
      "itur": 6096,
      "-Preis": 6097,
      "thur": 6098,
      "-Mar": 6099,
      "▁Mol": 6100,
      "▁Revolution": 6101,
      "▁Wettbewerb": 6102,
      "messer": 6103,
      "▁Sommerspiele": 6104,
      "▁Himm": 6105,
      "▁Ergebnis": 6106,
      "▁Struktur": 6107,
      "▁Angriff": 6108,
      "▁Nikol": 6109,
      "derung": 6110,
      "▁Standard": 6111,
      "ays": 6112,
      "ers,": 6113,
      "linge": 6114,
      "▁südlichen": 6115,
      "▁Hab": 6116,
      "euch": 6117,
      "hagen": 6118,
      "▁haben,": 6119,
      "▁Schwester": 6120,
      "\nTräger": 6121,
      "üge": 6122,
      "▁Rennen": 6123,
      "en.\n\nDie": 6124,
      "▁kur": 6125,
      "SV": 6126,
      "▁Mühl": 6127,
      "▁Pfer": 6128,
      "atik": 6129,
      "▁(21.": 6130,
      "▁Weiß": 6131,
      "▁Kass": 6132,
      "arischen": 6133,
      "▁Bol": 6134,
      "eitet": 6135,
      "reisen": 6136,
      "\n\nL": 6137,
      "artei": 6138,
      "SC": 6139,
      "apt": 6140,
      "▁Deck": 6141,
      "stände": 6142,
      "▁Informationen": 6143,
      "▁Grafen": 6144,
      "▁(In": 6145,
      "▁Anteil": 6146,
      "▁Freiburg": 6147,
      "▁(n": 6148,
      "▁konnte.": 6149,
      "▁Theologe": 6150,
      "▁Cat": 6151,
      "asst": 6152,
      "▁Schriften": 6153,
      "wechsel": 6154,
      "lub": 6155,
      "sert": 6156,
      "▁Lieb": 6157,
      "sted": 6158,
      "arkeit": 6159,
      "haltung": 6160,
      "▁auch:\n": 6161,
      "▁Ord": 6162,
      "imen": 6163,
      "edia": 6164,
      "Org": 6165,
      "wood": 6166,
      "▁Records": 6167,
      ".\n\nAuf": 6168,
      "vo": 6169,
      "▁Abt": 6170,
      "▁26": 6171,
      "▁kaum": 6172,
      "ware": 6173,
      "▁Ordens": 6174,
      "▁Carol": 6175,
      "technik": 6176,
      "▁Leop": 6177,
      "geg": 6178,
      "▁gestal": 6179,
      "ögen": 6180,
      "iums": 6181,
      "adrat": 6182,
      "▁verloren": 6183,
      "ronom": 6184,
      "kow": 6185,
      "▁Git": 6186,
      "▁hielt": 6187,
      "▁Assoc": 6188,
      "▁heutige": 6189,
      "▁Fenster": 6190,
      "▁\nK": 6191,
      "▁folgten": 6192,
      "\nGe": 6193,
      "struktion": 6194,
      "ernen": 6195,
      "▁Matth": 6196,
      "▁400": 6197,
      "▁Gerichts": 6198,
      "▁Ulrich": 6199,
      "reform": 6200,
      "auben": 6201,
      "▁langen": 6202,
      "▁Off": 6203,
      "-X": 6204,
      "▁zie": 6205,
      "▁Verwendung": 6206,
      "▁Viol": 6207,
      "▁III": 6208,
      "▁Weil": 6209,
      "wen": 6210,
      "▁verkauft": 6211,
      "ulen": 6212,
      "▁Heinz": 6213,
      "fabrik": 6214,
      "ivid": 6215,
      "ouverneur": 6216,
      "gewand": 6217,
      "kämpf": 6218,
      "vertreten": 6219,
      "far": 6220,
      "garten": 6221,
      "val": 6222,
      "eption": 6223,
      "▁Punkte": 6224,
      "▁Eins": 6225,
      "▁1980er": 6226,
      "schm": 6227,
      "gebaut": 6228,
      "▁Entwick": 6229,
      "rodu": 6230,
      "▁Real": 6231,
      "▁Vorstand": 6232,
      "versammlung": 6233,
      "legung": 6234,
      "ustr": 6235,
      "cc": 6236,
      "rhein-West": 6237,
      "▁britische": 6238,
      "jährige": 6239,
      "iland": 6240,
      "én": 6241,
      "▁typ": 6242,
      "gemeinden": 6243,
      "halts": 6244,
      "▁europäischen": 6245,
      "▁\n\nD": 6246,
      "uropameister": 6247,
      "wan": 6248,
      "hu": 6249,
      "▁Engel": 6250,
      "ura": 6251,
      "yse": 6252,
      "dar": 6253,
      "▁beendete": 6254,
      "▁1913": 6255,
      "▁Island": 6256,
      "▁allein": 6257,
      "▁Dazu": 6258,
      "eider": 6259,
      "▁Türk": 6260,
      "ächsischen": 6261,
      "gelassen": 6262,
      "äische": 6263,
      "▁welcher": 6264,
      "xis": 6265,
      "▁auft": 6266,
      "▁Gelände": 6267,
      "▁ph": 6268,
      "▁Zeitung": 6269,
      "▁Darm": 6270,
      "wor": 6271,
      "▁Tem": 6272,
      "▁Uk": 6273,
      "grün": 6274,
      "ücht": 6275,
      "▁worden.": 6276,
      "▁Thema": 6277,
      "▁Architekt": 6278,
      "y\n": 6279,
      "▁Single": 6280,
      "offiz": 6281,
      "▁Konst": 6282,
      "iar": 6283,
      "▁Henry": 6284,
      "▁Ba": 6285,
      "halten,": 6286,
      "▁einst": 6287,
      "▁Strom": 6288,
      "regierung": 6289,
      "leut": 6290,
      "lers": 6291,
      "▁zusätzlich": 6292,
      "IN": 6293,
      "▁Edition": 6294,
      "▁früh": 6295,
      "zus": 6296,
      "▁Abteilung": 6297,
      "ppe": 6298,
      "chen,": 6299,
      "▁Beck": 6300,
      "▁\n\nFilm": 6301,
      "▁Betriebs": 6302,
      "▁Golden": 6303,
      "▁\n\nIn": 6304,
      "▁Großbritann": 6305,
      "▁unver": 6306,
      "▁Australien": 6307,
      "▁\n\nDas": 6308,
      "tell": 6309,
      "▁lau": 6310,
      "usion": 6311,
      "auftrag": 6312,
      "ries": 6313,
      "▁kg": 6314,
      "▁Urs": 6315,
      "▁ru": 6316,
      "edition": 6317,
      "▁verpf": 6318,
      "▁1960er": 6319,
      "▁Open": 6320,
      "▁benutz": 6321,
      "▁Monate": 6322,
      "▁traf": 6323,
      "▁Fäl": 6324,
      "–190": 6325,
      "weiz": 6326,
      "▁dür": 6327,
      "gt.": 6328,
      "▁großer": 6329,
      "ecklenburg": 6330,
      "▁Bert": 6331,
      "▁Dän": 6332,
      "▁berichte": 6333,
      "bi": 6334,
      "▁⚭": 6335,
      "Sch": 6336,
      "▁Mand": 6337,
      "adel": 6338,
      "▁Augen": 6339,
      "iguren": 6340,
      "▁Victor": 6341,
      "▁Dial": 6342,
      "lande": 6343,
      "iö": 6344,
      "▁Adel": 6345,
      "ingungen": 6346,
      "▁vorher": 6347,
      "born": 6348,
      "▁Est": 6349,
      "▁\nAm": 6350,
      "▁\n\nW": 6351,
      "iegen": 6352,
      "▁Europameister": 6353,
      "▁28": 6354,
      "reig": 6355,
      "▁Brief": 6356,
      "gefähr": 6357,
      "epage": 6358,
      "▁(he": 6359,
      "gebnisse": 6360,
      "öhne": 6361,
      "▁mehrfach": 6362,
      "▁Kenn": 6363,
      "▁Wappen": 6364,
      "berg.": 6365,
      "▁gehörten": 6366,
      "erseits": 6367,
      "richter": 6368,
      "▁Ker": 6369,
      "▁unabhäng": 6370,
      "▁gegeben": 6371,
      "reiche": 6372,
      "▁lebt": 6373,
      "▁Prop": 6374,
      "▁5,": 6375,
      "schauspieler\n": 6376,
      "▁Vom": 6377,
      "▁Ausstellung": 6378,
      "obahn": 6379,
      "ll": 6380,
      "▁nomin": 6381,
      "▁russischen": 6382,
      "sprache": 6383,
      "▁Turnier": 6384,
      "bauten": 6385,
      "▁kann.": 6386,
      "▁is": 6387,
      "▁relativ": 6388,
      "▁Klavier": 6389,
      "ierte.": 6390,
      "▁zeigen": 6391,
      "▁erstes": 6392,
      "▁Brasil": 6393,
      "▁Mount": 6394,
      "▁Bür": 6395,
      "ensch": 6396,
      "itiat": 6397,
      "nd": 6398,
      "ränk": 6399,
      "▁Minuten": 6400,
      "usch": 6401,
      ".000": 6402,
      "▁Bremen": 6403,
      "▁gewählt.": 6404,
      "▁\nL": 6405,
      "▁türk": 6406,
      "iction": 6407,
      "▁Vorgänger": 6408,
      "ynam": 6409,
      "▁Cre": 6410,
      "▁regelmäßig": 6411,
      "krieges": 6412,
      "eln,": 6413,
      "▁1990er": 6414,
      "räum": 6415,
      "▁Schauspielerin": 6416,
      "▁Gymnasium": 6417,
      "▁Infanter": 6418,
      "▁Neue": 6419,
      "zeugen": 6420,
      "▁Verlauf": 6421,
      "erweise": 6422,
      "-Sp": 6423,
      "▁Fal": 6424,
      "merkungen": 6425,
      "ation.": 6426,
      "ffer": 6427,
      "▁brach": 6428,
      "▁Marie": 6429,
      "omet": 6430,
      "renz": 6431,
      "▁TV": 6432,
      "fs": 6433,
      "stein,": 6434,
      "▁Baden-Württemberg": 6435,
      "▁weiterer": 6436,
      "▁Kiel": 6437,
      "▁Ehefrau": 6438,
      "▁Adels": 6439,
      "▁deutschsprach": 6440,
      "▁300": 6441,
      "▁Flügel": 6442,
      "▁wirkte": 6443,
      "–196": 6444,
      "▁Emil": 6445,
      "inge": 6446,
      "▁do": 6447,
      "▁Eber": 6448,
      "▁Überg": 6449,
      "▁sein,": 6450,
      "▁nimmt": 6451,
      "masch": 6452,
      "▁anderer": 6453,
      "agegen": 6454,
      "f.": 6455,
      "▁Cent": 6456,
      "ordin": 6457,
      "▁Serv": 6458,
      "▁sodass": 6459,
      "\":": 6460,
      "▁fließ": 6461,
      "ER": 6462,
      "öss": 6463,
      "istent": 6464,
      "sab": 6465,
      "▁Landschaft": 6466,
      "en)": 6467,
      "uelle": 6468,
      "▁Sach": 6469,
      "weisen": 6470,
      "kor": 6471,
      "▁gesp": 6472,
      "rol": 6473,
      "▁prä": 6474,
      "wander": 6475,
      "▁müssen": 6476,
      "azin": 6477,
      "▁startete": 6478,
      "pfl": 6479,
      "oks": 6480,
      "AT": 6481,
      "▁Prot": 6482,
      "schloss": 6483,
      "▁Erb": 6484,
      "▁\n\nH": 6485,
      "▁1911": 6486,
      "▁bietet": 6487,
      "▁trägt": 6488,
      "-Bahn": 6489,
      "▁Verwaltung": 6490,
      "▁Sab": 6491,
      "▁km2": 6492,
      "igt,": 6493,
      "itz,": 6494,
      "▁Play": 6495,
      "ersönlichkeiten": 6496,
      ")\nM": 6497,
      "schlä": 6498,
      "▁modern": 6499,
      "nehm": 6500,
      "iefer": 6501,
      "holz": 6502,
      "Olymp": 6503,
      "uche": 6504,
      "▁Sieger": 6505,
      "▁verbrei": 6506,
      "▁SC": 6507,
      "▁Erzähl": 6508,
      "▁Stahl": 6509,
      "iè": 6510,
      "urteil": 6511,
      "▁Stab": 6512,
      "▁unmittelbar": 6513,
      "▁Ball": 6514,
      "flächen": 6515,
      "nes": 6516,
      "▁27": 6517,
      "▁amerikanischen": 6518,
      "▁Thür": 6519,
      "▁lebten": 6520,
      "uh": 6521,
      "▁fehl": 6522,
      "riz": 6523,
      "▁Gericht": 6524,
      "▁österreichischen": 6525,
      "▁deshalb": 6526,
      "ife": 6527,
      "ury": 6528,
      "▁errichtet.": 6529,
      "▁Dre": 6530,
      "▁Hon": 6531,
      "▁bekam": 6532,
      "–16": 6533,
      "det.": 6534,
      "ziehungs": 6535,
      "▁jünger": 6536,
      "indungen": 6537,
      "oret": 6538,
      "▁Einführung": 6539,
      "▁nördlichen": 6540,
      "▁dritte": 6541,
      "▁Premier": 6542,
      "reichen": 6543,
      "eichen": 6544,
      "macht": 6545,
      "einand": 6546,
      "▁Nomin": 6547,
      "io.": 6548,
      ".\n\nAb": 6549,
      ")\nP": 6550,
      "ommern": 6551,
      "▁weltweit": 6552,
      "▁Übersetz": 6553,
      "empl": 6554,
      "▁Kritik": 6555,
      "▁Zweit": 6556,
      "windigkeit": 6557,
      "emark": 6558,
      "▁Vis": 6559,
      "konom": 6560,
      "▁Hill": 6561,
      "GB": 6562,
      "its": 6563,
      "▁45": 6564,
      "▁\nP": 6565,
      "▁Reb": 6566,
      "rüfung": 6567,
      "▁besetz": 6568,
      "▁1908": 6569,
      "gebiete": 6570,
      "▁Teilnehmer": 6571,
      "n.": 6572,
      "anb": 6573,
      "an.": 6574,
      "▁Vogel": 6575,
      "mehr": 6576,
      "land.": 6577,
      "ilian": 6578,
      "▁(siehe": 6579,
      "▁Tüb": 6580,
      "▁d.": 6581,
      "▁bekannt.": 6582,
      "▁Archä": 6583,
      "luss": 6584,
      "▁leitete": 6585,
      "▁Sl": 6586,
      "sehen": 6587,
      "illon": 6588,
      "▁Leopold": 6589,
      "▁State": 6590,
      "▁Männ": 6591,
      "sal": 6592,
      "stral": 6593,
      "▁unbekann": 6594,
      "ada": 6595,
      "k,": 6596,
      "▁32": 6597,
      "▁(f": 6598,
      "▁+": 6599,
      "▁Lexik": 6600,
      "kunst": 6601,
      "under": 6602,
      "▁P.": 6603,
      "▁Seb": 6604,
      "▁heil": 6605,
      "▁Umgebung": 6606,
      "aufhin": 6607,
      "▁Marine": 6608,
      "▁Back": 6609,
      "▁Fernse": 6610,
      "verfahren": 6611,
      "és": 6612,
      "▁Rath": 6613,
      "▁Aufgrund": 6614,
      "▁Dev": 6615,
      "gliedern": 6616,
      "▁links": 6617,
      "▁Mem": 6618,
      "▁1917": 6619,
      "gebot": 6620,
      "▁Frankfur": 6621,
      "▁Town": 6622,
      "▁westlichen": 6623,
      "▁weitgehend": 6624,
      "▁Theodor": 6625,
      "▁Dichter": 6626,
      "▁italienischen": 6627,
      "▁Mey": 6628,
      "▁Bibliothek": 6629,
      "▁eingesetzt": 6630,
      "arburg": 6631,
      "ID": 6632,
      "ne.": 6633,
      "rasch": 6634,
      "\n\nV": 6635,
      "▁Angaben": 6636,
      "▁Wander": 6637,
      "▁bl": 6638,
      "▁\n\nG": 6639,
      "▁Raj": 6640,
      "▁wor": 6641,
      "▁Kolon": 6642,
      "blatt": 6643,
      "▁Stiftung": 6644,
      "▁Waffen": 6645,
      "iwod": 6646,
      "▁K.": 6647,
      "▁Würz": 6648,
      "mens": 6649,
      "organisation": 6650,
      "▁Debüt": 6651,
      "cu": 6652,
      "▁Orte": 6653,
      "gesetzt": 6654,
      "▁3-7": 6655,
      "▁Laufbahn": 6656,
      "ous": 6657,
      "▁Bildung": 6658,
      "nungs": 6659,
      "sper": 6660,
      "kürz": 6661,
      "▁Auflage.": 6662,
      "▁Maxim": 6663,
      "▁1907": 6664,
      "▁Kohl": 6665,
      "▁geboren.": 6666,
      "▁Get": 6667,
      "▁160": 6668,
      "▁dient": 6669,
      "pret": 6670,
      "▁\n\nT": 6671,
      "▁dire": 6672,
      "gruppen": 6673,
      "ée": 6674,
      "▁lok": 6675,
      "▁Ans": 6676,
      "▁grün": 6677,
      "ar.": 6678,
      "▁Kandid": 6679,
      "▁erfolgt": 6680,
      "▁Pfarrkirche": 6681,
      "ét": 6682,
      "▁1000": 6683,
      "▁folgt": 6684,
      "▁alt": 6685,
      "▁Musiker": 6686,
      "wach": 6687,
      "ühm": 6688,
      "▁Opfer": 6689,
      "▁mon": 6690,
      "roffen": 6691,
      "▁Bask": 6692,
      "▁Society": 6693,
      ")\nR": 6694,
      "▁Jon": 6695,
      "orgung": 6696,
      "▁Europäischen": 6697,
      "pfel": 6698,
      "ritor": 6699,
      "▁Göttingen": 6700,
      "▁Höhen": 6701,
      "▁oben": 6702,
      "▁1905": 6703,
      "▁umben": 6704,
      "▁L.": 6705,
      "evölker": 6706,
      "ziplin": 6707,
      "uster": 6708,
      "▁Ok": 6709,
      "▁begl": 6710,
      "ues": 6711,
      "▁ans": 6712,
      "▁Möglichkeit": 6713,
      "bogen": 6714,
      "▁EU": 6715,
      "▁rei": 6716,
      "▁Abschnitt": 6717,
      "häuser": 6718,
      "▁Wechsel": 6719,
      "-Ch": 6720,
      "▁Dr": 6721,
      "erer": 6722,
      "▁natür": 6723,
      "–197": 6724,
      "▁Rou": 6725,
      "▁Joachim": 6726,
      "-Hol": 6727,
      "▁Unternehmer": 6728,
      "▁„N": 6729,
      "▁Blüten": 6730,
      "isierte": 6731,
      "▁beein": 6732,
      "halte": 6733,
      "▁Jacob": 6734,
      "▁veröffentlicht": 6735,
      "▁Französ": 6736,
      "▁Ster": 6737,
      "iy": 6738,
      "▁Studenten": 6739,
      "▁Log": 6740,
      "▁Anal": 6741,
      "▁Laufe": 6742,
      "▁englischen": 6743,
      "▁2006,": 6744,
      "serie": 6745,
      "▁eingerichte": 6746,
      "▁größere": 6747,
      "vertrag": 6748,
      "-Er": 6749,
      "▁2007,": 6750,
      "arische": 6751,
      "▁Wit": 6752,
      "-00": 6753,
      "rib": 6754,
      "arre": 6755,
      "dienste": 6756,
      "▁errichtet": 6757,
      "▁verd": 6758,
      "▁umfassen": 6759,
      "▁Eck": 6760,
      "▁christ": 6761,
      "▁(heute": 6762,
      "weite": 6763,
      "t.\n\nE": 6764,
      "▁grund": 6765,
      "▁gerade": 6766,
      "▁2008,": 6767,
      "▁(15": 6768,
      "▁Feder": 6769,
      "gült": 6770,
      "▁Dram": 6771,
      "ümer": 6772,
      "brücke": 6773,
      "IS": 6774,
      "ato": 6775,
      "eitere": 6776,
      "ituation": 6777,
      "zugs": 6778,
      "mach": 6779,
      "▁Galerie": 6780,
      "bum": 6781,
      "▁Fakult": 6782,
      "inden": 6783,
      "▁Dro": 6784,
      "cel": 6785,
      "▁ebend": 6786,
      "▁Chic": 6787,
      "▁Ingen": 6788,
      "einer": 6789,
      "mir": 6790,
      "roph": 6791,
      "istisch": 6792,
      "▁laut": 6793,
      "▁internationale": 6794,
      "▁Wach": 6795,
      "ist\n": 6796,
      "▁Rod": 6797,
      "▁erhält": 6798,
      "lett": 6799,
      "ria": 6800,
      "▁2005,": 6801,
      "▁Video": 6802,
      "▁Heft": 6803,
      "▁rest": 6804,
      "t.\n\nWeblinks": 6805,
      "sam": 6806,
      "uell": 6807,
      "-Weltmeisterschaft": 6808,
      "politik": 6809,
      "▁prakt": 6810,
      "▁Bundesrepublik": 6811,
      "heorie": 6812,
      "anen": 6813,
      "ales": 6814,
      "▁King": 6815,
      "▁Lind": 6816,
      "▁Villa": 6817,
      "▁außerhalb": 6818,
      "▁verlassen": 6819,
      "irge": 6820,
      "icht.": 6821,
      "▁zusammenge": 6822,
      "▁sech": 6823,
      "auber": 6824,
      "gau": 6825,
      "ulation": 6826,
      "▁verpflich": 6827,
      "▁Öl": 6828,
      "▁Train": 6829,
      "▁Nam": 6830,
      "▁kultur": 6831,
      "▁Todes": 6832,
      "▁Fün": 6833,
      "▁Braunschweig": 6834,
      "▁Oberst": 6835,
      "ien\n": 6836,
      "▁Vorder": 6837,
      "herzog": 6838,
      "▁Instit": 6839,
      "▁Homepage": 6840,
      "▁Handbuch": 6841,
      "▁verantwort": 6842,
      "rak": 6843,
      "▁darstell": 6844,
      ")\nEishockey": 6845,
      "at,": 6846,
      "▁Aufbau": 6847,
      "ani": 6848,
      "▁Tar": 6849,
      "▁Krieges": 6850,
      "▁Eg": 6851,
      "talien": 6852,
      "▁Beiträge": 6853,
      "▁Grie": 6854,
      "▁gleichnamigen": 6855,
      "▁Original": 6856,
      "sch,": 6857,
      "▁jeweiligen": 6858,
      "▁Jürgen": 6859,
      "▁Lad": 6860,
      "▁Doch": 6861,
      "een": 6862,
      "▁Forst": 6863,
      "▁früheren": 6864,
      "▁höchsten": 6865,
      "fekt": 6866,
      "▁Kolle": 6867,
      "tent": 6868,
      "▁Denn": 6869,
      "▁sollten": 6870,
      "▁Ergebnisse": 6871,
      "inkel": 6872,
      "schnit": 6873,
      "ders": 6874,
      "▁Kongress": 6875,
      "lor": 6876,
      "mith": 6877,
      "▁Prag": 6878,
      "-Ges": 6879,
      "ctor": 6880,
      "ortug": 6881,
      "“\n": 6882,
      "▁namens": 6883,
      "flügel": 6884,
      "▁th": 6885,
      "äne": 6886,
      "▁Can": 6887,
      "vorsitz": 6888,
      "ulpt": 6889,
      "ksam": 6890,
      "istenz": 6891,
      "▁Handel": 6892,
      "▁gebilde": 6893,
      "▁mussten": 6894,
      "▁Eduard": 6895,
      "ligisten": 6896,
      "▁inzwischen": 6897,
      "▁Kathol": 6898,
      "▁Bab": 6899,
      "▁Weltkriegs": 6900,
      "▁Brau": 6901,
      "por": 6902,
      "krit": 6903,
      "▁Erfahr": 6904,
      "\nErbaut": 6905,
      "eln.": 6906,
      "stattung": 6907,
      "▁1906": 6908,
      "▁Blut": 6909,
      "▁British": 6910,
      "▁Blatt": 6911,
      "auern": 6912,
      "▁gesetz": 6913,
      "▁Leichtathlet": 6914,
      "▁sag": 6915,
      "▁Por": 6916,
      "▁2004,": 6917,
      "▁Live": 6918,
      "laden": 6919,
      "▁engag": 6920,
      "DP": 6921,
      ")\nTeilnehmer": 6922,
      "netz": 6923,
      ".\n\nBe": 6924,
      "punkte": 6925,
      "▁verheiratet": 6926,
      "emente": 6927,
      "▁6,": 6928,
      "obach": 6929,
      "▁res": 6930,
      "▁Science": 6931,
      "▁galt": 6932,
      "▁stellvertreten": 6933,
      "▁Hafen": 6934,
      "▁größeren": 6935,
      "▁Tok": 6936,
      "▁UN": 6937,
      "gerichts": 6938,
      "▁Partner": 6939,
      "▁Master": 6940,
      "une": 6941,
      "HL": 6942,
      "gemeinen": 6943,
      "▁wäre": 6944,
      "▁Nur": 6945,
      "klass": 6946,
      "▁Themen": 6947,
      "seud": 6948,
      ".\n\nGeographie": 6949,
      "▁austral": 6950,
      "eilen": 6951,
      "p.": 6952,
      "vention": 6953,
      "us.": 6954,
      "▁Sat": 6955,
      "va": 6956,
      "▁Weise": 6957,
      "▁Nordrhein-West": 6958,
      "ér": 6959,
      "▁Konfl": 6960,
      "ript": 6961,
      "▁Hohen": 6962,
      "▁Ring": 6963,
      "▁Rost": 6964,
      "it,": 6965,
      "wir": 6966,
      "▁Li": 6967,
      "▁Woiwod": 6968,
      "▁Internationalen": 6969,
      "▁Besonder": 6970,
      "▁Konzert": 6971,
      "▁Zweck": 6972,
      "▁Pian": 6973,
      "ordens": 6974,
      "▁belieb": 6975,
      "▁Philosophie": 6976,
      "arin": 6977,
      "stellungs": 6978,
      "▁fertig": 6979,
      "▁Mädchen": 6980,
      "▁Kindern": 6981,
      "▁Bekann": 6982,
      "▁Brücke": 6983,
      "▁Sus": 6984,
      "▁Schleswig": 6985,
      "burg.": 6986,
      "▁Frühjahr": 6987,
      "wärt": 6988,
      "ji": 6989,
      "asste": 6990,
      "▁Darüber": 6991,
      "▁Kosten": 6992,
      "▁Hamburger": 6993,
      "▁Prozess": 6994,
      "wettbewerb": 6995,
      "▁Heidelberg": 6996,
      "▁entwickelt": 6997,
      "as.": 6998,
      "▁Ist": 6999,
      "heimer": 7000,
      "▁SPD": 7001,
      "\nC": 7002,
      "▁Qualifikation": 7003,
      "äst": 7004,
      "▁wid": 7005,
      "Organisation": 7006,
      "▁\n\nL": 7007,
      "▁Klass": 7008,
      "weih": 7009,
      "▁jungen": 7010,
      "▁sub": 7011,
      "del": 7012,
      "▁Kath": 7013,
      "gelegen": 7014,
      "kopf": 7015,
      "etts": 7016,
      "▁künstler": 7017,
      "▁Kult": 7018,
      "e:": 7019,
      "▁Sowjetunion": 7020,
      "▁Bron": 7021,
      "▁Wel": 7022,
      "orenz": 7023,
      "führt,": 7024,
      "sbaden": 7025,
      "son,": 7026,
      "▁Unternehmens": 7027,
      "▁Satz": 7028,
      "▁Architekten": 7029,
      "▁lö": 7030,
      "useum": 7031,
      "▁Beschreibung": 7032,
      "-Aus": 7033,
      "▁bildete": 7034,
      "▁Adam": 7035,
      "sheim": 7036,
      "▁Bass": 7037,
      "▁Flughafen": 7038,
      "▁Mach": 7039,
      "▁nied": 7040,
      "▁Champion": 7041,
      "▁Öffentlich": 7042,
      "▁sogenannte": 7043,
      "▁1909": 7044,
      "rechte": 7045,
      "▁Sur": 7046,
      "▁grenz": 7047,
      "▁wichtige": 7048,
      "rian": 7049,
      "roat": 7050,
      "▁Herbert": 7051,
      "▁Stunden": 7052,
      "S.": 7053,
      "gestellt,": 7054,
      "▁Are": 7055,
      "▁geschrieben": 7056,
      "ütte": 7057,
      "▁US-amerikanischen": 7058,
      "▁Academy": 7059,
      "▁sof": 7060,
      "ikations": 7061,
      "lay": 7062,
      "otten": 7063,
      "▁Moskau": 7064,
      "▁nichts": 7065,
      "▁Basel": 7066,
      "▁zugleich": 7067,
      "▁Kard": 7068,
      "▁Mission": 7069,
      "jew": 7070,
      "horn": 7071,
      "programm": 7072,
      "▁Nicht": 7073,
      "▁Empf": 7074,
      "▁4:": 7075,
      "▁US-D": 7076,
      "▁Aufgaben": 7077,
      "▁by": 7078,
      "reff": 7079,
      "▁Ereig": 7080,
      "▁Allerdings": 7081,
      "▁Heute": 7082,
      "▁\nJ": 7083,
      "emm": 7084,
      "ba": 7085,
      "ín": 7086,
      "▁Weltmeisterschaft": 7087,
      "▁Neuen": 7088,
      "▁Rückkehr": 7089,
      "▁erkenn": 7090,
      "1)": 7091,
      "▁Bücher": 7092,
      "▁sprach": 7093,
      "ger,": 7094,
      "ritter": 7095,
      "▁Regional": 7096,
      "\nBauwerk": 7097,
      "▁abgerufen": 7098,
      "▁7,": 7099,
      "▁(ab": 7100,
      "▁Fahrzeug": 7101,
      "▁1904": 7102,
      "▁\nR": 7103,
      "▁wahrscheinlich": 7104,
      "▁\nT": 7105,
      "denkmale": 7106,
      "▁1915": 7107,
      "▁weib": 7108,
      "▁Distrikt": 7109,
      "▁#": 7110,
      "–193": 7111,
      "▁Diet": 7112,
      "ror": 7113,
      "▁öffentlich": 7114,
      "▁\nEr": 7115,
      "▁Exper": 7116,
      "▁Bahnstrecke": 7117,
      "ffekt": 7118,
      "kammer": 7119,
      "▁dahin": 7120,
      "▁Margar": 7121,
      "▁jährlich": 7122,
      "roll": 7123,
      "▁Send": 7124,
      "kultur": 7125,
      "▁Sec": 7126,
      "▁relig": 7127,
      "mann:": 7128,
      "sex": 7129,
      "▁erg": 7130,
      "▁vergleich": 7131,
      "▁schaff": 7132,
      "▁umfang": 7133,
      "▁tschech": 7134,
      "▁Ich": 7135,
      "▁Sm": 7136,
      "▁Vik": 7137,
      "▁Kün": 7138,
      "ows": 7139,
      "▁erstreck": 7140,
      "ikanischer": 7141,
      "▁Bauwerk": 7142,
      "▁Kons": 7143,
      "gangs": 7144,
      "▁Verfahren": 7145,
      "VP": 7146,
      "▁Bayerischen": 7147,
      "▁Simon": 7148,
      "▁Verhältnis": 7149,
      "itor": 7150,
      "haus,": 7151,
      "–195": 7152,
      "▁IV.": 7153,
      "tur": 7154,
      "▁notwend": 7155,
      "▁Transport": 7156,
      "wn": 7157,
      "auen": 7158,
      "▁Ther": 7159,
      "▁Wag": 7160,
      "baum": 7161,
      "▁Klin": 7162,
      "▁beginnt": 7163,
      "minton": 7164,
      "▁Jahrzehn": 7165,
      "tend": 7166,
      "▁Rez": 7167,
      "▁Bib": 7168,
      "kräfte": 7169,
      "ugend": 7170,
      "familie": 7171,
      ".com": 7172,
      "▁Figur": 7173,
      "▁Domin": 7174,
      "got": 7175,
      "▁Vaters": 7176,
      "atal": 7177,
      "▁posit": 7178,
      "zub": 7179,
      "▁Rheinland": 7180,
      "▁erschienen": 7181,
      "gol": 7182,
      "▁wider": 7183,
      "▁arbeiten": 7184,
      "stuhl": 7185,
      "chen.": 7186,
      "2)": 7187,
      "onst": 7188,
      "frastruktur": 7189,
      "▁Sicht": 7190,
      "ufe": 7191,
      "ison": 7192,
      "▁verp": 7193,
      "be,": 7194,
      "eucht": 7195,
      "▁3-5": 7196,
      "▁„C": 7197,
      "handlungen": 7198,
      "zählung": 7199,
      "heit,": 7200,
      "▁arch": 7201,
      "umente": 7202,
      "atter": 7203,
      "▁Standort": 7204,
      "▁Dir": 7205,
      "▁Ram": 7206,
      "▁Hekt": 7207,
      "▁aufgelöst": 7208,
      "t.\n\nLiteratur": 7209,
      "▁Autoren": 7210,
      "▁gingen": 7211,
      "▁Verl": 7212,
      "▁Erich": 7213,
      "▁Hard": 7214,
      "▁Sign": 7215,
      "hafte": 7216,
      "BA": 7217,
      "▁Dah": 7218,
      "ruhe": 7219,
      "ota": 7220,
      "▁benöt": 7221,
      "▁Neubau": 7222,
      "räsentanten": 7223,
      "▁Kommission": 7224,
      "ilien": 7225,
      "▁Unabhäng": 7226,
      "klärung": 7227,
      "▁Grundlage": 7228,
      "▁House": 7229,
      "theit": 7230,
      "▁2001,": 7231,
      "film)\n": 7232,
      "▁Rol": 7233,
      "en:": 7234,
      "▁dagegen": 7235,
      "utet": 7236,
      "cy": 7237,
      "▁weist": 7238,
      "▁Studio": 7239,
      "▁Leistung": 7240,
      "▁Jagd": 7241,
      "fürst": 7242,
      "▁Bob": 7243,
      "ci": 7244,
      "▁Beide": 7245,
      "▁Alexand": 7246,
      "▁Arts": 7247,
      "▁erinn": 7248,
      "ell,": 7249,
      "▁Geheim": 7250,
      "▁Ess": 7251,
      "fal": 7252,
      "▁Weimar": 7253,
      "▁\n\nIm": 7254,
      "leutnant": 7255,
      "▁Deutschland,": 7256,
      "▁Hub": 7257,
      "▁Online": 7258,
      "o-": 7259,
      "▁sollen": 7260,
      "▁(Land": 7261,
      "▁Töch": 7262,
      "eitungs": 7263,
      "▁Nationalsozialismus": 7264,
      "▁Konrad": 7265,
      "▁Santa": 7266,
      "-Pf": 7267,
      "▁elektr": 7268,
      "örde": 7269,
      "abe": 7270,
      "spann": 7271,
      "ographische": 7272,
      "▁Richt": 7273,
      "eind": 7274,
      "▁anerk": 7275,
      "▁Ruhe": 7276,
      "sänger": 7277,
      "▁(Al": 7278,
      "trainer": 7279,
      "▁Führung": 7280,
      "aufen": 7281,
      "▁Theologie": 7282,
      "▁Sig": 7283,
      "äher": 7284,
      "▁(3": 7285,
      "▁Erinner": 7286,
      "lings": 7287,
      "▁Pau": 7288,
      "ound": 7289,
      "▁Woiwodschaft": 7290,
      "▁Camb": 7291,
      "▁Kontr": 7292,
      "▁Varian": 7293,
      "▁(bis": 7294,
      "▁lern": 7295,
      "▁Fe": 7296,
      "stern": 7297,
      "zeichnis": 7298,
      "ängnis": 7299,
      "▁es,": 7300,
      "oul": 7301,
      "rucht": 7302,
      "et.": 7303,
      "▁Herkunft": 7304,
      "▁erhöh": 7305,
      "▁aut": 7306,
      "▁Organis": 7307,
      "▁Paar": 7308,
      "t.\n\nW": 7309,
      "▁setzt": 7310,
      "c.": 7311,
      "▁Niedersachsen": 7312,
      "BC": 7313,
      "▁Magde": 7314,
      "▁1916": 7315,
      "liegen": 7316,
      "▁Sonn": 7317,
      "ittel": 7318,
      "▁\nN": 7319,
      "▁Lokomot": 7320,
      "bewegung": 7321,
      "▁breit": 7322,
      "preuß": 7323,
      "▁Wiesbaden": 7324,
      "weile": 7325,
      "orgen": 7326,
      "▁Krank": 7327,
      "▁Presse": 7328,
      "asilian": 7329,
      "▁Mexik": 7330,
      "wischen": 7331,
      "sekretär": 7332,
      "▁Lux": 7333,
      "▁Abend": 7334,
      "▁tragen": 7335,
      "▁Edward": 7336,
      "DAP": 7337,
      "▁Aufnahme": 7338,
      "rund": 7339,
      "rz": 7340,
      "ohle": 7341,
      "▁hol": 7342,
      "ques": 7343,
      "▁rück": 7344,
      "CA": 7345,
      "▁Oxford": 7346,
      "gänz": 7347,
      "▁1950er": 7348,
      "▁Herausgeber": 7349,
      "▁nahmen": 7350,
      "▁lief": 7351,
      "chester": 7352,
      "▁Fürsten": 7353,
      "▁Automobil": 7354,
      "▁Helmut": 7355,
      "riffen": 7356,
      "▁Bevölkerungs": 7357,
      "s)": 7358,
      "zut": 7359,
      "//": 7360,
      "▁Mary": 7361,
      "grenze": 7362,
      "ky": 7363,
      "▁Hug": 7364,
      "▁veränder": 7365,
      "▁phil": 7366,
      "älde": 7367,
      "▁Front": 7368,
      "heim,": 7369,
      "isc": 7370,
      "▁Nummer": 7371,
      "klus": 7372,
      "ktions": 7373,
      "▁Anh": 7374,
      "▁Fass": 7375,
      "▁Basketball": 7376,
      "▁wirk": 7377,
      "alte": 7378,
      "▁hingegen": 7379,
      "▁2011:": 7380,
      "leihung": 7381,
      "▁genannt,": 7382,
      "arakter": 7383,
      "▁Kos": 7384,
      "▁Marien": 7385,
      "▁East": 7386,
      "▁gemäß": 7387,
      "ausschuss": 7388,
      "▁musikal": 7389,
      "▁vierten": 7390,
      "ist,": 7391,
      "▁2009,": 7392,
      "▁Verkauf": 7393,
      "▁obwohl": 7394,
      "lowakei": 7395,
      "station": 7396,
      "en.\n\nB": 7397,
      "▁bekannten": 7398,
      "▁beste": 7399,
      "▁Schweden": 7400,
      "ödie": 7401,
      "▁trug": 7402,
      "▁Julius": 7403,
      "▁enth": 7404,
      "▁Stra": 7405,
      "sende": 7406,
      "▁defin": 7407,
      "▁erforder": 7408,
      "▁bestehen": 7409,
      "▁2010:": 7410,
      "▁genannten": 7411,
      "prochen": 7412,
      "/B": 7413,
      "aria": 7414,
      "kore": 7415,
      "amerika": 7416,
      "▁benach": 7417,
      "▁heißt": 7418,
      "figur": 7419,
      "▁Bildungs": 7420,
      "ständigen": 7421,
      "rt": 7422,
      "▁wohn": 7423,
      "▁(19.": 7424,
      "▁erzähl": 7425,
      "▁2003,": 7426,
      "▁1903": 7427,
      "▁Veröffentlichung": 7428,
      "enntnis": 7429,
      "ienten": 7430,
      "▁wollte": 7431,
      "▁Koch": 7432,
      "fassung": 7433,
      "▁Porträt": 7434,
      "▁ausgeb": 7435,
      "▁Größe": 7436,
      "▁besaß": 7437,
      "▁endgült": 7438,
      "drück": 7439,
      "▁2012:": 7440,
      "ala": 7441,
      "▁Meer": 7442,
      "▁°": 7443,
      "▁2009:": 7444,
      "▁neues": 7445,
      "-de": 7446,
      "album": 7447,
      "▁Verdienst": 7448,
      "▁Einige": 7449,
      "▁Daneben": 7450,
      "-10": 7451,
      "ilmografie": 7452,
      "▁Dissert": 7453,
      "ramm": 7454,
      "▁vorges": 7455,
      "▁Kontakt": 7456,
      "▁Van": 7457,
      "▁Box": 7458,
      "▁Computer": 7459,
      "▁diver": 7460,
      "trem": 7461,
      "▁Horn": 7462,
      "rankreich": 7463,
      "▁elf": 7464,
      "▁untersuch": 7465,
      "züge": 7466,
      "▁Holl": 7467,
      "▁ident": 7468,
      "gemeine": 7469,
      "▁jüdischen": 7470,
      "sver": 7471,
      "▁978-3-4": 7472,
      "▁Tore": 7473,
      "▁PS": 7474,
      "▁Dann": 7475,
      "▁Linien": 7476,
      "▁völ": 7477,
      "▁Verfügung": 7478,
      "▁mö": 7479,
      "▁Interview": 7480,
      "irn": 7481,
      "ring": 7482,
      "ology": 7483,
      "▁Pfarrer": 7484,
      "▁Att": 7485,
      "▁2002,": 7486,
      "▁Teilen": 7487,
      "mond": 7488,
      "deutsche": 7489,
      "▁präsent": 7490,
      "▁begr": 7491,
      "mühle": 7492,
      "▁l’": 7493,
      "▁übersetz": 7494,
      "▁Ungarn": 7495,
      "▁getr": 7496,
      "tert": 7497,
      "akteur": 7498,
      "▁Baron": 7499,
      "▁gefähr": 7500,
      "▁SV": 7501,
      "▁Kapit": 7502,
      "▁wichtigsten": 7503,
      "t.\n\nIm": 7504,
      "äufer": 7505,
      "lein": 7506,
      "▁sicher": 7507,
      "istan": 7508,
      "▁fäl": 7509,
      "▁Hell": 7510,
      "▁verkehr": 7511,
      "▁Veranstalt": 7512,
      "▁Hockey": 7513,
      "schauer": 7514,
      "▁Metall": 7515,
      "ih": 7516,
      "▁höchste": 7517,
      "▁Schne": 7518,
      "ienen": 7519,
      "▁Essen": 7520,
      "scht": 7521,
      "▁entsprechend": 7522,
      "▁2008:": 7523,
      "eicher": 7524,
      "▁Abitur": 7525,
      "▁Ban": 7526,
      "▁gegründeten": 7527,
      "blätter": 7528,
      "▁Grupp": 7529,
      "▁verfügt": 7530,
      "▁Präsidenten": 7531,
      "▁Ke": 7532,
      "▁Bundestag": 7533,
      "bung": 7534,
      "▁Berufs": 7535,
      "oid": 7536,
      "astian": 7537,
      "▁schied": 7538,
      "▁maxim": 7539,
      "▁120": 7540,
      "▁WM": 7541,
      "manns": 7542,
      "▁Wenn": 7543,
      "präsident": 7544,
      "lekt": 7545,
      "▁Sankt": 7546,
      "▁Sav": 7547,
      "▁Law": 7548,
      "▁Association": 7549,
      "rateg": 7550,
      "reiter": 7551,
      "bahnhof": 7552,
      "iode": 7553,
      "▁Technik": 7554,
      "bek": 7555,
      "▁übertragen": 7556,
      "▁endete": 7557,
      "▁Imm": 7558,
      "SS": 7559,
      "▁Tit": 7560,
      "▁Insgesamt": 7561,
      "▁Mön": 7562,
      "▁Lit": 7563,
      "ellschaften": 7564,
      "kriegs": 7565,
      "reit": 7566,
      "▁Weltkrieges": 7567,
      "▁männ": 7568,
      "i)": 7569,
      "▁Mecklenburg": 7570,
      "▁Bell": 7571,
      "national": 7572,
      "▁Yo": 7573,
      "ieh": 7574,
      "ta": 7575,
      "essel": 7576,
      "ttp": 7577,
      "▁norweg": 7578,
      "-Bundes": 7579,
      "▁2015:": 7580,
      "vin": 7581,
      "ktiv": 7582,
      "▁Vil": 7583,
      "ausstellung": 7584,
      "▁Jud": 7585,
      "▁Chron": 7586,
      "ocke": 7587,
      "▁Final": 7588,
      "▁Landschafts": 7589,
      "zahlen": 7590,
      "▁urkund": 7591,
      "▁wenigen": 7592,
      "▁Exempl": 7593,
      "häus": 7594,
      "arbeitet": 7595,
      "▁Punkten": 7596,
      "▁Nürnberg": 7597,
      "▁„Die": 7598,
      "▁US-Dollar": 7599,
      "-I": 7600,
      "▁verfüg": 7601,
      "▁Junioren": 7602,
      "▁ö": 7603,
      "▁ann": 7604,
      "▁Gas": 7605,
      "▁Tode": 7606,
      "▁Geg": 7607,
      "ehler": 7608,
      "höhe": 7609,
      "▁Lexikon": 7610,
      "▁gelten": 7611,
      "atin": 7612,
      "edig": 7613,
      "▁oberen": 7614,
      "bas": 7615,
      "öder": 7616,
      "marsch": 7617,
      "ado": 7618,
      "genöss": 7619,
      "▁Sak": 7620,
      "▁Abgeordneten": 7621,
      "▁erl": 7622,
      "ien)": 7623,
      "▁linken": 7624,
      "▁gewinn": 7625,
      "ress": 7626,
      ".\n\nEinzelnachweise\n\nWeblinks": 7627,
      "06": 7628,
      "▁1902": 7629,
      "▁junge": 7630,
      "▁Roten": 7631,
      "uay": 7632,
      "▁Übersetzung": 7633,
      "▁Austral": 7634,
      "aiss": 7635,
      "▁Nutzung": 7636,
      "istischer": 7637,
      "▁2013:": 7638,
      "▁Gründ": 7639,
      "▁Hintergrund": 7640,
      "/S": 7641,
      "raine": 7642,
      "▁Sinne": 7643,
      "▁Tsch": 7644,
      "▁Rain": 7645,
      "▁as": 7646,
      "▁33": 7647,
      "▁°C": 7648,
      "▁bestritt": 7649,
      "▁2007:": 7650,
      "▁Farb": 7651,
      "▁2000,": 7652,
      "▁36": 7653,
      "kop": 7654,
      "▁Tanz": 7655,
      "afel": 7656,
      "▁Formen": 7657,
      "\nTeilnehmer": 7658,
      "▁nehmen": 7659,
      "▁Bezug": 7660,
      "▁eröffnet": 7661,
      "▁abgeschlossen": 7662,
      "-Band": 7663,
      "öz": 7664,
      "iro": 7665,
      "spitz": 7666,
      ".\n\nWerke": 7667,
      "▁weiteres": 7668,
      "ific": 7669,
      "teile": 7670,
      "echts": 7671,
      "▁können,": 7672,
      "▁2014:": 7673,
      "▁Eröff": 7674,
      "ädt": 7675,
      "örden": 7676,
      "witz": 7677,
      "▁Meda": 7678,
      "fführung": 7679,
      "\nGegründet": 7680,
      "degang": 7681,
      "z.": 7682,
      "▁d’A": 7683,
      "▁Pierre": 7684,
      "aiser": 7685,
      "▁Fle": 7686,
      "eta": 7687,
      "regisseur": 7688,
      "ärker": 7689,
      "▁il": 7690,
      "▁Interesse": 7691,
      "-Or": 7692,
      "▁gewählt": 7693,
      "barkeit": 7694,
      "▁Station": 7695,
      "▁Gebur": 7696,
      "iateilnehmer": 7697,
      "▁östlichen": 7698,
      "▁CO": 7699,
      "▁Historiker": 7700,
      "spiegel": 7701,
      "unc": 7702,
      "▁Spezial": 7703,
      "▁dauer": 7704,
      "▁Geburtstag": 7705,
      "/M": 7706,
      "▁Sicherheit": 7707,
      "▁Än": 7708,
      "linien": 7709,
      "odurch": 7710,
      "▁Nationalmannschaft": 7711,
      "oman": 7712,
      "orten": 7713,
      "▁Organ": 7714,
      "▁Durchmesser": 7715,
      "▁Fakultät": 7716,
      "▁Bildhauer": 7717,
      "zell": 7718,
      "▁County,": 7719,
      "▁Hav": 7720,
      "stechn": 7721,
      "alisierung": 7722,
      "ommun": 7723,
      "änner": 7724,
      "▁römischen": 7725,
      "▁Israel": 7726,
      "▁publ": 7727,
      "ußer": 7728,
      "▁Kanz": 7729,
      "▁katholischen": 7730,
      "▁Ori": 7731,
      "l,": 7732,
      "▁Wirken": 7733,
      "▁Gir": 7734,
      "▁Handball": 7735,
      "▁Mauer": 7736,
      "▁2010,": 7737,
      "ador": 7738,
      "änen": 7739,
      "▁eingesetzt.": 7740,
      "▁Bundesliga": 7741,
      "▁benann": 7742,
      "▁Fahrzeuge": 7743,
      "ye": 7744,
      "▁Ris": 7745,
      "\nSt": 7746,
      "▁behand": 7747,
      "▁Zentr": 7748,
      "▁1848": 7749,
      "▁ausgestat": 7750,
      "▁Arthur": 7751,
      "▁2006:": 7752,
      "▁sich,": 7753,
      "▁bekannte": 7754,
      "▁forder": 7755,
      "▁Ens": 7756,
      "▁wodurch": 7757,
      "idae": 7758,
      "▁Fisch": 7759,
      "fälle": 7760,
      "▁Big": 7761,
      "▁29": 7762,
      "bar.": 7763,
      "▁Schach": 7764,
      "rix": 7765,
      "▁Erfolge": 7766,
      "▁Bände": 7767,
      "▁ähnlich": 7768,
      "io,": 7769,
      "▁wähl": 7770,
      "▁Häuser": 7771,
      "atoren": 7772,
      "▁bein": 7773,
      "▁dunk": 7774,
      "▁Dieter": 7775,
      "gebaut.": 7776,
      "▁Strecken": 7777,
      "▁Wahlkreis": 7778,
      "pflicht": 7779,
      "▁historische": 7780,
      "▁Institute": 7781,
      "▁1901": 7782,
      "möglich": 7783,
      "▁Trotz": 7784,
      "▁Tu": 7785,
      "▁Kaliforn": 7786,
      "▁enthalten": 7787,
      "graben": 7788,
      "racht.": 7789,
      "ethe": 7790,
      "▁Monument": 7791,
      "lässlich": 7792,
      "ension": 7793,
      "▁Alpen": 7794,
      "▁1899": 7795,
      "▁Biograph": 7796,
      "▁zweimal": 7797,
      "▁Pu": 7798,
      "▁Olden": 7799,
      "rum": 7800,
      "▁älteste": 7801,
      "▁Zo": 7802,
      "t.\n\nDer": 7803,
      "▁feier": 7804,
      "händ": 7805,
      "▁ermittel": 7806,
      "▁Dol": 7807,
      "gyp": 7808,
      "isch:": 7809,
      "▁kauf": 7810,
      ")\nGeboren": 7811,
      "▁Zerstör": 7812,
      "▁Quer": 7813,
      "anda": 7814,
      "▁Corn": 7815,
      ";\n": 7816,
      "st,": 7817,
      "▁(PDF;": 7818,
      "hebung": 7819,
      "geschlagen": 7820,
      "\nLiteratur": 7821,
      "▁Mid": 7822,
      "▁mittels": 7823,
      "▁genutzt": 7824,
      "▁landwirtschaft": 7825,
      "▁kleiner": 7826,
      "▁gelegenen": 7827,
      "stehung": 7828,
      "▁mensch": 7829,
      "▁Nah": 7830,
      "▁österreichische": 7831,
      "▁orient": 7832,
      "▁1898": 7833,
      "▁tö": 7834,
      "direktor": 7835,
      "jek": 7836,
      "▁Bened": 7837,
      "▁Group": 7838,
      "hemalige": 7839,
      "▁Invest": 7840,
      "▁Len": 7841,
      "geschrieben": 7842,
      "▁solche": 7843,
      "▁Opern": 7844,
      "▁Pok": 7845,
      "▁bezeichnet.": 7846,
      "yg": 7847,
      "▁MB": 7848,
      "▁Komposition": 7849,
      "-Ab": 7850,
      "▁Rundfunk": 7851,
      "ters": 7852,
      "▁sieht": 7853,
      "▁(Digitalisat": 7854,
      "rant": 7855,
      "▁erb": 7856,
      "vel": 7857,
      "en.\n\nS": 7858,
      "▁May": 7859,
      "▁hör": 7860,
      "ücksicht": 7861,
      "▁kommun": 7862,
      "o)": 7863,
      "▁schlech": 7864,
      "▁Beziehungen": 7865,
      "▁Letz": 7866,
      "kin": 7867,
      "örp": 7868,
      "▁Verhalten": 7869,
      "▁Earl": 7870,
      "▁Berlin.": 7871,
      "▁ernannt.": 7872,
      "ädagoge": 7873,
      "press": 7874,
      "▁Eint": 7875,
      "losen": 7876,
      "riminal": 7877,
      "▁Asp": 7878,
      "▁Zimmer": 7879,
      "▁2016:": 7880,
      "hlen": 7881,
      "col": 7882,
      "jan": 7883,
      "ates": 7884,
      "▁Wett": 7885,
      "▁Laut": 7886,
      "▁bay": 7887,
      "▁Na": 7888,
      "▁Zeu": 7889,
      "anze": 7890,
      "▁heim": 7891,
      "▁Trau": 7892,
      "▁Nation": 7893,
      "▁Klub": 7894,
      "▁leich": 7895,
      "▁Films": 7896,
      "legte": 7897,
      "▁Atlant": 7898,
      ")\nEishockeyspieler": 7899,
      "is.": 7900,
      "zun": 7901,
      "▁Indian": 7902,
      "ündeten": 7903,
      "imme": 7904,
      "▁bi": 7905,
      "einanders": 7906,
      "▁2011,": 7907,
      "▁Brüder": 7908,
      "▁Hund": 7909,
      "▁Amster": 7910,
      "▁fung": 7911,
      "▁Eh": 7912,
      "3)": 7913,
      "▁1999,": 7914,
      "▁Amate": 7915,
      "emals": 7916,
      "▁englischer": 7917,
      "▁31": 7918,
      "AR": 7919,
      "▁Auswahl": 7920,
      "iem": 7921,
      "▁erhielten": 7922,
      "fession": 7923,
      "▁\n\nFußball": 7924,
      "▁Win": 7925,
      "oslaw": 7926,
      "▁rep": 7927,
      "atum": 7928,
      "sky": 7929,
      "▁zurückge": 7930,
      "rifft": 7931,
      "▁Weltmeisterschaften": 7932,
      "A.": 7933,
      "▁(seit": 7934,
      "▁führten": 7935,
      "ras": 7936,
      "▁entw": 7937,
      "rauen": 7938,
      "▁ha": 7939,
      "▁Center": 7940,
      "bern": 7941,
      "▁Gründer": 7942,
      "atorium": 7943,
      "wahr": 7944,
      "▁1890": 7945,
      "▁Zeiten": 7946,
      "▁Greg": 7947,
      "arrei": 7948,
      "▁letzter": 7949,
      "▁Dampf": 7950,
      "-Holstein": 7951,
      "▁uns": 7952,
      "ía": 7953,
      "▁Beitrag": 7954,
      "abteilung": 7955,
      "t.\n\nIn": 7956,
      "▁Zukunft": 7957,
      "felder": 7958,
      "▁führen": 7959,
      "uropa": 7960,
      "▁Röm": 7961,
      "eigte": 7962,
      "▁Reaktion": 7963,
      "▁Finn": 7964,
      "▁zuerst": 7965,
      "ion,": 7966,
      "▁Schä": 7967,
      "orpor": 7968,
      "▁Tennis": 7969,
      "▁belg": 7970,
      "▁Donau": 7971,
      "unnel": 7972,
      "-U": 7973,
      "▁Chef": 7974,
      "▁Gründen": 7975,
      "owa": 7976,
      "öck": 7977,
      "▁Weiteren": 7978,
      "▁mittelalter": 7979,
      "▁tats": 7980,
      "▁integr": 7981,
      "▁Stoff": 7982,
      "▁Gemeinder": 7983,
      "▁offiziell": 7984,
      "▁Klassen": 7985,
      "▁Soft": 7986,
      "▁Sex": 7987,
      "veranstaltung": 7988,
      "▁verwand": 7989,
      "▁region": 7990,
      "bildungs": 7991,
      "▁Commun": 7992,
      "▁zeig": 7993,
      "ration": 7994,
      "▁Kommunal": 7995,
      "▁\nC": 7996,
      "▁Orden": 7997,
      "▁Sem": 7998,
      "▁Wör": 7999,
      "and,": 8000,
      "▁Stellung": 8001,
      "▁Neum": 8002,
      "–17": 8003,
      "ifferenz": 8004,
      "sätz": 8005,
      "▁rechten": 8006,
      "spor": 8007,
      "▁ost": 8008,
      "laus": 8009,
      "ny": 8010,
      "▁Schulen": 8011,
      "▁Großbritannien": 8012,
      "▁Kombin": 8013,
      "▁Frage": 8014,
      ".\nDie": 8015,
      "▁José": 8016,
      ")\n\nS": 8017,
      "isen": 8018,
      "itiative": 8019,
      "▁Ingenieur": 8020,
      "▁\n19": 8021,
      "▁Fotograf": 8022,
      "orph": 8023,
      "▁Design": 8024,
      "▁Nahr": 8025,
      ".\n\nErfolge": 8026,
      "▁Tiere": 8027,
      "▁zeich": 8028,
      "▁Ortes": 8029,
      "iti": 8030,
      "stätten": 8031,
      "▁macht": 8032,
      "▁34": 8033,
      "weder": 8034,
      "▁Bres": 8035,
      "▁könig": 8036,
      "▁Nachrichten": 8037,
      "steiger": 8038,
      "▁Cour": 8039,
      "▁gar": 8040,
      "rennen": 8041,
      "▁2012,": 8042,
      "pa": 8043,
      "senz": 8044,
      "▁allgemein": 8045,
      "bund": 8046,
      "aktiv": 8047,
      "▁Sprech": 8048,
      "Olympiateilnehmer": 8049,
      "▁Flugzeug": 8050,
      "klei": 8051,
      "▁2005:": 8052,
      "▁Teilnahme": 8053,
      "/1": 8054,
      "al.": 8055,
      "▁Infanterie": 8056,
      "ef": 8057,
      "▁con": 8058,
      "▁te": 8059,
      "...]": 8060,
      ".\n\nJ": 8061,
      "▁Mord": 8062,
      "▁festge": 8063,
      "emie": 8064,
      "▁unterschiedlichen": 8065,
      "-Meister": 8066,
      "▁Frieden": 8067,
      "▁verschw": 8068,
      "lar": 8069,
      "▁entfernt": 8070,
      "OS": 8071,
      "▁Rumän": 8072,
      "▁Zentimeter": 8073,
      "▁Ped": 8074,
      "▁beeinfl": 8075,
      "ähler": 8076,
      "▁Spann": 8077,
      "-Pfalz": 8078,
      "▁wesentlich": 8079,
      "▁Schließ": 8080,
      "▁Krist": 8081,
      "eien": 8082,
      "▁arbeitet": 8083,
      "▁Verlags": 8084,
      "▁Verd": 8085,
      "▁jetzt": 8086,
      ".:": 8087,
      "igem": 8088,
      "▁38": 8089,
      "handlung": 8090,
      "▁Morgen": 8091,
      "▁Eugen": 8092,
      "gewiesen": 8093,
      "▁zugeord": 8094,
      "▁Erweiter": 8095,
      "-Kreis": 8096,
      "▁Mond": 8097,
      "▁Bord": 8098,
      "▁berühm": 8099,
      "ologischer": 8100,
      "▁mark": 8101,
      "ünft": 8102,
      "▁vertrat": 8103,
      "▁Justiz": 8104,
      "herapie": 8105,
      "▁Mah": 8106,
      "Geographie": 8107,
      "ng": 8108,
      "▁Green": 8109,
      "▁wiederhol": 8110,
      "▁Tw": 8111,
      "▁Krä": 8112,
      "▁benachbar": 8113,
      "▁Matthias": 8114,
      "elli": 8115,
      "▁Temperatur": 8116,
      "▁Information": 8117,
      "hilfe": 8118,
      "ber,": 8119,
      "▁Leit": 8120,
      "▁kämpf": 8121,
      "entum": 8122,
      "motor": 8123,
      "▁alles": 8124,
      "▁gefunden": 8125,
      "men,": 8126,
      "▁spät": 8127,
      "hrop": 8128,
      "▁1896": 8129,
      "▁(Österreich": 8130,
      "▁Orchest": 8131,
      "▁with": 8132,
      "▁Emp": 8133,
      "▁(Stand:": 8134,
      "ologie,": 8135,
      "det,": 8136,
      "▁Diplomat": 8137,
      "ichtete": 8138,
      "▁Offizier": 8139,
      "▁such": 8140,
      "▁geplan": 8141,
      "udes": 8142,
      "emble": 8143,
      "iker,": 8144,
      "industrie": 8145,
      "▁Bistum": 8146,
      "▁Webseite": 8147,
      "▁Š": 8148,
      "▁1895": 8149,
      "▁psych": 8150,
      "äb": 8151,
      "irgin": 8152,
      "▁Tief": 8153,
      "schwer": 8154,
      "▁Griechen": 8155,
      "andeur": 8156,
      "izenz": 8157,
      "▁Illust": 8158,
      "arth": 8159,
      "▁ganze": 8160,
      "ikon": 8161,
      "▁Töchter": 8162,
      "▁Schiffe": 8163,
      "uns": 8164,
      "redit": 8165,
      "▁entschied": 8166,
      "ortugies": 8167,
      "▁bestimmten": 8168,
      "NA": 8169,
      "▁Gewicht": 8170,
      "▁Ufer": 8171,
      "▁Ray": 8172,
      "▁2017:": 8173,
      "▁Glauben": 8174,
      "igkeits": 8175,
      "\n\nDie": 8176,
      "▁Zivil": 8177,
      "▁Objekte": 8178,
      "durch": 8179,
      "▁sehen": 8180,
      "▁Manfred": 8181,
      "▁Seg": 8182,
      "grab": 8183,
      "ycl": 8184,
      "▁Trieb": 8185,
      "▁Eintrag": 8186,
      "▁Spiegel": 8187,
      "▁Einheit": 8188,
      "▁Künste": 8189,
      "alem": 8190,
      "▁erhalten.": 8191,
      "\n\nSt": 8192,
      "▁Hügel": 8193,
      "▁Untersuchungen": 8194,
      "gt,": 8195,
      "▁Sound": 8196,
      "▁sonst": 8197,
      "SG": 8198,
      "ologen": 8199,
      "▁Frem": 8200,
      "\n\nN": 8201,
      "500": 8202,
      "alth": 8203,
      "liegenden": 8204,
      "▁ehe": 8205,
      "tümer": 8206,
      "oire": 8207,
      "kas": 8208,
      "▁„V": 8209,
      "▁Rechte": 8210,
      "▁nationalen": 8211,
      "Einzel": 8212,
      "▁Lar": 8213,
      "▁opt": 8214,
      "▁seien": 8215,
      "▁kurze": 8216,
      "▁Salzburg": 8217,
      "▁Türkei": 8218,
      "hüter": 8219,
      "▁Gewinn": 8220,
      "▁mein": 8221,
      "▁Große": 8222,
      "bil": 8223,
      "▁ausgew": 8224,
      "▁Chin": 8225,
      "▁pol": 8226,
      "▁(deutsch": 8227,
      "t\n": 8228,
      "ów": 8229,
      "▁jede": 8230,
      "gypt": 8231,
      "▁Pfarrei": 8232,
      "▁Rä": 8233,
      "▁Fell": 8234,
      "rite": 8235,
      "ban": 8236,
      "▁polnischen": 8237,
      "eten": 8238,
      "amilien": 8239,
      "▁Nap": 8240,
      "unden,": 8241,
      "▁from": 8242,
      "▁Südwesten": 8243,
      "field": 8244,
      "▁Träger": 8245,
      "eiste": 8246,
      "▁Lake": 8247,
      "russ": 8248,
      "▁Dien": 8249,
      "iertes": 8250,
      "▁zählt": 8251,
      "▁Kre": 8252,
      "▁Öffentlichkeit": 8253,
      "▁Anne": 8254,
      "▁Soph": 8255,
      "▁Championship": 8256,
      "echseln": 8257,
      "▁japanischen": 8258,
      "einheit": 8259,
      "legt,": 8260,
      "▁Lor": 8261,
      "▁Pow": 8262,
      "▁How": 8263,
      "▁Obwohl": 8264,
      "produktion": 8265,
      "▁Kämpf": 8266,
      "seits": 8267,
      "▁Krie": 8268,
      "▁erlang": 8269,
      "▁Aber": 8270,
      "konz": 8271,
      "▁Botschafter": 8272,
      "▁Amsterdam": 8273,
      "▁Chicago": 8274,
      "onisten": 8275,
      "▁Panzer": 8276,
      "laf": 8277,
      "riss": 8278,
      "▁latein": 8279,
      "armon": 8280,
      "ländischen": 8281,
      "▁geist": 8282,
      "▁Lord": 8283,
      "orff": 8284,
      "olz": 8285,
      "lim": 8286,
      "▁abgeb": 8287,
      "seh": 8288,
      "▁Oblast": 8289,
      "▁Div": 8290,
      "oma": 8291,
      "ögel": 8292,
      "▁modernen": 8293,
      "baus": 8294,
      "agne": 8295,
      ")\n\nA": 8296,
      "▁T.": 8297,
      "▁Bewegung": 8298,
      "▁würde": 8299,
      "▁Gesprä": 8300,
      "ierte,": 8301,
      "▁Tübingen": 8302,
      "ipend": 8303,
      "▁Beam": 8304,
      "hold": 8305,
      "▁entscheiden": 8306,
      "▁Himmel": 8307,
      "▁Kub": 8308,
      "rond": 8309,
      "arren": 8310,
      "isation": 8311,
      "▁tritt": 8312,
      "▁deutsch-": 8313,
      "▁beförder": 8314,
      "arina": 8315,
      "▁Schauspieler\n": 8316,
      "eidung": 8317,
      "▁Praxis": 8318,
      "▁Hrsg.": 8319,
      "ela": 8320,
      "▁Arzt": 8321,
      "▁Rathaus": 8322,
      "-Klasse": 8323,
      "▁unser": 8324,
      "▁durchschnitt": 8325,
      "cz": 8326,
      "▁1897": 8327,
      "▁Instrument": 8328,
      "linder": 8329,
      "▁Alp": 8330,
      "ezu": 8331,
      "▁statt,": 8332,
      "▁Smith": 8333,
      "▁verfasste": 8334,
      "usk": 8335,
      "▁Veränder": 8336,
      "▁Erschein": 8337,
      "VD": 8338,
      "▁gepl": 8339,
      "\",": 8340,
      "▁begrenz": 8341,
      "mauer": 8342,
      "▁Wiederauf": 8343,
      "viertel": 8344,
      "▁wand": 8345,
      "hör": 8346,
      "led": 8347,
      "▁Auff": 8348,
      "▁Dänemark": 8349,
      "▁betrach": 8350,
      "▁Frankfurter": 8351,
      "owski": 8352,
      ".\n\nC": 8353,
      "▁er,": 8354,
      "▁Söhne": 8355,
      "antas": 8356,
      "▁Var": 8357,
      "cks": 8358,
      "sson": 8359,
      "lose": 8360,
      "▁verstär": 8361,
      "▁Theat": 8362,
      "▁Wegen": 8363,
      "werte": 8364,
      "▁States": 8365,
      "▁Fab": 8366,
      "▁gebaut": 8367,
      "▁Auflösung": 8368,
      "▁Bronzem": 8369,
      "hab": 8370,
      "bücher": 8371,
      "alom": 8372,
      "▁Erde": 8373,
      "uen": 8374,
      "os.": 8375,
      "dehn": 8376,
      "olley": 8377,
      "▁entspricht": 8378,
      "yk": 8379,
      "▁Liv": 8380,
      "▁Opp": 8381,
      "▁Formel": 8382,
      "anie": 8383,
      "▁Zustand": 8384,
      "beam": 8385,
      "▁reduz": 8386,
      "▁Gang": 8387,
      "▁bar": 8388,
      "eiligung": 8389,
      "▁Rio": 8390,
      "▁Wissen": 8391,
      "▁öffentliche": 8392,
      "▁Museums": 8393,
      "fon": 8394,
      "▁domin": 8395,
      "▁Kra": 8396,
      "blei": 8397,
      "\n\nEr": 8398,
      "ero": 8399,
      "▁stets": 8400,
      "region": 8401,
      "▁Massen": 8402,
      "▁Liber": 8403,
      "ischö": 8404,
      "▁Lam": 8405,
      "▁8,": 8406,
      "▁'": 8407,
      "▁kor": 8408,
      "▁Tie": 8409,
      "▁Grafschaft": 8410,
      "▁Aachen": 8411,
      "▁scheiter": 8412,
      "▁Aster": 8413,
      "ilen": 8414,
      "ige,": 8415,
      "▁(englisch)\n\nEinzelnachweise": 8416,
      ")\nTräger": 8417,
      "sterw": 8418,
      "ops": 8419,
      "demokrat": 8420,
      "fels": 8421,
      "ED": 8422,
      "▁1870": 8423,
      "ährt": 8424,
      "stadt,": 8425,
      "▁Gefangen": 8426,
      "ziger": 8427,
      "haf": 8428,
      "▁Matt": 8429,
      "▁65": 8430,
      "▁Pre": 8431,
      "▁sollte.": 8432,
      "▁Episoden": 8433,
      "▁denk": 8434,
      "re,": 8435,
      "ard,": 8436,
      "4)": 8437,
      "▁Schmidt": 8438,
      "▁verlänger": 8439,
      "▁2004:": 8440,
      "-m": 8441,
      "▁Love": 8442,
      "▁Sebastian": 8443,
      "holm": 8444,
      "▁Bühnen": 8445,
      "▁Las": 8446,
      "afrika": 8447,
      "▁Wirkung": 8448,
      "▁Hektar": 8449,
      "anni": 8450,
      "geben,": 8451,
      "▁Ruf": 8452,
      "▁Orchester": 8453,
      "besitz": 8454,
      "▁Theorie": 8455,
      "▁Horst": 8456,
      "▁preußischen": 8457,
      "\n\nAn": 8458,
      "▁nicht,": 8459,
      "▁Situation": 8460,
      "▁Augsburg": 8461,
      "▁Sturm": 8462,
      "▁Tagen": 8463,
      "ynast": 8464,
      "iale": 8465,
      "▁Autobahn": 8466,
      "▁mar": 8467,
      "sbruck": 8468,
      "▁1871": 8469,
      "▁unterhalb": 8470,
      "▁(engl": 8471,
      "▁Friedens": 8472,
      "yan": 8473,
      "▁Sonnen": 8474,
      "▁Ident": 8475,
      "▁(;": 8476,
      "ils": 8477,
      "▁Apost": 8478,
      "länge": 8479,
      "berecht": 8480,
      "merksam": 8481,
      "elf": 8482,
      "▁interess": 8483,
      "bn": 8484,
      "▁kenn": 8485,
      "▁ag": 8486,
      "▁genannt.": 8487,
      "AN": 8488,
      "mut": 8489,
      "ungs-": 8490,
      "lev": 8491,
      "▁Rau": 8492,
      "▁Hugo": 8493,
      "▁Stell": 8494,
      "▁Erl": 8495,
      "C.": 8496,
      "▁herausgegeben": 8497,
      "▁Michel": 8498,
      "▁verwendet.": 8499,
      "▁Südost": 8500,
      "eise": 8501,
      "kirch": 8502,
      "▁Monte": 8503,
      "▁Aufgabe": 8504,
      "jen": 8505,
      "räume": 8506,
      "orb": 8507,
      "▁Regensburg": 8508,
      "a:": 8509,
      "▁Objekt": 8510,
      "▁Agen": 8511,
      "▁Spe": 8512,
      "uszeichnungen": 8513,
      "able": 8514,
      "▁etabl": 8515,
      "▁Kommand": 8516,
      "▁CDU": 8517,
      "▁Haft": 8518,
      "▁Zun": 8519,
      "▁Blick": 8520,
      "ießen": 8521,
      "▁Sum": 8522,
      "▁zuständig": 8523,
      "▁Fragen": 8524,
      "▁Nicol": 8525,
      "▁Gouverneur": 8526,
      "rchite": 8527,
      "▁Gatt": 8528,
      "▁\nBei": 8529,
      "▁zunehmend": 8530,
      "▁Einwohnerzahl": 8531,
      "dern,": 8532,
      "bie": 8533,
      "▁form": 8534,
      "▁Zeichen": 8535,
      "▁Angeles": 8536,
      "reisträger": 8537,
      "▁Förderung": 8538,
      "▁Rail": 8539,
      "▁Quadrat": 8540,
      "▁Sir": 8541,
      "istin": 8542,
      "▁2018:": 8543,
      "▁kann,": 8544,
      "▁zeigte": 8545,
      "▁Unterricht": 8546,
      "▁verlieh": 8547,
      "▁untersch": 8548,
      "▁Nordosten": 8549,
      ".\n\nFür": 8550,
      "▁Barbara": 8551,
      "▁geeig": 8552,
      "▁städt": 8553,
      ")\nMitglied": 8554,
      "-\n|": 8555,
      "▁Stuttgar": 8556,
      "▁Geschlech": 8557,
      "▁Schwerpunkt": 8558,
      "▁portugies": 8559,
      "MS": 8560,
      "▁Lübeck": 8561,
      "gor": 8562,
      "▁Königin": 8563,
      "ards": 8564,
      "ila": 8565,
      "ers.": 8566,
      "▁Lew": 8567,
      "▁Bewohner": 8568,
      "igungen": 8569,
      "▁Franç": 8570,
      "\nV": 8571,
      "A)": 8572,
      "▁ehr": 8573,
      "▁Rie": 8574,
      "▁Quelle": 8575,
      "▁umfasste": 8576,
      "akademie": 8577,
      "▁jedes": 8578,
      "▁Marburg": 8579,
      "rah": 8580,
      "▁Schei": 8581,
      "▁Arnold": 8582,
      "▁Ordnung": 8583,
      "-Europameister": 8584,
      "amerik": 8585,
      "▁Schauspielerin\n": 8586,
      "▁(180": 8587,
      "▁Lande": 8588,
      "gewöhn": 8589,
      "kom": 8590,
      "ski,": 8591,
      "artet": 8592,
      "icip": 8593,
      "erz": 8594,
      "▁Anth": 8595,
      "▁Gesang": 8596,
      "▁(sp": 8597,
      "ildet": 8598,
      "▁Gründungs": 8599,
      "▁Staatsb": 8600,
      "▁Ross": 8601,
      "▁Leistungen": 8602,
      "▁Schleswig-Holstein": 8603,
      "▁natur": 8604,
      "▁vorge": 8605,
      "▁zweiter": 8606,
      "▁Herstellung": 8607,
      "▁herr": 8608,
      "▁Halbfinale": 8609,
      ".\n\nEine": 8610,
      "▁2019:": 8611,
      "gers": 8612,
      "▁Personal": 8613,
      "▁http": 8614,
      ".\n\nLage": 8615,
      "bef": 8616,
      "▁erstell": 8617,
      "kar": 8618,
      "au.": 8619,
      "▁entweder": 8620,
      "\nSport": 8621,
      "▁Islam": 8622,
      "orien": 8623,
      "awa": 8624,
      "person": 8625,
      "▁Interessen": 8626,
      "▁ebenda)": 8627,
      "▁Pots": 8628,
      "t.\n\nL": 8629,
      "▁späten": 8630,
      "▁Mund": 8631,
      "▁(c": 8632,
      "anzig": 8633,
      "\nDeutsch": 8634,
      "kurrenz": 8635,
      ":0": 8636,
      "▁Ut": 8637,
      "▁IV": 8638,
      "▁brasilian": 8639,
      "lug": 8640,
      "▁Sinn": 8641,
      "▁Gh": 8642,
      "▁Rostock": 8643,
      "▁Antonio": 8644,
      "▁Kabin": 8645,
      "▁zusammen.": 8646,
      "▁Jahrhundert.": 8647,
      "ömisch-kathol": 8648,
      "s-Universität": 8649,
      "▁Auszeichnung": 8650,
      "▁benannt": 8651,
      "hre": 8652,
      "▁Kapitel": 8653,
      "▁Mari": 8654,
      "▁Hey": 8655,
      "▁geschaffen": 8656,
      "▁seitdem": 8657,
      "▁Engagement": 8658,
      "einsam": 8659,
      "▁[...]": 8660,
      "▁Show": 8661,
      "▁jedem": 8662,
      "grad": 8663,
      "▁zählen": 8664,
      "▁anschließ": 8665,
      "▁Geburts": 8666,
      "▁(CD": 8667,
      ".\n\nAuszeichnungen": 8668,
      "eton": 8669,
      "▁für:\n": 8670,
      "olo": 8671,
      "\n\nEinzelnachweise\n\nWeblinks": 8672,
      "ssystem": 8673,
      "▁Schluss": 8674,
      "▁Refer": 8675,
      "▁erscheint": 8676,
      "▁Karlsruhe": 8677,
      "▁Was": 8678,
      "▁religiö": 8679,
      "fessor": 8680,
      "rel": 8681,
      "▁Ersatz": 8682,
      "▁Dortmund": 8683,
      "▁Verst": 8684,
      "▁Bayer": 8685,
      "▁Past": 8686,
      "strom": 8687,
      "▁griechischen": 8688,
      "führten": 8689,
      "produzent": 8690,
      "▁Bos": 8691,
      "zur": 8692,
      "▁Bom": 8693,
      "auff": 8694,
      "sterwähnung": 8695,
      "pft": 8696,
      "▁Preußen": 8697,
      "öne": 8698,
      "daten": 8699,
      "▁errichtete": 8700,
      "isch.": 8701,
      "▁Giov": 8702,
      "ziehung": 8703,
      "-Film": 8704,
      "kov": 8705,
      "ilber": 8706,
      "-Regiment": 8707,
      "aku": 8708,
      "▁geschütz": 8709,
      "▁European": 8710,
      "▁Kassel": 8711,
      "▁Glück": 8712,
      "ützen": 8713,
      ".\n\n18": 8714,
      "wäl": 8715,
      "ifik": 8716,
      "▁Roh": 8717,
      "▁AT": 8718,
      "▁gegründete": 8719,
      "▁Sul": 8720,
      "▁Tirol": 8721,
      "▁Weib": 8722,
      "▁Jesu": 8723,
      "▁Bew": 8724,
      "▁Dub": 8725,
      "▁stellen": 8726,
      "▁Abgeordneter": 8727,
      "▁Kob": 8728,
      "▁Meeres": 8729,
      ")\nSch": 8730,
      "▁schott": 8731,
      "▁unterrichte": 8732,
      "▁2013,": 8733,
      "▁Gebiets": 8734,
      "-4.\n": 8735,
      "▁liter": 8736,
      "uellen": 8737,
      "braun": 8738,
      "▁1500": 8739,
      "▁ständ": 8740,
      "▁Dadurch": 8741,
      "ängt": 8742,
      "▁Erm": 8743,
      "gestellten": 8744,
      "ska": 8745,
      "▁Now": 8746,
      "arbeitete": 8747,
      "▁halb": 8748,
      "▁Ebene": 8749,
      "▁(179": 8750,
      "tim": 8751,
      "-Land": 8752,
      "otyp": 8753,
      "dy": 8754,
      "▁völlig": 8755,
      "mand": 8756,
      "▁Block": 8757,
      "▁Schott": 8758,
      "▁Teams": 8759,
      "▁h.": 8760,
      "▁Gewerk": 8761,
      "▁blieben": 8762,
      "▁versetz": 8763,
      "meer": 8764,
      "ach,": 8765,
      "▁Conc": 8766,
      "▁spanischen": 8767,
      "ine,": 8768,
      "ukrain": 8769,
      "▁vertreten": 8770,
      "gänge": 8771,
      "turm": 8772,
      "▁teils": 8773,
      "▁schuf": 8774,
      "anstal": 8775,
      "▁Span": 8776,
      "▁fuhr": 8777,
      "geschäft": 8778,
      "▁Noch": 8779,
      "▁75": 8780,
      "▁gemeinsamen": 8781,
      "▁hätte": 8782,
      "▁Grad": 8783,
      "▁getö": 8784,
      "verteid": 8785,
      "▁1893": 8786,
      "ario": 8787,
      "▁Häus": 8788,
      "▁Auseinanders": 8789,
      "to": 8790,
      "▁verschiedener": 8791,
      "▁dur": 8792,
      "-6.\n": 8793,
      "▁Mio.": 8794,
      "oro": 8795,
      "▁erwähnt.": 8796,
      "▁gewonnen": 8797,
      "▁Abs.": 8798,
      "ugoslaw": 8799,
      "issement": 8800,
      "▁unteren": 8801,
      "hoff": 8802,
      "▁1998,": 8803,
      "▁sei.": 8804,
      "▁eigentlich": 8805,
      "▁Statt": 8806,
      "–15": 8807,
      "▁„Sch": 8808,
      "ölz": 8809,
      "▁Offen": 8810,
      "▁deutschsprachigen": 8811,
      "gas": 8812,
      "▁Columb": 8813,
      "▁japanischer": 8814,
      "herren": 8815,
      "▁Würzburg": 8816,
      "▁Bä": 8817,
      "una": 8818,
      "▁Hay": 8819,
      "strecken": 8820,
      "iko": 8821,
      "▁bestimmte": 8822,
      "▁Entwurf": 8823,
      "▁www.": 8824,
      "nummer": 8825,
      ")\n\nLiteratur": 8826,
      "▁parallel": 8827,
      "▁erwar": 8828,
      "▁Synchron": 8829,
      "▁betrieb": 8830,
      "▁älteren": 8831,
      "▁geringer": 8832,
      "▁nahezu": 8833,
      "▁gesellschaft": 8834,
      "-3.\n": 8835,
      "▁Mech": 8836,
      "grä": 8837,
      "▁sofort": 8838,
      "oto": 8839,
      "▁Norwegen": 8840,
      "▁1880": 8841,
      "lassung": 8842,
      "▁eingesch": 8843,
      "bür": 8844,
      "▁Zus": 8845,
      "▁standen": 8846,
      "▁englisch": 8847,
      "▁Drehbuchautor": 8848,
      "▁bedeutend": 8849,
      "▁Darmstadt": 8850,
      "aster": 8851,
      "▁1885": 8852,
      "-9.\n": 8853,
      "bibliothek": 8854,
      "▁veröffentlicht.": 8855,
      "▁Konzept": 8856,
      "este": 8857,
      "-System": 8858,
      "ke,": 8859,
      "-5.\n": 8860,
      "mitglieder": 8861,
      "▁Innsbruck": 8862,
      "▁tief": 8863,
      "▁Kalk": 8864,
      "cia": 8865,
      "igtes": 8866,
      "▁ursprünglichen": 8867,
      "pon": 8868,
      "ido": 8869,
      "▁Brenn": 8870,
      "▁angehör": 8871,
      "fahrer\n": 8872,
      "t.\n\nF": 8873,
      "▁ra": 8874,
      "-1.\n": 8875,
      "ube": 8876,
      "▁Bundesver": 8877,
      "▁Völker": 8878,
      "ra,": 8879,
      "▁ungefähr": 8880,
      "aven": 8881,
      "▁gehen": 8882,
      "▁Ausdruck": 8883,
      "▁Wetter": 8884,
      "▁Mitgliedern": 8885,
      "▁Einheiten": 8886,
      "▁Nachw": 8887,
      "▁\nV": 8888,
      "▁Ägyp": 8889,
      "vater": 8890,
      "afr": 8891,
      "▁Inseln": 8892,
      "uld": 8893,
      "▁Brig": 8894,
      "ausend": 8895,
      "▁Wohl": 8896,
      "bad": 8897,
      "▁Unabhängigkeit": 8898,
      "-2.\n": 8899,
      "▁Württemberg": 8900,
      "-7.\n": 8901,
      "spur": 8902,
      "▁Probleme": 8903,
      "zeugt": 8904,
      "▁Bericht": 8905,
      "fallen": 8906,
      "▁Fac": 8907,
      "▁Fabrik": 8908,
      "▁Mig": 8909,
      "▁italienische": 8910,
      "artige": 8911,
      "▁(),": 8912,
      "▁Rheinland-Pfalz": 8913,
      "aner": 8914,
      "▁Episode": 8915,
      "▁Diplom": 8916,
      "frage": 8917,
      "▁Denkmalschutz": 8918,
      "▁vol": 8919,
      "▁Chemie": 8920,
      "▁1894": 8921,
      "▁Platten": 8922,
      "▁Untersuchung": 8923,
      "▁intens": 8924,
      "land)": 8925,
      "chmal": 8926,
      "appe": 8927,
      "▁mittlerweile": 8928,
      "▁stärker": 8929,
      "▁Küsten": 8930,
      "▁Geistlicher": 8931,
      "▁Saal": 8932,
      "t.\n\nGeschichte": 8933,
      "▁Platz.": 8934,
      "–3": 8935,
      "▁Serien": 8936,
      "kat": 8937,
      "bay": 8938,
      "▁Deutschland.": 8939,
      "zunehmen": 8940,
      "▁mal": 8941,
      "▁gehalten": 8942,
      "tums": 8943,
      "▁Gewalt": 8944,
      "aris": 8945,
      "▁russischer": 8946,
      "shausen": 8947,
      "▁gute": 8948,
      "stedt": 8949,
      "ém": 8950,
      "arzt": 8951,
      "kont": 8952,
      "▁kB": 8953,
      "▁besondere": 8954,
      "feld,": 8955,
      "▁bezeichnete": 8956,
      "▁Sz": 8957,
      "t.\n\nK": 8958,
      "▁wissenschaftlichen": 8959,
      "▁unterschei": 8960,
      "gehörigen": 8961,
      "▁1892": 8962,
      "▁Gottfried": 8963,
      "▁Gemeinschaft": 8964,
      "▁beobach": 8965,
      "inale": 8966,
      "kal": 8967,
      "▁Viele": 8968,
      "▁spätere": 8969,
      "steine": 8970,
      "▁Football": 8971,
      "spartei": 8972,
      "▁publiz": 8973,
      "utsch": 8974,
      "▁Feuerwehr": 8975,
      "straf": 8976,
      "steck": 8977,
      "ses": 8978,
      "verlag": 8979,
      "issar": 8980,
      "▁Zeitraum": 8981,
      "Ober": 8982,
      "-8.\n": 8983,
      "irurg": 8984,
      "▁wissenschaftliche": 8985,
      "▁Sn": 8986,
      "▁Besetzung": 8987,
      "k.": 8988,
      "▁lehr": 8989,
      "▁Lis": 8990,
      "sz": 8991,
      "▁Amtszeit": 8992,
      "▁Long": 8993,
      "-0.\n": 8994,
      "▁Bester": 8995,
      "▁Aufnahmen": 8996,
      "sburger": 8997,
      "▁à": 8998,
      "▁Reihen": 8999,
      "geschütz": 9000,
      "ello": 9001,
      "▁hatten,": 9002,
      "▁Asien": 9003,
      "aktor": 9004,
      "\nJ": 9005,
      "▁Infrastruktur": 9006,
      "▁bestät": 9007,
      "▁Aqu": 9008,
      "▁rom": 9009,
      "▁Ye": 9010,
      "▁Ausnahme": 9011,
      "▁Sieben": 9012,
      "▁Mir": 9013,
      "teau": 9014,
      "geschicht": 9015,
      "▁Pas": 9016,
      "▁(im": 9017,
      "▁einzigen": 9018,
      "▁Südosten": 9019,
      "abil": 9020,
      "oe": 9021,
      "▁Graz": 9022,
      "▁darin": 9023,
      "opul": 9024,
      "▁dortigen": 9025,
      "körper": 9026,
      "iano": 9027,
      "▁Deutschlands": 9028,
      "▁verstarb": 9029,
      "oir": 9030,
      "▁1889": 9031,
      "ler\n": 9032,
      "▁Scott": 9033,
      "▁Albrecht": 9034,
      "▁Roll": 9035,
      "▁Penn": 9036,
      "küste": 9037,
      "▁übrigen": 9038,
      "▁derzeit": 9039,
      "har": 9040,
      "▁God": 9041,
      "wahlen": 9042,
      "▁jeden": 9043,
      "▁Damen": 9044,
      "▁Reinhard": 9045,
      "earch": 9046,
      "formation": 9047,
      "▁Verletz": 9048,
      "öll": 9049,
      "▁Bruch": 9050,
      "▁Religion": 9051,
      "▁Entscheidung": 9052,
      "▁verbesser": 9053,
      "▁Act": 9054,
      "stanz": 9055,
      "–2": 9056,
      "▁2014,": 9057,
      "▁1888": 9058,
      "teils": 9059,
      "▁blau": 9060,
      "▁Figuren": 9061,
      "aka": 9062,
      "▁Springer": 9063,
      "entin": 9064,
      "▁pl": 9065,
      "▁Francisco": 9066,
      "eam": 9067,
      "▁Sprachen": 9068,
      "▁stattfin": 9069,
      "▁Myth": 9070,
      "typ": 9071,
      "▁\n\nNach": 9072,
      "▁Linz": 9073,
      "▁Schon": 9074,
      "▁Zuschauer": 9075,
      ")\nGegründet": 9076,
      "▁37": 9077,
      "rüst": 9078,
      ".\n\n200": 9079,
      "ot,": 9080,
      "▁„J": 9081,
      "▁Texte": 9082,
      "▁Franzisk": 9083,
      "▁russische": 9084,
      "▁Kam": 9085,
      "verlag,": 9086,
      "mor": 9087,
      "▁2003:": 9088,
      "▁off": 9089,
      "▁Territor": 9090,
      "▁Gau": 9091,
      "▁südöstlich": 9092,
      "bauer": 9093,
      "leistung": 9094,
      "ogt": 9095,
      "frist": 9096,
      "▁Oscar": 9097,
      "icherung": 9098,
      "▁zu.": 9099,
      "EN": 9100,
      "fangs": 9101,
      "-sur": 9102,
      "AC": 9103,
      "▁spricht": 9104,
      ".\n\nWährend": 9105,
      "▁Company": 9106,
      "▁Vereinigung": 9107,
      "▁samm": 9108,
      "stücke": 9109,
      "steigen": 9110,
      "▁Stan": 9111,
      "▁südwestlich": 9112,
      "fahrts": 9113,
      "ehen.": 9114,
      "▁verstorben": 9115,
      "▁Fernsehen": 9116,
      "▁Kö": 9117,
      "IT": 9118,
      "▁Pod": 9119,
      "▁einzel": 9120,
      "größ": 9121,
      "▁gewes": 9122,
      "▁Cra": 9123,
      "▁konzentr": 9124,
      "raut": 9125,
      "▁Bronze": 9126,
      "höh": 9127,
      "▁Ruhr": 9128,
      "onne": 9129,
      "h.": 9130,
      "▁baute": 9131,
      "geordnete": 9132,
      "▁Bronzemedaille": 9133,
      "kern": 9134,
      "▁medizin": 9135,
      "▁Rab": 9136,
      "▁AR": 9137,
      "▁Kamp": 9138,
      ".\n\n201": 9139,
      "wiesen": 9140,
      "▁Virgin": 9141,
      "inzip": 9142,
      "▁König:": 9143,
      "▁normal": 9144,
      "▁800": 9145,
      "chem": 9146,
      "▁mel": 9147,
      "▁(Sp": 9148,
      "▁Gefängnis": 9149,
      "▁Weihn": 9150,
      "▁Dirigen": 9151,
      "nab": 9152,
      "eige": 9153,
      "▁Qualität": 9154,
      "▁Sender": 9155,
      "▁Altar": 9156,
      "ziehungsweise": 9157,
      "▁Spec": 9158,
      "lied": 9159,
      "zul": 9160,
      "mot": 9161,
      "obacht": 9162,
      "rans": 9163,
      "▁(als": 9164,
      "▁Zugang": 9165,
      "\nGeographie": 9166,
      "▁Regiment": 9167,
      "-Mod": 9168,
      "▁Veröffentlichungen": 9169,
      "▁hinzu": 9170,
      "▁sorg": 9171,
      "▁fließt": 9172,
      "▁Beste": 9173,
      "\nFilm": 9174,
      "▁(von": 9175,
      "▁Stol": 9176,
      "▁Kart": 9177,
      "front": 9178,
      "▁chinesischen": 9179,
      "olleyball": 9180,
      "▁Sei": 9181,
      "ität,": 9182,
      "▁Wik": 9183,
      "▁(bei": 9184,
      "▁Ot": 9185,
      "zust": 9186,
      "▁Cro": 9187,
      "▁Lot": 9188,
      "▁plan": 9189,
      "▁Trag": 9190,
      "▁Vel": 9191,
      "owitsch": 9192,
      "hofen": 9193,
      "▁für:\n\n": 9194,
      "äub": 9195,
      "▁Pir": 9196,
      "▁zuge": 9197,
      "/200": 9198,
      "▁Erste": 9199,
      "heil": 9200,
      "zuführ": 9201,
      "▁Mis": 9202,
      "▁Dur": 9203,
      "essin": 9204,
      "▁(Landkreis": 9205,
      "ausgabe": 9206,
      "▁Beweg": 9207,
      "useeland": 9208,
      "polit": 9209,
      "▁ren": 9210,
      "▁Folgen)\n": 9211,
      "▁regul": 9212,
      "ereits": 9213,
      ".\n\nBeschreibung": 9214,
      "▁Fünf": 9215,
      "eiro": 9216,
      "▁Böh": 9217,
      "▁Flucht": 9218,
      "istr": 9219,
      "osa": 9220,
      "▁Mars": 9221,
      "▁Ga": 9222,
      "▁mag": 9223,
      "erdegang": 9224,
      "▁beschäd": 9225,
      "-Serie": 9226,
      "▁Schnell": 9227,
      "▁km/": 9228,
      "ügen": 9229,
      "▁Gedichte": 9230,
      "▁unterschiedliche": 9231,
      "ler:": 9232,
      "rochen": 9233,
      "▁Out": 9234,
      "▁entlassen": 9235,
      "ardo": 9236,
      "▁1850": 9237,
      "onia": 9238,
      "-Ge": 9239,
      "▁gemacht": 9240,
      "▁Kardinal": 9241,
      "ur,": 9242,
      "▁Gesundheits": 9243,
      "||": 9244,
      "▁Nie": 9245,
      "▁Publikum": 9246,
      "▁(4": 9247,
      "▁1891": 9248,
      "igen.": 9249,
      "teuer": 9250,
      "▁Schle": 9251,
      "▁Franken": 9252,
      "kr": 9253,
      "▁Ech": 9254,
      "▁Zahn": 9255,
      "▁versuchte": 9256,
      "well": 9257,
      "▁Jed": 9258,
      "gesp": 9259,
      "▁beziehungsweise": 9260,
      "en.\n\nE": 9261,
      "▁Mailand": 9262,
      "▁Parteien": 9263,
      "landes": 9264,
      "ova": 9265,
      "▁Vergangen": 9266,
      "▁Zer": 9267,
      "itäts": 9268,
      "omponist": 9269,
      ")\nHochschullehrer": 9270,
      "▁Vat": 9271,
      "▁ör": 9272,
      "▁Bost": 9273,
      "▁München,": 9274,
      "▁Mineral": 9275,
      "▁Personen:\n\n*": 9276,
      "▁nordwestlich": 9277,
      "bilder": 9278,
      "ymbol": 9279,
      "▁bislang": 9280,
      "öffentlichungen": 9281,
      "-Institut": 9282,
      "▁bereit": 9283,
      "▁Internationale": 9284,
      "▁Nordwesten": 9285,
      "▁starken": 9286,
      "▁Management": 9287,
      "▁Bernd": 9288,
      "▁Pel": 9289,
      "▁History": 9290,
      "▁1996,": 9291,
      "▁VI": 9292,
      "spl": 9293,
      "-20": 9294,
      "verkehrs": 9295,
      "institut": 9296,
      "▁Millimeter": 9297,
      "7)": 9298,
      "▁Schall": 9299,
      "▁Ukraine": 9300,
      "geschwindigkeit": 9301,
      "▁Langen": 9302,
      "herrschaft": 9303,
      "eißen": 9304,
      "▁näher": 9305,
      "▁Nordrhein-Westfalen": 9306,
      "▁grenzt": 9307,
      "▁Freiheit": 9308,
      "schafft": 9309,
      "▁englische": 9310,
      "imir": 9311,
      "5)": 9312,
      "▁nordöstlich": 9313,
      "▁kleinere": 9314,
      "sender": 9315,
      "paar": 9316,
      "▁Malerei": 9317,
      "ßig": 9318,
      "▁Inde": 9319,
      "▁machen": 9320,
      "▁Tha": 9321,
      "fahrzeug": 9322,
      "▁Geschichts": 9323,
      "▁Stephan": 9324,
      ".\n\nEs": 9325,
      "▁Wien,": 9326,
      "gasse": 9327,
      "▁Bir": 9328,
      "zustell": 9329,
      "▁10,": 9330,
      "gro": 9331,
      "▁Auto": 9332,
      "▁Volkszählung": 9333,
      "▁Spät": 9334,
      "▁Anwendung": 9335,
      "▁„Z": 9336,
      "endo": 9337,
      "▁rechte": 9338,
      "▁Net": 9339,
      "▁Maßnahmen": 9340,
      "linger": 9341,
      "Unternehmen": 9342,
      "▁Freien": 9343,
      "▁Besatzungs": 9344,
      "kamp": 9345,
      "schicht": 9346,
      "▁Rap": 9347,
      "▁White": 9348,
      "yb": 9349,
      "▁Mexiko": 9350,
      "steuer": 9351,
      "ebüt": 9352,
      "▁tä": 9353,
      "brand": 9354,
      "▁Firmen": 9355,
      "atus": 9356,
      "▁sicht": 9357,
      "▁Niederlage": 9358,
      "▁Eingang": 9359,
      "▁Daher": 9360,
      "▁unten": 9361,
      "hedr": 9362,
      "▁Priv": 9363,
      "▁ältesten": 9364,
      "▁verkaufte": 9365,
      "cer": 9366,
      "▁Teu": 9367,
      "▁op.": 9368,
      "▁Republ": 9369,
      "▁dat": 9370,
      "ildes": 9371,
      "▁Research": 9372,
      "lowen": 9373,
      "pel": 9374,
      "▁Armen": 9375,
      "▁erstreckt": 9376,
      "ärm": 9377,
      "irchengebäude": 9378,
      "usalem": 9379,
      "▁KZ": 9380,
      ".\n\nSchriften": 9381,
      "▁Entwicklungs": 9382,
      "▁2002:": 9383,
      "fenster": 9384,
      "hel": 9385,
      "-Geb": 9386,
      "athemat": 9387,
      "ränkt": 9388,
      "▁erworben": 9389,
      "ständnis": 9390,
      "derungen": 9391,
      "ce,": 9392,
      "▁könnte": 9393,
      "▁Md": 9394,
      "iftung": 9395,
      "eisch": 9396,
      "▁rad": 9397,
      "spir": 9398,
      "▁Verfassungs": 9399,
      "kapelle": 9400,
      "▁Lehre": 9401,
      "▁Heb": 9402,
      "▁Arz": 9403,
      "▁Fahrer": 9404,
      "▁Sachsen-An": 9405,
      "▁1860": 9406,
      "▁maß": 9407,
      "the": 9408,
      "▁gekommen": 9409,
      "▁Gramm": 9410,
      "▁(14": 9411,
      "▁Großherzog": 9412,
      "rondissement": 9413,
      "▁Schneider": 9414,
      "▁chem": 9415,
      "▁dar.": 9416,
      "▁vorwiegend": 9417,
      "▁teil,": 9418,
      "▁Hochschullehrer": 9419,
      "▁Beziehung": 9420,
      "reffen": 9421,
      "▁(1.": 9422,
      "litz": 9423,
      "▁bezeichnet,": 9424,
      "aker": 9425,
[...]
