#version: 0.2
o n
Ġ d
" :
l a
e r
e l
e n
i t
Ġ c
Ġ s
Ġ p
r o
t i
r e
Ġ a
i n
t o
, "
": "
" ,"
t a
r i
Ġd i
r a
l i
{ "
t e
p ro
l e
la b
pro b
lab el
Ġ e
u l
} ,
z i
a n
a r
e s
Ġ m
ul l
u n
n ull
o r
Ġ i
Ġ n
Ġ in
}, {"
â Ģ
i a
i c
h e
zi on
Ġd el
2 0
s i
Ġ f
o s
o m
a l
Ġp er
9 9
l o
Ġ un
Ġc on
Ġ t
Ġ v
q u
e t
g i
Ġa l
m en
Ġ la
zion e
c a
i s
âĢ Ļ
Ġi l
Ġ C
m a
Ġ 20
z a
Ġ S
. \
t en
c o
Ġ o
Ġc he
d i
Ġ qu
, {"
d o
n o
Ġ (
i d
g li
Ã ł
Ġ P
s o
Ġ ri
w ar
c on
er e
v a
Ġ A
Ġ M
Ġ l
i o
c e
Ġ b
d a
ic a
m o
Ã ¨
s a
war c
t er
o l
Ġ le
Ġd a
Ġd e
m p
9 8
Ġp ro
n a
Ġc om
en ti
Ġ g
c h
c i
Ġ Ã¨
it a
i e
on o
t u
Ġ I
p p
it o
Ġs u
Ġ L
Ġa n
Ġ20 1
a s
t to
v i
2 2
v e
m b
t ra
a g
Ġ 1
0 0
Ġ D
b b
Ġs e
v o
t ti
it Ãł
Ġ re
z za
Ġ G
9 7
Ġn on
Ġc a
n C
s e
on e
b i
u o
Ġdel la
o o
c c
Ġ R
Ġ T
Ġun a
Ġn el
Ġs i
c he
zion i
Ġp re
Ġ h
v er
n i
f f
a le
9 6
men to
Ġ F
Ġ âĢ
s p
men te
a li
d e
Ġ u
Ġs o
an o
p e
s en
er a
Ġ N
Ġ B
g o
2 1
9 5
g gi
ten t
t ro
Ġt ra
9 4
u r
con tent
s h
g u
n S
n A
n I
f ica
t ta
Ġm a
ra n
in a
Ġde i
Ġt u
n P
oo k
Ġp i
Ġd al
Ġqu es
Ġ gi
Ġf a
m e
m i
Ġp o
Ġ E
9 3
g a
Ġ te
1 1
n L
Ġs ono
in e
u s
c ia
p o
Ġe s
8 5
t ri
to ri
0 6
en za
Ġs ta
Ġp ar
2 3
Ġ V
mb re
Ã ¹
8 6
id enti
t re
2 4
2 5
z o
a d
or ma
": {"
ti on
i l
8 7
en te
Ġdel l
2 6
r u
8 4
1 3
Ġn e
0 5
1 5
in i
Ġm o
8 3
Ġh a
0 3
Ġpi Ã¹
er i
\ "
Ġ lo
2 7
1 4
p ri
0 4
1 6
Ġp os
it i
Ġ -
Ġ ra
p a
ta n
ic o
on i
âĢ Ŀ
e d
ch i
u to
0 7
er s
ook ie
Ġdel le
1 7
gli o
Ġd o
in g
Ġal la
c es
Ġs ul
in o
c or
Ġcom e
a re
tu ra
an do
ĠâĢ ľ
Ġp u
l u
h i
g g
Ġ O
u id
. .
n R
er o
et to
Ġan che
ic i
t y
s si
Ġc i
an i
Ġc os
1 2
Ġa d
r it
v en
s ti
e b
n T
Ã ²
la n
Ġin f
a ri
Ġm i
Ġp ri
ti li
Ġcom p
Ġ U
ur n
identi fica
Q u
t l
ty pe
men ti
Ġn o
Ġ li
u uid
":" <
identifica tion
} ,"
n M
si one
s ta
4 5
Ġs p
w w
bi le
tl sh
z e
ia mo
et ti
t t
en g
Ġc ookie
": [
Ġal l
n D
Ġa r
en e
Ġi mp
3 5
Ġc u
Ġm e
4 6
3 6
ĠI n
g no
ti co
n e
bb li
0 8
n N
Ġques to
c k
Ġs c
Ġf or
gi o
) \
el lo
Ġv i
Ġ gli
7 5
Ġ w
> ","
on a
Ġ20 22
en d
et ta
zi a
Ġin ter
4 4
an no
7 6
s ere
1 8
ĠâĢ ĵ
Ġc o
el e
s c
Ġe d
z zo
2 8
ti n
3 0
Ġs ito
si on
Ġa i
sen ten
t h
Ġper s
s so
Ġn os
p er
Ġa v
es so
Ġs er
g ra
s s
ĠL a
el la
Ġal le
Ġp a
0 9
go ri
g na
Ġu tili
s er
ri o
Ã ©
Ġes sere
zi o
3 4
te gori
ĠC on
ta r
bi l
u ra
es t
c co
Ġt er
om e
t te
O N
u m
es ti
it e
u ri
1 0
n F
et te
8 8
1 9
5 5
he ad
7 4
Ġ to
n E
lo g
or t
ta re
ag gio
2 9
/ /
3 3
s t
Ġnel la
m an
20 22
Ġc or
6 6
c y
to re
Ġ ti
: \
ic e
tt p
ie d
n G
: //
al itÃł
ggi o
d u
Ġn a
c om
li a
g ni
Ġg ra
la re
ĠI l
Ġc ol
Ġ ta
el li
Ġcu i
Ã ¬
b a
gli a
r on
it y
u ti
Ġs a
ĠR e
ag e
Ġv is
3 7
er ca
Ġa pp
5 6
u ro
ri a
Ġn uo
Ġ r
Ġpar te
Ġda ti
an ti
Ġinf orma
p i
mp o
ĠC a
nI n
re f
0 1
E R
Ġ Qu
Ġc re
nI l
n V
da ta
Ġw eb
99 6
ar m
Ġse mp
ve mbre
es e
or d
Ġd u
v ia
Ġpro pri
h ttp
Ġ W
7 7
p la
c ca
ĠG i
or ta
g et
cor d
Ġgi or
Ġm ol
nL a
Ġpu bbli
ĠM ar
ĠN o
4 3
da te
ti va
bi li
x t
ten te
Ġcom un
Ġ H
Ġa cc
m m
Ġa t
Ġ 3
a t
Ġc h
} }
Ġde gli
di g
T I
âĢ ¦
Ġt uo
4 7
99 5
Ġv ol
Ġla vo
n ing
u re
Ġg en
es i
os to
Ġutili zza
os ta
b lo
ic he
b re
t ru
m ma
ca tegori
en ze
C A
? \
an a
qu al
nC on
l eng
me ta
ali zza
Ġso lo
f ul
9 0
Ġv er
tar get
leng th
Ġtu tti
f ied
sh a
gu age
es to
ĠL e
te xt
ch Ã©
blo ck
ĠM a
con ver
lan guage
h arm
an te
re cord
categori es
qual ity
ning s
pla in
it u
] }}
c qu
head ers
meta data
conver sion
dig est
war nings
ref ers
senten ce
harm ful
identification s
" },"
identi fied
Ġ \"
Ġser vi
z z
ww w
C E
t Ãł
Ġpers on
ti ca
Ġqu al
Ġm on
9 1
en o
Ġsu o
Ġc hi
Ġe sp
Ġf un
Ġt ro
id e
Ġf in
Ġs pe
Ġ 5
c un
Ġri sp
ĠA n
v is
g e
es s
Ġan ni
en do
http s
ĠS e
f er
0 2
Ġm ar
6 5
o p
T A
Ġp as
tto bre
Ġ20 21
Ġ20 20
Ġri s
v ol
" ]
":[ "
"] ,"
di o
Ġdi sp
bil itÃł
Ġf i
m er
Ġpu Ã²
":[ {"
an to
T O
en to
es sa
in is
Ġdal la
Ġtra tta
en a
el le
n B
ĠC om
4 8
R I
99 7
pp o
u ta
Ġgi o
ette mbre
Ġte c
E N
Ġv o
} ]}}
Ġm an
es ta
i re
Ġpri ma
bb e
Ġpro f
u gno
zi e
c u
Ġsul la
Ġne ces
Ġlo ro
pri le
8 9
Ġ201 9
Ġtu tto
Ġs ia
zion a
ĠP er
L I
n U
g n
Ġp ia
c ch
d ia
bb ra
Ġsemp re
Ġpre sen
Ġh anno
ĠA l
Ġpos si
is p
na io
Ġ 4
ĠP a
Ġques ta
ĠL u
.. .\
ĠP o
Ġs co
t ter
d ica
Ġ201 8
Ġinforma zioni
Ġp ag
b o
Ġpos s
Ġdal l
Ġ 2
ri va
gi s
Ġc ar
Ġs te
Ġ |
w s
Ġdi re
Ġ on
e bbra
ebbra io
ma il
f a
Ġl u
Ġ201 6
ĠM i
Ġb as
Ġ201 7
7 3
! \
8 1
v id
v itÃł
C C
ta to
Ġo p
zion ale
Ġ en
os a
5 4
Ġa bb
on di
Ġcon sen
) ,
i r
Ġal cun
Ġs enza
D A
Ġa ff
g osto
si d
o ra
Ġc li
z zi
c lu
f orma
n O
Ġo gni
or g
6 4
Ġp r
Ġg a
Ġa tti
ten za
Ġdi ver
in ter
3 1
ul ti
Ġ ro
5 7
8 0
es si
n Qu
Ġe ff
Ġv ia
Ġ Â
Ġdi s
Ġte mpo
a ti
Ġt he
d ere
m ina
Ġg ran
Ġsta to
Ġmol to
la zione
R E
Ġb a
Ġpro do
in di
en si
Ġmi glio
men ta
v ere
Ġh o
an za
R A
Ġri c
5 3
or to
i es
nP er
ĠP ro
Ġdu e
ggi un
Ġse gu
s to
6 7
Ġ201 5
ti vo
nL e
ta lia
f or
Ġmo d
co ra
Ġneces sa
D E
p re
Ġsu a
Ġli b
la no
Ġa u
al o
et Ãł
Ġfa re
Ġcon tro
g h
e c
s ia
cc ia
9 2
Ġmo do
Ġf ar
â Ĥ
âĤ ¬
qu e
ice mbre
k e
Ġun o
Ġle gg
ra re
s se
99 4
nS e
Ġ el
Z I
ĠNo vembre
ar d
a i
Ġs al
Ġc an
o to
Ġ 6
Ġ201 4
sh ort
el l
senten ces
Ġal tri
tan te
o u
Ġp un
ff er
ook ies
t tu
c io
e a
ita li
is o
Ġs os
l ine
Ġ J
Ġnos tro
Ġs tra
mp i
Ġqu ando
a cc
C B
Ġne i
C D
mb i
et t
3 9
f o
99 8
f i
rit to
Ġs ol
ĠD i
Ġ201 3
nR isp
v enti
Ġtec n
A N
en ta
tori a
om a
Ġf orma
l tre
3 8
uo i
g ia
Ġnel l
inis tra
ca to
ĠM aggio
tin g
Ġvi ene
ti ve
ten ti
r Ãł
g le
Ġposs ono
Ġc er
ĠN a
on da
b le
is ti
Ġs ic
Ġ K
Ġper chÃ©
va re
Ġin di
Ġso tto
3 2
b e
Ġd om
ĠG en
Ġcon ten
al mente
Ġse con
Ġques ti
Ġlavo ro
ĠD icembre
Ġcon di
E A
Ġv ita
Ġdo po
an d
9 20
00 00
ĠS i
is te
Ġca so
ol it
Ġcon s
Ġqu anto
E D
C F
gis tra
. ","
Ġfa tto
Ġdi ce
I N
Ġ1 0
s sa
ĠA r
Ġan cora
ĠU n
ĠF a
c ce
ta ti
98 6
Ġa cqu
Ġs tu
en de
Ġm ed
ĠS an
en da
na li
Ġa uto
Ġc ookies
7 8
Ġe se
li ca
ti vi
Ġb u
L E
tin u
99 3
m on
Ġch ia
a tti
log ia
li cy
t tura
4 1
Ġcomp le
f oo
Ġm aggio
el o
Ġpropri o
b ook
om ento
Ġqu ello
I A
ĠS o
u so
ran te
ran no
ide o
nA r
Ġ 7
ito ri
ter ia
/ ","
4 0
ar t
Ġdo ve
Ġpo i
Ġtu a
foo ter
Ġpro g
8 2
os tra
v ano
a to
gg ia
Ġc al
Ġmon do
ĠO ttobre
Ġb i
98 5
8 06
Ġnel le
ar Ãł
Ġservi zi
Ġtra s
4 9
d d
p ra
os o
Ġs in
Ġc it
7 1
u tente
ci p
T E
is ta
Ġri chi
a m
Ġs tru
cia li
6 3
R O
ĠC o
Ġ201 2
c ita
Ġpossi bile
Ġn um
b u
Ġpo tre
c itÃł
riva cy
ĠMi lano
ĠP re
Ġtratta mento
Ġdo v
n H
con om
Ġd es
ga zione
u te
ĠM o
Ġcos Ã¬
Ġcon ta
Ġra pp
l lo
.. .
s tenza
si oni
Ġcos a
) .
or na
pa ra
Ġan d
Ġ /
B B
98 7
ĠD I
Ġo f
oo gle
5 1
an e
Ġ itali
ĠS ettembre
gi one
99 9
5 0
nRisp ondi
Ġm as
D D
mm inistra
L A
Ġnos tra
Ġp en
ce book
tu re
c en
F A
nR e
Ġ os
et ro
ĠR i
S I
c con
Ġpri va
Ġv e
a zione
co lo
Ġcon tra
- -
b er
ĠMar zo
4 2
Ġs ca
v al
Ġpar ti
Ġ era
zza re
Ġ y
Ġservi zio
ĠA prile
Ġe uro
tico lo
Ġsu i
ar ti
Ġcon f
Ġg u
an ta
u bbli
Â »
ĠM on
Ġvis ita
O R
ĠLu glio
ĠGi ugno
ĠN on
Ġin i
âĢĿ ,
Ġm essa
ser va
5 8
Ġsta ti
ri ca
ĠI talia
cia le
ta mente
sc ri
Ġs arÃł
ic h
Ġp or
_ _
v io
ff ic
Ġper m
c ri
Ġqu ali
Ġs iste
Ġf u
B A
E L
Ġspe ci
en tro
Ġra cco
Ġp orta
Ġtu tte
nA l
Ġri ce
m is
ĠGen naio
ul tura
Ġ tan
ĠL i
lab ora
o lo
Ġca sa
ZI ON
ĠF ebbraio
l y
Ġm is
si zione
Ġo re
in k
Ġf ine
es a
Ġbas e
Ġf ra
Ġconsen so
Ġ rit
Ġqu i
Ġqu indi
Ġso pra
Ġcol le
Ġde c
head er
Ġgi Ãł
es sion
Ġ1 5
eri enza
Ġcomun ica
os c
ari a
Ġgran de
Ġna vi
Ġb en
zza zione
end ere
ĠA gosto
a c
Ġci r
Ġme mo
Ġm ag
Ġda i
cor so
Ġre la
ch ia
Ġb ene
co l
tta mente
la to
Ġperson ali
a b
u t
Ġpers one
ĠR oma
ten zione
Ã Ī
Ġnuo vo
; \
Ġal lo
ĠN e
es te
E C
s te
Ġgior ni
Ġca ra
Ġp ic
nA n
Ġvol ta
Ġm io
Ġdice mbre
li o
Ġf ino
g hi
Ġno vembre
Ġre gistra
Ġav ere
7 0
va mente
Ġs pa
Ġmo di
Ġc as
mma g
u sa
c chi
Ġ201 1
ver so
t itu
v in
Ġno i
Ġl un
7 2
Ġca p
f ic
Ġpro p
A C
eng ono
ri g
n et
Ġpro te
Ġo pp
ce d
00 0
ĠC or
con o
g re
Ġm omento
6 1
rit ti
Ġimp or
Ġd on
D B
i mp
Ġat tra
Ġ [
5 9
Ġdal le
nC a
ĠP i
) .\
f e
ita re
Ġt h
Ġa ss
Ġpro ble
Ġs en
Ġop era
ven to
p pro
E B
u se
Ġf oto
ar si
a mo
Ġo ra
Ġpar tico
Ġste sso
Ġal tre
Ġ1 1
gli e
os te
tico li
Ġs iti
a pp
Ġd etto
om o
806 1
t on
ma ti
5 2
zion ali
ta le
nN e
Ġcon si
gi e
920 8061
6 8
mp io
Ġdel lo
Ġqu ella
sp on
Ġric erca
Ġa gli
s mo
cia l
ra to
Ġo ff
Ġnos tri
t s
Ġpri mo
ĠT u
s ci
u d
E S
Ġprodo tti
Ġ 8
A D
Ġm eno
la r
ĠQu esto
Ġa ve
Ġgior no
6 2
Ġf re
ĠS er
ĠT ra
Ġc la
Ġsu cc
I S
F B
re a
Ġ 0
Ġnecessa ri
ĠC as
Ġnum ero
Ġ1 2
Ġ1 8
E E
ssi stenza
Ġv engono
Ġu tenti
Ġb ro
Ġfor n
al l
nP ro
Ġ Z
Ġle g
ke ting
sti ca
Ġm en
Ġ âĤ¬
Ġ z
Ġti po
Ġo ltre
I n
âĢ ľ
et tu
du zione
Ġf is
Ġri p
Ġto r
Ġin d
Ġo ttobre
di zione
Ġqu ale
Ġ org
Ġsta ta
Ġcor re
Ġma i
O M
ĠC h
Ġs ti
to r
Ġs ull
â ĸ
ure zza
ĠD e
es se
Ġsul le
ĠS a
V A
Ġri f
ĠC ookie
el i
Ġpia ce
er Ãł
A A
98 4
p era
Ġre alizza
Ġm ani
Ġo ggi
Ġpas sa
Ġpr in
Ġa m
Ġi d
Ġpre fer
Ġe si
Ġv en
6 0
la ri
ĠIn ter
vi lu
Ġv ideo
Ġ &
mp a
Ġris ul
id a
Ġf il
is ce
Ġan n
Ġsecon do
s u
se gu
Ġv ari
ar da
g en
Ġnuo va
ĠS p
Ġg esti
m in
Ġmemo ri
os e
ĠL o
t ten
ĠPo licy
Ġ ele
* \
Ġ 30
ĠÂ «
nC ome
gra f
Ġna tura
Ġdisp oni
ver o
un o
F F
Ġatti vitÃł
7 9
s enti
Ġ201 0
Ġ Y
Ġsemp li
ri zzo
er ra
s itÃł
Ġalcun i
Ġfa mi
Ġma teria
Ġprof ession
s cia
ĠD a
Ġsiste ma
er ia
Ġs ettembre
ĠF ran
Ġp olit
Ġm ia
6 9
un a
et er
ran ti
Ġv ed
Ġa sso
Ġre c
Ġg ru
v an
Ġgi ugno
ti c
h o
nC om
Ġin dica
Ġsc el
Ġal tro
Ġco lo
or re
ag na
Ġ 9
98 3
ci etÃł
sia si
âĸ º
V I
Ġdi ven
Ġ1 9
ĠR o
Ġ 24
ar do
ĠM an
Ġs toria
n er
Ġs iamo
Ġre go
Ġt ele
m ar
D F
Ġca tegori
w it
u p
Ġeff ettu
Ġpubbli ca
si e
nN o
Ġt re
zi enda
co li
it ti
A B
Ġba mb
Ġmar zo
Ġu sa
Ġ1 3
Ġ1 4
vo le
Ġ er
Ġ1 6
Ġracco l
Ġa ggiun
Ġattra verso
m ite
Ġt en
Ġter r
Ġon line
ra ti
cc io
Ġm us
an da
Ġprodo tto
97 5
C O
âĢ¦ \
Ġcon tinu
Ġde ve
D C
w ser
tan za
ord ina
ari o
Ġin con
ĠC ar
Ġi m
Ġlegg e
tto re
ĠG oogle
Ġa ver
se gna
Ġqual siasi
Ġter m
o ur
Ġgen naio
98 8
re sen
g ere
99 99
u di
ta li
ĠW eb
A R
Ġt ito
p h
D I
io ri
mb ia
Ġa prile
eri mento
ta zione
ĠD o
Ġnavi gazione
Ġan ti
] \
acc esso
ĠC i
Ġbro wser
Ġp e
Ġpun to
clu si
Ġdi sa
Ġlu glio
Ġdi ff
Ġsu per
Ġri gu
d er
Ġ 25
Ġs an
Ġqu alitÃł
io re
Ġin c
Ġa s
es p
ĠCom un
e ta
Ġs vilu
uo la
E F
Ġv al
a si
Ġese mpio
ĠV ia
or k
Ġpag ina
bb ero
po li
ito re
si mo
es sione
ĠI N
Ġe mail
Â °
Ġimp osta
Ġg o
O S
Ġ ,
Ġm in
Ġ1 7
gli ere
Ġrisp etto
Ġcara tter
v vero
C I
on ta
âĢĿ \
Ġpresen te
g ono
Ġ 21
Ġgen er
Ġdu rante
Ġm ie
Ġpar t
Ġa sp
e e
Ġsuo i
gra mma
Ġf ebbraio
Ġa b
Ġabb iamo
Ġcit tÃł
M A
d Ã¬
Ġper io
wit ter
Ġdi ritto
Ġb iso
Ġli v
Ġques te
Ġf er
ra zione
d ice
us to
Ġra ga
ĠC hi
nN on
men t
spon sa
st ru
Ġv a
l la
Ġ ulti
tri bu
Ġsic urezza
nC hi
Ġv alo
Ġda ta
L O
un que
Ġprin cip
tori o
ta g
Ġorg ani
Ġan no
Ġa ppro
Ġtu tta
A F
97 6
Ġtec no
Ġcon sid
Ġf on
Ġe cc
o k
Ġs f
Ġtecn ica
Ġi s
Ġutilizza to
ul la
c ina
ssi mo
Ġe conom
ita to
ri co
Ġdiver si
Ġpre sso
tan do
ma to
Ġde f
erca to
ci pa
Ġ k
Ġa ggi
nU n
va to
Ġf e
Ġl ine
Ġre sponsa
Ġri cor
ch io
ĠS u
ven tu
ve ce
Ġv end
Ġs tre
Ġm esi
Ġpotre bbe
lo gie
Ġfun zion
Ġs vol
etti man
Ġb o
ZION E
al da
Ġa re
Ġ #
Ġsta n
os iti
or ti
as s
Ġsc ri
Ġa gosto
Ġ 22
t el
Ġrapp resen
A E
Ġin te
93 3
Ġin v
zza to
u tili
sie me
99 1
is to
al y
Ġfor ni
Ġi mmag
Ġ20 09
Ġgra zie
gra m
Ġesp erienza
Ġfa ci
! !
da zione
Ġ ÃĪ
Ġqual che
in gu
Ġn as
N A
Ġtuo i
c tion
tan ti
Ġo tten
a cqu
men o
Ġ +
ĠF or
Ġc ultura
Ġm er
ĠR a
Ġb y
v ono
Ġno ti
Ġb an
nP re
ĠP ar
ĠV al
fica re
en i
a ta
Ġin via
ĠE uro
Ġha i
Ġdo cu
Ġsegu ito
nCon ta
Ġpa ro
da re
Ġs tori
Ġcor so
qu i
B C
etto re
Ġf as
nF a
Ġe x
Ġdi ritti
Ġo cc
nC ookie
gh t
Ġpriva cy
c ci
Ġconten uti
Ġr in
t r
Ġin vece
c er
Ġcon te
Ġprog etto
S S
n W
cch ia
Ġ 23
f iche
B D
Ġsu b
s ite
C H
nQu esto
âĢĿ .
Ġver so
Ġpartico lare
99 0
97 7
G I
f t
l us
Ġmen tre
b ri
97 4
Ġcom mento
Ġar riva
ĠD EL
Ġi de
Ġnecessa rio
Ġgio v
Ġtra mite
l mente
Ġli m
Ġlo ca
Ġca mbia
L a
gi or
ett ere
ter o
Ġv os
Ġn ome
inter no
Ġv in
Ġri con
Ġi o
96 5
ri e
Ġcon osc
f ico
ĠG io
os ci
h a
Ġo tti
ĠS al
s ar
Ġre gi
Ġg uid
Ġa nali
ar chi
an n
Ġpossi bilitÃł
Ġci Ã²
Ġc ri
sid ente
Ġfun ziona
E T
Ġl uo
Ġcomunica zione
ona to
Ġs ettiman
Ġs are
99 86
A L
a a
un ta
Ġlavo ra
Ġar ti
ag no
ĠP rivacy
vi di
ĠB o
on d
Ġse gna
Ġann un
zi ale
Ġs ci
Ġn orma
fica to
Ġra ccon
mb ra
alizza zione
tin y
Ġdi p
P R
Ġp uoi
ĠG a
no va
os si
Ġinter na
Ġ X
Ġf uo
nLe ggi
Ġgra tu
ga to
Ġsempli ce
zza ti
ĠG ra
Ġqu elli
nP rivacy
en tra
vis ta
ita le
97 3
Ġa cco
ĠB i
ga re
co la
g he
a uto
Ġes clusi
nM a
mbi ente
Ġd etta
e o
Ġs con
nD i
Ġmol ti
ttu tto
Ġme glio
Ġen tra
Ġvol te
97 8
ca re
n s
uo le
ĠV er
Ġso cietÃł
era zione
en t
c ella
ĠV i
om b
ĠC ON
Ġse i
Ġgra do
ĠR ic
Ġsu pp
ĠC ol
p ia
Ġcons ul
Ġsco po
Ġne gli
nD o
Ġsa ranno
E G
Ġaggi orna
Ġn ess
Ġmi li
Ġu tente
gg etti
Ġperson ale
Ġsu e
Ġd eter
ĠF i
et ri
96 6
Ġcom mer
re bbe
Ġin sieme
F E
ĠFa cebook
Ġpro gramma
Ġcon fer
utili zzo
> "},"
S A
Ġutilizza ti
l l
B E
Ġweb site
Ġsi gni
Ġo bbli
u zione
la ti
ito rio
Ġprof i
Ġmessa ggi
ĠCon di
Ġini zia
z ze
Ġforni re
Ġa per
me dia
ta d
Ġpers ona
N I
Ġri serva
cch io
i m
Ġde dica
Ġ *\
na ta
sti che
âĢĿ .\
Ġsp esso
Ġmed ia
Ġs ensi
os ti
pp e
Ġf onda
Ġmiglio ri
Ġper Ã²
s ico
a u
Ġcategori a
c ra
et ter
Ġgru ppo
F D
Ġpubbli co
mis sione
isti che
Ġpo ter
Ġ ul
I l
Ġmiglio re
Ġri ch
Ġsos ten
la mento
Ġs itu
Ġb log
Ġm ese
ĠT er
Ġm ostra
Ġt ri
es tra
Ġtan to
ag gi
Ġsopra ttutto
Ġ :
st itu
Ġcu ra
Ġcir ca
Ġa mministra
Ġar ticoli
1 05
Ġrisp osta
ers on
ele ziona
Ġopp ure
tan to
ta no
os t
ar te
ic ura
Ġnuo vi
Ġliv ello
ta ta
Ġalcun e
Ġo rig
ĠE n
m ia
us ti
g in
Ġca pi
98 9
95 6
Ġmie i
ĠM e
ver no
Ġqu o
Ġtu e
pp a
Ġgesti one
Ġv ic
Ġfin an
ĠS c
T U
Ġso cial
pp i
M i
Ġin s
Ġpro ces
is a
tri ce
Ġpropri a
âĢ ĵ
Ġra ggiun
Ġimp e
Ġdon ne
via zione
Ġpa ra
Ġp es
nT op
Ġinf atti
Ġv eri
Ġimp re
Ġcomun que
N O
Ġimpor tante
Ġar g
Ġo ffer
Ġconsen t
Ġ 27
Ġin ten
Ġpen sa
Ġrichi esta
Ġcol labora
Ġs or
Ġdi ffer
I talia
96 7
le tter
Ġc entro
p r
Ġlegg ere
Ġe sa
Ġpo co
Ġdi g
Z A
ĠG u
men tare
f ici
Ġser ie
\" ,
u tenzione
Ġcos tru
tic s
Ġbamb ini
Ġcos e
ia le
Ġ20 08
Ġdiver se
mp re
Ġpag a
Ġapp lica
Ġutilizza re
Ġu s
ura ta
forma tiva
u ale
ĠT h
Ġsucc essi
al la
Ġtro vare
Ġmus ica
Ġpre ced
nT u
8 85
an de
fica zione
is mo
Ġprefer enze
un i
95 5
ĠS ta
Ġdes id
tu r
Ġf o
Ġspe ciali
Ġtra sp
c ere
an ni
96 4
esi gn
Ġa li
Ġga ranti
Ġ 26
nM i
m u
Ġta le
us tri
Ġfil m
ssi one
om p
ĠM ed
ĠB a
sta l
Ġpo po
Ġv io
ð Ł
ĠB er
Ġste ssa
Ġgran di
Ġm ercato
Ġre al
Ġcondi zioni
M O
Ġrice v
Ġpo t
un t
u li
vi zi
Ġle tto
Ġca mp
ord ine
Ġs ettore
Ġy our
ĠT he
Ġ 28
d f
__ __
Ġdisp ositi
Ġh ttp
da to
Ġperio do
Ġqu el
Ġl ingu
ĠT i
nS i
ws letter
zi ali
aly tics
F C
sar y
Ġsecon da
Ġpos t
Ġper f
nP ubbli
Ġca usa
Ġsa p
as si
a f
Ġlu i
Ġel et
u pa
t m
Ġqu asi
Ġau tori
Ġes ter
Ġb e
Ġterr itorio
96 3
an t
Ġpre sta
ga ti
Ġmar keting
sti ci
9 27
Ġparte cipa
nCon di
bi etti
Ġs enti
\" \
9 21
Ġave va
Ġp ra
Ġqu elle
Ġfunzion alitÃł
cia zione
ar ticolo
c t
Ġtro va
ĠC li
M I
Q U
\ \
ĠA d
Ġv elo
Ġeuro pe
ĠU na
Ġproble ma
archi viazione
Ġat tu
co ok
D PR
Ġacc etta
Ġtra ccia
tu ro
Ġdisp o
ver sa
ĠT or
Ġpro du
Ġcomp et
Ġs ce
sti co
9 06
ma re
Ġre te
Ġul ter
ff ici
Ġsi ano
il la
al tro
Ġc el
0000 3
nFa cebook
Ġter ze
Ġan i
ĠA pp
nG i
p t
Ġm il
Ġda to
Ġes sen
94 6
Ġe ventu
Ġinte gra
v ie
ĠD ati
mo re
nR ic
Ġse mbra
a v
9 17
Ġri vol
Ġm or
Ġcre are
Ġdire ttamente
ver sitÃł
re d
99 2
Ġcit tad
in d
Ġbiso gno
ĠT ri
Ġcre d
Ġved ere
nM ar
9 13
Ġ1 00
ziona tori
Ġacqu is
Ġnuo ve
B F
gg etto
Ġun i
ett ron
Ġf os
Ġca pa
ar di
P A
Ġcons u
Ġreal tÃł
l en
Ġpre vis
c osa
Ġpre senti
nP o
Ġscel ta
Ġcomp orta
b c
Ġla scia
Ġn u
vis o
w are
) ;
94 5
Ġtele f
ĠâĢ ¦
Ġpos to
Ġmessa ggio
or do
Ġc erca
ch Ã¨
Ġfuo ri
M EN
Ġcli enti
95 7
b f
ul o
zia mo
Ġin ol
ĠH o
Ġca mpi
te zza
Ġa cce
Ġgior nali
t elli
or no
Ġdeter mina
Ġ '
93 5
m ica
Ġa do
ri re
Ġ 29
ĠP ER
84 5
uo re
es co
Ġlib ro
Ġnos tre
ron to
Ġai uta
al le
r us
ĠN el
in fo
Ġsen so
Ġre p
on ale
Ġen er
gg e
Ġpi ano
d is
b d
w ord
94 3
Ġimmag ini
d ur
ĠO r
Ġvisita tori
-- --
Ġin ser
Ġel ettron
Ġl ink
Ġter zi
Ġfami glia
Ġsigni fica
om enti
Ġte sta
Ġm ano
98 1
Ġproble mi
Ġgio co
95 3
menta zione
li zia
Ġfin alitÃł
re to
Ġacc esso
zz ando
Ġmiglio rare
Ġsin go
Ġs et
ĠL A
ĠâĢ ĺ
9 14
Ġin clu
Ġindi rizzo
Ġvis to
ĠA L
9 05
Ġconta tta
Ġpre zzo
9 25
tt ere
Ġcon segu
Ġa g
95 4
z on
Ġb lo
Ġar ri
e i
u b
94 4
ag a
Ġotten ere
r si
Ġsp ie
Ġcor po
g enza
ĠG DPR
enta le
9 16
20 21
Ġch ied
f r
le ss
Ġpag ine
Ġs esso
Ġstra da
Ġpro v
A r
Ġle tter
Ġcapi re
Ġfunziona mento
Ġcos titu
Ġa mbi
Ġda vvero
Ġda gli
ti di
Ġb ar
n di
c ano
Ġcomp r
Ġso ciale
Ġu se
Ġdi f
nL o
al tra
Ġid enti
ch er
93 6
Ġpolit ica
r ona
Ġf ru
la te
cri zione
98 0
sse gna
cc he
Ġstu dio
c ar
9 15
a mministra
co le
Ġv ero
9 23
nT ra
Ġca m
ĠC os
f ia
n d
er ti
k i
Ġannun ci
Ġri man
94 7
e f
or se
Ġb re
1 00
Ġsi mi
Ġcre sc
l ina
Ġparo le
Ġca mpo
Ġsub ito
ita zione
Ġda re
ĠC ome
Ġ or
9 11
vin cia
on te
Ġtan ti
Ġr uo
Ġcontro llo
ra le
Ġeff etti
ĠFran ces
dd is
Ġe v
Ġmod alitÃł
Ġar ticolo
Ġsc uola
Ġca si
ti ci
un g
ĠI tali
r ello
T ER
z ziamo
Ġinol tre
nH ome
20 20
U ni
ri ght
ssi ma
Ġlun go
Ġpas s
s ce
Ġ .
zi ende
I O
ĠT a
m ano
pri re
un ica
ĠRe p
cook ie
Ġconsid era
as so
Ġdi sc
Ġstru menti
ma tica
ĠP ri
a bb
Ġsco pi
Ġvis ta
ĠB ar
Ġdi chia
93 4
nR i
l in
w ork
h tm
Ġan oni
Ġc in
zza ta
Ġri us
om i
u alizza
Ġna zionale
tri b
ensi oni
Ġperson alizza
Ġs m
eri re
Ġrif erimento
c endo
Ġcaratter istiche
Ġcom menti
Ġcan cella
l ti
er si
Ġa da
u tare
ta te
Ġp lu
U S
do tto
Ġstru ttura
Ġgiov ani
Ġpo te
te g
ĠAn d
Ġline a
Ġforma zione
p en
nConta tti
ĠC A
Â ©
Ġ ru
ma zon
Ġguid a
Ġcon to
ie de
ubbli ca
Ġluo go
for m
qu ad
vi sione
Ġm ini
Ġb ra
ttu re
ĠD is
Ġ5 0
in ale
u e
, \
ti s
P O
Ġcla ssi
Ġesclusi vamente
9 24
ĠT e
nM o
v iti
ag n
y right
u ca
Ġpo licy
ti le
graf ia
Ġmag gior
Ġsvilu ppo
Ġ x
9 26
ra i
Ġfa vo
Ġc io
Ġpro duzione
Ġvos tro
Ġe venti
si ma
Ġmis ura
Ġmemori zzare
Ġvend ita
ie di
ĠCon si
vo li
an co
nE mail
Ġri so
f esta
ĠM as
Ġsare bbe
Ġf ron
ĠS tati
Ġu ffic
Ġd esti
Ġfor um
Ġos p
Ġsc rit
en ce
d c
22 4
9 04
nN ome
85 6
ces sary
Ġso li
Ġvia ggio
Ġter ra
Ġv era
Ġco in
esp erienza
bil mente
Ġitali ano
ba to
Ġa zienda
dur re
Ġspa zio
Ġp ul
Ġinter essa
ca le
r l
Ġpubbli citÃł
Ġpre zzi
il l
ĠS ono
Ġgener ale
ĠA ssistenza
Ġpia tta
Ġy ou
Ġal meno
96 8
on do
T TI
ar ch
ĠP ia
Ġutili zzo
lan d
Ġqual cosa
conom ia
para zione
Ġpubbli cita
Ġpro m
87 6
97 1
ĠCondi zionatori
Ġd ol
Ġfre qu
ĠT ito
ggiun gi
Ġpun ti
Ġre si
Ġpresen za
e di
co pri
cor r
Ġcolle ga
is cono
9 00
9 03
Ġterm ine
as cia
93 7
ente mente
ĠG o
Ġse de
nCondi vidi
ti che
un to
Ġpos sa
s ter
la ta
sp i
ĠB u
Ġ â
O L
Ġvalo re
htm l
ine ma
mb ito
om ini
ten do
a te
bb iamo
Ġfu turo
nAr chi
Ġs essione
Ġsucc esso
Ġinter ess
Ġme zzo
Ġani ma
Ġallo ra
\" .\
Ġrichi este
87 5
Ġleg itti
vi le
Ġ20 07
v anti
Ġmili oni
Ġapp ar
Ġrapp orto
Ġc rit
Ġese gu
Ġrisul tati
Ġindi vid
en ica
Ġp ol
Ġp ensi
I I
h at
ĠS tato
ic ro
c f
Ġobbli ga
nC o
c re
Ġtro ppo
ĠY ou
os so
Ġa ccon
tti va
ĠÂ »
Ġme di
Ġte sti
an ze
n on
Ġtor na
Ġp la
99 98
Ġes er
Ġcer ti
Ġpro ce
Ġde vono
an ca
I L
r end
Ġprote zione
Ġte mp
Ġsp etta
9 07
D O
Ġconten uto
os tru
Ġdisponi bile
a e
Ġsal ute
d enti
ter na
Ġri ca
pp ia
Ġper corso
Ġtecn ici
Ġsta mpa
Ġitali ana
ĠE x
vi mento
Ġte sto
tri mon
Ġcomun e
Ġre cu
84 6
at tro
Ġam ici
tinu a
A G
Ġpos so
Ġta li
ber to
c ro
Ġvalo ri
P I
Ġde ci
m io
n g
Ġu r
Ġa bil
ft ware
Ġcon n
Ġte mpi
Ġa ssi
A S
ĠQu esti
8 83
Ġcar ta
Ġtecno logie
Ġdisponi bili
Ġsettiman a
Ġfor za
Ġcli ente
it h
Ġdom anda
Ġdon na
Ġelet tri
Ġp are
Ġp ur
nC erca
76 3
Ġpaga mento
vo ca
99 37
w n
Ġimpor tanti
na le
Ġpi u
Ġrigu arda
it to
es sere
Ġf anno
ĠV ene
Ġa ziende
Ġpro va
u ter
ĠG li
ĠNa poli
ĠS ito
ort un
ven i
Ġav uto
99 94
di mento
Ġass icura
s co
ĠP erson
ĠTu tti
r y
om ma
nN el
Ġfor te
Ġn i
Ġs era
Ġ j
Ġinvia re
nS p
ĠC re
Ġabb ia
Ġmin uti
scri viti
Ġcar rello
Ġv uole
olit ica
mb o
Ġso ggetti
Ġtito lo
s tra
Ġpar la
menta le
nCa tegori
87 4
an na
r in
99 75
Ġ[ âĢ¦
u me
Ġman ten
n no
Ġgio ca
om m
ĠE d
99 83
rona ca
Ġpo tra
Ġso ddis
Ġmol te
Ġpubbli cato
Ġgen ere
nU na
Ġpra tica
nG li
P re
Ġsitu azione
Ġfi r
ĠS tu
Ġme to
ĠU ni
Ġ ero
et work
sta gram
ca m
V O
Ġen tro
d ine
Ġrich ied
Ġasso cia
l itÃł
Ġperm ette
Ġri fi
Ġ3 1
Ġe vid
ĠCon sen
b ra
Ġs tore
36 5
86 6
Ġval uta
Ġsta te
Ġbu ona
Ġques t
for man
Ġfor se
Ġcon serva
zza te
Ġproces so
cca sione
85 5
os ito
Ġimposta zioni
Ġacco unt
ma ta
Ġga ran
vi si
Ġer ano
Ġdef in
85 7
Ġcontro l
si zioni
ĠD io
Ġdispo sizione
Ġma cch
Ġacce dere
is ci
Ġcomp re
van ni
U R
Ġpro mo
op yright
Ġp ad
Ġcu cina
Ġulter iori
Ġcomp i
nS er
. ,
as e
ar dia
t elle
Ġlu ce
ĠF o
Ġdispositi vo
Ġdi m
k a
Ġc uore
m ini
Ġg ia
Ġan dare
d b
Ġcon segna
os s
Ġfos se
ĠC ri
A pp
no ltre
ter a
ad er
U N
an g
ran ces
lo go
Ġri le
nT i
Ġv uoi
an ia
Ġcom pa
TO RI
Ġeffettu are
20 6
r en
Ġesp re
nSe gu
d enza
ar lo
Ġe mo
fica ti
ĠT witter
en sa
Ġ }
acqu a
nA cc
Ġse zione
99 95
c ente
g ente
ulti mo
do tti
ĠComun e
Ġsap ere
Ġsp or
bo x
Ġre sta
al lo
99 24
Ġcor ri
Ġp sico
Ġli sta
Ġne go
Ġbu on
8 84
gi oni
ĠI L
a tto
Ġris chio
9 22
zz ano
Ġulti mi
L e
ti na
H I
Ġ =
d om
ĠM aria
log ico
.. ..
Ġu so
Ġvo i
99 21
cor si
Ġsc ritto
Ġsic ura
Ġper d
97 0
04 3
A l
amministra tore
or so
mb io
p ar
T u
nG ra
u omo
05 4
y s
Ġini zi
et ra
Ġs to
Ġmaggio ri
vo ro
f c
ĠR om
Ġre lazione
forma zioni
Ġle i
w e
Ġrice vere
t ito
Ġa cca
Ġme ta
nS o
85 4
Ġtu ri
Ġcoin vol
Ġcom ma
d ici
Ġfun zioni
Ġpotre bbero
lan do
ĠC O
Ġtra n
Ġcondi vid
cc ando
83 5
ti zie
U L
Ġdi men
ĠC alda
Ġste ssi
v ic
Ġinterna zionale
ð Ŀ
t ello
m mo
ĠRe alizzazione
un cia
c in
c os
c enti
ref er
99 96
ĠInter net
Ġmateria le
esti val
Ġlib er
forman ce
Ġconta tto
tu ale
a ra
la tti
86 5
Ġo v
Ġpa zi
p end
ĠCom p
as sa
U tente
Ġta l
85 3
Ġper chÃ¨
re mo
Â «
ca li
Ġloca li
ven do
ĠT o
Ġth at
m it
S O
Ġcon clu
Ġgior nata
20 5
on na
di zioni
ri s
ve d
Ġ www
Ġcontinu a
Ġeventu ali
ron ti
or me
B I
ĠC an
87 3
Ġma re
Ġte ma
ĠTito lare
c us
sti n
Ġpos ta
04 6
bietti vo
Ġparti re
less and
Ġhttp s
Ġpo chi
os sa
ga ta
Ġb at
Ġa tto
k er
Ġc ro
23 5
st it
Ġz ona
Ġb elle
Ġpri mi
Ġa tte
8 95
26 7
Ġs ele
f b
h are
ĠE le
ĠS te
mb er
r ti
nL i
p s
83 6
Ġn ulla
Ġasso lu
Ġp elle
Ġa de
log ica
8 16
ĠÂ ©
ĠNa tale
ĠEuro pe
Ġv ali
86 4
Ġterm ini
Ġri m
ĠP RO
u zioni
Ġfon do
Ġspeci fico
Ġconsi gli
n ÃĪ
or y
Ġfaci le
ĠCa sa
nAr ticoli
1 96
a zienda
b un
Ġr end
ĠH a
20 16
Ġri la
Ġsegu enti
* *
Ġde p
1 21
Ġsce gliere
c d
P P
Ġfi le
Ġ {
Ġstre ttamente
s ca
99 45
ph p
Ġb io
Ġal ta
I T
Ġelettron ica
ra ta
Ġcons enti
11 5
forma zione
ran d
Ġquo tidi
nT witter
Ġdiff ici
ĠA mazon
8 93
ver s
nH o
Ġm ale
Ġso le
U O
Ġcon ti
on ia
it ta
Ġro man
Ġimp i
in f
r itÃł
ĠMan utenzione
1 24
an che
nV ia
itori ale
Ġcapa citÃł
atti vitÃł
Ġv anta
27 6
e x
d el
m oni
Ġcos to
Ġitali ani
Ġnoti zie
8 05
84 7
Ġposs iamo
Ġal to
on us
Ġu ser
ĠD ire
98 2
ĠP u
Ġp h
ita lia
li mina
g enze
indi rizzo
r ono
Ġpre sidente
para zioni
lo b
te d
Ġinf o
ĠFrances co
99 43
Ġso ciali
ssi mi
ĠTor ino
Ġf ini
Ġvo glia
25 5
Ġpa ese
Ġoff re
13 4
Ġsti le
Ġ[âĢ¦ ]\
Ġappro f
ĠLe ggi
la zioni
Ġcollabora zione
Ġinf lu
as t
Ġgu erra
99 66
ĠA cc
Ġcer to
84 4
Ġver rÃł
ita ti
Ġresponsa bilitÃł
ff a
Ġd en
g enti
ĠCa p
A n
ĠG re
17 5
n c
tag on
en er
99 87
ran do
Ġvari e
Ġfun ction
25 4
Ġlavo ri
Ġgi uri
Ġc e
Ġto tale
8 14
Ġc entra
ĠNe ws
Ġs quad
u ali
20 18
Ġpro ba
Ġricon osci
nNe ws
qu is
sso ciazione
Ġc m
Ġs che
ar ci
for me
Ġqu attro
Ġc ia
Ġimpre se
nAl tri
s ul
Ġav ven
Ġd esign
20 4
mer ic
96 0
ĠAl l
Ġgen era
nI scriviti
Ġi stitu
ĠM inis
Ġmaggio re
is co
com mer
Ġinv esti
trimon io
Ġat ten
c b
ĠO n
Ġletter a
Ġcli c
Ġfinan zi
Ġdip end
20 19
nS al
ona ti
Ġpro ssimo
V E
Ġdim ostra
orma i
Ġrisp on
cun o
nD a
Ġr iti
ita ri
ol le
ĠC al
tta mento
Ġlib ri
Ġrif le
p eri
Ġpot rÃł
Ġaff ron
f d
Ġmod ello
Ġin ca
13 5
Ġpos iti
Ġfar ma
Ġrichi esto
U T
t ella
Ġraccol ti
22 5
Ġco per
22 6
8 00
Ġso ftware
Ġfron te
ĠConsi glio
Ġrip orta
99 55
ne ws
Ġsos titu
Ġ ðŁ
ĠMon te
Ġun ico
27 4
15 5
ĠA uto
Ġprincip ali
nC osa
Ġpropri etÃł
Ġmod er
99 93
oo d
C on
86 3
Ġvol onta
Ġprog etti
Ġrela tivi
Ġ20 06
20 1
om ina
c le
nS u
Ġve ico
23 6
ĠF in
Ġruo lo
nN a
20 17
c ando
Ġfin ale
Ġcos ti
Ġu omini
26 6
ON E
li b
Ġacqu a
nP a
Ġan zi
nA ggiungi
Ġi r
es o
in s
Ġcla ss
un d
Ġo vvero
vo lo
Ġdig itale
Ġpor no
86 7
03 5
83 7
nCategori e
ggia re
84 3
ed er
Ġmani era
Ġfas e
Ġcon trib
ĠT ea
06 8
Ġusa re
op era
nS ta
ver ti
vi zio
75 5
is tica
Ġ4 0
Ġaff er
dia le
di re
Ġfun zione
in te
scri zione
83 4
ĠC la
ĠS ci
Ġ ...\
Ġtu te
99 76
Ġev itare
Ġsta gione
Ġraccol ta
en zia
lo re
olo gna
Ġresponsa bile
n b
Ġsic uro
E I
Ġanali si
Ġf id
Ġf el
os tante
vi ene
Ġnel lo
ffic io
Ġsin da
Ġvi si
99 97
Ġfa tti
Ġn Ã©
Ġ ormai
F I
8 21
Ġmani festa
Ġcontra tto
26 5
Ġar re
Ġpic coli
ĠM us
11 6
m ico
tta n
bun ale
03 4
ĠGio vanni
Ġne wsletter
Ġrec enti
Ġe labora
u si
Ġmor te
ga te
87 7
c ito
8 24
lica zione
Ġstati stici
99 46
Ġpassa to
8 96
Ġe mer
v ita
17 4
Ġcli cca
Ġvio l
Ġgru ppi
Ġf anta
use ppe
en n
99 36
17 6
Ġdisa bil
Ġsol uzione
Ġconsi glia
c al
Ġdov re
ita mente
Ġpic colo
Ġc en
20 3
ĠC entro
nPer chÃ©
105 3
93 1
8 94
Ġinter net
ĠF er
s ante
S i
ĠS pe
nRisp oste
f ra
ĠSer vizi
Ġlib era
ĠR I
gu ra
Ġapp ena
ĠR is
15 3
vie w
23 4
15 4
13 6
ita rio
Ġnatura le
Ġpre ve
g er
Ġincon tri
ĠAn alytics
ta mento
16 6
A uto
Ġpre c
ĠCalda ie
ĠA N
Ġbre ve
Ġca po
M P
8 04
Ġgo verno
ĠPa olo
nC he
07 5
ti no
Ġasp etta
Ġin nova
Ġleg ale
a da
as ta
Ġse gre
lar mente
m ani
ĠJ a
Ġla n
ven zione
Ġv ie
Ġpro tagon
b lio
g ine
13 3
Ġdi ffic
gu e
Ġvo le
bb ia
Ġa ssistenza
Ġeff ica
Ġprofession ale
14 7
Ġs cor
Ġinter venti
Ġtecn iche
Ġpo sizione
Ġaiuta no
Ġacc omp
a zioni
ĠSe gna
o cc
d re
Ġpreced ente
Ġr endere
Ġsvilu pp
nPubbli cato
1 04
94 1053
va ti
8 25
Ġpresen ta
Ġsupp orto
\ ":
ĠS enza
83 3
ton io
ĠJ o
ru ppo
ZION I
da ti
Ġa mm
Ġpart ner
Ġel i
Ġqu ad
Ġcolo re
mpo ran
Ġmateria li
Ġlingu a
f ano
99 35
Ġrappresen ta
Ġri es
ir enze
14 6
Ġu omo
c la
refer enze
li e
Ġpass word
n J
nV is
Ġrisul tato
Ġno te
Ġvo ce
ar to
Ġimposta to
Ġso la
Ġsimi li
Ġw ith
ĠI mp
co lare
nF un
Ġsu gg
n cookie
Ġraga zzi
ĠG ia
Ġco dice
Ġstu di
ĠâĤ¬ \
ĠRe gione
i mmag
Ġesi genze
Ġfin estra
Ġb elli
d es
Ġdetta gli
Ġra ff
97 2
ia o
bb i
1 95
Ġconsen te
Ġim media
Ġtratta ti
11 4
m ici
Ġqu ant
Ġmas simo
Ġre g
1 25
Ġsp ort
21 6
v el
Ġd eri
la w
f in
27 5
are a
Ġpresta zioni
Ġpubbli ci
Ġdi menti
k y
Ġplu gin
Ġmo tivo
Ġsiste mi
Ġri pro
ĠG ro
Ġa pre
15 6
99 85
Ġpr endere
Ġrit en
Ġcondivid ere
ĠP e
Ġin stal
ĠC he
Ġcolo ri
Ġsci enti
Ġvi vere
ĠNa zionale
Ġat tenzione
va ta
ostru zione
lo w
Ġc ic
8 87
ar ra
con tro
es tion
us in
e ff
Ġqual cuno
uo va
Ġe cco
s ung
al er
Ġe t
Ġop ere
nR a
Ġgaranti re
onda zione
ĠD A
Ġcresc ita
Ġocc upa
Ġsol ito
Ġu sc
nT ag
Ġness uno
P er
Ġe di
S C
Ġver sione
Ġcittad ini
Ġcomun itÃł
c ur
uo vo
ett ono
Ġf al
Ġneces sitÃł
al it
via mente
Ġele menti
99 84
it ano
ĠB en
d ono
ini zio
Ġdom ande
ĠS I
8 86
Ġnon chÃ©
nA ssistenza
Ġ 05
ma tico
Ġ om
Ġfavo re
O C
le ggio
us ta
tta re
Ġesp eri
Ġd urata
23 7
th er
ulti ma
07 4
Ġmodi ficare
99 74
da le
Ġpo ten
Ġt r
teg ory
Ġpar lare
Ġno tte
Ġd unque
mo bili
Ġtito lare
Ġdec reto
Ġfe mm
tto ri
Ġ >
nP i
Ġer ro
commer ce
Ġdocu mento
usin ess
Ġm ettere
26 4
ar ma
tta via
99 56
nD es
ĠAn che
Ġsco per
Ġi mm
Ġba sa
es ia
ĠGra zie
Ġconosc ere
Ġsosten i
n f
ĠâĢ ¢
Ġaggiun gere
Ġn etwork
99 77
si o
a mbito
Ġcomun i
95 0
nGra zie
ĠG er
c ome
Ġsicura mente
24 6
16 5
Ġorgani zza
24 5
14 5
nU lti
14 4
Ġm al
Ġcel eb
Ġth is
P S
cen tra
tti vo
ĠM A
Ġe dizione
Ġregi onale
M B
ĠC er
Ġmedi ante
d ic
ĠV o
uo vere
Ġm ulti
Ġrigu ard
use o
ĠPerson ali
v iamo
Ġvis ualizza
ich Ã©
Ġra p
24 4
Ġma latti
tori e
Ġo cchi
Ġgra tis
nS ono
b ia
Ġch at
22 7
nC i
I VA
17 3
un ti
ĠPre sidente
00 6
CH E
Ġpro vincia
Ġfa cendo
gli or
Ġcaratter i
Ġe qui
Ġloca le
Ġm etri
Ġdis tribu
Ġpropri e
sa pe
ĠRi parazioni
ĠC OM
te si
che ck
es er
law info
Ġcommer ciali
Ġalcun a
Ġlegitti mo
a y
ĠQu esta
enti na
ĠP as
ĠS am
Ġa gg
hat s
gg ere
21 5
Ġ it
et tura
Ġcomporta mento
S T
Ġinf er
ide a
Ġmo tivi
nA d
ffer ta
Ġdiffici le
ncookie lawinfo
âĢ Ķ
ĠA u
ina re
Ġm ino
cc an
Ġver ranno
Ġricev uti
Ġinter esse
1 06
Ġdesti na
ĠG ran
Ġsoddis fa
âĢ ¢
Ġo ri
hats App
21 4
20 15
Ġquesti one
Ġv ostra
te o
Ġsu pera
l d
nD is
ra no
Ġ ordina
Ġu tile
ink ed
ita ria
a mbiente
ou t
Ġoffer te
Ġ 03
Ġstori co
Ġrit ro
Ġri ve
Ġle ttura
Ġcri si
ter i
Ġmis ure
un e
9 28
enti no
Ġa tta
n Y
Ġde mo
Ġregistra zione
Ġdov rebbe
20 0
Ġcomple ta
Ġcorre tto
ĠV I
Ġgesti re
Ġno vitÃł
00 5
96 06
Ġes tre
Pre ss
in io
Ġprog etta
is si
Ġu man
ĠD om
ra ggio
pp ure
35 3
Ġph p
Ġmeto do
Ġassolu tamente
13 7
8 11
Ġ 09
Ġprincip ale
ĠI noltre
Ġgio chi
16 4
Ġas col
T TA
22 3
93 0
l li
lo t
ĠS eleziona
Ġs eleziona
ĠP uoi
Ġcon cer
nG oogle
auto re
27 3
ol tÃł
ustri a
8 07
Ġsol uzioni
vis te
96 1
ff ico
ĠMar co
Ġgi udi
99 44
la y
ĠB ologna
ĠDo po
Ġriserva ti
stit uto
con do
00 4
p li
Ġmer ito
so le
b io
ici lia
Â Ń
ano ra
W S
ĠConsen t
ĠB re
le s
la zzo
Ġrego le
Ġare e
Ġris orse
ON A
ed Ã¬
Ġindivid u
go lamento
ortun itÃł
Ġcon c
g ro
) :
Ġarg omento
nL u
Ġeconom ico
er anno
25 6
Ġb ella
ĠInter na
Ġprofi lo
menta ri
ere d
H E
tu to
21 3
Ġtecno logia
03 6
Ġrela tive
or m
Ġcio Ã¨
l ino
Ġth ese
Ġcomp on
mi lia
8 26
ĠCon tro
ĠRep ubblica
uro pa
Ġle ggi
ri c
Ġser ve
Ġaccon senti
n K
ma te
Ġstu denti
ĠT re
Ġperf etta
h ia
Ġ Ã
00 7
p ol
amo re
ĠT ec
Ġp ari
ĠCa mp
Ġutili zzando
ĠUn iti
tu be
ĠÂ» \
1 85
U I
Ġtecn ico
Ġpiatta forma
999 06
ere mo
lan cio
Ġfinan zia
ra te
check box
20 14
Ġstan no
Ġconosc enza
Ġcred ito
ĠU tili
R e
G LI
Ġcal da
Ġte a
va zione
os itÃł
k o
U E
Ġ <
Ġsuper iore
Ġessen ziali
16 7
Ġme mb
Ġfi gli
Ġ tante
\" \"
in to
____ ____
Ġ ...
Ġdiven ta
in cia
Ġtelef ono
Ġne ga
Ġpro ced
Ġra gione
ĠEuro pa
Ġ 35
Tu be
O K
Ġinter vento
23 3
Ġphp BB
t one
or s
Ġmodi fica
Ġtras missione
AN O
Ġdiver sa
or sa
sen za
Ġdire tta
\" .
Ġgu arda
Ġ 08
Ġma tti
Ġs ess
05 6
in da
Ġincon tra
Ġconsenti re
Ġrealizza zione
Ġa mp
b log
nRic erca
Ġuse d
tri ci
20 13
nC ON
C a
98 74
ĠT V
is s
ord Press
MEN TO
in do
Ġ ordine
Ġluo ghi
ĠB e
es tre
inter est
ĠQu ando
Ġgiov ane
mati che
Ġni ente
Ġdef ini
i gi
g s
u mi
Ġsp ese
76 6
Ġtra di
20 7
ma zione
Ġparo la
ch it
j a
8 27
Ġi sc
Ġle gno
Ġga ra
Ġgi usti
ia li
Ġav rebbe
ĠC ro
Ġcomple tamente
acqu isto
it al
Ġs ba
Ġcon tribu
Ġesperi enze
Ġinter a
Ġte ss
Ġ @
Ġrecu pera
Ġsp er
Ġg as
ĠMo d
Ġcon d
11 3
Ġr eli
Ġmon th
Ġmod era
16 3
ĠA v
Ġsa per
Ġcia sc
Ġpri me
Ġmas sima
te ca
e ci
T RA
Ġriso l
it er
Ġre ale
Ġtra ffico
tan ze
Ġsegu ire
G O
IN A
Ġtemp era
Ġmod elli
Ġdi stin
Ġal terna
Ġ6 0
ĠA t
nTu tti
04 5
d ente
Ġinforma zione
nS copri
Ġdiffic oltÃł
45 7
ca ta
c ino
O r
i mento
Ġpubblica zione
Ġvelo ce
T TO
Ġprevis to
on s
v ra
8 97
Ġsu gli
Ġanali zzare
men ts
995 3
in formativa
venti vo
Ġmod ulo
Ġo ccasione
it ura
Ġde vi
n p
Ġri mb
Ġbas so
9 18
Ġsquad ra
Ġgi usto
Ġlib ero
nU tili
Ġanima li
Ġpriva ti
Ġpot ere
lan te
Ġav anza
Ġpul sante
Ġz u
Ġarg omenti
Ġstru mento
a ff
Ġdom enica
Ġstan d
Ġg re
Ġade gu
Ġ tar
Ġpubblicita ri
M E
Ġg e
Ġliber tÃł
an ali
8 03
d ini
ĠAn n
Ġin gre
Ġfar lo
Ġ QU
ĠSan ta
15 7
Ġ Q
04 4
97 97
as p
2 96
Ġp ron
ĠSegna li
nIn ter
en zi
Ġtras m
ĠChi esa
Ġmed ico
ar mi
tta ci
Ġeli mina
A cc
p ero
1 86
es is
Ġapp unta
Ġcor r
on sa
ĠP A
Ġdi v
gi mento
Ġci vile
Ġvi sione
Ġchia ve
Ġt end
fic io
d ing
ĠF irenze
ĠRe dazione
Ġd anno
ĠA lessand
Ġcon sape
Ġdedica to
nE n
66 3
Ġm inis
or si
Ġconsi glio
05 5
form itÃł
r one
Ġc alo
Ġgratu ito
nDes crizione
lu b
Uni versitÃł
ĠGen er
Ġav anti
Ġ20 05
in anza
ĠD u
Ġconte mporan
Ġcomp uter
Ġg ro
cip lina
Ġdec iso
us ura
ĠPa ese
ma tori
immag ine
us so
24 3
ĠMed ia
8 23
ing ra
Ġno t
peri ence
Ġav re
45 5
Ġaff in
Ġi stru
Ġspe ciale
ĠSp ort
ON I
Ġes te
Ġmacch ina
Ġne ws
Ġpas so
Ġdiffer enza
RI S
25 3
Ġs corso
Ġener ge
95 1
gh ie
Ġv orre
nChi udi
u sione
vo la
ĠI s
ER A
gle se
Ġind ustri
f un
nRe dazione
Ġcre ati
Ġmonth s
g ne
45 6
Ġin tro
Ġaccomp agna
Ġprofession isti
Ġcom b
26 3
Ġvi r
m os
Ġvic ino
lo ad
fa tti
ĠPro f
Ġcamp agna
Ġv acc
Ġfonda mentale
Ġk m
s tente
ĠGi u
it ri
Ġcon os
Ġ 36
Ġapp re
Z Z
Ġg lob
ĠCol le
w eb
Ġ 06
Ġcambia re
Ġquant itÃł
Ġpor tare
Ġpas sione
07 6
en co
nC iao
T T
94 0
1 23
Ġasp etti
Ġide e
tro ppo
ĠPri ma
Ġauto matica
Ġs onda
nC li
Ġscri vere
nL ascia
Ġrealizza to
ic ina
Ġpic cola
Ġfi glio
Ġt ru
Ġno ta
85 43
nS c
m s
14 3
enta li
ĠV illa
Ġmon ito
Ġpu re
N E
Ġpensa re
it tÃł
Ġris to
Ġcon vin
Ġraggiun gere
Ġr ende
Ġpr end
00 3
Ġpre para
cce di
ĠGi useppe
tiva mente
Ġcom o
ita ta
Ġins erire
Ġacquis tare
menta li
ĠVene zia
cca to
ĠI I
Ġsc omm
Ġt era
Ġstra ordina
Ã Ĺ
ĠMar keting
nC opyright
Ġal b
gn ano
ĠC ultura
nT ele
oni mo
03 3
8 98
Ġca rica
ani zzazione
06 6
Ġs chi
Ġness un
ĠF un
ces sa
gra zione
Ġma il
Ġsemplice mente
Ġfis sa
nP ri
Ġv anno
Ġtro vato
nI N
ter Ãł
Ġcol lo
Ġ20 23
ent itÃł
Ġpr eno
in t
25 1
S e
la ck
or en
Ġpreve de
Ġ 04
Ġso ff
nV i
Ġimpe gna
ĠS pa
Ġchied ere
a zz
Ġcolo ro
EN TI
ĠB ra
Ġti pi
27 7
U M
al to
nCon tinua
ver a
ar li
9 08
ĠC u
Ġconti ene
Ġco ordina
Ġutilizza te
06 5
Ġb ru
Ġpos ti
ci zio
Ġracco gliere
11 7
ĠF ra
8 15
C CE
93 2
t it
99 34
ĠE cco
Ġbamb ino
ĠPia zza
Ġsco prire
Ġcon formitÃł
ĠI o
8 13
24 7
Ġinter pre
Ġte st
Ġmag ari
ven ire
Ġrichied ere
06 4
Ġv it
Ġn ero
du re
Ġâ Ĩ
Ġ 00
or tare
Ġca ta
Ġca rico
a mp
nIn formazioni
Ġcor si
id ere
Ġcap ito
n in
Ġatti vo
17 7
ĠA S
Ġdi a
ĠC ookies
Ġcultura le
Ġri ma
Ġmas sa
ĠP O
Ġ 07
99 23
---- ----
Ġoff rire
Ġve de
ph one
Ġban ca
Ġsta bili
le x
esp onsa
ard ino
27 8
Ġnecessa ria
Ġca mm
Ġpro segu
er che
Ġstra te
tor no
ĠSam sung
Ġda vanti
ĠS iamo
Ġm icro
ttu alitÃł
46 4
cen sione
Ġcerca re
Ġsm art
z ine
Ġinter essi
va le
Ġpre so
Ġau ton
or n
99 05
Ġaff ida
Ġdiven tare
abb onato
ta l
le ssi
d ina
Ġad d
Ġdis tanza
Ġpotra nno
Ġinc re
n do
ĠTri bunale
ag ne
Ġsp ia
all er
Ġa zioni
nF ai
nD e
ĠD el
Ġsettiman e
I E
Ġpropri eta
ĠÂ ·
ci ano
mon te
ĠF il
Ġpia cere
Ġimpi anti
nA cqu
as ti
c ini
zion are
Ġconf ronti
Ġte o
S E
a per
Ġfami glie
99 25
Ġpresen tazione
94 1
Ġv aria
nB u
Ġpo li
esti one
g ano
Ġspa zi
ri ere
U n
? ?
tto sto
U A
Ġspe dizione
nQu ando
Ġdesid eri
ĠA R
nNe cessary
Ġsos te
ca ti
Ġs Ã©
Ġcin que
U P
Ġdefin iti
Ġgi ro
M a
46 5
Ġmo vimento
nA pp
Ġbas ta
Ġincon tro
ĠP orta
65 3
Ġte am
Ġtute la
20 8
Ġprov ve
lus tra
Ġes si
Ġlavora tori
Ġcon osci
Ġp an
Ġf rances
gen zia
ĠD on
Ġaggiorna to
Ġ 90
ĠTu ttavia
Ġten ere
Ġter zo
nR ec
en sione
cu zione
Ġeconom ica
mi la
Ġesp li
b an
Ġvaluta zione
T M
ĠS ar
Ġdisc us
ĠS tra
ĠNe w
Ġesp ri
Ġcla sse
f ono
Ġpolit iche
P ro
Ġe tÃł
Ġa meric
esi mo
ĠCh ia
RA N
Ġrego la
Ġes ser
45 4
cca re
Ġla sci
ĠM ad
Ġbi anco
Ġpartecipa zione
mina zione
mati ci
Ġm ente
99906 74
Ġdire tto
Ġcommer ciale
an zia
Ġscri ve
li are
ssi me
Ġpi eno
Ġv ac
Ġp om
Ġvis it
Ġo ggetto
Ġsol di
Ġri sc
sa zione
tion al
Ġsegu ente
Ġri durre
Ġsc ar
Ġricev uto
di fica
Ġm u
EN ZA
Ġpi ena
Ġulti me
Ġcre a
Ġperm etter
v esti
Ġimp a
an ce
po sizione
2 85
ER E
ĠT ele
ĠM ich
Ġmi glior
Ġre sto
Ġvolonta ria
996 4
gra fica
en ne
con e
1 03
Ġfa ccia
ĠCo vid
ari ca
tti vitÃł
eri menti
ĠIn c
ĠGi or
po re
Ġfa tta
Ġper tanto
Ġcan di
G A
Ġre sid
nD urata
Ġs cher
estion ale
man ia
sp etti
Ġmon ta
Ġproced ura
Ġpad re
66 7
Ġmiglio ra
ĠS toria
Ġindi pend
35 6
Ġsol tanto
Ġpa esi
on ica
O P
va te
Ġ *
Ġqual unque
/ \
2 84
Ġpes o
Ġdedica ta
Ġcategori e
Ġbiso gna
Ġlun ga
Ġcollega mento
mb le
Ġle ader
Ġcal cio
ec t
Ġser ver
ĠN i
Ġme ccan
nI mp
T RO
Ġrisp arm
nM aggio
Ġacqu isto
z ed
Ġuffic iale
Ġpre sto
Â» .\
Ġc inema
oso fia
m one
Ġdel i
Ġti p
Ġma dre
Ġspeci fica
ĠS ca
er io
en se
nAr ticolo
vol ta
99 17
gram mi
S P
% \
Ġ 33
Ġun ghie
Ġarriva re
Ġdocu menti
er to
Ġs ale
N e
ĠB r
Ġsco la
ff e
i p
ĠN O
Ġm era
Ġrispon dere
Ġcos tante
Ġd ura
Ġtrasp orto
titu zione
99 03
aler mo
m ere
Ġpiu ttosto
Ġe cce
Ġper dere
ĠSo cietÃł
enda rio
nIn via
ĠW ordPress
ver i
nC al
Ġo ggetti
Ġotti mi
ĠV in
Ġd anni
m iche
9986 78
ĠCo dice
99 14
35 4
Ġfis ica
is simo
nArchi vio
ic itÃł
Ġvi vo
om ia
Â» .
we et
Ġgen itori
ĠS il
essa to
ĠTu tto
N on
Ġpre occ
Ġsc uole
25 7
Ġsoste gno
o tti
Ġdimen sioni
f are
Ġfor me
tar si
nG io
Ġnatura li
Ġe p
Ġcel lu
ĠAnd rea
va li
Ġf ur
Ġa more
Ġm ette
Ġd entro
Z ZA
B O
ini le
le sc
vo cato
nT er
ari e
Ġdi etro
du ta
Ġrealizza re
Ġre ali
21 7
tu ri
Ġes tra
ria mo
ran za
st ito
o ro
Ġ ord
Ġes so
Ġse x
75 6
99 27
Ġcre do
76 5
nM an
99 29
ci pi
Ġpro veni
imp re
Ġindi ri
nS ito
o biettivo
Ġ 02
k ing
er lo
46 6
ic urezza
on g
Ġconfer ma
ico la
ĠP I
nS pe
p u
Ġvis ite
mati zza
se gn
Ġex perience
Â» \
ee k
Ġpi ani
nSegu ici
Ġmon diale
Ġt ur
ĠF estival
Ġeurope a
Ġde vo
Ġcon centra
Ġm esso
99 16
Ġtra ns
Ġpa ura
Ġp iedi
Ġse colo
Ġaper to
Ġ 01
Ġlavo rare
Ġsa bato
mis sioni
k et
1 26
in ali
ĠF A
ure a
ico lo
ĠRe golamento
M S
Ġcas e
Ġbelle zza
con i
Ġin sta
Ġorig inale
36 6
Ġre dazione
stal lazione
Ġper man
pre ss
ces so
1 22
on ali
99 33
Ġrisp etti
nE venti
en so
ĠV ol
Ġsos p
Ġnon ostante
Ġpensi ero
9999 763
rit tura
Ġrec ente
Ġstori e
Ġmemo ria
Ġ ]
ĠP art
ĠE l
44 4
07 3
2 86
ĠI P
99 47
e vento
b ito
Ġstru tture
osta zioni
Ġver de
Ġin tra
99 88
da tti
ĠM ol
r ci
Ġim pro
8 17
99 15
u cia
Ġsca rica
nA uto
bb io
Ġcomple to
Ġmemori zzati
Ġidenti fica
7 03
iti es
esso re
Ġnas ce
8 22
Ġs inistra
67 9
Ġspeci fiche
s on
ho w
âĢ ĭ
ĠIn stagram
Ġdo lore
Ġun ica
Ġdal lo
Ġl onta
Ġm etÃł
ne cessary
99 04
âĤ¬ \
Ġesp erti
Ġsf ru
Ġcorri spon
is h
Ġesi ste
Ġad esso
Ġp al
Ġdov uto
ed ia
Ġben essere
ich ia
es tro
Ġregistra to
ĠAn g
Ġpic cole
nV ai
Ġben i
Ġener gia
er dÃ¬
Ġgratu ita
Ġre s
ĠS h
ĠG I
t ere
Ġed uca
ĠV a
ĠF ri
n l
ĠSc uola
g an
E O
Ġg ri
nDo po
Ġrigu ardo
Ġnorma tiva
Ġstra ni
Ġ 34
nS hare
Ġqu ei
re e
Ġi po
ĠR us
Ġver itÃł
Ġpia zza
99 26
E limina
Ġapprof ondi
c enza
ro m
ĠA g
ï ¿
ba ck
Ġproba bilmente
Ġin glese
is e
d do
b y
nRe ad
Ġrius ci
ve dÃ¬
Ġappar ten
Ġsu d
m me
st ono
Ġimp ie
nO r
9937 885
uo go
35 5
Ġaffin chÃ©
el p
ĠYou Tube
ni l
T RI
IN I
bietti vi
ver si
996 5
en om
R L
b al
nQu esta
te c
Ġcli ccando
Ġp rati
Ġraga zza
Ġtras f
ĠM er
Ġspeci e
mb e
to p
ĠO ra
Ġpart ita
Ġfaci lmente
1 84
96 2
ĠCar lo
Ġchia ro
ma mente
y a
Ġi eri
19 2
1 07
Ġada tta
tan d
ĠA cqu
s cono
Ġave te
Ġprop osta
gis tro
ter n
Ġpartico larmente
8543 933
nRispondi Elimina
era ta
ĠSu per
E uropa
Ġsuccessi vo
ĠDEL LA
45 2
go lo
cia to
Ġdiver so
ina to
i le
Ġfor t
Ġin da
or di
9 29
ĠU N
Ġa mbiente
mu lazione
Ġprofi li
Ġg ente
Ġvera mente
Ġman utenzione
agn ia
Ġcontatta re
Ġfa m
ti ni
13 2
23 2
Ġcol p
nM e
ĠTea tro
Ġmodi fiche
ĠAn tonio
gis la
ĠM etro
Ġdispositi vi
tera pia
stru ttura
ĠLi b
ag o
ĠG ruppo
1 97
ĠMo re
Ġfor m
tion s
ĠCon ta
Ġacc essi
Ġsc ena
nArchi vi
Ġla r
Ġg usto
li c
Ġcre azione
05 7
Ġmanten ere
Ġsu ffici
ĠBo ard
alit ici
ĠR E
Ġscel te
tor y
nD ati
ĠG e
Ġcap elli
Ġf ol
Ġris chi
Ġpo ichÃ©
Ġar chi
Ġ labora
ĠCor te
Ġfer ro
Ġcontrib uto
mo zione
/ "},"
pre sa
gra fo
ven d
etta re
Ġcom incia
8 28
13 1
Ġf este
Ġaff i
Ġinizia tive
Ġnego zio
Ġv ino
Ġm os
Ġraga zze
Ġre gione
as se
de x
Ġca tegory
glia to
ic ol
55 5
ĠSta mpa
ĠG es
le tta
Ġabb as
75 4
ĠCor si
Ġinter no
ï¿ ½
ĠS icilia
Ġusa to
34 3
ff Ã¨
or ld
Ġstand ard
Ġdes c
ĠTh is
ag ni
Ġindica to
Ġeser cita
Ġconsent ono
Ġstu dia
ZION A
Ã Ģ
07 9
ĠP ol
ĠLu ca
d on
Ġrec ensioni
Ġre so
a ve
Ġs Ã¬
s tenti
Ġester ni
ita zioni
ar la
Ġgaran zia
Ġesegu ire
Ġsp i
era to
Ġtra dizione
r ina
Ġ20 0
Ġspetta colo
Ġconsape vole
ĠF erra
t he
g ante
Ġso ggetto
oo pera
n ia
Ġman gia
ie te
Ġi mb
Ġscel to
ser isci
Ġnum eri
Ġl Ã¬
ĠP ic
Ġcentra le
ĠF ondazione
va mo
ĠCom missione
Ġleg ali
nP uoi
46 7
99 06
Ġb agno
ter ie
N o
Ġsaper ne
Ġu cc
Ġr ingra
ann ello
Ġa go
Ġanoni mi
Ġdov rÃł
95 8
Ġparte cip
Ġfa i
v ice
Ġop zioni
ĠD al
nSe mpre
T S
Ġcom m
Ġai u
Ġab itu
76 4
nM en
Ġaccetta re
re s
nV ideo
log ici
Ġes clu
Ġe co
Ġaffron tare
ER I
Ġveico li
Uni one
ĠV e
1 83
Ġri co
d y
Ġb el
Ġopera zioni
Ġviol enza
Ġpote te
l it
id ente
lab ria
Ġitali ane
an ne
Ġo ut
94 8
vi rus
12 8
C S
log iche
ĠSer vizio
an di
Ġsingo lo
gu ardo
nS tati
1 08
Ġe vento
ĠL omb
nA v
Ġinterna zionali
Ġsta i
Ġcara ttere
Ġn orme
LI A
Ġnorma le
Ġter za
Ġautomatica mente
uo ve
Ġf esta
ĠComun ica
Ġ20 04
Ġs lot
ar ta
eno va
Ġchi usura
Ġporta to
Ġv itti
10 2
Ġeffica ce
ĠItali ana
ĠâĨ Ĵ
v ani
g ica
Ġver sa
Ġopera tori
so l
20 11
Ġra dio
Ġmera vi
Ġsp eri
Ġar t
Ġsuper fic
l er
Ġeff etto
Ġtras forma
mu la
05 3
le g
Ġb al
Ġliv elli
da y
Ġov viamente
esso ri
ĠLa voro
estionale Auto
Ġvelo citÃł
ĠI ta
Ġtrasp ar
ĠA li
du ce
Ġme zzi
pri ma
75 7
r ur
Ġg est
imp or
Ġt enta
Ġrap ida
nT e
Ġri e
gn ome
Ġcancella zione
ra li
Ġd Ãł
essi oni
Ġcompr endere
Ġre quis
Ġe commerce
m meno
a ch
nA ccedi
an s
ĠP RE
ta rio
Ġp ronto
Ġchi u
Ġeff ici
Ġrit orno
Ġ $
Ġabbas tanza
Ġi spi
Ġd ra
Ġperm ettono
Ġri cord
Ġpazi enti
com p
os co
ĠI VA
ĠP ubbli
ĠI D
03 7
0 24
g etto
Ġfoto graf
ic k
re ssi
Ġeffettu ato
Ġrila scia
Ġla to
Ġri fer
le t
nS ca
n https
Ġforma to
C o
99 07
osc ana
ĠS P
ZI A
Ġtutta via
Ġprofession ali
p ort
ĠCa m
Ġmo to
Ġpas si
Ġman c
go re
995 4
nConta ttaci
Ġveri fica
po ca
Ġv ale
Ġobbliga tori
Ġin vi
X X
Ġfon te
h is
1 27
bo li
04 7
S B
ĠR esponsa
Ġf enom
G GI
36 4
Ġsp esa
8 18
Ġsotto p
era re
ĠT ro
ĠV ideo
cole dÃ¬
Ġdis ciplina
ĠS ud
d endo
> \
996 7
Ġ )
20 12
e u
44 3
Ġmo glie
Ġcom ba
Ġto p
Ġm omenti
ĠR u
ĠGi an
99 13
ĠDi g
A ssociazione
45 3
m al
m art
s tu
09 2
AN I
cun i
Ġad di
ĠE r
Ġma mma
ĠN ON
1 20
vi zz
ar ne
ro ga
nG estionaleAuto
p arti
nD al
Ġcontrol lare
Ġra cc
Ġw ork
nIn di
Ġfid ucia
ĠB lu
Ġtraccia re
Ġnas c
Ġman dato
Ġb ello
85 0
I D
Ġdeci sione
Ġricor da
Ġgu ada
Ġforn iti
ĠT r
i ano
an z
ĠTh ese
ri era
ĠFran cia
ess un
Ġdisponi bilitÃł
c li
Ġu mano
ĠL E
ĠU E
Ġm m
c s
Ġide ale
orma zione
ri col
de gna
nA u
Ġ 45
n la
ĠV it
Ġp ale
Ġperf etto
Ġcer cando
Ġin torno
Ġmar chio
n Z
Ġa ssegna
ĠN ella
ĠN ord
Ġb onus
ie monte
Ġim mobili
F O
Ġcomple ssi
sci u
anali si
ĠE milia
nSer vizi
Ġav rÃł
da li
94 2
G P
x x
11 8
âĢĶ âĢĶ
d ella
ĠP ari
Ġdire zione
95 2
nG u
Ġ .\
Ġpassa re
ag ina
ĠM is
C ondi
Ġtro vano
ĠP ost
o bbli
Ġci bo
L U
tru ttura
Ġric etta
Ġil lustra
Ġforn ito
lo ra
Ġpiatta forme
ĠStu di
da mento
ĠS U
mon ia
tte o
ĠMinis tero
f il
om etri
Ġabil itato
Ġconsid er
Ġsele zione
Ġs on
Ġven erdÃ¬
Ġch iede
mministra zione
Ġa ma
5 00
Ġpotra i
Ġpa ce
Ġop ini
Ġsta re
Ġre dd
Ġte mi
Ġmo re
uta zione
Ġai uto
gior no
n ma
Ġ7 0
Ġdom inio
ĠM O
Ġabb and
p age
99 22
Ġespli cita
indo ws
Ġperm esso
nP olitica
Ġspie ga
vol uzione
ĠM ag
ona virus
Ġdif esa
c ello
e ar
Ġvisita re
ĠPer chÃ©
Ġsta mp
i ki
Ġo biettivi
ĠCas tel
Ġline e
Ġcompet enze
ĠEurope a
cra ina
99 28
blio teca
Ġpre mi
Ġdes tra
Ġal tra
Ġne mmeno
mer ica
age ment
a ran
re sso
Ġprofi lazione
Ġv uo
do tta
sp e
74 7
N G
n con
Ġtipo logie
ĠM I
g as
Ġnum er
06 7
995 7
Ġga y
ĠL I
mb a
8 08
Ġconte sto
Ġsotto line
o fferta
gh ts
ĠS O
ol d
11 1
10 1
ag er
oste d
9797 068
r lo
di enti
98 86
ĠF oto
21 9
acc ordo
an zi
87 0
matizza tori
w er
Ġtro vi
uid a
Ġmini mo
OR MA
Ġdetta glio
in Ã²
Ġgo ver
Ġsa la
Ġai utare
Ġpartico lari
nP ost
Ġeurope o
ser vare
Ġ5 00
Ġcostru zione
esti sci
er ie
ĠT erra
nR is
t ell
Ġi scri
ĠGro up
ar re
Ġfa ccio
Ġcondi zione
Ġli e
u ma
on tÃł
Ġprop oste
ĠLa zio
Ġdipend enti
Ġquo ta
Ġmil le
ĠSer ie
Ġcre ato
Ġus ando
ĠT RA
ĠR isp
Ġrich iede
w a
Ġca ro
Ġle ga
Ġli ve
ghe zza
Ġc anti
Ġvo gli
am ing
ĠO gni
on ico
Ġal so
Ġmo da
Ġzu cch
Ġvanta ggi
Ġpreced enti
Ġrifi uti
Ġfi gura
mo ri
nNo vembre
ona mento
Ġil lu
D U
e p
85 2
ro id
ÃĹ \
Â» ,
Ġn omina
ro lo
en s
ĠGes Ã¹
lia mo
nRe gistra
nAn che
Ġc ur
Ġex tra
Ġrapp orti
Ġi gno
Ġin vio
75 3
98 84
c ura
ter no
ro me
Ġave vo
b ano
11 0
il le
o la
Ġz one
Ġmemb ri
ĠS ch
ver ai
Ġconsegu enza
Ġsche da
n el
Ġha ve
Ġgio care
Ġraccon ta
Ġp ande
Ġmo bile
Ġes sa
ĠTec n
âĢ¦ .
Ġprevis ti
Ġsta r
m y
ro ma
ĠJ u
Ġb ri
Ġdi stru
ĠPi etro
Ì Ģ
lan da
v ando
Ġutili zziamo
m ine
Ġt v
Ġ20 03
Ġapp are
Ġre stitu
qu o
Ġricon osc
ĠPro te
nG en
M o
Ġat tre
ĠD ani
ĠV is
u dica
Ġcu ri
d ico
di bile
ĠO ggi
nC os
r eno
A I
ĠâĢ¦ \
or te
ĠD ia
Ġc ul
Ġvi ve
ca p
Ġi so
n mar
91 04
v es
c iti
Ġdol ce
di e
or go
ena ro
ED I
ar g
C om
87 8
nSp ort
83 0
s tro
Ġin segna
Ġam ico
ĠFor n
Ġ20 00
Ġconf ronto
C CA
23 1
ĠN A
Ġpa es
13 8
3 03
36 7
Ġlim iti
esti ci
98 77
ĠFor um
Ġdispo sizioni
00 1
Ġsal vare
Ġproces si
ĠPre zzo
gno re
Ġar te
Ġcol la
g ini
ĠQu al
ĠSe mpre
ĠB ri
Ġoffer ta
Ġopp ortunitÃł
Ġentra re
Ġca mbio
Ġorg an
98 66
Ġposs ano
f era
G E
ĠLe gge
94 94
inter essato
Ġaggiorna mento
Ġvo glio
Ġf ri
Ġattu almente
TU RA
Condi vidi
corr ere
Ġpr ende
ĠSte fano
tta to
Ġos serva
ĠU SA
Ġacc etti
sti na
ĠVer ona
' '
Ġro sso
vis a
nB i
uri smo
Ġper tin
Ġdig itali
Ġco pia
nMar keting
Ġme dio
Ġpas se
Ġpolit ico
13 0
85 8
Ġu sci
06 3
Ġries ce
nS a
Ġb ic
s ero
Ġambi entale
Ġpag are
Ġsu cce
Ġun ici
Ġricor do
Ġv as
sh op
Ġprotagon ista
Ġsi len
07 7
vi menti
98 48
nC ronaca
87 2
Ġsp os
18 1
Ġfrequ enza
Ġrela tiva
ra zioni
Ġinforma tiva
Ġpe ggio
Â ®
Ġtesti moni
Ġtorna re
Ġconserva zione
Ġcontinu are
Ġper ce
li ari
nV edi
Ġbi gli
Ġsal va
CH I
34 7
nB log
ĠMon do
Ġdi datti
Ġpopo lazione
Ġdi rig
Ġness una
Ġfir ma
d itÃł
ff i
org anizzazione
v ello
98 88
36 3
35 7
Ġapp assi
Ġpriva to
ĠF u
Ġre censione
46 3
Ġpartecipa re
TI CO
nN ella
Ġste sse
56 5
et tendo
Ġdi se
Ġaper ta
iso la
98 55
Ġvos tri
w ered
ĠA ri
an itÃł
99 11
Ġcontra rio
Ġpro vin
Ġc usto
Ġsti mo
nY ou
Ġd et
Ġveri ficare
Ġo li
ere bbe
Ġa ssa
V V
e conomia
A M
Ġdire ttore
c el
L i
1 93
ĠAnn ulla
87 15
all eria
Acc etta
997 3
Ġla va
erca ti
ĠP alermo
lo ud
0 15
Ġna zionali
Ġmalatti a
0 25
nR o
Ġave vano
Ġcon ce
A P
Ġerro ri
ĠPa lazzo
z ano
Ġperson aggi
pp io
Ġfunction al
Ġso ci
Ġdis co
da ri
qu a
era i
Ġrisp oste
Ġaddi rittura
Ġimmedia tamente
ĠPa esi
Ġconsul enza
Ġfemm inile
Ġ Ġ
Ġlascia re
Ġrisul ta
Ġtempera tura
Ġnumero si
Ġado lesc
inter vento
ĠVal le
EN TE
ca zione
ĠCon tinu
8 20
ĠF eder
nW hatsApp
nIn formativa
f re
Ġchia ma
Ġsc io
n ome
Ġracc om
ĠS ol
nQu al
Ġdel ica
Ġcomun ale
76 7
Ġpassa ggio
sc io
Ġm ina
in ta
Ġriman e
Ġfuo co
l le
Ġtran qu
cia mo
Ġric ostruzione
ĠCa ra
esis tenza
9 09
83 1
Ġotti ma
Ġd ina
Ġna to
etta gli
ĠOn line
Ġperd ita
Ġregistra ti
Ġpo tenza
tu s
Ġtea tro
26 1
Ġreg alo
Ġgi usta
99 48
Ġnuo vamente
Ġfort una
Ġma y
ĠContro llo
Ġmo tiva
Ġvia ggi
zi almente
ĠE venti
i va
T R
Ġlun edÃ¬
ĠM ario
lan ti
ĠT oscana
Ġcontemporan ea
Ġresponsa bili
do va
ĠCi Ã²
Ġsan gue
Ġco ppia
G H
nF in
Ġinteress ante
c an
b ar
nSegu i
Ġd ona
di menti
Ġass um
99 00
nQu esti
Ġtesta ta
Ġgioca tori
itori ali
Ġcompon enti
Ġcontra ssegna
sta to
33 3
ĠGer mania
oren zo
37 7
Ġcultura li
Ġclassi ficati
ter ra
Ġri esco
98 53
ĠAlessand ro
man te
Ġav viene
ĠP olitica
Ġcon tin
ĠD EI
Ġinizia to
Ġprin cipi
Ġf ia
Ġfa bb
Ġa ge
Ġmili ardi
Ġinflu ire
pp ing
Ġcar ne
Ġin n
ia re
ĠB al
Ġric erche
ĠD esign
ĠB log
a ppro
44 7
ta zioni
Ġconsul tare
nRe p
li co
gu a
!! !
ĠE sp
Ġcon fi
Ġa sse
ĠCor so
Ġarti gi
Ġasp etto
17 2
ĠGo verno
c uti
98 75
25 2
93 57
Ġpromo zione
ĠM useo
Ġle tti
Ġgener ali
Ġsmart phone
r oni
Ġinfer iore
b is
Ġsull o
17 1
Ġcic lo
Ġfunctional ities
Ġs el
Ġpersonalizza ti
44 8
Ġauto re
gg er
ĠSal ute
Ġd enaro
nNo tizie
Ġpre venzione
ossi bile
zi oso
Ġinforma tion
Ġcomp li
gi re
G N
Ġar chit
um ero
Ġdec idere
D i
RI A
na to
nT he
wn load
Ġtra tti
Ġvol ume
Ġinizi are
Ġsinda co
ic al
Ġaccesso ri
nE d
Ġcon ces
Ġdiscus sione
Ġper formance
Ġb rand
it ando
Ġecc ell
nova zione
d s
v ante
nStati stiche
Ġaiu tar
nCon tro
Ġs telle
nPre zzo
Ġnas cita
Ġprop one
ĠCon f
D o
M M
Ġchia ra
isp oni
Ġin telli
1 94
66 6
Ġpo che
Ġ 80
23 8
on ti
Ġdemo cra
lo ri
Ġdu bbio
27 2
C U
Ġcamp agne
Ġgi ud
ĠC ittÃł
ĠâĨĴ \
98 93
u a
98 83
Ġdis tur
bb a
Ġau mentare
Ġca mbi
ziona mento
li bri
ĠIta ly
Ġconta tti
Ġle gisla
arica mento
Ġcontro lla
Ġpa to
Ġamministra tori
e de
for te
Ġb usiness
11 2
Ġessen do
on line
nO ra
or mi
c ento
Ġu mani
on tan
at tenzione
Ġspeci fici
ĠPi ano
ĠQu i
ĠS rl
Ġdi eci
I R
u alizzazione
es tero
un ico
Ġperson al
Ġno to
x i
nV al
Ġconsu mo
03 2
Ġsempli ci
asso ciazione
Ġf ondi
impre sa
Ġso ggi
Ġmatti na
in er
Ġgiornali stica
inked In
ĠS copri
Ġtito li
Ġad ulti
Ġel etto
ĠMus ica
t un
Ġpor te
glia mento
24 8
Ġf an
Ġfa col
Ġforn itori
Ġimpe gno
vi gazione
ĠC en
p l
ĠLe g
Ġta volo
Ġpre mio
Ġin cor
ar ri
p olit
esta te
23 0
Ġra gioni
Ġmo bili
ĠCli matizzatori
Ġsta bil
Ġsimi le
98 94
Ġci vi
ĠCa labria
s che
22 2
Ġric ette
Ġnoti zia
Ġpo si
nDo ve
Ġstore d
Ġcos ta
Ġri entra
te dÃ¬
es ca
nD icembre
ĠRo berto
Ġcam era
Ġsenti re
Ġriguard ano
anora mica
ran co
nV o
Ġdiff usione
99 20
nCli cca
33 7
19 0
Ġso gno
18 2
ĠC ir
Ã ¡
74 3
9 01
nD om
Ġcomunica zioni
Ġacca de
Ġroman zo
b us
Ġb lu
ini zia
nI L
Ġpresen tare
mo bile
ec chi
Ġazienda le
Ġsti amo
ar le
d ra
Ġotti mo
nG estisci
Ġappunta mento
37 3
Ġcon ver
Ġon ly
Ġbi lancio
Ġfel ice
Ġpro grammi
Ġvogli ono
Ġinten de
Ġproce dure
ĠNo v
f is
Ġfa cc
Ġmo tore
che o
ĠCom menti
21 8
Ġp it
nMo d
p orto
tan ia
nL A
98 56
app licazione
nP referenze
ĠO ut
ina zione
er ta
b ini
{ {
Ġau menta
ĠM en
Ġdovre bbero
min io
Ġqu arti
mer genza
85 1
Ġregistra zioni
Ġpande mia
Ġaggiun to
Ġga mma
Ġpro vare
nC ol
Ġpar tenza
k s
Ġini zio
Ġdom ani
Ġcri sti
08 0
ur ro
v ide
Ġmodera tori
Ġal ti
E WS
Ġdo bbiamo
Ġcon cre
ĠQu indi
f ine
Ġdi alo
15 0
ĠItali ano
Ġve cchio
Ġ enti
Ġfrances e
ĠC opyright
Ġsp ir
Ġfin almente
G B
ction al
ĠW e
Ġm etter
Ġos pe
Ġpo tuto
Ġdo ver
Ġn omi
Ġosp iti
996 3
Ġscon to
98 95
ĠAl la
83 2
ĠAr ti
C ON
Ġvol uto
Ġre spi
ĠO li
Ġfis cale
Ġm ono
Ġacqu isti
Ġele mento
ĠL un
ture s
ul t
si mi
14 1
li ano
Ġorig ine
ĠT U
Ġletto ri
Ġf iori
Ġdimen sione
Ġlo tta
Ġtor n
ã Ģ
orna ta
ĠR es
Ġcon corso
85 77
man ti
Ġscoper ta
Ġpom eri
Ġun d
Ġcom pro
ricol tura
identifica zione
vi sioni
VI D
Ġcap itale
Ġinf ine
n ella
Ġtras fer
Ġcal do
id itÃł
o re
Ġrela zioni
ĠU tente
ĠP sico
03 1
nA ttualitÃł
tri a
Ġpossi bili
pp on
Ġpart ito
op zione
Ġpre ventivo
Ġse gno
ty le
Ġide a
n ess
55 6
Ġsitu azioni
Ġclassi fica
Ġfor ti
98 96
55 4
Ġc lin
pa ti
cc essi
cia re
93 8
Ġpresen tato
Ġmed ici
Ġinsta lla
ĠStu dio
\", \"
âĢĿ :
Ġsonda ggio
65 4
a de
nP osted
U TO
Ġord ini
Ġm etro
nPri ma
Ġde cora
87 1
Ġcambia mento
. )
Z E
cessa ri
Ġre ga
ĠO pera
Ġpri or
Ġv ar
ĠM el
mpi anto
66 5
ĠSan t
Ġval utare
o ccasione
Ġfa ttura
Ġimp rend
Ġrisc alda
ĠB io
Ġvis s
Ġdel e
li ci
Ġstati stiche
Ġinvia to
30 9
li smo
Ġs po
Ġav via
99 89
ce gli
os ten
e gno
ĠâĢ Ķ
nVis ualizza
Ġall ena
ĠA i
Ġcan z
Ġgi ardino
Ġsc omp
men tato
nPubbli citÃł
Ġsera ta
Ġ Ã©
Ġav vic
Ġarti sti
Ġgiuri dica
f u
Ġcorre tta
nF oto
Ġa rea
Ġchi esa
20 2
ĠM al
ani ma
ge gn
ĠRus sia
p to
19 1
77 7
nC h
ca te
nAr t
Ġporta le
Ġglob ale
Ġesplicita mente
len di
Ġf ed
nS cri
Ġsingo li
Ġdisa tti
u la
Ġoff ri
Ġassocia zioni
Ġli mite
Ġcorre ttamente
b it
f rica
pre ssione
Ġraccon to
in contro
ll er
on y
Ġper si
Ġfor ze
m itÃł
Ġca ffÃ¨
Ġambi enti
ĠLu igi
ma g
ĠE s
ter iore
ĠH e
s ic
ten a
ĠCri sto
T ÃĢ
Ġfe de
Ġcer ta
Ġo lio
Ġrela tivo
i or
Ġrecu pero
Ġnecessari e
Ġpre d
Ġriman ere
Ġv enti
86 1
ĠA ss
isp ensa
nIn serisci
14 2
c ss
al ti
Ġpu lizia
mina to
ca st
in c
ĠC ina
va tore
Ġpen s
ĠG enova
Ġg enti
ĠCon te
Ġsol le
Ġve ge
V ER
Ġca ri
ĠLe i
15 9
Ġbas ic
99 845
Ġpia tti
lar itÃł
Ġemo zioni
Ġvin c
14 9
Ġs iete
as h
Ġed itoriale
d uto
86 8
nUtili zziamo
Ġden uncia
in formazione
Ġcon tent
en ziale
gli are
Ġatte sa
Ġs h
Ġpreocc upa
gu re
ĠPo i
o x
Ġinteress anti
Ġsuperfic ie
nC re
pa rare
14 0
ĠA s
Ġw ill
14 8
Ġrisol vere
Ġa ere
Ġgiudi zio
ĠM ari
Ġma trimonio
esi ma
Ġtro v
Ġistru zioni
\": \"
Ġchi esto
tu ali
Ġapplica zioni
Ġrip et
Ġse mi
ran de
le ggi
ĠC osa
86 0
Ġester no
Ġes senti
17 8
c alitÃł
ina mento
ĠMas simo
Ġp io
83 90
Ġpo esia
Ġmino ri
so li
Ġpas ta
Ġca zzo
D CB
f ru
ĠNa tura
Ġessenti al
L Y
at ch
Ġturi smo
Ġsal vi
E M
Ġmas chi
na te
iti vo
Ġne w
Ġcorr ente
cch ie
ĠAn ti
Ġstra de
Ġin g
ro s
G RA
98 87
Ġcondi visione
u dio
in dex
do ri
15 1
ro sa
Ġcon du
Ġelettri ca
I stituto
Ġqu anti
88 8
Ġgra ve
ĠSo lo
88 29
ĠEle t
Ġcostru ire
po le
C DA
07 2
22 8
con tra
Ġs ve
r d
Ġsvol gere
Ġci elo
Ġri duzione
Ġpopo lo
iter ran
ci do
Ġmar chi
Ġentra mbi
S TA
21 2
li s
m etri
ĠI TA
ena to
Ġaff id
Ġcorre lati
Ġindiri zzi
gn uno
Ġcomple sso
Ġn ord
Ġques tion
Ġper cen
Ġp ie
C Y
Ġsin to
ĠC OR
ĠFran co
Ġco p
Ġocc up
9 12
Ġh elp
Ġsosteni bile
nA R
nC ultura
a cco
Ġcen tri
Ġper so
ab ri
nE limina
c ted
n un
Ġcir cos
Ġelet tro
22 1
Ġven ire
Ġvol ontÃł
m mi
nAcqu ista
05 2
Ġconf e
Ġcommer cio
Ġti ene
vizz era
nIn stagram
mb olo
ĠF is
nCom mento
Ġmi glia
/ ?
T V
on are
ĠIn formativa
Ġfarma ci
Ġpi ante
it s
90 2
Ġpubbli che
Ġpro spetti
Ġcontrassegna ti
n per
13 9
L o
Ġs for
nD ata
Ġca val
for um
tti ve
Ġla tte
ĠB el
. .\
cca de
ĠP h
97 96
98 76
ĠY ork
Ġpubblica ti
Ġsen tenza
era ti
Ġdes cri
Ġ )\
04 8
fica ta
T Y
Ġalle gati
Ġc ento
nE cco
Ġmemori zzate
9986 5
TI CA
nM essa
16 2
ĠP RI
ita te
In ter
Ġcomp agnia
ven uto
Ġcar te
Ġau mento
Ġqu ell
o ri
Ġpro ssima
nI o
Ġto ta
ita rie
Ġi f
Ġrequis iti
ĠDire ttore
ĠLomb ardia
ĠF la
o rig
sh ip
Ġsosten ere
Ġa mbito
Ġa mb
nV er
Ġmanifesta zione
Ġpre parazione
C K
v it
IN E
Ġatti vare
ĠR ai
G G
Ġqual ora
16 1
R U
nNe wsletter
ic s
end ita
Ġso cio
Ġ %
84 8
st ere
in vio
e poca
Ġsuffici ente
98 97
ĠInterna zionale
Ġvit toria
Ġg ol
Ġricor dare
Ġquad ro
ĠTra ttamento
I M
Ġscomm esse
n y
nH ai
ver Ãł
Ġacqu i
ĠT ur
00003 99
inizia tiva
pri va
Ġocc orre
Ġcir co
ĠS TA
ĠPro vincia
Ġf rom
ĠO ltre
Ġpe zzi
Ġd anne
Ġpa trimonio
gu razione
Ġr us
Ġan alitici
Ġg es
te s
Ġpre sa
Ġnego zi
25 0
Ġsf ida
con da
Ġindica zioni
Ġdiffer enti
Ġprincip io
99 31
s Ã¬
du li
Ġri vista
ĠRe g
Ġpre ssione
si vo
25 8
ĠP C
b ase
Ġcomp osto
Ġanoni mo
gi onale
RI O
nT el
ĠCam era
Ġso vra
98 85
ĠM or
ing e
ziona to
Ġlonta no
Ġpermetter Ãł
ĠVene to
D S
21 0
Ġgiusti zia
ener gia
Ġat tribu
ĠSar degna
Ġs rl
sid d
Ġa prire
Ġpen so
n da
ar y
Ġvanta ggio
r ino
ĠCon tra
Ġp is
Ġblo cco
Qu esto
t ch
56 4
Ġprati che
) ;\
Ġriserva ta
15 2
m et
Ġv illa
Ġnu tri
C IA
nPo tre
el d
ĠO ri
ie go
nIndi rizzo
ĠSci enze
Ġvi gore
26 8
v est
rit ta
07 8
Ġa zione
o t
Ġprofession alitÃł
parti mento
98 65
ĠU tenti
al b
Ã ĥ
is mi
r ne
Ġstori ca
pe dia
Ġ _
ĠI T
Ġquotidi ana
ĠS A
Ġin segn
Ġfi li
al ter
onta na
ĠC lub
ĠGior gio
ĠV ita
nP ar
18 8
Ġpensa to
ine a
Ġporta ta
g on
n Î
Ġcontrib uti
G i
Ġconf ron
c ell
Ġg eo
mble a
ĠRa dio
nL ink
ĠCondi zioni
is tico
Ġpur troppo
Ġ âĢĻ
12 9
Ġvisualizza re
06 1
ga mo
Ġtipo logia
Ġfonda mentali
21 1
Ġind ispensa
Ġa c
98 20
08 8
ĠS co
Ġraccol te
84 2
n gi
' s
su pp
Ġtraccia mento
Ġrego lamento
i di
Ġconsid erazione
ĠPa pa
Ġricor r
m es
pla y
etti ng
Ġpazi ente
Ġfa ce
vid er
d al
T H
ĠU sa
Ġv etro
ĠPar co
Ġinser ito
eser cizio
ĠCa mpi
ci Ã²
Ġset tori
gli ano
96 9
Ġid one
88 1
nAn onimo
ĠResponsa bile
nTele fono
Ġauto ritÃł
ĠA sso
8390 201
cur ity
ppo sizione
ĠR os
ĠP ad
â Ĩ
h n
Ġo biettivo
Ġcor sa
nO ttobre
Ġsa pe
97 9
ON O
Ġsi mbo
Ġin qu
n info
84 0
ĠRe ggio
Ġspir ito
Ġprop osito
ER O
Ġopp ort
16 8
ĠR in
tu tto
47 3
ssi oni
Ġe m
so ft
ĠApp licazione
Ġmusica le
97 87
sta zione
ch iamo
verti se
Ġsi mulazione
ci enza
ĠI mpre
l ose
Ġesa ttamente
Ġfun zionali
Ġgio i
Ġcompet enza
bo ut
e ventu
Ġpi an
( '
Ġaltri menti
orna mento
ich iedi
Ġsupp orta
Ġanti cipa
b ella
Ġcalo re
Ġatti vi
c ine
ĠS iste
gli sh
Ġdiver ti
95 9
ast ron
b ur
so la
Ġcol tiva
ĠðŁ ĺ
29 1
ĠNo tizie
9606 267
Ġ ?
Ġro sa
b ru
de d
is crizione
Ġarriva to
men tando
94 9
ter iori
Ġfe ed
18 0
LO G
ĠD ec
Ġprogetta zione
nCom unica
Ġsal vo
Ġse para
Ġsor ri
ĠG ri
u ol
Ġforn isce
28 8
29 2
88 0
v vi
Ġten uto
tti vi
Ġrin nova
Ġid ra
ĠA bbiamo
ĠC I
tru menti
inter a
Ġfar si
Ġ20 01
11 9
Ġregistra re
Ġuman a
Ġmanc anza
F i
T P
Ġ1 50
Ġco sidd
Ġet c
Ġatti va
Ġpro to
Ġ 37
p ag
l to
nCom menti
Ġali mentare
Ġbo cca
Ġpomeri ggio
15 8
g ani
Ġc uo
e to
ĠGran de
Ġconc etto
li st
Ġistitu zioni
nMen u
83 8
+ \
pri o
Ġso ffer
ĠC es
Ġusc ita
Ġtradi zionale
ĠCa po
Ġd in
0000 365
m us
18 9
Ġattu ale
ĠP ra
n http
Ġraga zzo
Ġperfetta mente
Ġgaranti sce
l ing
Ġp ena
ĠFi li
bil ita
etter a
Ġs guardo
de fin
el enco
Ġprevis te
N a
Ġelimina re
ĠCON DI
ĠG RA
n io
ĠU r
28 2
Ġ 48
Ġpro ve
Ġvio lazione
ona ta
Ġad er
Ġda te
ĠPa y
Ġotten uto
Ġesp lo
Ġvi gente
Ġresi stenza
Ġweb cam
M W
Ġsp lendi
uta to
ĠT el
Ġcar riera
77 3
nNa vigazione
âĢĿ )
ĠL ond
ve gno
ĠAr te
ĠP referenze
Ġacc ordo
âĢ¦ âĢ¦
Ġ3 00
e ed
Ġinclu de
ĠP al
16 0
27 1
bb ene
g ico
priva cy
Ġsper anza
Ġvoglia mo
P a
Ġcon corr
Ġdi min
Ġprof onda
ia ce
ten sion
isa mente
Ã ³
âĢĻ ,
Ġfinanzia mento
Ġm orti
ĠSe condo
86 2
use i
o pp
Ġ 75
nBu on
Ġneces sary
Ġcrit ica
lib rio
ĠM ess
ĠI r
Ġmalatti e
ĠM os
Ġcomp ito
mit ed
ĠCos Ã¬
Ġav ver
Ġinteressa ti
Ġmodi ficato
Ġse qu
20 23
Ġsic uri
8829 054
tti no
pro du
Ġto ur
Ġsess uale
Ġs ette
v ito
Ġ3 2
Ġvorre i
Ġinter ni
Ġpia tto
Ġinvesti menti
Ġscienti fica
Ġcan ale
07 94
ĠP orto
vid anza
Ġmo tori
Ġri struttura
N L
Ġ za
ĠS tre
com o
Ġca ccia
3 00
e mail
Â ´
Ġcor te
Ġv ento
Ġstrate gia
ĠContinu ando
Ġb ol
Ġcas inÃ²
itri ce
ĠD ra
Ġl Ãł
Ġnu cle
O O
r Ã²
nAl l
i mer
Ġban ner
ĠPu glia
c ic
Ġvo to
98 73
Ġdistribu zione
ĠMa tteo
s y
Ġba tta
ĠM il
Ġa vendo
p io
ttu ale
d ito
u gia
Ġsotto scri
30 2
ĠMod ena
si ste
Ġsvol ta
ĠAn na
Ġpa io
Ġpre vista
Ġchi uso
Ġcan e
H A
98 64
n es
' ,
bini eri
Ġreli gi
nRep ly
ĠSo le
me d
Ġprofession ista
Ġguarda re
Ġpre ci
ffer te
w p
nE conomia
ol low
Ġd enti
ĠP la
9357 224
IN O
ĠD E
Ġrim uovere
ĠT ag
Ġlascia to
Ġimp er
nFun zionale
Ġindustri ale
R D
A LI
Ġisc ritti
Ġtratta menti
o li
24 1
ĠB ro
Ġorgani zzato
nC or
Ġel en
Ġrin no
ĠH ai
ĠForn itore
26 2
ĠB ari
ie w
Ġfru tta
Ġacc ia
Ġabil itare
= =
inter o
en nale
28 1
it anti
66 4
r no
ĠB ru
Ġl um
Ġau gu
98 46
ĠRic erca
ĠS y
Ġvo ci
g etti
Ġpote va
ĠB asi
le tte
ĠM icro
ĠMich ele
Ġaffer ma
i do
as to
Ġrep ort
84 1
Ġper corsi
l un
Ġpartecip anti
Ġg r
Ġb ir
ti ne
Ġ20 02
ina rio
gna re
20 03
ando si
Ġba si
993 08
glia te
G U
Ġfenom eno
Ġpun ta
Ġra pi
vo care
ĠLe ga
Ġdef inis
Ġcan ali
n re
ĠPre mio
Ġo per
Ġun itÃł
Ġau dio
r mi
97 86
Ġalterna tiva
05 8
ĠO p
nÎ Ķ
Ġada tto
Ġriconosci mento
go la
20 9
Ġprotagon isti
Ġ //
Ġvi rus
35 2
ĠDi partimento
nS ettembre
lan t
Ġmani f
8715 653
ĠC inema
Ġdefini zione
nCo dice
T ra
Ġcompa ri
dari etÃł
0 23
09 1
Ġulti mo
98 67
ĠPo lizia
Ġci ma
ĠCon sul
ĠSo cial
on de
Ġfon ti
Ġapp unto
Ġal lu
Ġscrit ta
ĠCom itato
ĠP U
ĠConsen so
ĠG as
Ġpre se
Ġund ers
Ġm one
L L
aga zine
Ġrealizza ta
mina re
ĠA m
Ġconf l
88 2
it or
Ġsuccessi vamente
vertise ment
Ġindica ti
Ġdom ici
Ġpar lato
Ã ¼
Ġincor po
Ġfi glia
Ġconsidera to
Ġbene fici
Ġgen erazione
v ideo
A CC
ar ono
Ġri a
assi stenza
ĠC in
Ġsci enza
Ġapp li
id get
Ġven ga
Ġapplica zione
Ġlabora torio
Ġna ta
Ġerro re
ĠS anto
Ġes ten
ĠD ol
ĠNe wsletter
7 13
d or
20 10
ĠAr chi
Ġaggiorna menti
Ġspe cial
Ġquotidi ano
9 19
Ġprof u
Ġsca denza
nTag s
Ġmen u
ĠP iemonte
Ġstra teg
aper tura
s al
H O
Ġfacc iamo
ĠS E
!! !\
en z
an chi
Ġtess uto
Ġrica rica
ĠTra s
Ġ 55
Ġc ru
Ġvos tre
36 0
Ġv uol
S SI
ĠIn fatti
Ġagg re
ĠSp agna
Ġd itta
cco lato
98 35
24 9
Ġlingu aggio
Ġeconom ici
c elli
Ġveico lo
K Y
N R
nP interest
99 90
d da
Ġmangia re
nC la
Ġposs esso
ĠP annello
Ġraccon ti
der si
08 9
r re
ĠF I
bil itazione
a tte
ĠV ic
nTi po
f ort
05 1
08 1
T C
ĠLi mited
Ġo cca
Ġri corso
Ġs chia
d en
Ġdip ende
ĠStati stiche
Ġpo lizia
ĠM u
in stallazione
9104 663
Ġp m
Ġcompre so
Ġpla stica
99 01
Ġimp ossibile
Ġchia mato
ĠS pi
Ġcond anna
Ġrecupera te
Ġdu bbi
Ġy ear
nA t
Ġper icolo
Ġdis corso
Ġlettera tura
aller y
Ġz ero
R i
I mp
Ġsigni ficato
ĠH ome
Ġan aly
Ġmigliora mento
l ini
ina ta
Ġu gu
Ġscrit tura
Ġinv est
ri che
dia li
er no
Ġvis o
Ġacco gli
24 2
Ġinteressa to
Ġunders tand
Ġarri vo
Ġvac anza
Ġdetermina to
Ġpre si
y o
s ch
Ġfil osofia
Ġmeto di
nT his
ĠNo i
ĠMi lan
ĠC e
P E
d ri
g endo
Ġri chia
- \
36 96
ĠRe gistra
Ġu p
Ġb ordo
Ġobbli ghi
gli ari
Ġdesid era
Ġho w
os tro
22 9
98 45
ss er
Ġterr eno
Ġabb iano
pe ti
s an
99 18
ĠW il
ĠN uova
Ġu ffici
S D
Ġmar ito
Ġc ani
35 9
Ġrichi esti
Ġfatto ri
Ġusci re
Ġfru tto
ass word
Ġcapa ce
nD ettagli
Ġesi stono
98 27
99 81
f ondi
P U
08 2
Ġtera pia
ĠR IS
Ġm ensi
ĠS tar
i bile
cche tto
0 85
Ġtra tto
tribu zione
no logia
ten ze
ĠP AR
07 1
le y
u gh
X I
ĠâĢ Ŀ
Ġpriva ta
ind ustria
li re
mp li
j ect
Ġc oopera
Ġuni vers
ĠAr t
Ġpre s
Ġelabora re
pp one
ĠL orenzo
nB a
sta r
ba tt
Ġspi rit
n lu
CE N
iti on
Ġin ver
si li
ggia to
Ġvis ualizzazione
IN G
st iti
Ġnumer ose
H o
ĠPi Ã¹
sen to
nRa ting
tor ni
Ġespre ssa
84 9
nUlti mi
Ġru b
un zione
Ġdesid erio
or za
t ele
ĠM eta
ar co
ĠCom mer
Ġcoper tura
ro li
Ġin clusi
ĠE conomia
Ġle gati
Ġfaci l
Ġci glia
Ġw h
glia ta
Ġvisit ors
nSe arch
gli one
man u
Ġestre mamente
27 9
Ġri cco
Ġtota lmente
k in
L C
Ġfis ico
so lu
graf ico
Ġado tta
Ġingre dienti
Ġprom uovere
enta mento
r ini
99 80
ĠS inda
Ġoffer ti
nF i
ĠF re
nMar zo
nPro dotti
Ġmiglia ia
Ġclass ico
nLu glio
os p
Ġsoggi orno
20 08
ĠE conom
Ġconsapevole zza
86 9
st on
ĠE N
Ġs ali
R M
28 9
Ġconos ce
re en
Ġmaggio ranza
P o
ĠE ra
Ġscher mo
g or
Ġ 65
Ġperm ettere
ito lo
CE A
Ġcos tre
ta il
ĠSi gnore
ĠC HE
04 2
Ġsp osta
Ġs fo
zza zioni
Ġre cord
ch ine
Ġgu ard
che da
qu ali
nD ire
Ġpre stito
97 11
en ico
Ġmi ra
Ġcli ma
ran zo
s et
ĠUni versitÃł
Ġcon i
Ġpolit ici
Ġperman ente
98 15
nW eb
ĠSa la
ĠS ul
99865 043
Ġfoto grafia
b era
ĠA ir
c m
fe zione
r eria
Ġaccia io
933 85
g ar
Ġripro duzione
Ġcomunica ti
MEN TI
ĠLe on
th ers
cc orso
Ġpopo lare
cen zo
vilu ppo
Ġmi la
as segna
Ġprog ressi
Ġauto matico
16 9
ĠA ff
ar sa
co llo
es id
Z O
en ziali
ĠMon za
Ġproveni enti
Ġu su
B S
Ġdesti nata
Ġbat teria
nGi ugno
Ġriusci re
v or
Ġamministra tore
00 8
9 10
Ġse di
ĠA ssociazione
. âĢĿ\
Ġtra sc
Ġchi rur
so ri
ro la
ĠMa c
Ġp ane
ĠA I
Ġsegu e
Ġde cen
Ġcompari zione
sp a
Ġele zioni
j o
Ġriso lu
Ġora rio
rit te
Ġpar co
vol mente
de i
Ġcompr ende
11 19
Ġo ve
IA MO
ĠI RIS
V EN
DE O
ĠB lack
OM E
Ġchi unque
Ġproce dere
ĠU fficio
9494 97
Ġusa ti
ĠI t
Ġho tel
Ġta glio
Ġf ran
Ġi scrizione
Ġo gnuno
93 949497
er ne
in ti
Ġcolle zione
ĠGiu lia
ard ini
17 0
ĠP M
ĠB anca
Ġobbliga torio
Ġsecon di
Ġle s
ane ta
ĠN EL
Ġgiudi zi
F ORMA
99845 44
ĠV en
\\ /
03 8
Ġvi gi
ĠT orre
04 9
CC B
uri zio
f on
Ġa bu
ĠM in
st r
nA prile
gre sso
Ġp orto
Ġri b
Ġchia ri
87 9
g ando
Ġprop on
cam era
ro ri
app a
C DE
do l
P h
Ġaper tura
Ġvitti me
e mergenza
Ġinf ra
Ġle zioni
E n
lan za
Ġuffic io
ĠP interest
Ã Ń
Ġvuo to
Ġsosteni bilitÃł
ĠCli ente
nI noltre
Ġk g
** **
9874 8577
Ġa sciu
Ġmonito raggio
Ġage vo
00 2
Ġquestion i
cci ano
Ġnas con
Ġs om
nO gni
Ġman u
Ġbu one
al li
ea tures
98 47
ĠE li
tu sia
Ġstre ss
ĠGener ale
Ġsi mbolo
vo ra
in ten
26 9
9921 196
Ġs ino
55 7
Ġpersonalizza re
Ġminis tro
Ġn arra
Ġt on
Ġzucch ero
Ġper icol
nC ar
Ġper segu
impor tanza
Ġdisa ttiva
ĠP ubblica
34 8
Ġrin uncia
Ġsce gli
98 36
ĠJa va
Ġfi lo
eventu ale
gli anza
Ġep iso
Ġcresc ere
Ġsta ff
Ġdichia razione
Ġdol ci
Ġimp atto
ĠDEL L
Ġgio vedÃ¬
alda b
9924 353
ĠAl tri
Ġa zz
Ġregi onali
9929 0794
Ġp age
u i
Ġmonta gna
mp e
Ġcompa ti
ĠW indows
amministra zione
Ġpre sti
Ġsilen zio
ĠCon tinua
89 00
ch a
com unica
Ġcontra tti
Ġimpa rare
99 91
TM L
R P
ggia ta
SS O
Ġdetermina te
Ġspa m
H P
Ġser ra
Ġsvilupp are
8 91
Ġutili zzano
ĠCom ments
Ġpopo lari
... ]\
Ġch il
Ġsan itaria
06 2
Ġma tura
mb ini
ese cuzione
k ers
al ta
ĠP an
n X
Ġser vono
us tra
Ġpertin enti
mm er
Ġtras formazione
Ġidenti ficare
Ġpara grafo
Ġconsegu enze
nPer formance
Ġrimb orso
93385 667
Ġs orta
Ġpositi vo
Ġfin alizza
nL uogo
s or
Ġpre val
04 1
Ġinter ro
Ġcomunica re
etting s
Ġeurope i
56 3
f it
ET TI
Ġgratu iti
34 1
nGen naio
AN A
gen naio
v ini
ĠB ol
Ġsegna lare
Ġfor no
ĠMinis tro
99308 99
Ġmeravi gli
ĠE U
S U
Ġimpi anto
Ġm ercati
sta re
ĠCli ccando
ĠPar lamento
Ġqu e
Ġcomp rare
Ġdi co
Ġvin cere
Ġamp ia
nB y
Ġre tti
Ġcancella re
Ġvi va
ĠEx tension
Ġacqu ista
ĠAnd roid
ble t
ĠP onte
ðĿ Ĳ
28 0
36 2
Ġscarica re
ĠPi er
nS an
ĠCamp ania
ĠB ea
Ġta vola
Ġsco pa
Ġfar Ãł
Ġregi oni
ing resso
T RE
Ġmedi e
mar keting
Ġca tto
a tta
nO ggi
Ġoff rono
Ġs ho
ĠS ky
18 13
Ġconfer mare
do re
zi ano
Ġv et
Ġri sa
Ġacqu e
nF ebbraio
Ġne anche
ĠComun i
03 0
00003 35
nR ichiedi
Ġpro ssimi
ĠSo ciale
Ġutilizza ta
Ġgaranti scono
b on
tri co
te ch
rances co
Ġsensi bili
ER VI
98 44
nT ec
teria le
Ġevid enza
S o
Ġgiornali sta
Ġtrasf erimento
89 2
C T
25 9
g ersi
pla ce
mi glia
Ġa na
Ġopini oni
Ġmostra re
ti ene
ĠT ru
Ġregi me
ro re
98 43
Ġriconosc ere
Ġdep osito
D R
Ġm g
obbli go
ĠPa dova
Ġacquis tato
nAcc etta
imp osta
Ġcampi onato
Ġsco pri
e me
ĠB on
Ġfa si
Ġtradi zionali
Ġfos sero
________ ________
ĠPro dotti
o lio
Ġsp re
nRec ensioni
ĠAr ticoli
Ġdocu mentazione
34 9
Ġalla r
nT a
Ġfami liare
nT weet
Ġfre e
arti sta
ĠSa ra
Ġv ini
D CF
Ġa pr
ĠS tori
Ġve cchia
Ġmacch ine
Ġvari etÃł
23 9
ina ria
inter esse
sp ort
Ġvali do
il lo
OM A
ES TI
Ġdichia rato
a do
ĠL O
Ġla urea
Ġsare bbero
ced ente
Ġpre ga
Ġnoti fica
56 7
Ġdiv ul
Ġan y
Ġriscalda mento
Ġno v
Ġir re
nali si
tori zzazione
ĠIn d
at tu
nQu ali
98 57
Ġconsu matori
Ġind ic
Ġa bbra
t ron
ĠBre scia
Ġno tare
Ġsc en
ell ino
Ġrispon de
uo vi
ĠC red
Ġlo go
fer enza
Ġf la
ne y
Ġcontin uo
i zione
Ġcom missione
pre se
ĠTer me
Ġs tr
ten e
Ġbas sa
Ġad s
b ro
Ġcontrol li
45 8
ni zia
Ġs tri
ĠYou tube
Ġdra mma
99 38
46 8
tr y
Ġv ai
Ġbu ono
v viamente
Ġpar che
ĠCa tania
Ġconcer to
Ġprefer iti
ĠE UR
Ġw eek
ĠRic ostruzione
ĠF ormazione
Ġpre mia
97 64
ang elo
Ġraccon tare
Ġesercita re
Ġur b
Ġa mpio
K E
ĠN u
Ġfre ddo
ĠO ver
ĠComunica zione
Ġsvol to
ĠK a
Ġvisita tore
Ġli qui
Ġcrit eri
ĠAl berto
Ġ1 20
er ano
ĠW i
Ġrealizza ti
ing le
ma tore
ĠP rin
g ranti
vio us
stru tture
Ġmed icina
F T
Ġpar ziale
93 9
ZI O
ĠU NI
Ġ Ð
lus so
pi re
Ġs omm
la s
Ġper i
Ġco raggio
Ġgia ppon
L S
% ,
Ġgratu itamente
55 3
nCom p
Ġavanza ta
Ġorig inali
98 04
Ġsinto mi
un ici
Ġcli ck
Ġgra vidanza
Ġca use
ĠV ir
SI D
Ġau ten
Ġpre sc
ĠS icurezza
Ġin va
17 9
or r
Ġd er
Ġve do
Ġ ono
Ġinser iti
u x
0 94
Ġc ena
ĠM oto
Ġriti rare
0 11
ĠP os
Ġpensi eri
an ge
ĠUtili zziamo
Ġanoni ma
ck er
83 9
96 85
m essa
inked in
20 09
ĠDa ta
Ġtro viamo
Ġse mb
30 26
os ita
Ġse zioni
nA i
ĠProf ession
983 079
vo ri
98 24
Ġindipend ente
Ġdi eta
ĠW hatsApp
Ġpar ere
Ġmino re
ci zi
3 13
arg omento
99 08
ĠAL LA
A Q
Ġmil itare
nT o
g ene
Ġ4 00
ggia mento
Ġdo centi
Ġespre sso
CE E
o ggi
98 26
ĠS et
nSca rica
nT ro
C M
98 25
Ġmaggior mente
Ġpe zzo
ĠU no
Ġsuper iori
Ġre tro
Ġsen sazione
Ġfo re
ne o
85 9
Ġa ria
sta zioni
nCON TA
Ġstre aming
Ġinstal lato
op erazione
u alitÃł
ĠPa ra
nno vembre
n al
Ġcuri ositÃł
Ġris chia
nImp ostazioni
Ġproprieta rio
Ġspia ggia
. )\
co lari
gu ardia
ĠZ a
Ġeventu almente
ero porto
m ona
Ġsex y
Ġvo lo
nCa ra
Ġperm essi
Ġin ti
Ġpes ce
76 2
e cc
zio si
Ġenerge tica
Ġsos tanze
ĠIN TER
Ġo ther
Ġgra vi
n www
un ity
nCon si
U NI
nTu tte
Ġacconsenti re
va mento
Ġrapida mente
ttu ali
Ġsoddis fare
Ġfunzion are
g mail
nC hia
Ġproprieta ri
sti no
98 54
Ġutili zzi
44 9
Ġdo ppio
Ġchia mata
ina ti
Ġel enco
ĠFun zionale
Ġp anora
44 1
Ġorganizza zioni
Ġcre ma
ĠT op
si va
Ġindi etro
te vi
ri chi
Ġbu oni
98 03
Ġfami liari
Ġmo bilitÃł
97 75
05 9
glia mo
98 16
Ġban che
ati ve
Ġop t
0 22
Ġsvilu ppa
ĠProte zione
Ġden omina
ĠAl cuni
or da
Ġm orta
ccade mia
Ġta ppe
nTu tto
Ġdov ranno
0 14
Ġade mpi
Ġcol pa
gis cono
0 13
lica ta
ĠRom ano
ĠMas ter
ĠP or
am es
nAuto re
ĠB an
ed uca
Ġprote ggere
Ġdefinis ce
Ġind ossa
ĠPari gi
30 1
ĠUni vers
Ġsupera re
Ġredd ito
Ġsp osa
ni ma
44 2
ĠM essa
ĠO pen
Ġ( âĢľ
Ġf estival
ĠCONDI ZIONA
Ġtempo ran
Ġman ca
ĠM are
Ġbo tti
Ġconn essione
Ġm l
45 1
ar vi
96 75
ĠAn ton
Ġm orto
Ġat le
Ġdisatti vare
Ġpreno tazione
hi rd
ĠD AL
V D
asp etto
O G
mb ria
eng ano
9943 3696
Ġlegg er
Ġle ttore
Ġimmag ine
Ġconclu sione
Ġre fer
98 14
Ġpen ale
ĠIn forma
ke y
987 46
nd icembre
mo si
921 1119
Ġcal endario
Ġapp ari
lab ile
t ite
Ġpi anta
Ġforn itura
pp iamo
Ġstrate gie
Ġpi etra
W W
98 21
Ġfas c
Ġoffri rti
itu tto
P T
Ġciasc un
du ti
Ġcambia menti
sta te
c era
con to
Ġlibera mente
glio ri
Ġristo rante
is sima
v ino
ener dÃ¬
lie vo
zia mento
TO RE
ĠS C
nC as
nA gosto
p or
Ġf lessi
etta to
ce o
ĠAl le
Ġingre sso
ĠN icola
97 47
Ġri forma
U G
Ġpre defin
Ġstraordina ria
Ġprop orre
Ġ8 00
ĠW orld
Ġmar tedÃ¬
z er
Ġdi cono
ĠHo tel
ĠL EG
ĠRe gistro
d in
Ġta ri
Ġindica te
ur troppo
Ġpaga menti
b li
.... ....
Ġdip l
ĠI II
Ġli cenza
c tor
ĠCONDIZIONA TORI
Ġperio di
nS iamo
bo ra
Ġopera tivo
X Y
Ġte des
ĠF el
ĠQu este
Ġamministra zione
ĠTra sp
Ġperson aggio
mos fera
Ġfeed back
ba ra
ma s
nNe cessari
Ġasso l
Ġulter iore
na prile
Ġali menti
dom estici
Ġdo ppia
Ġsele zionare
Ġrisparm io
Ġgener almente
ĠD ic
Ġappunta menti
eff ica
R Y
V C
Ġta g
33 1
vid enza
r ito
ĠG ar
Ġdec ide
ĠPO LI
uti ca
ĠE ner
0 83
0 26
sen te
Ġ osta
u fficio
Ġar mi
n Q
versa le
os tituzione
Ġpubblicita rio
Ġes tate
Ġconosci uto
Ġpia ci
Ġtri b
l on
20 01
K K
65 7
RE A
lo gi
CE D
Ġpo p
nSta mpa
Ġespri mere
ci po
Ġter min
Ġregistra ta
4 00
64 09
Ġso gni
ĠDi ritto
Ġasp i
Ġdis se
2 94
Ġa f
nT orna
Ġsostitu zione
46 1
la voro
Ġm uo
ri sti
Ġprincip almente
Ġgia llo
Ġraggiun to
Ġus es
nF il
Ġpre gi
Ġali mentari
Ġneces s
Ġsp alle
Ġe vol
Ġcittad ino
. :
Ġre ti
Ġscoper to
ĠE mail
ĠInter vento
Ġo ur
ai uto
Ġpro vato
Ġpas ti
Ġevid enzia
ĠS mart
men do
Ġmoder na
Ġs how
ta ri
Ġdi batt
it ure
nR I
Ġconsidera re
con a
74 8
Ġstan za
mb ro
S cri
con tri
Ġfinanzi aria
Ġo tto
ici dio
Ġcer tamente
98 34
etti amo
Ġcamm ino
Ġsugg er
d ano
Ġdiven tato
Ġpro durre
Ġrego lare
versa rio
n uovo
0 21
as c
Ġfur ono
Ġcal colo
ve di
Ġgra fica
Ġscola stico
Ġdialo go
35 1
d ro
Ġe mb
ad d
log y
un itÃł
en di
Ġusu fru
Ġ( +
Ġappro vato
g eno
ĠF ed
Ġve di
Ġcon se
Ġin telle
Ġv ene
Ġd ando
ron ica
98 07
Ġm ura
b el
Ġpre venti
ĠApp le
ĠPo po
ve cchia
P L
t ita
ina te
v enza
Ġt hird
i mpianto
Ġrifle ssione
ĠM y
nAl tro
98 13
ag ine
Ġcon cor
ĠR ed
Ġrend ono
se arch
Ġsegu i
Ġar tico
ĠR osa
Ġso tti
06 9
gu ria
osa mente
Ġco ttura
bri che
nSe i
a p
B U
Ġma gistra
ĠMar che
al ly
nNo leggio
J J
Ġora ri
Ġstu dente
nC A
nA ltre
Ġvol to
ch o
Ġspeci ficato
k is
CD B
Ġc ine
ĠFi or
T N
ĠVia le
Ġos sia
Ġ !
uti le
Ġassi eme
Ġb oni
Ġnavi ga
Ġelettri ci
Ġazienda li
man n
Ġf lu
R G
74 2
Ġcellu lare
in dica
inte grazione
95 54
Ð °
ĠIn di
0 86
r la
ĠL an
Ġdiversa mente
ĠA ggiungi
Ġc ulo
re zza
T he
Ġmer coledÃ¬
Ġsuccessi va
nAn d
cla imer
Ġs ento
Ġso pp
aa aa
nP anoramica
e venti
Ġb olle
Ġcolle ct
no ttobre
Z Y
Ġcio ccolato
Ġinflu enza
uni one
Ġta sso
1 09
Ġb and
d cast
Ġeffetti vamente
1 87
Ġulti ma
G oogle
Ġsen tito
Ġsvol gimento
w ay
Ġgio ia
98 17
Ġid entitÃł
ghi era
Ġfi anco
m ando
Ġmin uto
Ġb ici
Ġmis sione
EA D
g ri
ĠC osta
Ġelettri co
s tre
Ġsta zione
ffici enza
ĠFil m
d ino
ga torio
ĠN or
Ġdi c
H Y
Ġmil itari
nAl la
ven t
ĠMo difica
Ġinforma tici
88 9
Ġsvol ge
Ġpo e
33 2
pr end
Ġinf in
9943 927
98 37
Ġa gen
Ġp ronti
ĠChia ra
ĠB lo
ĠA M
Ġrisp ettare
ch ino
zza ture
Ġgiud ice
si s
Ġedi fici
Ġf eatures
us cita
Ġdol lari
913 6409
e qui
nb y
nSta i
Ġven ne
Ġ{ {
par ty
ĠCar ta
Ġs anno
Ġchiu dere
Ġstori ci
Ġfas cia
Ġauto mati
IS TA
Ġlo gin
g el
ĠTer mini
Ġlum in
Ġwork ing
98 05
al ita
tu o
nmar zo
v ica
imp egno
Ġcal cola
Ġri parazione
Ġsegu endo
ci di
43 2
nCondi zioni
nRegistra ti
S M
Ġsoli darietÃł
Ġemer genza
ĠÃ Ĥ
nP RO
03 9
Ġcompro m
nC O
ico li
Ġcol po
Ġf um
ĠP lay
Ġes se
s omma
Ġv engano
Ġti ro
lo chi
cun e
Ġeffettu ati
l r
nSe condo
ĠBer gamo
olit iche
Ġsa ppiamo
Ġrisolu zione
0 95
ĠO ff
Ġgra du
eff etto
ne u
Ġv ice
Ġb ando
Ġdise gno
in segna
Ph one
Ġambi entali
Ġsp agno
Ġstrani eri
zz etta
le tti
Ġs v
Ġp ranzo
ca mp
Ġcon soli
V Y
Ġfa tica
Ġsa i
Ġsca mbio
Ġcon veni
ito ria
ca sa
gno ra
to logia
c ultura
ĠChi udi
P N
ES T
Ġindica tori
ĠFrances ca
Ġrappresen tano
Ġre sa
itu dine
nS toria
Ġvic enda
Ġ1 96
ĠP en
uo lo
ĠS vizzera
Ġno leggio
etta zione
ĠQu es
ĠGre en
gi l
Ġfi ga
nS te
it tad
Ġconsul ta
Q Y
nIn fo
nPi Ã¹
45 9
com une
0 84
Ġaggiun ge
nO ltre
ĠBu on
n ico
ĠS iti
Ġbri l
Ġin au
U K
Ġaff as
Ġman da
98 06
t oni
J Y
H F
98 23
ns ettembre
aldab agno
Ġca pp
Ġvac anze
Ġlo calitÃł
Ġsu dd
er la
Ġ lab
SI ONE
Ġdet en
gh er
m ic
6 00
Ġri cca
Ġintera mente
Ġlim itare
Ġstu p
is sione
ĠRe gno
Ġdistin gu
Ġevid ente
bru zzo
nSer vizio
V G
mis sa
W N
ĠTU TTI
ĠAS N
Ġn orm
Ġorgani zzazione
Ġtro vo
Ġconten ute
Ġc lub
Ġsa ys
Ġeconom iche
nSal ute
ĠD onna
T F
ĠGi uli
8 09
ro ugh
ter ali
OC IA
Ġeser cizio
Ġscon f
Ġs tili
Ġv est
Ġpre f
n gennaio
Ġan dato
nf ebbraio
Ġcos cienza
978 1813
Ġgi u
Ġapprof ond
ru zione
Ġferro via
on ne
c id
8 90
Ġpor ti
ĠCi vile
tiche tte
Ġric ic
c ardo
ĠC aricamento
Ġpun tata
pp ie
ĠPar ma
Ġb er
Ġsucce de
W Y
Ġperson alitÃł
Ġpresta zione
ber t
Ġt el
stit uti
ngi ugno
Ġdichia ra
ĠS AL
ran di
ca de
X L
Ġviss uto
Ġcolle ghi
e y
BB LI
20 07
r vi
Ġcalda ia
fica zioni
arri vo
n ri
Ġn era
Ġraccol gono
ull o
de e
Ġne o
Ġme teo
Ļ Ĥ
ĠB ene
org ia
ĠD ue
i po
Ġmed ica
Ġbi anca
do ro
Ġcon ven
Ġpar lando
Ġeconom ia
Ġqu a
Ġnega tivamente
Ġcivi li
Ġanzi ani
Ġne ve
0 18
Ġvisi bile
Ġan alytics
ci r
nC HI
Ġvin to
ss ero
Ġf r
id atti
Ġimpre sa
ĠRe ad
34 2
Ġacqui si
Ġde bito
hi on
me di
po licy
nV uoi
Ġpro i
Ġri presa
Ġester ne
ĠLond ra
org an
n ici
de b
C R
te mpo
go le
46 2
8900 452
gn or
Ġp s
Ġgi un
ĠS UL
Ġan ch
ĠR EA
t d
tica mente
n se
Ġimm er
nT esto
Ġlan cia
Ġco si
ĠLi bri
36 8
Ġini ziale
Ġbatta glia
ro r
Ġgior nate
etta colo
S H
Ġpo sizioni
= \"
ĠB as
a ut
Ġaffi lia
Ġanaly ze
Ġpre parare
Ġthe y
Ġma terie
tu p
isponi bile
ĠNo ve
Ġriguard anti
nP erson
ðĿ Ĺ
Ġvia ggia
mo ra
Ġle gate
ĠSe gre
po ri
f oto
pro dotto
} \
Ġs cato
A CE
or b
usti zia
archi vio
Ġtan ta
-------- --------
Ġcondi zionatori
Ġ 47
Ġinteress arti
Ġcittad inanza
97 76
Ġbene fic
Ġfar ina
voca ti
Ġappro ccio
P RI
Ġb is
Ġtraspar enza
9848 278
Ġle ttere
ĠG uida
Ġcre de
fa c
Ġecc essi
ĠB ia
iti va
si le
e uro
nB en
ĠC el
Ġgioca tore
uo ri
Ġmo vimenti
98 22
Ġscor re
cca ti
Ġsembra no
Ġg lu
Ġso v
Ġimpro v
vesti mento
Ġin tu
ĠN etwork
nLi bri
97 94
Ġ3 8
Ġconf erimento
et tando
Ġ italia
' \
ĠH er
nV I
Ġ ;
46 0
Ġcu cchia
du te
33 9
n n
nlu glio
Ġ 44
Ġsan itario
Ġmemb ro
Ġdefini re
Ġalb um
nM as
sc ritto
app ar
Ġab ita
ĠB os
p al
nM us
Ġpes ca
Ġmed esimo
nTer mini
id entale
CC F
sh o
Ġfil oso
cu sa
nNe xt
Ġcontra sto
Z N
Ġtra cce
Ġconosc enze
Ġcerti ficato
74 9
Ġsc ene
nA rea
E CB
Ġcambia to
n is
Ġconserva ti
Ġcaratter istica
mpi anti
00003 97
Ġfa tte
Ġdo tt
ĠN et
35 8
V R
ĠB agno
Z K
ten uto
Q Q
nM ol
l gs
g oogle
Ġpre venire
Ġcas ino
Ġpol vere
Ġs omma
F a
CA D
Ġen tusia
Ġatto rno
W A
Ġab itanti
X J
x el
na me
53 2
ĠS ti
97 95
nA ppro
so lo
ĠM AR
Ġra te
Ġindustri ali
ĠTu tte
98 33
ĠMed icina
Ġprec isa
ĠCa tegori
Ġter rÃł
nM on
rico la
!! !!
Ġdisabil itare
ren dimento
Ġin com
Ġri un
Ġprima vera
Ġinvia ti
tter istiche
Ġo ro
mp ia
Ġv ecchi
Ġli qu
es terno
ĠL ascia
U B
Ġutili zz
Ġqu arto
Ġ25 0
Ġpartecipa to
ĠRe c
Ġdo cente
Ġcirco lazione
Ġp onte
Ġessen ziale
ĠR ossi
Ġprogramma zione
v ico
97 93
Ġquarti ere
Ġdisattiva zione
ver y
Ġopport uno
ma i
ĠDani ele
car lo
Scri pt
Ġan te
Ġfinanzi ari
76 8
gi bile
Ġsa cri
ĠM ON
nI tali
24 0
U D
Ġan alo
Ġin ven
00 9
Ġten uta
nS cheda
nAcc etto
ĠT ran
nS cegli
ĠU lti
Ġinter venire
Ġenerge tico
Ġmini ma
esa me
Z J
the me
Ġved iamo
S TI
tri ca
Ġriporta te
Ġsos tan
ĠG abri
ĠA merica
Ġta glia
sa pp
ces i
bo t
36 1
s tante
ĠL ic
nTra s
Ġma ppa
H D
Ġl it
ti po
Ġen orme
Ġdimostra to
Ġpara metri
ĠCO VID
87 83
Ġesp erto
eri di
CF A
Ġraccom anda
ĠEn rico
Ġseleziona ti
ur ce
A genzia
co re
u do
Ġ[ ...]\
Ġcompet ente
46 9
nUlti me
98 11
ĠMon ta
Ġsta va
lus coni
nC orso
Ġrit ra
es ie
manu ele
Ġappassi onati
Ġesclusi va
l tÃł
Ġtele visi
Ġsca la
ĠRe gionale
Ġam mi
graf ie
nA bbiamo
Ġpercen tuale
ĠC AR
Ġmer ce
l os
om bo
Ġadolesc enti
nCon sul
S L
ĠPri mo
Ġmina ccia
tidi ano
p ic
Ġsola mente
Ġs ome
Ġprof essione
Ġinnova zione
ĠIn te
Ġn er
G M
27 0
p ost
tte zza
29 0
Ġpers ino
Ġman uale
Ġspor tive
Ġcom ando
97 55
ĠM E
Ġpart ite
Ġdo ccia
ĠB usiness
Ġmodi fic
Ġde bba
Ġcomporta menti
ĠSo tto
s ure
in novazione
Ġan data
Ġconten gono
Ġricor di
ĠS to
hat sapp
Ġpo tente
Ġm essi
in festa
mp ati
Ġpratica mente
20 00
zion ario
ĠFa bio
Ġprote cted
ĠGi ornata
Ġdestina zione
Ġaltre ttan
ci pe
ĠT our
Ġba ck
ĠMar ina
orig ine
Ġcri min
97 83
Ġnavi gare
in era
ĠAsso cia
Ġprovve dimento
ĠRom agna
A d
Ġv ite
Ġfam oso
mb lr
Ġdetermina ti
75 2
G Y
Ġcred iti
ell er
Ġfavo rire
Ġfis cali
Ġind ici
ï ¸
Ġse gni
Ġinizia tiva
Ġdes crizione
Ġp elli
Ġre ad
entina ia
c to
Ġimpor tanza
Ġregi sta
Ġri cche
ici li
ĠSal vatore
es tri
gna to
Ġv ul
ĠInterna tional
U na
Ġav viso
ĠCh a
Ġav ranno
Ġra ssegna
Ġeffici ente
graf ici
Ġav esse
Ġcon vi
T X
pen sione
os tare
Ġnatura lmente
T e
Ġsel va
uli co
Ġsos tanza
V J
94 98746
ĠC ana
fa cebook
Q J
ie do
75 8
Ġindica ta
hi le
e dizione
ĠT O
Ġcos tu
20 06
75 1
Ġmus ic
T o
W K
Ġdemocra zia
Ġd ar
arch it
do tte
CE B
Ð ¸
43 8
Ġpubblica re
ess ero
nM ostra
04 0
2 93
Ġracco glie
ĠCor po
nI talia
Ġattu ali
T B
Ġrecupera re
97 54
ĠF e
or um
Ġfarma co
Ġmag azz
la mo
Ġv endere
tt one
Ġcata logo
ĠCap itale
esco vo
Ġlib eri
ZZ O
3 06
Ġ3 9
Ġgra di
Ġciasc uno
Ġterr itori
al d
43 1
lo ro
Ġin er
nNo te
99 30
nC ookies
ra ele
p osto
CD D
Ġgro sso
fi uta
ĠPa la
W J
Ġa pri
Ġscienti fico
Ġconsidera ta
esi one
r li
S ta
Ġcap itali
imp orto
Ġfi gure
W F
Ġspetta coli
ĠN ell
g anti
Ġdec isamente
Ġdefin ito
s iamo
nN essun
inter vista
nS tu
ĠT ale
Ġvelo ci
ĠT UT
987 21
upa zione
Ġs b
Ġfacol tÃł
] .
ventu s
Ġ6 2
ĠComp le
Ġin na
ĠP ub
gegn eria
Ġr en
U X
ĠS op
orna le
37 2
36 9
Ġmostra to
ĠC entra
gi ano
V K
I TA
T EN
Ġsan itÃł
Ġimp ed
M ar
ĠS hare
Ġinvesti mento
Ġesa mi
Ġpi aneta
A v
Ġpi lo
Ġas senza
Ġpun te
Ġimp orta
96 76
ĠU l
ĠIn formazioni
Ġir ri
gi ana
ĠEn tra
nP ia
Ġass ume
in qu
97 84
Ġa va
Ġeffettu ata
ĠD O
ĠL ED
Ġri mozione
Ġna tali
Ġimpro ve
ĠOver view
99 985
Ġscrit tore
Q K
33 8
Ġla ure
ber g
97 65
ĠðŁ ĻĤ
Ġclass ica
Ġre almente
Ġlu ci
l ta
Ġg er
ĠAr ticolo
Ġra dica
Ġth rough
n ic
nR oma
tro duzione
at tuale
TICO LI
ĠF OR
ĠS cri
d iamo
Ġbi lan
Ġ1 000
un no
ou se
9999 3026
Ġsoddisfa zione
ET TO
ell ini
Ġbelli ssimo
P D
ĠCor riere
ï¸ ı
iterran eo
ĠDu rante
co in
48 2
me a
Ġpotre te
nQu i
Ġfra se
Ġi gi
graf iche
Ġspeci fic
Ġin si
el et
05 0
y er
ĠAng elo
nS eleziona
nScri vi
ste m
Ġsuccessi ve
ĠMon diale
ĠB A
D CA
Ġmol ta
Ġprop or
a mm
Ġdiffer enze
ĠN OS
Ġottimi zzare
ĠT urismo
er y
G R
SC RI
Ġtar di
ĠSiste ma
Ġfi ume
Ġpreci sione
ĠR ad
nS enza
Ġa sia
il li
Ġconi u
nL un
V M
la ss
Ġdisa bilitÃł
Ġre mo
Ġuffic iali
Ġde b
Ġtri bunale
Ġmoder no
Ġcomp osta
Ar te
Ġvole te
ĠImpre se
7 23
Ġacc anto
Ġeser cizi
ĠEurope o
76 1
Ne ws
ĠVit torio
T L
Ġcam ere
ĠM agazine
in ga
Ġinstal lazione
educa zione
Ġpiace vole
ca ri
Ġindividu are
8 01
985 34
Ġov unque
Ġascol tare
ĠC ronaca
0 28
Ġe gli
ĠCom o
Ġconsu mi
u cci
Ġester na
Ġgover na
Ġcomunica to
ĠPro getto
CI O
Ġ- --
Ġbas si
Ġg hia
Ġdomici lio
Ġeletto rale
m etro
m ino
Ġ1 998
Ġchiu de
Ġgest ito
OK IE
Ġdata base
ĠT esta
Ġprof ondo
ĠT ER
Ġteo ria
Ġri gi
Ġfal li
ccessi vo
75 9
Ġorgani zzare
Ġann uale
47 2
A DA
v ina
si vi
Z X
i i
p ie
TI VA
pro f
... .\
Q L
ĠDa y
Ġraff orza
pli cato
nN O
Ġcas ella
D e
va ra
97 46
7 30
Ġvir tuale
t iti
ĠP d
GI O
ra y
effica cia
Ġcomple tare
97 85
97 27
Ġdibatt ito
26 0
mon s
Ġag enti
Ġbic ic
Ġsonda ggi
nP assword
Ġipo tesi
97 66
il er
Ġd anza
Ġw idget
Ġcon ge
V i
ĠCas s
ĠDig ital
Ġlo gica
o ga
' );
na gosto
c ure
s m
Ġpa p
pre so
Ġse curity
Ġle gato
ĠCas tello
er li
Ġta gli
V B
war d
Ġavre i
A CB
P Y
74 1
Ġcreati vitÃł
x y
Ġta blet
Ġrima sto
Ġ orto
tra le
P H
zz ante
issi mi
Ġproce dimento
nMar co
ĠR ica
B i
r endere
C N
Ġprodu ttori
ĠAL L
ĠN EWS
Ġcer te
Ġrius cito
Ġte la
ĠPo li
ziona ta
ci le
th or
s ono
Ġse mina
Ġacc er
Ġcas sa
opp ortunitÃł
P al
Ġne gare
Ġs va
al zo
per to
nAd vertisement
Ġt ende
Ġespressa mente
Ġsin te
pto val
nP art
Ġpare te
Ġesa me
er re
Ġcin ese
categori zed
F R
aggi ornamento
s ten
ĠE co
Ġc entinaia
Ġcerti ficazione
Ġra gi
Ġocca sioni
hi esta
zi osa
sa zioni
Ġlavo razione
zi are
Ġp iede
Ġcompre si
Ġvisita to
g erÃł
Ġmo duli
Ġal ber
Ġa ra
Ġpron ta
il lant
t ona
os se
Ġdedica ti
ĠSe de
C h
omb ra
Ġci fra
ci one
Ġ4 2
Ġm y
ill er
Ġrisp osto
Ġm entale
Ġsquad re
gu i
clu sione
Ġtri ste
Ġbigli etti
anz itutto
Ġai uti
Ġmo le
Ġ1 999
nQu anto
Ġspeciali zzata
tar lo
Ġconn essi
97 34
le tto
Ñ ģ
Ġpro voca
Ġospe dali
Ġfabb rica
M L
0 16
Ġco er
ĠC LI
Ġarri vano
97 13
P i
V X
ĠH i
Ġan da
ZI E
ĠB y
37 8
Ġlavo rato
t trice
Ġpotre sti
A CA
Ġfra tello
c ronaca
Ġcostante mente
ĠA ra
nAr te
ĠD es
ru denza
ĠMan agement
Ġemb ed
Ġele gante
ĠCla udio
ro le
47 1
Ġav val
an ello
ĠH ar
nSo cial
86 62
Ġvend ite
il d
Ġmanifesta zioni
Ġrisparm iare
ĠQues tura
el ia
L LA
Ġcon quis
it es
Ġg on
an y
CC C
con di
l ink
p ini
Ġsa pore
I va
Ġpaes aggio
Ġnote vole
Ġsin tesi
Ġcentra li
Ġvo ti
Ġcontinu i
2 83
cam ere
in ese
iti vi
ĠBen ed
Ġconfl itto
Ġm it
ĠVin cenzo
an ale
ĠF ondo
labora zione
Q X
Ġban di
ĠG estione
are se
Ġ uova
Ġal te
ĠA ve
Ġc eri
c ts
j i
P G
rit e
ĠTer r
Ġa mo
Ġavre bbero
fi lo
ĠJo hn
Ġrit ardo
Ġsp ic
ĠJava Script
Ġri com
nAl le
i li
ĠA mbiente
Ġdo tato
ck et
p orta
Ġcoordina mento
n ice
C L
Ġvali da
ce a
n u
M Y
Ġcostitu isce
ĠSi ena
ziona ti
Ġs fi
v ing
Ġconfer enza
i gliamento
ĠC OS
Ġinda gini
Ġarti fic
Ġsomm inistra
la m
ven uti
Ġtenta tivo
Ġconsent ito
Ġlim itato
0 96
ĠF O
ĠAn no
Ġri du
ĠAng el
Ġfun zionale
05 96
ĠAri ston
D a
Ġg ene
Ġin to
Ġsare mo
Ġmo rale
8 12
fa ccia
Ġanti cipo
Ġchil ometri
Ġcir cu
Ġan cor
Ġw hile
Ġdimin u
Ġsu r
nO tti
ti litÃł
Ġsegre to
Ġelabora ti
ul li
Ġindica re
H L
uto re
Ġdiff uso
g elo
Ġprovin ciale
Ġg are
Ġdi agno
b et
ĠBr uno
Ġcir colare
48 1
Ġs ag
Ġassol uto
ĠU NA
ona menti
Ġtratta re
Ġtro vere
98 78
Ġspie gato
H J
C i
97 37
ĠS ac
Ġspor tivo
an ie
E DA
Ġveri fic
ĠSpe ciali
Ġrichied ono
ĠA lex
Ġc era
Ġre ato
uta ti
v re
Ġt Ã¨
ag ue
95 56
en ni
Ġper de
L gs
Ġ 46
ĠCa mpo
H K
Ġpare ti
W X
ĠPad re
Ġcre dere
Ġdeci sioni
ĠA D
nE sp
Ġapprofondi re
ĠDe mo
ĠC ard
Ġle zione
N D
Ġsopra vvi
ĠM ostra
Ġuni vo
Ġdistur bi
y ou
T TER
b ica
ĠTri este
id entitÃł
ĠF ar
g omenti
ria to
Ġti me
nL EG
Ġvi vono
Ġconn esso
Ġbro ws
Ġso lare
ĠQ uo
98 00
Ġdi o
ĠNe i
ĠE mi
Ġcomp ra
b s
b onus
97 56
97 06
Ġchi usi
er ci
0 87
ĠDa vide
ĠCal cio
Ġfin ito
Ġs org
gh iamo
ĠA mministra
Ġv asta
W I
Ġs ar
Ġcollega menti
Ġid ro
Ġristo ranti
Ġimpe dire
o de
p erson
an golo
Ġdiagno si
f y
76 9
Ġcre sci
ĠS uoi
ĠC HI
Ġal tamente
idatti ca
Ġorig ini
Ġro ma
E DE
Ġ 43
ĠDec reto
\\ '
Ġil leg
un ning
ber ta
FI CA
Ġri pri
Ġbelli ssima
Ġeventu ale
Ġin e
Ġp ista
âĢĭ âĢĭ
Ã §
â Ħ
ĠS viluppo
Ġprodu ce
si lio
ond itÃł
Ġte si
ona te
âĢĻ \
CC D
ri d
ĠDEL LE
n si
v ente
h er
Ġdocu menta
ĠG A
e co
Ġ- \
Ġallu minio
Ġmas ch
nAn alytics
Ġpositi vi
Ġmemori zza
Ġm useo
Ġintera giscono
s chi
Ġrapi do
nD I
is tru
Ġcon gi
Ġcompon ente
ĠGia ppone
73 2
bo le
bi re
ĠCa gliari
ĠMa urizio
Ġsu ono
na i
ud endo
Ġa ro
ĠFeder ico
us t
Ġrivol uzione
F Y
37 1
Ġdefiniti va
V S
nPre vious
Ġtess uti
ĠN essun
CD C
Ġconsi ste
u gna
Ġmonito rare
Ġspos tare
Ġmolte pli
Ġinstal lare
Ġtr eno
ĠLeon ardo
Ġcer vello
97 14
Ġh ard
Ġattra versa
Ġtend enza
6 30
le gge
Ġorgani zzata
99 997
Ġan tico
ĠX VI
ina ri
L LO
vie to
Ġsuccessi vi
ca zioni
ER CA
) ","
Ġcompre sa
o ff
Ġb ook
Ġresta re
Ġte d
Ġasso ciazione
Ġcom mentando
ĠP isa
Ġcom ment
45 0
Ġte matiche
no w
Ġmaschi le
ossi bilitÃł
ĠF al
ĠM c
d ita
ĠVa illant
or ra
Ġscar pe
ĠFa bri
G S
Ġinter o
47 8
Ġc ed
nA mbiente
Ġdov rai
ĠS ha
Ġameric ano
cor re
k m
nSe gna
ca tegory
nPro f
cen dio
Ġp alla
lessand ro
Ġtempera ture
t ono
Ġsvilupp ato
C hi
Ġchiara mente
Ġn ar
2 87
ccon sento
nContro lla
om en
Ġriserva tezza
Ġre cesso
Ġtrova te
ĠE di
Ġdimenti care
Ġauten tica
Ġacc or
Ġesser ci
Ġ| \
Ġcanz one
Ġpred isp
Ġeurope e
ichia razione
6 03
Ġbir ra
ĠE du
ĠS anti
m l
nD u
ĠGio vani
ĠDa vid
Ġriporta to
OR NA
Ġcon dom
85 40
Ġco gnome
ĠTe ch
ĠV endita
Ġpriva te
ĠL ettera
V ENTI
a ma
p os
Ġproble matiche
Ġte tte
ET TA
Ġcre ando
ĠPro gramma
Ġconten ere
om ba
zion ando
73 1
Ġs ente
Ġfor mula
Ġprop osto
Ġriconosci uto
cche tti
Ġcontatta rci
ĠRe te
Ġstabil ito
S ER
Ġprov ide
Ġappro pri
Ġra zzi
Ġcar cere
Ġtur no
ĠDire zione
v ar
Ġ 64
97 03
97 05
8 19
Ġstraordina rio
B Y
Ġd ormi
986 3
sen so
s el
T K
Ġesi stenti
Ġgior nale
Ġpro per
nA bb
Ġan tica
g y
v anza
T J
f ri
Ġbrows ing
ĠM ini
Ġveloce mente
.. .","
96 95
Ġpsico logia
ĠN as
ĠIn f
Ġfra gi
92 98
Ġdiffici li
Ġted esco
Ġcollabora tori
ĠB I
la na
un ci
Ġautori zzazione
U Y
ĠB ut
nA mazon
Ġta sto
Ġbasa to
Ġrisp etta
d iti
tte mpo
Ġinvesti re
N Y
Ġter rori
Le ggi
ter anno
Â ·
li m
nGu arda
LI TA
Ġmor b
97 77
Ġese cuzione
nC OM
ag enzia
Ġplu g
zz anti
48 9
Ġsp ero
Ġtra g
i f
ĠU craina
Ġbar ra
Ġinc enti
ran to
05 15
tra verso
Ġgiappon ese
ĠCos tituzione
Ġconsider arsi
Ġindivid uale
S ono
Ġman cato
ĠTr ento
ĠU SB
ĠComun ale
ĠR EG
ĠCu cina
Ġfra telli
Ġ36 0
S u
Ġcom fort
Z Q
Ġpart iti
Ġta ppa
TA LE
Ġlo g
Ġcalda ie
Ġlabora tori
}} \
ron ta
Ġtrasp orti
Ġa gire
Ġop tion
re place
ĠA ssi
nH a
ĠP D
Ġla go
Ġpromo zioni
Ġtu bo
f esa
um an
Ġch it
an alytics
ĠF esta
Ġinter vista
Ġre per
tiche tta
nCa sa
tel y
56 8
998 95
Ġs eri
ĠE ster
al th
Ġriti ro
Ġcas s
Ġtro verai
Ġmi granti
ĠB BC
Ġ ?\
ĠD ai
nN ell
ome o
Ã ¢
ttan do
ica mente
Ġcon vegno
nC lose
Ġarti stico
pp er
cook ies
97 88
Ġd ose
mon do
ĠAl b
ina il
Ġcan cello
Ġindispensa bile
Ġsc ritti
Ġgenti le
os pe
ĠLa ura
Ġdovre sti
Ġm ito
Ġfer ma
ĠFor se
56 1
Ġqu aran
FF I
3 16
ne i
nQu indi
F S
Ġtraspar ente
ĠO re
Ġar ro
Ġse coli
Ġsan itari
94 23
tun it
Ġsegna le
p g
Ġre gistro
07 0
Ġre da
4 35
Ġpar ro
H X
nSe de
re zzo
Ġobbliga toria
Ġb orsa
Ġpredefin ito
Ġraccol to
b ol
op ini
ĠPro du
P M
94 14
Ġro ssa
âĢ ĺ
Ġp omo
Ġattre zzature
inf anzia
ins erimento
ĠCla ss
Ġsegna lazione
Ġpu ra
a h
Ġfra ttempo
Ġs cia
2 95
et ture
Ġrie mp
Ġfin anza
Ġalb eri
Ġfi or
ĠMel oni
Ġ1 10
at mosfera
Ġacc ura
nFin alitÃł
97 36
Ġinforma tivo
W Q
za re
k es
E l
lie vi
ĠR oss
âĨ Ĳ
Ġ6 00
ĠDo ve
nNo ti
and ro
ĠT EC
ĠMa ra
Ġpoten ziale
ĠRep ly
ĠA da
mi gra
nVis ita
V L
ter ale
us er
ĠEd itore
Ġvin ce
lu ca
V Q
ĠPa tri
ĠMas sa
mi lano
ĠRisp ondi
ĠMar ino
nD ic
ĠEli sa
Ġdi gn
Ġacc um
Ġ ran
Ġpassa ti
ĠPu Ã²
Ġintegra zione
ĠN uovo
ĠF arma
lan dia
nCon tinu
Ġfar ti
Ġobbli go
Ġco lazione
ĠPsico logia
Ġul tra
cca ta
zion alitÃł
Ġcon servare
Ġbo x
8 29
tag ne
pa re
ces a
Ġpar liamo
truttura zione
Ġsche de
N K
auto ritÃł
D DA
Ġnorma tive
2 20
ri ano
Ġin du
.\ "
Ġmusica li
via re
ĠP is
Ġfin ali
tt on
Ġprospetti va
m esse
Ġfini re
Ġmensi le
Ġpro cura
ĠSal erno
ĠDon ne
op le
Ġspor tiva
ĠP io
Ġterr itoriale
66 1
Ġforte mente
po sizioni
Ġprodu ttore
nE s
R o
Ġpis cina
ĠLu i
ĠMan ager
ĠM AN
qu ista
Ġsingo la
f ero
Ġca ttura
7 00
ĠC ia
ĠCri sti
y ber
ga mento
Ġser ia
nR u
cer ti
cu menti
Ġp one
Ġvolonta ri
Ġpos se
G K
Ġbra ccia
Ġmeta lli
% .
ĠD alla
Ġciasc una
P iace
m estre
ĠPar te
Ð ¾
Ġgi us
ĠDom enica
an sione
Ġporta no
nE le
Ġso glia
ven tura
ĠMicro soft
99 986
Ġu mi
Ġrego larmente
l oni
W D
Ġma chine
Ġper che
Ġentra mbe
te st
h ome
Ġes cur
ĠTele gram
3 23
Ġtra duzione
ann elli
ĠI V
Ġincontra re
ES TA
Ġuman e
uid e
ing ere
so cial
B R
Ġopp orsi
Ġfrequ enti
al tezza
Ġpromo zionali
Ġrit orna
ĠMa x
ĠL inkedIn
Ġso ccorso
W L
Ġvitti ma
ĠC ic
97 45
GLI O
Ġaggiun ta
Ġristruttura zione
Ġatto ri
ĠA ttualitÃł
ver tis
ĠGa rante
ĠCro ce
Ġatta cchi
Ġs tella
ue la
Ġcomple anno
v ese
in elli
sta ti
Ġsegna libri
via to
Ġp on
Ġsud di
Ġpen sione
Ġfol low
96 65
ĠD isa
Ġarriva ta
CF D
ĠOr dina
Ġrifi utare
Ġlun ghi
F L
ĠMe dio
nA li
Ġmon u
val lo
ĠA G
ĠR app
Ġen sure
94 55
93 66
W O
ĠSer gio
ĠC ine
P ER
Ġgiornali sti
ĠM ani
ĠP DF
Ġconsu matore
Ġga mbe
f al
ingu a
ĠP oss
ĠO N
ĠS tore
Ġfaci li
Ġese mpi
! !\
de a
ggia te
ior mente
Ġnavi gate
V AC
Ġdi segna
g ur
Ġtra dizioni
Ġne uro
sser va
w i
Ġ ]\
Ġsta tunit
Ġe va
Ġlegg ero
CA A
er ali
le ase
Ġav vol
Ġabitu dini
Ġstrada le
nF ollow
unta mento
Ã ¶
Ġelettron ico
Ġc ercato
nPotre bbe
99 996
P K
Ġdidatti ca
n m
it iamo
Ġdimenti cato
ĠI stituto
Ġconf ini
II I
on dere
6 13
glia ti
Ġgenera zioni
3 05
ĠT ar
Ġdove va
ĠSe zione
Ġrivol to
ĠTe mpo
âĢĶâĢĶ âĢĶâĢĶ
H R
Ġinf orm
Ġcom posizione
Ġconfe zione
Ġpio ggia
Ġapp ai
word press
C ome
osta to
Ġinclu sa
ĠSi mone
trib uti
Ġli cen
Ġgenera re
ĠA tti
mo d
Ġforn itore
nDi ritto
mi grazione
indi vid
Ġprov ved
ĠGia como
o sizione
Ġbre vi
Ġanti chi
ĠSer ra
Ġsf ide
cia ta
ĠP riva
Ġricon os
Ġspecial mente
G J
Ġcine mato
97 35
isti ci
7 45
ĠMess ina
sse mblea
ĠM ulti
Ġ} );
nG uida
Ġm q
Ġm uro
Ġfre sco
Ġpo le
ĠComun itÃł
Z L
da go
Ġcapito lo
ĠT A
Ġle gata
Ġvol er
Ġdec id
Ġsostitu ire
Ġd uro
uri a
e voluzione
Ġfin estre
Ġeffica ci
Ġmisura re
AN TI
âĦ ¢
Ġisc ritto
ĠRa ffa
Or dine
lib ro
ĠA rea
ĠPre zzi
Ġbi blioteca
Ġw e
Ġali mentazione
nC er
ver anno
Ġdisp lay
ĠGu erra
a k
99 39
Ġaltre sÃ¬
0 93
Ġcir con
Ġinstalla ti
Ġ4 1
ĠFerra ra
Ġcu re
Ġpro lun
Ġdiverti mento
nP reno
nS Ã¬
U RA
p on
ven ta
p ito
Ġter ri
Ġg el
Ġacc usa
ho tel
Ġben issimo
Ġinsegn anti
al do
ora rio
F BA
h op
Ġfid anza
nV iew
ĠS trumenti
F U
CA E
57 1
Ġpanora ma
ĠAu gu
ĠB atti
Ġs ite
Ġar cheo
Ġscon ti
Ġin se
Ġrend endo
aper to
Ġbanca rio
Ġvole vo
Ġsor presa
nL inkedIn
au mento
ĠMen tre
Ġb us
ĠTea m
Ġi Phone
99 973
Ġgu ari
r endo
Ġsos pensione
Ġcon dotta
Ġfinanzia menti
97 26
Ġab solu
Ġson no
Ġc ronaca
er Ã²
Ġresi stente
CE F
OR T
u ty
w atch
nP ronto
0 17
tu m
ol ino
en tato
Ġc essione
Ġfam osa
âĢĿ ),
EN E
l or
mon ta
Ġdiver tente
ĠR on
zza tore
Ġpa cchetto
Ġli ke
et re
ĠCom m
uli zia
95 95
d iche
Ġsal uto
W R
Ġma tch
f ranco
CE C
N S
ri cato
Ġrice ve
Ġsf u
Ġautori zzato
n ica
Ġ- -
Ġpresen tano
Ġris contra
Ġannun cio
Ġsu ssi
u de
b r
nMi lano
F K
Ġfer mo
Ġprec iso
vend ita
Ġho t
ĠP OS
Ġresid enti
is ca
Ġx xx
Ġno ttu
Ġfi la
s ura
Ġpes ante
Ġcampi one
Ġappai ono
Ġimp ostare
Ġpri vile
pro v
ĠQU I
ĠTe mp
97 23
Ġosp ita
EA C
Ġnoti fiche
Ġm ettendo
o cchio
Ġi per
F J
Ġsa cco
s ma
Ġf esti
Ġproper ly
di bili
Ġca duta
sta ta
ĠConta tti
tten imento
T Q
ĠArchi vio
Ġmer ci
Ġfor mu
nC u
vertis ing
Ġe missioni
ĠVer de
Ġpato logie
om et
Ġimp le
nMus ica
Ġmis teri
ĠPa ola
CB A
Ġlegisla tivo
Ġatta cco
D Y
Ġto ss
Ġta sti
Ġrispetti vi
Ġapplica re
st ron
97 74
do wn
Ġpubblica ta
Ġuni versitÃł
e ti
Ġconsiglia mo
Ġrius cita
Ġlim itazione
ĠT E
Ġusa te
Ġdisc re
ĠDo tt
ĠC ity
S er
Ġsos tiene
ch estra
ĠPre mi
Ġges tore
20 05
ĠF ia
Ġnecessaria mente
Ġmar ca
ĠW ar
om as
Ġinc idente
Ġlingu e
nSc uola
Ġfi sio
97 44
97 25
Ġindi re
osten i
dig e
Ġeffettu ate
97 04
ĠRic ette
37 9
Ġ :\
ĠLi ve
97 67
Ġre ce
Ġbigli etto
alo re
Ġprior itÃł
Ġin gi
Ġ he
u dia
ĠSu pp
Ġpre visioni
Ġri go
Ġassocia ti
Ġabsolu tely
Ġlegger mente
Ġrisp ond
8 10
T Z
ĠA mministrazione
mber to
ĠT I
ro cco
ĠN UO
gro up
Ġmag ia
s eri
rit ann
Ġfinanzi ario
Ġfa te
Ġdipl oma
GLI A
Ġusufru ire
96 55
ĠBer n
nS ul
Ġderi va
ĠCre ative
v elli
Ġfo glie
ĠUn ito
i mm
S a
Ġfru tti
ci mento
Ġga mba
Ġdichia razioni
Ġl usso
ĠR A
Ġinter ne
77 1
Ġface va
ĠPer tanto
Ġmeta llo
in ar
Ġprof onditÃł
Ġdo tto
ES S
ia lmente
otti ma
Ġdin torni
Ġpas to
ĠN ero
p ino
Ġsegre ti
ĠSinda co
tra zione
imp atto
Ġav rai
nF eed
ĠF ood
nF rancesco
z u
Ġse duta
Ġpass ando
97 24
EN I
nU no
96 86
nA ttivitÃł
Ġcomun ic
ĠRi mini
97 21
Ġten sione
nG estione
X K
Ġcategori zed
Ġlun ghezza
Ġpassa ggi
c rati
nCa p
Ġcon ser
en na
ĠP esca
nN umero
P J
Ġdep os
ĠL U
N C
Ġcellu le
ĠFo cus
u tico
Ġresid enza
Ġtera pe
ĠMa uro
Ġno ve
Ġand rÃł
Ġma te
ca bile
Ġprefer ito
98 28
Ġo tt
ĠA zienda
in ca
Ġfel icitÃł
Ġamministra tivo
Ġpre ghiera
Ġcontribu ire
ĠO cc
M C
zion ista
0 20
ĠBi anco
Ġulter iormente
Ġsti pen
nE x
f es
v ici
Ġforn ite
Ġreli gione
Ġrinuncia re
teria li
ustra lia
rati s
8 02
nO fferte
ĠJ un
Ġind esid
Ġp uo
ĠPro vin
Ġappar tamento
et tori
Ġarti stica
Ġdo wnload
Ġbe van
Ġequi librio
SI ONI
ĠAcqu a
ĠP olitiche
Ġrealizza te
Ġar ma
H S
nFun zionali
ss icura
Ġpresen tata
ĠLeg ale
Ġacc ordi
nA g
Ġta sse
43 9
org h
Ġtu tt
ĠCom mons
Ġspeciali zzato
Ġdisp one
ac t
sc ar
in go
Ġre vocare
S al
g al
H Q
Ġstudia re
Ġpreocc up
gra do
Ġfanta sia
Ġele vato
Ġmoltepli ci
Ġfin isce
G L
Ġ 95
Ġcomp agni
etti vo
Ġsta tu
GGI O
ĠF anta
ta ge
Ġop ting
Ġs essioni
Ġperio dica
Ġpara d
Ġca vi
Ġnasc osto
C OM
Ġespre ssione
ĠA c
ĠS EO
ĠFo re
Ġcop yright
Ġsp ontan
Ġstabili re
Ġo b
Ġprec is
nC entro
ĠC erti
Ġp Ã²
ĠP ale
99 09
3 14
ĠN ess
tic le
be te
ĠDig itale
ĠBi blioteca
Ġarri cch
Ġdeter min
EG UI
ĠB it
Ġric ostru
98721 457
D L
nLo gin
gio chi
ur l
pe c
3 07
Ġperd ite
Ġquad ri
pl or
TI ON
ĠS el
Ġcanz oni
en ces
era te
tro po
du ci
Ġaspetta re
ĠMon ti
Ġredd iti
Ġsupp le
ie zione
nCONTA TTI
ĠR OMA
f li
Ġdetermina re
ch ina
Ġaper ti
c ana
97 73
Ġper ciÃ²
nP resen
I V
Ġblo ccare
Ġintegra to
3 22
Ġaper te
ul ture
Ġin ed
Ġospe dale
Ġfa mosi
4 74
sh i
Ġcomo da
vic es
nCara tteristiche
si ve
Ġsimbo li
Ġind is
tto li
ĠV ER
P C
sion ale
ĠS ERVI
Ġgra ssi
pro duzione
up load
g omb
77 2
ospe dale
na s
ro so
ĠI M
ma ga
fica te
Ġco i
ĠPo tre
3 11
Ġlasci ando
EN A
Ġins omma
L u
ĠV io
Ġmil f
3 15
Ġscon osci
n le
ĠG ol
98534 88
ĠVia ggi
Ġvas ca
Ġp ort
Ġ zo
W M
Ġra dici
0 27
Ġrela tivamente
fo si
6 84
Ġdiven tano
Ġacc el
y e
Ġman ager
77 9
ĠC osto
ĠA ttivitÃł
t le
zion isti
ur go
cin io
Ġarriva ti
Ġquo te
7 22
Ġmed ic
mi l
tur n
Ġpasse gg
TORI A
tit uto
Ġsce glie
97 33
zz ini
Ġfa ranno
Ġries cono
DE A
Ġsingo le
Ġg usti
ffic iale
nP sico
Ġdi so
975 04
bo ard
Ġm ul
f ino
Ġri gen
ĠS hi
ĠLi ber
qui la
Ġaiutar ti
ĠLi guria
Ã ±
is t
998 15
li se
ĠRic cardo
opini one
W E
Ġven iva
Ġdo vere
Ġottima le
Ġlavora tivi
W B
Ġbiso gni
ic ino
Ġcorri ere
nS P
0 12
ĠS AN
Ġannun ciato
j e
Ġcomba ttere
Ġav vis
Ġassicura re
Ġriten uto
Ġmatti no
F X
Ġdi cendo
tern itÃł
Ġsti pu
Ġk it
t v
Ġscor sa
nC orre
Ġin utile
nAnd rea
Ġpo ver
Ġch iedo
Ġre ati
Ġsi gare
k u
es tico
Ġauton omia
nS olo
ĠBer lusconi
Ġlun ghe
Ġinclu so
Ġ 56
nMessa ggi
Ġcoinvol ti
S R
bb y
Ġdipend ente
polit ana
orre i
ĠBBC ode
0 19
ĠE dizioni
97 16
Ġaspetta tive
land ese
ĠRa cco
F M
Ġperson almente
97 57
av viso
ĠSo li
Ġori zz
ĠMad onna
Ġagen zie
CC O
rolo gi
47 9
Ġimmobili are
cchia li
Ġrivol gersi
U J
Ġapp os
ĠP elle
ĠS era
Ġtip ici
4 83
w in
Ġperi fer
ati cano
nAu tori
Ġmon te
Ġpre te
P X
p ers
Ġro tta
ĠP lan
53 9
nRi parazione
Ġand ando
Ġecce zione
Ġri mar
ĠLA VO
ĠV ed
Ġsfor zo
ĠFil osofia
Ġque gli
P rivacy
to la
ĠFili ppo
Ġsci enze
gh il
ea mente
Ġassum ere
ven na
97 22
Ġvic ini
ĠO tti
Ġc ere
ĠS enato
sp rudenza
Ġcandi dati
plor er
ge la
V N
Ġfotograf ie
um anitÃł
96 94
Ġpiena mente
Ġv iti
Ġtelef on
ĠS RL
Ġcostru ito
Ġ1 997
Ġdecen ni
g one
ĠFri uli
s mi
97 15
ĠCh ar
Ġde bole
Ġanima le
Ġp neu
ĠGre cia
ne a
6 55
ĠH D
Ġtestimoni anza
Ġconces sione
4 75
bora torio
Ġsan zioni
Ġmoder ni
Ġfis iche
Ġser io
ĠL ink
ĠA PP
ĠK o
Ġsugg erimenti
infesta zione
ĠA frica
Ġdona zione
Ġco dici
ĠPer ugia
Ġu si
Ã º
66 9
len co
Ġsensi bilitÃł
ĠB ook
Ġs eno
CF E
ĠStori co
Ġprote tti
Ġfru izione
ie ti
nT ea
end er
d elle
Ġfa cebook
ul to
I o
96 87
Z R
ĠO l
99 19
tti ni
Ġa matori
endo si
Ġc anto
S EN
Ġv ide
Ġringra zio
ĠV an
93 48
Ġentra ta
98 18
nA CCE
CF B
Ġfrequ enta
nM appa
Ġrive la
r ita
8540 9606
d it
Ġinclu dono
Ġistitu zionali
ĠX X
Ġriti ene
Ġre ser
Ġassolu ta
ĠR enzi
DD B
Ġp p
VAC Y
Ġautori zzati
ĠNo leggio
Ġtend enze
end ono
Ġtra ding
ĠC OL
CB D
Ġconsul ente
Ġco ppie
Ġpaes aggi
nBuon giorno
Z M
4 21
l s
Ġfar ci
ccia io
996 75
CA F
ãĢ Ĳ
Ġinfra strutture
ĠR eser
3 21
Ġdi r
G X
Ġcomo do
id er
Ġlavora no
ĠCas sazione
p is
nC orsi
Ġor go
Ġspie gare
Ġdiven tata
Ġin no
Ġconcer ti
95 67
A cqu
Ġprovve dimenti
alizza to
ĠV IA
ve glianza
c ing
nTele gram
ĠRec ensioni
H TML
I X
Ġeduca zione
ĠF are
ĠL ago
Z B
Ġes ce
s era
ĠðŁĻĤ \
it ro
ĠSpa zio
in verno
nD ia
nFun ctional
nCon f
Ġman cata
Ġnorma li
Ġricerca tori
ãĢ ĳ
ĠAcc essori
Ġdesti no
le d
nR ice
9953 931
Ġrifi uto
H N
nMod alitÃł
Ġe la
p art
Ġmi x
mmo bili
nU ni
T i
Ġb urro
K O
nAl cuni
ĠIs raele
Ġma estro
ĠL as
56 2
Ġprote tto
CD F
Ġapp o
Ġbra no
Ġigno rati
ĠB or
CB E
Ġfe ce
Ġri ghts
7 08
f an
col le
Ġderi vanti
ptoval ute
is se
Ġconsiglia to
Ġopera tiva
35 0
elle s
U C
Ġte tto
nP RE
ĠNo te
Ġd esi
ĠM AG
iki pedia
Ġlib reria
Ġpro vo
06 0
nQ uo
Ġ1 80
Ġcolle gati
Ġso gg
Ġpa la
nLa voro
7 26
nC olle
nF ra
4 34
nF ormazione
ĠDi ritti
, \"
. âĢĿ
os chi
Ġlegitti mi
ĠAl to
906 0596
20 04
Ġoffer to
7 05
Ġmagazz ino
ĠS Ã¬
Ġmar cia
astron om
Ġsi g
Ġs ana
Ġcon tare
Ġcor onavirus
Ġba tte
ĠP ers
Ġlega me
Ġmone ta
Ġlo ok
Ġvia ggiare
Ġsorri so
Ġi stituti
nSc ritto
Ġgi ra
es ito
Ġpor re
nB ar
TA N
Ġil le
3 26
ghil terra
U fficio
H M
ia to
oo p
Ġtrasm ettere
ti l
g anizzazione
ĠS arÃł
Ġdov esse
n non
93 30
dis atti
ĠQu ali
A DE
Ġacc red
Ġann ul
EA E
Ġedi li
Ġsta bile
Ġotti ene
nP agina
ĠD ella
ĠF orma
Ġlegg era
Ġesp on
Ġvisita te
Ġan golo
Ġapprofondi menti
Ġmeccan ismo
nAn n
DA D
ĠS IAMO
Ġfra si
an ese
ĠT v
c ida
nL E
Ġconcer n
Ġinforma tive
Ġse g
sta no
Ġsess uali
Ġspor tivi
ĠGi unta
Ġprosegu ire
Ġvis ti
Ġp annello
ĠMa ps
Ġt it
Ġaffas cin
Ġre f
Ġcomb inazione
Ġf eder
ĠPo wered
ĠEn glish
Ġ| --
f ania
Ġspeciali zzati
Ġsfru ttare
ten sione
Ġris arci
( /
Ġri dotto
lu enza
genti na
( )
Ġbic chi
ĠH y
nA cconsento
a ter
44 0
U DI
Ġimp lica
H B
ro w
3 45
A g
pa ri
Ġcolp ito
nA L
nima li
nCal cio
Ġopera zione
scri zioni
Ġtra ck
Ġdiffer enzia
Ġosp ite
Ġi vi
ĠC osti
Ġa mma
ĠLe ague
Ġpersonalizza ta
nF orma
Ġamministra zioni
Ġcostitu ito
upload s
Ġne ppure
Ġtito lari
ĠSo cio
FA C
Ġcompr ensi
ĠA ma
ĠPay Pal
G Q
Ġca tena
cus sioni
n t
nP aga
Ġop zione
zi alitÃł
ĠRi ghts
Ġcer tezza
re sc
g allo
anie la
cch ini
Ġconclu so
Ġprof essore
Ġpo ch
Ġcorr ere
ĠG EN
Ġcostitu ita
Ġfron ti
Ġgre en
P RO
il lu
98 98
99 10
ĠMo bile
Ġmini mi
Ġsor ella
Ġp lan
Ġfis so
ĠCen ter
Ġvacc ino
Ġvend uti
Ġaff ari
Ġlavora tore
b en
Ġre azione
n sa
Ġrila scio
83 33
c ani
Ġcom in
re te
Ġna pole
o th
Ġar ra
ĠPre ventivo
gra fi
ĠCara binieri
F Q
Ġta tu
Ġcer cano
Ġparche ggio
Ġinter azione
47 0
Ġg us
Ġman agement
gra ph
ĠA ut
ĠO ne
3 25
C OR
38 2
sa to
ĠT en
Ġprima ria
96 26
h ai
men sioni
ĠCa pp
ĠGa zzetta
Ġese cuti
Ġver b
ĠJ e
ĠCli cca
Ġguid e
chit ettura
Ġalterna tive
ggi ano
Ġpersonalizza to
Ġunivo co
ĠR osso
h anno
Ġconf ine
4 86
Ġcompr ensione
Ġintelli gente
ĠTecn ico
Ġsap uto
ĠSo ci
4 84
ĠFer roli
4 33
Ġaffer mato
Ġf uso
cra zia
ĠM unici
d l
Ġga tto
RI CA
Ġal ter
Ġfatto re
Ġcol pe
Ġf ood
ma p
ing s
96 84
96 66
CA B
Ġturi sti
Ġcom peti
Ġreser ved
96 44
ĠPart ito
Ġo pposizione
Ġf lusso
4 45
Ġpap Ãł
ĠCa ro
Ġal tezza
Ġpi zza
bil ity
p arte
nNo i
96 46
n ca
T D
1 98
j u
ing er
Ġrice zione
ĠSan itÃł
C al
Ġsta bilitÃł
lob al
Ġinforma tica
Ġaff atto
Ġembed ded
in na
te che
Z D
ra mento
ĠG old
nC rea
tur ba
ĠÂ °
esti na
ĠGi anni
Ġte en
4 94
93 13
Ġ !\
73 8
go li
d de
> <
Ġon da
impor tante
nM er
ĠFerra ri
Ġbat tu
etti va
4 98
p tion
enso re
Ġre visione
Ġelettro domestici
to m
Ġdec ine
Ġconfi gurazione
Ġcon quista
astron omia
98 007
cor t
g anza
Ġrivol ta
Ġcapa ci
7 15
bi do
Ġdisabil itati
Ġan g
Ġcol pi
per tura
a tar
ta menti
nA bout
Ġam iche
vis e
Ġmotiva zione
97 43
ĠJu ventus
ĠDom enico
39 13
Ġgu ar
gi d
ĠZ u
Ġdiff usi
it ante
a tt
T TE
Ġvole va
D DE
Ġfu ga
or ino
Ġadegu a
zza tura
Ġcin qu
96 03
end um
Ġpa lazzo
ĠPar k
telli genza
ur s
Ġuni versale
Ġga tti
ĠPos ts
nDis claimer
97 17
Ġweek end
ĠC ali
Ġdov uta
n pro
iso gna
Ġintegra re
nLEG GI
ĠEl ena
sid enza
ĠC io
b etta
or ge
99 987
nS iste
ĠS ale
nItali ano
corr endo
v orno
7 11
ĠA C
â ľ
ĠG al
ute la
ĠGio chi
ĠM IL
Ġv el
tori al
BI LE
tre tto
Ġgo dere
Ġa ran
ĠC H
nTra sp
qu ale
nC an
Ġsoddisfa tto
Ġlar ga
ĠS ho
Ġb ea
us se
ir Ãł
Ġgi udica
lab ili
Ġ 66
ĠDA TI
Ġsol itamente
Ġsba gliato
p ani
6 23
nR E
nC aricamento
MEN TE
Ġscomp arsa
Ġpreced enza
nAn no
ĠT im
Ġa nale
vi lla
Ġmag ne
in sieme
ĠB O
p ul
Ġclicca re
Ġora le
7 06
Ġrappresen tato
5 44
Ġt rend
Ġabu si
E CC
ĠZ e
R C
as hion
nCal endario
Ġpra tico
indo w
t Ã¹
cu lar
Ġdesc ritte
r ende
ons or
Ġtratta to
Ġbar ca
Ġinc ro
con ta
Ġcondi viso
nPo wered
it ness
Ġpor tando
nM is
Ġp ed
Ġrit mo
97 63
mo ria
Ġs ter
Ġpu li
pr endere
trimon iale
Ġabb ond
p df
gor it
Ġcar b
IS O
M e
6 34
99 998
ĠC oopera
ĠItali ani
sco po
ino cchio
Ġcomun ali
0 98
Ġclin ica
3 04
ĠE p
ĠQu arti
84 35
97 07
ĠH ol
3 28
95 18
Ġsenti menti
sserva torio
Ġcompi lare
Ġraff red
Ġinten so
Ġliqui do
imp iego
ĠAr re
i mb
ĠMus ic
isco tti
T ag
Ġcancella ti
ĠCon su
Ġrivol u
ura re
et s
Ġinf e
ĠC ur
Ġ q
Ġdi agn
ĠG IO
Ġspirit uale
L LI
Ġepiso di
6 75
R S
Ġinter viste
Ġine vita
Ġcol onna
late d
Ġglob ali
alter vista
bb o
ic ona
iti ve
Ġpron uncia
ĠEle tt
DA E
Ġrappresen tanti
nSa bato
ĠFin anza
nN EWS
qu io
Ġco re
nSo tto
ĠMed iterraneo
Ġvalori zzazione
Ġ4 9
da f
Ġtranqu illa
7 16
nT itolo
pi ano
Ġesegu ito
U craina
Ġrich iamo
r ella
ĠPER S
CA C
J K
e va
ra l
995 251
> >
d get
Ġsuo lo
Ġv ere
gg ono
Ġh ome
Ġclass ici
Ġcompet enti
98 08
Ġintegra le
4 46
4 76
o ggetto
Ġauto mobili
Ġdi scri
Ġpr eli
Ġver sioni
it ed
Ġp etro
Ġr usso
ĠMaggio re
09 0
4 36
gia to
un ni
Ġceri monia
chi esta
Ġcon versa
4 05
Ġti ra
Ġscri vendo
ĠC C
ccia re
Ġrilascia to
nPro vider
el ie
Z S
Ġdi ciamo
en tare
Ġaffida bile
E ED
anti ca
Ġaccessi bile
Ġmen Ã¹
' ).
ci lia
A DB
nF onte
Ġfel ici
A DD
Ġconsul tazione
Ġsa rai
ita s
R om
Ġl enta
In formativa
Ġappar tamenti
Ġun der
u tion
77 8
gu arda
Ġle tture
Ġauton oma
amp ia
ele zione
ssegna to
Ġfarma cia
Ġaltrettan to
ĠL ou
Ġqu ante
ĠCo ppa
cer do
Ġpor n
Ġsettiman ale
Ġca b
u almente
acco unt
( \"
Ð µ
Ġrifle ttere
4 85
Ġv esti
ali mentazione
Ġcomincia re
Ġ tin
c ite
Ġdormi re
ri ve
Ġnorm almente
ĠE manuele
LI ZZA
A mministrazione
ĠCas al
6 18
an ch
Ġrappresen tare
Ġpu ro
Ġrec entemente
6 35
ĠNo ta
Ġavven uto
Ġprosegu e
ĠAn ni
ĠGiu lio
Ġconclu de
gen i
Ġproto collo
ĠA na
ossi p
Ġcompli menti
est s
v ana
du e
Ġter remo
ar ing
Ġrile vanti
ĠMo vimento
ĠSp or
Ġameric ana
t Ã²
era tore
5 35
Ġro ck
etta coli
76 76
97 00
fo re
Ġcomp agno
ra cusa
F P
Ġconfer mato
] ,
8783 755
Ġmonta ggio
I B
n com
ĠLe cce
Ġfa vor
ĠLa urea
! ","
Ġmo rire
Ġfotograf ico
Ġsor prend
nMan utenzione
V er
Ġre voca
z oni
Ġau tun
ĠGu ardia
Ġes seri
rica ti
j pg
Ġde gu
97 53
n ero
6 14
ĠB elle
iss Ãł
Ġimprend itori
Ġtrovere te
Ġconsidera ti
ĠG alleria
Ġener gie
ĠCan cella
Ġvo tare
Ġos si
Ġi sole
Ġcar d
Ġfir mato
Ġusc ito
fes tyle
Ġvie tata
N N
f arma
nC osto
Ġindica zione
5 75
Ġinforma to
ĠO P
Ġdiff usa
ser vizi
Ġs ano
ma ggio
MB RE
Ġpersonalizza te
Ġsf ondo
Ġri viste
ĠSc ar
Ġvi genti
Ġproba bilitÃł
Ġche ck
ard in
Ġcontinu itÃł
Ġcan na
4 20
vend itori
ĠP om
ggi orna
ĠA gen
ĠITA LIA
Ġca vo
Ġlan cio
as y
Ġtelef onico
gra zie
Ġlim itata
nSer ie
g r
54 1
Ġbicic letta
Ġimmedia to
ccio li
tit le
Ġscen ario
nE ff
ĠC loud
94 44
Ġsegre tario
ur ra
Ġincre dibile
9901 0515
ĠSa bato
V o
ĠI va
Â ¨
Ġsugg esti
Ġto cca
FF ER
uri ositÃł
Ġf ro
ĠAl ta
Ġfin chÃ©
ĠS ab
nMessa ggio
mina ta
Ġcostitu zionale
Ġpa vimento
ĠP lus
m or
77 0
55 1
Ġopini one
Ġavanza te
we en
el ess
nDu rante
Ġeffici enza
cade my
Ġpositi va
CH A
7 18
Ġtor ta
nP arte
Ġos servare
ĠCes are
905 0
i sizione
Ġvic ina
h l
Ġved ono
Ġvio la
Ġsvol gono
G ra
Ġstre tto
ĠRo cca
Ġpar lano
Ġcer chi
it te
4 22
ĠT ali
nRi f
ra dio
ĠLI B
Ġda y
Ġpre supp
Ġre cita
4 16
7 95
ĠPart ita
55 8
85 36
Ġpregi udi
ES E
ĠSal vini
ĠCor onavirus
6 11
Ġstati stica
k en
ĠA bb
Ġequi val
Ġcan ta
ccon ti
f ie
4 11
48 0
s tan
AN D
Ġdestina ti
Ġfore sta
Ġpotre mmo
Ġr unning
ĠS uo
Ġall er
Ġistitu zionale
ĠPas qua
57 2
zia to
Ġcaval lo
Ġimp orto
Ã ¤
Ġfre sca
p ale
55 9
Ġaggiun tive
comunica zione
65 1
G li
Ġesclusi vo
Ġsplendi da
Ġcar to
u k
96 05
ĠT era
Ġsa cerdo
Ġdif etto
Ġaggi udica
ĠCer to
ur re
n essione
ĠMar tin
F un
stra da
ĠSil via
os tica
Ġriporta ti
fa tto
L M
nCategori a
7 21
h am
Ġri ass
Ġpre stiti
nDire ttore
ref ox
Ġit inera
H C
Ġpa pa
ĠA ppro
Ġg esto
55 2
Ġamministra tiva
Ġsti ma
Ġvaria zioni
sp ot
ĠSe i
3 75
Ġprofu mo
ani ficazione
Ġdimostra re
7 14
ri sto
4 24
ĠP AG
Ġver tica
96 13
ĠIr landa
Ġmas cher
stru zione
Ġp all
Ġcon forme
inter net
m ing
Ġcar ro
DE D
un ce
Ġcancella to
sa re
Ġfu turi
nM ed
Ġusc ite
Ġrimb alzo
ĠUn ico
ĠTUT TO
93 25
ĠA dd
nRic hiesta
fondi menti
ĠĠ ĠĠ
96 07
3 46
1 99
Ġcostitu iscono
Ġnega tivo
Ġdisa gio
nP e
Ġindivid uali
Ġto sc
Ġele vata
: :
Ġscrit te
Ġ 85
K A
Ġpre m
4 30
pp are
Ġ5 2
73 9
missa rio
Ġin tito
Ġcomb usti
fo glia
de c
7 04
Ġla mpa
ĠR O
Ġrin for
Ġmanten imento
fer ma
RI E
es posizione
nAr gomenti
Ġdi vieto
ĠGener ali
ona co
nM A
Ð º
a van
EL LI
ĠP on
Ġric chi
ĠMa y
ĠI mmer
Ġaccetta to
Ġpubblica zioni
Ġsvol gerÃł
he d
Ġtemp esti
Ġopera re
Ġcarica re
vi ano
66 2
nPre cedente
Ġfu ture
65 8
DD D
Ġconsegu ente
4 14
99 995
ero gazione
Ġman uali
A nd
Ġcon dotto
ĠMol ti
Ġprom osso
bal di
Ġcomp iti
94 56
ĠB orgo
Ã Ĥ
Ġconte mpo
Ġf ossi
Ġ[âĢ¦ ]
Ġj a
Ġsal vati
Ġdi sta
R B
a el
Ġb ritann
ĠBa mbini
C li
ti me
E X
ĠE D
ĠReser ved
Ġ end
Ġpoter i
Ġa manti
ta logo
F N
inis tro
Ġresta no
Ġcandi dato
3 08
Ġru more
ĠB ur
o ol
995 0
ff o
p es
98 81
Ġpes anti
Ġgi unta
A rea
P Q
co po
ES TO
id enza
istru zione
Ġom aggio
98 91
nAcc essori
Ġpar tendo
96 45
Ġtestimoni anze
ĠGior nali
Ġpiaci uto
ĠP es
Ġsu sc
Ġocc identale
Ġdisp er
ĠCalda ia
ĠB la
Ġchia mare
ir ente
ĠConsi gli
67 2
3 19
um ere
p ica
Ġcandi da
Ġcas tello
Ġnon na
Ñ Ģ
lo co
ĠS in
ĠPU BBLI
nG a
Ġdestina to
Ġqu into
Ġes t
Ġprote tte
Ġlavo rando
Ġcontra ttuali
ell enza
3 30
ĠL in
! )
Ġinna mo
Ġpo veri
ED IA
pati a
Ġbasa ta
Ġpre zioso
Ġs osta
r un
Ġrub rica
ĠS ONO
( );
4 25
ia l
Ġman d
archit ettura
Ġrip oso
ĠE DI
cch ino
Ġgest iti
ch es
Ġraggiun gimento
ar k
fli x
ĠBri anza
ĠPro dotto
Ġe voluzione
nSal ve
alo ri
4 96
ĠFabri zio
indi si
4 88
ĠCli enti
83 65
Ġpos teriore
oo t
Ġlo gi
ĠSer vice
Ġr ele
64 1
Ġameric ani
% )
E uro
nC inema
C ookie
Ġpre ved
Ġtal volta
5 21
ma ge
Ġpit tura
56 9
4 87
ĠB ell
99 12
ĠMar tino
Ġsc usa
Ġelettri che
Ġdetta gliate
ĠC EST
Ġdesc ritto
pi Ã¹
enta ta
ĠA mici
Ġpossi ede
ble s
ĠT eo
Ġle tt
ĠZ an
Ġmis tero
go lare
Ġproveni enza
4 17
Ġin cora
nB e
Ġre sp
ĠV arese
54 2
7 25
or ni
Ġelettron ici
Ġminis tero
Ġag ri
Ġe man
Ġta b
ĠV A
Ġtr enta
n leggi
Ġassa i
DA C
Ġindispensa bili
os ting
nA ff
Ġver dure
c elle
ĠTRA TTA
98007 44
ĠRe gioni
ðĿ Ļ
Ġin cu
ĠU p
Ġfoto grafica
Ġinnova tive
tit uti
h an
Ġscri vi
nIn dice
Ġta ssa
ĠFa miglia
fun ction
cessa rio
si de
nN uovo
ĠâĢ ĭ
Ġcom menta
Ġrela x
64 9
ĠNa vi
Auto ritÃł
Ġdedica te
66 8
ĠBra sile
Ġricord iamo
ĠQu ello
Ġinvi ando
ĠG ratis
ĠQu est
P RE
Ġco ach
na tura
Ġin su
Ġdign itÃł
pa ce
vis ti
c etta
Ġin sa
a ce
Ġcomplessi vo
Ġco gn
nS icurezza
Ġraggiun ge
Ġsupera to
Ġsho pping
996 0
Ġinau gu
Ġta bella
nSo cietÃł
Ġallena mento
J O
Ġsin c
on esi
ĠS PA
Ġdelica to
Ġsu oni
ĠI mmag
78 2
Ġgenera to
ĠPi ero
anto va
ĠUnivers ity
b ita
99 92
ĠCor re
6 26
A merica
Ġcon net
gre ssi
Ġvi vi
M ON
ĠA genzia
Ġc ron
ĠP agina
Ġaff a
Ġsottoscri vere
icura mente
ĠK it
B u
Ġdise gni
Ġannun cia
Ġartific iale
Ġinizi almente
nP osso
Ġdire tti
Ġrin as
Ġin ta
Ġrappresen tante
Ġbra ni
enn io
Ġdisp osto
nP u
ia te
Ġanti che
DA A
v elo
97 90
col ta
W eb
Ġapparten enti
ĠP et
ordina mento
Ġconc reto
c is
Ġriman gono
Ġprepara to
mo de
ul tati
ĠG eo
4 93
itali ano
Ġle ad
Ġavven tura
ĠAl tro
inter pre
g itto
Ġo di
Ġche f
5 85
L TI
FA A
fi li
U Q
Ġvol ti
c it
Ġna so
v etta
Ġapprofondi mento
ĠCom ment
96 56
Ġv or
G D
nP ER
ic hi
Ġra cchi
tti na
Ġimmag inare
ĠVI DEO
Ġusa ta
6 22
ttu almente
7 28
less ia
ĠI SO
3 85
ce la
tag s
TO R
sor zio
ĠCO OKIE
nG o
67 1
Ġvisi bilitÃł
Ġdice va
os tri
n ers
cchia ta
nF AQ
96 35
Ġdirig enti
Ġc ra
94 66
Ġrifle ssioni
ĠI MP
Ġa mare
65 2
n pre
Ġali menta
ti con
Ġbamb ina
37 0
Ġpal co
Ġinvia ta
ĠIn fine
D is
7 46
u al
Ġconcorr enza
Ġsva ria
96 36
tte d
K S
7 44
34 0
Ġacc etto
ish list
= \"\"
Ġsenso ri
Ġanoni me
25 25
Ġmetri che
Ġvalori zzare
Ġconvin to
Ġintelle ttuale
E EA
Ġgi Ã¹
Ġvir tÃ¹
Ġlim one
Ġcontinu ano
Ġfas cino
mi liano
Ġdi ci
con ti
Ġ ..
I d
98 90
sc uola
ometri ci
3 36
Ġsupp ortare
3 17
ĠEn zo
ĠI sa
alb um
Ġad min
Ġpubblica te
Ġinforma tico
ĠR isto
Ġeffettu a
nAt tenzione
ĠLa tina
54 9
disatti vare
ard en
Ġpover tÃł
nL uca
Ġarti sta
Ġri d
64 2
ĠM ercato
ĠP ass
ĠL una
in one
php BB
EG LI
W H
ĠOr gani
Ġado ttare
96 23
ĠF ree
Ġinclu des
â ĺ
ĠCentra le
Ġprop ag
Ġmos tre
Ġpre visione
Ġtrasforma re
Ġcic li
Ġin tenzione
tto lica
ĠD ante
Ġqu arta
4 15
95 36
ĠCana da
Ġfenom eni
inis mo
ĠN umero
Ġb ere
4 04
Ġchi ese
nP O
Ġmassa ggio
Ġte so
pa olo
n r
Ġpazi enza
v s
ĠAN CHE
Ġabbra ccio
gher ita
Ġforni rti
Ġmi lan
98 10
ĠComp agnia
nM edia
in ing
nCon tra
au torizzazione
ĠGio van
Ġgi ri
Ġconcentra zione
er ale
Ġriserva to
96 77
ĠGi ustizia
Ġsan itarie
ere i
f ini
per formance
Ġn Ã¨
nSal va
2 98
7 07
la ggio
ĠN elle
Ġspesso re
l enza
lan e
Ġsp endere
ĠCon ferenza
qu et
Ġstori che
fa ult
Ġopera tore
ĠS ettings
Ġeste tica
Ġp c
an u
ĠCommer cio
K I
Ġcaratteri zzato
Ġus ano
94 046
D BA
Ġsp ar
alizza re
ĠU mbria
nInter viste
le o
ĠS ve
Ġevid enzi
Ġfin ita
Ġm usei
Ġl omb
pa citÃł
5 30
Ġra ll
nS ol
Ġh as
Ġb orse
B M
ĠLu cia
Ġbu dget
4 23
J X
ten eo
nC red
uni versitÃł
inda gine
Ġtran sizione
Ġfra ttura
Ġcontinua mente
ra ge
te a
Ġm esti
ĠDI RE
Ġsi gnora
ĠF eb
obbli gatorio
7 24
ĠB ella
ass essore
ster one
ĠU omo
ĠMo der
ggia ti
ĠA CCE
Ġrif u
Ġsta dio
3 18
ĠLi fe
Ġatle ti
6 44
4 06
Ġfon data
Ġprospetti ve
Ġcorrispon dente
fo glio
ĠNon ostante
cen tro
ĠTr entino
Ġvacc ini
Ġpro vider
Ġman cano
supp ort
Ġrespi ra
ĠP ronto
ĠS telle
Ġsoffer enza
Ġa di
Ġc us
Ġv ag
Ġbra ccio
4 95
Ġaggiorna ti
ĠL ine
view ed
Ġab iti
Ġro mano
k no
Ġp el
ĠMo bili
Ġgaran zie
ĠG LI
Ġn eri
Ġlan ciato
Ġcivi ltÃł
Ġascol to
53 8
V Z
lar si
uo co
ass unzione
ĠC rea
bbi gliamento
p as
Ġon de
V P
Ġprote ine
Ġsal uti
Ñ Ĥ
94 86
Ġo ver
om etro
ĠMa de
Ġservi re
7 84
cc ante
nC ri
Ġto cco
Ġcap ita
Ġcol or
Ġruo te
B L
J Q
acqu isizione
Ġstra no
Ġrec lamo
eto oth
Ġver go
Ġav vocato
94 78
Ġi mma
ĠE S
ag ricoltura
ffic ina
me o
Ġfino ra
ĠP ag
Ġ1 992
Ġo cchio
Ġcresc ente
nB o
SS A
nPa olo
ĠF ino
EN DA
in forma
B ook
ti ce
Ġci bi
Ġgioi elli
Ġ5 1
Ġarchit ett
Ġide ali
cell ona
Ġensure s
Ġboni fico
F ES
FA B
nI SCRI
ĠCo gnome
el fare
Ġroman a
Ġinteressa re
on n
Ġval le
nC ir
ĠTito lo
Ġd roga
W Z
Ġchia cchi
ccia to
Ġcu rato
and one
ĠBi anca
Ġ5 4
nO n
A CD
gior ni
Ġde bu
Ġconsi gliere
EN O
P ri
Ġtro ppi
Ġdiso cc
DE E
Ġforn iscono
Ġcoinvol gere
Ġstudia to
ĠEU RO
t itÃł
ĠO vviamente
ĠSc aldabagno
ĠCh rome
re vole
ĠQuarti ere
p ubblica
un cio
ĠTi po
zz ina
Ġre ci
Ġu m
om ali
Ġperf ino
ĠRis er
ĠAss icura
ĠIn somma
U TI
Ġos ser
tra n
6 45
g oni
Ġco cco
6 21
96 04
Ġsc and
olo re
nS il
3 35
sol ini
ga t
Ġdeli bera
ĠSpi rito
nI nizia
ĠL ar
Ġv an
Ġf eb
me dio
2 99
P osta
D CC
m arsi
Ġestre mi
Ġs icili
Ġespri me
Ġava tar
Ġtrasp orta
ĠW h
Ġapplica bile
nComunica ti
Ġpag ato
Ġdiven tando
Ġd ono
ĠFis cale
Ġguid ata
Ġat mos
96 83
Ġlu g
Ġada tti
Ġdina mica
Ġceleb re
7 76
6 48
la tion
Ġb osco
Ġdetermina zione
ĠT omma
9050 175
Ġretti fica
Ġb anda
Ġcara binieri
Ġaccompagna to
ziona tore
6 27
5 84
ĠAl lora
ĠC erca
Ġa bilitÃł
io do
nRec ensione
Ġpresti gi
cc ini
nP orta
R a
Ġchia mate
D CD
7 35
Ġrinno vo
ĠD idattica
5 94
Ġin verno
ĠPre sen
nYou Tube
ch at
ĠBened etto
Ġpens ando
Ġar tt
Ġri ser
J I
alb ero
Ġricche zza
4 13
Ø §
FA E
nAn ti
G C
Ġfu mo
Ġv ers
Ġj o
V H
nAn cora
96 24
Ġ5 9
Z ZI
96 74
p et
6 46
ĠB at
Ġal unni
Ġaccomp agn
Ġplu ri
un te
Ġg lo
nEn tra
6 56
Ġe bre
f ari
G u
75 0
R T
on omia
97 08
5 45
gg ero
Ġver di
appro vazione
Ġten endo
ti zia
Ġai uter
98 71
rona che
Ġ 81
ca tion
mp ere
ter ina
96 15
da m
ĠTre viso
Ġsfru tta
Ġcontemporanea mente
Ġo d
Ġcre sce
Ġtal ento
ing ton
IS TRA
ĠRi f
ĠP ie
ve dere
Ġsegna lazioni
5 83
Ġaere o
uo ghi
Ġpe ccato
id th
Ġ1 996
Ġpale stra
98 38
v arsi
Ġinfer mi
Ġc loud
in es
ĠP esa
Ġp annelli
gio si
nV endita
ĠGiuli ano
7 34
995 48
ar ning
ve gni
gis tri
Ġtele visione
ĠC ra
Ġre gia
ĠT al
95 23
vi sion
Ġchia rezza
Ġe dizioni
ccia mento
Ġattu azione
fil m
Ġtele matica
W C
ur ri
te te
nD alla
ĠB asta
Ġwh ich
Ġvisi bili
ĠRe al
nA llo
ĠðŁĺ ī
ro ll
ĠGabri ele
u ch
Ġcontent s
DB D
Ar t
Ġb aga
5 33
V is
Ġre marketing
ito lare
7 09
Ġsembra va
ĠBasi licata
3 44
Ġdisc ut
ir si
Ġdo ttore
ĠFa bb
nTu ttavia
Ġlegg endo
dic itÃł
Ġco ra
Ġm enta
Ġcompi ere
Ġre a
Ġconten ente
Ġm ettono
ĠB ir
ĠTEC NI
nT re
g ol
Ġme zza
ir eless
ĠBer etta
nRic ette
ĠRo ck
ĠA dige
Ġproba bile
Ġinv ito
ĠB osco
9953 219
ro si
96 93
Ġri lievo
Ġg omma
Ġimposta ti
G io
cal cio
Ġagg ressi
Ġqual ita
Ġrep lica
il ind
ĠG ru
VI TI
âĢĻ .
la tore
D M
Ġforn endo
6 24
re land
Ġuffic ialmente
ĠPa ce
G T
9888 092
pi enza
avan guardia
Ġn etto
Ġpa tate
ĠA bruzzo
RA ZIONE
Ġucc iso
nPo i
gi on
f oni
ossi er
Ġfre dda
Ġturi stico
CB F
Ġimmedia ta
Ġrispetti vamente
fi le
nAnn ulla
Ġles b
Ġtanti ssimi
65 9
un is
gis ce
Ġtecno logica
ar elli
Ġ omo
g rande
nCorre lati
Ġ key
Ġvilla ggio
57 8
94046 766
Ġcircu ito
Ġdif endere
mis mo
ta na
Ġpubblicita rie
3 27
ĠP in
Ġa mi
Ġv s
mpre sa
7 94
Ġbu io
ettiman a
per ta
b as
na m
Ġ eno
ĠVic enza
Ġcamm inare
DB E
Ġpreced entemente
uo ta
ĠV aticano
997 0
nTe mpo
nM O
Ġre cap
Ġtra tten
do or
nR SS
Ġpro ssime
5 76
6 94
3 29
X Q
Ġ1 994
r le
nMe teo
Ġpro cure
Ġspe dizioni
z ina
âĢ ²
Ġte ch
M ER
6 85
ĠWil lia
Ġrila ss
ĠEconom ico
nNe i
Ġparti cular
Ġass or
Ġta mp
FA D
Ġrip arti
zi ana
nB io
nSu pp
ĠTa ranto
Ġavvic in
si stono
Ġne u
org hi
spe dale
ĠQu anto
Ġcar dio
Ġbi anchi
ĠS ic
5 34
Ġeccell ente
Ġraccon tato
ĠJa ck
is tituto
Ġsupera mento
ĠSop ra
Ġcrit ico
ĠSal va
Ġpu lire
4 26
5 22
Ġl enti
Ġabb igliamento
Ġdis cip
Ġadolesc ente
GRA M
ĠM ura
ĠM assi
Ġassocia to
20 64
Ġoff ensi
Ġspe cchio
Ġrima sta
Ġcul ture
3 24
nA dd
94 11
Ġcittad ina
6 95
eter minato
ĠU s
98 31
ĠTur chia
Ġinv ita
app untamento
ĠM onda
Ġper altro
tri moni
Ġpre ziosi
ĠA do
Ġlegg enda
Ġven uto
ar tamento
Ġstatunit ense
man e
Ġpresta re
trib uto
ar itÃł
Ġforma tivo
ĠEn ti
ĠF an
B K
nCom pro
Ġm es
Ġmag ni
8 99
k king
i vano
Ġtermin ale
Ġsca rico
ĠPOLI CY
ro sso
ĠPro prio
Ġtari ffe
ĠO RA
ĠR ich
ter s
Ġsottoscri zioni
Ġli ste
ĠU dine
Ġcontrol lato
Ġschi ena
e laborazione
Ġsignifica tivo
er ri
Ġav versa
Ġdirig ente
Ġpar ente
Ġpro sp
Ġvol umi
Ġma glia
R N
Ġmeccan ismi
Ġu sar
Ġsti a
Ġfacil itare
ĠC anti
Ġtra ma
Ġmer ita
Ġ 91
54 0
Ġtip ico
LOG IA
3 34
96 57
nD ue
ĠV end
ono ra
Ġdom estici
E W
nDom enica
re ad
nRe lated
na d
Ġsegna li
Ġsci enzia
4 03
uni verso
ĠEx plorer
un eo
g ru
gre dienti
tri c
Ġfacol ta
Ġecce zionale
nA nalisi
DA F
nF ran
Ġespre ssi
h u
Ġva da
Ġapp ello
Ġman care
Ã Ļ
w ood
Ġpa usa
Ġna ti
Ġsfru ttamento
, ...\
ĠC lin
Ġna ve
edi ficio
5 03
p an
96 16
Ġvis iti
ĠImmer gas
Ġscato la
ĠSo ciali
E BA
nA N
produ ct
zzo li
ra m
6 15
lessi o
gli enza
Ġacca duto
E U
98 80
Ġcanti ere
Ġpoten zialitÃł
Ġpote sse
Ġeste sa
nCo gnome
scri pt
ĠFacebook Condividi
ĠSu a
96 53
s anti
Ġagg ra
4 18
ĠR ub
A EA
nNo vitÃł
6 25
nRu briche
I P
Ġconver sione
5 11
Ġadegu ato
Ġma x
nA lessandro
O ggi
an data
Ġsconf itta
app osita
95 66
ĠBen essere
Ġcreati vo
Ġlun a
os serva
nVia ggi
994 0
Ġtea trale
ĠBo x
Ġaugu ri
ven gono
X O
Ġbene ficio
Ġrif erimenti
L ab
Ġterr itoriali
ĠV enerdÃ¬
as senza
ĠR it
B o
LE TTER
et y
nIn fine
Ġ }}
R oma
ĠIN FORMA
Ġreci pro
a mb
nM aria
Ġmemori zzazione
ĠFa x
R K
migra ti
ĠH anno
D CE
6 04
un ga
Ġra ggi
95 43
Ġreg ali
S Y
? !
Ġri per
Ġaggiorna ta
Ġrifer isce
Ġperce p
Ġsal ve
Ġ5 3
ĠD ou
rolo gio
op ia
erca tino
Ġscomm essa
on to
Ġfonda tore
Ġintro dotto
t form
nM eta
d estra
nP h
96 25
ĠK ing
994 75
nAR TICOLI
BI LI
d anno
ĠA b
20 02
ĠT ab
Ġfa me
Ġpo tenti
Ġ1 995
6 36
or ror
Ġunica mente
ĠTwitter Condividi
Ġcre ata
vo ce
Imp ostazioni
Ġcomple ss
Ġcrit iche
g ruppo
in troduzione
ĠB us
Ġestre ma
Ġpa cco
Ġcolle ttivo
W P
siste ma
Ġt engono
fa be
Ġ 99
Ġconsider ando
5 46
nS I
Ġricord ando
ĠMa i
Ġpi etre
7 75
Ġma ter
z y
Â ª
ipo tesi
E CA
Z H
Ġmanif es
Ġspia gge
Ġani me
ĠItali an
Ġb agna
Ġpilo ta
Ġimpie go
ĠE u
fic ano
4 28
Ġchi usa
nO fferta
Ġinter azioni
Ġpo esie
Ġri unione
Ġto tali
Ġaccessi bili
ĠV ie
nP agine
7 36
AB I
ĠI d
ĠC ittad
EN ZE
03 75
ĠRi parazione
Ġindipend entemente
M PA
Ġdi e
ĠPart ner
Ġto gliere
Ġiner enti
Ġpiani ficazione
ĠP urtroppo
Ġugu ale
nCom une
ĠSe conda
Ġeli min
nM ondo
Ġimpe gni
Ġrius citi
Ġm eridi
ĠD r
7 17
ul um
Ġ ï¿½
I s
s ito
6 16
ĠFa mi
Ġcoopera zione
Ġpassa ta
Ġ# >
Ġvali ditÃł
nAn y
95 86
tu tti
Ġfoto volta
ĠÃ ĥ
Ġlavora tiva
997 85
n qu
organ ismo
Ġmani po
6 76
Ġpo poli
ĠAl do
n viewed
Ġsemb rare
Ġdire ttiva
Ġper se
Ġi cone
ĠFed erazione
J L
Ġdiscus sioni
E CE
rico le
b ea
Ġavven uta
gis lazione
vesti menti
Ġr ito
Ġloca tion
Ġus iamo
5 66
Ġdi am
ĠS lo
Ġidone i
Ġinv itiamo
ĠP rato
99985 296
Ġan sia
fun ctional
ite c
6 33
Posta lo
95 14
Ġemail Postalo
Ġblog Condividi
Ġperio dicitÃł
Ġprovin ce
zz ar
ĠInd ustri
95 05
Ġsuper fici
Ġco tone
A ng
Ġbi blio
Ġfanta stico
Ġco vid
nPro dotto
Ġelimina to
Ġde dic
ĠBar bara
ddo ve
Ġfi era
Ġsto p
Ġpreno tare
Ġcolle gato
Ġpu b
Ġra ra
Ġ5 7
Ġgi ardini
Ġvic ende
Ġbevan de
ord er
Ġri ghe
5 86
Ġsto ck
95 76
Ġh i
Ġb orgo
Ġcostitu zione
Ġmoder ne
ĠFi era
Q M
fi eld
94 84
EN D
Ġed itoriali
Ġbotti glia
Ġper fe
ĠGa la
b ene
Ġinter atti
Ġa ero
p le
ĠAl tre
7 27
E CF
Ġcoper tina
p ad
A ED
b ad
Ġc itare
ĠU S
Ġeffica cia
] .\
gia re
Ġpla y
V F
zz eria
ros inone
Ġsotti le
Ġesa g
Ġ 67
ĠE ff
95 46
Ġpercen tuali
Ġfunzion ano
ĠPer Ã²
Ġpar enti
eta no
Ġter mo
osteni bilitÃł
co lato
ten uti
Ġeccell enza
7 85
Ġfar mi
nF o
ĠBer lino
id s
er ic
ĠCas e
Ġposi zionamento
ĠStre et
Ġpos tale
Ã³ n
Ġfil tri
Ġch a
Ġceleb ra
OS A
3 20
nF are
Ġinter media
Ġtru cco
b all
Ġsc ru
\" )
nS tra
U TA
mo us
Ġca re
ĠI reland
Ġacquisi re
74 0
Ġma ppe
Ġna zione
Ġcompi lazione
nSu per
nUtili zzando
ĠImp ostazioni
Ġlar go
atti vazione
nL inkedin
ĠLa b
Ġbi bli
f etta
5 31
ĠA sia
Ġtra du
Ġidentifica tivo
Ġben venuto
ena tore
Ġso t
n che
zi ose
ĠR esta
Ġistru zione
Ġacc en
Ġinser isci
6 86
Ġcomple ssa
Ġcontra stare
ĠPh oto
f ani
Ġsa pori
ĠI stitu
Ġturi stica
vi do
nPro vincia
nSpe dizione
ver sione
sho w
Ġamb iti
Ġcompre se
7 33
ag ra
5 36
Ġruo ta
Ġcon corsi
UNI CA
Ġmulti media
5 04
F BB
Ġcar bu
Ġcer co
nA s
ĠS cegli
Ġavvia re
ĠC le
Ġintegra ta
Ġinf ia
Ġguid are
Ġti fosi
7 88
Ġva do
Ġriconos ce
ĠC ru
E x
eb re
Ġg alleria
93 86
ti o
Ġrice verai
nE l
ĠSI TO
95 75
Ġsottoline are
Ġquotidi ani
Ġcon cesso
ĠSci enza
enti le
98 89
Ġiscri zioni
X A
si me
av vocato
EB D
Ġordina ria
maga zine
Ġparticular ly
96 17
Ġcompless itÃł
Ġsta gioni
Ġaff ect
Ġsosten uto
Ġdif etti
itti mo
Ġs y
tr Ã²
Ġspecific ally
as co
m sung
A CF
4 10
d r
Ġin utili
5 13
ĠCri stina
Ġisc ritta
com un
ĠInte gra
Ġcre di
6 88
sci enza
5 23
Ġmanda tory
Ġprogetta to
n Ã¨
97 48
in con
Ġquotidiana mente
. ),
DI O
nPri mo
Ġperm ettendo
Ġtedes ca
N el
Ġgra sso
99 993
ĠC are
Ġsca mbia
im mobile
Ġsotto scritto
Ġri pi
96 47
ĠTru mp
ĠOn lus
R ON
Ġin visi
Ġdom ini
Ġcon forte
ĠA le
Ġm anti
ĠPo wer
ĠC gil
mpli ce
Ġstre tta
6 05
Ġ7 2
Ġad esi
ĠZ o
ĠA SS
Ġvaluta zioni
N U
Ġam ica
Ġcap ol
4 07
Ġcoinvol gimento
Ġva pore
Ġsi mpati
ĠF ontana
nPre zzi
ĠV O
ĠIn fo
Ġur ban
ĠGu ido
Ġarchit ettura
à ¸
ĠCOM P
J A
ĠSan remo
1 000
Ġscola stica
ĠC ari
ĠF onda
ĠW ork
titu dine
ga tore
ta gna
k it
OR D
Ġtempo rale
Ar chi
Ġris al
aff ida
DA B
vis to
Ġvie tato
Ġpol lici
ĠU fficiale
Ġdo lori
nPubbli cazioni
si l
7 86
Ġvorre bbe
Ġstipen dio
Ġcan tante
Ġinte g
Ġincorpo rati
azz ardo
no logie
Ġadd etti
f asc
rea k
Ġno tato
Ġb uro
gi onali
ass icura
Ġindividu i
ĠS torie
Ġsm alti
Ġmas ter
Ġben sÃ¬
Ġfra m
Ġ> \
b ino
ĠV edi
Ġrus sa
Ġter med
Ġcor pi
Ġpo eta
fic ante
Ġaggiun tivi
c anti
Ġtorna to
nLa vora
ĠT om
96 34
Ġass ur
Ġrisarci mento
Ġcostre tto
ire d
Ġla ddove
nGi u
no tizie
nD ani
d ura
Ġapplica ta
Ġprofonda mente
Ġdistur bo
Ġentra te
ma le
5 16
ĠP ul
Ġchia vi
tra sp
ĠMol to
ĠLe gno
Ġscienti fiche
Ġcomincia to
Ġdina miche
nS pa
Ġsa bbia
n QU
Ġconcre ti
Ġc itato
Ġs corsi
tra li
Ġf iore
Ġseleziona to
Y Y
rio si
4 08
nP RI
9330 965
ĠS OCIA
S iamo
5 96
Ġpreval entemente
Ġaccogli enza
Q O
S K
to do
4 27
Ġrequis ito
el s
tar la
Ġsal vata
Ġdistru zione
Ġen ormi
nJ o
Ġta lmente
Ġc enti
Ġoper ano
ggia menti
Ġfre tta
5 95
E BB
nConsi gli
Ġpre ca
M D
Ġp omp
ĠFor za
ran ze
Ġdo tati
ĠS S
mpo li
Ġdefiniti vamente
V U
Ġcor nice
6 08
Ġmed esima
Ġdisa bili
Ġappre zzato
Ġgra no
Ġ7 00
3 93
v ona
nT I
Ġ ered
Ġdi vid
Ġvita mina
tanza ro
Ġsottoline a
Ġ 76
R ic
Ġimpe gn
Ġnecess ita
_ *
n era
Ġre azioni
A ccademia
te prima
ĠPa via
cc ano
nB ra
Ġf lo
ĠK e
95 85
F FA
Ġgratu ite
Ð ½
ED D
gi ani
67 8
nConta tta
o f
fil ter
ĠSi g
stu dio
h and
ĠU mberto
nPro te
Ġpri mis
Ġta ssi
ĠC rit
95 04
Ġur bano
ĠLettera tura
ven uta
Ġa genzia
995 8
W G
na zionale
Ġpe cu
Ġb lack
ĠS tazione
in se
ver de
Ġsotto scrizione
Ġvinc itore
lo ga
gno la
he tti
es pressione
ba i
CB C
Ġop en
Ġconse cuti
Ġri duce
3 84
r elli
Ġsitu ato
vi glie
ED C
9711 53
Ġtute lare
ch en
Ġpa tro
app ello
Ġpre ghiamo
Ġse parazione
Ġcircos tanze
Ġforma re
ĠLu cca
cer to
Ġtr eni
v etti
nA zienda
ena mento
wit ch
Ġv eter
Ġconveni ente
Ġan tin
Ġpoten ziali
ccio lo
in dere
cla ss
Ġla ti
Ġconc etti
Ġassegna to
nPreno ta
bre tto
Ġfas ti
Ġw i
nU l
giana to
agn ie
A AD
e conom
96 64
Ġimpegna ti
ĠV elo
Ġgrande zza
Ġd arÃł
lis hed
ma ria
iso dio
gra fa
atta cco
Ġal gorit
urn al
mag es
on es
Ġtelef onica
arti ene
Ġse bbene
Ġterm ico
Ġs aggio
LA TI
x elles
Ġperce zione
Ġfum etti
ĠC E
94 46
nT AG
Ġsf uma
3 76
Ġnasc osta
Ġve cchie
Ġpor terÃł
Ġatten to
Ġand iamo
95 35
ci om
nS osti
Ġdiffer ente
ĠA pri
Ġse cco
Ġappos itamente
Ġinnova tivo
c l
ĠGra tu
ĠS ettore
etta glio
nDe vi
ĠE st
Ġcontemporan eo
Ġri quali
o thers
Ġdiscut ere
n an
Ġ 77
Ġabb assa
Ġauton omo
Ġmili one
hi li
p lica
Ġan alit
nU fficio
P ad
Ġtra tte
Ġfinanzi arie
Ġcliente la
Ġcar dia
Ġconclu dere
c ante
ĠGi ardino
ec ce
Ġb ron
Ġinser endo
nC am
Ġrep arto
Ġidra ulico
Ġmus colare
esp lo
ĠNe gli
87 03
Ġni po
Ġstra to
eb ri
Ġoff rendo
986 448
3 86
Ġdesign er
enti eri
Ġpro get
EN ZIONE
ste in
T G
Ġfal se
ĠPro cura
DE B
nCa ro
ĠBu ona
tar li
ĠFa tto
g es
cco unt
Ġri ven
ĠAl cune
nA pri
Ġartigi anale
Ġna tale
pend enza
5 24
Ġma fia
Ġmar che
95 34
Ġra bbia
Ġp anoramica
nS ostituzione
Ġfonda to
6 74
5 14
Ġgra fico
Ġsenti ero
5 74
5 17
Ġa mato
risti an
ZIONA LE
Ġindossa re
Ġb lin
op en
ðĿ ĺ
Ġdu plicato
Ġma ri
f eri
ĠPesca ra
Ġbat ter
Ġlim ita
ĠCa ttolica
Ġepiso dio
Ġries ci
vi era
ĠLi vorno
Ġattu alitÃł
ĠC is
ĠAn zi
Ġyear s
ci e
ĠPu tin
ĠD ona
z ona
dre ss
B N
LI NE
Ġvi sion
920 6
Ġcomm unity
Ġda ys
Ġatten tamente
Ġcerti ficati
ina zioni
Ġfil tro
Ġavven ire
rur gia
ĠSo ftware
ĠTec nologia
ad ia
Ġsempli citÃł
Ġmu tuo
H H
ĠQu alitÃł
ura zione
g l
B CF
EL LO
e fficienza
96 96
Ġchia mati
ol ini
Ġsta zioni
Ġcro ci
S an
Ġgre co
Ġsali re
Ġdistingu ere
ĠCom mento
ĠCasa le
Ġb omb
Ġse cca
93 04
5 01
nS EGUI
A osta
999 25
ĠPubbli citÃł
Y O
Ġla ser
UL TURA
ĠW eek
don to
nD esign
Ġc essa
V IA
mo zioni
as col
er te
Ġmeravigli oso
r s
Ġre turn
Ġsp et
ĠRic erche
ĠRe censione
ĠSci enti
enti ni
Ġbio logico
Ġconfi gura
Ġsoci eta
Ġpunte ggio
ĠD all
94 04
ĠV ai
Ġnu do
5 15
7 87
nCo vid
55 0
Ġaff etti
nN i
ĠFO TO
Ġscon tro
voca zione
Ġrile va
ĠSuper iore
B DA
Ġricor dato
Ġinfia mma
Ġroman zi
zz arsi
Ġincontra to
Ġblo gger
meric an
Ġ1 990
in ante
U SA
ĠMi gliori
Ġrib ad
Ġpsico logico
Ġpre scrizione
Ġghia ccio
a eroporto
ura to
Ġsc om
Ġdiff ondere
cci ono
O n
96 14
Ġsenti rsi
ĠA mb
94 36
ĠO tt
TU RE
ĠL ingu
pen sa
Ġmodi ficati
Ġri entro
ch erÃł
tu ario
ĠCondi vidi
X M
re i
3 12
Ġinvest itori
Ġba ra
ĠC AL
ĠP ref
nT ri
li ste
ich ele
ces si
Ġass ic
Â ²
mina ti
ĠLe cco
t elo
Ġrientra no
Ġconsape voli
ĠITA LI
C he
TI S
Ġsin er
Ġurb ana
Ġim mobile
Ġris orsa
Ġindipend enti
95 84
67 0
95 65
nD isponibile
Ġpi llo
Ġmed esi
Ġconnet ter
VI O
al di
ce e
ĠS OS
Ġn ut
Ġinfer iori
ĠV ice
f ich
orma tiva
Ġdo tata
Ġv ettura
Ġappari re
D K
un da
Ġtru ffa
Ġnucle o
zz ino
ĠG arda
EA A
Ġt oni
nIn stallazione
Ġna zi
Ġrinnova bili
ci l
9554 7676
7 12
Ġm uta
Ġdom esti
ĠPa ul
Ġbat terie
v c
nTec nologia
Ġs tero
nChia ma
2 97
Ġcu rare
va i
nW ordPress
Ġvinc itori
7 19
ĠA mbi
ĠA f
ssi fica
ĠAr cheo
ĠAn cora
Ġperson alizzazione
93 03
is ing
Ġfri gori
4 37
ĠB onus
Ġguada gnare
5 25
Ġcomp ensa
ĠComp li
A ss
ĠDe i
ĠNe xt
95 55
Ġamm essi
Ġrispetti ve
96 27
Ġro ssi
Ġpre via
ce ano
X N
kno wn
Ġveri ficato
DE C
Ġesp osizione
Ġ1 993
nE r
nPro getto
Ġcan cro
ddis tin
57 9
J M
O ra
V ia
war ds
95 26
ĠF ai
F OR
3 98
Ġind eterminato
Ġsche ma
6 06
Ġgi gante
Ġin tre
Ġre gno
nG ia
57 0
Ġm uore
ĠS ulla
nV ed
5 26
Ġarri cchi
ĠI scrizione
na ble
as on
992 94
Ġdisp on
Ġvolontaria to
Ġres tri
nYou tube
AN DO
Ġab itazione
ONA LE
Ġspagno lo
nAn nun
Ġm esse
nR assegna
986 36
nI mmag
b es
pre sidente
Ġrisul tano
Ġdipend enza
Ġsc al
nF orn
blog spot
th is
Ġmanu almente
ĠComun que
nN D
95 94
Ġtesto sterone
ĠElet tro
nE tichette
ĠP EC
ĠMo lise
Z U
ĠS m
ese mpio
al meno
A BA
Ġcro ce
y pe
col li
ado zione
Ġmin erali
u ci
Ġaccetta zione
Ġesi stente
Ġchit arra
Ġdec re
g ettazione
95 07
ĠQ atar
kis met
Q N
Ġg oogle
ai gn
Ġchied ono
AC CE
ĠV es
er le
Ġfaci litÃł
tar ti
86 35
b lu
Ġmas simi
ĠTer zo
95 77
Ġsu bire
Ġabb onamento
ar enza
Ġnote volmente
Ġri prese
e m
94 65
ĠFer ro
Ġcollo quio
Ġmus coli
ciom ercato
venti vi
nGi or
G NA
nR im
ĠS how
Ġscar sa
Ġcontra ddistin
ar n
nPro gramma
Qu ando
ĠNove cento
Ġforma ggio
Ġimm un
6 17
ĠThe me
ĠTRATTA MENTO
Ġatti vato
Ġla cri
ĠV angelo
ĠBi g
ĠBi lancio
0 10
ggi ornamento
Ġoccup ano
ĠCon sorzio
ĠCa mi
Ġbril lante
allo ween
Ġs is
ĠQu ad
Ġqu ind
m ercato
CB B
Ġcorre late
Ġbibli ometrici
nISCRI VITI
S c
aut unno
Ġa cido
ĠElett ronica
ĠS en
Ġcoin c
J N
ĠOri ente
ĠIn gegneria
ĠCha mpi
4 77
Ġcontro ver
Ġe so
Ġcond ensa
% .\
Ġsca ten
os ess
ĠMos ca
Ġvend itore
nA ssociazione
Ġmano vra
s ino
Ġidentifica tivi
V W
Ġinver nale
for mi
zion almente
nCos Ã¬
EG NA
997 06
Ġcap isco
LI O
Ġcal cia
ĠP S
di men
Ġgen itore
95 45
ĠC V
Ġgiovani le
en one
ma ster
Ġsf id
Ġti bia
7 93
ur ito
Ġaggre gata
E le
comp le
Ġpromo zionale
Ġrappresen tazione
Ġrima sti
la ria
glio re
5 81
re ss
ĠR ice
998 93
ĠS and
Ġpa tto
Ġtrova ta
rin t
Ġlab bra
nGi useppe
ĠM ono
Ġfi bre
EB E
pp ato
Ġinten dono
Ġfi bra
Ġs ten
a zia
Ġesi bi
94 85
Ġ 84
Ġblo ccato
ĠO RE
cch ine
ĠDra ghi
ĠRin nai
Ġfavo ri
Ġse pp
ĠA ni
Ġsa tell
d enze
Ġn n
Ġme da
Ġc rono
ga zioni
Ġconcern enti
ĠUni one
ĠG ari
ĠF on
cro ss
sen e
ĠE dizione
I K
ĠP ino
f ord
Ġvest iti
ann uncio
Ġcoinvol to
Ġch iamo
Ġmi ele
97 78
Ġassicura ti
7 01
sp lit
Ġcausa re
Ġarri v
p x
C ol
O k
Ġapparten gono
Ġmotiva zioni
mb ino
6 31
Ġi con
ĠE ppure
ĠBia si
âĢ¦ .\
ĠD OC
DD C
il y
ĠB is
m iamo
96 73
ĠE LE
Ġpresc indere
Ġfo glio
ĠRi vista
Ġprefer ita
Ġ ere
ĠRa venna
Ġacco gliere
Ġdo si
ĠC usto
nPro getti
5 87
Ġori entale
insegna mento
in fezione
Ġmor bido
Ġrestitu zione
clu b
91 06
ĠJ ames
tra i
96 21
Ġla tina
ĠVal utazione
943 03
Ġemer ge
Ġsp inta
Ġpro cla
Ġinter iore
ĠA kismet
Ġsp unti
Ġde va
Ġrile vare
Ġcos tr
ce to
Ġresta uro
Ġcomo ditÃł
Ġaveva mo
5 47
Ġinnova tivi
Ġapp artiene
95 13
Ġro om
Ġmil len
Ġde pressione
ĠCas sa
pla stica
Ġm uove
A quila
ĠVi ene
Ġsc endere
Ġele vati
com para
ĠB eni
Ġre sti
ĠSi racusa
ĠPia cenza
ĠW EB
AA A
Ġfo cali
li sta
Ġm iti
al ba
nRo berto
E CD
ĠS per
ĠCa vo
Ġinca ricati
ĠS eb
Ġe bbe
re tti
ĠC EN
al s
tere o
Ġcondi visi
Ġ 74
5 18
ĠO ro
nS ub
94 24
nAr re
cra tico
ĠDi fesa
nGi an
nVal utazione
ĠLa va
Ġsc reen
on sori
tta ti
87 07
Ġci fre
Ġmod ella
ĠCas ino
Ġelen cati
Ġm esco
ĠTi me
Ġfrances i
Ġch ic
b in
Ġgradu a
ini li
do ve
d onna
eb e
Ġ ke
Ġvari ante
ER VA
itti ma
en zo
Ġglu tine
ĠP OR
95 33
p te
Ġanali zzati
zia ta
org ani
G DPR
mpi mento
Ġocc u
Z C
Ġcampi oni
Ġri pe
Ġsegu ono
ra eli
Ġese mp
Ġma de
Ġu cra
Ġarre stato
Ġaccon sen
D BB
Ġorgan ismo
Ġperiodica mente
7 74
nAn alitici
ĠE X
Ġ5 8
Ġpresen tati
Ġforn ita
U SI
nO thers
Qu ery
Ġca dere
Ġsotto stante
ST ENZA
er n
Z W
Ġsca mbi
otti ca
nP oss
Ġin gegn
Ġgra zia
Ġro bot
no logy
nC ittÃł
Ġsomministra zione
ĠMIL ANO
Ġb allo
nEn glish
f ora
Ġ1 60
Ġamministra tive
Ġrisul tare
Ġal za
enn itÃł
nNo v
Ġcri ptovalute
ĠQual ora
Ġnu de
Ġimpa rato
ĠMan u
TI ZIE
ĠFri day
ĠO rig
96 58
Ġado ttato
Ġi mbo
anta ggi
on go
Ġmon tagne
Ġconosci uta
5 06
E Y
or dio
Ġesegu ita
atte sa
eser cito
Ġesi genza
Ġvari are
ba tter
G F
Ġavre te
ĠU e
nUlti mo
Ġin cen
B Q
ĠT on
v et
ces sione
Ġdec lina
orta zione
Ġpos a
d era
PO LI
Ġsopra v
3 88
Ġno ci
ĠCultura le
sta mpa
Ġf rus
ĠPRO G
94 75
Ġfed eli
osti ci
nLe ave
nS ci
alo tto
Ġ 679
Ġcompeti zione
Ġtrag edia
Ġcatto lica
96 54
ĠDe p
ĠP it
Ġin col
ĠAcqu ista
=\"\" >
ĠBol zano
nI T
4 90
Ġseconda ria
95 73
94 93
ĠChi anti
Ġfasti dio
Ġintera gire
Ġruo li
e tica
95 44
Ġopera tive
4 91
Ġcorrispon denza
ests eller
Ġun isce
Ġfalli mento
ki p
ĠMa estro
Ġved erlo
do po
uo to
TI N
Ġcal coli
Ġletter almente
98 30
CC H
po t
ĠLe one
ĠTomma so
Ġtras form
Ġcontra ttuale
Ġin de
ĠT est
Ġcos me
quad ra
0 29
er ba
a mbi
ĠM antova
log hi
995 75
Ġfre sche
Ġmetter si
ĠVit toria
end ente
Ġb it
m ie
B CA
95 03
Ġd ita
Ġ6 9
tor ino
Ġelettron iche
Ġan ello
nF or
n gio
Ġco da
nU siamo
nSte fano
ci es
Ġreligi osa
i g
ĠSa int
97 19
Ġcompati bile
LO GI
EE E
Ġanzi chÃ©
5 88
Ġvisit ando
Z P
w ell
ĠB orsa
nP ic
ĠI nizia
Ġo k
Ġab itazioni
te la
4 99
tta zione
Ġin ci
app osito
segu endo
Ġpubblicita ria
Ġpuli zie
zia ti
go zio
Ġmon diali
osten ibile
7 83
gu ardi
Ġb est
ĠLib ro
ĠAl ber
cola ta
pi la
5 05
Ġro u
rances ca
Ġgi rare
Ġrespi ro
98 41
Ġmag a
ĠM ur
ca o
ssi on
at tura
Ġb oschi
Ġoff riamo
Ġinser ite
Ġcorre ttezza
S p
ĠA UTO
Ġconn esse
Ġdove te
Ġpasse ggiata
ĠMo ro
Ġres tando
Ġguari gione
nO p
ĠMa il
Ġimp li
Ġda tore
tand ard
Ġro ttura
f ondazione
Ġpiacere bbe
I C
ĠT ol
er mi
Ġamp lia
ffici ente
Ġdiver sitÃł
du a
0 97
Ġge m
Ġmi lano
ca mente
IS CI
nes ty
Ġconsegu imento
3 83
Ġmemori zzano
Ġsi mula
6 37
6 93
nAcc esso
j s
Ġpato logia
Ġrisp armi
nCa mp
Z F
h ol
ĠPri me
r Ã©
\" ;
Ġver si
M AN
ader ni
en ici
indica zione
Ġcera mica
nA mministrazione
ĠB et
t onda
lar me
Ġintegra ti
ĠNo vara
Ġanni versario
ĠBar cellona
ĠSp A
Ġgeo grafica
ĠCon corso
Ġ( \"
Ġgesti sce
a ba
Ġtra mon
Ġv ende
id entali
Ġpo ca
ĠLun go
nF ondazione
ĠMar ch
nHo tel
à ¤
GP D
Ġpo ta
so re
l Ã¬
Ġbi mbi
Ġcomp or
Ġ1 30
Ġopp ortun
Ġcolle ttiva
Ġass unto
ĠM usei
6 28
ĠC D
ma x
Ġs ingle
Ġaff itto
EL LA
ric ulum
âĢ ³
in anze
Ġcristi ani
ĠAt tenzione
ĠF ir
ĠW al
ĠN ome
g iamo
Ġdivul gazione
Ġvin cente
EB C
Ġam ano
ĠAn cona
Ġsvol te
and ante
Ġnu mber
ro tta
VI TA
Ġpre co
nR ed
in ando
Ġsca tta
Ġadegu ate
Ġpre cip
Ġgaran tito
Ġco prire
Ġmanti ene
Ġarchi vio
98 49
iti ro
ĠLu ce
95 24
5 93
zz etti
99973 92
999 04
84 21
Ġ Ãł
Ġrip rendere
enta l
96 67
87 65
Ġdefin ita
pro te
n ar
Ġ6 3
te m
Ġsta tale
7 20
ĠQuo tidiano
ziona te
ha ha
nO pera
ĠMad re
nAn na
ĠO fferta
po p
ĠIn dia
Ġatti vazione
Ġrifi uta
nma ggio
Ġcompi uto
ED B
L D
Ġma ke
cch ina
Ġde ca
lab re
nTro va
Ġev itando
rus t
sti mento
Ġatti mo
4 01
Ġs inistro
Ġpu ri
R X
ol s
Ġfed el
Ġris ve
Ġri dotta
Ġstra ti
Ġrep li
u da
ero ga
ĠK i
97 28
ĠM iche
ĠMunici pio
Ġsegre teria
ĠR ag
Ġpneu matici
ĠGi orgia
ort una
Ġs ession
LA RE
Ġmasch era
âĢĿ ).
nG ruppo
ĠV AL
Ġassum ono
Ġpar to
Ġscon tato
li bra
9348 153
Ġ 365
ĠR ossa
Ġim migrati
Ġcar tella
n via
96 33
Ġfun ghi
Ġpar l
sti a
Ġdimin uzione
gli oni
h y
Ġstan ze
Ġannul lare
Ġnar razione
Ġapp osito
Ġgaran tendo
nB onus
tu me
ĠL it
acc iamo
Ġdig ital
Ġspeciali sti
ĠS ou
ĠS or
Ġdeli b
ĠS tri
Ġs blo
Ġ... .\
Ġtera pie
ĠS TU
Ġemo ticon
95 16
isto ia
M K
fia mma
Ġtecno logico
Ġesp osto
s tanti
F EA
Ġscri vo
Ġi OS
Ġtu more
Ġprend ono
Ġpos te
essi bilitÃł
4 12
Ġassocia te
T W
Ġalb ero
G IA
Ġ target
CF C
us ano
0 99
Ġs fa
Ġpresen tate
Ġfollow er
ositi vo
Ġso urce
ĠAlessand ra
Ġremo to
cc eria
97 61
Ġlavora tivo
ul ta
93 55
ĠGRA TU
ĠS tru
Ġne mico
Ġ1 989
92 84
gh an
Y S
Ġtesti monia
ĠFo ggia
nTea tro
cic lo
**** ****
ĠCategori e
Ġeste tico
Ġle va
ĠB ul
Ġb r
gia ti
97 09
Ġrefer endum
n mi
Ġchied iamo
Ġatten dere
Ġdia manti
Ġsin d
Ġmanten endo
der ti
Ġbicchi ere
pro dotti
asse mblea
mo lo
ĠMa gistra
Ġso lari
cia o
93 23
Ġadegu ata
DB F
ĠAcc etta
vole zza
Ġfonda zione
Ġcin esi
7 96
ony mous
te ci
93 65
95 87
ĠCar ne
J S
occ upazione
A zienda
Ġpara ll
bo la
97 38
nO re
3 87
in cre
Ġpre ten
Ġaccum u
ĠA V
B CB
ĠGi uri
ĠD iego
Ġterr eni
fe o
Ġven t
AA E
ce i
975 9298
nH OME
DB C
7 02
Ġpit tore
Ġpri vo
Ġcristi ana
ĠS CA
mal ink
Ġindic ano
Ġammi rare
compara bles
Ġimp oste
Ġli st
Ġricev uta
ĠSp ettacolo
ge ting
ĠD NA
F ER
ĠNet flix
li ve
fo lio
ĠAn gela
Ġnucle are
95 83
ĠZ ero
nF eder
Ġsa msung
fi uti
D ire
r na
Ġag ro
6 73
Ġlie vito
ĠM ia
Ġidenti ficazione
Ġcoordina to
64 0
Ġ> >\
ge o
ĠV ito
nS im
ĠR aga
Ġpul ito
Ġdisa stro
Ġconte stu
Q S
is citi
ĠIn fer
Ġmeta boli
6 32
ĠK m
T witter
Ġgius te
Ġprefer ite
10 14
ĠAS SI
Ġconfi gu
Ġvi vendo
Ġvisualizza ti
5 28
ĠBru xelles
nM ac
tt oni
ĠCA M
Ġins erimento
p orti
RI NO
ĠVi gi
Ġpre ssi
eri bile
P V
Ġgra mmi
ĠD M
96 11
ĠL ad
Ġvaria bile
Ġsal ita
Ġval ere
Ġvo tato
Ġsottoline ato
nS torie
Ġtutta cronaca
z en
5 73
Ġguid ato
Ġnomina to
Ġcollabora zioni
BA A
Ġinsegn ante
Ġperman enza
995 15
ĠStra da
Ġvend uto
ĠSy stem
ti smo
Ġregistra rsi
lus si
ron te
s tri
lo ck
Ġpreve dere
nIN FORMA
3 95
ĠL etto
Ġfar la
Ġdia mante
ggia tura
Ġh ere
Ġsen sazioni
Ń Ĳ
84 44
Ġpersi stenti
Ġrile vante
Ġsottop osti
ĠAl lo
ĠPro va
A frica
Ġy o
ĠGi orno
Ġbat teri
6 83
Ġblo cchi
Ġsot tra
nP lease
anda mento
b ag
ĠF IL
mi zzazione
Ġcas al
Ġdom estico
ĠM ora
Ġscrit tori
Ġtip ica
ĠFi refox
k h
Ġprodu ttivo
Ġcorrispon de
ĠEner gia
ag ing
Z G
ver se
pe a
Ġpia cciono
n ese
Ġp ento
Ġpo ker
imp rend
zi lla
Ġedi lizia
nT itolare
ĠTesta ta
ĠSe gu
au silio
Ġmesti ere
6 87
21 51
AA F
Ġono re
Ġyou tube
nCol labora
99 32
00 46
n co
Ġvari anti
zzo la
sc ur
nG alleria
99 984
nC OR
con f
Ġsperi mentazione
994 46
Ġsotto val
Ġbenefic ia
c eri
Ġfili era
tan ea
ro om
Ġad dress
Ġchia re
enso ri
ĠPubbli co
ĠDis ney
Ġconos co
y al
cli ck
Ġe ppure
Ġamici zia
Ġmetro politana
Ġprop osti
Ġt ono
Ġaffascin ante
BA C
Ġforma ti
ggi re
ten sili
f ere
nD ec
C onta
esti no
Ġrice vimento
glio si
Ġo cchiali
Ġmi gra
nEn zo
Ġsf era
ĠD y
DD F
65 0
Ġgu erre
Ġes al
isto la
Ġ1 25
you tube
Ġcontribu ito
g ici
Ġtran ne
p osta
Ġpelli cola
Ġsa ra
Ġa sc
co logia
Ġscola stici
Ġ6 8
ĠH TML
âĢĿ ?\
ĠBit coin
la go
ĠLu ci
3 94
Ġp se
fo ro
Ġt d
Ġedi ficio
Ġappassi onato
Ġtri on
Ġco gliere
5 43
Ġse pol
nM ag
Ġgiornali smo
Ġma mme
Ġalber ghi
5 20
dis ciplina
Rom agna
Ġracco gli
dago gia
Ġgen o
in ia
Ġatte ggiamento
B X
ĠI sola
z ono
ĠG lobal
Ġ 73
ĠAssocia zioni
Ġgiuri dico
cita ri
95 74
Ġl itri
56 0
l one
ĠC AN
ĠG U
ĠY o
d erÃł
99 965
do c
Ġamministra tivi
Ġrila ssa
Ġcrea tiva
ĠS conto
4 97
CF F
ĠD en
99 957
ĠAnd re
Ġrip ortare
Ġbiso gn
ĠSch ool
Ġpartner ship
Ġ zi
5 27
Ġin tanto
23 03
ĠPerson ale
Ġinv itati
5 08
se i
sp eci
Ġaffi an
ĠS um
A AC
M N
gu erra
ĠH u
s sere
ĠLa boratorio
ma ker
Ġcollabora re
W U
w an
su b
Ġa uti
imp ossibilitÃł
de mo
Ġfis ici
te mi
p ina
Ġrip rend
Ġprend endo
? âĢĿ
ĠV EN
Ġamatori ale
ĠTri b
ĠMon diali
ĠD EGLI
Ġesi stenza
Ġal tru
Ġtor neo
o le
nAn tonio
96 37
re gione
. [
c ard
95 06
\\ (
IS TI
Ġriconosci uta
ĠJun kers
Ġera vamo
ci ando
Ġven ivano
Ġdisabil itato
p ng
m ono
ĠCos tru
Ġgiudizi aria
AD C
w iki
Ġimprov visa
Ġgioi ello
97 69
B J
Ġmar ina
6 91
ĠSi ria
ĠCas erta
nN elle
IS TE
Ġcondom inio
li fe
Ġdi vano
nV enerdÃ¬
ti v
iter bo
ere te
ĠRis trutturazione
er vi
Ġun iti
Ġchied endo
H U
Ġiscri verti
ĠL inea
Ġasciu ga
5 48
ff ie
ĠG B
Ġricorr ente
av vio
Q A
Ġ 78
ĠGi ord
nNe cessario
Ġdestinata ri
Ġcar bon
ĠPre ss
Ġcomple ti
81 06
ĠLAVO RO
tta menti
Ġta sca
997 2
AB C
Ġbi g
Ġs etti
c alda
ĠMar gherita
BO OK
er ry
Ġstrani ero
Ġre se
Ġna me
nGio chi
ĠS are
ĠD ie
B G
Ã ª
Ġbo tte
6 96
c tory
Ġcom ments
Ġdis cesa
Ġvertica le
is sa
ol tre
Ġleg almente
93 34
4 92
Ġimp on
Ġmate matica
ss on
Ġstabili sce
Ġman dor
Ġconsegna to
ĠRaffa ele
Ġinv itato
Ġlar ghezza
nNa tura
w ei
Ġperd uto
< /
Ġsperi mentare
< #
ĠL ag
Ġro b
Ġs aggi
O ro
ĠPol onia
gg endo
Ġconfl itti
B CD
di v
Ġav veni
83 75
nAv viso
Ġcorre tti
ĠVia ggio
ba bilmente
Ġo l
ĠMaggio ri
Ġfar ne
ĠInforma tica
id azione
te sto
Ġci mit
p assa
l ero
ĠGa ran
Ġter res
Ġorgani zzati
ĠRE GI
99675 91
Ġ1 991
ĠMad rid
997 22
Ġw indow
io ra
U TE
ĠMed ici
van t
Ġd etti
Ġinter roga
ĠVin ci
ĠðŁĺī \
Ġtras correre
Ġminis tri
ĠCategori a
Ġi bri
ĠDisa ble
Ġmag ico
Ġelabora zione
ĠM ass
st ita
Ġosta coli
le sia
94 76
Ġn etta
usa le
Ġu tm
97 20
in dice
Ġvege tali
ĠFra telli
Ġsolle cita
Ġnarra tiva
Ġcap isce
Ġnega tivi
Ġassi stere
d ar
ĠTerr itorio
mo la
ĠCas ti
Ġter re
Ġsm s
Ġrega lare
11 05
Ġimposta zione
ĠRegistra zione
nNa poli
ĠEntra te
Ġsi l
ric erca
Ġinclu se
Ġep ide
ĠC uore
Ġra zza
Ġascol ta
gro und
ĠD ario
ĠCan ale
ĠIs land
Ġestra tto
Ġeco logica
pe i
âĢĭ \
ON DA
ccia ta
b ul
ĠI de
Ġconsidera zioni
Ġfinalizza to
6 81
nMaggio ri
edi lizia
999 16
icro soft
= âĢĿ
ag en
Ġpreventi vi
L N
lo cale
Ġforma tivi
Ġs ha
7 29
93 46
Ġgiud ici
e vo
Ġcanti na
gomb ero
95 25
ice o
âĢ¦ ..
ĠG ali
ani mo
Ġflessi bile
Ġes cort
ĠVal entino
Ġbi anche
ĠCon gresso
4 02
Ġf ul
ce mber
h r
Ġmodera tore
Ġsh aring
ĠO ppure
pol vere
ĠChi udendo
Ġterremo to
Ġdiscip line
ĠCa val
Ġcir conda
Ġmodifica zioni
ĠCo ach
ĠP arti
Ġaltro ve
Ġrilascia ta
ĠI mmobili
Ġsa cra
00 57
nDom ande
nS foglia
Ġdetermina ta
il ding
A EE
IN AN
Ġed itrice
9853 8333
Ġj azz
) :\
d ele
nC erti
Ġdov uti
Ġprote sta
su le
Ġgio cato
la sh
Ġcolla terali
Ġinn anzitutto
ĠUtili zzo
ĠS un
av ventura
98 40
Ġgran dis
984 94303
Ġcom missioni
Ġgu ardia
Ġim men
Ġtri mestre
Ġindi menti
Ġviaggia tori
f red
94 83
d ite
on ese
Ġmin ute
Ġpr elie
Ġdesc ritti
Ġcusto dia
Ġav vocati
Ġmis sion
Ġinforma re
u c
7 37
Ġpensa te
Ġpad rone
re ssione
Ġris ca
3 96
Ġchi mica
uli zie
Ġesp osti
Ġpan ico
sc ita
ĠA rezzo
Ġprof umi
f ond
Ġblo cca
3 74
Ġner v
A ssemblea
Ġinizi ano
Ġprom uove
Ġappli cano
aller ie
Ġpoten zialmente
tto lo
Ġtanti ssime
MEN TA
DE F
Ġsensi bile
95 64
Ġcop ie
ĠA zz
Ġpos ts
Ġquali ficato
se a
ti pi
n anzitutto
k top
ĠS tella
Ġcostu me
ĠC RE
Ġmostra no
Ġfra zione
Ġamp li
r ine
ga menti
Ġsi gnor
A EB
arti cle
ction s
Ġopera tivi
ga ri
Ġgover n
in anti
nSegna la
cipa zione
Ġavvic ina
Ġcon viene
lar lo
95 58
nM y
997 87
Ġn om
Ġvir tu
Ġm ali
L LE
i ono
cto ber
Ġsal to
I sola
nCu cina
Ġdimenti cata
ĠD OM
os tre
nF ile
Ġapprof it
ĠBlu etooth
li de
Ġebre i
esta ta
Ġa cus
Ġsos tituti
ĠTran s
Ġla terale
ĠC iao
pi do
issi me
nMen tre
ĠN in
as tero
D G
p oste
ĠFe mm
ro up
il mente
kis tan
| \
Ġc ilind
CO PRI
Ġb ul
4 19
93 16
4 09
Ġs ettings
95 15
gn ani
Ġw as
Ġapp rendimento
94 17
Ġmeccan ica
is tan
ene zia
ĠI sole
z one
ĠBlu e
Ġillu minazione
Ġer be
Ġinol tra
Ġugu ali
ĠH ouse
Ġconten itore
fun zione
5 91
Ġcre ate
Ġcal de
95 37
Ġrus si
Ġacquis tati
M an
?? ?
\\( \\'
nBu ona
ab io
ĠVal entina
isponi bilitÃł
ĠA nalisi
Ġsostitu ito
ti vitÃł
A LE
ba b
999 03
Ġporta tile
ĠMess ico
Ġri bal
ĠA cademy
Ġria bilitazione
96 22
Ġsfor zi
Ġteso ro
in ser
Ġpreoccupa zione
Ġlu po
nPre ventivo
Ġan teriore
Ġsc ende
nPia zza
nE nable
Ġrestitu ire
Ġvege tale
Ġcomp arto
tur itÃł
vis mo
M X
o ttobre
Ġpote vano
Ġle sioni
ĠAd esso
Ġrivol ge
ĠAff ari
f ran
ĠT orna
om iti
ĠL os
Ġri medi
E TA
Ġcolp isce
6 43
Ġmaga zine
ner gia
Ġpo dcast
mi on
che zza
Ġesplo rare
Ġa gi
Tu tti
ffi lia
99548 02
ĠB ona
Q I
r iti
A t
ĠB rand
nL ettera
Ġinc identi
Ġpetro lio
se gre
Ġsenti mento
lab o
95 93
Ġconte sti
Ġmuo versi
pa ro
rig ento
Ġde co
Ġapp orta
Ġes tiva
ĠUn ite
Ġpresta to
id ra
ell ente
gno ri
Ã§ a
6 47
Ġcata lo
ĠS tan
Ġ 96
Ġa si
ĠDi rig
ĠGi ud
Ġra dia
A FA
Ġar ticle
ĠP unto
p one
& _
us co
Ġten nis
Ġrivol te
Ġrappresen tanza
Ġs tor
Ġvigi lanza
se o
O U
ĠBa tta
Ġdisp iace
tted rale
itri ci
Ġnaviga tion
Ġpen ali
n x
tar ci
R R
\" ).
bu on
ĠP aga
s k
ven ts
Ġma cro
Ġpi xel
Ġperd ono
Ġriconosci uti
Na me
Ġdi ale
mo to
S V
Ġante prima
ĠS ur
ĠC IT
ite m
osti no
no i
de va
Ġprepara ti
ĠPro ject
ĠD isp
96 29
ena ta
g allery
Ġpassegg eri
Ġdidatti co
Ġno tti
Ġ< #
rosa mente
ĠSAL VA
ĠD aniela
lan ce
nF orse
B EA
Ġrica mbio
Ġm ess
Ġmeravigli osa
Ġritro vare
ac anze
zi ario
ĠSiste mi
unta in
ĠMi ra
u g
na il
ed itore
Ġman dare
Ġfare mo
nE lenco
Ġgio van
Ġdi visione
6 20
Ġatti n
Ġcarbu rante
P ubbli
an sia
for nia
gle si
ba te
tori ca
6 07
Ġdiam etro
Ġin sol
omb ardia
f ur
Ġstamp are
ĠIn sieme
Ġris co
b w
Ġchi ud
998 24
po lo
na u
ĠElet trico
Ġconta gi
Fa cebook
Ġsalve zza
Ġcor ro
98 29
ĠN ico
Ġgri gio
Ġraff i
Ġliqui di
Ġrive dere
der ci
ĠA ccedi
ĠE cc
Ġpremi er
Ġro ves
Ġcorte sia
Ġp elo
ar b
vis simo
ĠCA SA
Ġric re
Ġprodo tta
Ġdocumenta rio
Ġfemm inili
pre sso
ĠE R
Ġguada gna
Ġpreno tazioni
âĢľ ,
lar ne
Ġd ro
Ġla tino
ĠElisa betta
am ici
6 09
Ġappro vazione
Ġdire i
Ġaver lo
ĠMilan ese
IA LE
Ġprodu zioni
Ġs bar
p ut
ĠCOM E
ĠAL LE
us s
ĠE videnza
Ġgiornali era
er rore
Ġinten sa
tic al
lo gio
nUl teriori
cu pero
nV ol
ĠF onte
nIn fatti
Ġconf usione
Ġimpegna to
Ġs para
Ġsinda cati
nA sso
Ġsinda cali
Ġiso lamento
nTipo logia
Ġstrateg ico
Ġdiv or
nDi ritti
nOr gani
P F
Ġun iche
in fer
{ %
ĠS ER
ĠRe gia
4 29
v and
do ardo
es sen
vi lle
ĠPo tenza
Ġtrasm essi
p y
ĠA ustralia
Qu esta
Ġp edia
p it
95 17
vi l
Ġstrada li
Ġderi vati
ĠDo cu
Ġentra to
8 000
ĠP assa
Ġbas se
Ġpr ele
mp er
Ġspie gazione
Ġdia bete
Ġbol l
995 45
ĠAt traverso
Ġvo li
b ello
Ġfal si
Ġg inocchio
Ġsosp eso
Ġinvia te
entra ta
ĠCon ti
Ġsind rome
S CO
87 04
ser Ãł
ĠMich ael
Ġaspetti amo
996 13
Ġsu cco
95 47
Ġsosteni bili
Ġfoto grafo
ĠLun edÃ¬
nPsico logia
Ġquant ita
Ġos sa
Ġsh op
os titu
esi genza
D X
Ġagevo lazioni
ĠAlessand ria
Ġcor to
Ġcolle zioni
Ġpar itÃł
na zionali
di versitÃł
ĠCred ito
Ġall ontana
ĠGi ornale
ĠP age
5 37
Ġconcre ta
ĠLu ciano
g om
ul d
ar ini
Ġs hare
ĠF ur
stal li
eri fica
Ġispi rato
ĠG O
ĠItali ane
ĠOr dine
Ġcosidd etti
93 74
lu m
95 27
998 23
ck tail
g ed
Ġfas ce
Ġlasci ano
Ġav essi
ĠLiber tÃł
th a
ie zioni
ĠCon serva
ĠAuto re
98 01
Ġcaratteri zzata
ĠA ziende
Ġconsidera te
ca rica
Ġinizia ta
nUn known
Ġdo g
mit tente
Ġscen ari
Ġritro va
Ġimper mea
n social
94 34
Ġpa tente
ĠAr chitettura
ĠRo bert
Ġpul ita
app rendimento
ĠMo da
Ã ī
Ġguard ando
ĠS TE
B DD
ĠPoss ono
nCa talogo
nMas simo
turi smo
ĠCo un
ĠMar cello
Ġaiutar ci
Ŀ ¤
Ġpericol oso
ĠTer esa
ny t
tr ona
Ġb iscotti
fis ica
Ġ 97
ĠR GPD
Ġt witter
Ġfal so
Ġreligi ose
Ġpe pe
94 16
nF er
Ġto gli
Ġcostru zioni
ĠLo ve
ra do
ffer enza
Ġis raeli
Ġpale stin
nR esta
ad get
Z V
Ġpom pa
99 176
hand le
E conomia
96 59
ĠAl pi
997 17
FB D
ller anza
ĠO f
ĠM onaco
Ġseleziona te
Ġampia mente
âĢ¦ )
asp etta
Ġsegna to
an tico
Ġfavore vole
Ġceleb rare
nFa x
Ġsare i
W V
Ġau sp
da d
94 15
Ġp anta
ĠC arm
Ġcosidd etto
Ġsi li
Ġvis te
Ġcor ruzione
nS iti
Ġinterpre tazione
Ġcom itato
Ġcollega te
ĠGI OR
Ġpe per
ch ini
18 85
Ġs tereo
ĠGian luca
Ġs qu
man a
Ġtit le
âĢ¦âĢ¦ âĢ¦âĢ¦
Ġ 83
Ġstar tup
Ġecce zionali
Ġe poca
nRice vi
Ġes tivo
A mbiente
m g
Ġinvest ito
tan e
Ġotti me
Ġm ele
ĠGi Ãł
Ġ% }\
nMol to
Ġabb re
5 82
Ġe bra
Ġcostre tti
Ġappli cato
Ġtranqu ill
E K
Ġag ricole
13 55
M T
94 03
etti ve
ĠGari baldi
Ġautori zzazioni
Ġen ter
DU ZIONE
ĠLou is
ortun io
Ġ 93
ĠC ost
ĠCla udia
zion ismo
ĠS ostituzione
ci re
Ġesa uri
Ġsupp orti
nSu ccessivo
Ġvari o
Ġinterpre tato
Ġ one
e mozione
Ġinfe zioni
Ġven ir
nQu este
34 74
ĠPI U
nGio vanni
ri ci
Ġcontatta to
RI CO
Ġotten uti
Ġcomp agnie
Ġalle gato
Ġinforma ti
Ġmorb ida
mar ca
Ġsca le
ĠRIS ERVA
ĠR esistenza
Ġ1 40
ĠGa me
Ġori entamento
96 43
Ġch issÃł
gg ed
Ġps ichia
nV e
94 57
Ġsol dati
pte mber
R J
ĠR CS
nC arica
Ġcur va
a ca
Ġinforma tivi
nW e
ĠDI RI
AL L
Ġwork shop
in ano
967 44
Ġdes tro
Ġvet rina
Ġzu cca
mi li
ĠTecn ica
Ġmas turba
ĠT weet
ĠMi r
equi librio
ĠUn der
nLun edÃ¬
Ġcon duce
Ġmar mo
95 11
Ġfeder ale
6 90
ĠIn vece
val le
Ġta vole
ĠP orte
Ġraccon tano
Ġpens ano
S port
H ome
Ġs anti
C P
Ġben zina
Ġm elo
36 26
ĠAt tribuzione
Ġes tin
Ġavvia to
93 15
wa ys
ĠI SS
9989 192
ĠE sa
97 18
Ġentusia smo
sid er
Ġpas sioni
A EF
5 07
ĠP are
R F
ĠP ensi
ĠC up
Ġpreved ono
Ġorgan ismi
Ġis tan
A Y
Ġpra ssi
Ġparro cchia
Ġacquis iti
Ġgi unto
Ġdo dici
p asti
Ġsigare tta
nA mici
ES SA
94 54
nIn f
994 05
H T
Ġide o
o cchiata
vecchia mento
ĠPari s
804 4
ĠUl teriori
ĠF iori
inter azione
i ra
arm io
Ġra ddo
nComunica zione
ron ia
mis sion
l om
ina rie
ĠI ni
Ġ 88
nP assa
Ġle gislazione
ĠLa ur
Ġpar chi
nConsul enza
94 45
im media
Ġc ell
Ġavven ture
zza tori
Ġscio pero
ĠVer di
Ġpreci si
Ġsi gnore
Ġved rÃł
tera pe
Ġintra prendere
Ġe tichette
ĠE ste
997 1
98 19
Ġtrasf erire
Ġb agni
Ġescur sioni
ĠW ikipedia
Ġce mento
Ġdele gato
6 77
ĠT esto
Ġprosegu endo
Ġcul to
Ġvita le
Ġabband onare
Ġ: -
Ġcomple te
93 26
n h
Ġser en
Ġdov ute
ĠP op
Ġcre ano
Ġassocia ta
Ġtedes chi
Ġsol itudine
Ġde boli
Ġvisita ti
Ġmed iche
Ġindesid erati
Ġlava ggio
in etto
Ġriquali ficazione
nRa dio
L K
Ġlonta ni
Ġtend ono
nOra ri
ri mento
Ġtra iler
nNo ta
A ssistenza
f ast
Ġori enta
gli etti
94 37
ett one
ĠSh op
Ġv este
Ġab uso
at ten
7 91
Ġcol ui
ĠSa fari
Ġinteressa te
inte sa
H G
php bb
in vestimento
ĠR usso
Ġdi le
n ven
Ġ35 0
TE GO
895 0375
in telligenza
Ġpertin ente
Ġreg ina
C X
gi bili
donto ia
ma co
Ġfu tura
Ġpersi stente
A s
Ġconos cono
ti amo
D J
ell eria
ĠNO I
nC ro
Ġsom me
stitu te
vol to
94 26
menta zioni
Ġ: )\
ĠTra cciamento
Ġflessi bilitÃł
Ġrega la
Ġpri gioni
ĠIn serisci
G NO
Ġro v
nAppro fondimenti
terna tiva
94 13
Ġins etti
Ġfacil ita
Ġcomplessi va
unta menti
Ġgover ni
pre sen
.\" \
996 1
996 27
Ġsi mpa
96 63
Ġfoto camera
ĠSve zia
nInter vista
tter i
ĠConta ttaci
94 87
ĠV OL
ĠF lo
Ġe qu
Ġprovve dere
ĠPo esia
verti re
Ġrafforza re
Ġlenta mente
zz onte
nR esponsa
Ġraggiun ta
nPart ner
ĠA ggiun
nS trumenti
Ġvari azione
mpli fica
ĠN uove
tur bi
Ġautun no
ĠIn fra
Ġcoinvol te
96 88
ĠU RL
mus ica
Ġen titÃł
Ġunivers itari
nI ni
Ġp onti
5 90
Ġcondanna to
99 236
ran s
cir ca
nSiste ma
Ġal lievi
89 06
Ġaff etto
Ġaiuta to
ele mento
ci oni
94 73
Ġmina cce
Ġco pri
Ġpre vio
OS TA
Ġtrib uta
Ġ 87
ĠR SS
arre do
nO pen
eli er
94 20
Ġevidenzia to
Ġ--- -
ĠO fferte
83 16
Ġten uti
me zzo
Ġpositi ve
Ġfir mata
nMa il
person ale
NR R
Ġcerti ficata
Ġordina to
% ),
ĠMinis tri
Ġa bout
Ġsa cro
Ġsp ing
Ġtranquill itÃł
zion ari
ash ington
re am
ĠContra ssegnato
Ġfur to
f el
Ġcen ter
Ġimp one
iterran ea
Ġcolle gare
Ġin tri
ĠG rand
nM onte
98 09
ri ana
mar k
nella te
Ġconsen si
ĠRep ubbli
Ġcom andi
Ġcontrolla ti
ĠE ro
Ġester i
ON S
Ġdiver tenti
Ġv ani
au trice
6 38
ĠNa zioni
id en
el io
Ġy oga
Ġarri vi
ĠIs chia
Ġbotti glie
Ġdefiniti vo
ĠW est
Ġmeta l
Ġvi gne
Ġfattura to
Ġ 98
Ġdes erto
94 28
nNe gli
B CC
nC arta
Ġapparten enza
Ġar bit
96 71
93 85
nCa mbia
GI L
umere voli
b asso
Ġstrateg ica
im prov
col tÃł
Ġil lim
ĠP IA
ĠPI ÃĻ
Ġpre mendo
ĠâĢĭ âĢĭ
ĠM use
ĠPro v
Ġta tti
Ġsotti li
and er
ĠSpe zia
ĠBar to
5 80
Ġmo du
Ġca ttivo
Ġau tenti
nl un
Ġfattura zione
3 10
Ġinteressa ta
Ġta voli
ĠBi anchi
Ġin vali
05 44
Ġag ricoltura
nQual ora
Ġaggiorna re
Ġauto bus
Ġsegna la
ir enti
Ġcon venzione
94 27
Al to
ĠB U
Ġautomati zzati
Ġipo ti
\\ \\
FF E
T a
Ġspe cu
ced es
997 25
Ġinform iamo
Ġm ero
gia ta
nIn gredienti
ĠA ustria
nDo wnload
Ġosp it
nE uro
D N
Ġla mp
ĠC ura
Ġinser ita
Ġopera i
ĠLe o
ĠCOR RE
6 02
so pra
ta in
ĠT ok
87 13
Ġp ene
Ġlo c
Ġ6 1
Ġcausa to
r ing
B CE
Ġatten ta
Ġsfuma ture
ĠProvin ciale
sion ali
5 98
ĠCla sse
nA ve
Ġcellu lari
Ġcons um
Ġparla mentare
Ġgra vitÃł
Ġosp itare
93 75
tl y
Ġdi mora
Ġtanti ssimo
ĠF ull
Ġconge do
Ġpropon iamo
Ġdeten uti
3 89
Ġcon ci
f iore
nPerson alizza
ĠAnton ella
io lo
SI TA
un der
n su
ĠMonda dori
Ġcor se
ggi ando
fon so
Ġpun tare
lica zioni
u ccio
T er
pi u
Ġren dimento
93 05
ĠImp ostato
Ġconforte vole
ichia ro
An alytics
Ġfacolta tivo
Ġemo zion
Do po
nRe gione
nDo cumenti
Ġsape te
ĠTra vel
ĠContra tto
5 77
94 07
AR T
Ġchia rire
ran ce
ĠPRI MA
6 12
nAli mentazione
Ġsele zionando
ĠTrasp orti
tin era
6 80
nAl b
nPresen tazione
Ã¼ r
Ġcom mentare
Ġ Î
D FA
ĠF ru
94 25
h en
M U
cli ma
OR TO
Ġrip or
inf luenza
Ġorig inaria
Ġn ere
Ġpre ss
ĠB ase
Ġsba gliata
Ġla terali
n ra
u azione
6 98
7 89
S F
ĠS TRA
pa to
Ġtela io
94 35
Ġsc an
ĠJu ve
T TU
94 05
Ġw ireless
ĠBel gio
Ġprefer enza
ĠSca la
Ġlo ck
94 77
Ġinnova tiva
Ġre gistri
Ġfa ma
Ġra ta
Ġsalvata ggio
87 41
87 56
Ġrestri zioni
Y K
ri ller
ĠAgen cy
Ġordina rio
Ġconte mp
nContro llo
97 31
ttan ti
ĠIn nova
Ġpi zzi
== ==
Ġevid entemente
Ġpens iamo
Ġconsul enti
ĠCos titu
acc ettazione
A bbiamo
ĠDai kin
nQu ello
Ġprom ossa
ĠS esto
le ta
ro ssi
3 80
ĠConta tta
appro ccio
R Q
ĠJe an
gen ce
ĠCA P
nCon nessione
Ġ1 988
999 21
Ġaffer mare
el ta
Ġsta tus
SB N
Ġpa ci
i elli
Ġbru cia
Ġfa x
Ġan dati
ccessi vamente
94 33
Ġinver nali
Ġchirur gia
Ġlogi stica
latti e
nSca denza
ĠPo lo
7 92
Ġgo de
Ġchi use
ĠS t
ic ia
Ġpa tri
V AN
ĠMa tera
eria le
ĠAr gentina
Ð »
tu alitÃł
ĠReg ina
6 01
nN uova
en cer
imposta zione
nP I
Ġsa ppia
ul y
EL LE
C an
Ġpi Ãº
nCar rello
Ġcambi ano
Ġat tenti
Ġsostan zialmente
Ġaggiun tivo
Ġregola menti
Ġdeb iti
ĠV ino
ĠPRI VACY
95 53
gen io
ĠProfession ale
ĠAltri menti
Ġpun tuale
Ġallar me
ins on
ali mentare
Ġtenta tivi
ĠR ES
p us
ĠF ORMA
ĠSp esso
Ġlesb iche
Ġpa vimenti
UO LA
ðŁ ĺ
5 89
7 81
sse to
ĠMa tti
Ġletter ario
Ġbra vo
Ġsp onsori
Ġespli cito
ĠMa tte
FB E
ne w
nSEGUI CI
Ġcap itato
interpre tazione
93 45
ĠPub lic
nS ulla
ica ta
Ġrim uo
Ġlit ur
opera tore
p ubbli
ĠCre do
F DA
O pera
97 68
Ġ1 01
ĠLib ero
98 39
ĠCa terina
a meric
ĠF ol
Ġall en
nNon ostante
l t
ĠG h
ĠQu attro
an esimo
Ġma ture
Ġconosci uti
ĠS ette
Ġpropag anda
ĠUn categorized
Ġproto colli
tti zzazione
Ġin ade
fa mi
ĠO K
Ġinda gine
ingle se
3 81
Ġ ente
Ġincenti vi
tar ne
Ġconcorr enti
H Z
Ã© e
ĠM ino
li aritÃł
95 28
Ġma la
Ġdiffic ilmente
Ġmusic isti
ĠS IN
Ġimpie gati
Ġforma zioni
Ġarre di
Ġimmobili ari
Ġgener ico
M J
nS hop
menta ta
Ġspetta tori
nIn somma
g arsi
vi r
ĠC lan
nInvia to
Ġs ani
ĠP eter
Ġcollega ta
Ġiscri versi
ĠAli ce
nA b
Ġtor re
Ġsottop osto
inten to
ĠC uneo
Ġcomprom ettere
Ġadempi ere
ĠC ET
Ġaere i
Ġalgorit mi
Ġcommer ci
Ġcoper to
Ġci pol
n de
Ġf ull
d iso
Ġmi rati
Ġmilan ese
Ġautori zzata
ĠNa tional
Ġotti ca
Ġinc id
Ġdis chi
Ġsoff re
Ġintegra tori
on cino
man d
la ro
Ġb usta
ster i
999 26
eb a
ðĿ ĳ
o pposizione
Ġl ento
Ġvie w
ĠT RI
ut sch
c ista
Ġbio logica
ĠGi ro
Ġarri verÃł
ĠCON S
Ġripri stina
Ġrif ugia
996 23
ord ia
Ġed itore
Ġj Query
D V
Ġaltru i
Ġcompati bili
tu i
ck s
rit urismo
A BB
Ġartigi ani
Ġverb ale
Ġlib erazione
Ġporta foglio
v y
Ġp etto
ton do
va ri
senten do
99 978
Ġmedia zione
f etto
ub lic
Ġdistribu ito
pi x
ĠT ed
ĠPorta le
94 74
eli minazione
Ġsegu ir
Ġpotre mo
pr ensi
ĠPo ichÃ©
nI scrizione
Ġconsegu ito
ĠP ur
in chiesta
men da
3 91
Ġsor ge
foo d
Ġfo cus
Ġmar gine
z h
Ġrifu gio
gu ri
Ġaccessi bilitÃł
ten ne
nDi g
Ġpare cchio
w o
ĠIn ghilterra
Ġvolontaria mente
Ġfarma ce
ĠA B
orta ge
acco glienza
Com mer
Ġcucchia io
lu minio
Ġso cc
Ġpar lo
ver na
enn is
ra ni
ĠCos enza
ĠRep ort
Ġcircos tanza
Ġcontinu ato
Ġsp inge
Ġv escovo
ĠMar chi
Ġparla mentari
e tichetta
Ġnascon dere
Ġtal enti
p lo
Ġur genti
nCi Ã²
nRi fiuta
ĠDou ble
E P
ĠSegre tario
Ġorizz on
Ġinn umerevoli
ĠBr indisi
ĠSocio logia
g ina
ĠCir colo
ca t
ja ck
Ġnas cono
a ttore
Ġassi stito
Ġrimb orsa
87 66
li ce
Ġgaran tita
nI RIS
83 03
Ġon eri
Ġseren itÃł
Ġele vate
sa mo
M G
ĠAu dio
Ġdescri ve
Ġre qu
95 57
Ġann ulla
ĠCa ta
94 06
gisla tivo
Ġpen na
Ġesser si
98 92
995 36
Ġi va
en zano
99 994
ĠGra zia
ĠP oste
nE N
ĠPi etra
Ġdi ario
nN as
Ġved remo
ven a
ĠLo cali
le i
) {
na ro
EA F
Ġopera to
Ġin do
Ġcostu mi
Ġconos ciamo
su ale
ur y
sta t
nAl berto
Mi lano
Ġca da
Ġcoltiva zione
AD F
E FA
ess or
it an
is on
ccio la
âĺ ħ
nC alda
Ġcapol uogo
S N
Ġtu bi
Ġaugu ro
nPaga menti
] [
Ang elo
87 53
ol f
Ġinforma tiche
nIn ser
ĠSal vo
C Q
Ġsub ordina
Ġb on
Ġinf anzia
scri vi
pro pri
uta mente
Ġcal di
nS co
Ġinten si
attu azione
Ġvisualizza to
ĠS ele
ca ra
li zione
Ġaffida bili
ord enone
95 121
93 07
Ġse dia
ven ia
Ġtras corso
ĠG alli
nV in
Acc etto
mi r
mi ano
Ġinf or
ĠT esti
Ġma estri
a prile
Ġtess era
Ġvas to
qu ando
unica tion
ositi vi
5 09
CON OM
EA B
Ġcostru ita
Ġinte so
Ġ7 9
L ascia
Ġcom mi
F ED
Ġna zioni
Ġsplendi do
Ġfort un
H V
Ġrip os
om ati
fic ando
ĠP ed
Ġlim itazioni
d ge
Ġs vizz
Ġinter vis
Ġreligi oso
Ġsalva guardia
ĠO scar
produ cts
ck ing
En te
Ġesa minare
Ġassegna ti
Ġsopravvi venza
Ġapp unti
con tenuto
97 91
ĠT HE
98 920
Ġfar vi
ĠAr ma
B log
Ġca mion
Ġide ato
6 89
........ ........
Ġc ie
Ġs correndo
ĠImpre sa
Ġrisol to
Ġspecifica mente
Ġscopa ta
Ġperf etti
ĠW hatsapp
ĠQU ESTO
con si
Ġges tori
ĠN ello
abb iamo
F G
ĠCON TA
Ġban co
Ġi stituto
nR it
est ru
87 43
Ġprov viso
nD all
Ġvin tage
ĠP at
95 923
Ġprovved erÃł
ĠP MI
Ġpar zialmente
H W
ĠNove mber
g iche
ĠSi mon
ggi ante
th an
Ġscienti fici
Ġ 94
Ġan onymous
ĠCon tini
ĠD eb
996 195
98 943
C as
nUn isciti
Ġbilan cia
t witter
999 11
ĠRead ing
ĠS k
os sid
lu igi
Ġsp alla
9685 12
ĠI dra
Ġco ro
nNe w
Ġi scriviti
Ġper fezione
nF u
us si
o d
Ġsoddisfa tti
cha in
ĠRic ci
Ġconten enti
Ġada tte
Ġin centra
ma fia
Ġvul nera
ĠCen tri
Ġfia mma
b ed
ĠAu tori
Ġin es
y n
Ġfer mata
93 76
6 19
66 0
AA B
TI VI
Ġappar entemente
ese arch
et teria
ĠV iew
nG rande
ĠT an
aggi unta
ĠSal one
85 55
ana to
ĠBre tagna
ĠDI S
RE ZZA
K J
Ġb bw
Ġconsi stenza
olle y
Ġsorg ente
Ġgon fia
nChia ra
mo der
Ġde bb
O Y
Ġâ Ī
Ġfanta stica
Ġteo rie
Ġvis itano
ĠU TI
sse gno
ĠGran di
Ġd arti
pe fa
Ġanda va
Ġpericolo si
Ġatti ve
Ġaf ric
Ġ9 00
ĠGu arda
Ġt ron
ĠJa zz
Ġdo tazione
97 12
assicura zione
Ġdescri vere
Ġgen eri
Ġsequ enza
Ġpro ssi
ell one
Ġme la
Ġassa ss
Ġsal sa
Ġconfer enze
nTras lochi
le a
ru cchi
Ġcas t
B AN
ic on
uti che
95 22
Ġdi mag
Ġincorpo rato
anzia menti
93 24
p sico
se d
Ġ1 04
nP A
Ġporta te
93 84
Ġoccupa zione
Ġp essi
ĵ \
Ġprodu ttive
la vori
Ġcaval li
nG uide
Ġappare cchia
93 21
Ġman gi
Ġquali fica
nMan age
d etto
6 39
ĠMe teo
c arsi
Ġrica mbi
ĠCre mona
sa la
89 23
ic es
al za
Ġabb a
Ġriman da
33 81
nN ess
uni or
ab itazione
ĠâĤ¬ .
ĠM AS
Ġto ccare
ĠGener al
ĠC ad
Ġsic ure
ĠD eli
nRic orda
Ġseri etÃł
Ġrico ver
ĠC LA
Ġscienzia ti
ver gine
Ġvo la
Ġlonta na
Ġcomp rato
ĠLic enza
ĠD uomo
ĠMar k
Ġconvin zione
63 25
r ent
Ġin glesi
Ġri gore
ĠI mpianti
bi mento
go v
ad ano
Ġadempi menti
Ġl ente
nE sa
so tto
vi ga
n mer
Ġs hi
998 27
Ġl ontan
Ġpol lo
um eri
Ġassicura zione
Ġs anto
a bilitazione
Ġri vestimento
t eli
aut onomia
96 00
Ġispi razione
BA D
Ġosserva zioni
A FB
Ġmanc anti
on der
Ġar co
N X
96 97
or itÃł
Ġri utili
Ġcri sta
995 1
Ġbe en
ri st
ĠInter vista
ĠM and
tten ere
im g
Ġre ster
am ico
Ġcen sura
nContinu e
Ġav remo
Ġno zze
Ġma ra
Ġrile vanza
nP ol
ĠSERVI ZI
Ġlo w
ĠD er
Ġricorr ere
7 10
F CA
Ġtras for
ĠSpe ciale
Ġtrova ti
ĠR OC
Ġatta cca
che tti
91 23
ĠCa ffÃ¨
ĠB assi
ven zioni
Ġf lussi
nO vviamente
nAnnun ci
P B
C or
nEff ettu
Ġgiuri s
+ +
99 967
Ġcontatta ci
lan tologia
ĠRo cco
arte dÃ¬
Ġla tti
ĠA pr
Ġtesta te
Ġmodi fico
o ter
ĠPubbli cato
Ġpatro cinio
Ġm un
ort uni
Ġa ttore
ĠHe alth
ĠLond on
li p
85 33
Ġfo gli
ascol to
M Q
nT RA
Ġpes ci
Ġspeciali sta
nM ario
Ġimp ara
Ġri parazioni
A UTO
Ġl iti
Ġscri ver
assa ri
Ġchiari menti
men e
5 12
n ciao
om enta
Ġser bato
Ġpomo doro
Ġcas se
Ġsvilu ppi
f ed
ic lo
Ġv on
ĠCa tanzaro
g ona
Ġdistin zione
E EB
ĠRo lex
Ġsal da
Ġcer chiamo
Ġdelica ta
Ġver dura
87 26
Ġg etta
nC AP
nRisp osta
nL OG
c tive
Ġspeciali zzazione
84 33
ĠJo h
t z
99 02
imp asto
Ġristo razione
Ġs no
Ġs mar
?? ??
97 30
Ġvi viamo
Ġispi ra
Ġven uta
matizza tore
nOr dina
9518 251
Ġavversa ri
Ġosp itato
ab y
per ti
mina ri
Ġstata li
lan g
________________ ________________
94 67
Ġpre sid
ĠB ando
vol ution
Ġarg ento
Ġsal do
tan ta
Ġcon sole
Ġvio lazioni
sa le
fer enze
Ġpre avviso
94 96
93 35
mpia di
ĠS po
âĢĿ ;
6 92
ĠPorto gallo
Ġqu inta
Ġb ad
nD ona
Ġattra vers
ĠFia t
ĠBar ber
Ġproveni ente
Ġad vertising
7 80
ĠL IN
87 06
B DB
Ġmon itor
Ġacca dere
Ġcorr enti
ĠI dee
Ġcosidd etta
nT urismo
Ġfesti vitÃł
ĠAcc ess
Ġsin cera
99 920
nCom menta
Ġag ricola
Ġev identi
ati vo
Ġvisualizza zioni
Ġesclu so
nGio vedÃ¬
ĠConte mporan
994 1
3 90
ĠFor ze
ra polvere
re m
Co dice
fi or
ET TE
usale mme
gh eria
ĠD ell
Ġad dio
Ġcom para
Ġtrasm esso
Ġsenti eri
Ġtop ic
Ġchi mici
Ġurb ani
F ON
un ge
ĠZ ona
7 99
K X
Ġne mici
f esto
ĠSta ff
ER M
998 2
Ġradica le
Ġprof itto
ĠVis ita
Ġstruttura to
Ġorganizza tive
D Q
Ho tel
w orld
ĠEx tra
Ġrisa le
ena ble
ĠL is
ï »
Ġcontra d
ĠCali fornia
ĠS UP
Ġprec isamente
bb re
11 46
B ER
uti ne
ĠLo di
van ia
Ġacco lto
Ġstru mentali
ONA LI
te se
nF abio
Ġcrit icitÃł
ra ra
G RE
ĠNo va
Ġinte sti
Ġaccogli ente
ser ie
e la
g m
nPubbli citari
97 58
Ġdis tanze
A V
qu anto
ali smo
Ġacconsen tito
7 98
Ġd itte
un ter
nAutori zzo
99 956
ĠF rosinone
Ġarchi vi
Ġrego lazione
Ġperio dico
d esign
83 95
ĠG allery
Ġbal cone
Ġpass ano
de la
n ti
aa a
Ġinse dia
ĠQu ale
os ter
ĠI m
Ġfer mare
ĠVer gine
Ø ±
co very
nV a
ri ver
la ni
Ġri v
Ġgara ge
Ġpassa te
Ġavver rÃł
is tituzione
Ġpur chÃ©
Ġsor prese
Ġd r
Ġabbond ante
Ġillustra te
ĠLi bia
Ġconsiglia ti
r itorio
9675 3913
Ġtramon to
K L
Ġcon so
Ġabband onato
ï» ¿
Ġaccon sento
pend enti
O LA
tta forma
crati ci
nD ichiarazione
nP ul
ĠT EM
Ġcar enza
998 86
Ġris contro
91 26
Ġmon di
Ġperm etti
este tica
Y L
ĠCON TRO
Ġmin or
di datti
C J
Ġcon clusi
is tare
ĠC ora
inc idente
ĠA nimali
Ġp df
Ġterri bile
Ġten er
Ġguada gno
Ġri dere
Ġmi rata
tr erÃł
0000 4
8 137
Ġpopo lazioni
Ġfla sh
Con tinua
Ġtorn ano
ĠPa rola
mb ur
998 85
997 15
I tali
Ġdecen nio
Ġri uni
C RI
nInter net
Ġcomba tti
5 02
Ġversa mento
99 963
era zioni
ĠCas tella
Ġappre zza
6 29
U tili
MA TI
gur t
86 56
ĠPer m
ĠTra pani
ĠD an
SS E
ĠS cola
Ġspo t
Ġprima rio
ĠNess uno
ĠP onti
pi di
Ġsca tto
Ġader enti
ĠSil vio
tter Ãł
95 21
n chi
Ġmisura zione
S X
994 2
Ġbasa ti
Ġsov ran
F CC
G V
Archi vio
C ar
ĠChia ma
ĠC y
Ġcol on
Ġse c
DF E
Ġcostitu ire
Ġfer ite
Ġom bre
89 03
Ġs bi
86 06
Ġbattu ta
ĠP alla
5 10
nS ERVI
ĠK ar
Ġcal ma
ga tori
nO ro
di enza
Ġmacchina ri
Ġg hi
ĠGre gori
Ġfil tra
Ġmoder n
Ġro sse
ĠRo berta
ĠAN D
cin que
9786 124
mo difica
Ġ 82
Ġimpegna ta
anu ary
n w
Ġtran sazioni
ĠMe zzo
ĠCar b
Ġterrori smo
Ġsor te
893 8
Ġri lan
Ġpie ghe
Ġinte sa
Ġbru tto
Ġ' '
Ġintelli genza
87 55
Ġinten sitÃł
96 20
guarda re
Ġdire tte
ĠNa to
Ġsm ettere
U U
arg ento
ĠFel ice
Ġpi eni
nV illa
ĠR eli
Cli ck
Ġsepp ur
re qu
Ġturi stiche
Ġdestinata rio
Ġfeste ggiare
Ġaffilia zione
Ġcomp ie
Ġcontrolla ta
Ġba tt
sp etto
ut m
nStu dio
Ġla sc
el mo
Ġop tare
Ġm et
Ġsvaria ti
Ġprend ersi
Ġcred enziali
V OL
en go
OK I
Ġomo gene
Ġspecial itÃł
Ġva so
nSpe dizioni
Ġprossi mitÃł
nC uriositÃł
Ġanticipa to
tr one
ĠB oni
la t
Ġrapi di
ĠGo ri
ir t
ĠR io
Ġcas uale
Ġdemocra tico
ria mente
El sa
Ġton nellate
S hare
BB E
li ght
Ġdifferenzia ta
sie de
ĠIn stallazione
ere bbero
nG er
Ġtor nata
IA LI
Ġp end
Ġcolla na
ĠA gn
Ġvie ws
ĠVi p
nTra ttamento
Ġimped isce
Ġav vio
Ġinteress ano
nA ssicura
Ġrice vi
nS ara
ĠMar tina
Ġscomp ar
era ttizzazione
nM onta
Ġcaratteri zza
mb ri
ĠW ashington
UN E
95 00
93 36
Ġconversa zione
eric ordia
ch t
ĠH A
ch ing
ĠY oga
Ġdiagn ostica
ĠCol li
d ell
Ġrifer iscono
ĠPas quale
ck y
Ġaccon ten
ro l
Ġsor veglianza
est Ãł
Ġcar tone
K N
Ġmedie vale
nU LTI
Ġamp ie
ĠS chi
nP urtroppo
Ġpre ce
ĠT UO
Ġav essero
men sione
s ites
Ġbe i
pre ssi
Ġmar gin
ced ura
nCli ccando
Ġv adano
Ġresi du
ĠCastel nuovo
44 77
Ġgiuri diche
Ġprom uo
Ġinclu dere
Ġlog iche
Ġfissa tore
nDo tt
Ġ \\
Ġatmos fer
46 35
Ġimb alla
da s
ĠPRO DO
u le
prof ession
nDani ele
P AR
nMa teriale
Ġrappresen tata
94 43
nD ol
Ġnas tro
ĠPre venzione
Ġleg alitÃł
Ġarchi via
ccan ica
nP ulizia
Ġunivers itario
Ġstra na
Ġfrequ ente
ĠLeg ali
Ġvol entieri
Ġbolle tte
Ġve la
Ġproce de
ĠBa ra
ĠResponsa bili
ss ic
ĠRapp orto
Ġoli va
n fa
Ġsono ra
Ġsvilupp ati
Ġtra guardo
93 64
Ġgu ardi
ĠBr un
ES A
ĠChampi ons
Ġaumenta no
Ġprom essa
Ġsa pre
nCon corso
Ġinca ricato
3 99
D P
co de
et nam
Ġstu pefa
un zioni
ppo la
ĠN ic
Ġtasti era
Ġta gliare
Ġrego lari
Ġm uri
ĠM ano
ĠA MA
do cu
ĠI S
sen t
M on
Ġma lati
ĠFoto grafia
ĠA more
83 05
ĠB oss
nV ita
p olitica
Ġhard ware
ĠFeder ica
ĠB isogna
Ġripri stino
app orto
Ġdi viso
Ġcan one
AN TE
Ġd uri
Ġ7 1
Ġarti stiche
Ġripet ere
nO rig
Ġcomple tamento
c etti
Ġcompa re
ĠRi produzione
nB ene
97 81
nG I
Ġadotta te
C re
Ġgro ssi
ĠE gli
gio co
ĠUtili zzato
nT estata
5 92
925 7
Ġprodu ttivitÃł
Ġconces sion
Ġag ente
Ġbar riere
Ġfis si
ĠO s
Ġcontribu isce
nre dazione
lan ta
fre do
Ġaffida mento
Ġpeggio re
nT esti
truttura zioni
ĠL iceo
Ġper one
0000 186
6 82
mi anto
vel op
at tre
Ġlu cro
Ġaccompagna ti
Ġca de
90 15
ĠGe orge
er tamento
Ġso p
Ġri vest
ĠCo per
ĠPrima vera
de vole
Ġfas tidi
ĠAR TICOLI
anch eria
26 53
Ġc itati
Ġacquis ito
ri de
":" âĢľ
ĠTras lochi
Ġs anta
ĠTecn iche
acc usa
nS mart
991 27
Ġintro du
Ġriten uti
FFER TA
Ġtecno logiche
Ġprati ci
f ondo
com messe
ĠR assegna
oni ere
ag osto
Ġcomple sse
Ġmas s
Ġprog resso
ĠEx press
c ity
Ġla p
Ġcos te
ĠCon vegno
Ġcom media
ĠH is
Ġsignifica tivi
ĠRi viste
Ġcarbon io
ĠLib era
Ġfrigori fero
ĠT UA
cca bile
Ġstar t
di um
g by
93 14
arra tiva
aaaa aaaa
mon d
ĠHo t
Ġp in
Ġpotre i
Ġcon durre
ĠG ine
Ġdiven tati
ĠGa etano
Ġsu ona
nBa ck
ĠL oren
Ġinterpre ta
po ra
Ġatti vati
ĠNess una
tan t
Ġvita mine
Ġcomoda mente
Ġav enti
nLOG IN
. ).\
ĠSe mbra
pre si
ono re
Ġ 86
inca rico
Ġco up
Ġequival enti
om an
FB C
de f
Ġso f
Ġdovre mmo
Ġpreco ce
Ġnas cere
ĠRe ale
Ġmolti ssimi
bur go
994 15
Ġaffid ato
Ġti more
Ġse ta
83 74
07 85
n esto
Ġbandi era
Ġforma ggi
Ġrisa lire
93 06
appar tamento
Ġcap itano
inf in
A EC
in tra
Ġlie ve
Ġsemina rio
tta rella
Ġaggiorna te
83 42
82 2064
ĠM iss
93 96
ord inanza
ðŁ ĩ
Ġsemina ri
gu sto
Ġtrasp ortare
ventu ali
ga me
Ġguida te
ord iamo
93 56
tell ina
nC ari
ĠM it
Ġasia tico
inqu inamento
Ġna poli
ĠG uide
ĠGian carlo
Ġele ganti
Ġparente si
996 8
Ġcir colo
nF rancesca
sci ano
cor ri
! âĢĿ
Ġucc elli
ri ch
Ġcon sentendo
96 31
Ġblo ccati
Ġso gna
Ġdo es
v ite
Ġfissa re
Ġserra tura
97 80
ĠF ER
Ġsensibili zzazione
Ġdimostra zione
F CB
ĠB ass
Ġdet razione
ĠG il
S TE
ĠSO LO
Ġsogg etta
Ġtrasfer iti
Ġopport una
Ġmed itazione
Ã «
nMi gliori
Ġg al
96 28
Ġsto maco
Ġos c
U RI
rin ten
ba c
Ġacqui sizione
Ġper correre
Ġpen et
Ġris ulti
QU I
va tori
gli ese
Ġscel ti
individ uo
274 13
95 63
nO ff
Ġlacri me
Y X
Ġlock down
Ñ ĥ
Ġdi la
89 05
Ġand ranno
Ġis la
z ero
ĠMon ica
Ġa mante
ĠEd itoriale
ĠVo i
ite map
nConsi glio
Ġin vol
di li
Ġb esti
Ġincre mento
Ġl us
ĠMil itare
ĠM IS
Ġinca richi
nCon tenuto
5 19
Ġvuo ta
ĠSp ero
Ġ __
is so
Ġsape va
ĠF ul
ecc ellenza
Ġcamp e
vi vere
âĢ¦ ","
me mber
Ġser vice
g eria
Ġsp era
TORI O
nQu est
ĠA TTI
Ġcla uso
A u
ten o
d an
L ink
g ana
Ġav visi
V al
mp oo
A T
Q B
Ġdisp orre
EN SI
fi la
B a
mp h
99 966
ĠL inkedin
omp agna
82 94
DF D
âĨ Ĵ
Ġresi stere
Per formance
Ġgo la
le one
Ġdif end
Ġpor zione
76 0
ĠLa vora
p ico
Ġp lus
ĠH O
it ing
Ġvir tuali
nVI DEO
ic ci
Ġau la
E EC
Ġmacch ie
le vo
Ġsche mi
Ġeletto rali
Ġre sidente
Ġabb onamenti
Ġpi ene
Ġab ito
Ġcomune mente
Ġo rologi
87 45
Ġmolti ssimo
CI TA
Ġaffron ta
Ġcarta ceo
Ġecc esso
os ia
nF orum
Ġcapo lavoro
Ġma trimoni
Ġnos tal
Ġgra fici
anzia mento
Ġaggiun ti
Ġlib ere
Ġ ),
ĠGre co
Ġacc org
us sia
997 8
Ġuni forme
o ver
ire s
v g
ici liano
999 17
Ġincontra no
Ġaccompagna re
ĠMed ico
Ġstraordina rie
Ġarri vando
Ġin ox
93 11
Ġaffida bilitÃł
v arli
van gel
22 14
91 05
S te
Ð ²
commer cio
pr ende
lati na
95 97
a men
TT P
Ġprin cipe
83 46
ven e
nIn te
ĠT ir
nRegistra zione
Ġdecora zioni
Ġesclusi vi
ĠPia ce
Ġcolo rati
ĠSTA MPA
Ġweb inar
ĠG PS
tter ia
TA L
Ġfo gna
Ġso glie
ul teriore
ER IA
Ġesclu sione
etra ggio
Ġ 92
996 15
Y N
Ġsuffici enti
ĠFa coltÃł
H a
Ġall un
987 0
Ġtu torial
Ġpro viene
h elp
V T
Ġcal za
as ca
Ġo pa
ĠD uca
996 03
90 23
Ġri para
Ġcol lina
Ġcondu cente
Ġfu sione
âĢľ .\
nWeb site
nB andi
CC IA
? )
vi go
ĠL and
Ġindivid uo
e mo
n po
Ġdif ensi
ĠPAR TE
Ġg om
T re
Ġinca rico
960 2151
Or dina
b ero
ĠM ul
Ġsca tti
ic tion
ĠA U
prob a
ĠRom an
Ġmas sic
Ġporta bilitÃł
ic io
Ġtro ppe
quad ro
ĠT icino
lessi oni
Ġvolonta rio
85 35
ghi ere
Ġstimo lare
994 26
tra ns
Ġd ito
O X
Ġcoinvol ge
ĠC art
85 45
ĠComm unity
ĠTab ella
Ġdele ga
nEle zioni
Ġter mina
B DE
ĠS AR
Ġorg ano
nE li
Ġcol line
Ġsegre ta
ca ro
sp an
86 03
85 23
Ġd etra
erca tini
tar mi
fe e
ĠMa la
tta ri
ĠPic colo
ĠCa mm
Ġpen n
Ġabil itati
Ġmo ra
r erie
Ġalle gata
Ġdesid er
Ġarricchi re
Ġaggiun gendo
TI VO
ĠMich el
gi lla
Ġtranquilla mente
Ġra ggio
nF arma
m estra
in no
Ca sa
Ġbi mbo
zion alizzazione
ĠL es
nC olore
Ġeduca tivo
Ġringra ziare
Gra zie
Ġinterpre tare
ĠM io
Ġpro roga
ĠHar ry
96 78
ĠSI CU
ud ita
be e
Ġf all
P Z
Ġs it
ali o
Ġriserva te
Ġcorre ggere
ĠV il
Ġsp ina
ĠL G
nP osta
Ġ1 986
gua glianza
Ġscegli endo
er ona
Ġsignifica tiva
d one
Ġrego labile
Ġcresci uto
97 98
Ġsp unto
ĠF eed
Ġdi ssi
988 23
me la
Ġin so
gu ida
Ġspetta colare
colo re
Ġimp ugna
b ina
Ġli ceo
Ġgra fiche
ĠCampi onato
Ġcli matici
Ġdep ositi
gi menti
nMo re
na p
Ġsp onsor
Ġprof essioni
Ġfar Ã²
ĠF RAN
ĠInterna zionali
Ġfam ose
Ġveri fiche
Ġfal sa
Ġsco pre
Ġsegu ita
Ġrifer ito
za tion
nPer chÃ¨
Ġsen z
Ġcorri do
de m
ĠSeb asti
7 90
Ġpelle g
tri che
Ġp alle
Ġm unici
Ġpul santi
Ġscri pt
ĠP VC
Ġapplica bili
Ġcucina re
Ġstraordina ri
b elli
ĠCes ena
ĠCON SI
ĠA us
arta menti
ĠQu ella
Ġs gra
te mp
f io
ĠP ensa
Ġa gisce
tan eo
Al tro
po int
996 77
nd al
nS COPRI
tea tro
Ġpsico logica
poli cies
Ġrive lato
Ġquarti eri
Ġun ita
Ġpre ziosa
ere o
estion i
Ġappre zzare
97 51
g ento
ĠUr ban
ĠT es
Ġa to
Ġsoff rire
nDi mensioni
nD O
!!! !\
Ġfissa to
s r
Ġvali di
Ġclass iche
ĠS MS
ĠA wards
[ âĢ¦
B y
Ġa p
ĠJ an
F IA
Ġpri m
ĠZ i
ĠPesa ro
87 44
va sco
Ġcon sta
Ġar r
Ġintelli genti
n k
Ġchi miche
arti gianato
Ġri si
Ġg astronom
ĠD onato
Ġdenuncia to
bbli gatorio
Ġtecnica mente
ĠR ita
ĠS icuramente
ĠS ag
Ġcura ta
999 27
Ġan goli
Ġapp a
MP RE
ĠAr ri
nCom unque
Ġinca sso
Ġcontatta ndo
Ġgiuri sprudenza
Ġdestina zioni
Ġge lato
lan z
ĠCoopera tiva
Ġfum etto
Ġvege tari
Ġprote gge
Ġdi venti
l ossa
Ġconten to
ĠComunica ti
zi ente
98 82
Ġp anni
Ġan date
Ġp anno
Ġvaria bili
d ona
Ġpad ella
ĠTecn ici
97 71
Ġper form
ĠS essione
ĠFin anzi
nCor onavirus
Ġga me
Ġbamb ine
Ġdis tra
96 68
Ġrit orn
Ġconvi venza
Ġu rl
885 6
tropo logia
ĠUl tra
A ll
Ġlascia ti
Ġcamp er
Ġvole sse
ĠGer usalemme
Ġstr ing
pi razione
ĠR esearch
nE co
ort let
K U
inter faccia
Ġd entale
ĠP istoia
87 14
ĠGala xy
Ġse gn
Ġalti ssima
Ġassicura zioni
ĠCol ombo
ĠD ar
Ġun ire
Ġte mpio
ĠTa glia
ĠAm nesty
gh ese
in co
Ġinsegna to
Ġpo vero
ĠT ai
categori a
997 21
ĠO k
Ġd ur
da bile
Ġsoli da
in va
25 24
Ġrou lette
Ġcondu ttore
ĠEster i
Ġra mi
g uo
997 03
87 84
sh are
nP riva
Ġforma le
lo tti
f ron
con n
Ġtra cciano
Ġ( @
end one
95121 56
90 27
Ġpa tria
Ġcontinu ando
F CD
ĠW alter
Ġconfron tati
Ġm t
Ġsera te
ic chi
Ġed itori
22 94
omb ino
nC osti
g ali
Ġgen u
999 05
Ġta zza
Ġcomp arsa
ĠGri llo
Ġw orld
Ġro se
Ġs teri
gio vani
nF ree
ĠFor te
6 10
ĠA ur
Ġpiano forte
nF ino
nCon ferma
one y
acc io
i ro
Ġsc uro
Ġvi bra
Ġdiscre zione
Ġriten go
Ġcal l
Ġfed ele
Ġacco glie
Ġd os
Ġvia le
Ġmis cela
Ġer ba
Ġcondi visa
ĠH alloween
ĠDAL L
Ġdiven ne
Ġdotto r
Ġma turitÃł
ra s
ti sta
Ġrientra re
Ġridu cendo
Ġcli p
ĠA udi
Ġfir me
93 43
man ente
ĠB asso
Ġlampa da
ĠE ssi
Ġin segu
nAcqu isto
Ġar monia
F W
Ġf itness
Ġlava trice
me c
83 28
al larme
ĠC ER
Ġparad iso
ĠDol ci
{ \"
G a
ĠEs sen
ĠR y
in ner
Ġtu ba
ĠDo v
Ġ1 985
Ġadd osso
ĠPoss iamo
uta ta
ĠPremi um
ĠCa mbia
Ġto uch
ĠVed iamo
Ġnascon de
nFil m
ĠGru ppi
ĠS ir
F DD
Ġconta gio
Ġpro vocare
Ġaiuter Ãł
Ġdep utati
ĠFarma cia
gre en
no re
cqu e
5 29
he tto
che ca
nPoss iamo
Ġadegua tamente
ĠDis claimer
Ġinf ortuni
ĠSo c
u tando
ca d
g ino
ĠGiovan na
03 15
nS arÃł
8536 9414
a ffer
Ġesegu iti
995 33
nD IS
Ġspiega zioni
Ġmeravi glia
Ġme zz
Ġc ing
Ġca us
ĠCa mer
Ġin chi
ĠL or
de o
96 08
d isa
nI mpianti
Ġur gente
in al
b rale
999 15
Ġsa pi
nT orino
sto viglie
ch el
nMer coledÃ¬
alizza ta
Ġcuo cere
ina u
ader no
Ġapplica te
ON DO
Ġconclu sa
Q R
Ġatte so
uro ra
L X
Ġricom incia
93 93
Ġsegna lato
Ġritra tto
Ġdisabil iti
eria li
ĠD ichiarazione
nM ani
zi ani
Ġpole miche
Ġmis ter
Ġe bano
Ġass orb
Ġprec ise
Ġra gg
ann el
Ġricerca re
Ġbu t
ED F
Ġdip into
er na
ar s
Ġbi onda
Ġitinera ri
ar ente
94 51
ĠSo ccorso
Ġcompon gono
Ġscoper te
Ġcli matico
ET RO
Ġfaccia ta
Ġprefer isce
ĠCa pri
lib ero
ĠLa vori
Ġsan zione
Ġlim itati
ĠP rati
S pe
ĠWillia m
M R
b l
Ġper no
eri es
Ġsal vato
ĠSc uole
ĠFor lÃ¬
94 63
Ġsitu ata
Ġci vico
ĠR ia
nS kip
Ġfri go
Ġo tte
Ġad dom
Ġnecess itano
va ggio
ĠP osta
lo ca
Ġos s
ES SID
Ġinser zionisti
ĠE state
esso rato
Ġresi stenti
Ġcomp osti
7 97
Ġtrasforma to
ĠLa mp
cher anno
Ġpre da
995 2
91 84
Ġsperi mentale
en zio
ĠR OM
Ġiso la
ĠG RAN
Ġsogg ette
n facebook
ĠAl ba
ĠEd ition
Ġcambi ando
Ġco d
Ġtatu aggi
nQu ale
ĠUn ited
vis s
âĢĿ ).\
E milia
EN TO
Ġvo cazione
' .
Ġback up
sti ma
etti vitÃł
nPi ano
94 64
Ġprodu cono
Ġreali zz
ĠE gitto
oro logio
vis or
Ġro mani
Ġsan gu
96 48
ĠSte fania
ĠLu cio
ĠPro getti
nS cienza
Ġph oto
Ġun itamente
Ġsp l
Ġaver ne
speci e
? âĢĿ\
94 53
Ġclin ico
vali ere
v etto
G en
nN uovi
s toria
nC arlo
ĠF ashion
Ġ1 980
ĠRag usa
ĠL td
ĠVis ualizza
sp or
cu e
993 455
EF C
Ġcar tell
ĠSa ba
Ġvest ito
c itta
ord s
sc lu
Ġnon no
Ġriguard ante
Ġcomp agna
vis sima
ĠAN NI
Ġsta sera
inis ta
Z T
vend itore
D om
Ġele ganza
ĠR enato
Ġaccade mico
F EE
su per
Ġesclusi ve
ed ding
ggia tore
g ale
Ġstruttura li
nG reen
Ġho c
ĠPelle g
93 18
94 47
ra zzi
86 46
nB re
Ġfer iti
Ġpro vengono
E sp
Ġsequ estra
Ġin tere
fac tur
â Ī
nS anitÃł
al ternativa
er os
AN NO
Ġfru ibile
ĠMa ppa
M as
co ol
86 21
ĠConsul enza
ĠS w
s ini
Ġaggiun go
pro getto
Ġfre schi
ru ary
Ġcompli cato
ĠGio vedÃ¬
A U
Ġpura mente
nS ele
D FB
Ġappropri ato
Ġordina re
Ġconsigli are
Ġclassi ficazione
Ġton alitÃł
LI ZIA
u tenza
999 27413
ro cchia
in nova
Ġch io
Ġinf i
Ġgenera ti
k g
Ġc yber
nAbb onati
Ġpia zze
Ġgi rone
999 24
87 47
gi ene
IN TER
mato logia
Ġimpie gato
Ġdip arti
Ġdi missioni
Ġg ine
Ġch iedi
Ġriven dica
Ġsalva guardare
Ġmeridi onale
99294 853
ĠRos ario
nAn teprima
Ġcomple tato
red ito
ĠF ord
nCon segna
ĠL gs
... ]
Ġro utine
Ġse dute
E d
Ġchia mano
on no
for ti
ĠFla sh
Ġderi vante
Ġbo dy
bi ke
ĠPrin cip
Ġproblema tica
nE uropa
Ġletter aria
Ġ1 07
F H
Ġvic inanza
Ġâ ľ
ĠNEWS LETTER
Ġni do
scri vere
Ġpresen ze
Ġpoli zio
83 55
998 05
ado lesc
Ġnote voli
Ġassi mi
er ing
fa zione
Inter net
ĠA BB
il s
ti re
Â Ĵ
Ġassum iamo
J B
Ġre in
996 2
Ġf olle
Ġtele matico
Ġmemori zzato
Ġtra dotto
nM artedÃ¬
r ente
996 76
Ġri medio
Ġazz urro
EL O
ĠMen u
Ġsenti amo
K Q
ĠGa mb
99475 23
ĠD ON
Ġreper torio
Ġconquis tare
eri bili
atti va
Ri fiuta
to di
Ġdovre i
Ġsupple mento
oo oo
ĠS cia
45 11
Ġterres tre
Ġca la
Ġaiu tando
Ġconver tito
Ġro ba
Ġeste so
Ġbu tta
Ġri preso
Ġdimostra no
n iche
im migrazione
c ose
Ġdestina te
Ġh osting
Ġsignifica tive
J U
Ġsmalti mento
Ġaffi anca
Ġperman enti
che ggio
ĠY our
to collo
ch ange
998 25
ve gia
ĠS chia
polit ano
Ġben chÃ©
ito raggio
Ġleggere zza
ck aging
ar ticoli
ĠP ort
Ġinsegna re
Ġdisocc upazione
LE S
in etti
97 41
93 27
mar ks
cen t
nCON DI
Ġto ll
qu esto
f ea
s tore
Ġgus tare
ĠD ele
ĠS enti
ĠVi va
atti vo
nS tar
11 66
94 59
ĠSa vona
Ġecc lesia
Ġtraccia to
Ġcon tanti
Ġ î
86 34
Ġcal colare
O sservatorio
Ġesten de
Ġinevita bilmente
Ġgre ca
Ġspor co
ĠFA Q
Ġv ille
Ġocc identali
Ġgioca ttoli
06 16
inte gra
97 70
89 25
nRe golamento
ĠD unque
ĠâĢ º
Ġtesta re
pi logo
nD A
Ġdigitali zzazione
Ġtecno logici
Ġca os
ĠCo rea
OR K
Ġintro durre
y l
di fiche
U p
998 13
Ġpreoccupa zioni
Ġfedel tÃł
ĠK en
ar ca
Ġvic inanze
ma ra
Ġdecora zione
Ġo dio
OKI ES
ee p
Ġsopra tutto
Auto re
com ando
87 33
ĠTi eni
Ġraccom andata
Ġsopravvi vere
Ġanalit ico
Ġtranqu illo
Ġfin itura
CA L
nG aran
Ġpad roni
nAR CHI
Ġcomp os
Ġe tica
C V
n video
Ġprodu ttivi
Ġfol lia
ĠMi glior
tent ri
Ġloca zione
Ġum iditÃł
Ġperce pire
Ġe tichetta
ĠApp artamento
Ġacce dendo
ĠTh omas
c art
ĠBi bbia
ĠS ENZA
Ġcrit ici
998 14
nSegui mi
Ġinter ru
Ġpa ure
Ġ1 987
ĠBas ket
Ġriparti re
97 10
Ġp iste
Ġrazzi smo
Ġdott rina
Ġrit ardi
ĠQu aderni
nAllo ra
Ġcro llo
ĠS tro
Ġcer chio
Ġimprend itoriale
Ġfron tale
ul sione
Ġrichied ente
Ġver tice
bo lo
ando lo
Ġese mplifica
Ġaffron tato
Ġcere ali
Ġ1 984
b ec
go lari
quo te
Ġinter viene
Ġdon are
el come
Ġcatalo gazione
87 36
Ġcia o
daf one
nC erto
val utazione
nNoti fica
Ġlumin oso
Ġov vio
93 44
DF C
di ente
ĠA la
ĠRe cord
Ġtari ffa
Ġlega mi
ĠAut on
Ġvo cale
osc ere
s inistra
Ġv es
BA E
ro ssa
Ġstero idi
AB D
ON TO
ĠH en
5 99
Ġsposta menti
ĠDis cussioni
Ġdiminu ire
ie v
Ġpericol ose
Ġinqu inamento
Ġmandor le
Ġs k
993 76
ĠâĨ ĵ\
Ġricon duci
Ġferrovia ria
al ber
Ġquind ici
mer Ãł
ONA TI
ĠD eter
Ġvideo giochi
Ġemer gere
Ġtra ffic
Ġind ice
ĠIn glese
ĠA ssa
Ġta tto
ĠSca rica
Ġbru tta
pre zzo
ĠP ulizia
ca mpo
Ġinten dersi
Ġsorprend ente
Ġ 89
pr ono
UL TI
Ġsu on
Ġdiff use
ĠG ames
998 04
ĠSa pienza
VA L
os tar
ĠIn contri
ĠW ine
ces se
av ide
Ġom osess
Ġbasa te
Ġd ann
Ġstudio si
Ä į
Ġre spon
ĠE ser
mina rio
EF D
Ġro tazione
nA PP
Ġav vale
nPro du
Ġconta no
Ġquali ficati
Ar no
f onia
B DC
cilia zione
Ġpre cari
Ġstabili mento
Ġesp an
ĠColle zione
ĠCORRE LATI
ĠA sti
Ġben ed
ĠMassi miliano
ĠU ffici
ĠVal erio
Ġlim it
ĠA lessio
Ġs Ã¨
pa th
Ġri for
nC ia
el lu
. ;
857 0057
Ġnu da
nD ai
Ġli ce
Ġindi ffer
Ġquotidi ane
ĠH TTP
B ED
Ġacce de
esco vi
87 75
Ġcomp ortare
Ġdocu ment
fer rato
Ġt un
ĠCon tributo
Ġvacc inazione
Ġbas tano
Ġnasc osti
85 26
Ġripro du
ĠM ale
k on
Ġimprend itore
nB as
Ġp ru
n uova
Ġfavori sce
ing hi
tto cento
Ġpro iezione
83 13
Ġan omali
20 24
996195 55
gg le
997 35
Ġba cio
ĠMal ta
illu minazione
Ġfar li
Ġlavora tive
Ġserra menti
po la
998 21
Ġmas chio
Ġra me
92 86
Ġmensi li
20 25
Ġ1 18
ĠR omeo
Ġceleb razione
Ġcristi ano
ĠIstitu zioni
Ù Ħ
ich Ã¨
Ġevol uti
ttan ta
Ġinf issi
QU A
Ġtr ent
99 976
cultura le
14 54
Ġgiun gere
Ġdesid erano
Ġtele camere
V ISTA
nS O
Ġsper iamo
Ġp anna
va glio
Ġste p
Ġri peti
esis tente
inna stica
ĠC op
Ġdi rlo
Ġero gare
nCONTA TTA
Ġpar ty
TI VE
nM anda
i bili
ĠSP EC
go zi
nRis trutturazione
998 84
ĠEurope an
c Ã²
anda li
3 97
s anta
ĠO ctober
Ġregistra rti
6 99
) .","
pa ta
LI CA
ĠR ho
Ġfer ie
nSe zione
Ġcontra ri
nA C
gli anze
Ġad esione
Ġcollabora to
b ici
Ġdip inti
Ġro tto
ĠBi blio
ĠGio co
O cc
Ġacc use
nSpe ciali
Ġinvisi bile
Ġes iti
Ġpol veri
mma colata
Å ¡
Ġsor elle
Ġcatto lici
ano va
Ġesegu e
cia ti
An nun
ĠRe centi
ĠJ ose
ĠAd s
ĠF ede
Ġstruttura le
Ġimp osto
en tri
Ġmedesi mi
ĠRom ani
ĠA ttualmente
nRis orse
Ġaffas cina
pri etÃł
ĠPo tete
F V
986 88
91 86
C omp
ĠFran k
ĠCin que
Ġartigi anali
Ġtran sazione
ĠS EC
Ġapparecchia ture
nAl cune
Ġle d
Ġindire ttamente
Ġcompi mento
= &
nT O
B EE
5 97
08 07
Ġinsegna mento
995 21
Ġved endo
nG e
ĠP AS
ĠConsul ta
la mi
al leng
Ġprote ste
3 92
Ġes ito
nA tti
F orum
18 25
Ġapp i
ĠB MW
ica le
Ġfissa ta
999 14
ria tico
Ġsan gui
ĠD ettagli
cu cina
nPre stazioni
I Y
nS et
Ġca mer
Ġir ra
ĠO ffic
ĠP R
Ġlo tto
Ġcomun ista
.. ...
Ġritro vato
Ġcandida tura
Ġmal fun
Ġatten de
Ġ2 20
Ġsp into
Ġm entali
ani mazione
Ġcur riculum
a ker
986 03
arti st
nVis ite
b iti
Ġperf ette
Ġpun tate
nCalda ie
ĠFi glio
Ġcrit erio
Ġdel itto
Ġstra ge
v itare
Ġripro durre
Ġne ver
ĠCre ma
Ġw he
arm ella
ĠNe uro
95923 173
Ġo tta
Ġbron zo
Ġigi ene
ĠHer mann
Ġsenso re
ĠN er
Ġsport ello
ĠBatti sta
Ġle gna
qu attro
Ġad deb
22 25
Ġsovra pp
Ġconsid eri
Ġin gegneria
Ġcomp enso
Ġapp ositi
ĠSpe dizione
Ġfas hion
tar ono
nB r
cc anti
nRe alizzazione
ĠS H
ssi o
Ġstrani ere
nEs sen
Ġdenomina to
U r
m esi
Ġcancella zioni
ĠGaran zia
Ġread ing
ĠB and
Ġdidatti che
PT CHA
nP AG
Ġdetta gliata
Ġvacc inale
com m
d ello
Ġcontribu iscono
con sul
nIN TER
94 21
li sh
94 88
G HI
ĠP AN
Ġp ensioni
ĠR ou
ĠLo w
Ġdedica re
H z
menta ti
Ġadd estra
ĠBer to
Ġf io
ĠRic orda
J E
W T
pre ma
ĠLo cale
85 15
b ca
E r
Ġcompi lando
ĠPro seguendo
89 27
ĠL ettere
Ġesp lora
n ho
87 16
w eek
nMod ulo
95 61
Ġdisabil it
914 8938
Ġgenti li
9787 971
ĠM EDI
ĠCol labora
Ġad erire
ĠRepubbli cana
86 16
Ġesa us
p ass
Ġfasc ismo
ĠPopo lo
Ġincen di
998 83
Ġsacri ficio
ver n
ĠS ia
Ġdo loro
Ġrica vi
A cce
24 52
ba ma
star tup
ĠNo tte
Ġcorre zione
j an
Ġrile vato
991 03
86 44
ah oo
Ġistitu ito
ĠUtili zzando
Ġidone o
Ġpo dio
po ol
Ġsosp etto
ĠIn vesti
Ġcoper ta
Ġturi stici
Ġconnetter mi
993455 23
Ġenerge tici
nM ari
999 07
ex amen
Ġrele vant
nA genzia
Ġmedic inali
Ġuser name
) )
n ÃĤ
93 33
Ġmag ica
Ġu tilitÃł
al tri
ĠMar coni
Ġsal one
ĠBan k
Ġdesid erato
ver lo
ĠBasi lica
F DE
ĠP L
Ġun ito
ĠMessa ggi
se mpre
! âĢĿ\
uo te
Ġappare cchi
âĤ¬ âĦ¢
LI S
nS E
Ġinfin ite
Ġh d
Ġcan celli
Ġ1 981
pa y
nNa me
95 96
du plicato
gia te
ra q
GRAM MA
Ġamm esso
Ġgiappon esi
ĠO lio
Ġs tro
gi an
ĠC era
93 37
Ġfragi li
Ġore cchie
D FF
995 46
ica to
nAn ton
ĠG uid
86 04
Ġs aga
ĠTh ai
ĠWh ite
ĠSu b
ĠB ad
u cc
Ġso tter
Ġdif ensore
J R
ĠG IA
b ari
Ġ null
Ġs ved
Ġprefer isci
che tta
Ġtor tura
Ġreli giosi
ĠNatura le
AC I
Ġprogetta re
95 31
ĠSi mona
Ġfir st
Ġcondom in
87 23
ĠM B
Ġra dic
ĠSal ento
Ġbio diversitÃł
87 24
ul so
915 6
acc ertamento
m ita
ta ni
ac tion
Ġvin coli
PS ESSID
Ġa mati
ĠL ET
ĠG lo
Ġom icidio
Ġad ulto
Ġavanza to
EF E
ĠNO TIZIE
zz one
nLe gge
nMo da
Ġra ri
a cido
corr enza
F Z
vi mentazione
Ġten tare
ra tion
BB C
ĠP hili
Ġsta tuto
nSosti eni
Ġconta bili
Ġrice vono
ĠT in
ĠLi ght
Ġcas ualmente
du cazione
Ġrappresen tati
Ġnatali zie
Ġro ccia
ĠNi ente
a fa
Ġincre menti
nS tre
ord press
8000 9764
Ġleg go
ĠCA MB
amici zia
Ġtip iche
ĠShi eld
u lanza
97 01
nB ol
ĠS ali
f ice
nQu ick
la di
TT ENZIONE
Ġspia ce
Ġsp unta
Ġdina mico
nL ine
ĠRica riche
Ġcreati vi
Ġver tici
m ista
84 55
ide ale
segn ante
L P
un k
Ġil lus
ĠCred its
Ġgen io
94 95
ĠFior entino
Ġprodu ttiva
Ġta ba
Ġri forme
Ġcoltiva re
G NI
ĠPubblica zioni
Ġcoer ente
Un itÃł
ĠB EN
ura ti
Ġferrovia rio
ĠMa mma
p ista
93 22
Ġdel ine
Ġpo int
ce b
06 64
Ġdegu stazione
T ON
Ġaffida ta
1 995
Ġra d
nEd itore
Ġvergo gna
Ġi Pad
ĠV enti
Ġmonu menti
Ġcom missario
ĠD isponibile
ĠSi gnor
Ġintito lato
ĠB AS
Ġcons or
ĠTer ni
n grazie
Ġin gra
Ġacc ess
Ġprima rie
Per chÃ©
assegna zione
Ġspagno la
P PA
zz etto
ðŁ Ĵ
997 23
c ta
Ġa tt
ĠSta tuto
ĠBene vento
Ġdefin ite
Ġvaria bilitÃł
Ġed u
Ġa mazon
ĠFor mula
ĠGEN ERA
ed u
quo tidiano
27 55
Ġragg ru
Ġesclu dere
Ġrifle tte
Ġtorn erÃł
Ġsu onare
nDi venta
998 03
Ġcom me
ĠSc and
ĠPre sidenza
Ġacca tti
all enamento
col la
n ell
B ar
998 07
Ġcalo rie
didatti ca
Ġvit torie
ĠB LOG
Ġconsenti rÃł
Ġcon no
S G
06 56
EB F
Ġtu mori
Ġtempo rali
uli ci
Ġesp orta
vit Ã¹
n tra
92 85
in vito
CO LA
fo bia
ĠA sp
ĠMo tori
nMa tteo
Ġsposta mento
Ġme ga
Ġau silio
13 07
Ġj e
bo id
ĠNOS TRI
Ġdisciplina re
ĠMar ket
ĠMON DO
Ġporta ti
ĠF uoco
Ġconce dere
fo ris
illo le
Ġanti ossid
Ġt ene
Ġcuri oso
tur no
gi ornale
p ine
Ġtre kking
ĠMe moria
Ġlegg eri
sc ritta
Ġpa y
Ġcata stro
Ġresid enziale
nPro prio
Ġespre ssioni
che tto
995 83
A K
h ard
Ġrip rende
Ġdiff erire
Ġsigare tte
Ġricord ano
nMo difica
8 933
F CE
com a
as era
Ġb orgh
Ġeffici enti
gis ter
Ġli fe
Ġban ale
86 85
ĠE se
Ġauton omi
ar ina
ziona menti
Ġfronti era
end s
Ġca labre
Ġapp ortare
Ġlan ciare
Ġsoli dale
Ġto glie
Ġe go
Ġlegitti mitÃł
le sso
ĠF IS
ĠPi zzo
Ġprof onde
Ġdistin gue
996 84
ĠPRO FES
Ġcos t
ĠPerson alizza
Ġindividu ato
Al tri
ĠN I
87 05
Ġall ontan
Ġcompa iono
996 26
in n
Ġqual cun
Ġcausa ti
ĠSp ettacoli
ĠLe ggere
ĠK u
Ġcanti eri
um etti
Ġtor te
nE ra
93 54
ettiman ale
ghan istan
ven tare
u rando
inf lazione
ĠSUL LA
a di
ĠCapo danno
Ġscopa re
Ñģ Ðº
Ã± ol
itti me
ĠCarne vale
Ġvi vamente
ĠMagistra le
tori co
nTu mblr
and ra
99 946
it aly
Ġprelie vo
via le
Ġorgan ico
ĠRegistra ti
ant itÃł
85 46
ĠF ire
L B
Ġvisi vo
con osci
al ur
Ġsugger isce
ĠPopo lare
UP PO
Ġ1 970
nI s
Ġlo ve
U V
ĠS us
Ġmorb ide
ĠB AR
Ġdo lo
Ġsol iti
Ġsen tono
89 14
Ġsof istica
Ġpizzi co
Ġsar Ã²
es clusi
FA F
ĠB IO
25 26
ĠPor tu
55 36
999 23
97 59
nGi ornata
A FF
Ġconcer ne
P ar
c elo
Ġcondi zionata
ĠVI TA
97 40
b eb
Ġsinda cale
9747 84
Ġtra m
Ġins erimenti
Ġun ite
Ġadatta rsi
Ġas tra
ĠCre sc
C G
op tion
28 87
ĠSci ence
ĠRacco lti
Ġcar itÃł
pu glia
Ġdiven ire
93 17
85 38
nLa ura
An tonio
Ġproce dimenti
Ġre st
in tenzione
97 39
tori ale
Ġmascher ine
Ġgentile zza
Ġeno g
ul ite
< <
J D
Ġstabil iti
Ġa cidi
nA ttiva
ES TE
m el
ĠCro azia
ed y
ce f
oni ma
Ġma turo
D al
Ġra ro
ĠGu ardi
Ġestra tti
ĠT ess
ĠFran ca
87 32
Ġsostan ziale
n Ð
ĠF id
988 13
Ġpan china
Ġcipol la
oo ter
tar vi
Ġmatti nata
Ġriuni oni
quis iti
nMo tori
Ġsvilupp ata
inf ra
abb igliamento
z ar
Ġarre do
M F
LI TÃĢ
10 25
Ġclicca to
nPh oto
f erimento
98 12
ĠOff ice
T ri
ĠIn novazione
nC OME
ĠS tandard
. -
ĠD alle
Ġpsico logo
nPre mio
nT eo
Ġimb ar
tform s
SER ISCI
Ġcapitali smo
nOro scopo
PO SI
Ġu bica
Ġdi visa
Ġbo ttone
Ġagri colo
g os
Ġm ettiamo
87 35
Ġsele zioni
Ġvide os
and omi
I r
nM ulti
itali ana
Ġc itazione
ĠB ag
Ġpoli zza
Ġps ich
ĠE doardo
ĠK g
Ġinvi arti
99 933
ĠG et
ĠNa pole
89 26
cus sione
f ree
ĠA ccount
Ġcerti ficazioni
Ġdisp osti
N T
B e
Ġnega tive
30 22
ĠC ec
>< \\/
mar ino
Ġmos tri
tec nici
ĠElettro domestici
ĠA mo
Ġpre gio
Ġri dotti
Ġconsigli eri
men u
nR id
Ġte matici
Ġimmun itario
Ã§a is
lu e
Ġsp lit
ĠB ran
93 95
nQuo te
Ġmo use
o sizioni
AF E
Ġma dri
Ġtru cchi
Ġretti ficazione
Ġau menti
Ġri ba
ĠIn tanto
gn una
sti c
911 7
90 86
Ġser vito
Ġdebu tto
ti fy
el ing
ĠCo lore
it ana
Ġser ena
Ġcor ona
ĠASSI STENZA
Ġw ho
Ġcon vegni
96 18
In dia
ĠCa mere
Ġtelevisi va
Ġidenti ficato
Ġdisabil itazione
Ġconvin ti
Ġ( -
nCom pila
. /
âĢ ¨
f uori
nA ggiorna
Ġotti eni
Ġcondi zionatore
bora tori
Ġpo wered
ina udi
9917 26
Ġcoopera tiva
Ġau mentato
Ġfe gato
J o
nd om
T op
Ġsopra ll
Ġnottu rna
Ġporti ere
boid rati
ĠP anta
ĠG on
Ġvet ture
Ġsta mpo
Ġopp osto
ĠG eno
Ġcor ti
Ġne xt
US E
tu a
Ġsoli do
remo te
997 11
Ġra dice
Ġ enable
81 25
Ġrivol ti
ĠT uri
Q D
6 97
Ġconquis tato
Ġal coli
95 68
ten na
Ġatti vamente
92 94
as tro
ĠEn ter
ĠMon tal
Ġma cchia
mi ere
90 974784
ĠLu x
Ġricon ta
Ġsequ estro
Ġscomm ettere
994 86
Ġb omba
ĠMan cini
etta no
um iditÃł
Ġlascia te
Ġca tene
Ġsape vo
pp ar
Ġes tivi
Ġesp ansione
Ġdiscri minazione
88 16
e da
Ġge omet
Ġca cao
O D
nR isto
mon ti
In fo
Ġpsico terapia
nMar ca
Ġsinda cato
Ġindi ano
85 05
Ġintra ttenimento
ori zzonte
ĠCi vita
QU ISTA
Ġfinanzia to
Ġaccetta ti
b cc
itec nico
Ġdona zioni
u ff
Ġma gli
tain ment
Ġ} )
X P
Ġcari chi
sten ziale
Ġpreli minare
ĠP reno
Ġfa tture
Ġca ttiva
A dda
ĠNEL LA
10 15
ĠHi gh
Ġritorna re
Ġorig inario
ĠF AR
Ġbook maker
line a
Ġcrimin ale
Ġk now
Ġconces si
Ġbritann ico
ĠR ose
nc ome
996 22
es tensione
abb onamento
Ġfer mato
sp ea
ph oto
Ġm enti
Ġdec ise
Ġoccupa to
nB ea
Ġdis tor
9975 555
87 86
Ġglo ria
Ġs omi
Ġimpor ti
X S
Ġsinda ci
Ġb etter
our ce
Ġv asi
tar y
cqu a
Ġforn iamo
p ositi
Ġdo tate
fic anti
Ġrisi ed
n una
Ġma lato
90 13
MO RE
ĠM P
Ġfra me
997 18
Ġimprovvisa mente
ĠAngel es
ol ina
Ġcal ci
ed erazione
Ġm ost
fic it
85 85
Ġconcre te
Ġseleziona ta
Ġsv uo
Ġconce zione
ĠSan itario
ĠPROG ETTO
ĠM ic
Ġta sche
Ġriten uta
Ġcol onne
Ġdiv ina
VV ISO
Ġper icoli
Ġla na
O ri
ĠMod ulo
Ġm etto
96 51
f estival
nNotifica mi
Ġespre sse
cor sa
ĠF IR
Ġs pro
mm et
U RE
f ir
uti ci
Ġpa cchetti
ĠPre cedente
Ġameric ane
Ġcarta cea
93 83
nL ista
Ġcomprom esso
h h
Ġl on
scri be
Ġsper anze
Ġsp in
ĠB andi
mp ico
Ġtra zione
ne ct
Ġugu almente
Ġmeda glia
ĠMa te
mo tive
997 45
ĠV iterbo
ĠA A
Ġv ena
Ġgra ti
li cen
ĠPers one
AB E
Ġconse gne
ĠQu into
Ġrigo rosamente
93 97
ĠDo wnload
Ġpron te
Ġen tri
Ġm ica
L R
Commer ce
co gn
Ġallena tore
f ina
** *
DI CE
nD el
ns on
US O
nRa cco
ĠJo urnal
a ea
Ġacce di
Ġco pre
Ġillustra to
Ġe tico
nPRI VACY
ĠO tta
Ġfrequ entato
er ma
Ġbas ket
la i
ĠMag ari
Ġc ica
Ġse cchi
Ġsc eno
Ġsap endo
Ġsiner gia
Ġc itata
96 30
b ona
ĠTEM PO
Ġso gnare
asp x
Ġla scio
ĠH el
Ġcamp aign
Ġaccompagna ta
C ER
Ġh an
en orme
Ġmascher ina
Ġco cktail
Ġesp oste
ĠPa role
Ġtri ennale
Ġdis tan
Ġitinera rio
uni er
Ġins eri
tere bbe
Ġcoer enza
Ġinter ven
ĠO pt
ĠRin as
Ġimpre ssion
ĠNo vitÃł
Ġsta vo
99 133
p ici
Ġvin colo
Ġoli ve
ter ze
P ortlet
ĠE stra
Ġprote tta
Ġf erra
g eli
Ġader ente
Ġme te
ĠMar ta
C os
d isce
nM oto
Ġdi amo
Ġ20 30
96 38
ĠOr to
Ġsudd etti
Ġapp osita
Ġpresi ed
pri mo
996 44
Ġarre sto
ĠOp ini
Ġpoch issimo
Ġtra rre
ia tura
mina zioni
Ġpro ro
nCor riere
ĠRo ad
Ġterra zza
Ġprote si
nIn dica
GH T
G W
nUlti ma
di ritto
so urce
li ana
Ġapp alti
omb ia
ĠS ettimana
es k
ĠRE CEN
Ġco ver
87 46
ron os
Ġemo tivo
cor pi
N B
ĠG allo
Ġtele camera
995 07
ga ro
Ġcontinu erÃł
pr endo
impre ssione
Ġgi rl
Ġinc ar
ry pto
nD isp
ane ws
98 42
Ġdec ina
â Ļ
nSil via
99 936
b ff
TA ZIONE
Ġconserva ta
arre sto
ĠB elli
G ener
Ġvali de
Ġco un
col or
ĠC ant
85 16
Ġspa ziale
Ġpre mere
Ġscrit trice
âĢĶâĢĶâĢĶâĢĶ âĢĶâĢĶâĢĶâĢĶ
top ic
Ġacco l
arre damento
ĠDe cember
Ġucc idere
Ġaspetta no
21 93
nT h
b da
PA RAZIONE
lab le
X B
ĠSe ptember
Ġden sitÃł
ĠS UI
Ġcos ci
Ġcar ni
ccia ti
f ec
Ġal tern
ĠC yber
ita mento
ĠAcc ensione
ĠS orr
Ġconten imento
nJ a
ĠV arie
Ġc itazioni
y our
mon ica
ĠVie ws
Ġre clu
ĠNatura lmente
M ed
93 47
bil it
88 14
ĠTec no
ccio le
Ġattre zzi
Ġpo la
ver onesi
Tu tto
Ġsp ru
m ul
ĠM at
N J
Ġentra no
Ġpo tendo
nDis infestazione
Y A
Q H
nS anta
ĠO m
Ġro to
au thor
Ġcio tola
au dio
ĠVe cchio
Ġs tory
ĠC oop
nApp are
ĠPer chÃ¨
k b
vie ws
f onda
Ġde fault
980 21
Ġm etti
orna te
Ġsu ba
ĠTele fono
O bbligatorio
Ġsal tare
Ġti rare
Ġeffettu i
w rit
Ġt enda
la tori
Ġ& &
91 24
ĠP lu
ĠCas tro
Ġnon ni
Ġricic lo
c Ã¬
nNa tale
Ġviss uta
Ġg la
ĠVol onta
ĠTer mine
con tinua
nB lack
end ly
Ġve da
nBen essere
25 14
versa li
Ġesemplifica tivo
Ġavval gono
A h
m ercati
ĠE mma
Ġquotidi anitÃł
V ideo
Ġri ga
re bbero
allo ra
Ġfisica mente
Ġma trimoniale
inge gn
sta lla
Ġb ontÃł
dal ena
Ġ ze
Ġgo cce
nO ggetto
graph y
Ġcimit ero
V IN
AUTO RE
Ġin acc
93 77
Ġz anza
Ġesi stere
90 14
id ro
ĠS truttura
Ġinser isce
A i
ĠR id
ĠAuto ritÃł
Ġpre ziose
nI TA
itori um
Ġm ossa
ĠN icol
88 13
Ġtutto ra
Ġvic ine
ĠO no
ĠDol omiti
ĠE SP
ĠS ess
Ġar moni
Ġelet tori
ĠRi venditori
ic ano
iti vitÃł
nACCE TTA
ba ti
elle zza
Ġrinas cita
ĠT RE
n pa
nI dee
Ġri fa
a cca
ori entamento
enn esima
ĠSa vo
Ġg h
Ġfer ita
ĠP agine
96 09
Q E
Ġmanif esto
uc p
ĠC F
nMol ti
Ġf ranco
ĠC ULTURA
ĠT us
vi bile
ĠR ol
fond isci
es senza
ĠG el
Ġscarica bile
Ġrit mi
85 86
Ġh is
Ġini ziali
999 13
Ġmodific ando
ĠI denti
91 07
con su
Ġn ic
af ter
d etta
Ġbaga glio
94 97
Ġfotovolta ico
Ġmoto cic
Ġcon dotte
84 75
Ġrisparm ia
ĠV ari
Ġconten itori
ĠPa es
ĠV orrei
Ġautori zzo
ĠA go
pr int
Ma il
996 04
j ec
ck chain
Ġne onato
1 998
gre ssione
ĠLa vo
Ġw elfare
d os
ĠGi usti
Ġma ternitÃł
Ġrec ante
for se
rist mas
93 71
Ġ3 000
Ġcuo ri
on iche
Ġe h
org ano
Ġilleg ale
84 86
Ġgius tamente
IS TO
nB er
Ġs mon
io li
á ĥ
id one
Ġconclu sioni
Ġmus ul
ĠSe z
ce gliere
Ġcorri spetti
Ġk W
ĠEd itrice
Ġinter faccia
AN TA
Ġra re
va tar
Ġh el
f ale
96 41
ĠON LINE
ER S
Ġinten zioni
Ġ1 70
f ro
ã ģ
90 26
comunica zioni
ĠRich ard
na re
. ).
ĠNUO VO
Ġorgani zzate
ĠS ony
85 65
185 2
ul le
Ġpara ss
b fa
b ani
AF D
Ġrile vazione
Ġto lto
Ġarre damento
Ġaggiun gono
ĠH ill
mar co
ĠGian franco
DI TA
pati bile
ĠPara diso
995 03
Ġfor mulazione
Ġpratica re
Ġp sic
TI NG
inau gurazione
f eb
Ġcerta in
ĠLi gure
nApp le
Ġbra vi
VEN TO
Ġinqu ie
Ġface vano
cio Ã¨
ĠV II
BA F
Ġri venditori
Ġtru ppe
Ġfinanzi are
l ingu
997 36
on ardo
Ġgro ssa
tec nica
Ġin dig
ĠV uoi
ĠInter viste
84 23
Ġfa tic
ttu to
Ġfi ere
Ġyo gurt
ĠVo ce
ĠS ie
Ġbelli ssime
Ġt rio
Ġchied erne
Ġp esa
Ġgiun ge
Ġad ia
Ġper o
Ġpersegu ire
nR itiro
Ġra v
ĠContro l
BA B
ĠBoss etti
â ŃĲ
p osti
Ġc ana
ĠS qu
nUtili zza
Ġrichia ma
ĠMa rocco
e ting
sciu tto
Ġ1 22
ici di
ĠMe mori
SID ENTE
ardin aggio
vid ia
ic enza
ĠF IA
ĠC ou
ZI ENDA
Ġadegu ati
Ġaccon sente
X R
24 64
Ġcon sa
ĠS he
ella s
93 87
ĠP NRR
Ġcontrover sie
ĠRa cconti
Ġos cura
nD ef
Ġleader ship
G Z
zz ese
Ġriemp ire
Ġdesi gnato
Ġautori zzate
Ġtelevisi vo
sciu ga
Ġfidanza ta
improv viso
Ġadempi mento
10 11
Ġa gio
Ġbu co
pini oni
Ġpop up
g ena
cola te
Ġeccell enti
orig inale
nSupp orto
Ġorganizza tiva
ĠMo ri
Â º
ĠJ une
93 94
Ġporta li
SI S
UN TA
Ġpre su
95 41
te sti
ĠN ar
EN DE
Ġconsegu ire
Ġprodo tte
056 15
om icidio
Y J
Ġevidenzi are
Ġ1 982
ĠL etter
91 85
ĠCap elli
99176 12
Ġcoup on
Ġcontin ente
Ġriporta ta
Ġvice versa
bio tici
Ġgradua toria
Ġemer genti
Ġposse dere
Ġimpli cita
n ne
Ġven go
re tta
Ġabitu ati
Ġimp ar
Ġbanca ri
re tto
ĠC and
Ġnipo te
Ġrilascia ti
998 17
be f
ur ono
993 00
996 46
90 96
ĠMar tedÃ¬
CO LO
996 45
Ġmira colo
Ġdis corsi
u dere
Ġb la
et h
ri ll
Ġten tato
b dd
Ġo rologio
di zionale
Ġpo lo
05 36
Ġallo ggio
iamo ci
ca ina
ĠCh ristian
th lon
ĠPal ma
Ġcora ggi
Ġprovin ciali
for za
ĠS ed
Ġ1 978
Ġorizzon tale
SS D
nAv visi
ĠMis ura
Ġasi lo
19 27
97 29
98 02
ĠPa ci
nCred its
93 67
Ġrimar rÃł
nPu Ã²
Ġb orghi
Ġavre mmo
83 15
Ġreli gioni
97 79
n ie
Ġbro ker
ĠGro sseto
ĠS assari
ble mi
Ġforma tiva
Ġgiuri a
ĠDI CE
94 22
K W
Ġsacerdo te
s um
Ġregistra no
nF ri
Ġs esto
K M
Ġcom mentato
OM O
Z ON
K B
Ġconten uta
Ġespon enti
Ġfragi litÃł
Ġbilan ci
Ġba cino
Ġgri glia
Ġsp erare
Ġfin ta
9996 23
ra ga
Ġpecu liaritÃł
bb ie
Ġh orror
d di
Ġdov essero
n v
Ġcentro destra
Ġpomo dori
acqu irente
Ġdisa gi
Ġsemb r
ĠRisto rante
ĠK ey
ĠS CI
Ġripristina re
to sc
nN A
F EB
Ġresidu i
Ġcrimin ali
ciclo pedia
Ġstre tti
nAr ti
m ide
Ġspa da
ĠEle c
ĠD elle
m Ã²
Ġraggiun gibile
nSpe ciale
Ġversa re
Ġpall one
Ġi spe
nPul sante
at trice
Ġvisi va
Ġwhe ther
86 26
ĠLu g
90 94
fondi mento
Ġri lancio
Ġforma ta
ĠC R
N P
gre e
Ġpan cia
Ġelabora to
Ġcondi vide
Ġcavi glia
BB D
b la
dis posizione
arci si
Ġcoper chio
id ia
ĠAd riano
pe d
ĠColle gio
Ġserbato io
Ġdiven terÃł
nR es
ĠE ri
Ġpri vi
ĠPro mozione
Ġo dori
Ġnon chÃ¨
re ale
SI GN
uo ro
24 75
Ġinfluenza re
ĠCa la
c fr
Ġver te
ĠMa teriale
li enza
Ġsca ff
ĠDo ccia
Ġquaran tena
Ġconsegna re
ĠVir gin
ĠE t
Ġ erra
nTAG S
95 71
Ġesclu sa
es cur
Ġaccura tamente
Ġimm ersi
nC H
Q W
gra tu
ĠEdi lizia
ĠS PI
ĠAg rigento
O I
Ġenerge tiche
Ġmeccan ico
Al le
in ella
ton ia
F in
Ġimb ara
Ġaumenta ta
Ġci lie
b or
85 25
Ġnorm alitÃł
Ġfoto grafa
ĠC GIL
88 87
Ġ endo
per Ãł
nE steri
Ġfu mi
mma tica
BI TO
Ġcontinu e
Ġriten ersi
ran t
G roup
ger anno
Ġdire ttive
Ġbe ing
nC ase
Ġconcentra to
ĠPatri zia
ĠGiord ano
âĢĻ .\
ĠA ccademia
on tare
Ġl in
Ġemo tiva
nG ener
Q Z
nD ichiaro
it inera
via ggi
Ġassegna re
ti zione
tri zione
ĠG AS
nR ica
Ġeffetti vo
81 03
TEGO RIE
Te ch
ĠEle zioni
ĠCon venzione
gg ine
Ġcan ad
ĠCal endario
log an
osa ico
Ġtranqu illi
Ġfavo la
AF C
Ġindimenti cabile
Ġpole mica
Q C
Ġaspi razione
bur g
Ġmone te
Ġprom esse
nRic erche
Ġraccom and
mm ia
FB F
c rea
LA B
nT est
85 34
94 00
er ino
Ġle tte
Ġcompr endono
Ġpe da
CC HI
enz uola
Ġtro verÃł
ĠI scriviti
nP as
Ġpic co
Ġed ito
Ġdi va
Ġconsu mare
mati zzazione
Ġsom mer
ĠV el
Ġtu mblr
Ġaggiun gi
R is
Ġgest ita
Ġdomesti ca
G o
19 05
Ġwh en
Ġincre mentare
Ġri parare
Ġefficace mente
ðŁ ĳ
Ġinnova zioni
Ġpericol osa
ĠA ccade
zia menti
m esso
ĠPa solini
90 25
ES CO
vvi gi
Ġfra g
m un
ti a
lati no
tinera ri
ĠM un
Ġextra vergine
ĠMol te
ĠV era
ĠO S
ĠA h
e ad
ou ch
Ġricev ute
f la
r t
ĠC anta
Ġ= >
ĠDani el
Ġcap sule
Ġesp osta
a ed
port let
Ġcompr end
Ġorto pe
Ġus ura
Ġvi b
Ġ1 05
fe zioni
Ġrifle ssi
ur u
986 0
997 86
tu al
ĠN E
ser vizio
Ġobbli gato
Ġuman itÃł
A more
p ing
ĠâĢĵ \
ĠLin ux
av vento
Ġringra zi
spea ker
Ġcomun itaria
Ġc ronica
Ġde vice
Ġbas terÃł
u tions
ĠP HP
) /
a la
ĠF le
ĠE ssa
993 36
mpati a
Ġdecid ono
997 75
ĠMa ttarella
O spedale
Ġru briche
Ġpos teriori
Ġcu cine
Ġtrasfer ta
me dic
nConta ct
Ġincre dibili
duli stica
nCO OKIE
Q P
84 56
Ġindic ando
Ġinten dere
9936 6325
Ġis tante
n sp
nA ggiornamento
ĠBelle zza
Ġsu cchia
ĠMer cedes
menta no
80 95
Ġca denza
0000 352
i ght
Ġfer mi
one ws
ĠM id
Ġingi usti
gio li
Ġno bile
Ġver nic
97 60
ĠCommer ciali
olle ttino
th on
Ġforma t
ca b
Ġtelefon ici
Ġesten sione
iso gno
nCan cella
ĠSpa ce
Ġn or
Q F
87 00
X T
98 32
E st
ĠS andro
urn e
ĠCultura li
B EC
87 11
alur onico
95 88
ĠNa zionali
Ġconsul tato
zza ro
Ġo ffic
nOtti eni
Ġnega tiva
ĠAdo be
b ell
Ne cessari
ĠSegre teria
Ġdetta gliato
986 1
Ġvole ssi
Ġrinno vato
cia zioni
ĠD ub
ĠPi ombino
Ġc land
Ġtosc ana
nM I
Ġcucchia i
Ġarchi viazione
Ġsta volta
Ġarre sti
leg al
ĠT av
Ġricostru ire
Y P
Ġconsiglia bile
80 15
99895 73
ĠP unti
ty ling
Ġven nero
915 5
lu minazione
bb c
ĠP assword
Ð ¹
ã ĥ
sa ta
ĠSac ro
pri ce
Ġsi gnori
Ġdi ca
sa ti
ĠB agni
ĠP ir
Ġrin via
Ġdura re
ĠC d
Ġcompa tto
nSp ettacolo
nad min
Ġdi ri
ĠG hi
AN ZA
F DB
Ġ15 00
Ġb et
999 22
Ġfonda menta
Ġsicili ana
nCas tel
sc indi
ĠG R
Ġ20 24
Ġspe zie
Ġtesti mone
nF ood
ĠAR TI
ĠSupp orto
Ġnavi gando
ĠC eci
Ġla vand
ĠGregori o
ĠM ille
le tica
na v
ĠCa pra
Ġnerv oso
Ġlu cida
24 93
ĠBi ella
Ġacc eso
Ġinter lo
Ġfon d
Ġpensa vo
S ec
Ġesegu ite
nMac ro
Ġcu ffie
Ġdi sso
ĠTech nology
ĠPo ggio
unis ia
ĠDire ttivo
g p
Ġtra pi
pri me
991 21
f iori
ĠVal enti
Ġora mai
Ġfonda mento
Ġpilo ti
co vid
ccon i
nA ggiun
ĠðŁĺ Ģ
ĠW atch
EE F
996 34
Ġbar ba
ĠP el
AD I
ĠI laria
ad ine
Ġinc ante
ĠMer coledÃ¬
ĠS che
startup italia
Ġspe dito
t trici
90 85
Ġca ute
Ġsosten gono
viso re
di l
Ġan elli
Ġsin onimo
ĠS etti
n ostro
Ġconsiglia ta
Ġrico tta
89 07
Ġpale se
sti ng
Ġ0 11
ĠEdu cazione
Ġgia lla
ĠDu val
SI ON
CO L
ĠPRO TE
91 83
ur t
Ġfidanza to
nConf ronta
93 73
Ġdanne ggiato
asti a
Ġb ari
Ġliqu idazione
Ġcon ced
ella re
Ġfa una
bbia mente
ĠS ass
ĠCommer ciale
eta rio
Ġrico vero
ĠTer re
sci enti
Ġinsegna menti
d le
93 63
90 17
ĠPro duzione
usa to
[ +
nRec ent
ĠA ffilia
J P
Ġcol tello
Ġdottore ssa
J W
Ġpos tura
90 84
Ġat mosfera
Ġ omb
no logi
ser vice
k ra
ĠP refer
997 74
Ġfol la
96 343
ĠM EDIA
Ġsu pers
Ġp iemonte
ĠFior entina
Ġin dex
Ġrim ossi
nO lio
997 858
Ġgas tro
99978 17
K R
ossi dabile
ĠBa ck
n ical
Ġbelli ssimi
ci sione
ĠMos tre
c enze
18 04
ĠM IN
91 25
nE nergia
Ġfarmaci e
ĠP r
ĠF uori
ĠLi ke
et ud
BB A
D ER
Ġprodu ct
Ġesemp lari
nM ichele
lo tto
835 28
Ġaffid arsi
Ġaere e
P referenze
cche tta
998 16
Ġschi era
Ġf lore
Ġbio logici
Ġper forman
ul tato
Ġauten tico
J H
07 34
Ġspet tro
Ġallo ggi
Ġev ita
Pri ma
ĠTim es
gno si
ĠGRA TIS
v ane
13 95
Ġe ttari
Ġperifer ia
Ġtrov arci
ĠG ood
anti na
ĠAv ellino
ĠGI ORNA
Ġelen cate
nS am
ĠFran c
lu x
Ġtrova va
Ġrip ensa
Ġban chi
ĠMedia group
es ordio
vid a
F ran
m q
ĠEx po
ĠB ron
ĠSo fia
esti ni
925 6
p ere
p ose
anti le
Ġacc om
cu pera
ns al
Ġcon torno
Ġpre go
Ġmi rate
15 16
Ġasse mb
9999 0046
ĠI ran
nAr riva
Ġgi rato
nL as
83 26
ĠCar ro
mi le
nCon senso
individ uazione
Ġma cina
T ok
Ġautentica zione
Ġorgo gli
88 04
996 21
87 74
Ġcol li
an cora
Ġnomina ti
37 95
Ġpresenta zioni
987 14
Ġacquista bile
Ġvigi li
F DC
oste gno
Ġs ena
Ġviol enze
ag u
Ġci vica
ĠN uovi
al bo
Ġfia mme
terape uta
Ġs bo
884 05615
Ġse die
Ġfanta sy
Ġmanten gono
Ġversa tile
ĠISS N
ttan te
Ġgi unti
Ġ 000
p lan
Ġagri coli
w ing
Ġrisca tto
Ġscato le
Ġsvol ti
Ġgio cando
Ġri mo
bb b
ĠGro tta
O LO
s ano
Ġri sta
nLu igi
val ue
nGi Ãł
nIn d
85 84
ser t
CI PA
88 86
90 16
alle gato
ĠMar te
ep ide
Ġzucch eri
Ġpomp ino
ĠSe curity
Ġparla va
ĠB est
Ġparti celle
8137 3626
Ġcan oni
ĠA cciaio
ĠA re
sal ute
Ġcred ono
ĠVal eria
ĠTu mblr
ĠCas telli
Ġbio grafia
nCom ments
da b
84 821
corr ono
15 78
nGior nali
Ġthe ir
Ġsta ge
ĠCon corsi
ĠL ista
es chi
ĠC ento
Ġind ustria
ĠMar ittima
Ġeff ect
ĠAng eli
ĠIN STA
endo lo
fica tore
Ġbi b
Ġweb sites
Ġfemm in
per chÃ©
ĠMac erata
U H
om be
Ġa mata
ter ing
Ġcu m
ĠRis orse
ĠSOCIA L
Ġosserva zione
Ġrigen erazione
festa zioni
87 85
ĠD esid
997 26
ĠPol itecnico
tron de
95 20
orma le
ten tica
Ġm ic
ĠRi ello
ĠCol lana
ĠCos tume
Ġpoe tica
cc esso
ĠP ordenone
Ġcomuni one
nY our
Ġis tanze
anima le
ĠInd ustria
ĠJo e
Mo difica
ĠK y
Ġprof essor
Ne cessary
Ġma is
nD eter
Ġsto rage
An che
83 14
Ġcoper ti
Ġpala zzi
Ġconn essioni
ĠA merican
ĠMod ello
Ġca zzi
ur genza
A nno
Ġatti vita
997 76
Ġacquis ite
ĠP osso
Ġvol ere
Ġco e
ĠSac ra
pli ce
Ġringra ziamento
Y B
Ġnu vole
ĠCas inÃ²
CA PTCHA
Ġvin co
ma zioni
Q V
tra s
Ġsc ansione
Ġcab ina
ĠPro mo
Ġse ggi
trimon iali
80 25
Ġautori zza
Ġtemporan ea
Ġscand alo
Ġsta vano
ĠT utela
Ġsotter ran
Ġp late
97 32
Se arch
an elli
ĠO sp
ĠMa io
Ġcolpe vole
ĠFer n
ua wei
p elle
Ġottimi zzazione
Ġquad rati
Ġinteg rante
nV erifica
Ġdesi gna
ĠVer celli
Ġmed iterranea
Ġmit tente
ĠDi mensioni
83 25
Ġbo ard
ĠCom missario
Ġmon tare
ĠS icili
Ġsol ita
ĠComp any
k el
ĠR OS
84 03
ess ina
ĠJ os
Ġ: )
onda ggi
Ġpen isola
ĠCristi ano
stru zioni
ond rio
15 07
Ġcrimin alitÃł
nVis ualizzazione
Ġhi gh
Ġsfru ttando
ĠT eso
83 56
998 11
F CF
Ġinti mo
ĠK h
nN u
Ġoccupa ti
Ġattu are
Ġdistribu iti
Ġca ttivi
ci li
Ġritro vo
Ġpar li
Ġragione vole
n it
gen era
ĠP enso
b ie
nC OP
ĠRom ana
997 00
Ġpia str
Ġro tonda
J Z
nResponsa bile
do lo
20 26
nR EG
nCategori es
ando la
Â° \
and ono
Ġdes ktop
Ġboni fica
bb f
Ġsc alda
Ġav ente
Ġpillo la
n lo
lan gelo
ĠG ino
urono va
CA R
Ġterm ica
ĠB AN
ge zza
a cciaio
Ġa cross
Ġconfron tare
ster olo
ĠI struzione
ĠBa bbo
ĠS tory
89 04
nAlle gati
nDo cu
ĠPA I
ĠSa ranno
car b
994 23
b df
Ġca ching
nParte cipa
ĠBa mbino
Ġced ere
Ġre pressione
ĠSpe cial
tera zioni
Ġcontra dd
995 26
Ġs tron
ĠRa p
ĠCro tone
AR D
oli va
99 953
Ġcanna bis
F EC
Ġmusic ista
nS car
Ġinclu sione
Ġscio gli
pl oma
fis so
ce an
ĠRi va
Ġequi libra
Ġsc ultura
ĠPar ty
Ġdie te
er t
viso ri
ar ino
Ġoccup arsi
ag enda
USI CA
995 11
Ġespri mer
Ġref rig
ĠFemm inile
affida mento
ma li
ccia te
âĢľ .
Ġmetaboli smo
nPo ichÃ©
ff et
Ġcresci uta
s ele
87 25
ĠG usto
ĠPay pal
Ġass unzione
tru e
Ġcol pire
Ġblo cc
ĠU V
Ġa pi
ggi anti
ĠU go
Ġmini me
Ġcoin cid
Ġpasti cceria
A ra
ĠNo bel
o dore
cheo logia
re o
12 95
an ci
ĠRISERVA TA
dom inio
ĠCan cel
nCONTATTA CI
ly wood
Ġved rai
86 57
enn ino
nLo calitÃł
Ġfesti vi
90 21
nE sistono
don esia
Ġs ma
Na poli
Ġlice itÃł
Ġdis ce
ĠCOMP LE
ssa re
Ġpra tic
Q G
Ġes tero
ĠD EC
ĠV ico
97 49
C Z
ĠI mpianto
la va
ccon to
ĠMatti a
b etti
Ġdemocra tica
dire tti
ĠSm ith
Ġsci vo
Ġques iti
Ġau mentando
ba e
nPo dcast
Ġanonymous ly
Ġ24 0
ĠChi rurgia
Ġnorma tivi
a eb
Ġtrasm ette
Ġli scia
Ġd ette
ie ga
ĠE asy
Ġpermetter ti
Ġsu icidio
bb d
bd c
tu fo
trib utore
d alla
Ġmos se
Ġripos are
ba f
gg iamo
Ġlumin ositÃł
Ġraccogli endo
f ar
sen si
e men
nlun edÃ¬
Ġmus iche
22 22
bil itare
Ġcre azioni
w h
w agen
ĠA zione
ĠCavo ur
z an
ĠSe mplice
ĠFa ir
Ġanticipa zioni
Ġeccessi vo
997 33
998 06
Ġpote vo
Ġrivol g
Ġvo lare
ac ci
ĠMod alitÃł
Ġcomm esso
late s
L T
RE S
ĠS M
ro se
u mb
Ġu cci
995 23
Ġragi onamento
nAr ray
ĠCorre lati
ĠW in
Ġov est
Ġg g
Ġcollo ca
Ġtra vol
per te
Ġcontrolla te
03 05
ĠD VD
88 07
au x
ro cchi
996 052
Ġdeci sivo
ĠL LC
on cini
nU N
p ita
ru m
1 965
ĠWeb fon
richi esto
Ġrinno vare
qu indi
agno lo
Ġtrov arsi
ĠSpi rit
gli etto
s ulla
ĠT EA
Ġabband on
Ġv etri
ĠRom ania
vali eri
ella to
Ġcinemato grafica
B EB
a ad
ĠRapp resen
ĠF lori
Ġd uo
ĠRe lazioni
on zo
ĠGu gli
48 06
Ġs logan
spa zio
Ġpreventi va
Ġprecis ato
Ġriten ute
Ġspetta tore
91 21
Ġand rebbe
No i
Ġri siede
Ġpi ane
Ġsal utare
Ġclin ici
Ġappro vata
Ġviva ce
ĠC RI
ĠEx perience
Ġmanu ten
Ġanali zza
ma tura
ÃŃ a
Ġfa cciano
F oto
ĠD rive
Ġmar gini
book marks
Ġinc inta
Ġpregi udica
nEffettu a
nP ara
ĠDi visione
Ġcanti ne
il m
ĠIn stitute
ĠX IX
Ġmultimedia li
Ġmostra rti
Ġde ficit
Ġlumin osa
Ġstrani era
ĠC it
cos cen
ĠINFORMA ZIONI
immedia to
Ġin comple
Ġpro li
Ġfare bbe
pr in
gg ina
Ġco tto
ĠMar tini
88 85
ten ario
ĠEle onora
98 99
Ġmis to
ica zione
Ġfeste ggia
Ġstatu a
Ġann uali
STA N
bc f
ĠH R
nC in
Ġero i
ĠAs coli
ĠUn ghie
83 36
ĠC ann
88 17
Ġas sente
a ab
ia omi
Ġcompet itivo
ĠGi ann
B FA
Ġg estionale
11 86
Ġpresupp osti
83528 197
il itÃł
or veglianza
ĠBea ch
nAg enda
Ġeccell enze
Ġcom anda
C INA
Ġassicura tiva
ĠPiazza le
Ġscher mata
98 235
Ġpre scrizioni
Ġmos tro
Ġconven zioni
87 76
Ġchi ar
Ġlingu istica
Ġli stino
ĠPubbli ci
Ġallena menti
83 54
Ġlingu aggi
Ġrigi do
ĠTe x
tipo logie
Ġpubblica mente
nCla ssifica
nC op
ĠSa unier
ĠV ale
ĠGiud ice
Ġcongi un
911 4477
97 50
Ġin cendio
man uela
ĠRo yal
pa ci
Ġversa to
Ġ{{ /
Ġgene tica
nD avide
ren ch
ĠIN TE
Ġtrans ess
86 14
ĠQu e
Ġpanta loni
Ġspeci ficare
ĠVio la
nLi festyle
Ġri vis
ud itorium
ĠC anna
Ġsc omo
V edi
9931 046
Ġcarica mento
Ġassicura no
ĠL y
ĠSC UOLA
ĠP ren
nD alle
Ġapr ono
Ġin aspetta
Ġconsi stente
Ġs s
est ere
Ġk cal
ster dam
b ria
Ġcon cessa
93 53
Ġb aller
nManda mi
Ġdivor zio
Ġbenefic iare
M us
83 45
nB ook
nMed icina
Ġ1 975
Ġno di
nCh iedi
...\ "
805 3381
Ġaere a
nP ers
Ġrara mente
Ġde cessi
Ġalle ati
Ġcommerci anti
ĠMe todo
87 54
ĠK ong
GGI ORNA
Ġte matica
Ġazz urri
E V
Ġbelle zze
993 44
Ca tegori
ĠR M
ĠDo vre
ran ge
Ġco le
. Â»\
x it
Ġacc erta
d ichÃ©
Ġorgo glio
ĠProdu ct
Ġamm ettere
ĠSare bbe
Ġgu anti
ĠSo ggetto
An na
Ġmo rali
Ġsa lari
Ġ1 15
Ġrend erlo
Ġlegg ende
z ana
Ġspeciali zzate
Ġaro mi
r ena
fi er
_* _
be cue
ĠUn ica
28 11
a ac
ĠScienti fico
cca ggio
Ġintelle ttuali
Ġr ita
ĠV ini
Ġcomp one
Ġeffettu ano
993 26
CC I
ĠPe dagogia
ĠTor ri
iali s
in gi
13 66
Ġsoff itto
Ġnego zia
pro getti
Ġcon segn
Ġsu sse
87 34
b ic
Ġchiacchi ere
ĠH it
ĠDouble Click
Ġero gazione
Ġaffilia ti
nGaran zia
ĠRa y
95 78
Ġfiloso fo
zz oni
Ġacus tico
Ġorganizza tori
al tronde
Ġinf il
nIn forma
Ġe po
app are
d ca
ide i
Ġequi pag
Ġvari ano
UI DA
975 8741
ca bili
A O
C erca
in sa
B lack
a ef
Ġper p
disciplina re
94 18
996 33
nF esta
nAt traverso
Ġriser ve
Ġsconosci uto
pend ente
Ġmus t
84 76
Ġstan chezza
F o
ĠR un
86 63
Ġcor tile
ĠBos ch
nSERVI ZI
Ġte x
Ġestra nei
Ġraff inato
ĠOp ere
zono terapia
sten ziali
ar chia
ĠSi gna
Ġdi ss
Ġinterro mpere
ĠN AS
fa ti
Ġli bretto
Ġcombusti one
Ġcon formi
Ġb ur
Ġmagistra le
on ici
Ġza mpe
bc d
uo li
Ġsinte ti
nTe ch
xx xx
u ble
nologi es
ĠS TORIA
ĠTok yo
ĠMan uale
ĠPa trimonio
ĠPresen tazione
Ġconserva to
tto ria
ĠP unta
ga ria
nProte zione
83 34
Ġaccetta no
ÑģÐº Ð¸
Ġs he
Ġbolle tta
pt cha
an k
Ġmolti ssime
86 65
Ġcondi vidi
on io
bi z
ĠO pp
ĠU DI
Ġser eno
Ġprefer iscono
cca te
Ġper im
este sia
ĠAl fonso
Ġf le
Ġpropon gono
ĠM agn
B Z
B en
Ġalle sti
Ġconfer mata
Ġ ron
86 86
997 05
bf c
Ġporn ostar
U F
atto r
fia to
c tus
Ġavven gono
E FB
ĠCo lo
ĠB iden
Ġnorma tivo
Ġt ensioni
ina menti
Fun ctional
Ġfin iture
v escovo
y es
MA G
d icembre
ĠU omini
Ġimpermea bile
clu so
ĠAr ena
ĠE ur
ĠTri ennale
a ec
M H
_ \
01 21
X D
11 11
mina te
Ġsosten itori
Ġcompati bilitÃł
Ġb ordi
sp o
Ġlaure ato
l ite
90 24
nForma to
nNi ente
Ġ7 30
ĠNin tendo
Ġb reak
ci dio
cor riere
Ġsop ran
Ġdispon gono
fa bb
Ġsepara ti
Ġm el
ĠNu cle
C ERCA
nM useo
ĠCOM UNICA
J F
Ġg ar
Ġp rato
Ġprovve de
nDic ono
U RO
Ġtea trali
Ġcinqu anta
nA nimali
Ġdia volo
ĠN ostra
Ġza ino
nMas ter
ĠLu isa
p unto
Ġpregiudi zi
Ġn r
ks wagen
M V
T ec
âĸ Ħ
91 93
03 84
Ġconserva te
ĠNA TO
Ġsta gionale
ĠMar y
91 27
re gistra
ĠHe ad
ed itoria
99 977
nG re
96 81
nO K
con d
ĠDemo cratico
uti litÃł
Ġbat tuto
n mo
ingra zio
nD E
nT OR
91 95
83 06
ma de
at ell
po si
Ġtrans ito
nMod ello
ich iamo
97 89
Ġter minato
Ġquali ficazione
Ġaggi orn
nAv verti
ma ri
ĠCin qu
ĠCu ba
ĠPi zza
Ġnatali zio
R isp
Ġconta bile
pri x
ĠSu ccessivo
as mo
Ġpor zioni
n ro
Ġconte st
ĠR ac
en cia
es el
ĠCa ccia
Ġspe cchi
ĠLic ense
Ġi stin
X W
la scia
976 73
998 00
84 13
Y D
ind ustri
bf d
Ġlo ghi
86 45
ANI TA
ĠEner ge
Ġset tentri
Ġli re
990 13
s iti
Ġavval ersi
83 23
th o
pro vincia
mal ti
Ġfo glia
nQu alitÃł
Ġ+ =
Ġcom mis
Ġasp ettando
ĠV escovo
nLo g
Ġricerca tore
P ia
b are
Ġcolp iti
997 24
Ġossi geno
96 39
Ġpre pa
ĠV olley
ecce zione
nV iale
Ġ1 983
9820 3474
ĠDire ttiva
b ce
Ġbi ke
ell uto
olo go
ĠImmag ini
ess ante
Ġbar riera
f onte
Ġrifugia ti
ĠSopra ttutto
spe dali
nC AL
ĠCor rado
20 46
Ġado ro
ĠMan zoni
cap elli
Ġgro tte
Ġfrequ entare
'' );
nP ub
Ġinvesti ga
ĠX II
Ġpeggio ri
997 07
87 17
I tem
Ġriten ga
cra tica
Ġma c
Ġto lleranza
Ġauto matici
ĠBea trice
86 55
Ġo gnuna
Ġall ine
Ġcardio vasco
Ġtrasf erimenti
ĠComp rare
g ran
Ġdanne ggiare
Ġcom andante
19 14
995 05
Ġal z
Ġtriste zza
nBa mbini
nA ziende
Ġvo lante
f ting
ĠSer vices
ĠCine ca
Ġbril lanti
19 24
Ġoccup iamo
AR DA
nCa mpi
oni mi
978 04
ĠVi vi
Ġcla mo
e k
Ġcos ic
ĠPrin cipe
val li
ra tto
Ġprof it
Ġrep utazione
U Z
Ġre ttan
90 83
996 14
ĠBi ke
Ġtrasfer ito
nM al
ĠPi xel
Ġdimenti ca
res chi
Ġfinalizza ta
Ġprogressi vamente
w indows
ĠE m
ch ie
Ġri quadro
[...]
