{"<|endoftext|>":0,"!":1,"\"":2,"#":3,"$":4,"%":5,"&":6,"'":7,"(":8,")":9,"*":10,"+":11,",":12,"-":13,".":14,"/":15,"0":16,"1":17,"2":18,"3":19,"4":20,"5":21,"6":22,"7":23,"8":24,"9":25,":":26,";":27,"<":28,"=":29,">":30,"?":31,"@":32,"A":33,"B":34,"C":35,"D":36,"E":37,"F":38,"G":39,"H":40,"I":41,"J":42,"K":43,"L":44,"M":45,"N":46,"O":47,"P":48,"Q":49,"R":50,"S":51,"T":52,"U":53,"V":54,"W":55,"X":56,"Y":57,"Z":58,"[":59,"\\":60,"]":61,"^":62,"_":63,"`":64,"a":65,"b":66,"c":67,"d":68,"e":69,"f":70,"g":71,"h":72,"i":73,"j":74,"k":75,"l":76,"m":77,"n":78,"o":79,"p":80,"q":81,"r":82,"s":83,"t":84,"u":85,"v":86,"w":87,"x":88,"y":89,"z":90,"{":91,"|":92,"}":93,"~":94,"¡":95,"¢":96,"£":97,"¤":98,"¥":99,"¦":100,"§":101,"¨":102,"©":103,"ª":104,"«":105,"¬":106,"®":107,"¯":108,"°":109,"±":110,"²":111,"³":112,"´":113,"µ":114,"¶":115,"·":116,"¸":117,"¹":118,"º":119,"»":120,"¼":121,"½":122,"¾":123,"¿":124,"À":125,"Á":126,"Â":127,"Ã":128,"Ä":129,"Å":130,"Æ":131,"Ç":132,"È":133,"É":134,"Ê":135,"Ë":136,"Ì":137,"Í":138,"Î":139,"Ï":140,"Ð":141,"Ñ":142,"Ò":143,"Ó":144,"Ô":145,"Õ":146,"Ö":147,"×":148,"Ø":149,"Ù":150,"Ú":151,"Û":152,"Ü":153,"Ý":154,"Þ":155,"ß":156,"à":157,"á":158,"â":159,"ã":160,"ä":161,"å":162,"æ":163,"ç":164,"è":165,"é":166,"ê":167,"ë":168,"ì":169,"í":170,"î":171,"ï":172,"ð":173,"ñ":174,"ò":175,"ó":176,"ô":177,"õ":178,"ö":179,"÷":180,"ø":181,"ù":182,"ú":183,"û":184,"ü":185,"ý":186,"þ":187,"ÿ":188,"Ā":189,"ā":190,"Ă":191,"ă":192,"Ą":193,"ą":194,"Ć":195,"ć":196,"Ĉ":197,"ĉ":198,"Ċ":199,"ċ":200,"Č":201,"č":202,"Ď":203,"ď":204,"Đ":205,"đ":206,"Ē":207,"ē":208,"Ĕ":209,"ĕ":210,"Ė":211,"ė":212,"Ę":213,"ę":214,"Ě":215,"ě":216,"Ĝ":217,"ĝ":218,"Ğ":219,"ğ":220,"Ġ":221,"ġ":222,"Ģ":223,"ģ":224,"Ĥ":225,"ĥ":226,"Ħ":227,"ħ":228,"Ĩ":229,"ĩ":230,"Ī":231,"ī":232,"Ĭ":233,"ĭ":234,"Į":235,"į":236,"İ":237,"ı":238,"Ĳ":239,"ĳ":240,"Ĵ":241,"ĵ":242,"Ķ":243,"ķ":244,"ĸ":245,"Ĺ":246,"ĺ":247,"Ļ":248,"ļ":249,"Ľ":250,"ľ":251,"Ŀ":252,"ŀ":253,"Ł":254,"ł":255,"Ń":256,"on":257,"Ġd":258,"\":":259,"la":260,"er":261,"el":262,"en":263,"it":264,"Ġc":265,"Ġs":266,"Ġp":267,"ro":268,"ti":269,"re":270,"Ġa":271,"in":272,"to":273,",\"":274,"\":\"":275,"\",\"":276,"ta":277,"ri":278,"Ġdi":279,"ra":280,"li":281,"{\"":282,"te":283,"pro":284,"le":285,"lab":286,"prob":287,"label":288,"Ġe":289,"ul":290,"},":291,"zi":292,"an":293,"ar":294,"es":295,"Ġm":296,"ull":297,"un":298,"null":299,"or":300,"Ġi":301,"Ġn":302,"Ġin":303,"},{\"":304,"âĢ":305,"ia":306,"ic":307,"he":308,"zion":309,"Ġdel":310,"20":311,"si":312,"Ġf":313,"os":314,"om":315,"al":316,"Ġper":317,"99":318,"lo":319,"Ġun":320,"Ġcon":321,"Ġt":322,"Ġv":323,"qu":324,"et":325,"gi":326,"Ġal":327,"men":328,"Ġla":329,"zione":330,"ca":331,"is":332,"âĢĻ":333,"Ġil":334,"ĠC":335,"ma":336,"Ġ20":337,"za":338,"ĠS":339,".\\":340,"ten":341,"co":342,"Ġo":343,"Ġche":344,"di":345,"Ġqu":346,",{\"":347,"do":348,"no":349,"Ġ(":350,"id":351,"gli":352,"Ãł":353,"ĠP":354,"so":355,"Ġri":356,"war":357,"con":358,"ere":359,"va":360,"ĠA":361,"ĠM":362,"Ġl":363,"io":364,"ce":365,"Ġb":366,"da":367,"ica":368,"mo":369,"Ã¨":370,"sa":371,"warc":372,"ter":373,"ol":374,"Ġle":375,"Ġda":376,"Ġde":377,"mp":378,"98":379,"Ġpro":380,"na":381,"Ġcom":382,"enti":383,"Ġg":384,"ch":385,"ci":386,"ĠÃ¨":387,"ita":388,"ie":389,"ono":390,"tu":391,"ĠI":392,"pp":393,"ito":394,"Ġsu":395,"ĠL":396,"Ġan":397,"Ġ201":398,"as":399,"tto":400,"vi":401,"22":402,"ve":403,"mb":404,"tra":405,"ag":406,"Ġ1":407,"00":408,"ĠD":409,"bb":410,"Ġse":411,"vo":412,"tti":413,"itÃł":414,"Ġre":415,"zza":416,"ĠG":417,"97":418,"Ġnon":419,"Ġca":420,"nC":421,"se":422,"one":423,"bi":424,"uo":425,"Ġdella":426,"oo":427,"cc":428,"ĠR":429,"ĠT":430,"Ġuna":431,"Ġnel":432,"Ġsi":433,"che":434,"zioni":435,"Ġpre":436,"Ġh":437,"ver":438,"ni":439,"ff":440,"ale":441,"96":442,"mento":443,"ĠF":444,"ĠâĢ":445,"sp":446,"mente":447,"ali":448,"de":449,"Ġu":450,"Ġso":451,"ano":452,"pe":453,"sen":454,"era":455,"ĠN":456,"ĠB":457,"go":458,"21":459,"95":460,"ggi":461,"tent":462,"tro":463,"Ġtra":464,"94":465,"ur":466,"content":467,"sh":468,"gu":469,"nS":470,"nA":471,"nI":472,"fica":473,"tta":474,"Ġma":475,"ran":476,"ina":477,"Ġdei":478,"Ġtu":479,"nP":480,"ook":481,"Ġpi":482,"Ġdal":483,"Ġques":484,"Ġgi":485,"Ġfa":486,"me":487,"mi":488,"Ġpo":489,"ĠE":490,"93":491,"ga":492,"Ġte":493,"11":494,"nL":495,"Ġsono":496,"ine":497,"us":498,"cia":499,"po":500,"Ġes":501,"85":502,"tri":503,"tori":504,"06":505,"enza":506,"Ġsta":507,"Ġpar":508,"23":509,"ĠV":510,"mbre":511,"Ã¹":512,"86":513,"identi":514,"tre":515,"24":516,"25":517,"zo":518,"ad":519,"orma":520,"\":{\"":521,"tion":522,"il":523,"87":524,"ente":525,"Ġdell":526,"26":527,"ru":528,"84":529,"13":530,"Ġne":531,"05":532,"15":533,"ini":534,"Ġmo":535,"83":536,"Ġha":537,"03":538,"ĠpiÃ¹":539,"eri":540,"\\\"":541,"Ġlo":542,"27":543,"14":544,"pri":545,"04":546,"16":547,"Ġpos":548,"iti":549,"Ġ-":550,"Ġra":551,"pa":552,"tan":553,"ico":554,"oni":555,"âĢĿ":556,"ed":557,"chi":558,"uto":559,"07":560,"ers":561,"ookie":562,"Ġdelle":563,"17":564,"glio":565,"Ġdo":566,"ing":567,"Ġalla":568,"ces":569,"Ġsul":570,"ino":571,"cor":572,"Ġcome":573,"are":574,"tura":575,"ando":576,"ĠâĢľ":577,"Ġpu":578,"lu":579,"hi":580,"gg":581,"ĠO":582,"uid":583,"..":584,"nR":585,"ero":586,"etto":587,"Ġanche":588,"ici":589,"ty":590,"ssi":591,"Ġci":592,"ani":593,"Ġcos":594,"12":595,"Ġad":596,"rit":597,"ven":598,"sti":599,"eb":600,"nT":601,"Ã²":602,"lan":603,"Ġinf":604,"ari":605,"Ġmi":606,"Ġpri":607,"tili":608,"Ġcomp":609,"ĠU":610,"urn":611,"identifica":612,"Qu":613,"tl":614,"type":615,"menti":616,"Ġno":617,"Ġli":618,"uuid":619,"\":\"<":620,"identification":621,"},\"":622,"nM":623,"sione":624,"sta":625,"45":626,"Ġsp":627,"ww":628,"bile":629,"tlsh":630,"ze":631,"iamo":632,"etti":633,"tt":634,"eng":635,"Ġcookie":636,"\":[":637,"Ġall":638,"nD":639,"Ġar":640,"ene":641,"Ġimp":642,"35":643,"Ġcu":644,"Ġme":645,"46":646,"36":647,"ĠIn":648,"gno":649,"tico":650,"ne":651,"bbli":652,"08":653,"nN":654,"Ġquesto":655,"ck":656,"Ġsc":657,"Ġfor":658,"gio":659,")\\":660,"ello":661,"Ġvi":662,"Ġgli":663,"75":664,"Ġw":665,">\",\"":666,"ona":667,"Ġ2022":668,"end":669,"etta":670,"zia":671,"Ġinter":672,"44":673,"anno":674,"76":675,"sere":676,"18":677,"ĠâĢĵ":678,"Ġco":679,"ele":680,"sc":681,"Ġed":682,"zzo":683,"28":684,"tin":685,"30":686,"Ġsito":687,"sion":688,"Ġai":689,"senten":690,"th":691,"Ġpers":692,"sso":693,"Ġnos":694,"per":695,"Ġav":696,"esso":697,"Ġser":698,"gra":699,"ss":700,"ĠLa":701,"ella":702,"Ġalle":703,"Ġpa":704,"09":705,"gori":706,"gna":707,"Ġutili":708,"ser":709,"rio":710,"Ã©":711,"Ġessere":712,"zio":713,"34":714,"tegori":715,"ĠCon":716,"tar":717,"bil":718,"ura":719,"est":720,"cco":721,"Ġter":722,"ome":723,"tte":724,"ON":725,"um":726,"esti":727,"ite":728,"uri":729,"10":730,"nF":731,"ette":732,"88":733,"19":734,"55":735,"head":736,"74":737,"Ġto":738,"nE":739,"log":740,"ort":741,"tare":742,"aggio":743,"29":744,"//":745,"33":746,"st":747,"Ġnella":748,"man":749,"2022":750,"Ġcor":751,"66":752,"cy":753,"tore":754,"Ġti":755,":\\":756,"ice":757,"ttp":758,"ied":759,"nG":760,"://":761,"alitÃł":762,"ggio":763,"du":764,"Ġna":765,"com":766,"lia":767,"gni":768,"Ġgra":769,"lare":770,"ĠIl":771,"Ġcol":772,"Ġta":773,"elli":774,"Ġcui":775,"Ã¬":776,"ba":777,"glia":778,"ron":779,"ity":780,"uti":781,"Ġsa":782,"ĠRe":783,"age":784,"Ġvis":785,"37":786,"erca":787,"Ġapp":788,"56":789,"uro":790,"ria":791,"Ġnuo":792,"Ġr":793,"Ġparte":794,"Ġdati":795,"anti":796,"Ġinforma":797,"pi":798,"mpo":799,"ĠCa":800,"nIn":801,"ref":802,"01":803,"ER":804,"ĠQu":805,"Ġcre":806,"nIl":807,"nV":808,"data":809,"Ġweb":810,"996":811,"arm":812,"Ġsemp":813,"vembre":814,"ese":815,"ord":816,"Ġdu":817,"via":818,"Ġpropri":819,"http":820,"ĠW":821,"77":822,"pla":823,"cca":824,"ĠGi":825,"orta":826,"get":827,"cord":828,"Ġgior":829,"Ġmol":830,"nLa":831,"Ġpubbli":832,"ĠMar":833,"ĠNo":834,"43":835,"date":836,"tiva":837,"bili":838,"xt":839,"tente":840,"Ġcomun":841,"ĠH":842,"Ġacc":843,"mm":844,"Ġat":845,"Ġ3":846,"at":847,"Ġch":848,"}}":849,"Ġdegli":850,"dig":851,"TI":852,"âĢ¦":853,"Ġtuo":854,"47":855,"995":856,"Ġvol":857,"Ġlavo":858,"ning":859,"ure":860,"Ġgen":861,"esi":862,"osto":863,"Ġutilizza":864,"osta":865,"blo":866,"iche":867,"bre":868,"tru":869,"mma":870,"categori":871,"enze":872,"CA":873,"?\\":874,"ana":875,"qual":876,"nCon":877,"leng":878,"meta":879,"alizza":880,"Ġsolo":881,"ful":882,"90":883,"Ġver":884,"target":885,"length":886,"Ġtutti":887,"fied":888,"sha":889,"guage":890,"esto":891,"ĠLe":892,"text":893,"chÃ©":894,"block":895,"ĠMa":896,"conver":897,"language":898,"harm":899,"ante":900,"record":901,"categories":902,"quality":903,"nings":904,"plain":905,"itu":906,"]}}":907,"cqu":908,"headers":909,"metadata":910,"conversion":911,"digest":912,"warnings":913,"refers":914,"sentence":915,"harmful":916,"identifications":917,"\"},\"":918,"identified":919,"Ġ\\\"":920,"Ġservi":921,"zz":922,"www":923,"CE":924,"tÃł":925,"Ġperson":926,"tica":927,"Ġqual":928,"Ġmon":929,"91":930,"eno":931,"Ġsuo":932,"Ġchi":933,"Ġesp":934,"Ġfun":935,"Ġtro":936,"ide":937,"Ġfin":938,"Ġspe":939,"Ġ5":940,"cun":941,"Ġrisp":942,"ĠAn":943,"vis":944,"ge":945,"ess":946,"Ġanni":947,"endo":948,"https":949,"ĠSe":950,"fer":951,"02":952,"Ġmar":953,"65":954,"op":955,"TA":956,"Ġpas":957,"ttobre":958,"Ġ2021":959,"Ġ2020":960,"Ġris":961,"vol":962,"\"]":963,"\":[\"":964,"\"],\"":965,"dio":966,"Ġdisp":967,"bilitÃł":968,"Ġfi":969,"mer":970,"ĠpuÃ²":971,"\":[{\"":972,"anto":973,"TO":974,"ento":975,"essa":976,"inis":977,"Ġdalla":978,"Ġtratta":979,"ena":980,"elle":981,"nB":982,"ĠCom":983,"48":984,"RI":985,"997":986,"ppo":987,"uta":988,"Ġgio":989,"ettembre":990,"Ġtec":991,"EN":992,"Ġvo":993,"}]}}":994,"Ġman":995,"esta":996,"ire":997,"Ġprima":998,"bbe":999,"Ġprof":1000,"ugno":1001,"zie":1002,"cu":1003,"Ġsulla":1004,"Ġneces":1005,"Ġloro":1006,"prile":1007,"89":1008,"Ġ2019":1009,"Ġtutto":1010,"Ġsia":1011,"ziona":1012,"ĠPer":1013,"LI":1014,"nU":1015,"gn":1016,"Ġpia":1017,"cch":1018,"dia":1019,"bbra":1020,"Ġsempre":1021,"Ġpresen":1022,"Ġhanno":1023,"ĠAl":1024,"Ġpossi":1025,"isp":1026,"naio":1027,"Ġ4":1028,"ĠPa":1029,"Ġquesta":1030,"ĠLu":1031,"...\\":1032,"ĠPo":1033,"Ġsco":1034,"tter":1035,"dica":1036,"Ġ2018":1037,"Ġinformazioni":1038,"Ġpag":1039,"bo":1040,"Ġposs":1041,"Ġdall":1042,"Ġ2":1043,"riva":1044,"gis":1045,"Ġcar":1046,"Ġste":1047,"Ġ|":1048,"ws":1049,"Ġdire":1050,"Ġon":1051,"ebbra":1052,"ebbraio":1053,"mail":1054,"fa":1055,"Ġlu":1056,"Ġ2016":1057,"ĠMi":1058,"Ġbas":1059,"Ġ2017":1060,"73":1061,"!\\":1062,"81":1063,"vid":1064,"vitÃł":1065,"CC":1066,"tato":1067,"Ġop":1068,"zionale":1069,"Ġen":1070,"osa":1071,"54":1072,"Ġabb":1073,"ondi":1074,"Ġconsen":1075,"),":1076,"ir":1077,"Ġalcun":1078,"Ġsenza":1079,"DA":1080,"Ġaff":1081,"gosto":1082,"sid":1083,"ora":1084,"Ġcli":1085,"zzi":1086,"clu":1087,"forma":1088,"nO":1089,"Ġogni":1090,"org":1091,"64":1092,"Ġpr":1093,"Ġga":1094,"Ġatti":1095,"tenza":1096,"Ġdiver":1097,"inter":1098,"31":1099,"ulti":1100,"Ġro":1101,"57":1102,"80":1103,"essi":1104,"nQu":1105,"Ġeff":1106,"Ġvia":1107,"ĠÂ":1108,"Ġdis":1109,"Ġtempo":1110,"ati":1111,"Ġthe":1112,"dere":1113,"mina":1114,"Ġgran":1115,"Ġstato":1116,"Ġmolto":1117,"lazione":1118,"RE":1119,"Ġba":1120,"Ġprodo":1121,"indi":1122,"ensi":1123,"Ġmiglio":1124,"menta":1125,"vere":1126,"Ġho":1127,"anza":1128,"RA":1129,"Ġric":1130,"53":1131,"orto":1132,"ies":1133,"nPer":1134,"ĠPro":1135,"Ġdue":1136,"ggiun":1137,"Ġsegu":1138,"sto":1139,"67":1140,"Ġ2015":1141,"tivo":1142,"nLe":1143,"talia":1144,"for":1145,"Ġmod":1146,"cora":1147,"Ġnecessa":1148,"DE":1149,"pre":1150,"Ġsua":1151,"Ġlib":1152,"lano":1153,"Ġau":1154,"alo":1155,"etÃł":1156,"Ġfare":1157,"Ġcontro":1158,"gh":1159,"ec":1160,"sia":1161,"ccia":1162,"92":1163,"Ġmodo":1164,"Ġfar":1165,"âĤ":1166,"âĤ¬":1167,"que":1168,"icembre":1169,"ke":1170,"Ġuno":1171,"Ġlegg":1172,"rare":1173,"sse":1174,"994":1175,"nSe":1176,"Ġel":1177,"ZI":1178,"ĠNovembre":1179,"ard":1180,"ai":1181,"Ġsal":1182,"Ġcan":1183,"oto":1184,"Ġ6":1185,"Ġ2014":1186,"short":1187,"ell":1188,"sentences":1189,"Ġaltri":1190,"tante":1191,"ou":1192,"Ġpun":1193,"ffer":1194,"ookies":1195,"ttu":1196,"cio":1197,"ea":1198,"itali":1199,"iso":1200,"Ġsos":1201,"line":1202,"ĠJ":1203,"Ġnostro":1204,"Ġstra":1205,"mpi":1206,"Ġquando":1207,"acc":1208,"CB":1209,"Ġnei":1210,"CD":1211,"mbi":1212,"ett":1213,"39":1214,"fo":1215,"998":1216,"fi":1217,"ritto":1218,"Ġsol":1219,"ĠDi":1220,"Ġ2013":1221,"nRisp":1222,"venti":1223,"Ġtecn":1224,"AN":1225,"enta":1226,"toria":1227,"oma":1228,"Ġforma":1229,"ltre":1230,"38":1231,"uoi":1232,"gia":1233,"Ġnell":1234,"inistra":1235,"cato":1236,"ĠMaggio":1237,"ting":1238,"Ġviene":1239,"tive":1240,"tenti":1241,"rÃł":1242,"gle":1243,"Ġpossono":1244,"Ġcer":1245,"ĠNa":1246,"onda":1247,"ble":1248,"isti":1249,"Ġsic":1250,"ĠK":1251,"ĠperchÃ©":1252,"vare":1253,"Ġindi":1254,"Ġsotto":1255,"32":1256,"be":1257,"Ġdom":1258,"ĠGen":1259,"Ġconten":1260,"almente":1261,"Ġsecon":1262,"Ġquesti":1263,"Ġlavoro":1264,"ĠDicembre":1265,"Ġcondi":1266,"EA":1267,"Ġvita":1268,"Ġdopo":1269,"and":1270,"920":1271,"0000":1272,"ĠSi":1273,"iste":1274,"Ġcaso":1275,"olit":1276,"Ġcons":1277,"Ġquanto":1278,"ED":1279,"CF":1280,"gistra":1281,".\",\"":1282,"Ġfatto":1283,"Ġdice":1284,"IN":1285,"Ġ10":1286,"ssa":1287,"ĠAr":1288,"Ġancora":1289,"ĠUn":1290,"ĠFa":1291,"cce":1292,"tati":1293,"986":1294,"Ġacqu":1295,"Ġstu":1296,"ende":1297,"Ġmed":1298,"ĠSan":1299,"enda":1300,"nali":1301,"Ġauto":1302,"Ġcookies":1303,"78":1304,"Ġese":1305,"lica":1306,"tivi":1307,"Ġbu":1308,"LE":1309,"tinu":1310,"993":1311,"mon":1312,"Ġchia":1313,"atti":1314,"logia":1315,"licy":1316,"ttura":1317,"41":1318,"Ġcomple":1319,"foo":1320,"Ġmaggio":1321,"elo":1322,"Ġproprio":1323,"book":1324,"omento":1325,"Ġquello":1326,"IA":1327,"ĠSo":1328,"uso":1329,"rante":1330,"ranno":1331,"ideo":1332,"nAr":1333,"Ġ7":1334,"itori":1335,"teria":1336,"/\",\"":1337,"40":1338,"art":1339,"Ġdove":1340,"Ġpoi":1341,"Ġtua":1342,"footer":1343,"Ġprog":1344,"82":1345,"ostra":1346,"vano":1347,"ato":1348,"ggia":1349,"Ġcal":1350,"Ġmondo":1351,"ĠOttobre":1352,"Ġbi":1353,"985":1354,"806":1355,"Ġnelle":1356,"arÃł":1357,"Ġservizi":1358,"Ġtras":1359,"49":1360,"dd":1361,"pra":1362,"oso":1363,"Ġsin":1364,"Ġcit":1365,"71":1366,"utente":1367,"cip":1368,"TE":1369,"ista":1370,"Ġrichi":1371,"am":1372,"Ġstru":1373,"ciali":1374,"63":1375,"RO":1376,"ĠCo":1377,"Ġ2012":1378,"cita":1379,"Ġpossibile":1380,"Ġnum":1381,"bu":1382,"Ġpotre":1383,"citÃł":1384,"rivacy":1385,"ĠMilano":1386,"ĠPre":1387,"Ġtrattamento":1388,"Ġdov":1389,"nH":1390,"conom":1391,"Ġdes":1392,"gazione":1393,"ute":1394,"ĠMo":1395,"ĠcosÃ¬":1396,"Ġconta":1397,"Ġrapp":1398,"llo":1399,"...":1400,"stenza":1401,"sioni":1402,"Ġcosa":1403,").":1404,"orna":1405,"para":1406,"Ġand":1407,"Ġ/":1408,"BB":1409,"987":1410,"ĠDI":1411,"Ġof":1412,"oogle":1413,"51":1414,"ane":1415,"Ġitali":1416,"ĠSettembre":1417,"gione":1418,"999":1419,"50":1420,"nRispondi":1421,"Ġmas":1422,"DD":1423,"mministra":1424,"LA":1425,"Ġnostra":1426,"Ġpen":1427,"cebook":1428,"ture":1429,"cen":1430,"FA":1431,"nRe":1432,"Ġos":1433,"etro":1434,"ĠRi":1435,"SI":1436,"ccon":1437,"Ġpriva":1438,"Ġve":1439,"azione":1440,"colo":1441,"Ġcontra":1442,"--":1443,"ber":1444,"ĠMarzo":1445,"42":1446,"Ġsca":1447,"val":1448,"Ġparti":1449,"Ġera":1450,"zzare":1451,"Ġy":1452,"Ġservizio":1453,"ĠAprile":1454,"Ġeuro":1455,"ticolo":1456,"Ġsui":1457,"arti":1458,"Ġconf":1459,"Ġgu":1460,"anta":1461,"ubbli":1462,"Â»":1463,"ĠMon":1464,"Ġvisita":1465,"OR":1466,"ĠLuglio":1467,"ĠGiugno":1468,"ĠNon":1469,"Ġini":1470,"âĢĿ,":1471,"Ġmessa":1472,"serva":1473,"58":1474,"Ġstati":1475,"rica":1476,"ĠItalia":1477,"ciale":1478,"tamente":1479,"scri":1480,"ĠsarÃł":1481,"ich":1482,"Ġpor":1483,"__":1484,"vio":1485,"ffic":1486,"Ġperm":1487,"cri":1488,"Ġquali":1489,"Ġsiste":1490,"Ġfu":1491,"BA":1492,"EL":1493,"Ġspeci":1494,"entro":1495,"Ġracco":1496,"Ġporta":1497,"Ġtutte":1498,"nAl":1499,"Ġrice":1500,"mis":1501,"ĠGennaio":1502,"ultura":1503,"Ġtan":1504,"ĠLi":1505,"labora":1506,"olo":1507,"Ġcasa":1508,"ZION":1509,"ĠFebbraio":1510,"ly":1511,"Ġmis":1512,"sizione":1513,"Ġore":1514,"ink":1515,"Ġfine":1516,"esa":1517,"Ġbase":1518,"Ġfra":1519,"Ġconsenso":1520,"Ġrit":1521,"Ġqui":1522,"Ġquindi":1523,"Ġsopra":1524,"Ġcolle":1525,"Ġdec":1526,"header":1527,"ĠgiÃł":1528,"ession":1529,"Ġ15":1530,"erienza":1531,"Ġcomunica":1532,"osc":1533,"aria":1534,"Ġgrande":1535,"Ġnavi":1536,"Ġben":1537,"zzazione":1538,"endere":1539,"ĠAgosto":1540,"ac":1541,"Ġcir":1542,"Ġmemo":1543,"Ġmag":1544,"Ġdai":1545,"corso":1546,"Ġrela":1547,"chia":1548,"Ġbene":1549,"col":1550,"ttamente":1551,"lato":1552,"Ġpersonali":1553,"ab":1554,"ut":1555,"Ġpersone":1556,"ĠRoma":1557,"tenzione":1558,"ÃĪ":1559,"Ġnuovo":1560,";\\":1561,"Ġallo":1562,"ĠNe":1563,"este":1564,"EC":1565,"ste":1566,"Ġgiorni":1567,"Ġcara":1568,"Ġpic":1569,"nAn":1570,"Ġvolta":1571,"Ġmio":1572,"Ġdicembre":1573,"lio":1574,"Ġfino":1575,"ghi":1576,"Ġnovembre":1577,"Ġregistra":1578,"Ġavere":1579,"70":1580,"vamente":1581,"Ġspa":1582,"Ġmodi":1583,"Ġcas":1584,"mmag":1585,"usa":1586,"cchi":1587,"Ġ2011":1588,"verso":1589,"titu":1590,"vin":1591,"Ġnoi":1592,"Ġlun":1593,"72":1594,"Ġcap":1595,"fic":1596,"Ġprop":1597,"AC":1598,"engono":1599,"rig":1600,"net":1601,"Ġprote":1602,"Ġopp":1603,"ced":1604,"000":1605,"ĠCor":1606,"cono":1607,"gre":1608,"Ġmomento":1609,"61":1610,"ritti":1611,"Ġimpor":1612,"Ġdon":1613,"DB":1614,"imp":1615,"Ġattra":1616,"Ġ[":1617,"59":1618,"Ġdalle":1619,"nCa":1620,"ĠPi":1621,").\\":1622,"fe":1623,"itare":1624,"Ġth":1625,"Ġass":1626,"Ġproble":1627,"Ġsen":1628,"Ġopera":1629,"vento":1630,"ppro":1631,"EB":1632,"use":1633,"Ġfoto":1634,"arsi":1635,"amo":1636,"Ġora":1637,"Ġpartico":1638,"Ġstesso":1639,"Ġaltre":1640,"Ġ11":1641,"glie":1642,"oste":1643,"ticoli":1644,"Ġsiti":1645,"app":1646,"Ġdetto":1647,"omo":1648,"8061":1649,"ton":1650,"mati":1651,"52":1652,"zionali":1653,"tale":1654,"nNe":1655,"Ġconsi":1656,"gie":1657,"9208061":1658,"68":1659,"mpio":1660,"Ġdello":1661,"Ġquella":1662,"spon":1663,"Ġricerca":1664,"Ġagli":1665,"smo":1666,"cial":1667,"rato":1668,"Ġoff":1669,"Ġnostri":1670,"ts":1671,"Ġprimo":1672,"ĠTu":1673,"sci":1674,"ud":1675,"ES":1676,"Ġprodotti":1677,"Ġ8":1678,"AD":1679,"Ġmeno":1680,"lar":1681,"ĠQuesto":1682,"Ġave":1683,"Ġgiorno":1684,"62":1685,"Ġfre":1686,"ĠSer":1687,"ĠTra":1688,"Ġcla":1689,"Ġsucc":1690,"IS":1691,"FB":1692,"rea":1693,"Ġ0":1694,"Ġnecessari":1695,"ĠCas":1696,"Ġnumero":1697,"Ġ12":1698,"Ġ18":1699,"EE":1700,"ssistenza":1701,"Ġvengono":1702,"Ġutenti":1703,"Ġbro":1704,"Ġforn":1705,"all":1706,"nPro":1707,"ĠZ":1708,"Ġleg":1709,"keting":1710,"stica":1711,"Ġmen":1712,"ĠâĤ¬":1713,"Ġz":1714,"Ġtipo":1715,"Ġoltre":1716,"In":1717,"âĢľ":1718,"ettu":1719,"duzione":1720,"Ġfis":1721,"Ġrip":1722,"Ġtor":1723,"Ġind":1724,"Ġottobre":1725,"dizione":1726,"Ġquale":1727,"Ġorg":1728,"Ġstata":1729,"Ġcorre":1730,"Ġmai":1731,"OM":1732,"ĠCh":1733,"Ġsti":1734,"tor":1735,"Ġsull":1736,"âĸ":1737,"urezza":1738,"ĠDe":1739,"esse":1740,"Ġsulle":1741,"ĠSa":1742,"VA":1743,"Ġrif":1744,"ĠCookie":1745,"eli":1746,"Ġpiace":1747,"erÃł":1748,"AA":1749,"984":1750,"pera":1751,"Ġrealizza":1752,"Ġmani":1753,"Ġoggi":1754,"Ġpassa":1755,"Ġprin":1756,"Ġam":1757,"Ġid":1758,"Ġprefer":1759,"Ġesi":1760,"Ġven":1761,"60":1762,"lari":1763,"ĠInter":1764,"vilu":1765,"Ġvideo":1766,"Ġ&":1767,"mpa":1768,"Ġrisul":1769,"ida":1770,"Ġfil":1771,"isce":1772,"Ġann":1773,"Ġsecondo":1774,"su":1775,"segu":1776,"Ġvari":1777,"arda":1778,"gen":1779,"Ġnuova":1780,"ĠSp":1781,"Ġgesti":1782,"min":1783,"Ġmemori":1784,"ose":1785,"ĠLo":1786,"tten":1787,"ĠPolicy":1788,"Ġele":1789,"*\\":1790,"Ġ30":1791,"ĠÂ«":1792,"nCome":1793,"graf":1794,"Ġnatura":1795,"Ġdisponi":1796,"vero":1797,"uno":1798,"FF":1799,"ĠattivitÃł":1800,"79":1801,"senti":1802,"Ġ2010":1803,"ĠY":1804,"Ġsempli":1805,"rizzo":1806,"erra":1807,"sitÃł":1808,"Ġalcuni":1809,"Ġfami":1810,"Ġmateria":1811,"Ġprofession":1812,"scia":1813,"ĠDa":1814,"Ġsistema":1815,"eria":1816,"Ġsettembre":1817,"ĠFran":1818,"Ġpolit":1819,"Ġmia":1820,"69":1821,"una":1822,"eter":1823,"ranti":1824,"Ġved":1825,"Ġasso":1826,"Ġrec":1827,"Ġgru":1828,"van":1829,"Ġgiugno":1830,"tic":1831,"ho":1832,"nCom":1833,"Ġindica":1834,"Ġscel":1835,"Ġaltro":1836,"Ġcolo":1837,"orre":1838,"agna":1839,"Ġ9":1840,"983":1841,"cietÃł":1842,"siasi":1843,"âĸº":1844,"VI":1845,"Ġdiven":1846,"Ġ19":1847,"ĠRo":1848,"Ġ24":1849,"ardo":1850,"ĠMan":1851,"Ġstoria":1852,"ner":1853,"Ġsiamo":1854,"Ġrego":1855,"Ġtele":1856,"mar":1857,"DF":1858,"Ġcategori":1859,"wit":1860,"up":1861,"Ġeffettu":1862,"Ġpubblica":1863,"sie":1864,"nNo":1865,"Ġtre":1866,"zienda":1867,"coli":1868,"itti":1869,"AB":1870,"Ġbamb":1871,"Ġmarzo":1872,"Ġusa":1873,"Ġ13":1874,"Ġ14":1875,"vole":1876,"Ġer":1877,"Ġ16":1878,"Ġraccol":1879,"Ġaggiun":1880,"Ġattraverso":1881,"mite":1882,"Ġten":1883,"Ġterr":1884,"Ġonline":1885,"rati":1886,"ccio":1887,"Ġmus":1888,"anda":1889,"Ġprodotto":1890,"975":1891,"CO":1892,"âĢ¦\\":1893,"Ġcontinu":1894,"Ġdeve":1895,"DC":1896,"wser":1897,"tanza":1898,"ordina":1899,"ario":1900,"Ġincon":1901,"ĠCar":1902,"Ġim":1903,"Ġlegge":1904,"ttore":1905,"ĠGoogle":1906,"Ġaver":1907,"segna":1908,"Ġqualsiasi":1909,"Ġterm":1910,"our":1911,"Ġgennaio":1912,"988":1913,"resen":1914,"gere":1915,"9999":1916,"udi":1917,"tali":1918,"ĠWeb":1919,"AR":1920,"Ġtito":1921,"ph":1922,"DI":1923,"iori":1924,"mbia":1925,"Ġaprile":1926,"erimento":1927,"tazione":1928,"ĠDo":1929,"Ġnavigazione":1930,"Ġanti":1931,"]\\":1932,"accesso":1933,"ĠCi":1934,"Ġbrowser":1935,"Ġpe":1936,"Ġpunto":1937,"clusi":1938,"Ġdisa":1939,"Ġluglio":1940,"Ġdiff":1941,"Ġsuper":1942,"Ġrigu":1943,"der":1944,"Ġ25":1945,"Ġsan":1946,"ĠqualitÃł":1947,"iore":1948,"Ġinc":1949,"Ġas":1950,"esp":1951,"ĠComun":1952,"eta":1953,"Ġsvilu":1954,"uola":1955,"EF":1956,"Ġval":1957,"asi":1958,"Ġesempio":1959,"ĠVia":1960,"ork":1961,"Ġpagina":1962,"bbero":1963,"poli":1964,"itore":1965,"simo":1966,"essione":1967,"ĠIN":1968,"Ġemail":1969,"Â°":1970,"Ġimposta":1971,"Ġgo":1972,"OS":1973,"Ġ,":1974,"Ġmin":1975,"Ġ17":1976,"gliere":1977,"Ġrispetto":1978,"Ġcaratter":1979,"vvero":1980,"CI":1981,"onta":1982,"âĢĿ\\":1983,"Ġpresente":1984,"gono":1985,"Ġ21":1986,"Ġgener":1987,"Ġdurante":1988,"Ġmie":1989,"Ġpart":1990,"Ġasp":1991,"ee":1992,"Ġsuoi":1993,"gramma":1994,"Ġfebbraio":1995,"Ġab":1996,"Ġabbiamo":1997,"ĠcittÃł":1998,"MA":1999,"dÃ¬":2000,"Ġperio":2001,"witter":2002,"Ġdiritto":2003,"Ġbiso":2004,"Ġliv":2005,"Ġqueste":2006,"Ġfer":2007,"razione":2008,"dice":2009,"usto":2010,"Ġraga":2011,"ĠChi":2012,"nNon":2013,"ment":2014,"sponsa":2015,"stru":2016,"Ġva":2017,"lla":2018,"Ġulti":2019,"tribu":2020,"Ġsicurezza":2021,"nChi":2022,"Ġvalo":2023,"Ġdata":2024,"LO":2025,"unque":2026,"Ġprincip":2027,"torio":2028,"tag":2029,"Ġorgani":2030,"Ġanno":2031,"Ġappro":2032,"Ġtutta":2033,"AF":2034,"976":2035,"Ġtecno":2036,"Ġconsid":2037,"Ġfon":2038,"Ġecc":2039,"ok":2040,"Ġsf":2041,"Ġtecnica":2042,"Ġis":2043,"Ġutilizzato":2044,"ulla":2045,"cina":2046,"ssimo":2047,"Ġeconom":2048,"itato":2049,"rico":2050,"Ġdiversi":2051,"Ġpresso":2052,"tando":2053,"mato":2054,"Ġdef":2055,"ercato":2056,"cipa":2057,"Ġk":2058,"Ġaggi":2059,"nUn":2060,"vato":2061,"Ġfe":2062,"Ġline":2063,"Ġresponsa":2064,"Ġricor":2065,"chio":2066,"ĠSu":2067,"ventu":2068,"vece":2069,"Ġvend":2070,"Ġstre":2071,"Ġmesi":2072,"Ġpotrebbe":2073,"logie":2074,"Ġfunzion":2075,"Ġsvol":2076,"ettiman":2077,"Ġbo":2078,"ZIONE":2079,"alda":2080,"Ġare":2081,"Ġ#":2082,"Ġstan":2083,"ositi":2084,"orti":2085,"ass":2086,"Ġscri":2087,"Ġagosto":2088,"Ġ22":2089,"tel":2090,"Ġrappresen":2091,"AE":2092,"Ġinte":2093,"933":2094,"Ġinv":2095,"zzato":2096,"utili":2097,"sieme":2098,"991":2099,"isto":2100,"aly":2101,"Ġforni":2102,"Ġimmag":2103,"Ġ2009":2104,"Ġgrazie":2105,"gram":2106,"Ġesperienza":2107,"Ġfaci":2108,"!!":2109,"dazione":2110,"ĠÃĪ":2111,"Ġqualche":2112,"ingu":2113,"Ġnas":2114,"NA":2115,"Ġtuoi":2116,"ction":2117,"tanti":2118,"Ġotten":2119,"acqu":2120,"meno":2121,"Ġ+":2122,"ĠFor":2123,"Ġcultura":2124,"Ġmer":2125,"ĠRa":2126,"Ġby":2127,"vono":2128,"Ġnoti":2129,"Ġban":2130,"nPre":2131,"ĠPar":2132,"ĠVal":2133,"ficare":2134,"eni":2135,"ata":2136,"Ġinvia":2137,"ĠEuro":2138,"Ġhai":2139,"Ġdocu":2140,"Ġseguito":2141,"nConta":2142,"Ġparo":2143,"dare":2144,"Ġstori":2145,"Ġcorso":2146,"qui":2147,"BC":2148,"ettore":2149,"Ġfas":2150,"nFa":2151,"Ġex":2152,"Ġdiritti":2153,"Ġocc":2154,"nCookie":2155,"ght":2156,"Ġprivacy":2157,"cci":2158,"Ġcontenuti":2159,"Ġrin":2160,"tr":2161,"Ġinvece":2162,"cer":2163,"Ġconte":2164,"Ġprogetto":2165,"SS":2166,"nW":2167,"cchia":2168,"Ġ23":2169,"fiche":2170,"BD":2171,"Ġsub":2172,"site":2173,"CH":2174,"nQuesto":2175,"âĢĿ.":2176,"Ġverso":2177,"Ġparticolare":2178,"990":2179,"977":2180,"GI":2181,"ft":2182,"lus":2183,"Ġmentre":2184,"bri":2185,"974":2186,"Ġcommento":2187,"Ġarriva":2188,"ĠDEL":2189,"Ġide":2190,"Ġnecessario":2191,"Ġgiov":2192,"Ġtramite":2193,"lmente":2194,"Ġlim":2195,"Ġloca":2196,"Ġcambia":2197,"La":2198,"gior":2199,"ettere":2200,"tero":2201,"Ġvos":2202,"Ġnome":2203,"interno":2204,"Ġvin":2205,"Ġricon":2206,"Ġio":2207,"965":2208,"rie":2209,"Ġconosc":2210,"fico":2211,"ĠGio":2212,"osci":2213,"ha":2214,"Ġotti":2215,"ĠSal":2216,"sar":2217,"Ġregi":2218,"Ġguid":2219,"Ġanali":2220,"archi":2221,"ann":2222,"ĠpossibilitÃł":2223,"ĠciÃ²":2224,"Ġcri":2225,"sidente":2226,"Ġfunziona":2227,"ET":2228,"Ġluo":2229,"Ġcomunicazione":2230,"onato":2231,"Ġsettiman":2232,"Ġsare":2233,"9986":2234,"AL":2235,"aa":2236,"unta":2237,"Ġlavora":2238,"Ġarti":2239,"agno":2240,"ĠPrivacy":2241,"vidi":2242,"ĠBo":2243,"ond":2244,"Ġsegna":2245,"Ġannun":2246,"ziale":2247,"Ġsci":2248,"Ġnorma":2249,"ficato":2250,"Ġraccon":2251,"mbra":2252,"alizzazione":2253,"tiny":2254,"Ġdip":2255,"PR":2256,"Ġpuoi":2257,"ĠGa":2258,"nova":2259,"ossi":2260,"Ġinterna":2261,"ĠX":2262,"Ġfuo":2263,"nLeggi":2264,"Ġgratu":2265,"gato":2266,"Ġsemplice":2267,"zzati":2268,"ĠGra":2269,"Ġquelli":2270,"nPrivacy":2271,"entra":2272,"vista":2273,"itale":2274,"973":2275,"Ġacco":2276,"ĠBi":2277,"gare":2278,"cola":2279,"ghe":2280,"auto":2281,"Ġesclusi":2282,"nMa":2283,"mbiente":2284,"Ġdetta":2285,"eo":2286,"Ġscon":2287,"nDi":2288,"Ġmolti":2289,"ttutto":2290,"Ġmeglio":2291,"Ġentra":2292,"Ġvolte":2293,"978":2294,"care":2295,"ns":2296,"uole":2297,"ĠVer":2298,"ĠsocietÃł":2299,"erazione":2300,"ent":2301,"cella":2302,"ĠVi":2303,"omb":2304,"ĠCON":2305,"Ġsei":2306,"Ġgrado":2307,"ĠRic":2308,"Ġsupp":2309,"ĠCol":2310,"pia":2311,"Ġconsul":2312,"Ġscopo":2313,"Ġnegli":2314,"nDo":2315,"Ġsaranno":2316,"EG":2317,"Ġaggiorna":2318,"Ġness":2319,"Ġmili":2320,"Ġutente":2321,"ggetti":2322,"Ġpersonale":2323,"Ġsue":2324,"Ġdeter":2325,"ĠFi":2326,"etri":2327,"966":2328,"Ġcommer":2329,"rebbe":2330,"Ġinsieme":2331,"FE":2332,"ĠFacebook":2333,"Ġprogramma":2334,"Ġconfer":2335,"utilizzo":2336,">\"},\"":2337,"SA":2338,"Ġutilizzati":2339,"ll":2340,"BE":2341,"Ġwebsite":2342,"Ġsigni":2343,"Ġobbli":2344,"uzione":2345,"lati":2346,"itorio":2347,"Ġprofi":2348,"Ġmessaggi":2349,"ĠCondi":2350,"Ġinizia":2351,"zze":2352,"Ġfornire":2353,"Ġaper":2354,"media":2355,"tad":2356,"Ġpersona":2357,"NI":2358,"Ġriserva":2359,"cchio":2360,"im":2361,"Ġdedica":2362,"Ġ*\\":2363,"nata":2364,"stiche":2365,"âĢĿ.\\":2366,"Ġspesso":2367,"Ġmedia":2368,"Ġsensi":2369,"osti":2370,"ppe":2371,"Ġfonda":2372,"Ġmigliori":2373,"ĠperÃ²":2374,"sico":2375,"au":2376,"Ġcategoria":2377,"cra":2378,"etter":2379,"Ġgruppo":2380,"FD":2381,"Ġpubblico":2382,"missione":2383,"istiche":2384,"Ġpoter":2385,"Ġul":2386,"Il":2387,"Ġmigliore":2388,"Ġrich":2389,"Ġsosten":2390,"lamento":2391,"Ġsitu":2392,"Ġblog":2393,"Ġmese":2394,"ĠTer":2395,"Ġmostra":2396,"Ġtri":2397,"estra":2398,"Ġtanto":2399,"aggi":2400,"Ġsoprattutto":2401,"Ġ:":2402,"stitu":2403,"Ġcura":2404,"Ġcirca":2405,"Ġamministra":2406,"Ġarticoli":2407,"105":2408,"Ġrisposta":2409,"erson":2410,"eleziona":2411,"Ġoppure":2412,"tanto":2413,"tano":2414,"ost":2415,"arte":2416,"icura":2417,"Ġnuovi":2418,"Ġlivello":2419,"tata":2420,"Ġalcune":2421,"Ġorig":2422,"ĠEn":2423,"mia":2424,"usti":2425,"gin":2426,"Ġcapi":2427,"989":2428,"956":2429,"Ġmiei":2430,"ĠMe":2431,"verno":2432,"Ġquo":2433,"Ġtue":2434,"ppa":2435,"Ġgestione":2436,"Ġvic":2437,"Ġfinan":2438,"ĠSc":2439,"TU":2440,"Ġsocial":2441,"ppi":2442,"Mi":2443,"Ġins":2444,"Ġproces":2445,"isa":2446,"trice":2447,"Ġpropria":2448,"âĢĵ":2449,"Ġraggiun":2450,"Ġimpe":2451,"Ġdonne":2452,"viazione":2453,"Ġpara":2454,"Ġpes":2455,"nTop":2456,"Ġinfatti":2457,"Ġveri":2458,"Ġimpre":2459,"Ġcomunque":2460,"NO":2461,"Ġimportante":2462,"Ġarg":2463,"Ġoffer":2464,"Ġconsent":2465,"Ġ27":2466,"Ġinten":2467,"Ġpensa":2468,"Ġrichiesta":2469,"Ġcollabora":2470,"Ġsor":2471,"Ġdiffer":2472,"Italia":2473,"967":2474,"letter":2475,"Ġcentro":2476,"pr":2477,"Ġleggere":2478,"Ġesa":2479,"Ġpoco":2480,"Ġdig":2481,"ZA":2482,"ĠGu":2483,"mentare":2484,"fici":2485,"Ġserie":2486,"\\\",":2487,"utenzione":2488,"Ġcostru":2489,"tics":2490,"Ġbambini":2491,"Ġcose":2492,"iale":2493,"Ġ2008":2494,"Ġdiverse":2495,"mpre":2496,"Ġpaga":2497,"Ġapplica":2498,"Ġutilizzare":2499,"Ġus":2500,"urata":2501,"formativa":2502,"uale":2503,"ĠTh":2504,"Ġsuccessi":2505,"alla":2506,"Ġtrovare":2507,"Ġmusica":2508,"Ġpreced":2509,"nTu":2510,"885":2511,"ande":2512,"ficazione":2513,"ismo":2514,"Ġpreferenze":2515,"uni":2516,"955":2517,"ĠSta":2518,"Ġdesid":2519,"tur":2520,"Ġfo":2521,"Ġspeciali":2522,"Ġtrasp":2523,"cere":2524,"anni":2525,"964":2526,"esign":2527,"Ġali":2528,"Ġgaranti":2529,"Ġ26":2530,"nMi":2531,"mu":2532,"Ġtale":2533,"ustri":2534,"Ġfilm":2535,"ssione":2536,"omp":2537,"ĠMed":2538,"ĠBa":2539,"stal":2540,"Ġpopo":2541,"Ġvio":2542,"ðŁ":2543,"ĠBer":2544,"Ġstessa":2545,"Ġgrandi":2546,"Ġmercato":2547,"Ġreal":2548,"Ġcondizioni":2549,"MO":2550,"Ġricev":2551,"Ġpot":2552,"unt":2553,"uli":2554,"vizi":2555,"Ġletto":2556,"Ġcamp":2557,"ordine":2558,"Ġsettore":2559,"Ġyour":2560,"ĠThe":2561,"Ġ28":2562,"df":2563,"____":2564,"Ġdispositi":2565,"Ġhttp":2566,"dato":2567,"Ġperiodo":2568,"Ġquel":2569,"Ġlingu":2570,"ĠTi":2571,"nSi":2572,"wsletter":2573,"ziali":2574,"alytics":2575,"FC":2576,"sary":2577,"Ġseconda":2578,"Ġpost":2579,"Ġperf":2580,"nPubbli":2581,"Ġcausa":2582,"Ġsap":2583,"assi":2584,"af":2585,"Ġlui":2586,"Ġelet":2587,"upa":2588,"tm":2589,"Ġquasi":2590,"Ġautori":2591,"Ġester":2592,"Ġbe":2593,"Ġterritorio":2594,"963":2595,"ant":2596,"Ġpresta":2597,"gati":2598,"Ġmarketing":2599,"stici":2600,"927":2601,"Ġpartecipa":2602,"nCondi":2603,"bietti":2604,"Ġsenti":2605,"\\\"\\":2606,"921":2607,"Ġaveva":2608,"Ġpra":2609,"Ġquelle":2610,"ĠfunzionalitÃł":2611,"ciazione":2612,"articolo":2613,"ct":2614,"Ġtrova":2615,"ĠCli":2616,"MI":2617,"QU":2618,"\\\\":2619,"ĠAd":2620,"Ġvelo":2621,"Ġeurope":2622,"ĠUna":2623,"Ġproblema":2624,"archiviazione":2625,"Ġattu":2626,"cook":2627,"DPR":2628,"Ġaccetta":2629,"Ġtraccia":2630,"turo":2631,"Ġdispo":2632,"versa":2633,"ĠTor":2634,"Ġprodu":2635,"Ġcompet":2636,"Ġsce":2637,"stico":2638,"906":2639,"mare":2640,"Ġrete":2641,"Ġulter":2642,"ffici":2643,"Ġsiano":2644,"illa":2645,"altro":2646,"Ġcel":2647,"00003":2648,"nFacebook":2649,"Ġterze":2650,"Ġani":2651,"ĠApp":2652,"nGi":2653,"pt":2654,"Ġmil":2655,"Ġdato":2656,"Ġessen":2657,"946":2658,"Ġeventu":2659,"Ġintegra":2660,"vie":2661,"ĠDati":2662,"more":2663,"nRic":2664,"Ġsembra":2665,"av":2666,"917":2667,"Ġrivol":2668,"Ġmor":2669,"Ġcreare":2670,"Ġdirettamente":2671,"versitÃł":2672,"red":2673,"992":2674,"Ġcittad":2675,"ind":2676,"Ġbisogno":2677,"ĠTri":2678,"Ġcred":2679,"Ġvedere":2680,"nMar":2681,"913":2682,"Ġ100":2683,"zionatori":2684,"Ġacquis":2685,"Ġnuove":2686,"BF":2687,"ggetto":2688,"Ġuni":2689,"ettron":2690,"Ġfos":2691,"Ġcapa":2692,"ardi":2693,"PA":2694,"Ġconsu":2695,"ĠrealtÃł":2696,"len":2697,"Ġprevis":2698,"cosa":2699,"Ġpresenti":2700,"nPo":2701,"Ġscelta":2702,"Ġcomporta":2703,"bc":2704,"Ġlascia":2705,"Ġnu":2706,"viso":2707,"ware":2708,");":2709,"945":2710,"Ġtelef":2711,"ĠâĢ¦":2712,"Ġposto":2713,"Ġmessaggio":2714,"ordo":2715,"Ġcerca":2716,"chÃ¨":2717,"Ġfuori":2718,"MEN":2719,"Ġclienti":2720,"957":2721,"bf":2722,"ulo":2723,"ziamo":2724,"Ġinol":2725,"ĠHo":2726,"Ġcampi":2727,"tezza":2728,"Ġacce":2729,"Ġgiornali":2730,"telli":2731,"orno":2732,"Ġdetermina":2733,"Ġ'":2734,"935":2735,"mica":2736,"Ġado":2737,"rire":2738,"Ġ29":2739,"ĠPER":2740,"845":2741,"uore":2742,"esco":2743,"Ġlibro":2744,"Ġnostre":2745,"ronto":2746,"Ġaiuta":2747,"alle":2748,"rus":2749,"ĠNel":2750,"info":2751,"Ġsenso":2752,"Ġrep":2753,"onale":2754,"Ġener":2755,"gge":2756,"Ġpiano":2757,"dis":2758,"bd":2759,"word":2760,"943":2761,"Ġimmagini":2762,"dur":2763,"ĠOr":2764,"Ġvisitatori":2765,"----":2766,"Ġinser":2767,"Ġelettron":2768,"Ġlink":2769,"Ġterzi":2770,"Ġfamiglia":2771,"Ġsignifica":2772,"omenti":2773,"Ġtesta":2774,"Ġmano":2775,"981":2776,"Ġproblemi":2777,"Ġgioco":2778,"953":2779,"mentazione":2780,"lizia":2781,"ĠfinalitÃł":2782,"reto":2783,"Ġaccesso":2784,"zzando":2785,"Ġmigliorare":2786,"Ġsingo":2787,"Ġset":2788,"ĠLA":2789,"ĠâĢĺ":2790,"914":2791,"Ġinclu":2792,"Ġindirizzo":2793,"Ġvisto":2794,"ĠAL":2795,"905":2796,"Ġcontatta":2797,"Ġprezzo":2798,"925":2799,"ttere":2800,"Ġconsegu":2801,"Ġag":2802,"954":2803,"zon":2804,"Ġblo":2805,"Ġarri":2806,"ei":2807,"ub":2808,"944":2809,"aga":2810,"Ġottenere":2811,"rsi":2812,"Ġspie":2813,"Ġcorpo":2814,"genza":2815,"ĠGDPR":2816,"entale":2817,"916":2818,"2021":2819,"Ġchied":2820,"fr":2821,"less":2822,"Ġpagine":2823,"Ġsesso":2824,"Ġstrada":2825,"Ġprov":2826,"Ar":2827,"Ġletter":2828,"Ġcapire":2829,"Ġfunzionamento":2830,"Ġcostitu":2831,"Ġambi":2832,"Ġdavvero":2833,"Ġdagli":2834,"tidi":2835,"Ġbar":2836,"ndi":2837,"cano":2838,"Ġcompr":2839,"Ġsociale":2840,"Ġuse":2841,"Ġdif":2842,"nLo":2843,"altra":2844,"Ġidenti":2845,"cher":2846,"936":2847,"Ġpolitica":2848,"rona":2849,"Ġfru":2850,"late":2851,"crizione":2852,"980":2853,"ssegna":2854,"cche":2855,"Ġstudio":2856,"car":2857,"915":2858,"amministra":2859,"cole":2860,"Ġvero":2861,"923":2862,"nTra":2863,"Ġcam":2864,"ĠCos":2865,"fia":2866,"nd":2867,"erti":2868,"ki":2869,"Ġannunci":2870,"Ġriman":2871,"947":2872,"ef":2873,"orse":2874,"Ġbre":2875,"100":2876,"Ġsimi":2877,"Ġcresc":2878,"lina":2879,"Ġparole":2880,"Ġcampo":2881,"Ġsubito":2882,"itazione":2883,"Ġdare":2884,"ĠCome":2885,"Ġor":2886,"911":2887,"vincia":2888,"onte":2889,"Ġtanti":2890,"Ġruo":2891,"Ġcontrollo":2892,"rale":2893,"Ġeffetti":2894,"ĠFrances":2895,"ddis":2896,"Ġev":2897,"ĠmodalitÃł":2898,"Ġarticolo":2899,"Ġscuola":2900,"Ġcasi":2901,"tici":2902,"ung":2903,"ĠItali":2904,"rello":2905,"TER":2906,"zziamo":2907,"Ġinoltre":2908,"nHome":2909,"2020":2910,"Uni":2911,"right":2912,"ssima":2913,"Ġlungo":2914,"Ġpass":2915,"sce":2916,"Ġ.":2917,"ziende":2918,"IO":2919,"ĠTa":2920,"mano":2921,"prire":2922,"unica":2923,"ĠRep":2924,"cookie":2925,"Ġconsidera":2926,"asso":2927,"Ġdisc":2928,"Ġstrumenti":2929,"matica":2930,"ĠPri":2931,"abb":2932,"Ġscopi":2933,"Ġvista":2934,"ĠBar":2935,"Ġdichia":2936,"934":2937,"nRi":2938,"lin":2939,"work":2940,"htm":2941,"Ġanoni":2942,"Ġcin":2943,"zzata":2944,"Ġrius":2945,"omi":2946,"ualizza":2947,"Ġnazionale":2948,"trib":2949,"ensioni":2950,"Ġpersonalizza":2951,"Ġsm":2952,"erire":2953,"Ġriferimento":2954,"cendo":2955,"Ġcaratteristiche":2956,"Ġcommenti":2957,"Ġcancella":2958,"lti":2959,"ersi":2960,"Ġada":2961,"utare":2962,"tate":2963,"Ġplu":2964,"US":2965,"dotto":2966,"Ġstruttura":2967,"Ġgiovani":2968,"Ġpote":2969,"teg":2970,"ĠAnd":2971,"Ġlinea":2972,"Ġformazione":2973,"pen":2974,"nContatti":2975,"ĠCA":2976,"Â©":2977,"Ġru":2978,"mazon":2979,"Ġguida":2980,"Ġconto":2981,"iede":2982,"ubblica":2983,"Ġluogo":2984,"form":2985,"quad":2986,"visione":2987,"Ġmini":2988,"Ġbra":2989,"tture":2990,"ĠDis":2991,"Ġ50":2992,"inale":2993,"ue":2994,",\\":2995,"tis":2996,"PO":2997,"Ġclassi":2998,"Ġesclusivamente":2999,"924":3000,"ĠTe":3001,"nMo":3002,"viti":3003,"agn":3004,"yright":3005,"uca":3006,"Ġpolicy":3007,"tile":3008,"grafia":3009,"Ġmaggior":3010,"Ġsviluppo":3011,"Ġx":3012,"926":3013,"rai":3014,"Ġfavo":3015,"Ġcio":3016,"Ġproduzione":3017,"Ġvostro":3018,"Ġeventi":3019,"sima":3020,"Ġmisura":3021,"Ġmemorizzare":3022,"Ġvendita":3023,"iedi":3024,"ĠConsi":3025,"voli":3026,"anco":3027,"nEmail":3028,"Ġriso":3029,"festa":3030,"ĠMas":3031,"Ġsarebbe":3032,"Ġfron":3033,"ĠStati":3034,"Ġuffic":3035,"Ġdesti":3036,"Ġforum":3037,"Ġosp":3038,"Ġscrit":3039,"ence":3040,"dc":3041,"224":3042,"904":3043,"nNome":3044,"856":3045,"cessary":3046,"Ġsoli":3047,"Ġviaggio":3048,"Ġterra":3049,"Ġvera":3050,"Ġcoin":3051,"esperienza":3052,"bilmente":3053,"Ġitaliano":3054,"bato":3055,"Ġazienda":3056,"durre":3057,"Ġspazio":3058,"Ġpul":3059,"Ġinteressa":3060,"cale":3061,"rl":3062,"ĠpubblicitÃł":3063,"Ġprezzi":3064,"ill":3065,"ĠSono":3066,"Ġgenerale":3067,"ĠAssistenza":3068,"Ġpiatta":3069,"Ġyou":3070,"Ġalmeno":3071,"968":3072,"ondo":3073,"TTI":3074,"arch":3075,"ĠPia":3076,"Ġutilizzo":3077,"land":3078,"Ġqualcosa":3079,"conomia":3080,"parazione":3081,"Ġpubblicita":3082,"Ġprom":3083,"876":3084,"971":3085,"ĠCondizionatori":3086,"Ġdol":3087,"Ġfrequ":3088,"ĠTito":3089,"ggiungi":3090,"Ġpunti":3091,"Ġresi":3092,"Ġpresenza":3093,"edi":3094,"copri":3095,"corr":3096,"Ġcollega":3097,"iscono":3098,"900":3099,"903":3100,"Ġtermine":3101,"ascia":3102,"937":3103,"entemente":3104,"ĠGo":3105,"Ġsede":3106,"nCondividi":3107,"tiche":3108,"unto":3109,"Ġpossa":3110,"ster":3111,"lata":3112,"spi":3113,"ĠBu":3114,"Ġâ":3115,"OL":3116,"Ġvalore":3117,"html":3118,"inema":3119,"mbito":3120,"omini":3121,"tendo":3122,"ate":3123,"bbiamo":3124,"Ġfuturo":3125,"nArchi":3126,"Ġsessione":3127,"Ġsuccesso":3128,"Ġinteress":3129,"Ġmezzo":3130,"Ġanima":3131,"Ġallora":3132,"\\\".\\":3133,"Ġrichieste":3134,"875":3135,"Ġlegitti":3136,"vile":3137,"Ġ2007":3138,"vanti":3139,"Ġmilioni":3140,"Ġappar":3141,"Ġrapporto":3142,"Ġcrit":3143,"Ġesegu":3144,"Ġrisultati":3145,"Ġindivid":3146,"enica":3147,"Ġpol":3148,"Ġpensi":3149,"II":3150,"hat":3151,"ĠStato":3152,"icro":3153,"cf":3154,"Ġobbliga":3155,"nCo":3156,"cre":3157,"Ġtroppo":3158,"ĠYou":3159,"osso":3160,"Ġaccon":3161,"ttiva":3162,"ĠÂ»":3163,"Ġmedi":3164,"Ġtesti":3165,"anze":3166,"non":3167,"Ġtorna":3168,"Ġpla":3169,"9998":3170,"Ġeser":3171,"Ġcerti":3172,"Ġproce":3173,"Ġdevono":3174,"anca":3175,"IL":3176,"rend":3177,"Ġprotezione":3178,"Ġtemp":3179,"Ġspetta":3180,"907":3181,"DO":3182,"Ġcontenuto":3183,"ostru":3184,"Ġdisponibile":3185,"ae":3186,"Ġsalute":3187,"denti":3188,"terna":3189,"Ġrica":3190,"ppia":3191,"Ġpercorso":3192,"Ġtecnici":3193,"Ġstampa":3194,"Ġitaliana":3195,"ĠEx":3196,"vimento":3197,"Ġtesto":3198,"trimon":3199,"Ġcomune":3200,"Ġrecu":3201,"846":3202,"attro":3203,"Ġamici":3204,"tinua":3205,"AG":3206,"Ġposso":3207,"Ġtali":3208,"berto":3209,"cro":3210,"Ġvalori":3211,"PI":3212,"Ġdeci":3213,"mio":3214,"ng":3215,"Ġur":3216,"Ġabil":3217,"ftware":3218,"Ġconn":3219,"Ġtempi":3220,"Ġassi":3221,"AS":3222,"ĠQuesti":3223,"883":3224,"Ġcarta":3225,"Ġtecnologie":3226,"Ġdisponibili":3227,"Ġsettimana":3228,"Ġforza":3229,"Ġcliente":3230,"ith":3231,"Ġdomanda":3232,"Ġdonna":3233,"Ġelettri":3234,"Ġpare":3235,"Ġpur":3236,"nCerca":3237,"763":3238,"Ġpagamento":3239,"voca":3240,"9937":3241,"wn":3242,"Ġimportanti":3243,"nale":3244,"Ġpiu":3245,"Ġriguarda":3246,"itto":3247,"essere":3248,"Ġfanno":3249,"ĠVene":3250,"Ġaziende":3251,"Ġprova":3252,"uter":3253,"ĠGli":3254,"ĠNapoli":3255,"ĠSito":3256,"ortun":3257,"veni":3258,"Ġavuto":3259,"9994":3260,"dimento":3261,"Ġassicura":3262,"sco":3263,"ĠPerson":3264,"ĠTutti":3265,"ry":3266,"omma":3267,"nNel":3268,"Ġforte":3269,"Ġni":3270,"Ġsera":3271,"Ġj":3272,"Ġinviare":3273,"nSp":3274,"ĠCre":3275,"Ġabbia":3276,"Ġminuti":3277,"scriviti":3278,"Ġcarrello":3279,"Ġvuole":3280,"olitica":3281,"mbo":3282,"Ġsoggetti":3283,"Ġtitolo":3284,"stra":3285,"Ġparla":3286,"mentale":3287,"nCategori":3288,"874":3289,"anna":3290,"rin":3291,"9975":3292,"Ġ[âĢ¦":3293,"ume":3294,"Ġmanten":3295,"nno":3296,"Ġgioca":3297,"omm":3298,"ĠEd":3299,"9983":3300,"ronaca":3301,"Ġpotra":3302,"Ġsoddis":3303,"Ġmolte":3304,"Ġpubblicato":3305,"Ġgenere":3306,"nUna":3307,"Ġpratica":3308,"nGli":3309,"Pre":3310,"Ġsituazione":3311,"Ġfir":3312,"ĠStu":3313,"Ġmeto":3314,"ĠUni":3315,"Ġero":3316,"etwork":3317,"stagram":3318,"cam":3319,"VO":3320,"Ġentro":3321,"dine":3322,"Ġrichied":3323,"Ġassocia":3324,"litÃł":3325,"Ġpermette":3326,"Ġrifi":3327,"Ġ31":3328,"Ġevid":3329,"ĠConsen":3330,"bra":3331,"Ġstore":3332,"365":3333,"866":3334,"Ġvaluta":3335,"Ġstate":3336,"Ġbuona":3337,"Ġquest":3338,"forman":3339,"Ġforse":3340,"Ġconserva":3341,"zzate":3342,"Ġprocesso":3343,"ccasione":3344,"855":3345,"osito":3346,"Ġimpostazioni":3347,"Ġaccount":3348,"mata":3349,"Ġgaran":3350,"visi":3351,"Ġerano":3352,"Ġdefin":3353,"857":3354,"Ġcontrol":3355,"sizioni":3356,"ĠDio":3357,"Ġdisposizione":3358,"Ġmacch":3359,"Ġaccedere":3360,"isci":3361,"Ġcompre":3362,"vanni":3363,"UR":3364,"Ġpromo":3365,"opyright":3366,"Ġpad":3367,"Ġcucina":3368,"Ġulteriori":3369,"Ġcompi":3370,"nSer":3371,".,":3372,"ase":3373,"ardia":3374,"telle":3375,"Ġluce":3376,"ĠFo":3377,"Ġdispositivo":3378,"Ġdim":3379,"ka":3380,"Ġcuore":3381,"mini":3382,"Ġgia":3383,"Ġandare":3384,"db":3385,"Ġconsegna":3386,"oss":3387,"Ġfosse":3388,"ĠCri":3389,"App":3390,"noltre":3391,"tera":3392,"ader":3393,"UN":3394,"ang":3395,"rances":3396,"logo":3397,"Ġrile":3398,"nTi":3399,"Ġvuoi":3400,"ania":3401,"Ġcompa":3402,"TORI":3403,"Ġeffettuare":3404,"206":3405,"ren":3406,"Ġespre":3407,"nSegu":3408,"denza":3409,"arlo":3410,"Ġemo":3411,"ficati":3412,"ĠTwitter":3413,"ensa":3414,"Ġ}":3415,"acqua":3416,"nAcc":3417,"Ġsezione":3418,"9995":3419,"cente":3420,"gente":3421,"ultimo":3422,"dotti":3423,"ĠComune":3424,"Ġsapere":3425,"Ġspor":3426,"box":3427,"Ġresta":3428,"allo":3429,"9924":3430,"Ġcorri":3431,"Ġpsico":3432,"Ġlista":3433,"Ġnego":3434,"Ġbuon":3435,"884":3436,"gioni":3437,"ĠIL":3438,"atto":3439,"Ġrischio":3440,"922":3441,"zzano":3442,"Ġultimi":3443,"Le":3444,"tina":3445,"HI":3446,"Ġ=":3447,"dom":3448,"ĠMaria":3449,"logico":3450,"....":3451,"Ġuso":3452,"Ġvoi":3453,"9921":3454,"corsi":3455,"Ġscritto":3456,"Ġsicura":3457,"Ġperd":3458,"970":3459,"043":3460,"Al":3461,"amministratore":3462,"orso":3463,"mbio":3464,"par":3465,"Tu":3466,"nGra":3467,"uomo":3468,"054":3469,"ys":3470,"Ġinizi":3471,"etra":3472,"Ġsto":3473,"Ġmaggiori":3474,"voro":3475,"fc":3476,"ĠRom":3477,"Ġrelazione":3478,"formazioni":3479,"Ġlei":3480,"we":3481,"Ġricevere":3482,"tito":3483,"Ġacca":3484,"Ġmeta":3485,"nSo":3486,"854":3487,"Ġturi":3488,"Ġcoinvol":3489,"Ġcomma":3490,"dici":3491,"Ġfunzioni":3492,"Ġpotrebbero":3493,"lando":3494,"ĠCO":3495,"Ġtran":3496,"Ġcondivid":3497,"ccando":3498,"835":3499,"tizie":3500,"UL":3501,"Ġdimen":3502,"ĠCalda":3503,"Ġstessi":3504,"vic":3505,"Ġinternazionale":3506,"ðĿ":3507,"tello":3508,"mmo":3509,"ĠRealizzazione":3510,"uncia":3511,"cin":3512,"cos":3513,"centi":3514,"refer":3515,"9996":3516,"ĠInternet":3517,"Ġmateriale":3518,"estival":3519,"Ġliber":3520,"formance":3521,"Ġcontatto":3522,"tuale":3523,"ara":3524,"latti":3525,"865":3526,"Ġov":3527,"Ġpazi":3528,"pend":3529,"ĠComp":3530,"assa":3531,"Utente":3532,"Ġtal":3533,"853":3534,"ĠperchÃ¨":3535,"remo":3536,"Â«":3537,"cali":3538,"Ġlocali":3539,"vendo":3540,"ĠTo":3541,"Ġthat":3542,"mit":3543,"SO":3544,"Ġconclu":3545,"Ġgiornata":3546,"205":3547,"onna":3548,"dizioni":3549,"ris":3550,"ved":3551,"Ġwww":3552,"Ġcontinua":3553,"Ġeventuali":3554,"ronti":3555,"orme":3556,"BI":3557,"ĠCan":3558,"873":3559,"Ġmare":3560,"Ġtema":3561,"ĠTitolare":3562,"cus":3563,"stin":3564,"Ġposta":3565,"046":3566,"biettivo":3567,"Ġpartire":3568,"lessand":3569,"Ġhttps":3570,"Ġpochi":3571,"ossa":3572,"gata":3573,"Ġbat":3574,"Ġatto":3575,"ker":3576,"Ġcro":3577,"235":3578,"stit":3579,"Ġzona":3580,"Ġbelle":3581,"Ġprimi":3582,"Ġatte":3583,"895":3584,"267":3585,"Ġsele":3586,"fb":3587,"hare":3588,"ĠEle":3589,"ĠSte":3590,"mber":3591,"rti":3592,"nLi":3593,"ps":3594,"836":3595,"Ġnulla":3596,"Ġassolu":3597,"Ġpelle":3598,"Ġade":3599,"logica":3600,"816":3601,"ĠÂ©":3602,"ĠNatale":3603,"ĠEurope":3604,"Ġvali":3605,"864":3606,"Ġtermini":3607,"Ġrim":3608,"ĠPRO":3609,"uzioni":3610,"Ġfondo":3611,"Ġspecifico":3612,"Ġconsigli":3613,"nÃĪ":3614,"ory":3615,"Ġfacile":3616,"ĠCasa":3617,"nArticoli":3618,"196":3619,"azienda":3620,"bun":3621,"Ġrend":3622,"ĠHa":3623,"2016":3624,"Ġrila":3625,"Ġseguenti":3626,"**":3627,"Ġdep":3628,"121":3629,"Ġscegliere":3630,"cd":3631,"PP":3632,"Ġfile":3633,"Ġ{":3634,"Ġstrettamente":3635,"sca":3636,"9945":3637,"php":3638,"Ġbio":3639,"Ġalta":3640,"IT":3641,"Ġelettronica":3642,"rata":3643,"Ġconsenti":3644,"115":3645,"formazione":3646,"rand":3647,"Ġquotidi":3648,"nTwitter":3649,"Ġdiffici":3650,"ĠAmazon":3651,"893":3652,"vers":3653,"nHo":3654,"Ġmale":3655,"Ġsole":3656,"UO":3657,"Ġconti":3658,"onia":3659,"itta":3660,"Ġroman":3661,"Ġimpi":3662,"inf":3663,"ritÃł":3664,"ĠManutenzione":3665,"124":3666,"anche":3667,"nVia":3668,"itoriale":3669,"ĠcapacitÃł":3670,"attivitÃł":3671,"Ġvanta":3672,"276":3673,"ex":3674,"del":3675,"moni":3676,"Ġcosto":3677,"Ġitaliani":3678,"Ġnotizie":3679,"805":3680,"847":3681,"Ġpossiamo":3682,"Ġalto":3683,"onus":3684,"Ġuser":3685,"ĠDire":3686,"982":3687,"ĠPu":3688,"Ġph":3689,"italia":3690,"limina":3691,"genze":3692,"indirizzo":3693,"rono":3694,"Ġpresidente":3695,"parazioni":3696,"lob":3697,"ted":3698,"Ġinfo":3699,"ĠFrancesco":3700,"9943":3701,"Ġsociali":3702,"ssimi":3703,"ĠTorino":3704,"Ġfini":3705,"Ġvoglia":3706,"255":3707,"Ġpaese":3708,"Ġoffre":3709,"134":3710,"Ġstile":3711,"Ġ[âĢ¦]\\":3712,"Ġapprof":3713,"ĠLeggi":3714,"lazioni":3715,"Ġcollaborazione":3716,"Ġinflu":3717,"ast":3718,"Ġguerra":3719,"9966":3720,"ĠAcc":3721,"Ġcerto":3722,"844":3723,"ĠverrÃł":3724,"itati":3725,"ĠresponsabilitÃł":3726,"ffa":3727,"Ġden":3728,"genti":3729,"ĠCap":3730,"An":3731,"ĠGre":3732,"175":3733,"nc":3734,"tagon":3735,"ener":3736,"9987":3737,"rando":3738,"Ġvarie":3739,"Ġfunction":3740,"254":3741,"Ġlavori":3742,"Ġgiuri":3743,"Ġce":3744,"Ġtotale":3745,"814":3746,"Ġcentra":3747,"ĠNews":3748,"Ġsquad":3749,"uali":3750,"2018":3751,"Ġproba":3752,"Ġriconosci":3753,"nNews":3754,"quis":3755,"ssociazione":3756,"Ġcm":3757,"Ġsche":3758,"arci":3759,"forme":3760,"Ġquattro":3761,"Ġcia":3762,"Ġimprese":3763,"nAltri":3764,"sul":3765,"Ġavven":3766,"Ġdesign":3767,"204":3768,"meric":3769,"960":3770,"ĠAll":3771,"Ġgenera":3772,"nIscriviti":3773,"Ġistitu":3774,"ĠMinis":3775,"Ġmaggiore":3776,"isco":3777,"commer":3778,"Ġinvesti":3779,"trimonio":3780,"Ġatten":3781,"cb":3782,"ĠOn":3783,"Ġlettera":3784,"Ġclic":3785,"Ġfinanzi":3786,"Ġdipend":3787,"2019":3788,"nSal":3789,"onati":3790,"Ġprossimo":3791,"VE":3792,"Ġdimostra":3793,"ormai":3794,"Ġrispon":3795,"cuno":3796,"nDa":3797,"Ġriti":3798,"itari":3799,"olle":3800,"ĠCal":3801,"ttamento":3802,"Ġlibri":3803,"Ġrifle":3804,"peri":3805,"ĠpotrÃł":3806,"Ġaffron":3807,"fd":3808,"Ġmodello":3809,"Ġinca":3810,"135":3811,"Ġpositi":3812,"Ġfarma":3813,"Ġrichiesto":3814,"UT":3815,"tella":3816,"Ġraccolti":3817,"225":3818,"Ġcoper":3819,"226":3820,"800":3821,"Ġsoftware":3822,"Ġfronte":3823,"ĠConsiglio":3824,"Ġriporta":3825,"9955":3826,"news":3827,"Ġsostitu":3828,"ĠðŁ":3829,"ĠMonte":3830,"Ġunico":3831,"274":3832,"155":3833,"ĠAuto":3834,"Ġprincipali":3835,"nCosa":3836,"ĠproprietÃł":3837,"Ġmoder":3838,"9993":3839,"ood":3840,"Con":3841,"863":3842,"Ġvolonta":3843,"Ġprogetti":3844,"Ġrelativi":3845,"Ġ2006":3846,"201":3847,"omina":3848,"cle":3849,"nSu":3850,"Ġveico":3851,"236":3852,"ĠFin":3853,"Ġruolo":3854,"nNa":3855,"2017":3856,"cando":3857,"Ġfinale":3858,"Ġcosti":3859,"Ġuomini":3860,"266":3861,"ONE":3862,"lib":3863,"Ġacqua":3864,"nPa":3865,"Ġanzi":3866,"nAggiungi":3867,"Ġir":3868,"eso":3869,"ins":3870,"Ġclass":3871,"und":3872,"Ġovvero":3873,"volo":3874,"Ġdigitale":3875,"Ġporno":3876,"867":3877,"035":3878,"837":3879,"nCategorie":3880,"ggiare":3881,"843":3882,"eder":3883,"Ġmaniera":3884,"Ġfase":3885,"Ġcontrib":3886,"ĠTea":3887,"068":3888,"Ġusare":3889,"opera":3890,"nSta":3891,"verti":3892,"vizio":3893,"755":3894,"istica":3895,"Ġ40":3896,"Ġaffer":3897,"diale":3898,"dire":3899,"Ġfunzione":3900,"inte":3901,"scrizione":3902,"834":3903,"ĠCla":3904,"ĠSci":3905,"Ġ...\\":3906,"Ġtute":3907,"9976":3908,"Ġevitare":3909,"Ġstagione":3910,"Ġraccolta":3911,"enzia":3912,"lore":3913,"ologna":3914,"Ġresponsabile":3915,"nb":3916,"Ġsicuro":3917,"EI":3918,"Ġanalisi":3919,"Ġfid":3920,"Ġfel":3921,"ostante":3922,"viene":3923,"Ġnello":3924,"fficio":3925,"Ġsinda":3926,"Ġvisi":3927,"9997":3928,"Ġfatti":3929,"ĠnÃ©":3930,"Ġormai":3931,"FI":3932,"821":3933,"Ġmanifesta":3934,"Ġcontratto":3935,"265":3936,"Ġarre":3937,"Ġpiccoli":3938,"ĠMus":3939,"116":3940,"mico":3941,"ttan":3942,"bunale":3943,"034":3944,"ĠGiovanni":3945,"Ġnewsletter":3946,"Ġrecenti":3947,"Ġelabora":3948,"usi":3949,"Ġmorte":3950,"gate":3951,"877":3952,"cito":3953,"824":3954,"licazione":3955,"Ġstatistici":3956,"9946":3957,"Ġpassato":3958,"896":3959,"Ġemer":3960,"vita":3961,"174":3962,"Ġclicca":3963,"Ġviol":3964,"Ġgruppi":3965,"Ġfanta":3966,"useppe":3967,"enn":3968,"9936":3969,"176":3970,"Ġdisabil":3971,"Ġsoluzione":3972,"Ġconsiglia":3973,"cal":3974,"Ġdovre":3975,"itamente":3976,"Ġpiccolo":3977,"Ġcen":3978,"203":3979,"ĠCentro":3980,"nPerchÃ©":3981,"1053":3982,"931":3983,"894":3984,"Ġinternet":3985,"ĠFer":3986,"sante":3987,"Si":3988,"ĠSpe":3989,"nRisposte":3990,"fra":3991,"ĠServizi":3992,"Ġlibera":3993,"ĠRI":3994,"gura":3995,"Ġappena":3996,"ĠRis":3997,"153":3998,"view":3999,"234":4000,"154":4001,"136":4002,"itario":4003,"Ġnaturale":4004,"Ġpreve":4005,"ger":4006,"Ġincontri":4007,"ĠAnalytics":4008,"tamento":4009,"166":4010,"Auto":4011,"Ġprec":4012,"ĠCaldaie":4013,"ĠAN":4014,"Ġbreve":4015,"Ġcapo":4016,"MP":4017,"804":4018,"Ġgoverno":4019,"ĠPaolo":4020,"nChe":4021,"075":4022,"tino":4023,"Ġaspetta":4024,"Ġinnova":4025,"Ġlegale":4026,"ada":4027,"asta":4028,"Ġsegre":4029,"larmente":4030,"mani":4031,"ĠJa":4032,"Ġlan":4033,"venzione":4034,"Ġvie":4035,"Ġprotagon":4036,"blio":4037,"gine":4038,"133":4039,"Ġdiffic":4040,"gue":4041,"Ġvole":4042,"bbia":4043,"Ġassistenza":4044,"Ġeffica":4045,"Ġprofessionale":4046,"147":4047,"Ġscor":4048,"Ġinterventi":4049,"Ġtecniche":4050,"Ġposizione":4051,"Ġaiutano":4052,"Ġaccomp":4053,"azioni":4054,"ĠSegna":4055,"occ":4056,"dre":4057,"Ġprecedente":4058,"Ġrendere":4059,"Ġsvilupp":4060,"nPubblicato":4061,"104":4062,"941053":4063,"vati":4064,"825":4065,"Ġpresenta":4066,"Ġsupporto":4067,"\\\":":4068,"ĠSenza":4069,"833":4070,"tonio":4071,"ĠJo":4072,"ruppo":4073,"ZIONI":4074,"dati":4075,"Ġamm":4076,"Ġpartner":4077,"Ġeli":4078,"Ġquad":4079,"Ġcolore":4080,"mporan":4081,"Ġmateriali":4082,"Ġlingua":4083,"fano":4084,"9935":4085,"Ġrappresenta":4086,"Ġries":4087,"irenze":4088,"146":4089,"Ġuomo":4090,"cla":4091,"referenze":4092,"lie":4093,"Ġpassword":4094,"nJ":4095,"nVis":4096,"Ġrisultato":4097,"Ġnote":4098,"Ġvoce":4099,"arto":4100,"Ġimpostato":4101,"Ġsola":4102,"Ġsimili":4103,"Ġwith":4104,"ĠImp":4105,"colare":4106,"nFun":4107,"Ġsugg":4108,"ncookie":4109,"Ġragazzi":4110,"ĠGia":4111,"Ġcodice":4112,"Ġstudi":4113,"ĠâĤ¬\\":4114,"ĠRegione":4115,"immag":4116,"Ġesigenze":4117,"Ġfinestra":4118,"Ġbelli":4119,"des":4120,"Ġdettagli":4121,"Ġraff":4122,"972":4123,"iao":4124,"bbi":4125,"195":4126,"Ġconsente":4127,"Ġimmedia":4128,"Ġtrattati":4129,"114":4130,"mici":4131,"Ġquant":4132,"Ġmassimo":4133,"Ġreg":4134,"125":4135,"Ġsport":4136,"216":4137,"vel":4138,"Ġderi":4139,"law":4140,"fin":4141,"275":4142,"area":4143,"Ġprestazioni":4144,"Ġpubblici":4145,"Ġdimenti":4146,"ky":4147,"Ġplugin":4148,"Ġmotivo":4149,"Ġsistemi":4150,"Ġripro":4151,"ĠGro":4152,"Ġapre":4153,"156":4154,"9985":4155,"Ġprendere":4156,"Ġriten":4157,"Ġcondividere":4158,"ĠPe":4159,"Ġinstal":4160,"ĠChe":4161,"Ġcolori":4162,"Ġscienti":4163,"Ġvivere":4164,"ĠNazionale":4165,"Ġattenzione":4166,"vata":4167,"ostruzione":4168,"low":4169,"Ġcic":4170,"887":4171,"arra":4172,"contro":4173,"estion":4174,"usin":4175,"eff":4176,"Ġqualcuno":4177,"uova":4178,"Ġecco":4179,"sung":4180,"aler":4181,"Ġet":4182,"Ġopere":4183,"nRa":4184,"Ġgarantire":4185,"ondazione":4186,"ĠDA":4187,"Ġcrescita":4188,"Ġoccupa":4189,"Ġsolito":4190,"Ġusc":4191,"nTag":4192,"Ġnessuno":4193,"Per":4194,"Ġedi":4195,"SC":4196,"Ġversione":4197,"Ġcittadini":4198,"ĠcomunitÃł":4199,"cur":4200,"uovo":4201,"ettono":4202,"Ġfal":4203,"ĠnecessitÃł":4204,"alit":4205,"viamente":4206,"Ġelementi":4207,"9984":4208,"itano":4209,"ĠBen":4210,"dono":4211,"inizio":4212,"Ġdomande":4213,"ĠSI":4214,"886":4215,"ĠnonchÃ©":4216,"nAssistenza":4217,"Ġ05":4218,"matico":4219,"Ġom":4220,"Ġfavore":4221,"OC":4222,"leggio":4223,"usta":4224,"ttare":4225,"Ġesperi":4226,"Ġdurata":4227,"237":4228,"ther":4229,"ultima":4230,"074":4231,"Ġmodificare":4232,"9974":4233,"dale":4234,"Ġpoten":4235,"Ġtr":4236,"tegory":4237,"Ġparlare":4238,"Ġnotte":4239,"Ġdunque":4240,"mobili":4241,"Ġtitolare":4242,"Ġdecreto":4243,"Ġfemm":4244,"ttori":4245,"Ġ>":4246,"nPi":4247,"Ġerro":4248,"commerce":4249,"Ġdocumento":4250,"usiness":4251,"Ġmettere":4252,"264":4253,"arma":4254,"ttavia":4255,"9956":4256,"nDes":4257,"ĠAnche":4258,"Ġscoper":4259,"Ġimm":4260,"Ġbasa":4261,"esia":4262,"ĠGrazie":4263,"Ġconoscere":4264,"Ġsosteni":4265,"nf":4266,"ĠâĢ¢":4267,"Ġaggiungere":4268,"Ġnetwork":4269,"9977":4270,"sio":4271,"ambito":4272,"Ġcomuni":4273,"950":4274,"nGrazie":4275,"ĠGer":4276,"come":4277,"Ġsicuramente":4278,"246":4279,"165":4280,"Ġorganizza":4281,"245":4282,"145":4283,"nUlti":4284,"144":4285,"Ġmal":4286,"Ġceleb":4287,"Ġthis":4288,"PS":4289,"centra":4290,"ttivo":4291,"ĠMA":4292,"Ġedizione":4293,"Ġregionale":4294,"MB":4295,"ĠCer":4296,"Ġmediante":4297,"dic":4298,"ĠVo":4299,"uovere":4300,"Ġmulti":4301,"Ġriguard":4302,"useo":4303,"ĠPersonali":4304,"viamo":4305,"Ġvisualizza":4306,"ichÃ©":4307,"Ġrap":4308,"244":4309,"Ġmalatti":4310,"torie":4311,"Ġocchi":4312,"Ġgratis":4313,"nSono":4314,"bia":4315,"Ġchat":4316,"227":4317,"nCi":4318,"IVA":4319,"173":4320,"unti":4321,"ĠPresidente":4322,"006":4323,"CHE":4324,"Ġprovincia":4325,"Ġfacendo":4326,"glior":4327,"Ġcaratteri":4328,"Ġequi":4329,"Ġlocale":4330,"Ġmetri":4331,"Ġdistribu":4332,"Ġproprie":4333,"sape":4334,"ĠRiparazioni":4335,"ĠCOM":4336,"tesi":4337,"check":4338,"eser":4339,"lawinfo":4340,"Ġcommerciali":4341,"Ġalcuna":4342,"Ġlegittimo":4343,"ay":4344,"ĠQuesta":4345,"entina":4346,"ĠPas":4347,"ĠSam":4348,"Ġagg":4349,"hats":4350,"ggere":4351,"215":4352,"Ġit":4353,"ettura":4354,"Ġcomportamento":4355,"ST":4356,"Ġinfer":4357,"idea":4358,"Ġmotivi":4359,"nAd":4360,"fferta":4361,"Ġdifficile":4362,"ncookielawinfo":4363,"âĢĶ":4364,"ĠAu":4365,"inare":4366,"Ġmino":4367,"ccan":4368,"Ġverranno":4369,"Ġricevuti":4370,"Ġinteresse":4371,"106":4372,"Ġdestina":4373,"ĠGran":4374,"Ġsoddisfa":4375,"âĢ¢":4376,"Ġori":4377,"hatsApp":4378,"214":4379,"2015":4380,"Ġquestione":4381,"Ġvostra":4382,"teo":4383,"Ġsupera":4384,"ld":4385,"nDis":4386,"rano":4387,"Ġordina":4388,"Ġutile":4389,"inked":4390,"itaria":4391,"ambiente":4392,"out":4393,"Ġofferte":4394,"Ġ03":4395,"Ġstorico":4396,"Ġritro":4397,"Ġrive":4398,"Ġlettura":4399,"Ġcrisi":4400,"teri":4401,"Ġmisure":4402,"une":4403,"928":4404,"entino":4405,"Ġatta":4406,"nY":4407,"Ġdemo":4408,"Ġregistrazione":4409,"Ġdovrebbe":4410,"200":4411,"Ġcompleta":4412,"Ġcorretto":4413,"ĠVI":4414,"Ġgestire":4415,"ĠnovitÃł":4416,"005":4417,"9606":4418,"Ġestre":4419,"Press":4420,"inio":4421,"Ġprogetta":4422,"issi":4423,"Ġuman":4424,"ĠDom":4425,"raggio":4426,"ppure":4427,"353":4428,"Ġphp":4429,"Ġmetodo":4430,"Ġassolutamente":4431,"137":4432,"811":4433,"Ġ09":4434,"Ġprincipale":4435,"ĠInoltre":4436,"Ġgiochi":4437,"164":4438,"Ġascol":4439,"TTA":4440,"223":4441,"930":4442,"lli":4443,"lot":4444,"ĠSeleziona":4445,"Ġseleziona":4446,"ĠPuoi":4447,"Ġconcer":4448,"nGoogle":4449,"autore":4450,"273":4451,"oltÃł":4452,"ustria":4453,"807":4454,"Ġsoluzioni":4455,"viste":4456,"961":4457,"ffico":4458,"ĠMarco":4459,"Ġgiudi":4460,"9944":4461,"lay":4462,"ĠBologna":4463,"ĠDopo":4464,"Ġriservati":4465,"stituto":4466,"condo":4467,"004":4468,"pli":4469,"Ġmerito":4470,"sole":4471,"bio":4472,"icilia":4473,"ÂŃ":4474,"anora":4475,"WS":4476,"ĠConsent":4477,"ĠBre":4478,"les":4479,"lazzo":4480,"Ġregole":4481,"Ġaree":4482,"Ġrisorse":4483,"ONA":4484,"edÃ¬":4485,"Ġindividu":4486,"golamento":4487,"ortunitÃł":4488,"Ġconc":4489,"gro":4490,"):":4491,"Ġargomento":4492,"nLu":4493,"Ġeconomico":4494,"eranno":4495,"256":4496,"Ġbella":4497,"ĠInterna":4498,"Ġprofilo":4499,"mentari":4500,"ered":4501,"HE":4502,"tuto":4503,"213":4504,"Ġtecnologia":4505,"036":4506,"Ġrelative":4507,"orm":4508,"ĠcioÃ¨":4509,"lino":4510,"Ġthese":4511,"Ġcompon":4512,"milia":4513,"826":4514,"ĠContro":4515,"ĠRepubblica":4516,"uropa":4517,"Ġleggi":4518,"ric":4519,"Ġserve":4520,"Ġacconsenti":4521,"nK":4522,"mate":4523,"Ġstudenti":4524,"ĠTre":4525,"Ġperfetta":4526,"hia":4527,"ĠÃ":4528,"007":4529,"pol":4530,"amore":4531,"ĠTec":4532,"Ġpari":4533,"ĠCamp":4534,"Ġutilizzando":4535,"ĠUniti":4536,"tube":4537,"ĠÂ»\\":4538,"185":4539,"UI":4540,"Ġtecnico":4541,"Ġpiattaforma":4542,"99906":4543,"eremo":4544,"lancio":4545,"Ġfinanzia":4546,"rate":4547,"checkbox":4548,"2014":4549,"Ġstanno":4550,"Ġconoscenza":4551,"Ġcredito":4552,"ĠUtili":4553,"Re":4554,"GLI":4555,"Ġcalda":4556,"Ġtea":4557,"vazione":4558,"ositÃł":4559,"ko":4560,"UE":4561,"Ġ<":4562,"Ġsuperiore":4563,"Ġessenziali":4564,"167":4565,"Ġmemb":4566,"Ġfigli":4567,"Ġtante":4568,"\\\"\\\"":4569,"into":4570,"________":4571,"Ġ...":4572,"Ġdiventa":4573,"incia":4574,"Ġtelefono":4575,"Ġnega":4576,"Ġproced":4577,"Ġragione":4578,"ĠEuropa":4579,"Ġ35":4580,"Tube":4581,"OK":4582,"Ġintervento":4583,"233":4584,"ĠphpBB":4585,"tone":4586,"ors":4587,"Ġmodifica":4588,"Ġtrasmissione":4589,"ANO":4590,"Ġdiversa":4591,"orsa":4592,"senza":4593,"Ġdiretta":4594,"\\\".":4595,"Ġguarda":4596,"Ġ08":4597,"Ġmatti":4598,"Ġsess":4599,"056":4600,"inda":4601,"Ġincontra":4602,"Ġconsentire":4603,"Ġrealizzazione":4604,"Ġamp":4605,"blog":4606,"nRicerca":4607,"Ġused":4608,"trici":4609,"2013":4610,"nCON":4611,"Ca":4612,"9874":4613,"ĠTV":4614,"iss":4615,"ordPress":4616,"MENTO":4617,"indo":4618,"Ġordine":4619,"Ġluoghi":4620,"ĠBe":4621,"estre":4622,"interest":4623,"ĠQuando":4624,"Ġgiovane":4625,"matiche":4626,"Ġniente":4627,"Ġdefini":4628,"igi":4629,"gs":4630,"umi":4631,"Ġspese":4632,"766":4633,"Ġtradi":4634,"207":4635,"mazione":4636,"Ġparola":4637,"chit":4638,"ja":4639,"827":4640,"Ġisc":4641,"Ġlegno":4642,"Ġgara":4643,"Ġgiusti":4644,"iali":4645,"Ġavrebbe":4646,"ĠCro":4647,"Ġcompletamente":4648,"acquisto":4649,"ital":4650,"Ġsba":4651,"Ġcontribu":4652,"Ġesperienze":4653,"Ġintera":4654,"Ġtess":4655,"Ġ@":4656,"Ġrecupera":4657,"Ġsper":4658,"Ġgas":4659,"ĠMod":4660,"Ġcond":4661,"113":4662,"Ġreli":4663,"Ġmonth":4664,"Ġmodera":4665,"163":4666,"ĠAv":4667,"Ġsaper":4668,"Ġciasc":4669,"Ġprime":4670,"Ġmassima":4671,"teca":4672,"eci":4673,"TRA":4674,"Ġrisol":4675,"iter":4676,"Ġreale":4677,"Ġtraffico":4678,"tanze":4679,"Ġseguire":4680,"GO":4681,"INA":4682,"Ġtempera":4683,"Ġmodelli":4684,"Ġdistin":4685,"Ġalterna":4686,"Ġ60":4687,"ĠAt":4688,"nTutti":4689,"045":4690,"dente":4691,"Ġinformazione":4692,"nScopri":4693,"ĠdifficoltÃł":4694,"457":4695,"cata":4696,"cino":4697,"Or":4698,"imento":4699,"Ġpubblicazione":4700,"Ġveloce":4701,"TTO":4702,"Ġprevisto":4703,"ons":4704,"vra":4705,"897":4706,"Ġsugli":4707,"Ġanalizzare":4708,"ments":4709,"9953":4710,"informativa":4711,"ventivo":4712,"Ġmodulo":4713,"Ġoccasione":4714,"itura":4715,"Ġdevi":4716,"np":4717,"Ġrimb":4718,"Ġbasso":4719,"918":4720,"Ġsquadra":4721,"Ġgiusto":4722,"Ġlibero":4723,"nUtili":4724,"Ġanimali":4725,"Ġprivati":4726,"Ġpotere":4727,"lante":4728,"Ġavanza":4729,"Ġpulsante":4730,"Ġzu":4731,"Ġargomenti":4732,"Ġstrumento":4733,"aff":4734,"Ġdomenica":4735,"Ġstand":4736,"Ġgre":4737,"Ġadegu":4738,"Ġtar":4739,"Ġpubblicitari":4740,"ME":4741,"Ġge":4742,"ĠlibertÃł":4743,"anali":4744,"803":4745,"dini":4746,"ĠAnn":4747,"Ġingre":4748,"Ġfarlo":4749,"ĠQU":4750,"ĠSanta":4751,"157":4752,"ĠQ":4753,"044":4754,"9797":4755,"asp":4756,"296":4757,"Ġpron":4758,"ĠSegnali":4759,"nInter":4760,"enzi":4761,"Ġtrasm":4762,"ĠChiesa":4763,"Ġmedico":4764,"armi":4765,"ttaci":4766,"Ġelimina":4767,"Acc":4768,"pero":4769,"186":4770,"esis":4771,"Ġappunta":4772,"Ġcorr":4773,"onsa":4774,"ĠPA":4775,"Ġdiv":4776,"gimento":4777,"Ġcivile":4778,"Ġvisione":4779,"Ġchiave":4780,"Ġtend":4781,"ficio":4782,"ding":4783,"ĠFirenze":4784,"ĠRedazione":4785,"Ġdanno":4786,"ĠAlessand":4787,"Ġconsape":4788,"Ġdedicato":4789,"nEn":4790,"663":4791,"Ġminis":4792,"orsi":4793,"Ġconsiglio":4794,"055":4795,"formitÃł":4796,"rone":4797,"Ġcalo":4798,"Ġgratuito":4799,"nDescrizione":4800,"lub":4801,"UniversitÃł":4802,"ĠGener":4803,"Ġavanti":4804,"Ġ2005":4805,"inanza":4806,"ĠDu":4807,"Ġcontemporan":4808,"Ġcomputer":4809,"Ġgro":4810,"ciplina":4811,"Ġdeciso":4812,"usura":4813,"ĠPaese":4814,"matori":4815,"immagine":4816,"usso":4817,"243":4818,"ĠMedia":4819,"823":4820,"ingra":4821,"Ġnot":4822,"perience":4823,"Ġavre":4824,"455":4825,"Ġaffin":4826,"Ġistru":4827,"Ġspeciale":4828,"ĠSport":4829,"ONI":4830,"Ġeste":4831,"Ġmacchina":4832,"Ġnews":4833,"Ġpasso":4834,"Ġdifferenza":4835,"RIS":4836,"253":4837,"Ġscorso":4838,"Ġenerge":4839,"951":4840,"ghie":4841,"Ġvorre":4842,"nChiudi":4843,"usione":4844,"vola":4845,"ĠIs":4846,"ERA":4847,"glese":4848,"Ġindustri":4849,"fun":4850,"nRedazione":4851,"Ġcreati":4852,"Ġmonths":4853,"gne":4854,"456":4855,"Ġintro":4856,"Ġaccompagna":4857,"Ġprofessionisti":4858,"Ġcomb":4859,"263":4860,"Ġvir":4861,"mos":4862,"Ġvicino":4863,"load":4864,"fatti":4865,"ĠProf":4866,"Ġcampagna":4867,"Ġvacc":4868,"Ġfondamentale":4869,"Ġkm":4870,"stente":4871,"ĠGiu":4872,"itri":4873,"Ġconos":4874,"Ġ36":4875,"Ġappre":4876,"ZZ":4877,"Ġglob":4878,"ĠColle":4879,"web":4880,"Ġ06":4881,"Ġcambiare":4882,"ĠquantitÃł":4883,"Ġportare":4884,"Ġpassione":4885,"076":4886,"enco":4887,"nCiao":4888,"TT":4889,"940":4890,"123":4891,"Ġaspetti":4892,"Ġidee":4893,"troppo":4894,"ĠPrima":4895,"Ġautomatica":4896,"Ġsonda":4897,"nCli":4898,"Ġscrivere":4899,"nLascia":4900,"Ġrealizzato":4901,"icina":4902,"Ġpiccola":4903,"Ġfiglio":4904,"Ġtru":4905,"Ġnota":4906,"8543":4907,"nSc":4908,"ms":4909,"143":4910,"entali":4911,"ĠVilla":4912,"Ġmonito":4913,"Ġpure":4914,"NE":4915,"Ġpensare":4916,"ittÃł":4917,"Ġristo":4918,"Ġconvin":4919,"Ġraggiungere":4920,"Ġrende":4921,"Ġprend":4922,"003":4923,"Ġprepara":4924,"ccedi":4925,"ĠGiuseppe":4926,"tivamente":4927,"Ġcomo":4928,"itata":4929,"Ġinserire":4930,"Ġacquistare":4931,"mentali":4932,"ĠVenezia":4933,"ccato":4934,"ĠII":4935,"Ġscomm":4936,"Ġtera":4937,"Ġstraordina":4938,"ÃĹ":4939,"ĠMarketing":4940,"nCopyright":4941,"Ġalb":4942,"gnano":4943,"ĠCultura":4944,"nTele":4945,"onimo":4946,"033":4947,"898":4948,"Ġcarica":4949,"anizzazione":4950,"066":4951,"Ġschi":4952,"Ġnessun":4953,"ĠFun":4954,"cessa":4955,"grazione":4956,"Ġmail":4957,"Ġsemplicemente":4958,"Ġfissa":4959,"nPri":4960,"Ġvanno":4961,"Ġtrovato":4962,"nIN":4963,"terÃł":4964,"Ġcollo":4965,"Ġ2023":4966,"entitÃł":4967,"Ġpreno":4968,"int":4969,"251":4970,"Se":4971,"lack":4972,"oren":4973,"Ġprevede":4974,"Ġ04":4975,"Ġsoff":4976,"nVi":4977,"Ġimpegna":4978,"ĠSpa":4979,"Ġchiedere":4980,"azz":4981,"Ġcoloro":4982,"ENTI":4983,"ĠBra":4984,"Ġtipi":4985,"277":4986,"UM":4987,"alto":4988,"nContinua":4989,"vera":4990,"arli":4991,"908":4992,"ĠCu":4993,"Ġcontiene":4994,"Ġcoordina":4995,"Ġutilizzate":4996,"065":4997,"Ġbru":4998,"Ġposti":4999,"cizio":5000,"Ġraccogliere":5001,"117":5002,"ĠFra":5003,"815":5004,"CCE":5005,"932":5006,"tit":5007,"9934":5008,"ĠEcco":5009,"Ġbambino":5010,"ĠPiazza":5011,"Ġscoprire":5012,"ĠconformitÃł":5013,"ĠIo":5014,"813":5015,"247":5016,"Ġinterpre":5017,"Ġtest":5018,"Ġmagari":5019,"venire":5020,"Ġrichiedere":5021,"064":5022,"Ġvit":5023,"Ġnero":5024,"dure":5025,"ĠâĨ":5026,"Ġ00":5027,"ortare":5028,"Ġcata":5029,"Ġcarico":5030,"amp":5031,"nInformazioni":5032,"Ġcorsi":5033,"idere":5034,"Ġcapito":5035,"nin":5036,"Ġattivo":5037,"177":5038,"ĠAS":5039,"Ġdia":5040,"ĠCookies":5041,"Ġculturale":5042,"Ġrima":5043,"Ġmassa":5044,"ĠPO":5045,"Ġ07":5046,"9923":5047,"--------":5048,"Ġoffrire":5049,"Ġvede":5050,"phone":5051,"Ġbanca":5052,"Ġstabili":5053,"lex":5054,"esponsa":5055,"ardino":5056,"278":5057,"Ġnecessaria":5058,"Ġcamm":5059,"Ġprosegu":5060,"erche":5061,"Ġstrate":5062,"torno":5063,"ĠSamsung":5064,"Ġdavanti":5065,"ĠSiamo":5066,"Ġmicro":5067,"ttualitÃł":5068,"464":5069,"censione":5070,"Ġcercare":5071,"Ġsmart":5072,"zine":5073,"Ġinteressi":5074,"vale":5075,"Ġpreso":5076,"Ġauton":5077,"orn":5078,"9905":5079,"Ġaffida":5080,"Ġdiventare":5081,"abbonato":5082,"tal":5083,"lessi":5084,"dina":5085,"Ġadd":5086,"Ġdistanza":5087,"Ġpotranno":5088,"Ġincre":5089,"ndo":5090,"ĠTribunale":5091,"agne":5092,"Ġspia":5093,"aller":5094,"Ġazioni":5095,"nFai":5096,"nDe":5097,"ĠDel":5098,"Ġsettimane":5099,"IE":5100,"Ġproprieta":5101,"ĠÂ·":5102,"ciano":5103,"monte":5104,"ĠFil":5105,"Ġpiacere":5106,"Ġimpianti":5107,"nAcqu":5108,"asti":5109,"cini":5110,"zionare":5111,"Ġconfronti":5112,"Ġteo":5113,"SE":5114,"aper":5115,"Ġfamiglie":5116,"9925":5117,"Ġpresentazione":5118,"941":5119,"Ġvaria":5120,"nBu":5121,"Ġpoli":5122,"estione":5123,"gano":5124,"Ġspazi":5125,"riere":5126,"Un":5127,"??":5128,"ttosto":5129,"UA":5130,"Ġspedizione":5131,"nQuando":5132,"Ġdesideri":5133,"ĠAR":5134,"nNecessary":5135,"Ġsoste":5136,"cati":5137,"ĠsÃ©":5138,"Ġcinque":5139,"UP":5140,"Ġdefiniti":5141,"Ġgiro":5142,"Ma":5143,"465":5144,"Ġmovimento":5145,"nApp":5146,"Ġbasta":5147,"Ġincontro":5148,"ĠPorta":5149,"653":5150,"Ġteam":5151,"Ġtutela":5152,"208":5153,"Ġprovve":5154,"lustra":5155,"Ġessi":5156,"Ġlavoratori":5157,"Ġconosci":5158,"Ġpan":5159,"Ġfrances":5160,"genzia":5161,"ĠDon":5162,"Ġaggiornato":5163,"Ġ90":5164,"ĠTuttavia":5165,"Ġtenere":5166,"Ġterzo":5167,"nRec":5168,"ensione":5169,"cuzione":5170,"Ġeconomica":5171,"mila":5172,"Ġespli":5173,"ban":5174,"Ġvalutazione":5175,"TM":5176,"ĠSar":5177,"Ġdiscus":5178,"ĠStra":5179,"ĠNew":5180,"Ġespri":5181,"Ġclasse":5182,"fono":5183,"Ġpolitiche":5184,"Pro":5185,"ĠetÃł":5186,"Ġameric":5187,"esimo":5188,"ĠChia":5189,"RAN":5190,"Ġregola":5191,"Ġesser":5192,"454":5193,"ccare":5194,"Ġlasci":5195,"ĠMad":5196,"Ġbianco":5197,"Ġpartecipazione":5198,"minazione":5199,"matici":5200,"Ġmente":5201,"9990674":5202,"Ġdiretto":5203,"Ġcommerciale":5204,"anzia":5205,"Ġscrive":5206,"liare":5207,"ssime":5208,"Ġpieno":5209,"Ġvac":5210,"Ġpom":5211,"Ġvisit":5212,"Ġoggetto":5213,"Ġsoldi":5214,"Ġrisc":5215,"sazione":5216,"tional":5217,"Ġseguente":5218,"Ġridurre":5219,"Ġscar":5220,"Ġricevuto":5221,"difica":5222,"Ġmu":5223,"ENZA":5224,"Ġpiena":5225,"Ġultime":5226,"Ġcrea":5227,"Ġpermetter":5228,"vesti":5229,"Ġimpa":5230,"ance":5231,"posizione":5232,"285":5233,"ERE":5234,"ĠTele":5235,"ĠMich":5236,"Ġmiglior":5237,"Ġresto":5238,"Ġvolontaria":5239,"9964":5240,"grafica":5241,"enne":5242,"cone":5243,"103":5244,"Ġfaccia":5245,"ĠCovid":5246,"arica":5247,"ttivitÃł":5248,"erimenti":5249,"ĠInc":5250,"ĠGior":5251,"pore":5252,"Ġfatta":5253,"Ġpertanto":5254,"Ġcandi":5255,"GA":5256,"Ġresid":5257,"nDurata":5258,"Ġscher":5259,"estionale":5260,"mania":5261,"spetti":5262,"Ġmonta":5263,"Ġprocedura":5264,"Ġpadre":5265,"667":5266,"Ġmigliora":5267,"ĠStoria":5268,"Ġindipend":5269,"356":5270,"Ġsoltanto":5271,"Ġpaesi":5272,"onica":5273,"OP":5274,"vate":5275,"Ġ*":5276,"Ġqualunque":5277,"/\\":5278,"284":5279,"Ġpeso":5280,"Ġdedicata":5281,"Ġcategorie":5282,"Ġbisogna":5283,"Ġlunga":5284,"Ġcollegamento":5285,"mble":5286,"Ġleader":5287,"Ġcalcio":5288,"ect":5289,"Ġserver":5290,"ĠNi":5291,"Ġmeccan":5292,"nImp":5293,"TRO":5294,"Ġrisparm":5295,"nMaggio":5296,"Ġacquisto":5297,"zed":5298,"Ġufficiale":5299,"Ġpresto":5300,"Â».\\":5301,"Ġcinema":5302,"osofia":5303,"mone":5304,"Ġdeli":5305,"Ġtip":5306,"Ġmadre":5307,"Ġspecifica":5308,"ĠSca":5309,"erio":5310,"ense":5311,"nArticolo":5312,"volta":5313,"9917":5314,"grammi":5315,"SP":5316,"%\\":5317,"Ġ33":5318,"Ġunghie":5319,"Ġarrivare":5320,"Ġdocumenti":5321,"erto":5322,"Ġsale":5323,"Ne":5324,"ĠBr":5325,"Ġscola":5326,"ffe":5327,"ip":5328,"ĠNO":5329,"Ġmera":5330,"Ġrispondere":5331,"Ġcostante":5332,"Ġdura":5333,"Ġtrasporto":5334,"tituzione":5335,"9903":5336,"alermo":5337,"mere":5338,"Ġpiuttosto":5339,"Ġecce":5340,"Ġperdere":5341,"ĠSocietÃł":5342,"endario":5343,"nInvia":5344,"ĠWordPress":5345,"veri":5346,"nCal":5347,"Ġoggetti":5348,"Ġottimi":5349,"ĠVin":5350,"Ġdanni":5351,"miche":5352,"998678":5353,"ĠCodice":5354,"9914":5355,"354":5356,"Ġfisica":5357,"issimo":5358,"nArchivio":5359,"icitÃł":5360,"Ġvivo":5361,"omia":5362,"Â».":5363,"weet":5364,"Ġgenitori":5365,"ĠSil":5366,"essato":5367,"ĠTutto":5368,"Non":5369,"Ġpreocc":5370,"Ġscuole":5371,"257":5372,"Ġsostegno":5373,"otti":5374,"Ġdimensioni":5375,"fare":5376,"Ġforme":5377,"tarsi":5378,"nGio":5379,"Ġnaturali":5380,"Ġep":5381,"Ġcellu":5382,"ĠAndrea":5383,"vali":5384,"Ġfur":5385,"Ġamore":5386,"Ġmette":5387,"Ġdentro":5388,"ZZA":5389,"BO":5390,"inile":5391,"lesc":5392,"vocato":5393,"nTer":5394,"arie":5395,"Ġdietro":5396,"duta":5397,"Ġrealizzare":5398,"Ġreali":5399,"217":5400,"turi":5401,"Ġestra":5402,"riamo":5403,"ranza":5404,"stito":5405,"oro":5406,"Ġord":5407,"Ġesso":5408,"Ġsex":5409,"756":5410,"9927":5411,"Ġcredo":5412,"765":5413,"nMan":5414,"9929":5415,"cipi":5416,"Ġproveni":5417,"impre":5418,"Ġindiri":5419,"nSito":5420,"obiettivo":5421,"Ġ02":5422,"king":5423,"erlo":5424,"466":5425,"icurezza":5426,"ong":5427,"Ġconferma":5428,"icola":5429,"ĠPI":5430,"nSpe":5431,"pu":5432,"Ġvisite":5433,"matizza":5434,"segn":5435,"Ġexperience":5436,"Â»\\":5437,"eek":5438,"Ġpiani":5439,"nSeguici":5440,"Ġmondiale":5441,"Ġtur":5442,"ĠFestival":5443,"Ġeuropea":5444,"Ġdevo":5445,"Ġconcentra":5446,"Ġmesso":5447,"9916":5448,"Ġtrans":5449,"Ġpaura":5450,"Ġpiedi":5451,"Ġsecolo":5452,"Ġaperto":5453,"Ġ01":5454,"Ġlavorare":5455,"Ġsabato":5456,"missioni":5457,"ket":5458,"126":5459,"inali":5460,"ĠFA":5461,"urea":5462,"icolo":5463,"ĠRegolamento":5464,"MS":5465,"Ġcase":5466,"Ġbellezza":5467,"coni":5468,"Ġinsta":5469,"Ġoriginale":5470,"366":5471,"Ġredazione":5472,"stallazione":5473,"Ġperman":5474,"press":5475,"cesso":5476,"122":5477,"onali":5478,"9933":5479,"Ġrispetti":5480,"nEventi":5481,"enso":5482,"ĠVol":5483,"Ġsosp":5484,"Ġnonostante":5485,"Ġpensiero":5486,"9999763":5487,"rittura":5488,"Ġrecente":5489,"Ġstorie":5490,"Ġmemoria":5491,"Ġ]":5492,"ĠPart":5493,"ĠEl":5494,"444":5495,"073":5496,"286":5497,"ĠIP":5498,"9947":5499,"evento":5500,"bito":5501,"Ġstrutture":5502,"ostazioni":5503,"Ġverde":5504,"Ġintra":5505,"9988":5506,"datti":5507,"ĠMol":5508,"rci":5509,"Ġimpro":5510,"817":5511,"9915":5512,"ucia":5513,"Ġscarica":5514,"nAuto":5515,"bbio":5516,"Ġcompleto":5517,"Ġmemorizzati":5518,"Ġidentifica":5519,"703":5520,"ities":5521,"essore":5522,"Ġnasce":5523,"822":5524,"Ġsinistra":5525,"679":5526,"Ġspecifiche":5527,"son":5528,"how":5529,"âĢĭ":5530,"ĠInstagram":5531,"Ġdolore":5532,"Ġunica":5533,"Ġdallo":5534,"Ġlonta":5535,"ĠmetÃł":5536,"necessary":5537,"9904":5538,"âĤ¬\\":5539,"Ġesperti":5540,"Ġsfru":5541,"Ġcorrispon":5542,"ish":5543,"Ġesiste":5544,"Ġadesso":5545,"Ġpal":5546,"Ġdovuto":5547,"edia":5548,"Ġbenessere":5549,"ichia":5550,"estro":5551,"Ġregistrato":5552,"ĠAng":5553,"Ġpiccole":5554,"nVai":5555,"Ġbeni":5556,"Ġenergia":5557,"erdÃ¬":5558,"Ġgratuita":5559,"Ġres":5560,"ĠSh":5561,"ĠGI":5562,"tere":5563,"Ġeduca":5564,"ĠVa":5565,"ĠFri":5566,"nl":5567,"ĠScuola":5568,"gan":5569,"EO":5570,"Ġgri":5571,"nDopo":5572,"Ġriguardo":5573,"Ġnormativa":5574,"Ġstrani":5575,"Ġ34":5576,"nShare":5577,"Ġquei":5578,"ree":5579,"Ġipo":5580,"ĠRus":5581,"ĠveritÃł":5582,"Ġpiazza":5583,"9926":5584,"Elimina":5585,"Ġapprofondi":5586,"cenza":5587,"rom":5588,"ĠAg":5589,"ï¿":5590,"back":5591,"Ġprobabilmente":5592,"Ġinglese":5593,"ise":5594,"ddo":5595,"by":5596,"nRead":5597,"Ġriusci":5598,"vedÃ¬":5599,"Ġapparten":5600,"Ġsud":5601,"mme":5602,"stono":5603,"Ġimpie":5604,"nOr":5605,"9937885":5606,"uogo":5607,"355":5608,"ĠaffinchÃ©":5609,"elp":5610,"ĠYouTube":5611,"nil":5612,"TRI":5613,"INI":5614,"biettivi":5615,"versi":5616,"9965":5617,"enom":5618,"RL":5619,"bal":5620,"nQuesta":5621,"tec":5622,"Ġcliccando":5623,"Ġprati":5624,"Ġragazza":5625,"Ġtrasf":5626,"ĠMer":5627,"Ġspecie":5628,"mbe":5629,"top":5630,"ĠOra":5631,"Ġpartita":5632,"Ġfacilmente":5633,"184":5634,"962":5635,"ĠCarlo":5636,"Ġchiaro":5637,"mamente":5638,"ya":5639,"Ġieri":5640,"192":5641,"107":5642,"Ġadatta":5643,"tand":5644,"ĠAcqu":5645,"scono":5646,"Ġavete":5647,"Ġproposta":5648,"gistro":5649,"tern":5650,"Ġparticolarmente":5651,"8543933":5652,"nRispondiElimina":5653,"erata":5654,"ĠSuper":5655,"Europa":5656,"Ġsuccessivo":5657,"ĠDELLA":5658,"452":5659,"golo":5660,"ciato":5661,"Ġdiverso":5662,"inato":5663,"ile":5664,"Ġfort":5665,"Ġinda":5666,"ordi":5667,"929":5668,"ĠUN":5669,"Ġambiente":5670,"mulazione":5671,"Ġprofili":5672,"Ġgente":5673,"Ġveramente":5674,"Ġmanutenzione":5675,"agnia":5676,"Ġcontattare":5677,"Ġfam":5678,"tini":5679,"132":5680,"232":5681,"Ġcolp":5682,"nMe":5683,"ĠTeatro":5684,"Ġmodifiche":5685,"ĠAntonio":5686,"gisla":5687,"ĠMetro":5688,"Ġdispositivi":5689,"terapia":5690,"struttura":5691,"ĠLib":5692,"ago":5693,"ĠGruppo":5694,"197":5695,"ĠMore":5696,"Ġform":5697,"tions":5698,"ĠConta":5699,"Ġaccessi":5700,"Ġscena":5701,"nArchivi":5702,"Ġlar":5703,"Ġgusto":5704,"lic":5705,"Ġcreazione":5706,"057":5707,"Ġmantenere":5708,"Ġsuffici":5709,"ĠBoard":5710,"alitici":5711,"ĠRE":5712,"Ġscelte":5713,"tory":5714,"nDati":5715,"ĠGe":5716,"Ġcapelli":5717,"Ġfol":5718,"Ġrischi":5719,"ĠpoichÃ©":5720,"Ġarchi":5721,"Ġlabora":5722,"ĠCorte":5723,"Ġferro":5724,"Ġcontributo":5725,"mozione":5726,"/\"},\"":5727,"presa":5728,"grafo":5729,"vend":5730,"ettare":5731,"Ġcomincia":5732,"828":5733,"131":5734,"Ġfeste":5735,"Ġaffi":5736,"Ġiniziative":5737,"Ġnegozio":5738,"Ġvino":5739,"Ġmos":5740,"Ġragazze":5741,"Ġregione":5742,"asse":5743,"dex":5744,"Ġcategory":5745,"gliato":5746,"icol":5747,"555":5748,"ĠStampa":5749,"ĠGes":5750,"letta":5751,"Ġabbas":5752,"754":5753,"ĠCorsi":5754,"Ġinterno":5755,"ï¿½":5756,"ĠSicilia":5757,"Ġusato":5758,"343":5759,"ffÃ¨":5760,"orld":5761,"Ġstandard":5762,"Ġdesc":5763,"ĠThis":5764,"agni":5765,"Ġindicato":5766,"Ġesercita":5767,"Ġconsentono":5768,"Ġstudia":5769,"ZIONA":5770,"ÃĢ":5771,"079":5772,"ĠPol":5773,"ĠLuca":5774,"don":5775,"Ġrecensioni":5776,"Ġreso":5777,"ave":5778,"ĠsÃ¬":5779,"stenti":5780,"Ġesterni":5781,"itazioni":5782,"arla":5783,"Ġgaranzia":5784,"Ġeseguire":5785,"Ġspi":5786,"erato":5787,"Ġtradizione":5788,"rina":5789,"Ġ200":5790,"Ġspettacolo":5791,"Ġconsapevole":5792,"ĠFerra":5793,"the":5794,"gante":5795,"Ġsoggetto":5796,"oopera":5797,"nia":5798,"Ġmangia":5799,"iete":5800,"Ġimb":5801,"Ġscelto":5802,"serisci":5803,"Ġnumeri":5804,"ĠlÃ¬":5805,"ĠPic":5806,"Ġcentrale":5807,"ĠFondazione":5808,"vamo":5809,"ĠCommissione":5810,"Ġlegali":5811,"nPuoi":5812,"467":5813,"9906":5814,"Ġbagno":5815,"terie":5816,"No":5817,"Ġsaperne":5818,"Ġucc":5819,"Ġringra":5820,"annello":5821,"Ġago":5822,"Ġanonimi":5823,"ĠdovrÃł":5824,"958":5825,"Ġpartecip":5826,"Ġfai":5827,"vice":5828,"Ġopzioni":5829,"ĠDal":5830,"nSempre":5831,"TS":5832,"Ġcomm":5833,"Ġaiu":5834,"Ġabitu":5835,"764":5836,"nMen":5837,"Ġaccettare":5838,"res":5839,"nVideo":5840,"logici":5841,"Ġesclu":5842,"Ġeco":5843,"Ġaffrontare":5844,"ERI":5845,"Ġveicoli":5846,"Unione":5847,"ĠVe":5848,"183":5849,"Ġrico":5850,"dy":5851,"Ġbel":5852,"Ġoperazioni":5853,"Ġviolenza":5854,"Ġpotete":5855,"lit":5856,"idente":5857,"labria":5858,"Ġitaliane":5859,"anne":5860,"Ġout":5861,"948":5862,"virus":5863,"128":5864,"CS":5865,"logiche":5866,"ĠServizio":5867,"andi":5868,"Ġsingolo":5869,"guardo":5870,"nStati":5871,"108":5872,"Ġevento":5873,"ĠLomb":5874,"nAv":5875,"Ġinternazionali":5876,"Ġstai":5877,"Ġcarattere":5878,"Ġnorme":5879,"LIA":5880,"Ġnormale":5881,"Ġterza":5882,"Ġautomaticamente":5883,"uove":5884,"Ġfesta":5885,"ĠComunica":5886,"Ġ2004":5887,"Ġslot":5888,"arta":5889,"enova":5890,"Ġchiusura":5891,"Ġportato":5892,"Ġvitti":5893,"102":5894,"Ġefficace":5895,"ĠItaliana":5896,"ĠâĨĴ":5897,"vani":5898,"gica":5899,"Ġversa":5900,"Ġoperatori":5901,"sol":5902,"2011":5903,"Ġradio":5904,"Ġmeravi":5905,"Ġsperi":5906,"Ġart":5907,"Ġsuperfic":5908,"ler":5909,"Ġeffetto":5910,"Ġtrasforma":5911,"mula":5912,"053":5913,"leg":5914,"Ġbal":5915,"Ġlivelli":5916,"day":5917,"Ġovviamente":5918,"essori":5919,"ĠLavoro":5920,"estionaleAuto":5921,"ĠvelocitÃł":5922,"ĠIta":5923,"Ġtraspar":5924,"ĠAli":5925,"duce":5926,"Ġmezzi":5927,"prima":5928,"757":5929,"rur":5930,"Ġgest":5931,"impor":5932,"Ġtenta":5933,"Ġrapida":5934,"nTe":5935,"Ġrie":5936,"gnome":5937,"Ġcancellazione":5938,"rali":5939,"ĠdÃł":5940,"essioni":5941,"Ġcomprendere":5942,"Ġrequis":5943,"Ġecommerce":5944,"mmeno":5945,"ach":5946,"nAccedi":5947,"ans":5948,"ĠPRE":5949,"tario":5950,"Ġpronto":5951,"Ġchiu":5952,"Ġeffici":5953,"Ġritorno":5954,"Ġ$":5955,"Ġabbastanza":5956,"Ġispi":5957,"Ġdra":5958,"Ġpermettono":5959,"Ġricord":5960,"Ġpazienti":5961,"comp":5962,"osco":5963,"ĠIVA":5964,"ĠPubbli":5965,"ĠID":5966,"037":5967,"024":5968,"getto":5969,"Ġfotograf":5970,"ick":5971,"ressi":5972,"Ġeffettuato":5973,"Ġrilascia":5974,"Ġlato":5975,"Ġrifer":5976,"let":5977,"nSca":5978,"nhttps":5979,"Ġformato":5980,"Co":5981,"9907":5982,"oscana":5983,"ĠSP":5984,"ZIA":5985,"Ġtuttavia":5986,"Ġprofessionali":5987,"port":5988,"ĠCam":5989,"Ġmoto":5990,"Ġpassi":5991,"Ġmanc":5992,"gore":5993,"9954":5994,"nContattaci":5995,"Ġverifica":5996,"poca":5997,"Ġvale":5998,"Ġobbligatori":5999,"Ġinvi":6000,"XX":6001,"Ġfonte":6002,"his":6003,"127":6004,"boli":6005,"047":6006,"SB":6007,"ĠResponsa":6008,"Ġfenom":6009,"GGI":6010,"364":6011,"Ġspesa":6012,"818":6013,"Ġsottop":6014,"erare":6015,"ĠTro":6016,"ĠVideo":6017,"coledÃ¬":6018,"Ġdisciplina":6019,"ĠSud":6020,"dendo":6021,">\\":6022,"9967":6023,"Ġ)":6024,"2012":6025,"eu":6026,"443":6027,"Ġmoglie":6028,"Ġcomba":6029,"Ġtop":6030,"Ġmomenti":6031,"ĠRu":6032,"ĠGian":6033,"9913":6034,"ĠDig":6035,"Associazione":6036,"453":6037,"mal":6038,"mart":6039,"stu":6040,"092":6041,"ANI":6042,"cuni":6043,"Ġaddi":6044,"ĠEr":6045,"Ġmamma":6046,"ĠNON":6047,"120":6048,"vizz":6049,"arne":6050,"roga":6051,"nGestionaleAuto":6052,"parti":6053,"nDal":6054,"Ġcontrollare":6055,"Ġracc":6056,"Ġwork":6057,"nIndi":6058,"Ġfiducia":6059,"ĠBlu":6060,"Ġtracciare":6061,"Ġnasc":6062,"Ġmandato":6063,"Ġbello":6064,"850":6065,"ID":6066,"Ġdecisione":6067,"Ġricorda":6068,"Ġguada":6069,"Ġforniti":6070,"ĠTr":6071,"iano":6072,"anz":6073,"ĠThese":6074,"riera":6075,"ĠFrancia":6076,"essun":6077,"ĠdisponibilitÃł":6078,"cli":6079,"Ġumano":6080,"ĠLE":6081,"ĠUE":6082,"Ġmm":6083,"cs":6084,"Ġideale":6085,"ormazione":6086,"ricol":6087,"degna":6088,"nAu":6089,"Ġ45":6090,"nla":6091,"ĠVit":6092,"Ġpale":6093,"Ġperfetto":6094,"Ġcercando":6095,"Ġintorno":6096,"Ġmarchio":6097,"nZ":6098,"Ġassegna":6099,"ĠNella":6100,"ĠNord":6101,"Ġbonus":6102,"iemonte":6103,"Ġimmobili":6104,"FO":6105,"Ġcomplessi":6106,"sciu":6107,"analisi":6108,"ĠEmilia":6109,"nServizi":6110,"ĠavrÃł":6111,"dali":6112,"942":6113,"GP":6114,"xx":6115,"118":6116,"âĢĶâĢĶ":6117,"della":6118,"ĠPari":6119,"Ġdirezione":6120,"952":6121,"nGu":6122,"Ġ.\\":6123,"Ġpassare":6124,"agina":6125,"ĠMis":6126,"Condi":6127,"Ġtrovano":6128,"ĠPost":6129,"obbli":6130,"Ġcibo":6131,"LU":6132,"truttura":6133,"Ġricetta":6134,"Ġillustra":6135,"Ġfornito":6136,"lora":6137,"Ġpiattaforme":6138,"ĠStudi":6139,"damento":6140,"ĠSU":6141,"monia":6142,"tteo":6143,"ĠMinistero":6144,"fil":6145,"ometri":6146,"Ġabilitato":6147,"Ġconsider":6148,"Ġselezione":6149,"Ġson":6150,"ĠvenerdÃ¬":6151,"Ġchiede":6152,"mministrazione":6153,"Ġama":6154,"500":6155,"Ġpotrai":6156,"Ġpace":6157,"Ġopini":6158,"Ġstare":6159,"Ġredd":6160,"Ġtemi":6161,"Ġmore":6162,"utazione":6163,"Ġaiuto":6164,"giorno":6165,"nma":6166,"Ġ70":6167,"Ġdominio":6168,"ĠMO":6169,"Ġabband":6170,"page":6171,"9922":6172,"Ġesplicita":6173,"indows":6174,"Ġpermesso":6175,"nPolitica":6176,"Ġspiega":6177,"voluzione":6178,"ĠMag":6179,"onavirus":6180,"Ġdifesa":6181,"cello":6182,"ear":6183,"Ġvisitare":6184,"ĠPerchÃ©":6185,"Ġstamp":6186,"iki":6187,"Ġobiettivi":6188,"ĠCastel":6189,"Ġlinee":6190,"Ġcompetenze":6191,"ĠEuropea":6192,"craina":6193,"9928":6194,"blioteca":6195,"Ġpremi":6196,"Ġdestra":6197,"Ġaltra":6198,"Ġnemmeno":6199,"merica":6200,"agement":6201,"aran":6202,"resso":6203,"Ġprofilazione":6204,"Ġvuo":6205,"dotta":6206,"spe":6207,"747":6208,"NG":6209,"ncon":6210,"Ġtipologie":6211,"ĠMI":6212,"gas":6213,"Ġnumer":6214,"067":6215,"9957":6216,"Ġgay":6217,"ĠLI":6218,"mba":6219,"808":6220,"Ġcontesto":6221,"Ġsottoline":6222,"offerta":6223,"ghts":6224,"ĠSO":6225,"old":6226,"111":6227,"101":6228,"ager":6229,"osted":6230,"9797068":6231,"rlo":6232,"dienti":6233,"9886":6234,"ĠFoto":6235,"219":6236,"accordo":6237,"anzi":6238,"870":6239,"matizzatori":6240,"wer":6241,"Ġtrovi":6242,"uida":6243,"Ġminimo":6244,"ORMA":6245,"Ġdettaglio":6246,"inÃ²":6247,"Ġgover":6248,"Ġsala":6249,"Ġaiutare":6250,"Ġparticolari":6251,"nPost":6252,"Ġeuropeo":6253,"servare":6254,"Ġ500":6255,"Ġcostruzione":6256,"estisci":6257,"erie":6258,"ĠTerra":6259,"nRis":6260,"tell":6261,"Ġiscri":6262,"ĠGroup":6263,"arre":6264,"Ġfaccio":6265,"Ġcondizione":6266,"Ġlie":6267,"uma":6268,"ontÃł":6269,"Ġproposte":6270,"ĠLazio":6271,"Ġdipendenti":6272,"Ġquota":6273,"Ġmille":6274,"ĠSerie":6275,"Ġcreato":6276,"Ġusando":6277,"ĠTRA":6278,"ĠRisp":6279,"Ġrichiede":6280,"wa":6281,"Ġcaro":6282,"Ġlega":6283,"Ġlive":6284,"ghezza":6285,"Ġcanti":6286,"Ġvogli":6287,"aming":6288,"ĠOgni":6289,"onico":6290,"Ġalso":6291,"Ġmoda":6292,"Ġzucch":6293,"Ġvantaggi":6294,"Ġprecedenti":6295,"Ġrifiuti":6296,"Ġfigura":6297,"mori":6298,"nNovembre":6299,"onamento":6300,"Ġillu":6301,"DU":6302,"ep":6303,"852":6304,"roid":6305,"ÃĹ\\":6306,"Â»,":6307,"Ġnomina":6308,"rolo":6309,"ens":6310,"ĠGesÃ¹":6311,"liamo":6312,"nRegistra":6313,"nAnche":6314,"Ġcur":6315,"Ġextra":6316,"Ġrapporti":6317,"Ġigno":6318,"Ġinvio":6319,"753":6320,"9884":6321,"cura":6322,"terno":6323,"rome":6324,"Ġavevo":6325,"bano":6326,"110":6327,"ille":6328,"ola":6329,"Ġzone":6330,"Ġmembri":6331,"ĠSch":6332,"verai":6333,"Ġconseguenza":6334,"Ġscheda":6335,"nel":6336,"Ġhave":6337,"Ġgiocare":6338,"Ġracconta":6339,"Ġpande":6340,"Ġmobile":6341,"Ġessa":6342,"ĠTecn":6343,"âĢ¦.":6344,"Ġprevisti":6345,"Ġstar":6346,"my":6347,"roma":6348,"ĠJu":6349,"Ġbri":6350,"Ġdistru":6351,"ĠPietro":6352,"ÌĢ":6353,"landa":6354,"vando":6355,"Ġutilizziamo":6356,"mine":6357,"Ġtv":6358,"Ġ2003":6359,"Ġappare":6360,"Ġrestitu":6361,"quo":6362,"Ġriconosc":6363,"ĠProte":6364,"nGen":6365,"Mo":6366,"Ġattre":6367,"ĠDani":6368,"ĠVis":6369,"udica":6370,"Ġcuri":6371,"dico":6372,"dibile":6373,"ĠOggi":6374,"nCos":6375,"reno":6376,"AI":6377,"ĠâĢ¦\\":6378,"orte":6379,"ĠDia":6380,"Ġcul":6381,"Ġvive":6382,"cap":6383,"Ġiso":6384,"nmar":6385,"9104":6386,"ves":6387,"citi":6388,"Ġdolce":6389,"die":6390,"orgo":6391,"enaro":6392,"EDI":6393,"arg":6394,"Com":6395,"878":6396,"nSport":6397,"830":6398,"stro":6399,"Ġinsegna":6400,"Ġamico":6401,"ĠForn":6402,"Ġ2000":6403,"Ġconfronto":6404,"CCA":6405,"231":6406,"ĠNA":6407,"Ġpaes":6408,"138":6409,"303":6410,"367":6411,"Ġlimiti":6412,"estici":6413,"9877":6414,"ĠForum":6415,"Ġdisposizioni":6416,"001":6417,"Ġsalvare":6418,"Ġprocessi":6419,"ĠPrezzo":6420,"gnore":6421,"Ġarte":6422,"Ġcolla":6423,"gini":6424,"ĠQual":6425,"ĠSempre":6426,"ĠBri":6427,"Ġofferta":6428,"ĠopportunitÃł":6429,"Ġentrare":6430,"Ġcambio":6431,"Ġorgan":6432,"9866":6433,"Ġpossano":6434,"fera":6435,"GE":6436,"ĠLegge":6437,"9494":6438,"interessato":6439,"Ġaggiornamento":6440,"Ġvoglio":6441,"Ġfri":6442,"Ġattualmente":6443,"TURA":6444,"Condividi":6445,"correre":6446,"Ġprende":6447,"ĠStefano":6448,"ttato":6449,"Ġosserva":6450,"ĠUSA":6451,"Ġaccetti":6452,"stina":6453,"ĠVerona":6454,"''":6455,"Ġrosso":6456,"visa":6457,"nBi":6458,"urismo":6459,"Ġpertin":6460,"Ġdigitali":6461,"Ġcopia":6462,"nMarketing":6463,"Ġmedio":6464,"Ġpasse":6465,"Ġpolitico":6466,"130":6467,"858":6468,"Ġusci":6469,"063":6470,"Ġriesce":6471,"nSa":6472,"Ġbic":6473,"sero":6474,"Ġambientale":6475,"Ġpagare":6476,"Ġsucce":6477,"Ġunici":6478,"Ġricordo":6479,"Ġvas":6480,"shop":6481,"Ġprotagonista":6482,"Ġsilen":6483,"077":6484,"vimenti":6485,"9848":6486,"nCronaca":6487,"872":6488,"Ġspos":6489,"181":6490,"Ġfrequenza":6491,"Ġrelativa":6492,"razioni":6493,"Ġinformativa":6494,"Ġpeggio":6495,"Â®":6496,"Ġtestimoni":6497,"Ġtornare":6498,"Ġconservazione":6499,"Ġcontinuare":6500,"Ġperce":6501,"liari":6502,"nVedi":6503,"Ġbigli":6504,"Ġsalva":6505,"CHI":6506,"347":6507,"nBlog":6508,"ĠMondo":6509,"Ġdidatti":6510,"Ġpopolazione":6511,"Ġdirig":6512,"Ġnessuna":6513,"Ġfirma":6514,"ditÃł":6515,"ffi":6516,"organizzazione":6517,"vello":6518,"9888":6519,"363":6520,"357":6521,"Ġappassi":6522,"Ġprivato":6523,"ĠFu":6524,"Ġrecensione":6525,"463":6526,"Ġpartecipare":6527,"TICO":6528,"nNella":6529,"Ġstesse":6530,"565":6531,"ettendo":6532,"Ġdise":6533,"Ġaperta":6534,"isola":6535,"9855":6536,"Ġvostri":6537,"wered":6538,"ĠAri":6539,"anitÃł":6540,"9911":6541,"Ġcontrario":6542,"Ġprovin":6543,"Ġcusto":6544,"Ġstimo":6545,"nYou":6546,"Ġdet":6547,"Ġverificare":6548,"Ġoli":6549,"erebbe":6550,"Ġassa":6551,"VV":6552,"economia":6553,"AM":6554,"Ġdirettore":6555,"cel":6556,"Li":6557,"193":6558,"ĠAnnulla":6559,"8715":6560,"alleria":6561,"Accetta":6562,"9973":6563,"Ġlava":6564,"ercati":6565,"ĠPalermo":6566,"loud":6567,"015":6568,"Ġnazionali":6569,"Ġmalattia":6570,"025":6571,"nRo":6572,"Ġavevano":6573,"Ġconce":6574,"AP":6575,"Ġerrori":6576,"ĠPalazzo":6577,"zano":6578,"Ġpersonaggi":6579,"ppio":6580,"Ġfunctional":6581,"Ġsoci":6582,"Ġdisco":6583,"dari":6584,"qua":6585,"erai":6586,"Ġrisposte":6587,"Ġaddirittura":6588,"Ġimmediatamente":6589,"ĠPaesi":6590,"Ġconsulenza":6591,"Ġfemminile":6592,"ĠĠ":6593,"Ġlasciare":6594,"Ġrisulta":6595,"Ġtemperatura":6596,"Ġnumerosi":6597,"Ġadolesc":6598,"intervento":6599,"ĠValle":6600,"ENTE":6601,"cazione":6602,"ĠContinu":6603,"820":6604,"ĠFeder":6605,"nWhatsApp":6606,"nInformativa":6607,"fre":6608,"Ġchiama":6609,"Ġscio":6610,"nome":6611,"Ġraccom":6612,"ĠSol":6613,"nQual":6614,"Ġdelica":6615,"Ġcomunale":6616,"767":6617,"Ġpassaggio":6618,"scio":6619,"Ġmina":6620,"inta":6621,"Ġrimane":6622,"Ġfuoco":6623,"lle":6624,"Ġtranqu":6625,"ciamo":6626,"Ġricostruzione":6627,"ĠCara":6628,"esistenza":6629,"909":6630,"831":6631,"Ġottima":6632,"Ġdina":6633,"Ġnato":6634,"ettagli":6635,"ĠOnline":6636,"Ġperdita":6637,"Ġregistrati":6638,"Ġpotenza":6639,"tus":6640,"Ġteatro":6641,"261":6642,"Ġregalo":6643,"Ġgiusta":6644,"9948":6645,"Ġnuovamente":6646,"Ġfortuna":6647,"Ġmay":6648,"ĠControllo":6649,"Ġmotiva":6650,"Ġviaggi":6651,"zialmente":6652,"ĠEventi":6653,"iva":6654,"TR":6655,"ĠlunedÃ¬":6656,"ĠMario":6657,"lanti":6658,"ĠToscana":6659,"Ġcontemporanea":6660,"Ġresponsabili":6661,"dova":6662,"ĠCiÃ²":6663,"Ġsangue":6664,"Ġcoppia":6665,"GH":6666,"nFin":6667,"Ġinteressante":6668,"can":6669,"bar":6670,"nSegui":6671,"Ġdona":6672,"dimenti":6673,"Ġassum":6674,"9900":6675,"nQuesti":6676,"Ġtestata":6677,"Ġgiocatori":6678,"itoriali":6679,"Ġcomponenti":6680,"Ġcontrassegna":6681,"stato":6682,"333":6683,"ĠGermania":6684,"orenzo":6685,"377":6686,"Ġculturali":6687,"Ġclassificati":6688,"terra":6689,"Ġriesco":6690,"9853":6691,"ĠAlessandro":6692,"mante":6693,"Ġavviene":6694,"ĠPolitica":6695,"Ġcontin":6696,"ĠDEI":6697,"Ġiniziato":6698,"Ġprincipi":6699,"Ġfia":6700,"Ġfabb":6701,"Ġage":6702,"Ġmiliardi":6703,"Ġinfluire":6704,"pping":6705,"Ġcarne":6706,"Ġinn":6707,"iare":6708,"ĠBal":6709,"Ġricerche":6710,"ĠDesign":6711,"ĠBlog":6712,"appro":6713,"447":6714,"tazioni":6715,"Ġconsultare":6716,"nRep":6717,"lico":6718,"gua":6719,"!!!":6720,"ĠEsp":6721,"Ġconfi":6722,"Ġasse":6723,"ĠCorso":6724,"Ġartigi":6725,"Ġaspetto":6726,"172":6727,"ĠGoverno":6728,"cuti":6729,"9875":6730,"252":6731,"9357":6732,"Ġpromozione":6733,"ĠMuseo":6734,"Ġletti":6735,"Ġgenerali":6736,"Ġsmartphone":6737,"roni":6738,"Ġinferiore":6739,"bis":6740,"Ġsullo":6741,"171":6742,"Ġciclo":6743,"Ġfunctionalities":6744,"Ġsel":6745,"Ġpersonalizzati":6746,"448":6747,"Ġautore":6748,"gger":6749,"ĠSalute":6750,"Ġdenaro":6751,"nNotizie":6752,"Ġprevenzione":6753,"ossibile":6754,"zioso":6755,"Ġinformation":6756,"Ġcompli":6757,"gire":6758,"GN":6759,"Ġarchit":6760,"umero":6761,"Ġdecidere":6762,"Di":6763,"RIA":6764,"nato":6765,"nThe":6766,"wnload":6767,"Ġtratti":6768,"Ġvolume":6769,"Ġiniziare":6770,"Ġsindaco":6771,"ical":6772,"Ġaccessori":6773,"nEd":6774,"Ġconces":6775,"Ġdiscussione":6776,"Ġperformance":6777,"Ġbrand":6778,"itando":6779,"Ġeccell":6780,"novazione":6781,"ds":6782,"vante":6783,"nStatistiche":6784,"Ġaiutar":6785,"nContro":6786,"Ġstelle":6787,"nPrezzo":6788,"Ġnascita":6789,"Ġpropone":6790,"ĠConf":6791,"Do":6792,"MM":6793,"Ġchiara":6794,"isponi":6795,"Ġintelli":6796,"194":6797,"666":6798,"Ġpoche":6799,"Ġ80":6800,"238":6801,"onti":6802,"Ġdemocra":6803,"lori":6804,"Ġdubbio":6805,"272":6806,"CU":6807,"Ġcampagne":6808,"Ġgiud":6809,"ĠCittÃł":6810,"ĠâĨĴ\\":6811,"9893":6812,"ua":6813,"9883":6814,"Ġdistur":6815,"bba":6816,"Ġaumentare":6817,"Ġcambi":6818,"zionamento":6819,"libri":6820,"ĠItaly":6821,"Ġcontatti":6822,"Ġlegisla":6823,"aricamento":6824,"Ġcontrolla":6825,"Ġpato":6826,"Ġamministratori":6827,"ede":6828,"forte":6829,"Ġbusiness":6830,"112":6831,"Ġessendo":6832,"online":6833,"nOra":6834,"ormi":6835,"cento":6836,"Ġumani":6837,"ontan":6838,"attenzione":6839,"Ġspecifici":6840,"ĠPiano":6841,"ĠQui":6842,"ĠSrl":6843,"Ġdieci":6844,"IR":6845,"ualizzazione":6846,"estero":6847,"unico":6848,"Ġpersonal":6849,"Ġnoto":6850,"xi":6851,"nVal":6852,"Ġconsumo":6853,"032":6854,"Ġsemplici":6855,"associazione":6856,"Ġfondi":6857,"impresa":6858,"Ġsoggi":6859,"Ġmattina":6860,"iner":6861,"Ġgiornalistica":6862,"inkedIn":6863,"ĠScopri":6864,"Ġtitoli":6865,"Ġadulti":6866,"Ġeletto":6867,"ĠMusica":6868,"tun":6869,"Ġporte":6870,"gliamento":6871,"248":6872,"Ġfan":6873,"Ġfacol":6874,"Ġfornitori":6875,"Ġimpegno":6876,"vigazione":6877,"ĠCen":6878,"pl":6879,"ĠLeg":6880,"Ġtavolo":6881,"Ġpremio":6882,"Ġincor":6883,"arri":6884,"polit":6885,"estate":6886,"230":6887,"Ġragioni":6888,"Ġmobili":6889,"ĠClimatizzatori":6890,"Ġstabil":6891,"Ġsimile":6892,"9894":6893,"Ġcivi":6894,"ĠCalabria":6895,"sche":6896,"222":6897,"Ġricette":6898,"Ġnotizia":6899,"Ġposi":6900,"nDove":6901,"Ġstored":6902,"Ġcosta":6903,"Ġrientra":6904,"tedÃ¬":6905,"esca":6906,"nDicembre":6907,"ĠRoberto":6908,"Ġcamera":6909,"Ġsentire":6910,"Ġriguardano":6911,"anoramica":6912,"ranco":6913,"nVo":6914,"Ġdiffusione":6915,"9920":6916,"nClicca":6917,"337":6918,"190":6919,"Ġsogno":6920,"182":6921,"ĠCir":6922,"Ã¡":6923,"743":6924,"901":6925,"nDom":6926,"Ġcomunicazioni":6927,"Ġaccade":6928,"Ġromanzo":6929,"bus":6930,"Ġblu":6931,"inizia":6932,"nIL":6933,"Ġpresentare":6934,"mobile":6935,"ecchi":6936,"Ġaziendale":6937,"Ġstiamo":6938,"arle":6939,"dra":6940,"Ġottimo":6941,"nGestisci":6942,"Ġappuntamento":6943,"373":6944,"Ġconver":6945,"Ġonly":6946,"Ġbilancio":6947,"Ġfelice":6948,"Ġprogrammi":6949,"Ġvogliono":6950,"Ġintende":6951,"Ġprocedure":6952,"ĠNov":6953,"fis":6954,"Ġfacc":6955,"Ġmotore":6956,"cheo":6957,"ĠCommenti":6958,"218":6959,"Ġpit":6960,"nMod":6961,"porto":6962,"tania":6963,"nLA":6964,"9856":6965,"applicazione":6966,"nPreferenze":6967,"ĠOut":6968,"inazione":6969,"erta":6970,"bini":6971,"{{":6972,"Ġaumenta":6973,"ĠMen":6974,"Ġdovrebbero":6975,"minio":6976,"Ġquarti":6977,"mergenza":6978,"851":6979,"Ġregistrazioni":6980,"Ġpandemia":6981,"Ġaggiunto":6982,"Ġgamma":6983,"Ġprovare":6984,"nCol":6985,"Ġpartenza":6986,"ks":6987,"Ġinizio":6988,"Ġdomani":6989,"Ġcristi":6990,"080":6991,"urro":6992,"vide":6993,"Ġmoderatori":6994,"Ġalti":6995,"EWS":6996,"Ġdobbiamo":6997,"Ġconcre":6998,"ĠQuindi":6999,"fine":7000,"Ġdialo":7001,"150":7002,"ĠItaliano":7003,"Ġvecchio":7004,"Ġenti":7005,"Ġfrancese":7006,"ĠCopyright":7007,"Ġspir":7008,"Ġfinalmente":7009,"GB":7010,"ctional":7011,"ĠWe":7012,"Ġmetter":7013,"Ġospe":7014,"Ġpotuto":7015,"Ġdover":7016,"Ġnomi":7017,"Ġospiti":7018,"9963":7019,"Ġsconto":7020,"9895":7021,"ĠAlla":7022,"832":7023,"ĠArti":7024,"CON":7025,"Ġvoluto":7026,"Ġrespi":7027,"ĠOli":7028,"Ġfiscale":7029,"Ġmono":7030,"Ġacquisti":7031,"Ġelemento":7032,"ĠLun":7033,"tures":7034,"ult":7035,"simi":7036,"141":7037,"liano":7038,"Ġorigine":7039,"ĠTU":7040,"Ġlettori":7041,"Ġfiori":7042,"Ġdimensione":7043,"Ġlotta":7044,"Ġtorn":7045,"ãĢ":7046,"ornata":7047,"ĠRes":7048,"Ġconcorso":7049,"8577":7050,"manti":7051,"Ġscoperta":7052,"Ġpomeri":7053,"Ġund":7054,"Ġcompro":7055,"ricoltura":7056,"identificazione":7057,"visioni":7058,"VID":7059,"Ġcapitale":7060,"Ġinfine":7061,"nella":7062,"Ġtrasfer":7063,"Ġcaldo":7064,"iditÃł":7065,"ore":7066,"Ġrelazioni":7067,"ĠUtente":7068,"ĠPsico":7069,"031":7070,"nAttualitÃł":7071,"tria":7072,"Ġpossibili":7073,"ppon":7074,"Ġpartito":7075,"opzione":7076,"Ġpreventivo":7077,"Ġsegno":7078,"tyle":7079,"Ġidea":7080,"ness":7081,"556":7082,"Ġsituazioni":7083,"Ġclassifica":7084,"Ġforti":7085,"9896":7086,"554":7087,"Ġclin":7088,"pati":7089,"ccessi":7090,"ciare":7091,"938":7092,"Ġpresentato":7093,"Ġmedici":7094,"Ġinstalla":7095,"ĠStudio":7096,"\\\",\\\"":7097,"âĢĿ:":7098,"Ġsondaggio":7099,"654":7100,"ade":7101,"nPosted":7102,"UTO":7103,"Ġordini":7104,"Ġmetro":7105,"nPrima":7106,"Ġdecora":7107,"871":7108,"Ġcambiamento":7109,".)":7110,"ZE":7111,"cessari":7112,"Ġrega":7113,"ĠOpera":7114,"Ġprior":7115,"Ġvar":7116,"ĠMel":7117,"mpianto":7118,"665":7119,"ĠSant":7120,"Ġvalutare":7121,"occasione":7122,"Ġfattura":7123,"Ġimprend":7124,"Ġriscalda":7125,"ĠBio":7126,"Ġviss":7127,"Ġdele":7128,"lici":7129,"Ġstatistiche":7130,"Ġinviato":7131,"309":7132,"lismo":7133,"Ġspo":7134,"Ġavvia":7135,"9989":7136,"cegli":7137,"osten":7138,"egno":7139,"ĠâĢĶ":7140,"nVisualizza":7141,"Ġallena":7142,"ĠAi":7143,"Ġcanz":7144,"Ġgiardino":7145,"Ġscomp":7146,"mentato":7147,"nPubblicitÃł":7148,"Ġserata":7149,"ĠÃ©":7150,"Ġavvic":7151,"Ġartisti":7152,"Ġgiuridica":7153,"fu":7154,"Ġcorretta":7155,"nFoto":7156,"Ġarea":7157,"Ġchiesa":7158,"202":7159,"ĠMal":7160,"anima":7161,"gegn":7162,"ĠRussia":7163,"pto":7164,"191":7165,"777":7166,"nCh":7167,"cate":7168,"nArt":7169,"Ġportale":7170,"Ġglobale":7171,"Ġesplicitamente":7172,"lendi":7173,"Ġfed":7174,"nScri":7175,"Ġsingoli":7176,"Ġdisatti":7177,"ula":7178,"Ġoffri":7179,"Ġassociazioni":7180,"Ġlimite":7181,"Ġcorrettamente":7182,"bit":7183,"frica":7184,"pressione":7185,"Ġracconto":7186,"incontro":7187,"ller":7188,"ony":7189,"Ġpersi":7190,"Ġforze":7191,"mitÃł":7192,"ĠcaffÃ¨":7193,"Ġambienti":7194,"ĠLuigi":7195,"mag":7196,"ĠEs":7197,"teriore":7198,"ĠHe":7199,"sic":7200,"tena":7201,"ĠCristo":7202,"TÃĢ":7203,"Ġfede":7204,"Ġcerta":7205,"Ġolio":7206,"Ġrelativo":7207,"ior":7208,"Ġrecupero":7209,"Ġnecessarie":7210,"Ġpred":7211,"Ġrimanere":7212,"Ġventi":7213,"861":7214,"ĠAss":7215,"ispensa":7216,"nInserisci":7217,"142":7218,"css":7219,"alti":7220,"Ġpulizia":7221,"minato":7222,"cast":7223,"inc":7224,"ĠCina":7225,"vatore":7226,"Ġpens":7227,"ĠGenova":7228,"Ġgenti":7229,"ĠConte":7230,"Ġsolle":7231,"Ġvege":7232,"VER":7233,"Ġcari":7234,"ĠLei":7235,"159":7236,"Ġbasic":7237,"99845":7238,"Ġpiatti":7239,"laritÃł":7240,"Ġemozioni":7241,"Ġvinc":7242,"149":7243,"Ġsiete":7244,"ash":7245,"Ġeditoriale":7246,"duto":7247,"868":7248,"nUtilizziamo":7249,"Ġdenuncia":7250,"informazione":7251,"Ġcontent":7252,"enziale":7253,"gliare":7254,"Ġattesa":7255,"Ġsh":7256,"Ġpreoccupa":7257,"gure":7258,"ĠPoi":7259,"ox":7260,"Ġinteressanti":7261,"Ġsuperficie":7262,"nCre":7263,"parare":7264,"140":7265,"ĠAs":7266,"Ġwill":7267,"148":7268,"Ġrisolvere":7269,"Ġaere":7270,"Ġgiudizio":7271,"ĠMari":7272,"Ġmatrimonio":7273,"esima":7274,"Ġtrov":7275,"Ġistruzioni":7276,"\\\":\\\"":7277,"Ġchiesto":7278,"tuali":7279,"Ġapplicazioni":7280,"Ġripet":7281,"Ġsemi":7282,"rande":7283,"leggi":7284,"ĠCosa":7285,"860":7286,"Ġesterno":7287,"Ġessenti":7288,"178":7289,"calitÃł":7290,"inamento":7291,"ĠMassimo":7292,"Ġpio":7293,"8390":7294,"Ġpoesia":7295,"Ġminori":7296,"soli":7297,"Ġpasta":7298,"Ġcazzo":7299,"DCB":7300,"fru":7301,"ĠNatura":7302,"Ġessential":7303,"LY":7304,"atch":7305,"Ġturismo":7306,"Ġsalvi":7307,"EM":7308,"Ġmaschi":7309,"nate":7310,"itivo":7311,"Ġnew":7312,"Ġcorrente":7313,"cchie":7314,"ĠAnti":7315,"Ġstrade":7316,"Ġing":7317,"ros":7318,"GRA":7319,"9887":7320,"Ġcondivisione":7321,"udio":7322,"index":7323,"dori":7324,"151":7325,"rosa":7326,"Ġcondu":7327,"Ġelettrica":7328,"Istituto":7329,"Ġquanti":7330,"888":7331,"Ġgrave":7332,"ĠSolo":7333,"8829":7334,"ĠElet":7335,"Ġcostruire":7336,"pole":7337,"CDA":7338,"072":7339,"228":7340,"contra":7341,"Ġsve":7342,"rd":7343,"Ġsvolgere":7344,"Ġcielo":7345,"Ġriduzione":7346,"Ġpopolo":7347,"iterran":7348,"cido":7349,"Ġmarchi":7350,"Ġentrambi":7351,"STA":7352,"212":7353,"lis":7354,"metri":7355,"ĠITA":7356,"enato":7357,"Ġaffid":7358,"Ġcorrelati":7359,"Ġindirizzi":7360,"gnuno":7361,"Ġcomplesso":7362,"Ġnord":7363,"Ġquestion":7364,"Ġpercen":7365,"Ġpie":7366,"CY":7367,"Ġsinto":7368,"ĠCOR":7369,"ĠFranco":7370,"Ġcop":7371,"Ġoccup":7372,"912":7373,"Ġhelp":7374,"Ġsostenibile":7375,"nAR":7376,"nCultura":7377,"acco":7378,"Ġcentri":7379,"Ġperso":7380,"abri":7381,"nElimina":7382,"cted":7383,"nun":7384,"Ġcircos":7385,"Ġelettro":7386,"221":7387,"Ġvenire":7388,"ĠvolontÃł":7389,"mmi":7390,"nAcquista":7391,"052":7392,"Ġconfe":7393,"Ġcommercio":7394,"Ġtiene":7395,"vizzera":7396,"nInstagram":7397,"mbolo":7398,"ĠFis":7399,"nCommento":7400,"Ġmiglia":7401,"/?":7402,"TV":7403,"onare":7404,"ĠInformativa":7405,"Ġfarmaci":7406,"Ġpiante":7407,"its":7408,"902":7409,"Ġpubbliche":7410,"Ġprospetti":7411,"Ġcontrassegnati":7412,"nper":7413,"139":7414,"Lo":7415,"Ġsfor":7416,"nData":7417,"Ġcaval":7418,"forum":7419,"ttive":7420,"Ġlatte":7421,"ĠBel":7422,"..\\":7423,"ccade":7424,"ĠPh":7425,"9796":7426,"9876":7427,"ĠYork":7428,"Ġpubblicati":7429,"Ġsentenza":7430,"erati":7431,"Ġdescri":7432,"Ġ)\\":7433,"048":7434,"ficata":7435,"TY":7436,"Ġallegati":7437,"Ġcento":7438,"nEcco":7439,"Ġmemorizzate":7440,"99865":7441,"TICA":7442,"nMessa":7443,"162":7444,"ĠPRI":7445,"itate":7446,"Inter":7447,"Ġcompagnia":7448,"venuto":7449,"Ġcarte":7450,"Ġaumento":7451,"Ġquell":7452,"ori":7453,"Ġprossima":7454,"nIo":7455,"Ġtota":7456,"itarie":7457,"Ġif":7458,"Ġrequisiti":7459,"ĠDirettore":7460,"ĠLombardia":7461,"ĠFla":7462,"orig":7463,"ship":7464,"Ġsostenere":7465,"Ġambito":7466,"Ġamb":7467,"nVer":7468,"Ġmanifestazione":7469,"Ġpreparazione":7470,"CK":7471,"vit":7472,"INE":7473,"Ġattivare":7474,"ĠRai":7475,"GG":7476,"Ġqualora":7477,"161":7478,"RU":7479,"nNewsletter":7480,"ics":7481,"endita":7482,"Ġsocio":7483,"Ġ%":7484,"848":7485,"stere":7486,"invio":7487,"epoca":7488,"Ġsufficiente":7489,"9897":7490,"ĠInternazionale":7491,"Ġvittoria":7492,"Ġgol":7493,"Ġricordare":7494,"Ġquadro":7495,"ĠTrattamento":7496,"IM":7497,"Ġscommesse":7498,"ny":7499,"nHai":7500,"verÃł":7501,"Ġacqui":7502,"ĠTur":7503,"0000399":7504,"iniziativa":7505,"priva":7506,"Ġoccorre":7507,"Ġcirco":7508,"ĠSTA":7509,"ĠProvincia":7510,"Ġfrom":7511,"ĠOltre":7512,"Ġpezzi":7513,"Ġdanne":7514,"Ġpatrimonio":7515,"gurazione":7516,"Ġrus":7517,"Ġanalitici":7518,"Ġges":7519,"tes":7520,"Ġpresa":7521,"Ġnegozi":7522,"250":7523,"Ġsfida":7524,"conda":7525,"Ġindicazioni":7526,"Ġdifferenti":7527,"Ġprincipio":7528,"9931":7529,"sÃ¬":7530,"duli":7531,"Ġrivista":7532,"ĠReg":7533,"Ġpressione":7534,"sivo":7535,"258":7536,"ĠPC":7537,"base":7538,"Ġcomposto":7539,"Ġanonimo":7540,"gionale":7541,"RIO":7542,"nTel":7543,"ĠCamera":7544,"Ġsovra":7545,"9885":7546,"ĠMor":7547,"inge":7548,"zionato":7549,"Ġlontano":7550,"ĠpermetterÃł":7551,"ĠVeneto":7552,"DS":7553,"210":7554,"Ġgiustizia":7555,"energia":7556,"Ġattribu":7557,"ĠSardegna":7558,"Ġsrl":7559,"sidd":7560,"Ġaprire":7561,"Ġpenso":7562,"nda":7563,"ary":7564,"Ġvantaggio":7565,"rino":7566,"ĠContra":7567,"Ġpis":7568,"Ġblocco":7569,"Questo":7570,"tch":7571,"564":7572,"Ġpratiche":7573,");\\":7574,"Ġriservata":7575,"152":7576,"met":7577,"Ġvilla":7578,"Ġnutri":7579,"CIA":7580,"nPotre":7581,"eld":7582,"ĠOri":7583,"iego":7584,"nIndirizzo":7585,"ĠScienze":7586,"Ġvigore":7587,"268":7588,"vest":7589,"ritta":7590,"078":7591,"Ġazione":7592,"ot":7593,"ĠprofessionalitÃł":7594,"partimento":7595,"9865":7596,"ĠUtenti":7597,"alb":7598,"Ãĥ":7599,"ismi":7600,"rne":7601,"Ġstorica":7602,"pedia":7603,"Ġ_":7604,"ĠIT":7605,"Ġquotidiana":7606,"ĠSA":7607,"Ġinsegn":7608,"Ġfili":7609,"alter":7610,"ontana":7611,"ĠClub":7612,"ĠGiorgio":7613,"ĠVita":7614,"nPar":7615,"188":7616,"Ġpensato":7617,"inea":7618,"Ġportata":7619,"gon":7620,"nÎ":7621,"Ġcontributi":7622,"Gi":7623,"Ġconfron":7624,"cell":7625,"Ġgeo":7626,"mblea":7627,"ĠRadio":7628,"nLink":7629,"ĠCondizioni":7630,"istico":7631,"Ġpurtroppo":7632,"ĠâĢĻ":7633,"129":7634,"Ġvisualizzare":7635,"061":7636,"gamo":7637,"Ġtipologia":7638,"Ġfondamentali":7639,"211":7640,"Ġindispensa":7641,"Ġac":7642,"9820":7643,"088":7644,"ĠSco":7645,"Ġraccolte":7646,"842":7647,"ngi":7648,"'s":7649,"supp":7650,"Ġtracciamento":7651,"Ġregolamento":7652,"idi":7653,"Ġconsiderazione":7654,"ĠPapa":7655,"Ġricorr":7656,"mes":7657,"play":7658,"etting":7659,"Ġpaziente":7660,"Ġface":7661,"vider":7662,"dal":7663,"TH":7664,"ĠUsa":7665,"Ġvetro":7666,"ĠParco":7667,"Ġinserito":7668,"esercizio":7669,"ĠCampi":7670,"ciÃ²":7671,"Ġsettori":7672,"gliano":7673,"969":7674,"Ġidone":7675,"881":7676,"nAnonimo":7677,"ĠResponsabile":7678,"nTelefono":7679,"ĠautoritÃł":7680,"ĠAsso":7681,"8390201":7682,"curity":7683,"pposizione":7684,"ĠRos":7685,"ĠPad":7686,"âĨ":7687,"hn":7688,"Ġobiettivo":7689,"Ġcorsa":7690,"nOttobre":7691,"Ġsape":7692,"979":7693,"ONO":7694,"Ġsimbo":7695,"Ġinqu":7696,"ninfo":7697,"840":7698,"ĠReggio":7699,"Ġspirito":7700,"Ġproposito":7701,"ERO":7702,"Ġopport":7703,"168":7704,"ĠRin":7705,"tutto":7706,"473":7707,"ssioni":7708,"Ġem":7709,"soft":7710,"ĠApplicazione":7711,"Ġmusicale":7712,"9787":7713,"stazione":7714,"chiamo":7715,"vertise":7716,"Ġsimulazione":7717,"cienza":7718,"ĠImpre":7719,"lose":7720,"Ġesattamente":7721,"Ġfunzionali":7722,"Ġgioi":7723,"Ġcompetenza":7724,"bout":7725,"eventu":7726,"Ġpian":7727,"('":7728,"Ġaltrimenti":7729,"ornamento":7730,"ichiedi":7731,"Ġsupporta":7732,"Ġanticipa":7733,"bella":7734,"Ġcalore":7735,"Ġattivi":7736,"cine":7737,"ĠSiste":7738,"glish":7739,"Ġdiverti":7740,"959":7741,"astron":7742,"bur":7743,"sola":7744,"Ġcoltiva":7745,"ĠðŁĺ":7746,"291":7747,"ĠNotizie":7748,"9606267":7749,"Ġ?":7750,"Ġrosa":7751,"bru":7752,"ded":7753,"iscrizione":7754,"Ġarrivato":7755,"mentando":7756,"949":7757,"teriori":7758,"Ġfeed":7759,"180":7760,"LOG":7761,"ĠDec":7762,"Ġprogettazione":7763,"nComunica":7764,"Ġsalvo":7765,"Ġsepara":7766,"Ġsorri":7767,"ĠGri":7768,"uol":7769,"Ġfornisce":7770,"288":7771,"292":7772,"880":7773,"vvi":7774,"Ġtenuto":7775,"ttivi":7776,"Ġrinnova":7777,"Ġidra":7778,"ĠAbbiamo":7779,"ĠCI":7780,"trumenti":7781,"intera":7782,"Ġfarsi":7783,"Ġ2001":7784,"119":7785,"Ġregistrare":7786,"Ġumana":7787,"Ġmancanza":7788,"Fi":7789,"TP":7790,"Ġ150":7791,"Ġcosidd":7792,"Ġetc":7793,"Ġattiva":7794,"Ġproto":7795,"Ġ37":7796,"pag":7797,"lto":7798,"nCommenti":7799,"Ġalimentare":7800,"Ġbocca":7801,"Ġpomeriggio":7802,"158":7803,"gani":7804,"Ġcuo":7805,"eto":7806,"ĠGrande":7807,"Ġconcetto":7808,"list":7809,"Ġistituzioni":7810,"nMenu":7811,"838":7812,"+\\":7813,"prio":7814,"Ġsoffer":7815,"ĠCes":7816,"Ġuscita":7817,"Ġtradizionale":7818,"ĠCapo":7819,"Ġdin":7820,"0000365":7821,"mus":7822,"189":7823,"Ġattuale":7824,"ĠPra":7825,"nhttp":7826,"Ġragazzo":7827,"Ġperfettamente":7828,"Ġgarantisce":7829,"ling":7830,"Ġpena":7831,"ĠFili":7832,"bilita":7833,"ettera":7834,"Ġsguardo":7835,"defin":7836,"elenco":7837,"Ġpreviste":7838,"Na":7839,"Ġeliminare":7840,"ĠCONDI":7841,"ĠGRA":7842,"nio":7843,"ĠUr":7844,"282":7845,"Ġ48":7846,"Ġprove":7847,"Ġviolazione":7848,"onata":7849,"Ġader":7850,"Ġdate":7851,"ĠPay":7852,"Ġottenuto":7853,"Ġesplo":7854,"Ġvigente":7855,"Ġresistenza":7856,"Ġwebcam":7857,"MW":7858,"Ġsplendi":7859,"utato":7860,"ĠTel":7861,"Ġcarriera":7862,"773":7863,"nNavigazione":7864,"âĢĿ)":7865,"ĠLond":7866,"vegno":7867,"ĠArte":7868,"ĠPreferenze":7869,"Ġaccordo":7870,"âĢ¦âĢ¦":7871,"Ġ300":7872,"eed":7873,"Ġinclude":7874,"ĠPal":7875,"160":7876,"271":7877,"bbene":7878,"gico":7879,"privacy":7880,"Ġsperanza":7881,"Ġvogliamo":7882,"Pa":7883,"Ġconcorr":7884,"Ġdimin":7885,"Ġprofonda":7886,"iace":7887,"tension":7888,"isamente":7889,"Ã³":7890,"âĢĻ,":7891,"Ġfinanziamento":7892,"Ġmorti":7893,"ĠSecondo":7894,"862":7895,"usei":7896,"opp":7897,"Ġ75":7898,"nBuon":7899,"Ġnecessary":7900,"Ġcritica":7901,"librio":7902,"ĠMess":7903,"ĠIr":7904,"Ġmalattie":7905,"ĠMos":7906,"Ġcompito":7907,"mited":7908,"ĠCosÃ¬":7909,"Ġavver":7910,"Ġinteressati":7911,"Ġmodificato":7912,"Ġsequ":7913,"2023":7914,"Ġsicuri":7915,"8829054":7916,"ttino":7917,"produ":7918,"Ġtour":7919,"Ġsessuale":7920,"Ġsette":7921,"vito":7922,"Ġ32":7923,"Ġvorrei":7924,"Ġinterni":7925,"Ġpiatto":7926,"Ġinvestimenti":7927,"Ġscientifica":7928,"Ġcanale":7929,"0794":7930,"ĠPorto":7931,"vidanza":7932,"Ġmotori":7933,"Ġristruttura":7934,"NL":7935,"Ġza":7936,"ĠStre":7937,"como":7938,"Ġcaccia":7939,"300":7940,"email":7941,"Â´":7942,"Ġcorte":7943,"Ġvento":7944,"Ġstrategia":7945,"ĠContinuando":7946,"Ġbol":7947,"ĠcasinÃ²":7948,"itrice":7949,"ĠDra":7950,"ĠlÃł":7951,"Ġnucle":7952,"OO":7953,"rÃ²":7954,"nAll":7955,"imer":7956,"Ġbanner":7957,"ĠPuglia":7958,"cic":7959,"Ġvoto":7960,"9873":7961,"Ġdistribuzione":7962,"ĠMatteo":7963,"sy":7964,"Ġbatta":7965,"ĠMil":7966,"Ġavendo":7967,"pio":7968,"ttuale":7969,"dito":7970,"ugia":7971,"Ġsottoscri":7972,"302":7973,"ĠModena":7974,"siste":7975,"Ġsvolta":7976,"ĠAnna":7977,"Ġpaio":7978,"Ġprevista":7979,"Ġchiuso":7980,"Ġcane":7981,"HA":7982,"9864":7983,"nes":7984,"',":7985,"binieri":7986,"Ġreligi":7987,"nReply":7988,"ĠSole":7989,"med":7990,"Ġprofessionista":7991,"Ġguardare":7992,"Ġpreci":7993,"fferte":7994,"wp":7995,"nEconomia":7996,"ollow":7997,"Ġdenti":7998,"ĠPla":7999,"9357224":8000,"INO":8001,"ĠDE":8002,"Ġrimuovere":8003,"ĠTag":8004,"Ġlasciato":8005,"Ġimper":8006,"nFunzionale":8007,"Ġindustriale":8008,"RD":8009,"ALI":8010,"Ġiscritti":8011,"Ġtrattamenti":8012,"oli":8013,"241":8014,"ĠBro":8015,"Ġorganizzato":8016,"nCor":8017,"Ġelen":8018,"Ġrinno":8019,"ĠHai":8020,"ĠFornitore":8021,"262":8022,"ĠBari":8023,"iew":8024,"Ġfrutta":8025,"Ġaccia":8026,"Ġabilitare":8027,"==":8028,"intero":8029,"ennale":8030,"281":8031,"itanti":8032,"664":8033,"rno":8034,"ĠBru":8035,"Ġlum":8036,"Ġaugu":8037,"9846":8038,"ĠRicerca":8039,"ĠSy":8040,"Ġvoci":8041,"getti":8042,"Ġpoteva":8043,"ĠBasi":8044,"lette":8045,"ĠMicro":8046,"ĠMichele":8047,"Ġafferma":8048,"ido":8049,"asto":8050,"Ġreport":8051,"841":8052,"Ġpercorsi":8053,"lun":8054,"Ġpartecipanti":8055,"Ġgr":8056,"Ġbir":8057,"tine":8058,"Ġ2002":8059,"inario":8060,"gnare":8061,"2003":8062,"andosi":8063,"Ġbasi":8064,"99308":8065,"gliate":8066,"GU":8067,"Ġfenomeno":8068,"Ġpunta":8069,"Ġrapi":8070,"vocare":8071,"ĠLega":8072,"Ġdefinis":8073,"Ġcanali":8074,"nre":8075,"ĠPremio":8076,"Ġoper":8077,"ĠunitÃł":8078,"Ġaudio":8079,"rmi":8080,"9786":8081,"Ġalternativa":8082,"058":8083,"ĠOp":8084,"nÎĶ":8085,"Ġadatto":8086,"Ġriconoscimento":8087,"gola":8088,"209":8089,"Ġprotagonisti":8090,"Ġ//":8091,"Ġvirus":8092,"352":8093,"ĠDipartimento":8094,"nSettembre":8095,"lant":8096,"Ġmanif":8097,"8715653":8098,"ĠCinema":8099,"Ġdefinizione":8100,"nCodice":8101,"Tra":8102,"Ġcompari":8103,"darietÃł":8104,"023":8105,"091":8106,"Ġultimo":8107,"9867":8108,"ĠPolizia":8109,"Ġcima":8110,"ĠConsul":8111,"ĠSocial":8112,"onde":8113,"Ġfonti":8114,"Ġappunto":8115,"Ġallu":8116,"Ġscritta":8117,"ĠComitato":8118,"ĠPU":8119,"ĠConsenso":8120,"ĠGas":8121,"Ġprese":8122,"Ġunders":8123,"Ġmone":8124,"LL":8125,"agazine":8126,"Ġrealizzata":8127,"minare":8128,"ĠAm":8129,"Ġconfl":8130,"882":8131,"itor":8132,"Ġsuccessivamente":8133,"vertisement":8134,"Ġindicati":8135,"Ġdomici":8136,"Ġparlato":8137,"Ã¼":8138,"Ġincorpo":8139,"Ġfiglia":8140,"Ġconsiderato":8141,"Ġbenefici":8142,"Ġgenerazione":8143,"video":8144,"ACC":8145,"arono":8146,"Ġria":8147,"assistenza":8148,"ĠCin":8149,"Ġscienza":8150,"Ġappli":8151,"idget":8152,"Ġvenga":8153,"Ġapplicazione":8154,"Ġlaboratorio":8155,"Ġnata":8156,"Ġerrore":8157,"ĠSanto":8158,"Ġesten":8159,"ĠDol":8160,"ĠNewsletter":8161,"713":8162,"dor":8163,"2010":8164,"ĠArchi":8165,"Ġaggiornamenti":8166,"Ġspecial":8167,"Ġquotidiano":8168,"919":8169,"Ġprofu":8170,"Ġscadenza":8171,"nTags":8172,"Ġmenu":8173,"ĠPiemonte":8174,"Ġstrateg":8175,"apertura":8176,"sal":8177,"HO":8178,"Ġfacciamo":8179,"ĠSE":8180,"!!!\\":8181,"enz":8182,"anchi":8183,"Ġtessuto":8184,"Ġricarica":8185,"ĠTras":8186,"Ġ55":8187,"Ġcru":8188,"Ġvostre":8189,"360":8190,"Ġvuol":8191,"SSI":8192,"ĠInfatti":8193,"Ġaggre":8194,"ĠSpagna":8195,"Ġditta":8196,"ccolato":8197,"9835":8198,"249":8199,"Ġlinguaggio":8200,"Ġeconomici":8201,"celli":8202,"Ġveicolo":8203,"KY":8204,"NR":8205,"nPinterest":8206,"9990":8207,"dda":8208,"Ġmangiare":8209,"nCla":8210,"Ġpossesso":8211,"ĠPannello":8212,"Ġracconti":8213,"dersi":8214,"089":8215,"rre":8216,"ĠFI":8217,"bilitazione":8218,"atte":8219,"ĠVic":8220,"nTipo":8221,"fort":8222,"051":8223,"081":8224,"TC":8225,"ĠLimited":8226,"Ġocca":8227,"Ġricorso":8228,"Ġschia":8229,"den":8230,"Ġdipende":8231,"ĠStatistiche":8232,"Ġpolizia":8233,"ĠMu":8234,"installazione":8235,"9104663":8236,"Ġpm":8237,"Ġcompreso":8238,"Ġplastica":8239,"9901":8240,"Ġimpossibile":8241,"Ġchiamato":8242,"ĠSpi":8243,"Ġcondanna":8244,"Ġrecuperate":8245,"Ġdubbi":8246,"Ġyear":8247,"nAt":8248,"Ġpericolo":8249,"Ġdiscorso":8250,"Ġletteratura":8251,"allery":8252,"Ġzero":8253,"Ri":8254,"Imp":8255,"Ġsignificato":8256,"ĠHome":8257,"Ġanaly":8258,"Ġmiglioramento":8259,"lini":8260,"inata":8261,"Ġugu":8262,"Ġscrittura":8263,"Ġinvest":8264,"riche":8265,"diali":8266,"erno":8267,"Ġviso":8268,"Ġaccogli":8269,"242":8270,"Ġinteressato":8271,"Ġunderstand":8272,"Ġarrivo":8273,"Ġvacanza":8274,"Ġdeterminato":8275,"Ġpresi":8276,"yo":8277,"sch":8278,"Ġfilosofia":8279,"Ġmetodi":8280,"nThis":8281,"ĠNoi":8282,"ĠMilan":8283,"ĠCe":8284,"PE":8285,"dri":8286,"gendo":8287,"Ġrichia":8288,"-\\":8289,"3696":8290,"ĠRegistra":8291,"Ġup":8292,"Ġbordo":8293,"Ġobblighi":8294,"gliari":8295,"Ġdesidera":8296,"Ġhow":8297,"ostro":8298,"229":8299,"9845":8300,"sser":8301,"Ġterreno":8302,"Ġabbiano":8303,"peti":8304,"san":8305,"9918":8306,"ĠWil":8307,"ĠNuova":8308,"Ġuffici":8309,"SD":8310,"Ġmarito":8311,"Ġcani":8312,"359":8313,"Ġrichiesti":8314,"Ġfattori":8315,"Ġuscire":8316,"Ġfrutto":8317,"assword":8318,"Ġcapace":8319,"nDettagli":8320,"Ġesistono":8321,"9827":8322,"9981":8323,"fondi":8324,"PU":8325,"082":8326,"Ġterapia":8327,"ĠRIS":8328,"Ġmensi":8329,"ĠStar":8330,"ibile":8331,"cchetto":8332,"085":8333,"Ġtratto":8334,"tribuzione":8335,"nologia":8336,"tenze":8337,"ĠPAR":8338,"071":8339,"ley":8340,"ugh":8341,"XI":8342,"ĠâĢĿ":8343,"Ġprivata":8344,"industria":8345,"lire":8346,"mpli":8347,"ject":8348,"Ġcoopera":8349,"Ġunivers":8350,"ĠArt":8351,"Ġpres":8352,"Ġelaborare":8353,"ppone":8354,"ĠLorenzo":8355,"nBa":8356,"star":8357,"batt":8358,"Ġspirit":8359,"nlu":8360,"CEN":8361,"ition":8362,"Ġinver":8363,"sili":8364,"ggiato":8365,"Ġvisualizzazione":8366,"ING":8367,"stiti":8368,"Ġnumerose":8369,"Ho":8370,"ĠPiÃ¹":8371,"sento":8372,"nRating":8373,"torni":8374,"Ġespressa":8375,"849":8376,"nUltimi":8377,"Ġrub":8378,"unzione":8379,"Ġdesiderio":8380,"orza":8381,"tele":8382,"ĠMeta":8383,"arco":8384,"ĠCommer":8385,"Ġcopertura":8386,"roli":8387,"Ġinclusi":8388,"ĠEconomia":8389,"Ġlegati":8390,"Ġfacil":8391,"Ġciglia":8392,"Ġwh":8393,"gliata":8394,"Ġvisitors":8395,"nSearch":8396,"glione":8397,"manu":8398,"Ġestremamente":8399,"279":8400,"Ġricco":8401,"Ġtotalmente":8402,"kin":8403,"LC":8404,"Ġfisico":8405,"solu":8406,"grafico":8407,"Ġadotta":8408,"Ġingredienti":8409,"Ġpromuovere":8410,"entamento":8411,"rini":8412,"9980":8413,"ĠSinda":8414,"Ġofferti":8415,"nFi":8416,"ĠFre":8417,"nMarzo":8418,"nProdotti":8419,"Ġmigliaia":8420,"Ġclassico":8421,"nLuglio":8422,"osp":8423,"Ġsoggiorno":8424,"2008":8425,"ĠEconom":8426,"Ġconsapevolezza":8427,"869":8428,"ston":8429,"ĠEN":8430,"Ġsali":8431,"RM":8432,"289":8433,"Ġconosce":8434,"reen":8435,"Ġmaggioranza":8436,"Po":8437,"ĠEra":8438,"Ġschermo":8439,"gor":8440,"Ġ65":8441,"Ġpermettere":8442,"itolo":8443,"CEA":8444,"Ġcostre":8445,"tail":8446,"ĠSignore":8447,"ĠCHE":8448,"042":8449,"Ġsposta":8450,"Ġsfo":8451,"zzazioni":8452,"Ġrecord":8453,"chine":8454,"Ġguard":8455,"cheda":8456,"quali":8457,"nDire":8458,"Ġprestito":8459,"9711":8460,"enico":8461,"Ġmira":8462,"Ġclima":8463,"ranzo":8464,"set":8465,"ĠUniversitÃł":8466,"Ġconi":8467,"Ġpolitici":8468,"Ġpermanente":8469,"9815":8470,"nWeb":8471,"ĠSala":8472,"ĠSul":8473,"99865043":8474,"Ġfotografia":8475,"bera":8476,"ĠAir":8477,"cm":8478,"fezione":8479,"reria":8480,"Ġacciaio":8481,"93385":8482,"gar":8483,"Ġriproduzione":8484,"Ġcomunicati":8485,"MENTI":8486,"ĠLeon":8487,"thers":8488,"ccorso":8489,"Ġpopolare":8490,"cenzo":8491,"viluppo":8492,"Ġmila":8493,"assegna":8494,"Ġprogressi":8495,"Ġautomatico":8496,"169":8497,"ĠAff":8498,"arsa":8499,"collo":8500,"esid":8501,"ZO":8502,"enziali":8503,"ĠMonza":8504,"Ġprovenienti":8505,"Ġusu":8506,"BS":8507,"Ġdestinata":8508,"Ġbatteria":8509,"nGiugno":8510,"Ġriuscire":8511,"vor":8512,"Ġamministratore":8513,"008":8514,"910":8515,"Ġsedi":8516,"ĠAssociazione":8517,".âĢĿ\\":8518,"Ġtrasc":8519,"Ġchirur":8520,"sori":8521,"rola":8522,"ĠMac":8523,"Ġpane":8524,"ĠAI":8525,"Ġsegue":8526,"Ġdecen":8527,"Ġcomparizione":8528,"spa":8529,"Ġelezioni":8530,"jo":8531,"Ġrisolu":8532,"Ġorario":8533,"ritte":8534,"Ġparco":8535,"volmente":8536,"dei":8537,"Ġcomprende":8538,"1119":8539,"Ġove":8540,"IAMO":8541,"ĠIRIS":8542,"VEN":8543,"DEO":8544,"ĠBlack":8545,"OME":8546,"Ġchiunque":8547,"Ġprocedere":8548,"ĠUfficio":8549,"949497":8550,"Ġusati":8551,"ĠIt":8552,"Ġhotel":8553,"Ġtaglio":8554,"Ġfran":8555,"Ġiscrizione":8556,"Ġognuno":8557,"93949497":8558,"erne":8559,"inti":8560,"Ġcollezione":8561,"ĠGiulia":8562,"ardini":8563,"170":8564,"ĠPM":8565,"ĠBanca":8566,"Ġobbligatorio":8567,"Ġsecondi":8568,"Ġles":8569,"aneta":8570,"ĠNEL":8571,"Ġgiudizi":8572,"FORMA":8573,"9984544":8574,"ĠVen":8575,"\\\\/":8576,"038":8577,"Ġvigi":8578,"ĠTorre":8579,"049":8580,"CCB":8581,"urizio":8582,"fon":8583,"Ġabu":8584,"ĠMin":8585,"str":8586,"nAprile":8587,"gresso":8588,"Ġporto":8589,"Ġrib":8590,"Ġchiari":8591,"879":8592,"gando":8593,"Ġpropon":8594,"camera":8595,"rori":8596,"appa":8597,"CDE":8598,"dol":8599,"Ph":8600,"Ġapertura":8601,"Ġvittime":8602,"emergenza":8603,"Ġinfra":8604,"Ġlezioni":8605,"En":8606,"lanza":8607,"Ġufficio":8608,"ĠPinterest":8609,"ÃŃ":8610,"Ġvuoto":8611,"ĠsostenibilitÃł":8612,"ĠCliente":8613,"nInoltre":8614,"Ġkg":8615,"****":8616,"98748577":8617,"Ġasciu":8618,"Ġmonitoraggio":8619,"Ġagevo":8620,"002":8621,"Ġquestioni":8622,"cciano":8623,"Ġnascon":8624,"Ġsom":8625,"nOgni":8626,"Ġmanu":8627,"Ġbuone":8628,"alli":8629,"eatures":8630,"9847":8631,"ĠEli":8632,"tusia":8633,"Ġstress":8634,"ĠGenerale":8635,"Ġsimbolo":8636,"vora":8637,"inten":8638,"269":8639,"9921196":8640,"Ġsino":8641,"557":8642,"Ġpersonalizzare":8643,"Ġministro":8644,"Ġnarra":8645,"Ġton":8646,"Ġzucchero":8647,"Ġpericol":8648,"nCar":8649,"Ġpersegu":8650,"importanza":8651,"Ġdisattiva":8652,"ĠPubblica":8653,"348":8654,"Ġrinuncia":8655,"Ġscegli":8656,"9836":8657,"ĠJava":8658,"Ġfilo":8659,"eventuale":8660,"glianza":8661,"Ġepiso":8662,"Ġcrescere":8663,"Ġstaff":8664,"Ġdichiarazione":8665,"Ġdolci":8666,"Ġimpatto":8667,"ĠDELL":8668,"ĠgiovedÃ¬":8669,"aldab":8670,"9924353":8671,"ĠAltri":8672,"Ġazz":8673,"Ġregionali":8674,"99290794":8675,"Ġpage":8676,"ui":8677,"Ġmontagna":8678,"mpe":8679,"Ġcompati":8680,"ĠWindows":8681,"amministrazione":8682,"Ġpresti":8683,"Ġsilenzio":8684,"ĠContinua":8685,"8900":8686,"cha":8687,"comunica":8688,"Ġcontratti":8689,"Ġimparare":8690,"9991":8691,"TML":8692,"RP":8693,"ggiata":8694,"SSO":8695,"Ġdeterminate":8696,"Ġspam":8697,"HP":8698,"Ġserra":8699,"Ġsviluppare":8700,"891":8701,"Ġutilizzano":8702,"ĠComments":8703,"Ġpopolari":8704,"...]\\":8705,"Ġchil":8706,"Ġsanitaria":8707,"062":8708,"Ġmatura":8709,"mbini":8710,"esecuzione":8711,"kers":8712,"alta":8713,"ĠPan":8714,"nX":8715,"Ġservono":8716,"ustra":8717,"Ġpertinenti":8718,"mmer":8719,"Ġtrasformazione":8720,"Ġidentificare":8721,"Ġparagrafo":8722,"Ġconseguenze":8723,"nPerformance":8724,"Ġrimborso":8725,"93385667":8726,"Ġsorta":8727,"Ġpositivo":8728,"Ġfinalizza":8729,"nLuogo":8730,"sor":8731,"Ġpreval":8732,"041":8733,"Ġinterro":8734,"Ġcomunicare":8735,"ettings":8736,"Ġeuropei":8737,"563":8738,"fit":8739,"ETTI":8740,"Ġgratuiti":8741,"341":8742,"nGennaio":8743,"ANA":8744,"gennaio":8745,"vini":8746,"ĠBol":8747,"Ġsegnalare":8748,"Ġforno":8749,"ĠMinistro":8750,"9930899":8751,"Ġmeravigli":8752,"ĠEU":8753,"SU":8754,"Ġimpianto":8755,"Ġmercati":8756,"stare":8757,"ĠCliccando":8758,"ĠParlamento":8759,"Ġque":8760,"Ġcomprare":8761,"Ġdico":8762,"Ġvincere":8763,"Ġampia":8764,"nBy":8765,"Ġretti":8766,"Ġcancellare":8767,"Ġviva":8768,"ĠExtension":8769,"Ġacquista":8770,"ĠAndroid":8771,"blet":8772,"ĠPonte":8773,"ðĿĲ":8774,"280":8775,"362":8776,"Ġscaricare":8777,"ĠPier":8778,"nSan":8779,"ĠCampania":8780,"ĠBea":8781,"Ġtavola":8782,"Ġscopa":8783,"ĠfarÃł":8784,"Ġregioni":8785,"ingresso":8786,"TRE":8787,"Ġmedie":8788,"marketing":8789,"Ġcatto":8790,"atta":8791,"nOggi":8792,"Ġoffrono":8793,"Ġsho":8794,"ĠSky":8795,"1813":8796,"Ġconfermare":8797,"dore":8798,"ziano":8799,"Ġvet":8800,"Ġrisa":8801,"Ġacque":8802,"nFebbraio":8803,"Ġneanche":8804,"ĠComuni":8805,"030":8806,"0000335":8807,"nRichiedi":8808,"Ġprossimi":8809,"ĠSociale":8810,"Ġutilizzata":8811,"Ġgarantiscono":8812,"bon":8813,"trico":8814,"tech":8815,"rancesco":8816,"Ġsensibili":8817,"ERVI":8818,"9844":8819,"nTec":8820,"teriale":8821,"Ġevidenza":8822,"So":8823,"Ġgiornalista":8824,"Ġtrasferimento":8825,"892":8826,"CT":8827,"259":8828,"gersi":8829,"place":8830,"miglia":8831,"Ġana":8832,"Ġopinioni":8833,"Ġmostrare":8834,"tiene":8835,"ĠTru":8836,"Ġregime":8837,"rore":8838,"9843":8839,"Ġriconoscere":8840,"Ġdeposito":8841,"DR":8842,"Ġmg":8843,"obbligo":8844,"ĠPadova":8845,"Ġacquistato":8846,"nAccetta":8847,"imposta":8848,"Ġcampionato":8849,"Ġscopri":8850,"eme":8851,"ĠBon":8852,"Ġfasi":8853,"Ġtradizionali":8854,"Ġfossero":8855,"________________":8856,"ĠProdotti":8857,"olio":8858,"Ġspre":8859,"nRecensioni":8860,"ĠArticoli":8861,"Ġdocumentazione":8862,"349":8863,"Ġallar":8864,"nTa":8865,"Ġfamiliare":8866,"nTweet":8867,"Ġfree":8868,"artista":8869,"ĠSara":8870,"Ġvini":8871,"DCF":8872,"Ġapr":8873,"ĠStori":8874,"Ġvecchia":8875,"Ġmacchine":8876,"ĠvarietÃł":8877,"239":8878,"inaria":8879,"interesse":8880,"sport":8881,"Ġvalido":8882,"illo":8883,"OMA":8884,"ESTI":8885,"Ġdichiarato":8886,"ado":8887,"ĠLO":8888,"Ġlaurea":8889,"Ġsarebbero":8890,"cedente":8891,"Ġprega":8892,"Ġnotifica":8893,"567":8894,"Ġdivul":8895,"Ġany":8896,"Ġriscaldamento":8897,"Ġnov":8898,"Ġirre":8899,"nalisi":8900,"torizzazione":8901,"ĠInd":8902,"attu":8903,"nQuali":8904,"9857":8905,"Ġconsumatori":8906,"Ġindic":8907,"Ġabbra":8908,"tron":8909,"ĠBrescia":8910,"Ġnotare":8911,"Ġscen":8912,"ellino":8913,"Ġrisponde":8914,"uovi":8915,"ĠCred":8916,"Ġlogo":8917,"ferenza":8918,"Ġfla":8919,"ney":8920,"Ġcontinuo":8921,"izione":8922,"Ġcommissione":8923,"prese":8924,"ĠTerme":8925,"Ġstr":8926,"tene":8927,"Ġbassa":8928,"Ġads":8929,"bro":8930,"Ġcontrolli":8931,"458":8932,"nizia":8933,"Ġstri":8934,"ĠYoutube":8935,"Ġdramma":8936,"9938":8937,"468":8938,"try":8939,"Ġvai":8940,"Ġbuono":8941,"vviamente":8942,"Ġparche":8943,"ĠCatania":8944,"Ġconcerto":8945,"Ġpreferiti":8946,"ĠEUR":8947,"Ġweek":8948,"ĠRicostruzione":8949,"ĠFormazione":8950,"Ġpremia":8951,"9764":8952,"angelo":8953,"Ġraccontare":8954,"Ġesercitare":8955,"Ġurb":8956,"Ġampio":8957,"KE":8958,"ĠNu":8959,"Ġfreddo":8960,"ĠOver":8961,"ĠComunicazione":8962,"Ġsvolto":8963,"ĠKa":8964,"Ġvisitatore":8965,"Ġliqui":8966,"Ġcriteri":8967,"ĠAlberto":8968,"Ġ120":8969,"erano":8970,"ĠWi":8971,"Ġrealizzati":8972,"ingle":8973,"matore":8974,"ĠPrin":8975,"granti":8976,"vious":8977,"strutture":8978,"Ġmedicina":8979,"FT":8980,"Ġparziale":8981,"939":8982,"ZIO":8983,"ĠUNI":8984,"ĠÐ":8985,"lusso":8986,"pire":8987,"Ġsomm":8988,"las":8989,"Ġperi":8990,"Ġcoraggio":8991,"Ġgiappon":8992,"LS":8993,"%,":8994,"Ġgratuitamente":8995,"553":8996,"nComp":8997,"Ġavanzata":8998,"Ġoriginali":8999,"9804":9000,"Ġsintomi":9001,"unici":9002,"Ġclick":9003,"Ġgravidanza":9004,"Ġcause":9005,"ĠVir":9006,"SID":9007,"Ġauten":9008,"Ġpresc":9009,"ĠSicurezza":9010,"Ġinva":9011,"179":9012,"orr":9013,"Ġder":9014,"Ġvedo":9015,"Ġono":9016,"Ġinseriti":9017,"ux":9018,"094":9019,"Ġcena":9020,"ĠMoto":9021,"Ġritirare":9022,"011":9023,"ĠPos":9024,"Ġpensieri":9025,"ange":9026,"ĠUtilizziamo":9027,"Ġanonima":9028,"cker":9029,"839":9030,"9685":9031,"messa":9032,"inkedin":9033,"2009":9034,"ĠData":9035,"Ġtroviamo":9036,"Ġsemb":9037,"3026":9038,"osita":9039,"Ġsezioni":9040,"nAi":9041,"ĠProfession":9042,"983079":9043,"vori":9044,"9824":9045,"Ġindipendente":9046,"Ġdieta":9047,"ĠWhatsApp":9048,"Ġparere":9049,"Ġminore":9050,"cizi":9051,"313":9052,"argomento":9053,"9908":9054,"ĠALLA":9055,"AQ":9056,"Ġmilitare":9057,"nTo":9058,"gene":9059,"Ġ400":9060,"ggiamento":9061,"Ġdocenti":9062,"Ġespresso":9063,"CEE":9064,"oggi":9065,"9826":9066,"ĠSet":9067,"nScarica":9068,"nTro":9069,"CM":9070,"9825":9071,"Ġmaggiormente":9072,"Ġpezzo":9073,"ĠUno":9074,"Ġsuperiori":9075,"Ġretro":9076,"Ġsensazione":9077,"Ġfore":9078,"neo":9079,"859":9080,"Ġaria":9081,"stazioni":9082,"nCONTA":9083,"Ġstreaming":9084,"Ġinstallato":9085,"operazione":9086,"ualitÃł":9087,"ĠPara":9088,"nnovembre":9089,"nal":9090,"ĠcuriositÃł":9091,"Ġrischia":9092,"nImpostazioni":9093,"Ġproprietario":9094,"Ġspiaggia":9095,".)\\":9096,"colari":9097,"guardia":9098,"ĠZa":9099,"Ġeventualmente":9100,"eroporto":9101,"mona":9102,"Ġsexy":9103,"Ġvolo":9104,"nCara":9105,"Ġpermessi":9106,"Ġinti":9107,"Ġpesce":9108,"762":9109,"ecc":9110,"ziosi":9111,"Ġenergetica":9112,"Ġsostanze":9113,"ĠINTER":9114,"Ġother":9115,"Ġgravi":9116,"nwww":9117,"unity":9118,"nConsi":9119,"UNI":9120,"nTutte":9121,"Ġacconsentire":9122,"vamento":9123,"Ġrapidamente":9124,"ttuali":9125,"Ġsoddisfare":9126,"Ġfunzionare":9127,"gmail":9128,"nChia":9129,"Ġproprietari":9130,"stino":9131,"9854":9132,"Ġutilizzi":9133,"449":9134,"Ġdoppio":9135,"Ġchiamata":9136,"inati":9137,"Ġelenco":9138,"ĠFunzionale":9139,"Ġpanora":9140,"441":9141,"Ġorganizzazioni":9142,"Ġcrema":9143,"ĠTop":9144,"siva":9145,"Ġindietro":9146,"tevi":9147,"richi":9148,"Ġbuoni":9149,"9803":9150,"Ġfamiliari":9151,"ĠmobilitÃł":9152,"9775":9153,"059":9154,"gliamo":9155,"9816":9156,"Ġbanche":9157,"ative":9158,"Ġopt":9159,"022":9160,"Ġsviluppa":9161,"ĠProtezione":9162,"Ġdenomina":9163,"ĠAlcuni":9164,"orda":9165,"Ġmorta":9166,"ccademia":9167,"Ġtappe":9168,"nTutto":9169,"Ġdovranno":9170,"014":9171,"Ġadempi":9172,"Ġcolpa":9173,"giscono":9174,"013":9175,"licata":9176,"ĠRomano":9177,"ĠMaster":9178,"ĠPor":9179,"ames":9180,"nAutore":9181,"ĠBan":9182,"educa":9183,"Ġproteggere":9184,"Ġdefinisce":9185,"Ġindossa":9186,"ĠParigi":9187,"301":9188,"ĠUnivers":9189,"Ġsuperare":9190,"Ġreddito":9191,"Ġsposa":9192,"nima":9193,"442":9194,"ĠMessa":9195,"ĠOpen":9196,"Ġ(âĢľ":9197,"Ġfestival":9198,"ĠCONDIZIONA":9199,"Ġtemporan":9200,"Ġmanca":9201,"ĠMare":9202,"Ġbotti":9203,"Ġconnessione":9204,"Ġml":9205,"451":9206,"arvi":9207,"9675":9208,"ĠAnton":9209,"Ġmorto":9210,"Ġatle":9211,"Ġdisattivare":9212,"Ġprenotazione":9213,"hird":9214,"ĠDAL":9215,"VD":9216,"aspetto":9217,"OG":9218,"mbria":9219,"engano":9220,"99433696":9221,"Ġlegger":9222,"Ġlettore":9223,"Ġimmagine":9224,"Ġconclusione":9225,"Ġrefer":9226,"9814":9227,"Ġpenale":9228,"ĠInforma":9229,"key":9230,"98746":9231,"ndicembre":9232,"mosi":9233,"9211119":9234,"Ġcalendario":9235,"Ġappari":9236,"labile":9237,"tite":9238,"Ġpianta":9239,"Ġfornitura":9240,"ppiamo":9241,"Ġstrategie":9242,"Ġpietra":9243,"WW":9244,"9821":9245,"Ġfasc":9246,"Ġoffrirti":9247,"itutto":9248,"PT":9249,"Ġciascun":9250,"duti":9251,"Ġcambiamenti":9252,"state":9253,"cera":9254,"conto":9255,"Ġliberamente":9256,"gliori":9257,"Ġristorante":9258,"issima":9259,"vino":9260,"enerdÃ¬":9261,"lievo":9262,"ziamento":9263,"TORE":9264,"ĠSC":9265,"nCas":9266,"nAgosto":9267,"por":9268,"Ġflessi":9269,"ettato":9270,"ceo":9271,"ĠAlle":9272,"Ġingresso":9273,"ĠNicola":9274,"9747":9275,"Ġriforma":9276,"UG":9277,"Ġpredefin":9278,"Ġstraordinaria":9279,"Ġproporre":9280,"Ġ800":9281,"ĠWorld":9282,"ĠmartedÃ¬":9283,"zer":9284,"Ġdicono":9285,"ĠHotel":9286,"ĠLEG":9287,"ĠRegistro":9288,"din":9289,"Ġtari":9290,"Ġindicate":9291,"urtroppo":9292,"Ġpagamenti":9293,"bli":9294,"........":9295,"Ġdipl":9296,"ĠIII":9297,"Ġlicenza":9298,"ctor":9299,"ĠCONDIZIONATORI":9300,"Ġperiodi":9301,"nSiamo":9302,"bora":9303,"Ġoperativo":9304,"XY":9305,"Ġtedes":9306,"ĠFel":9307,"ĠQueste":9308,"Ġamministrazione":9309,"ĠTrasp":9310,"Ġpersonaggio":9311,"mosfera":9312,"Ġfeedback":9313,"bara":9314,"mas":9315,"nNecessari":9316,"Ġassol":9317,"Ġulteriore":9318,"naprile":9319,"Ġalimenti":9320,"domestici":9321,"Ġdoppia":9322,"Ġselezionare":9323,"Ġrisparmio":9324,"Ġgeneralmente":9325,"ĠDic":9326,"Ġappuntamenti":9327,"effica":9328,"RY":9329,"VC":9330,"Ġtag":9331,"331":9332,"videnza":9333,"rito":9334,"ĠGar":9335,"Ġdecide":9336,"ĠPOLI":9337,"utica":9338,"ĠEner":9339,"083":9340,"026":9341,"sente":9342,"Ġosta":9343,"ufficio":9344,"Ġarmi":9345,"nQ":9346,"versale":9347,"ostituzione":9348,"Ġpubblicitario":9349,"Ġestate":9350,"Ġconosciuto":9351,"Ġpiaci":9352,"Ġtrib":9353,"lon":9354,"2001":9355,"KK":9356,"657":9357,"REA":9358,"logi":9359,"CED":9360,"Ġpop":9361,"nStampa":9362,"Ġesprimere":9363,"cipo":9364,"Ġtermin":9365,"Ġregistrata":9366,"400":9367,"6409":9368,"Ġsogni":9369,"ĠDiritto":9370,"Ġaspi":9371,"Ġdisse":9372,"294":9373,"Ġaf":9374,"nTorna":9375,"Ġsostituzione":9376,"461":9377,"lavoro":9378,"Ġmuo":9379,"risti":9380,"Ġprincipalmente":9381,"Ġgiallo":9382,"Ġraggiunto":9383,"Ġuses":9384,"nFil":9385,"Ġpregi":9386,"Ġalimentari":9387,"Ġnecess":9388,"Ġspalle":9389,"Ġevol":9390,"Ġcittadino":9391,".:":9392,"Ġreti":9393,"Ġscoperto":9394,"ĠEmail":9395,"ĠIntervento":9396,"Ġour":9397,"aiuto":9398,"Ġprovato":9399,"Ġpasti":9400,"Ġevidenzia":9401,"ĠSmart":9402,"mendo":9403,"Ġmoderna":9404,"Ġshow":9405,"tari":9406,"Ġdibatt":9407,"iture":9408,"nRI":9409,"Ġconsiderare":9410,"cona":9411,"748":9412,"Ġstanza":9413,"mbro":9414,"Scri":9415,"contri":9416,"Ġfinanziaria":9417,"Ġotto":9418,"icidio":9419,"Ġcertamente":9420,"9834":9421,"ettiamo":9422,"Ġcammino":9423,"Ġsugger":9424,"dano":9425,"Ġdiventato":9426,"Ġprodurre":9427,"Ġregolare":9428,"versario":9429,"nuovo":9430,"021":9431,"asc":9432,"Ġfurono":9433,"Ġcalcolo":9434,"vedi":9435,"Ġgrafica":9436,"Ġscolastico":9437,"Ġdialogo":9438,"351":9439,"dro":9440,"Ġemb":9441,"add":9442,"logy":9443,"unitÃł":9444,"endi":9445,"Ġusufru":9446,"Ġ(+":9447,"Ġapprovato":9448,"geno":9449,"ĠFed":9450,"Ġvedi":9451,"Ġconse":9452,"Ġintelle":9453,"Ġvene":9454,"Ġdando":9455,"ronica":9456,"9807":9457,"Ġmura":9458,"bel":9459,"Ġpreventi":9460,"ĠApple":9461,"ĠPopo":9462,"vecchia":9463,"PL":9464,"tita":9465,"inate":9466,"venza":9467,"Ġthird":9468,"impianto":9469,"Ġriflessione":9470,"ĠMy":9471,"nAltro":9472,"9813":9473,"agine":9474,"Ġconcor":9475,"ĠRed":9476,"Ġrendono":9477,"search":9478,"Ġsegui":9479,"Ġartico":9480,"ĠRosa":9481,"Ġsotti":9482,"069":9483,"guria":9484,"osamente":9485,"Ġcottura":9486,"briche":9487,"nSei":9488,"ap":9489,"BU":9490,"Ġmagistra":9491,"ĠMarche":9492,"ally":9493,"nNoleggio":9494,"JJ":9495,"Ġorari":9496,"Ġstudente":9497,"nCA":9498,"nAltre":9499,"Ġvolto":9500,"cho":9501,"Ġspecificato":9502,"kis":9503,"CDB":9504,"Ġcine":9505,"ĠFior":9506,"TN":9507,"ĠViale":9508,"Ġossia":9509,"Ġ!":9510,"utile":9511,"Ġassieme":9512,"Ġboni":9513,"Ġnaviga":9514,"Ġelettrici":9515,"Ġaziendali":9516,"mann":9517,"Ġflu":9518,"RG":9519,"742":9520,"Ġcellulare":9521,"indica":9522,"integrazione":9523,"9554":9524,"Ð°":9525,"ĠIndi":9526,"086":9527,"rla":9528,"ĠLan":9529,"Ġdiversamente":9530,"ĠAggiungi":9531,"Ġculo":9532,"rezza":9533,"The":9534,"ĠmercoledÃ¬":9535,"Ġsuccessiva":9536,"nAnd":9537,"claimer":9538,"Ġsento":9539,"Ġsopp":9540,"aaaa":9541,"nPanoramica":9542,"eventi":9543,"Ġbolle":9544,"Ġcollect":9545,"nottobre":9546,"ZY":9547,"Ġcioccolato":9548,"Ġinfluenza":9549,"unione":9550,"Ġtasso":9551,"109":9552,"Ġband":9553,"dcast":9554,"Ġeffettivamente":9555,"187":9556,"Ġultima":9557,"Google":9558,"Ġsentito":9559,"Ġsvolgimento":9560,"way":9561,"Ġgioia":9562,"9817":9563,"ĠidentitÃł":9564,"ghiera":9565,"Ġfianco":9566,"mando":9567,"Ġminuto":9568,"Ġbici":9569,"Ġmissione":9570,"EAD":9571,"gri":9572,"ĠCosta":9573,"Ġelettrico":9574,"stre":9575,"Ġstazione":9576,"fficienza":9577,"ĠFilm":9578,"dino":9579,"gatorio":9580,"ĠNor":9581,"Ġdic":9582,"HY":9583,"Ġmilitari":9584,"nAlla":9585,"vent":9586,"ĠModifica":9587,"Ġinformatici":9588,"889":9589,"Ġsvolge":9590,"Ġpoe":9591,"332":9592,"prend":9593,"Ġinfin":9594,"9943927":9595,"9837":9596,"Ġagen":9597,"Ġpronti":9598,"ĠChiara":9599,"ĠBlo":9600,"ĠAM":9601,"Ġrispettare":9602,"chino":9603,"zzature":9604,"Ġgiudice":9605,"sis":9606,"Ġedifici":9607,"Ġfeatures":9608,"uscita":9609,"Ġdollari":9610,"9136409":9611,"equi":9612,"nby":9613,"nStai":9614,"Ġvenne":9615,"Ġ{{":9616,"party":9617,"ĠCarta":9618,"Ġsanno":9619,"Ġchiudere":9620,"Ġstorici":9621,"Ġfascia":9622,"Ġautomati":9623,"ISTA":9624,"Ġlogin":9625,"gel":9626,"ĠTermini":9627,"Ġlumin":9628,"Ġworking":9629,"9805":9630,"alita":9631,"tuo":9632,"nmarzo":9633,"vica":9634,"impegno":9635,"Ġcalcola":9636,"Ġriparazione":9637,"Ġseguendo":9638,"cidi":9639,"432":9640,"nCondizioni":9641,"nRegistrati":9642,"SM":9643,"ĠsolidarietÃł":9644,"Ġemergenza":9645,"ĠÃĤ":9646,"nPRO":9647,"039":9648,"Ġcomprom":9649,"nCO":9650,"icoli":9651,"Ġcolpo":9652,"Ġfum":9653,"ĠPlay":9654,"Ġesse":9655,"somma":9656,"Ġvengano":9657,"Ġtiro":9658,"lochi":9659,"cune":9660,"Ġeffettuati":9661,"lr":9662,"nSecondo":9663,"ĠBergamo":9664,"olitiche":9665,"Ġsappiamo":9666,"Ġrisoluzione":9667,"095":9668,"ĠOff":9669,"Ġgradu":9670,"effetto":9671,"neu":9672,"Ġvice":9673,"Ġbando":9674,"Ġdisegno":9675,"insegna":9676,"Phone":9677,"Ġambientali":9678,"Ġspagno":9679,"Ġstranieri":9680,"zzetta":9681,"letti":9682,"Ġsv":9683,"Ġpranzo":9684,"camp":9685,"Ġconsoli":9686,"VY":9687,"Ġfatica":9688,"Ġsai":9689,"Ġscambio":9690,"Ġconveni":9691,"itoria":9692,"casa":9693,"gnora":9694,"tologia":9695,"cultura":9696,"ĠChiudi":9697,"PN":9698,"EST":9699,"Ġindicatori":9700,"ĠFrancesca":9701,"Ġrappresentano":9702,"Ġresa":9703,"itudine":9704,"nStoria":9705,"Ġvicenda":9706,"Ġ196":9707,"ĠPen":9708,"uolo":9709,"ĠSvizzera":9710,"Ġnoleggio":9711,"ettazione":9712,"ĠQues":9713,"ĠGreen":9714,"gil":9715,"Ġfiga":9716,"nSte":9717,"ittad":9718,"Ġconsulta":9719,"QY":9720,"nInfo":9721,"nPiÃ¹":9722,"459":9723,"comune":9724,"084":9725,"Ġaggiunge":9726,"nOltre":9727,"ĠBuon":9728,"nico":9729,"ĠSiti":9730,"Ġbril":9731,"Ġinau":9732,"UK":9733,"Ġaffas":9734,"Ġmanda":9735,"9806":9736,"toni":9737,"JY":9738,"HF":9739,"9823":9740,"nsettembre":9741,"aldabagno":9742,"Ġcapp":9743,"Ġvacanze":9744,"ĠlocalitÃł":9745,"Ġsudd":9746,"erla":9747,"Ġlab":9748,"SIONE":9749,"Ġdeten":9750,"gher":9751,"mic":9752,"600":9753,"Ġricca":9754,"Ġinteramente":9755,"Ġlimitare":9756,"Ġstup":9757,"issione":9758,"ĠRegno":9759,"Ġdistingu":9760,"Ġevidente":9761,"bruzzo":9762,"nServizio":9763,"VG":9764,"missa":9765,"WN":9766,"ĠTUTTI":9767,"ĠASN":9768,"Ġnorm":9769,"Ġorganizzazione":9770,"Ġtrovo":9771,"Ġcontenute":9772,"Ġclub":9773,"Ġsays":9774,"Ġeconomiche":9775,"nSalute":9776,"ĠDonna":9777,"TF":9778,"ĠGiuli":9779,"809":9780,"rough":9781,"terali":9782,"OCIA":9783,"Ġesercizio":9784,"Ġsconf":9785,"Ġstili":9786,"Ġvest":9787,"Ġpref":9788,"ngennaio":9789,"Ġandato":9790,"nfebbraio":9791,"Ġcoscienza":9792,"9781813":9793,"Ġgiu":9794,"Ġapprofond":9795,"ruzione":9796,"Ġferrovia":9797,"onne":9798,"cid":9799,"890":9800,"Ġporti":9801,"ĠCivile":9802,"tichette":9803,"Ġricic":9804,"cardo":9805,"ĠCaricamento":9806,"Ġpuntata":9807,"ppie":9808,"ĠParma":9809,"Ġber":9810,"Ġsuccede":9811,"WY":9812,"ĠpersonalitÃł":9813,"Ġprestazione":9814,"bert":9815,"Ġtel":9816,"stituti":9817,"ngiugno":9818,"Ġdichiara":9819,"ĠSAL":9820,"randi":9821,"cade":9822,"XL":9823,"Ġvissuto":9824,"Ġcolleghi":9825,"ey":9826,"BBLI":9827,"2007":9828,"rvi":9829,"Ġcaldaia":9830,"ficazioni":9831,"arrivo":9832,"nri":9833,"Ġnera":9834,"Ġraccolgono":9835,"ullo":9836,"dee":9837,"Ġneo":9838,"Ġmeteo":9839,"ĻĤ":9840,"ĠBene":9841,"orgia":9842,"ĠDue":9843,"ipo":9844,"Ġmedica":9845,"Ġbianca":9846,"doro":9847,"Ġconven":9848,"Ġparlando":9849,"Ġeconomia":9850,"Ġqua":9851,"Ġnegativamente":9852,"Ġcivili":9853,"Ġanziani":9854,"Ġneve":9855,"018":9856,"Ġvisibile":9857,"Ġanalytics":9858,"cir":9859,"nCHI":9860,"Ġvinto":9861,"ssero":9862,"Ġfr":9863,"idatti":9864,"Ġimpresa":9865,"ĠRead":9866,"342":9867,"Ġacquisi":9868,"Ġdebito":9869,"hion":9870,"medi":9871,"policy":9872,"nVuoi":9873,"Ġproi":9874,"Ġripresa":9875,"Ġesterne":9876,"ĠLondra":9877,"organ":9878,"nici":9879,"deb":9880,"CR":9881,"tempo":9882,"gole":9883,"462":9884,"8900452":9885,"gnor":9886,"Ġps":9887,"Ġgiun":9888,"ĠSUL":9889,"Ġanch":9890,"ĠREA":9891,"td":9892,"ticamente":9893,"nse":9894,"Ġimmer":9895,"nTesto":9896,"Ġlancia":9897,"Ġcosi":9898,"ĠLibri":9899,"368":9900,"Ġiniziale":9901,"Ġbattaglia":9902,"ror":9903,"Ġgiornate":9904,"ettacolo":9905,"SH":9906,"Ġposizioni":9907,"=\\\"":9908,"ĠBas":9909,"aut":9910,"Ġaffilia":9911,"Ġanalyze":9912,"Ġpreparare":9913,"Ġthey":9914,"Ġmaterie":9915,"tup":9916,"isponibile":9917,"ĠNove":9918,"Ġriguardanti":9919,"nPerson":9920,"ðĿĹ":9921,"Ġviaggia":9922,"mora":9923,"Ġlegate":9924,"ĠSegre":9925,"pori":9926,"foto":9927,"prodotto":9928,"}\\":9929,"Ġscato":9930,"ACE":9931,"orb":9932,"ustizia":9933,"archivio":9934,"Ġtanta":9935,"----------------":9936,"Ġcondizionatori":9937,"Ġ47":9938,"Ġinteressarti":9939,"Ġcittadinanza":9940,"9776":9941,"Ġbenefic":9942,"Ġfarina":9943,"vocati":9944,"Ġapproccio":9945,"PRI":9946,"Ġbis":9947,"Ġtrasparenza":9948,"9848278":9949,"Ġlettere":9950,"ĠGuida":9951,"Ġcrede":9952,"fac":9953,"Ġeccessi":9954,"ĠBia":9955,"itiva":9956,"sile":9957,"euro":9958,"nBen":9959,"ĠCel":9960,"Ġgiocatore":9961,"uori":9962,"Ġmovimenti":9963,"9822":9964,"Ġscorre":9965,"ccati":9966,"Ġsembrano":9967,"Ġglu":9968,"Ġsov":9969,"Ġimprov":9970,"vestimento":9971,"Ġintu":9972,"ĠNetwork":9973,"nLibri":9974,"9794":9975,"Ġ38":9976,"Ġconferimento":9977,"ettando":9978,"Ġitalia":9979,"'\\":9980,"ĠHer":9981,"nVI":9982,"Ġ;":9983,"460":9984,"Ġcucchia":9985,"dute":9986,"339":9987,"nn":9988,"nluglio":9989,"Ġ44":9990,"Ġsanitario":9991,"Ġmembro":9992,"Ġdefinire":9993,"Ġalbum":9994,"nMas":9995,"scritto":9996,"appar":9997,"Ġabita":9998,"ĠBos":9999,"pal":10000,"nMus":10001,"Ġpesca":10002,"Ġmedesimo":10003,"nTermini":10004,"identale":10005,"CCF":10006,"sho":10007,"Ġfiloso":10008,"cusa":10009,"nNext":10010,"Ġcontrasto":10011,"ZN":10012,"Ġtracce":10013,"Ġconoscenze":10014,"Ġcertificato":10015,"749":10016,"Ġscene":10017,"nArea":10018,"ECB":10019,"Ġcambiato":10020,"nis":10021,"Ġconservati":10022,"Ġcaratteristica":10023,"mpianti":10024,"0000397":10025,"Ġfatte":10026,"Ġdott":10027,"ĠNet":10028,"358":10029,"VR":10030,"ĠBagno":10031,"ZK":10032,"tenuto":10033,"QQ":10034,"nMol":10035,"lgs":10036,"google":10037,"Ġprevenire":10038,"Ġcasino":10039,"Ġpolvere":10040,"Ġsomma":10041,"Fa":10042,"CAD":10043,"Ġentusia":10044,"Ġattorno":10045,"WA":10046,"Ġabitanti":10047,"XJ":10048,"xel":10049,"name":10050,"532":10051,"ĠSti":10052,"9795":10053,"nAppro":10054,"solo":10055,"ĠMAR":10056,"Ġrate":10057,"Ġindustriali":10058,"ĠTutte":10059,"9833":10060,"ĠMedicina":10061,"Ġprecisa":10062,"ĠCategori":10063,"ĠterrÃł":10064,"nMon":10065,"ricola":10066,"!!!!":10067,"Ġdisabilitare":10068,"rendimento":10069,"Ġincom":10070,"Ġriun":10071,"Ġprimavera":10072,"Ġinviati":10073,"tteristiche":10074,"Ġoro":10075,"mpia":10076,"Ġvecchi":10077,"Ġliqu":10078,"esterno":10079,"ĠLascia":10080,"UB":10081,"Ġutilizz":10082,"Ġquarto":10083,"Ġ250":10084,"Ġpartecipato":10085,"ĠRec":10086,"Ġdocente":10087,"Ġcircolazione":10088,"Ġponte":10089,"Ġessenziale":10090,"ĠRossi":10091,"Ġprogrammazione":10092,"vico":10093,"9793":10094,"Ġquartiere":10095,"Ġdisattivazione":10096,"very":10097,"Ġopportuno":10098,"mai":10099,"ĠDaniele":10100,"carlo":10101,"Script":10102,"Ġante":10103,"Ġfinanziari":10104,"768":10105,"gibile":10106,"Ġsacri":10107,"ĠMON":10108,"nItali":10109,"240":10110,"UD":10111,"Ġanalo":10112,"Ġinven":10113,"009":10114,"Ġtenuta":10115,"nScheda":10116,"nAccetto":10117,"ĠTran":10118,"nScegli":10119,"ĠUlti":10120,"Ġintervenire":10121,"Ġenergetico":10122,"Ġminima":10123,"esame":10124,"ZJ":10125,"theme":10126,"Ġvediamo":10127,"STI":10128,"trica":10129,"Ġriportate":10130,"Ġsostan":10131,"ĠGabri":10132,"ĠAmerica":10133,"Ġtaglia":10134,"sapp":10135,"cesi":10136,"bot":10137,"361":10138,"stante":10139,"ĠLic":10140,"nTras":10141,"Ġmappa":10142,"HD":10143,"Ġlit":10144,"tipo":10145,"Ġenorme":10146,"Ġdimostrato":10147,"Ġparametri":10148,"ĠCOVID":10149,"8783":10150,"Ġesperto":10151,"eridi":10152,"CFA":10153,"Ġraccomanda":10154,"ĠEnrico":10155,"Ġselezionati":10156,"urce":10157,"Agenzia":10158,"core":10159,"udo":10160,"Ġ[...]\\":10161,"Ġcompetente":10162,"469":10163,"nUltime":10164,"9811":10165,"ĠMonta":10166,"Ġstava":10167,"lusconi":10168,"nCorso":10169,"Ġritra":10170,"esie":10171,"manuele":10172,"Ġappassionati":10173,"Ġesclusiva":10174,"ltÃł":10175,"Ġtelevisi":10176,"Ġscala":10177,"ĠRegionale":10178,"Ġammi":10179,"grafie":10180,"nAbbiamo":10181,"Ġpercentuale":10182,"ĠCAR":10183,"Ġmerce":10184,"los":10185,"ombo":10186,"Ġadolescenti":10187,"nConsul":10188,"SL":10189,"ĠPrimo":10190,"Ġminaccia":10191,"tidiano":10192,"pic":10193,"Ġsolamente":10194,"Ġsome":10195,"Ġprofessione":10196,"Ġinnovazione":10197,"ĠInte":10198,"Ġner":10199,"GM":10200,"270":10201,"post":10202,"ttezza":10203,"290":10204,"Ġpersino":10205,"Ġmanuale":10206,"Ġsportive":10207,"Ġcomando":10208,"9755":10209,"ĠME":10210,"Ġpartite":10211,"Ġdoccia":10212,"ĠBusiness":10213,"Ġmodific":10214,"Ġdebba":10215,"Ġcomportamenti":10216,"ĠSotto":10217,"sure":10218,"innovazione":10219,"Ġandata":10220,"Ġcontengono":10221,"Ġricordi":10222,"ĠSto":10223,"hatsapp":10224,"Ġpotente":10225,"Ġmessi":10226,"infesta":10227,"mpati":10228,"Ġpraticamente":10229,"2000":10230,"zionario":10231,"ĠFabio":10232,"Ġprotected":10233,"ĠGiornata":10234,"Ġdestinazione":10235,"Ġaltrettan":10236,"cipe":10237,"ĠTour":10238,"Ġback":10239,"ĠMarina":10240,"origine":10241,"Ġcrimin":10242,"9783":10243,"Ġnavigare":10244,"inera":10245,"ĠAssocia":10246,"Ġprovvedimento":10247,"ĠRomagna":10248,"Ad":10249,"Ġvite":10250,"Ġfamoso":10251,"mblr":10252,"Ġdeterminati":10253,"752":10254,"GY":10255,"Ġcrediti":10256,"eller":10257,"Ġfavorire":10258,"Ġfiscali":10259,"Ġindici":10260,"ï¸":10261,"Ġsegni":10262,"Ġiniziativa":10263,"Ġdescrizione":10264,"Ġpelli":10265,"Ġread":10266,"entinaia":10267,"cto":10268,"Ġimportanza":10269,"Ġregista":10270,"Ġricche":10271,"icili":10272,"ĠSalvatore":10273,"estri":10274,"gnato":10275,"Ġvul":10276,"ĠInternational":10277,"Una":10278,"Ġavviso":10279,"ĠCha":10280,"Ġavranno":10281,"Ġrassegna":10282,"Ġefficiente":10283,"grafici":10284,"Ġavesse":10285,"Ġconvi":10286,"TX":10287,"pensione":10288,"ostare":10289,"Ġnaturalmente":10290,"Te":10291,"Ġselva":10292,"ulico":10293,"Ġsostanza":10294,"VJ":10295,"9498746":10296,"ĠCana":10297,"facebook":10298,"QJ":10299,"iedo":10300,"758":10301,"Ġindicata":10302,"hile":10303,"edizione":10304,"ĠTO":10305,"Ġcostu":10306,"2006":10307,"751":10308,"Ġmusic":10309,"To":10310,"WK":10311,"Ġdemocrazia":10312,"Ġdar":10313,"archit":10314,"dotte":10315,"CEB":10316,"Ð¸":10317,"438":10318,"Ġpubblicare":10319,"essero":10320,"nMostra":10321,"040":10322,"293":10323,"Ġraccoglie":10324,"ĠCorpo":10325,"nItalia":10326,"Ġattuali":10327,"TB":10328,"Ġrecuperare":10329,"9754":10330,"ĠFe":10331,"orum":10332,"Ġfarmaco":10333,"Ġmagazz":10334,"lamo":10335,"Ġvendere":10336,"ttone":10337,"Ġcatalogo":10338,"ĠCapitale":10339,"escovo":10340,"Ġliberi":10341,"ZZO":10342,"306":10343,"Ġ39":10344,"Ġgradi":10345,"Ġciascuno":10346,"Ġterritori":10347,"ald":10348,"431":10349,"loro":10350,"Ġiner":10351,"nNote":10352,"9930":10353,"nCookies":10354,"raele":10355,"posto":10356,"CDD":10357,"Ġgrosso":10358,"fiuta":10359,"ĠPala":10360,"WJ":10361,"Ġapri":10362,"Ġscientifico":10363,"Ġconsiderata":10364,"esione":10365,"rli":10366,"Sta":10367,"Ġcapitali":10368,"importo":10369,"Ġfigure":10370,"WF":10371,"Ġspettacoli":10372,"ĠNell":10373,"ganti":10374,"Ġdecisamente":10375,"Ġdefinito":10376,"siamo":10377,"nNessun":10378,"intervista":10379,"nStu":10380,"ĠTale":10381,"Ġveloci":10382,"ĠTUT":10383,"98721":10384,"upazione":10385,"Ġsb":10386,"ĠfacoltÃł":10387,"].":10388,"ventus":10389,"Ġ62":10390,"ĠComple":10391,"Ġinna":10392,"ĠPub":10393,"gegneria":10394,"Ġren":10395,"UX":10396,"ĠSop":10397,"ornale":10398,"372":10399,"369":10400,"Ġmostrato":10401,"ĠCentra":10402,"giano":10403,"VK":10404,"ITA":10405,"TEN":10406,"ĠsanitÃł":10407,"Ġimped":10408,"Mar":10409,"ĠShare":10410,"Ġinvestimento":10411,"Ġesami":10412,"Ġpianeta":10413,"Av":10414,"Ġpilo":10415,"Ġassenza":10416,"Ġpunte":10417,"Ġimporta":10418,"9676":10419,"ĠUl":10420,"ĠInformazioni":10421,"Ġirri":10422,"giana":10423,"ĠEntra":10424,"nPia":10425,"Ġassume":10426,"inqu":10427,"9784":10428,"Ġava":10429,"Ġeffettuata":10430,"ĠDO":10431,"ĠLED":10432,"Ġrimozione":10433,"Ġnatali":10434,"Ġimprove":10435,"ĠOverview":10436,"99985":10437,"Ġscrittore":10438,"QK":10439,"338":10440,"Ġlaure":10441,"berg":10442,"9765":10443,"ĠðŁĻĤ":10444,"Ġclassica":10445,"Ġrealmente":10446,"Ġluci":10447,"lta":10448,"Ġger":10449,"ĠArticolo":10450,"Ġradica":10451,"Ġthrough":10452,"nic":10453,"nRoma":10454,"troduzione":10455,"attuale":10456,"TICOLI":10457,"ĠFOR":10458,"ĠScri":10459,"diamo":10460,"Ġbilan":10461,"Ġ1000":10462,"unno":10463,"ouse":10464,"99993026":10465,"Ġsoddisfazione":10466,"ETTO":10467,"ellini":10468,"Ġbellissimo":10469,"PD":10470,"ĠCorriere":10471,"ï¸ı":10472,"iterraneo":10473,"ĠDurante":10474,"coin":10475,"482":10476,"mea":10477,"Ġpotrete":10478,"nQui":10479,"Ġfrase":10480,"Ġigi":10481,"grafiche":10482,"Ġspecific":10483,"Ġinsi":10484,"elet":10485,"050":10486,"yer":10487,"ĠAngelo":10488,"nSeleziona":10489,"nScrivi":10490,"stem":10491,"Ġsuccessive":10492,"ĠMondiale":10493,"ĠBA":10494,"DCA":10495,"Ġmolta":10496,"Ġpropor":10497,"amm":10498,"Ġdifferenze":10499,"ĠNOS":10500,"Ġottimizzare":10501,"ĠTurismo":10502,"ery":10503,"GR":10504,"SCRI":10505,"Ġtardi":10506,"ĠSistema":10507,"Ġfiume":10508,"Ġprecisione":10509,"ĠRad":10510,"nSenza":10511,"Ġasia":10512,"illi":10513,"Ġconiu":10514,"nLun":10515,"VM":10516,"lass":10517,"ĠdisabilitÃł":10518,"Ġremo":10519,"Ġufficiali":10520,"Ġdeb":10521,"Ġtribunale":10522,"Ġmoderno":10523,"Ġcomposta":10524,"Arte":10525,"Ġvolete":10526,"ĠImprese":10527,"723":10528,"Ġaccanto":10529,"Ġesercizi":10530,"ĠEuropeo":10531,"761":10532,"News":10533,"ĠVittorio":10534,"TL":10535,"Ġcamere":10536,"ĠMagazine":10537,"inga":10538,"Ġinstallazione":10539,"educazione":10540,"Ġpiacevole":10541,"cari":10542,"Ġindividuare":10543,"801":10544,"98534":10545,"Ġovunque":10546,"Ġascoltare":10547,"ĠCronaca":10548,"028":10549,"Ġegli":10550,"ĠComo":10551,"Ġconsumi":10552,"ucci":10553,"Ġesterna":10554,"Ġgoverna":10555,"Ġcomunicato":10556,"ĠProgetto":10557,"CIO":10558,"Ġ---":10559,"Ġbassi":10560,"Ġghia":10561,"Ġdomicilio":10562,"Ġelettorale":10563,"metro":10564,"mino":10565,"Ġ1998":10566,"Ġchiude":10567,"Ġgestito":10568,"OKIE":10569,"Ġdatabase":10570,"ĠTesta":10571,"Ġprofondo":10572,"ĠTER":10573,"Ġteoria":10574,"Ġrigi":10575,"Ġfalli":10576,"ccessivo":10577,"759":10578,"Ġorganizzare":10579,"Ġannuale":10580,"472":10581,"ADA":10582,"vina":10583,"sivi":10584,"ZX":10585,"ii":10586,"pie":10587,"TIVA":10588,"prof":10589,"....\\":10590,"QL":10591,"ĠDay":10592,"Ġrafforza":10593,"plicato":10594,"nNO":10595,"Ġcasella":10596,"De":10597,"vara":10598,"9746":10599,"730":10600,"Ġvirtuale":10601,"titi":10602,"ĠPd":10603,"GIO":10604,"ray":10605,"efficacia":10606,"Ġcompletare":10607,"9785":10608,"9727":10609,"Ġdibattito":10610,"260":10611,"mons":10612,"Ġagenti":10613,"Ġbicic":10614,"Ġsondaggi":10615,"nPassword":10616,"Ġipotesi":10617,"9766":10618,"iler":10619,"Ġdanza":10620,"Ġwidget":10621,"Ġconge":10622,"Vi":10623,"ĠCass":10624,"ĠDigital":10625,"Ġlogica":10626,"oga":10627,"');":10628,"nagosto":10629,"cure":10630,"sm":10631,"Ġpap":10632,"preso":10633,"Ġsecurity":10634,"Ġlegato":10635,"ĠCastello":10636,"erli":10637,"Ġtagli":10638,"VB":10639,"ward":10640,"Ġavrei":10641,"ACB":10642,"PY":10643,"741":10644,"ĠcreativitÃł":10645,"xy":10646,"Ġtablet":10647,"Ġrimasto":10648,"Ġorto":10649,"trale":10650,"PH":10651,"zzante":10652,"issimi":10653,"Ġprocedimento":10654,"nMarco":10655,"ĠRica":10656,"Bi":10657,"rendere":10658,"CN":10659,"Ġproduttori":10660,"ĠALL":10661,"ĠNEWS":10662,"Ġcerte":10663,"Ġriuscito":10664,"Ġtela":10665,"ĠPoli":10666,"zionata":10667,"cile":10668,"thor":10669,"sono":10670,"Ġsemina":10671,"Ġaccer":10672,"Ġcassa":10673,"opportunitÃł":10674,"Pal":10675,"Ġnegare":10676,"Ġsva":10677,"alzo":10678,"perto":10679,"nAdvertisement":10680,"Ġtende":10681,"Ġespressamente":10682,"Ġsinte":10683,"ptoval":10684,"nPart":10685,"Ġparete":10686,"Ġesame":10687,"erre":10688,"Ġcinese":10689,"categorized":10690,"FR":10691,"aggiornamento":10692,"sten":10693,"ĠEco":10694,"Ġcentinaia":10695,"Ġcertificazione":10696,"Ġragi":10697,"Ġoccasioni":10698,"hiesta":10699,"ziosa":10700,"sazioni":10701,"Ġlavorazione":10702,"ziare":10703,"Ġpiede":10704,"Ġcompresi":10705,"Ġvisitato":10706,"gerÃł":10707,"Ġmoduli":10708,"Ġalber":10709,"Ġara":10710,"Ġpronta":10711,"illant":10712,"tona":10713,"osse":10714,"Ġdedicati":10715,"ĠSede":10716,"Ch":10717,"ombra":10718,"Ġcifra":10719,"cione":10720,"Ġ42":10721,"Ġmy":10722,"iller":10723,"Ġrisposto":10724,"Ġmentale":10725,"Ġsquadre":10726,"gui":10727,"clusione":10728,"Ġtriste":10729,"Ġbiglietti":10730,"anzitutto":10731,"Ġaiuti":10732,"Ġmole":10733,"Ġ1999":10734,"nQuanto":10735,"Ġspecializzata":10736,"tarlo":10737,"Ġconnessi":10738,"9734":10739,"letto":10740,"Ñģ":10741,"Ġprovoca":10742,"Ġospedali":10743,"Ġfabbrica":10744,"ML":10745,"016":10746,"Ġcoer":10747,"ĠCLI":10748,"Ġarrivano":10749,"9713":10750,"Pi":10751,"VX":10752,"ĠHi":10753,"Ġanda":10754,"ZIE":10755,"ĠBy":10756,"378":10757,"Ġlavorato":10758,"ttrice":10759,"Ġpotresti":10760,"ACA":10761,"Ġfratello":10762,"cronaca":10763,"Ġcostantemente":10764,"ĠAra":10765,"nArte":10766,"ĠDes":10767,"rudenza":10768,"ĠManagement":10769,"Ġembed":10770,"Ġelegante":10771,"ĠClaudio":10772,"role":10773,"471":10774,"Ġavval":10775,"anello":10776,"ĠHar":10777,"nSocial":10778,"8662":10779,"Ġvendite":10780,"ild":10781,"Ġmanifestazioni":10782,"Ġrisparmiare":10783,"ĠQuestura":10784,"elia":10785,"LLA":10786,"Ġconquis":10787,"ites":10788,"Ġgon":10789,"any":10790,"CCC":10791,"condi":10792,"link":10793,"pini":10794,"Ġsapore":10795,"Iva":10796,"Ġpaesaggio":10797,"Ġnotevole":10798,"Ġsintesi":10799,"Ġcentrali":10800,"Ġvoti":10801,"Ġcontinui":10802,"283":10803,"camere":10804,"inese":10805,"itivi":10806,"ĠBened":10807,"Ġconflitto":10808,"Ġmit":10809,"ĠVincenzo":10810,"anale":10811,"ĠFondo":10812,"laborazione":10813,"QX":10814,"Ġbandi":10815,"ĠGestione":10816,"arese":10817,"Ġuova":10818,"Ġalte":10819,"ĠAve":10820,"Ġceri":10821,"cts":10822,"ji":10823,"PG":10824,"rite":10825,"ĠTerr":10826,"Ġamo":10827,"Ġavrebbero":10828,"filo":10829,"ĠJohn":10830,"Ġritardo":10831,"Ġspic":10832,"ĠJavaScript":10833,"Ġricom":10834,"nAlle":10835,"ili":10836,"ĠAmbiente":10837,"Ġdotato":10838,"cket":10839,"porta":10840,"Ġcoordinamento":10841,"nice":10842,"CL":10843,"Ġvalida":10844,"cea":10845,"nu":10846,"MY":10847,"Ġcostituisce":10848,"ĠSiena":10849,"zionati":10850,"Ġsfi":10851,"ving":10852,"Ġconferenza":10853,"igliamento":10854,"ĠCOS":10855,"Ġindagini":10856,"Ġartific":10857,"Ġsomministra":10858,"lam":10859,"venuti":10860,"Ġtentativo":10861,"Ġconsentito":10862,"Ġlimitato":10863,"096":10864,"ĠFO":10865,"ĠAnno":10866,"Ġridu":10867,"ĠAngel":10868,"Ġfunzionale":10869,"0596":10870,"ĠAriston":10871,"Da":10872,"Ġgene":10873,"Ġinto":10874,"Ġsaremo":10875,"Ġmorale":10876,"812":10877,"faccia":10878,"Ġanticipo":10879,"Ġchilometri":10880,"Ġcircu":10881,"Ġancor":10882,"Ġwhile":10883,"Ġdiminu":10884,"Ġsur":10885,"nOtti":10886,"tilitÃł":10887,"Ġsegreto":10888,"Ġelaborati":10889,"ulli":10890,"Ġindicare":10891,"HL":10892,"utore":10893,"Ġdiffuso":10894,"gelo":10895,"Ġprovinciale":10896,"Ġgare":10897,"Ġdiagno":10898,"bet":10899,"ĠBruno":10900,"Ġcircolare":10901,"481":10902,"Ġsag":10903,"Ġassoluto":10904,"ĠUNA":10905,"onamenti":10906,"Ġtrattare":10907,"Ġtrovere":10908,"9878":10909,"Ġspiegato":10910,"HJ":10911,"Ci":10912,"9737":10913,"ĠSac":10914,"Ġsportivo":10915,"anie":10916,"EDA":10917,"Ġverific":10918,"ĠSpeciali":10919,"Ġrichiedono":10920,"ĠAlex":10921,"Ġcera":10922,"Ġreato":10923,"utati":10924,"vre":10925,"ĠtÃ¨":10926,"ague":10927,"9556":10928,"enni":10929,"Ġperde":10930,"Lgs":10931,"Ġ46":10932,"ĠCampo":10933,"HK":10934,"Ġpareti":10935,"WX":10936,"ĠPadre":10937,"Ġcredere":10938,"Ġdecisioni":10939,"ĠAD":10940,"nEsp":10941,"Ġapprofondire":10942,"ĠDemo":10943,"ĠCard":10944,"Ġlezione":10945,"ND":10946,"Ġsopravvi":10947,"ĠMostra":10948,"Ġunivo":10949,"Ġdisturbi":10950,"you":10951,"TTER":10952,"bica":10953,"ĠTrieste":10954,"identitÃł":10955,"ĠFar":10956,"gomenti":10957,"riato":10958,"Ġtime":10959,"nLEG":10960,"Ġvivono":10961,"Ġconnesso":10962,"Ġbrows":10963,"Ġsolare":10964,"ĠQuo":10965,"9800":10966,"Ġdio":10967,"ĠNei":10968,"ĠEmi":10969,"Ġcompra":10970,"bs":10971,"bonus":10972,"9756":10973,"9706":10974,"Ġchiusi":10975,"erci":10976,"087":10977,"ĠDavide":10978,"ĠCalcio":10979,"Ġfinito":10980,"Ġsorg":10981,"ghiamo":10982,"ĠAmministra":10983,"Ġvasta":10984,"WI":10985,"Ġsar":10986,"Ġcollegamenti":10987,"Ġidro":10988,"Ġristoranti":10989,"Ġimpedire":10990,"ode":10991,"person":10992,"angolo":10993,"Ġdiagnosi":10994,"fy":10995,"769":10996,"Ġcresci":10997,"ĠSuoi":10998,"ĠCHI":10999,"Ġaltamente":11000,"idattica":11001,"Ġorigini":11002,"Ġroma":11003,"EDE":11004,"Ġ43":11005,"ĠDecreto":11006,"\\\\'":11007,"Ġilleg":11008,"unning":11009,"berta":11010,"FICA":11011,"Ġripri":11012,"Ġbellissima":11013,"Ġeventuale":11014,"Ġine":11015,"Ġpista":11016,"âĢĭâĢĭ":11017,"Ã§":11018,"âĦ":11019,"ĠSviluppo":11020,"Ġproduce":11021,"silio":11022,"onditÃł":11023,"Ġtesi":11024,"onate":11025,"âĢĻ\\":11026,"CCD":11027,"rid":11028,"ĠDELLE":11029,"nsi":11030,"vente":11031,"her":11032,"Ġdocumenta":11033,"ĠGA":11034,"eco":11035,"Ġ-\\":11036,"Ġalluminio":11037,"Ġmasch":11038,"nAnalytics":11039,"Ġpositivi":11040,"Ġmemorizza":11041,"Ġmuseo":11042,"Ġinteragiscono":11043,"schi":11044,"Ġrapido":11045,"nDI":11046,"istru":11047,"Ġcongi":11048,"Ġcomponente":11049,"ĠGiappone":11050,"732":11051,"bole":11052,"bire":11053,"ĠCagliari":11054,"ĠMaurizio":11055,"Ġsuono":11056,"nai":11057,"udendo":11058,"Ġaro":11059,"ĠFederico":11060,"ust":11061,"Ġrivoluzione":11062,"FY":11063,"371":11064,"Ġdefinitiva":11065,"VS":11066,"nPrevious":11067,"Ġtessuti":11068,"ĠNessun":11069,"CDC":11070,"Ġconsiste":11071,"ugna":11072,"Ġmonitorare":11073,"Ġspostare":11074,"Ġmoltepli":11075,"Ġinstallare":11076,"Ġtreno":11077,"ĠLeonardo":11078,"Ġcervello":11079,"9714":11080,"Ġhard":11081,"Ġattraversa":11082,"Ġtendenza":11083,"630":11084,"legge":11085,"Ġorganizzata":11086,"99997":11087,"Ġantico":11088,"ĠXVI":11089,"inari":11090,"LLO":11091,"vieto":11092,"Ġsuccessivi":11093,"cazioni":11094,"ERCA":11095,")\",\"":11096,"Ġcompresa":11097,"off":11098,"Ġbook":11099,"Ġrestare":11100,"Ġted":11101,"Ġassociazione":11102,"Ġcommentando":11103,"ĠPisa":11104,"Ġcomment":11105,"450":11106,"Ġtematiche":11107,"now":11108,"Ġmaschile":11109,"ossibilitÃł":11110,"ĠFal":11111,"ĠMc":11112,"dita":11113,"ĠVaillant":11114,"orra":11115,"Ġscarpe":11116,"ĠFabri":11117,"GS":11118,"Ġintero":11119,"478":11120,"Ġced":11121,"nAmbiente":11122,"Ġdovrai":11123,"ĠSha":11124,"Ġamericano":11125,"corre":11126,"km":11127,"nSegna":11128,"category":11129,"nProf":11130,"cendio":11131,"Ġpalla":11132,"lessandro":11133,"Ġtemperature":11134,"tono":11135,"Ġsviluppato":11136,"Chi":11137,"Ġchiaramente":11138,"Ġnar":11139,"287":11140,"cconsento":11141,"nControlla":11142,"omen":11143,"Ġriservatezza":11144,"Ġrecesso":11145,"Ġtrovate":11146,"ĠEdi":11147,"Ġdimenticare":11148,"Ġautentica":11149,"Ġaccor":11150,"Ġesserci":11151,"Ġ|\\":11152,"Ġcanzone":11153,"Ġpredisp":11154,"Ġeuropee":11155,"ichiarazione":11156,"603":11157,"Ġbirra":11158,"ĠEdu":11159,"ĠSanti":11160,"ml":11161,"nDu":11162,"ĠGiovani":11163,"ĠDavid":11164,"Ġriportato":11165,"ORNA":11166,"Ġcondom":11167,"8540":11168,"Ġcognome":11169,"ĠTech":11170,"ĠVendita":11171,"Ġprivate":11172,"ĠLettera":11173,"VENTI":11174,"ama":11175,"pos":11176,"Ġproblematiche":11177,"Ġtette":11178,"ETTA":11179,"Ġcreando":11180,"ĠProgramma":11181,"Ġcontenere":11182,"omba":11183,"zionando":11184,"731":11185,"Ġsente":11186,"Ġformula":11187,"Ġproposto":11188,"Ġriconosciuto":11189,"cchetti":11190,"Ġcontattarci":11191,"ĠRete":11192,"Ġstabilito":11193,"SER":11194,"Ġprovide":11195,"Ġappropri":11196,"Ġrazzi":11197,"Ġcarcere":11198,"Ġturno":11199,"ĠDirezione":11200,"var":11201,"Ġ64":11202,"9703":11203,"9705":11204,"819":11205,"Ġstraordinario":11206,"BY":11207,"Ġdormi":11208,"9863":11209,"senso":11210,"sel":11211,"TK":11212,"Ġesistenti":11213,"Ġgiornale":11214,"Ġproper":11215,"nAbb":11216,"Ġantica":11217,"gy":11218,"vanza":11219,"TJ":11220,"fri":11221,"Ġbrowsing":11222,"ĠMini":11223,"Ġvelocemente":11224,"...\",\"":11225,"9695":11226,"Ġpsicologia":11227,"ĠNas":11228,"ĠInf":11229,"Ġfragi":11230,"9298":11231,"Ġdifficili":11232,"Ġtedesco":11233,"Ġcollaboratori":11234,"ĠBI":11235,"lana":11236,"unci":11237,"Ġautorizzazione":11238,"UY":11239,"ĠBut":11240,"nAmazon":11241,"Ġtasto":11242,"Ġbasato":11243,"Ġrispetta":11244,"diti":11245,"ttempo":11246,"Ġinvestire":11247,"NY":11248,"Ġterrori":11249,"Leggi":11250,"teranno":11251,"Â·":11252,"lim":11253,"nGuarda":11254,"LITA":11255,"Ġmorb":11256,"9777":11257,"Ġesecuzione":11258,"nCOM":11259,"agenzia":11260,"Ġplug":11261,"zzanti":11262,"489":11263,"Ġspero":11264,"Ġtrag":11265,"if":11266,"ĠUcraina":11267,"Ġbarra":11268,"Ġincenti":11269,"ranto":11270,"0515":11271,"traverso":11272,"Ġgiapponese":11273,"ĠCostituzione":11274,"Ġconsiderarsi":11275,"Ġindividuale":11276,"Sono":11277,"Ġmancato":11278,"ĠTrento":11279,"ĠUSB":11280,"ĠComunale":11281,"ĠREG":11282,"ĠCucina":11283,"Ġfratelli":11284,"Ġ360":11285,"Su":11286,"Ġcomfort":11287,"ZQ":11288,"Ġpartiti":11289,"Ġtappa":11290,"TALE":11291,"Ġlog":11292,"Ġcaldaie":11293,"Ġlaboratori":11294,"}}\\":11295,"ronta":11296,"Ġtrasporti":11297,"Ġagire":11298,"Ġoption":11299,"replace":11300,"ĠAssi":11301,"nHa":11302,"ĠPD":11303,"Ġlago":11304,"Ġpromozioni":11305,"Ġtubo":11306,"fesa":11307,"uman":11308,"Ġchit":11309,"analytics":11310,"ĠFesta":11311,"Ġintervista":11312,"Ġreper":11313,"tichetta":11314,"nCasa":11315,"tely":11316,"568":11317,"99895":11318,"Ġseri":11319,"ĠEster":11320,"alth":11321,"Ġritiro":11322,"Ġcass":11323,"Ġtroverai":11324,"Ġmigranti":11325,"ĠBBC":11326,"Ġ?\\":11327,"ĠDai":11328,"nNell":11329,"omeo":11330,"Ã¢":11331,"ttando":11332,"icamente":11333,"Ġconvegno":11334,"nClose":11335,"Ġartistico":11336,"pper":11337,"cookies":11338,"9788":11339,"Ġdose":11340,"mondo":11341,"ĠAlb":11342,"inail":11343,"Ġcancello":11344,"Ġindispensabile":11345,"Ġscritti":11346,"Ġgentile":11347,"ospe":11348,"ĠLaura":11349,"Ġdovresti":11350,"Ġmito":11351,"Ġferma":11352,"ĠForse":11353,"561":11354,"Ġquaran":11355,"FFI":11356,"316":11357,"nei":11358,"nQuindi":11359,"FS":11360,"Ġtrasparente":11361,"ĠOre":11362,"Ġarro":11363,"Ġsecoli":11364,"Ġsanitari":11365,"9423":11366,"tunit":11367,"Ġsegnale":11368,"pg":11369,"Ġregistro":11370,"070":11371,"Ġreda":11372,"435":11373,"Ġparro":11374,"HX":11375,"nSede":11376,"rezzo":11377,"Ġobbligatoria":11378,"Ġborsa":11379,"Ġpredefinito":11380,"Ġraccolto":11381,"bol":11382,"opini":11383,"ĠProdu":11384,"PM":11385,"9414":11386,"Ġrossa":11387,"âĢĺ":11388,"Ġpomo":11389,"Ġattrezzature":11390,"infanzia":11391,"inserimento":11392,"ĠClass":11393,"Ġsegnalazione":11394,"Ġpura":11395,"ah":11396,"Ġfrattempo":11397,"Ġscia":11398,"295":11399,"etture":11400,"Ġriemp":11401,"Ġfinanza":11402,"Ġalberi":11403,"Ġfior":11404,"ĠMeloni":11405,"Ġ110":11406,"atmosfera":11407,"Ġaccura":11408,"nFinalitÃł":11409,"9736":11410,"Ġinformativo":11411,"WQ":11412,"zare":11413,"kes":11414,"El":11415,"lievi":11416,"ĠRoss":11417,"âĨĲ":11418,"Ġ600":11419,"ĠDove":11420,"nNoti":11421,"andro":11422,"ĠTEC":11423,"ĠMara":11424,"Ġpotenziale":11425,"ĠReply":11426,"ĠAda":11427,"migra":11428,"nVisita":11429,"VL":11430,"terale":11431,"user":11432,"ĠEditore":11433,"Ġvince":11434,"luca":11435,"VQ":11436,"ĠPatri":11437,"ĠMassa":11438,"milano":11439,"ĠRispondi":11440,"ĠMarino":11441,"nDic":11442,"ĠElisa":11443,"Ġdign":11444,"Ġaccum":11445,"Ġran":11446,"Ġpassati":11447,"ĠPuÃ²":11448,"Ġintegrazione":11449,"ĠNuovo":11450,"ĠFarma":11451,"landia":11452,"nContinu":11453,"Ġfarti":11454,"Ġobbligo":11455,"Ġcolazione":11456,"ĠPsicologia":11457,"Ġultra":11458,"ccata":11459,"zionalitÃł":11460,"Ġconservare":11461,"Ġbox":11462,"829":11463,"tagne":11464,"pare":11465,"cesa":11466,"Ġparliamo":11467,"trutturazione":11468,"Ġschede":11469,"NK":11470,"autoritÃł":11471,"DDA":11472,"Ġnormative":11473,"220":11474,"riano":11475,"Ġindu":11476,".\\\"":11477,"Ġmusicali":11478,"viare":11479,"ĠPis":11480,"Ġfinali":11481,"tton":11482,"Ġprospettiva":11483,"messe":11484,"Ġfinire":11485,"Ġmensile":11486,"Ġprocura":11487,"ĠSalerno":11488,"ĠDonne":11489,"ople":11490,"Ġsportiva":11491,"ĠPio":11492,"Ġterritoriale":11493,"661":11494,"Ġfortemente":11495,"posizioni":11496,"Ġproduttore":11497,"nEs":11498,"Ro":11499,"Ġpiscina":11500,"ĠLui":11501,"ĠManager":11502,"ĠMAN":11503,"quista":11504,"Ġsingola":11505,"fero":11506,"Ġcattura":11507,"700":11508,"ĠCia":11509,"ĠCristi":11510,"yber":11511,"gamento":11512,"Ġseria":11513,"nRu":11514,"certi":11515,"cumenti":11516,"Ġpone":11517,"Ġvolontari":11518,"Ġposse":11519,"GK":11520,"Ġbraccia":11521,"Ġmetalli":11522,"%.":11523,"ĠDalla":11524,"Ġciascuna":11525,"Piace":11526,"mestre":11527,"ĠParte":11528,"Ð¾":11529,"Ġgius":11530,"ĠDomenica":11531,"ansione":11532,"Ġportano":11533,"nEle":11534,"Ġsoglia":11535,"ventura":11536,"ĠMicrosoft":11537,"99986":11538,"Ġumi":11539,"Ġregolarmente":11540,"loni":11541,"WD":11542,"Ġmachine":11543,"Ġperche":11544,"Ġentrambe":11545,"test":11546,"home":11547,"Ġescur":11548,"ĠTelegram":11549,"323":11550,"Ġtraduzione":11551,"annelli":11552,"ĠIV":11553,"Ġincontrare":11554,"ESTA":11555,"Ġumane":11556,"uide":11557,"ingere":11558,"social":11559,"BR":11560,"Ġopporsi":11561,"Ġfrequenti":11562,"altezza":11563,"Ġpromozionali":11564,"Ġritorna":11565,"ĠMax":11566,"ĠLinkedIn":11567,"Ġsoccorso":11568,"WL":11569,"Ġvittima":11570,"ĠCic":11571,"9745":11572,"GLIO":11573,"Ġaggiunta":11574,"Ġristrutturazione":11575,"Ġattori":11576,"ĠAttualitÃł":11577,"vertis":11578,"ĠGarante":11579,"ĠCroce":11580,"Ġattacchi":11581,"Ġstella":11582,"uela":11583,"Ġcompleanno":11584,"vese":11585,"inelli":11586,"stati":11587,"Ġsegnalibri":11588,"viato":11589,"Ġpon":11590,"Ġsuddi":11591,"Ġpensione":11592,"Ġfollow":11593,"9665":11594,"ĠDisa":11595,"Ġarrivata":11596,"CFD":11597,"ĠOrdina":11598,"Ġrifiutare":11599,"Ġlunghi":11600,"FL":11601,"ĠMedio":11602,"nAli":11603,"Ġmonu":11604,"vallo":11605,"ĠAG":11606,"ĠRapp":11607,"Ġensure":11608,"9455":11609,"9366":11610,"WO":11611,"ĠSergio":11612,"ĠCine":11613,"PER":11614,"Ġgiornalisti":11615,"ĠMani":11616,"ĠPDF":11617,"Ġconsumatore":11618,"Ġgambe":11619,"fal":11620,"ingua":11621,"ĠPoss":11622,"ĠON":11623,"ĠStore":11624,"Ġfacili":11625,"Ġesempi":11626,"!!\\":11627,"dea":11628,"ggiate":11629,"iormente":11630,"Ġnavigate":11631,"VAC":11632,"Ġdisegna":11633,"gur":11634,"Ġtradizioni":11635,"Ġneuro":11636,"sserva":11637,"wi":11638,"Ġ]\\":11639,"Ġstatunit":11640,"Ġeva":11641,"Ġleggero":11642,"CAA":11643,"erali":11644,"lease":11645,"Ġavvol":11646,"Ġabitudini":11647,"Ġstradale":11648,"nFollow":11649,"untamento":11650,"Ã¶":11651,"Ġelettronico":11652,"Ġcercato":11653,"nPotrebbe":11654,"99996":11655,"PK":11656,"Ġdidattica":11657,"nm":11658,"itiamo":11659,"Ġdimenticato":11660,"ĠIstituto":11661,"Ġconfini":11662,"III":11663,"ondere":11664,"613":11665,"gliati":11666,"Ġgenerazioni":11667,"305":11668,"ĠTar":11669,"Ġdoveva":11670,"ĠSezione":11671,"Ġrivolto":11672,"ĠTempo":11673,"âĢĶâĢĶâĢĶâĢĶ":11674,"HR":11675,"Ġinform":11676,"Ġcomposizione":11677,"Ġconfezione":11678,"Ġpioggia":11679,"Ġappai":11680,"wordpress":11681,"Come":11682,"ostato":11683,"Ġinclusa":11684,"ĠSimone":11685,"tributi":11686,"Ġlicen":11687,"Ġgenerare":11688,"ĠAtti":11689,"mod":11690,"Ġfornitore":11691,"nDiritto":11692,"migrazione":11693,"individ":11694,"Ġprovved":11695,"ĠGiacomo":11696,"osizione":11697,"Ġbrevi":11698,"Ġantichi":11699,"ĠSerra":11700,"Ġsfide":11701,"ciata":11702,"ĠPriva":11703,"Ġriconos":11704,"Ġspecialmente":11705,"GJ":11706,"Ġcinemato":11707,"9735":11708,"istici":11709,"745":11710,"ĠMessina":11711,"ssemblea":11712,"ĠMulti":11713,"Ġ});":11714,"nGuida":11715,"Ġmq":11716,"Ġmuro":11717,"Ġfresco":11718,"Ġpole":11719,"ĠComunitÃł":11720,"ZL":11721,"dago":11722,"Ġcapitolo":11723,"ĠTA":11724,"Ġlegata":11725,"Ġvoler":11726,"Ġdecid":11727,"Ġsostituire":11728,"Ġduro":11729,"uria":11730,"evoluzione":11731,"Ġfinestre":11732,"Ġefficaci":11733,"Ġmisurare":11734,"ANTI":11735,"âĦ¢":11736,"Ġiscritto":11737,"ĠRaffa":11738,"Ordine":11739,"libro":11740,"ĠArea":11741,"ĠPrezzi":11742,"Ġbiblioteca":11743,"Ġwe":11744,"Ġalimentazione":11745,"nCer":11746,"veranno":11747,"Ġdisplay":11748,"ĠGuerra":11749,"ak":11750,"9939":11751,"ĠaltresÃ¬":11752,"093":11753,"Ġcircon":11754,"Ġinstallati":11755,"Ġ41":11756,"ĠFerrara":11757,"Ġcure":11758,"Ġprolun":11759,"Ġdivertimento":11760,"nPreno":11761,"nSÃ¬":11762,"URA":11763,"pon":11764,"venta":11765,"pito":11766,"Ġterri":11767,"Ġgel":11768,"Ġaccusa":11769,"hotel":11770,"Ġbenissimo":11771,"Ġinsegnanti":11772,"aldo":11773,"orario":11774,"FBA":11775,"hop":11776,"Ġfidanza":11777,"nView":11778,"ĠStrumenti":11779,"FU":11780,"CAE":11781,"571":11782,"Ġpanorama":11783,"ĠAugu":11784,"ĠBatti":11785,"Ġsite":11786,"Ġarcheo":11787,"Ġsconti":11788,"Ġinse":11789,"Ġrendendo":11790,"aperto":11791,"Ġbancario":11792,"Ġvolevo":11793,"Ġsorpresa":11794,"nLinkedIn":11795,"aumento":11796,"ĠMentre":11797,"Ġbus":11798,"ĠTeam":11799,"ĠiPhone":11800,"99973":11801,"Ġguari":11802,"rendo":11803,"Ġsospensione":11804,"Ġcondotta":11805,"Ġfinanziamenti":11806,"9726":11807,"Ġabsolu":11808,"Ġsonno":11809,"Ġcronaca":11810,"erÃ²":11811,"Ġresistente":11812,"CEF":11813,"ORT":11814,"uty":11815,"watch":11816,"nPronto":11817,"017":11818,"tum":11819,"olino":11820,"entato":11821,"Ġcessione":11822,"Ġfamosa":11823,"âĢĿ),":11824,"ENE":11825,"lor":11826,"monta":11827,"Ġdivertente":11828,"ĠRon":11829,"zzatore":11830,"Ġpacchetto":11831,"Ġlike":11832,"etre":11833,"ĠComm":11834,"ulizia":11835,"9595":11836,"diche":11837,"Ġsaluto":11838,"WR":11839,"Ġmatch":11840,"franco":11841,"CEC":11842,"NS":11843,"ricato":11844,"Ġriceve":11845,"Ġsfu":11846,"Ġautorizzato":11847,"nica":11848,"Ġ--":11849,"Ġpresentano":11850,"Ġriscontra":11851,"Ġannuncio":11852,"Ġsussi":11853,"ude":11854,"br":11855,"nMilano":11856,"FK":11857,"Ġfermo":11858,"Ġpreciso":11859,"vendita":11860,"Ġhot":11861,"ĠPOS":11862,"Ġresidenti":11863,"isca":11864,"Ġxxx":11865,"Ġnottu":11866,"Ġfila":11867,"sura":11868,"Ġpesante":11869,"Ġcampione":11870,"Ġappaiono":11871,"Ġimpostare":11872,"Ġprivile":11873,"prov":11874,"ĠQUI":11875,"ĠTemp":11876,"9723":11877,"Ġospita":11878,"EAC":11879,"Ġnotifiche":11880,"Ġmettendo":11881,"occhio":11882,"Ġiper":11883,"FJ":11884,"Ġsacco":11885,"sma":11886,"Ġfesti":11887,"Ġproperly":11888,"dibili":11889,"Ġcaduta":11890,"stata":11891,"ĠContatti":11892,"ttenimento":11893,"TQ":11894,"ĠArchivio":11895,"Ġmerci":11896,"Ġformu":11897,"nCu":11898,"vertising":11899,"Ġemissioni":11900,"ĠVerde":11901,"Ġpatologie":11902,"omet":11903,"Ġimple":11904,"nMusica":11905,"Ġmisteri":11906,"ĠPaola":11907,"CBA":11908,"Ġlegislativo":11909,"Ġattacco":11910,"DY":11911,"Ġtoss":11912,"Ġtasti":11913,"Ġrispettivi":11914,"Ġapplicare":11915,"stron":11916,"9774":11917,"down":11918,"Ġpubblicata":11919,"ĠuniversitÃł":11920,"eti":11921,"Ġconsigliamo":11922,"Ġriuscita":11923,"Ġlimitazione":11924,"ĠTE":11925,"Ġusate":11926,"Ġdiscre":11927,"ĠDott":11928,"ĠCity":11929,"Ser":11930,"Ġsostiene":11931,"chestra":11932,"ĠPremi":11933,"Ġgestore":11934,"2005":11935,"ĠFia":11936,"Ġnecessariamente":11937,"Ġmarca":11938,"ĠWar":11939,"omas":11940,"Ġincidente":11941,"Ġlingue":11942,"nScuola":11943,"Ġfisio":11944,"9744":11945,"9725":11946,"Ġindire":11947,"osteni":11948,"dige":11949,"Ġeffettuate":11950,"9704":11951,"ĠRicette":11952,"379":11953,"Ġ:\\":11954,"ĠLive":11955,"9767":11956,"Ġrece":11957,"Ġbiglietto":11958,"alore":11959,"ĠprioritÃł":11960,"Ġingi":11961,"Ġhe":11962,"udia":11963,"ĠSupp":11964,"Ġprevisioni":11965,"Ġrigo":11966,"Ġassociati":11967,"Ġabsolutely":11968,"Ġleggermente":11969,"Ġrispond":11970,"810":11971,"TZ":11972,"ĠAmministrazione":11973,"mberto":11974,"ĠTI":11975,"rocco":11976,"ĠNUO":11977,"group":11978,"Ġmagia":11979,"seri":11980,"ritann":11981,"Ġfinanziario":11982,"Ġfate":11983,"Ġdiploma":11984,"GLIA":11985,"Ġusufruire":11986,"9655":11987,"ĠBern":11988,"nSul":11989,"Ġderiva":11990,"ĠCreative":11991,"velli":11992,"Ġfoglie":11993,"ĠUnito":11994,"imm":11995,"Sa":11996,"Ġfrutti":11997,"cimento":11998,"Ġgamba":11999,"Ġdichiarazioni":12000,"Ġlusso":12001,"ĠRA":12002,"Ġinterne":12003,"771":12004,"Ġfaceva":12005,"ĠPertanto":12006,"Ġmetallo":12007,"inar":12008,"ĠprofonditÃł":12009,"Ġdotto":12010,"ESS":12011,"ialmente":12012,"ottima":12013,"Ġdintorni":12014,"Ġpasto":12015,"ĠNero":12016,"pino":12017,"Ġsegreti":12018,"ĠSindaco":12019,"trazione":12020,"impatto":12021,"Ġavrai":12022,"nFeed":12023,"ĠFood":12024,"nFrancesco":12025,"zu":12026,"Ġseduta":12027,"Ġpassando":12028,"9724":12029,"ENI":12030,"nUno":12031,"9686":12032,"nAttivitÃł":12033,"Ġcomunic":12034,"ĠRimini":12035,"9721":12036,"Ġtensione":12037,"nGestione":12038,"XK":12039,"Ġcategorized":12040,"Ġlunghezza":12041,"Ġpassaggi":12042,"crati":12043,"nCap":12044,"Ġconser":12045,"enna":12046,"ĠPesca":12047,"nNumero":12048,"PJ":12049,"Ġdepos":12050,"ĠLU":12051,"NC":12052,"Ġcellule":12053,"ĠFocus":12054,"utico":12055,"Ġresidenza":12056,"Ġterape":12057,"ĠMauro":12058,"Ġnove":12059,"ĠandrÃł":12060,"Ġmate":12061,"cabile":12062,"Ġpreferito":12063,"9828":12064,"Ġott":12065,"ĠAzienda":12066,"inca":12067,"ĠfelicitÃł":12068,"Ġamministrativo":12069,"Ġpreghiera":12070,"Ġcontribuire":12071,"ĠOcc":12072,"MC":12073,"zionista":12074,"020":12075,"ĠBianco":12076,"Ġulteriormente":12077,"Ġstipen":12078,"nEx":12079,"fes":12080,"vici":12081,"Ġfornite":12082,"Ġreligione":12083,"Ġrinunciare":12084,"teriali":12085,"ustralia":12086,"ratis":12087,"802":12088,"nOfferte":12089,"ĠJun":12090,"Ġindesid":12091,"Ġpuo":12092,"ĠProvin":12093,"Ġappartamento":12094,"ettori":12095,"Ġartistica":12096,"Ġdownload":12097,"Ġbevan":12098,"Ġequilibrio":12099,"SIONI":12100,"ĠAcqua":12101,"ĠPolitiche":12102,"Ġrealizzate":12103,"Ġarma":12104,"HS":12105,"nFunzionali":12106,"ssicura":12107,"Ġpresentata":12108,"ĠLegale":12109,"Ġaccordi":12110,"nAg":12111,"Ġtasse":12112,"439":12113,"orgh":12114,"Ġtutt":12115,"ĠCommons":12116,"Ġspecializzato":12117,"Ġdispone":12118,"act":12119,"scar":12120,"ingo":12121,"Ġrevocare":12122,"Sal":12123,"gal":12124,"HQ":12125,"Ġstudiare":12126,"Ġpreoccup":12127,"grado":12128,"Ġfantasia":12129,"Ġelevato":12130,"Ġmolteplici":12131,"Ġfinisce":12132,"GL":12133,"Ġ95":12134,"Ġcompagni":12135,"ettivo":12136,"Ġstatu":12137,"GGIO":12138,"ĠFanta":12139,"tage":12140,"Ġopting":12141,"Ġsessioni":12142,"Ġperiodica":12143,"Ġparad":12144,"Ġcavi":12145,"Ġnascosto":12146,"COM":12147,"Ġespressione":12148,"ĠAc":12149,"ĠSEO":12150,"ĠFore":12151,"Ġcopyright":12152,"Ġspontan":12153,"Ġstabilire":12154,"Ġob":12155,"Ġprecis":12156,"nCentro":12157,"ĠCerti":12158,"ĠpÃ²":12159,"ĠPale":12160,"9909":12161,"314":12162,"ĠNess":12163,"ticle":12164,"bete":12165,"ĠDigitale":12166,"ĠBiblioteca":12167,"Ġarricch":12168,"Ġdetermin":12169,"EGUI":12170,"ĠBit":12171,"Ġricostru":12172,"98721457":12173,"DL":12174,"nLogin":12175,"giochi":12176,"url":12177,"pec":12178,"307":12179,"Ġperdite":12180,"Ġquadri":12181,"plor":12182,"TION":12183,"ĠSel":12184,"Ġcanzoni":12185,"ences":12186,"erate":12187,"tropo":12188,"duci":12189,"Ġaspettare":12190,"ĠMonti":12191,"Ġredditi":12192,"Ġsupple":12193,"iezione":12194,"nCONTATTI":12195,"ĠROMA":12196,"fli":12197,"Ġdeterminare":12198,"china":12199,"Ġaperti":12200,"cana":12201,"9773":12202,"ĠperciÃ²":12203,"nPresen":12204,"IV":12205,"Ġbloccare":12206,"Ġintegrato":12207,"322":12208,"Ġaperte":12209,"ulture":12210,"Ġined":12211,"Ġospedale":12212,"Ġfamosi":12213,"474":12214,"shi":12215,"Ġcomoda":12216,"vices":12217,"nCaratteristiche":12218,"sive":12219,"Ġsimboli":12220,"Ġindis":12221,"ttoli":12222,"ĠVER":12223,"PC":12224,"sionale":12225,"ĠSERVI":12226,"Ġgrassi":12227,"produzione":12228,"upload":12229,"gomb":12230,"772":12231,"ospedale":12232,"nas":12233,"roso":12234,"ĠIM":12235,"maga":12236,"ficate":12237,"Ġcoi":12238,"ĠPotre":12239,"311":12240,"Ġlasciando":12241,"ENA":12242,"Ġinsomma":12243,"Lu":12244,"ĠVio":12245,"Ġmilf":12246,"315":12247,"Ġsconosci":12248,"nle":12249,"ĠGol":12250,"9853488":12251,"ĠViaggi":12252,"Ġvasca":12253,"Ġport":12254,"Ġzo":12255,"WM":12256,"Ġradici":12257,"027":12258,"Ġrelativamente":12259,"fosi":12260,"684":12261,"Ġdiventano":12262,"Ġaccel":12263,"ye":12264,"Ġmanager":12265,"779":12266,"ĠCosto":12267,"ĠAttivitÃł":12268,"tle":12269,"zionisti":12270,"urgo":12271,"cinio":12272,"Ġarrivati":12273,"Ġquote":12274,"722":12275,"Ġmedic":12276,"mil":12277,"turn":12278,"Ġpassegg":12279,"TORIA":12280,"tituto":12281,"Ġsceglie":12282,"9733":12283,"zzini":12284,"Ġfaranno":12285,"Ġriescono":12286,"DEA":12287,"Ġsingole":12288,"Ġgusti":12289,"fficiale":12290,"nPsico":12291,"Ġdiso":12292,"97504":12293,"board":12294,"Ġmul":12295,"fino":12296,"Ġrigen":12297,"ĠShi":12298,"ĠLiber":12299,"quila":12300,"Ġaiutarti":12301,"ĠLiguria":12302,"Ã±":12303,"ist":12304,"99815":12305,"lise":12306,"ĠRiccardo":12307,"opinione":12308,"WE":12309,"Ġveniva":12310,"Ġdovere":12311,"Ġottimale":12312,"Ġlavorativi":12313,"WB":12314,"Ġbisogni":12315,"icino":12316,"Ġcorriere":12317,"nSP":12318,"012":12319,"ĠSAN":12320,"Ġannunciato":12321,"je":12322,"Ġcombattere":12323,"Ġavvis":12324,"Ġassicurare":12325,"Ġritenuto":12326,"Ġmattino":12327,"FX":12328,"Ġdicendo":12329,"ternitÃł":12330,"Ġstipu":12331,"Ġkit":12332,"tv":12333,"Ġscorsa":12334,"nCorre":12335,"Ġinutile":12336,"nAndrea":12337,"Ġpover":12338,"Ġchiedo":12339,"Ġreati":12340,"Ġsigare":12341,"ku":12342,"estico":12343,"Ġautonomia":12344,"nSolo":12345,"ĠBerlusconi":12346,"Ġlunghe":12347,"Ġincluso":12348,"Ġ56":12349,"nMessaggi":12350,"Ġcoinvolti":12351,"SR":12352,"bby":12353,"Ġdipendente":12354,"politana":12355,"orrei":12356,"ĠBBCode":12357,"019":12358,"ĠEdizioni":12359,"9716":12360,"Ġaspettative":12361,"landese":12362,"ĠRacco":12363,"FM":12364,"Ġpersonalmente":12365,"9757":12366,"avviso":12367,"ĠSoli":12368,"Ġorizz":12369,"ĠMadonna":12370,"Ġagenzie":12371,"CCO":12372,"rologi":12373,"479":12374,"Ġimmobiliare":12375,"cchiali":12376,"Ġrivolgersi":12377,"UJ":12378,"Ġappos":12379,"ĠPelle":12380,"ĠSera":12381,"Ġtipici":12382,"483":12383,"win":12384,"Ġperifer":12385,"aticano":12386,"nAutori":12387,"Ġmonte":12388,"Ġprete":12389,"PX":12390,"pers":12391,"Ġrotta":12392,"ĠPlan":12393,"539":12394,"nRiparazione":12395,"Ġandando":12396,"Ġeccezione":12397,"Ġrimar":12398,"ĠLAVO":12399,"ĠVed":12400,"Ġsforzo":12401,"ĠFilosofia":12402,"Ġquegli":12403,"Privacy":12404,"tola":12405,"ĠFilippo":12406,"Ġscienze":12407,"ghil":12408,"eamente":12409,"Ġassumere":12410,"venna":12411,"9722":12412,"Ġvicini":12413,"ĠOtti":12414,"Ġcere":12415,"ĠSenato":12416,"sprudenza":12417,"Ġcandidati":12418,"plorer":12419,"gela":12420,"VN":12421,"Ġfotografie":12422,"umanitÃł":12423,"9694":12424,"Ġpienamente":12425,"Ġviti":12426,"Ġtelefon":12427,"ĠSRL":12428,"Ġcostruito":12429,"Ġ1997":12430,"Ġdecenni":12431,"gone":12432,"ĠFriuli":12433,"smi":12434,"9715":12435,"ĠChar":12436,"Ġdebole":12437,"Ġanimale":12438,"Ġpneu":12439,"ĠGrecia":12440,"nea":12441,"655":12442,"ĠHD":12443,"Ġtestimonianza":12444,"Ġconcessione":12445,"475":12446,"boratorio":12447,"Ġsanzioni":12448,"Ġmoderni":12449,"Ġfisiche":12450,"Ġserio":12451,"ĠLink":12452,"ĠAPP":12453,"ĠKo":12454,"Ġsuggerimenti":12455,"infestazione":12456,"ĠAfrica":12457,"Ġdonazione":12458,"Ġcodici":12459,"ĠPerugia":12460,"Ġusi":12461,"Ãº":12462,"669":12463,"lenco":12464,"ĠsensibilitÃł":12465,"ĠBook":12466,"Ġseno":12467,"CFE":12468,"ĠStorico":12469,"Ġprotetti":12470,"Ġfruizione":12471,"ieti":12472,"nTea":12473,"ender":12474,"delle":12475,"Ġfacebook":12476,"ulto":12477,"Io":12478,"9687":12479,"ZR":12480,"ĠOl":12481,"9919":12482,"ttini":12483,"Ġamatori":12484,"endosi":12485,"Ġcanto":12486,"SEN":12487,"Ġvide":12488,"Ġringrazio":12489,"ĠVan":12490,"9348":12491,"Ġentrata":12492,"9818":12493,"nACCE":12494,"CFB":12495,"Ġfrequenta":12496,"nMappa":12497,"Ġrivela":12498,"rita":12499,"85409606":12500,"dit":12501,"Ġincludono":12502,"Ġistituzionali":12503,"ĠXX":12504,"Ġritiene":12505,"Ġreser":12506,"Ġassoluta":12507,"ĠRenzi":12508,"DDB":12509,"Ġpp":12510,"VACY":12511,"Ġautorizzati":12512,"ĠNoleggio":12513,"Ġtendenze":12514,"endono":12515,"Ġtrading":12516,"ĠCOL":12517,"CBD":12518,"Ġconsulente":12519,"Ġcoppie":12520,"Ġpaesaggi":12521,"nBuongiorno":12522,"ZM":12523,"421":12524,"ls":12525,"Ġfarci":12526,"cciaio":12527,"99675":12528,"CAF":12529,"ãĢĲ":12530,"Ġinfrastrutture":12531,"ĠReser":12532,"321":12533,"Ġdir":12534,"GX":12535,"Ġcomodo":12536,"ider":12537,"Ġlavorano":12538,"ĠCassazione":12539,"pis":12540,"nCorsi":12541,"Ġorgo":12542,"Ġspiegare":12543,"Ġdiventata":12544,"Ġinno":12545,"Ġconcerti":12546,"9567":12547,"Acqu":12548,"Ġprovvedimenti":12549,"alizzato":12550,"ĠVIA":12551,"veglianza":12552,"cing":12553,"nTelegram":12554,"ĠRecensioni":12555,"HTML":12556,"IX":12557,"Ġeducazione":12558,"ĠFare":12559,"ĠLago":12560,"ZB":12561,"Ġesce":12562,"sera":12563,"ĠðŁĻĤ\\":12564,"itro":12565,"ĠSpazio":12566,"inverno":12567,"nDia":12568,"nFunctional":12569,"nConf":12570,"Ġmancata":12571,"Ġnormali":12572,"Ġricercatori":12573,"ãĢĳ":12574,"ĠAccessori":12575,"Ġdestino":12576,"led":12577,"nRice":12578,"9953931":12579,"Ġrifiuto":12580,"HN":12581,"nModalitÃł":12582,"Ġela":12583,"part":12584,"Ġmix":12585,"mmobili":12586,"nUni":12587,"Ti":12588,"Ġburro":12589,"KO":12590,"nAlcuni":12591,"ĠIsraele":12592,"Ġmaestro":12593,"ĠLas":12594,"562":12595,"Ġprotetto":12596,"CDF":12597,"Ġappo":12598,"Ġbrano":12599,"Ġignorati":12600,"ĠBor":12601,"CBE":12602,"Ġfece":12603,"Ġrights":12604,"708":12605,"fan":12606,"colle":12607,"Ġderivanti":12608,"ptovalute":12609,"isse":12610,"Ġconsigliato":12611,"Ġoperativa":12612,"350":12613,"elles":12614,"UC":12615,"Ġtetto":12616,"nPRE":12617,"ĠNote":12618,"Ġdesi":12619,"ĠMAG":12620,"ikipedia":12621,"Ġlibreria":12622,"Ġprovo":12623,"060":12624,"nQuo":12625,"Ġ180":12626,"Ġcollegati":12627,"Ġsogg":12628,"Ġpala":12629,"nLavoro":12630,"726":12631,"nColle":12632,"nFra":12633,"434":12634,"nFormazione":12635,"ĠDiritti":12636,",\\\"":12637,".âĢĿ":12638,"oschi":12639,"Ġlegittimi":12640,"ĠAlto":12641,"9060596":12642,"2004":12643,"Ġofferto":12644,"705":12645,"Ġmagazzino":12646,"ĠSÃ¬":12647,"Ġmarcia":12648,"astronom":12649,"Ġsig":12650,"Ġsana":12651,"Ġcontare":12652,"Ġcoronavirus":12653,"Ġbatte":12654,"ĠPers":12655,"Ġlegame":12656,"Ġmoneta":12657,"Ġlook":12658,"Ġviaggiare":12659,"Ġsorriso":12660,"Ġistituti":12661,"nScritto":12662,"Ġgira":12663,"esito":12664,"Ġporre":12665,"nBar":12666,"TAN":12667,"Ġille":12668,"326":12669,"ghilterra":12670,"Ufficio":12671,"HM":12672,"iato":12673,"oop":12674,"Ġtrasmettere":12675,"til":12676,"ganizzazione":12677,"ĠSarÃł":12678,"Ġdovesse":12679,"nnon":12680,"9330":12681,"disatti":12682,"ĠQuali":12683,"ADE":12684,"Ġaccred":12685,"Ġannul":12686,"EAE":12687,"Ġedili":12688,"Ġstabile":12689,"Ġottiene":12690,"nPagina":12691,"ĠDella":12692,"ĠForma":12693,"Ġleggera":12694,"Ġespon":12695,"Ġvisitate":12696,"Ġangolo":12697,"Ġapprofondimenti":12698,"Ġmeccanismo":12699,"nAnn":12700,"DAD":12701,"ĠSIAMO":12702,"Ġfrasi":12703,"anese":12704,"ĠTv":12705,"cida":12706,"nLE":12707,"Ġconcern":12708,"Ġinformative":12709,"Ġseg":12710,"stano":12711,"Ġsessuali":12712,"Ġsportivi":12713,"ĠGiunta":12714,"Ġproseguire":12715,"Ġvisti":12716,"Ġpannello":12717,"ĠMaps":12718,"Ġtit":12719,"Ġaffascin":12720,"Ġref":12721,"Ġcombinazione":12722,"Ġfeder":12723,"ĠPowered":12724,"ĠEnglish":12725,"Ġ|--":12726,"fania":12727,"Ġspecializzati":12728,"Ġsfruttare":12729,"tensione":12730,"Ġrisarci":12731,"(/":12732,"Ġridotto":12733,"luenza":12734,"gentina":12735,"()":12736,"Ġbicchi":12737,"ĠHy":12738,"nAcconsento":12739,"ater":12740,"440":12741,"UDI":12742,"Ġimplica":12743,"HB":12744,"row":12745,"345":12746,"Ag":12747,"pari":12748,"Ġcolpito":12749,"nAL":12750,"nimali":12751,"nCalcio":12752,"Ġoperazione":12753,"scrizioni":12754,"Ġtrack":12755,"Ġdifferenzia":12756,"Ġospite":12757,"Ġivi":12758,"ĠCosti":12759,"Ġamma":12760,"ĠLeague":12761,"Ġpersonalizzata":12762,"nForma":12763,"Ġamministrazioni":12764,"Ġcostituito":12765,"uploads":12766,"Ġneppure":12767,"Ġtitolari":12768,"ĠSocio":12769,"FAC":12770,"Ġcomprensi":12771,"ĠAma":12772,"ĠPayPal":12773,"GQ":12774,"Ġcatena":12775,"cussioni":12776,"nt":12777,"nPaga":12778,"Ġopzione":12779,"zialitÃł":12780,"ĠRights":12781,"Ġcertezza":12782,"resc":12783,"gallo":12784,"aniela":12785,"cchini":12786,"Ġconcluso":12787,"Ġprofessore":12788,"Ġpoch":12789,"Ġcorrere":12790,"ĠGEN":12791,"Ġcostituita":12792,"Ġfronti":12793,"Ġgreen":12794,"PRO":12795,"illu":12796,"9898":12797,"9910":12798,"ĠMobile":12799,"Ġminimi":12800,"Ġsorella":12801,"Ġplan":12802,"Ġfisso":12803,"ĠCenter":12804,"Ġvaccino":12805,"Ġvenduti":12806,"Ġaffari":12807,"Ġlavoratore":12808,"ben":12809,"Ġreazione":12810,"nsa":12811,"Ġrilascio":12812,"8333":12813,"cani":12814,"Ġcomin":12815,"rete":12816,"Ġnapole":12817,"oth":12818,"Ġarra":12819,"ĠPreventivo":12820,"grafi":12821,"ĠCarabinieri":12822,"FQ":12823,"Ġtatu":12824,"Ġcercano":12825,"Ġparcheggio":12826,"Ġinterazione":12827,"470":12828,"Ġgus":12829,"Ġmanagement":12830,"graph":12831,"ĠAut":12832,"ĠOne":12833,"325":12834,"COR":12835,"382":12836,"sato":12837,"ĠTen":12838,"Ġprimaria":12839,"9626":12840,"hai":12841,"mensioni":12842,"ĠCapp":12843,"ĠGazzetta":12844,"Ġesecuti":12845,"Ġverb":12846,"ĠJe":12847,"ĠClicca":12848,"Ġguide":12849,"chitettura":12850,"Ġalternative":12851,"ggiano":12852,"Ġpersonalizzato":12853,"Ġunivoco":12854,"ĠRosso":12855,"hanno":12856,"Ġconfine":12857,"486":12858,"Ġcomprensione":12859,"Ġintelligente":12860,"ĠTecnico":12861,"Ġsaputo":12862,"ĠSoci":12863,"484":12864,"ĠFerroli":12865,"433":12866,"Ġaffermato":12867,"Ġfuso":12868,"crazia":12869,"ĠMunici":12870,"dl":12871,"Ġgatto":12872,"RICA":12873,"Ġalter":12874,"Ġfattore":12875,"Ġcolpe":12876,"Ġfood":12877,"map":12878,"ings":12879,"9684":12880,"9666":12881,"CAB":12882,"Ġturisti":12883,"Ġcompeti":12884,"Ġreserved":12885,"9644":12886,"ĠPartito":12887,"Ġopposizione":12888,"Ġflusso":12889,"445":12890,"ĠpapÃł":12891,"ĠCaro":12892,"Ġaltezza":12893,"Ġpizza":12894,"bility":12895,"parte":12896,"nNoi":12897,"9646":12898,"nca":12899,"TD":12900,"198":12901,"ju":12902,"inger":12903,"Ġricezione":12904,"ĠSanitÃł":12905,"Cal":12906,"ĠstabilitÃł":12907,"lobal":12908,"Ġinformatica":12909,"Ġaffatto":12910,"Ġembedded":12911,"inna":12912,"teche":12913,"ZD":12914,"ramento":12915,"ĠGold":12916,"nCrea":12917,"turba":12918,"ĠÂ°":12919,"estina":12920,"ĠGianni":12921,"Ġteen":12922,"494":12923,"9313":12924,"Ġ!\\":12925,"738":12926,"goli":12927,"dde":12928,"><":12929,"Ġonda":12930,"importante":12931,"nMer":12932,"ĠFerrari":12933,"Ġbattu":12934,"ettiva":12935,"498":12936,"ption":12937,"ensore":12938,"Ġrevisione":12939,"Ġelettrodomestici":12940,"tom":12941,"Ġdecine":12942,"Ġconfigurazione":12943,"Ġconquista":12944,"astronomia":12945,"98007":12946,"cort":12947,"ganza":12948,"Ġrivolta":12949,"Ġcapaci":12950,"715":12951,"bido":12952,"Ġdisabilitati":12953,"Ġang":12954,"Ġcolpi":12955,"pertura":12956,"atar":12957,"tamenti":12958,"nAbout":12959,"Ġamiche":12960,"vise":12961,"Ġmotivazione":12962,"9743":12963,"ĠJuventus":12964,"ĠDomenico":12965,"3913":12966,"Ġguar":12967,"gid":12968,"ĠZu":12969,"Ġdiffusi":12970,"itante":12971,"att":12972,"TTE":12973,"Ġvoleva":12974,"DDE":12975,"Ġfuga":12976,"orino":12977,"Ġadegua":12978,"zzatura":12979,"Ġcinqu":12980,"9603":12981,"endum":12982,"Ġpalazzo":12983,"ĠPark":12984,"telligenza":12985,"urs":12986,"Ġuniversale":12987,"Ġgatti":12988,"ĠPosts":12989,"nDisclaimer":12990,"9717":12991,"Ġweekend":12992,"ĠCali":12993,"Ġdovuta":12994,"npro":12995,"isogna":12996,"Ġintegrare":12997,"nLEGGI":12998,"ĠElena":12999,"sidenza":13000,"ĠCio":13001,"betta":13002,"orge":13003,"99987":13004,"nSiste":13005,"ĠSale":13006,"nItaliano":13007,"correndo":13008,"vorno":13009,"711":13010,"ĠAC":13011,"âľ":13012,"ĠGal":13013,"utela":13014,"ĠGiochi":13015,"ĠMIL":13016,"Ġvel":13017,"torial":13018,"BILE":13019,"tretto":13020,"Ġgodere":13021,"Ġaran":13022,"ĠCH":13023,"nTrasp":13024,"quale":13025,"nCan":13026,"Ġsoddisfatto":13027,"Ġlarga":13028,"ĠSho":13029,"Ġbea":13030,"usse":13031,"irÃł":13032,"Ġgiudica":13033,"labili":13034,"Ġ66":13035,"ĠDATI":13036,"Ġsolitamente":13037,"Ġsbagliato":13038,"pani":13039,"623":13040,"nRE":13041,"nCaricamento":13042,"MENTE":13043,"Ġscomparsa":13044,"Ġprecedenza":13045,"nAnno":13046,"ĠTim":13047,"Ġanale":13048,"villa":13049,"Ġmagne":13050,"insieme":13051,"ĠBO":13052,"pul":13053,"Ġcliccare":13054,"Ġorale":13055,"706":13056,"Ġrappresentato":13057,"544":13058,"Ġtrend":13059,"Ġabusi":13060,"ECC":13061,"ĠZe":13062,"RC":13063,"ashion":13064,"nCalendario":13065,"Ġpratico":13066,"indow":13067,"tÃ¹":13068,"cular":13069,"Ġdescritte":13070,"rende":13071,"onsor":13072,"Ġtrattato":13073,"Ġbarca":13074,"Ġincro":13075,"conta":13076,"Ġcondiviso":13077,"nPowered":13078,"itness":13079,"Ġportando":13080,"nMis":13081,"Ġped":13082,"Ġritmo":13083,"9763":13084,"moria":13085,"Ġster":13086,"Ġpuli":13087,"prendere":13088,"trimoniale":13089,"Ġabbond":13090,"pdf":13091,"gorit":13092,"Ġcarb":13093,"ISO":13094,"Me":13095,"634":13096,"99998":13097,"ĠCoopera":13098,"ĠItaliani":13099,"scopo":13100,"inocchio":13101,"Ġcomunali":13102,"098":13103,"Ġclinica":13104,"304":13105,"ĠEp":13106,"ĠQuarti":13107,"8435":13108,"9707":13109,"ĠHol":13110,"328":13111,"9518":13112,"Ġsentimenti":13113,"sservatorio":13114,"Ġcompilare":13115,"Ġraffred":13116,"Ġintenso":13117,"Ġliquido":13118,"impiego":13119,"ĠArre":13120,"imb":13121,"ĠMusic":13122,"iscotti":13123,"Tag":13124,"Ġcancellati":13125,"ĠConsu":13126,"Ġrivolu":13127,"urare":13128,"ets":13129,"Ġinfe":13130,"ĠCur":13131,"Ġq":13132,"Ġdiagn":13133,"ĠGIO":13134,"Ġspirituale":13135,"LLI":13136,"Ġepisodi":13137,"675":13138,"RS":13139,"Ġinterviste":13140,"Ġinevita":13141,"Ġcolonna":13142,"lated":13143,"Ġglobali":13144,"altervista":13145,"bbo":13146,"icona":13147,"itive":13148,"Ġpronuncia":13149,"ĠElett":13150,"DAE":13151,"Ġrappresentanti":13152,"nSabato":13153,"ĠFinanza":13154,"nNEWS":13155,"quio":13156,"Ġcore":13157,"nSotto":13158,"ĠMediterraneo":13159,"Ġvalorizzazione":13160,"Ġ49":13161,"daf":13162,"Ġtranquilla":13163,"716":13164,"nTitolo":13165,"piano":13166,"Ġeseguito":13167,"Ucraina":13168,"Ġrichiamo":13169,"rella":13170,"ĠPERS":13171,"CAC":13172,"JK":13173,"eva":13174,"ral":13175,"995251":13176,">>":13177,"dget":13178,"Ġsuolo":13179,"Ġvere":13180,"ggono":13181,"Ġhome":13182,"Ġclassici":13183,"Ġcompetenti":13184,"9808":13185,"Ġintegrale":13186,"446":13187,"476":13188,"oggetto":13189,"Ġautomobili":13190,"Ġdiscri":13191,"Ġpreli":13192,"Ġversioni":13193,"ited":13194,"Ġpetro":13195,"Ġrusso":13196,"ĠMaggiore":13197,"090":13198,"436":13199,"giato":13200,"unni":13201,"Ġcerimonia":13202,"chiesta":13203,"Ġconversa":13204,"405":13205,"Ġtira":13206,"Ġscrivendo":13207,"ĠCC":13208,"cciare":13209,"Ġrilasciato":13210,"nProvider":13211,"elie":13212,"ZS":13213,"Ġdiciamo":13214,"entare":13215,"Ġaffidabile":13216,"EED":13217,"antica":13218,"Ġaccessibile":13219,"ĠmenÃ¹":13220,"').":13221,"cilia":13222,"ADB":13223,"nFonte":13224,"Ġfelici":13225,"ADD":13226,"Ġconsultazione":13227,"Ġsarai":13228,"itas":13229,"Rom":13230,"Ġlenta":13231,"Informativa":13232,"Ġappartamenti":13233,"Ġunder":13234,"ution":13235,"778":13236,"guarda":13237,"Ġletture":13238,"Ġautonoma":13239,"ampia":13240,"elezione":13241,"ssegnato":13242,"Ġfarmacia":13243,"Ġaltrettanto":13244,"ĠLou":13245,"Ġquante":13246,"ĠCoppa":13247,"cerdo":13248,"Ġporn":13249,"Ġsettimanale":13250,"Ġcab":13251,"ualmente":13252,"account":13253,"(\\\"":13254,"Ðµ":13255,"Ġriflettere":13256,"485":13257,"Ġvesti":13258,"alimentazione":13259,"Ġcominciare":13260,"Ġtin":13261,"cite":13262,"Ġdormire":13263,"rive":13264,"Ġnormalmente":13265,"ĠEmanuele":13266,"LIZZA":13267,"Amministrazione":13268,"ĠCasal":13269,"618":13270,"anch":13271,"Ġrappresentare":13272,"Ġpuro":13273,"Ġrecentemente":13274,"635":13275,"ĠNota":13276,"Ġavvenuto":13277,"Ġprosegue":13278,"ĠAnni":13279,"ĠGiulio":13280,"Ġconclude":13281,"geni":13282,"Ġprotocollo":13283,"ĠAna":13284,"ossip":13285,"Ġcomplimenti":13286,"ests":13287,"vana":13288,"due":13289,"Ġterremo":13290,"aring":13291,"Ġrilevanti":13292,"ĠMovimento":13293,"ĠSpor":13294,"Ġamericana":13295,"tÃ²":13296,"eratore":13297,"535":13298,"Ġrock":13299,"ettacoli":13300,"7676":13301,"9700":13302,"fore":13303,"Ġcompagno":13304,"racusa":13305,"FP":13306,"Ġconfermato":13307,"],":13308,"8783755":13309,"Ġmontaggio":13310,"IB":13311,"ncom":13312,"ĠLecce":13313,"Ġfavor":13314,"ĠLaurea":13315,"!\",\"":13316,"Ġmorire":13317,"Ġfotografico":13318,"Ġsorprend":13319,"nManutenzione":13320,"Ver":13321,"Ġrevoca":13322,"zoni":13323,"Ġautun":13324,"ĠGuardia":13325,"Ġesseri":13326,"ricati":13327,"jpg":13328,"Ġdegu":13329,"9753":13330,"nero":13331,"614":13332,"ĠBelle":13333,"issÃł":13334,"Ġimprenditori":13335,"Ġtroverete":13336,"Ġconsiderati":13337,"ĠGalleria":13338,"Ġenergie":13339,"ĠCancella":13340,"Ġvotare":13341,"Ġossi":13342,"Ġisole":13343,"Ġcard":13344,"Ġfirmato":13345,"Ġuscito":13346,"festyle":13347,"Ġvietata":13348,"NN":13349,"farma":13350,"nCosto":13351,"Ġindicazione":13352,"575":13353,"Ġinformato":13354,"ĠOP":13355,"Ġdiffusa":13356,"servizi":13357,"Ġsano":13358,"maggio":13359,"MBRE":13360,"Ġpersonalizzate":13361,"Ġsfondo":13362,"Ġriviste":13363,"ĠScar":13364,"Ġvigenti":13365,"ĠprobabilitÃł":13366,"Ġcheck":13367,"ardin":13368,"ĠcontinuitÃł":13369,"Ġcanna":13370,"420":13371,"venditori":13372,"ĠPom":13373,"ggiorna":13374,"ĠAgen":13375,"ĠITALIA":13376,"Ġcavo":13377,"Ġlancio":13378,"asy":13379,"Ġtelefonico":13380,"grazie":13381,"Ġlimitata":13382,"nSerie":13383,"gr":13384,"541":13385,"Ġbicicletta":13386,"Ġimmediato":13387,"ccioli":13388,"title":13389,"Ġscenario":13390,"nEff":13391,"ĠCloud":13392,"9444":13393,"Ġsegretario":13394,"urra":13395,"Ġincredibile":13396,"99010515":13397,"ĠSabato":13398,"Vo":13399,"ĠIva":13400,"Â¨":13401,"Ġsuggesti":13402,"Ġtocca":13403,"FFER":13404,"uriositÃł":13405,"Ġfro":13406,"ĠAlta":13407,"ĠfinchÃ©":13408,"ĠSab":13409,"nMessaggio":13410,"minata":13411,"Ġcostituzionale":13412,"Ġpavimento":13413,"ĠPlus":13414,"mor":13415,"770":13416,"551":13417,"Ġopinione":13418,"Ġavanzate":13419,"ween":13420,"eless":13421,"nDurante":13422,"Ġefficienza":13423,"cademy":13424,"Ġpositiva":13425,"CHA":13426,"718":13427,"Ġtorta":13428,"nParte":13429,"Ġosservare":13430,"ĠCesare":13431,"9050":13432,"isizione":13433,"Ġvicina":13434,"hl":13435,"Ġvedono":13436,"Ġviola":13437,"Ġsvolgono":13438,"Gra":13439,"Ġstretto":13440,"ĠRocca":13441,"Ġparlano":13442,"Ġcerchi":13443,"itte":13444,"422":13445,"ĠTali":13446,"nRif":13447,"radio":13448,"ĠLIB":13449,"Ġday":13450,"Ġpresupp":13451,"Ġrecita":13452,"416":13453,"795":13454,"ĠPartita":13455,"558":13456,"8536":13457,"Ġpregiudi":13458,"ESE":13459,"ĠSalvini":13460,"ĠCoronavirus":13461,"611":13462,"Ġstatistica":13463,"ken":13464,"ĠAbb":13465,"Ġequival":13466,"Ġcanta":13467,"cconti":13468,"fie":13469,"411":13470,"480":13471,"stan":13472,"AND":13473,"Ġdestinati":13474,"Ġforesta":13475,"Ġpotremmo":13476,"Ġrunning":13477,"ĠSuo":13478,"Ġaller":13479,"Ġistituzionale":13480,"ĠPasqua":13481,"572":13482,"ziato":13483,"Ġcavallo":13484,"Ġimporto":13485,"Ã¤":13486,"Ġfresca":13487,"pale":13488,"559":13489,"Ġaggiuntive":13490,"comunicazione":13491,"651":13492,"Gli":13493,"Ġesclusivo":13494,"Ġsplendida":13495,"Ġcarto":13496,"uk":13497,"9605":13498,"ĠTera":13499,"Ġsacerdo":13500,"Ġdifetto":13501,"Ġaggiudica":13502,"ĠCerto":13503,"urre":13504,"nessione":13505,"ĠMartin":13506,"Fun":13507,"strada":13508,"ĠSilvia":13509,"ostica":13510,"Ġriportati":13511,"fatto":13512,"LM":13513,"nCategoria":13514,"721":13515,"ham":13516,"Ġriass":13517,"Ġprestiti":13518,"nDirettore":13519,"refox":13520,"Ġitinera":13521,"HC":13522,"Ġpapa":13523,"ĠAppro":13524,"Ġgesto":13525,"552":13526,"Ġamministrativa":13527,"Ġstima":13528,"Ġvariazioni":13529,"spot":13530,"ĠSei":13531,"375":13532,"Ġprofumo":13533,"anificazione":13534,"Ġdimostrare":13535,"714":13536,"risto":13537,"424":13538,"ĠPAG":13539,"Ġvertica":13540,"9613":13541,"ĠIrlanda":13542,"Ġmascher":13543,"struzione":13544,"Ġpall":13545,"Ġconforme":13546,"internet":13547,"ming":13548,"Ġcarro":13549,"DED":13550,"unce":13551,"Ġcancellato":13552,"sare":13553,"Ġfuturi":13554,"nMed":13555,"Ġuscite":13556,"Ġrimbalzo":13557,"ĠUnico":13558,"ĠTUTTO":13559,"9325":13560,"ĠAdd":13561,"nRichiesta":13562,"fondimenti":13563,"ĠĠĠĠ":13564,"9607":13565,"346":13566,"199":13567,"Ġcostituiscono":13568,"Ġnegativo":13569,"Ġdisagio":13570,"nPe":13571,"Ġindividuali":13572,"Ġtosc":13573,"Ġelevata":13574,"::":13575,"Ġscritte":13576,"Ġ85":13577,"KA":13578,"Ġprem":13579,"430":13580,"ppare":13581,"Ġ52":13582,"739":13583,"missario":13584,"Ġintito":13585,"Ġcombusti":13586,"foglia":13587,"dec":13588,"704":13589,"Ġlampa":13590,"ĠRO":13591,"Ġrinfor":13592,"Ġmantenimento":13593,"ferma":13594,"RIE":13595,"esposizione":13596,"nArgomenti":13597,"Ġdivieto":13598,"ĠGenerali":13599,"onaco":13600,"nMA":13601,"Ðº":13602,"avan":13603,"ELLI":13604,"ĠPon":13605,"Ġricchi":13606,"ĠMay":13607,"ĠImmer":13608,"Ġaccettato":13609,"Ġpubblicazioni":13610,"ĠsvolgerÃł":13611,"hed":13612,"Ġtempesti":13613,"Ġoperare":13614,"Ġcaricare":13615,"viano":13616,"662":13617,"nPrecedente":13618,"Ġfuture":13619,"658":13620,"DDD":13621,"Ġconseguente":13622,"414":13623,"99995":13624,"erogazione":13625,"Ġmanuali":13626,"And":13627,"Ġcondotto":13628,"ĠMolti":13629,"Ġpromosso":13630,"baldi":13631,"Ġcompiti":13632,"9456":13633,"ĠBorgo":13634,"ÃĤ":13635,"Ġcontempo":13636,"Ġfossi":13637,"Ġ[âĢ¦]":13638,"Ġja":13639,"Ġsalvati":13640,"Ġdista":13641,"RB":13642,"ael":13643,"Ġbritann":13644,"ĠBambini":13645,"Cli":13646,"time":13647,"EX":13648,"ĠED":13649,"ĠReserved":13650,"Ġend":13651,"Ġpoteri":13652,"Ġamanti":13653,"talogo":13654,"FN":13655,"inistro":13656,"Ġrestano":13657,"Ġcandidato":13658,"308":13659,"Ġrumore":13660,"ĠBur":13661,"ool":13662,"9950":13663,"ffo":13664,"pes":13665,"9881":13666,"Ġpesanti":13667,"Ġgiunta":13668,"Area":13669,"PQ":13670,"copo":13671,"ESTO":13672,"idenza":13673,"istruzione":13674,"Ġomaggio":13675,"9891":13676,"nAccessori":13677,"Ġpartendo":13678,"9645":13679,"Ġtestimonianze":13680,"ĠGiornali":13681,"Ġpiaciuto":13682,"ĠPes":13683,"Ġsusc":13684,"Ġoccidentale":13685,"Ġdisper":13686,"ĠCaldaia":13687,"ĠBla":13688,"Ġchiamare":13689,"irente":13690,"ĠConsigli":13691,"672":13692,"319":13693,"umere":13694,"pica":13695,"Ġcandida":13696,"Ġcastello":13697,"Ġnonna":13698,"ÑĢ":13699,"loco":13700,"ĠSin":13701,"ĠPUBBLI":13702,"nGa":13703,"Ġdestinato":13704,"Ġquinto":13705,"Ġest":13706,"Ġprotette":13707,"Ġlavorando":13708,"Ġcontrattuali":13709,"ellenza":13710,"330":13711,"ĠLin":13712,"!)":13713,"Ġinnamo":13714,"Ġpoveri":13715,"EDIA":13716,"patia":13717,"Ġbasata":13718,"Ġprezioso":13719,"Ġsosta":13720,"run":13721,"Ġrubrica":13722,"ĠSONO":13723,"();":13724,"425":13725,"ial":13726,"Ġmand":13727,"architettura":13728,"Ġriposo":13729,"ĠEDI":13730,"cchino":13731,"Ġgestiti":13732,"ches":13733,"Ġraggiungimento":13734,"ark":13735,"flix":13736,"ĠBrianza":13737,"ĠProdotto":13738,"Ġevoluzione":13739,"nSalve":13740,"alori":13741,"496":13742,"ĠFabrizio":13743,"indisi":13744,"488":13745,"ĠClienti":13746,"8365":13747,"Ġposteriore":13748,"oot":13749,"Ġlogi":13750,"ĠService":13751,"Ġrele":13752,"641":13753,"Ġamericani":13754,"%)":13755,"Euro":13756,"nCinema":13757,"Cookie":13758,"Ġpreved":13759,"Ġtalvolta":13760,"521":13761,"mage":13762,"Ġpittura":13763,"569":13764,"487":13765,"ĠBell":13766,"9912":13767,"ĠMartino":13768,"Ġscusa":13769,"Ġelettriche":13770,"Ġdettagliate":13771,"ĠCEST":13772,"Ġdescritto":13773,"piÃ¹":13774,"entata":13775,"ĠAmici":13776,"Ġpossiede":13777,"bles":13778,"ĠTeo":13779,"Ġlett":13780,"ĠZan":13781,"Ġmistero":13782,"golare":13783,"Ġprovenienza":13784,"417":13785,"Ġincora":13786,"nBe":13787,"Ġresp":13788,"ĠVarese":13789,"542":13790,"725":13791,"orni":13792,"Ġelettronici":13793,"Ġministero":13794,"Ġagri":13795,"Ġeman":13796,"Ġtab":13797,"ĠVA":13798,"Ġtrenta":13799,"nleggi":13800,"Ġassai":13801,"DAC":13802,"Ġindispensabili":13803,"osting":13804,"nAff":13805,"Ġverdure":13806,"celle":13807,"ĠTRATTA":13808,"9800744":13809,"ĠRegioni":13810,"ðĿĻ":13811,"Ġincu":13812,"ĠUp":13813,"Ġfotografica":13814,"Ġinnovative":13815,"tituti":13816,"han":13817,"Ġscrivi":13818,"nIndice":13819,"Ġtassa":13820,"ĠFamiglia":13821,"function":13822,"cessario":13823,"side":13824,"nNuovo":13825,"ĠâĢĭ":13826,"Ġcommenta":13827,"Ġrelax":13828,"649":13829,"ĠNavi":13830,"AutoritÃł":13831,"Ġdedicate":13832,"668":13833,"ĠBrasile":13834,"Ġricordiamo":13835,"ĠQuello":13836,"Ġinviando":13837,"ĠGratis":13838,"ĠQuest":13839,"PRE":13840,"Ġcoach":13841,"natura":13842,"Ġinsu":13843,"ĠdignitÃł":13844,"pace":13845,"visti":13846,"cetta":13847,"Ġinsa":13848,"ace":13849,"Ġcomplessivo":13850,"Ġcogn":13851,"nSicurezza":13852,"Ġraggiunge":13853,"Ġsuperato":13854,"Ġshopping":13855,"9960":13856,"Ġinaugu":13857,"Ġtabella":13858,"nSocietÃł":13859,"Ġallenamento":13860,"JO":13861,"Ġsinc":13862,"onesi":13863,"ĠSPA":13864,"Ġdelicato":13865,"Ġsuoni":13866,"ĠImmag":13867,"782":13868,"Ġgenerato":13869,"ĠPiero":13870,"antova":13871,"ĠUniversity":13872,"bita":13873,"9992":13874,"ĠCorre":13875,"626":13876,"America":13877,"Ġconnet":13878,"gressi":13879,"Ġvivi":13880,"MON":13881,"ĠAgenzia":13882,"Ġcron":13883,"ĠPagina":13884,"Ġaffa":13885,"Ġsottoscrivere":13886,"icuramente":13887,"ĠKit":13888,"Bu":13889,"Ġdisegni":13890,"Ġannuncia":13891,"Ġartificiale":13892,"Ġinizialmente":13893,"nPosso":13894,"Ġdiretti":13895,"Ġrinas":13896,"Ġinta":13897,"Ġrappresentante":13898,"Ġbrani":13899,"ennio":13900,"Ġdisposto":13901,"nPu":13902,"iate":13903,"Ġantiche":13904,"DAA":13905,"velo":13906,"9790":13907,"colta":13908,"Web":13909,"Ġappartenenti":13910,"ĠPet":13911,"ordinamento":13912,"Ġconcreto":13913,"cis":13914,"Ġrimangono":13915,"Ġpreparato":13916,"mode":13917,"ultati":13918,"ĠGeo":13919,"493":13920,"italiano":13921,"Ġlead":13922,"Ġavventura":13923,"ĠAltro":13924,"interpre":13925,"gitto":13926,"Ġodi":13927,"Ġchef":13928,"585":13929,"LTI":13930,"FAA":13931,"fili":13932,"UQ":13933,"Ġvolti":13934,"cit":13935,"Ġnaso":13936,"vetta":13937,"Ġapprofondimento":13938,"ĠComment":13939,"9656":13940,"Ġvor":13941,"GD":13942,"nPER":13943,"ichi":13944,"Ġracchi":13945,"ttina":13946,"Ġimmaginare":13947,"ĠVIDEO":13948,"Ġusata":13949,"622":13950,"ttualmente":13951,"728":13952,"lessia":13953,"ĠISO":13954,"385":13955,"cela":13956,"tags":13957,"TOR":13958,"sorzio":13959,"ĠCOOKIE":13960,"nGo":13961,"671":13962,"ĠvisibilitÃł":13963,"Ġdiceva":13964,"ostri":13965,"ners":13966,"cchiata":13967,"nFAQ":13968,"9635":13969,"Ġdirigenti":13970,"Ġcra":13971,"9466":13972,"Ġriflessioni":13973,"ĠIMP":13974,"Ġamare":13975,"652":13976,"npre":13977,"Ġalimenta":13978,"ticon":13979,"Ġbambina":13980,"370":13981,"Ġpalco":13982,"Ġinviata":13983,"ĠInfine":13984,"Dis":13985,"746":13986,"ual":13987,"Ġconcorrenza":13988,"Ġsvaria":13989,"9636":13990,"tted":13991,"KS":13992,"744":13993,"340":13994,"Ġaccetto":13995,"ishlist":13996,"=\\\"\\\"":13997,"Ġsensori":13998,"Ġanonime":13999,"2525":14000,"Ġmetriche":14001,"Ġvalorizzare":14002,"Ġconvinto":14003,"Ġintellettuale":14004,"EEA":14005,"ĠgiÃ¹":14006,"ĠvirtÃ¹":14007,"Ġlimone":14008,"Ġcontinuano":14009,"Ġfascino":14010,"miliano":14011,"Ġdici":14012,"conti":14013,"Ġ..":14014,"Id":14015,"9890":14016,"scuola":14017,"ometrici":14018,"336":14019,"Ġsupportare":14020,"317":14021,"ĠEnzo":14022,"ĠIsa":14023,"album":14024,"Ġadmin":14025,"Ġpubblicate":14026,"Ġinformatico":14027,"ĠRisto":14028,"Ġeffettua":14029,"nAttenzione":14030,"ĠLatina":14031,"549":14032,"disattivare":14033,"arden":14034,"ĠpovertÃł":14035,"nLuca":14036,"Ġartista":14037,"Ġrid":14038,"642":14039,"ĠMercato":14040,"ĠPass":14041,"ĠLuna":14042,"inone":14043,"phpBB":14044,"EGLI":14045,"WH":14046,"ĠOrgani":14047,"Ġadottare":14048,"9623":14049,"ĠFree":14050,"Ġincludes":14051,"âĺ":14052,"ĠCentrale":14053,"Ġpropag":14054,"Ġmostre":14055,"Ġprevisione":14056,"Ġtrasformare":14057,"Ġcicli":14058,"Ġintenzione":14059,"ttolica":14060,"ĠDante":14061,"Ġquarta":14062,"415":14063,"9536":14064,"ĠCanada":14065,"Ġfenomeni":14066,"inismo":14067,"ĠNumero":14068,"Ġbere":14069,"404":14070,"Ġchiese":14071,"nPO":14072,"Ġmassaggio":14073,"Ġteso":14074,"paolo":14075,"nr":14076,"Ġpazienza":14077,"vs":14078,"ĠANCHE":14079,"Ġabbraccio":14080,"gherita":14081,"Ġfornirti":14082,"Ġmilan":14083,"9810":14084,"ĠCompagnia":14085,"nMedia":14086,"ining":14087,"nContra":14088,"autorizzazione":14089,"ĠGiovan":14090,"Ġgiri":14091,"Ġconcentrazione":14092,"erale":14093,"Ġriservato":14094,"9677":14095,"ĠGiustizia":14096,"Ġsanitarie":14097,"erei":14098,"fini":14099,"performance":14100,"ĠnÃ¨":14101,"nSalva":14102,"298":14103,"707":14104,"laggio":14105,"ĠNelle":14106,"Ġspessore":14107,"lenza":14108,"lane":14109,"Ġspendere":14110,"ĠConferenza":14111,"quet":14112,"Ġstoriche":14113,"fault":14114,"Ġoperatore":14115,"ĠSettings":14116,"Ġestetica":14117,"Ġpc":14118,"anu":14119,"ĠCommercio":14120,"KI":14121,"Ġcaratterizzato":14122,"Ġusano":14123,"94046":14124,"DBA":14125,"Ġspar":14126,"alizzare":14127,"ĠUmbria":14128,"nInterviste":14129,"leo":14130,"ĠSve":14131,"Ġevidenzi":14132,"Ġfinita":14133,"Ġmusei":14134,"Ġlomb":14135,"pacitÃł":14136,"530":14137,"Ġrall":14138,"nSol":14139,"Ġhas":14140,"Ġborse":14141,"BM":14142,"ĠLucia":14143,"Ġbudget":14144,"423":14145,"JX":14146,"teneo":14147,"nCred":14148,"universitÃł":14149,"indagine":14150,"Ġtransizione":14151,"Ġfrattura":14152,"Ġcontinuamente":14153,"rage":14154,"tea":14155,"Ġmesti":14156,"ĠDIRE":14157,"Ġsignora":14158,"ĠFeb":14159,"obbligatorio":14160,"724":14161,"ĠBella":14162,"assessore":14163,"sterone":14164,"ĠUomo":14165,"ĠModer":14166,"ggiati":14167,"ĠACCE":14168,"Ġrifu":14169,"Ġstadio":14170,"318":14171,"ĠLife":14172,"Ġatleti":14173,"644":14174,"406":14175,"Ġfondata":14176,"Ġprospettive":14177,"Ġcorrispondente":14178,"foglio":14179,"ĠNonostante":14180,"centro":14181,"ĠTrentino":14182,"Ġvaccini":14183,"Ġprovider":14184,"Ġmancano":14185,"support":14186,"Ġrespira":14187,"ĠPronto":14188,"ĠStelle":14189,"Ġsofferenza":14190,"Ġadi":14191,"Ġcus":14192,"Ġvag":14193,"Ġbraccio":14194,"495":14195,"Ġaggiornati":14196,"ĠLine":14197,"viewed":14198,"Ġabiti":14199,"Ġromano":14200,"kno":14201,"Ġpel":14202,"ĠMobili":14203,"Ġgaranzie":14204,"ĠGLI":14205,"Ġneri":14206,"Ġlanciato":14207,"ĠciviltÃł":14208,"Ġascolto":14209,"538":14210,"VZ":14211,"larsi":14212,"uoco":14213,"assunzione":14214,"ĠCrea":14215,"bbigliamento":14216,"pas":14217,"Ġonde":14218,"VP":14219,"Ġproteine":14220,"Ġsaluti":14221,"ÑĤ":14222,"9486":14223,"Ġover":14224,"ometro":14225,"ĠMade":14226,"Ġservire":14227,"784":14228,"ccante":14229,"nCri":14230,"Ġtocco":14231,"Ġcapita":14232,"Ġcolor":14233,"Ġruote":14234,"BL":14235,"JQ":14236,"acquisizione":14237,"Ġstrano":14238,"Ġreclamo":14239,"etooth":14240,"Ġvergo":14241,"Ġavvocato":14242,"9478":14243,"Ġimma":14244,"ĠES":14245,"agricoltura":14246,"fficina":14247,"meo":14248,"Ġfinora":14249,"ĠPag":14250,"Ġ1992":14251,"Ġocchio":14252,"Ġcrescente":14253,"nBo":14254,"SSA":14255,"nPaolo":14256,"ĠFino":14257,"ENDA":14258,"informa":14259,"Book":14260,"tice":14261,"Ġcibi":14262,"Ġgioielli":14263,"Ġ51":14264,"Ġarchitett":14265,"Ġideali":14266,"cellona":14267,"Ġensures":14268,"Ġbonifico":14269,"FES":14270,"FAB":14271,"nISCRI":14272,"ĠCognome":14273,"elfare":14274,"Ġromana":14275,"Ġinteressare":14276,"onn":14277,"Ġvalle":14278,"nCir":14279,"ĠTitolo":14280,"Ġdroga":14281,"WZ":14282,"Ġchiacchi":14283,"cciato":14284,"Ġcurato":14285,"andone":14286,"ĠBianca":14287,"Ġ54":14288,"nOn":14289,"ACD":14290,"giorni":14291,"Ġdebu":14292,"Ġconsigliere":14293,"ENO":14294,"Pri":14295,"Ġtroppi":14296,"Ġdisocc":14297,"DEE":14298,"Ġforniscono":14299,"Ġcoinvolgere":14300,"Ġstudiato":14301,"ĠEURO":14302,"titÃł":14303,"ĠOvviamente":14304,"ĠScaldabagno":14305,"ĠChrome":14306,"revole":14307,"ĠQuartiere":14308,"pubblica":14309,"uncio":14310,"ĠTipo":14311,"zzina":14312,"Ġreci":14313,"Ġum":14314,"omali":14315,"Ġperfino":14316,"ĠRiser":14317,"ĠAssicura":14318,"ĠInsomma":14319,"UTI":14320,"Ġosser":14321,"tran":14322,"645":14323,"goni":14324,"Ġcocco":14325,"621":14326,"9604":14327,"Ġscand":14328,"olore":14329,"nSil":14330,"335":14331,"solini":14332,"gat":14333,"Ġdelibera":14334,"ĠSpirito":14335,"nInizia":14336,"ĠLar":14337,"Ġvan":14338,"Ġfeb":14339,"medio":14340,"299":14341,"Posta":14342,"DCC":14343,"marsi":14344,"Ġestremi":14345,"Ġsicili":14346,"Ġesprime":14347,"Ġavatar":14348,"Ġtrasporta":14349,"ĠWh":14350,"Ġapplicabile":14351,"nComunicati":14352,"Ġpagato":14353,"Ġdiventando":14354,"Ġdono":14355,"ĠFiscale":14356,"Ġguidata":14357,"Ġatmos":14358,"9683":14359,"Ġlug":14360,"Ġadatti":14361,"Ġdinamica":14362,"Ġcelebre":14363,"776":14364,"648":14365,"lation":14366,"Ġbosco":14367,"Ġdeterminazione":14368,"ĠTomma":14369,"9050175":14370,"Ġrettifica":14371,"Ġbanda":14372,"Ġcarabinieri":14373,"Ġaccompagnato":14374,"zionatore":14375,"627":14376,"584":14377,"ĠAllora":14378,"ĠCerca":14379,"ĠabilitÃł":14380,"iodo":14381,"nRecensione":14382,"Ġprestigi":14383,"ccini":14384,"nPorta":14385,"Ra":14386,"Ġchiamate":14387,"DCD":14388,"735":14389,"Ġrinnovo":14390,"ĠDidattica":14391,"594":14392,"Ġinverno":14393,"ĠPresen":14394,"nYouTube":14395,"chat":14396,"ĠBenedetto":14397,"Ġpensando":14398,"Ġartt":14399,"Ġriser":14400,"JI":14401,"albero":14402,"Ġricchezza":14403,"413":14404,"Ø§":14405,"FAE":14406,"nAnti":14407,"GC":14408,"Ġfumo":14409,"Ġvers":14410,"Ġjo":14411,"VH":14412,"nAncora":14413,"9624":14414,"Ġ59":14415,"ZZI":14416,"9674":14417,"pet":14418,"646":14419,"ĠBat":14420,"Ġalunni":14421,"Ġaccompagn":14422,"Ġpluri":14423,"unte":14424,"Ġglo":14425,"nEntra":14426,"656":14427,"Ġebre":14428,"fari":14429,"Gu":14430,"750":14431,"RT":14432,"onomia":14433,"9708":14434,"545":14435,
[...]
