#version: 0.2
l a
" :
o n
e n
Ġ k
r o
t a
Ġ la
Ġ d
Ġ p
a n
e l
, "
o j
t i
e r
a j
": "
" ,"
Ġd e
r i
l i
e s
{ "
a r
Ġ s
t o
p ro
la b
u l
Ġ a
pro b
lab el
e o
i n
i s
Ġ m
o r
9 9
} ,
a s
t e
r e
Ġ n
Ä Ŀ
n ul
Ġk aj
nul l
}, {"
u n
Ġ es
Å Ń
Ġ v
Ġ en
r a
0 0
Ġ f
i d
o m
Ä ī
a l
c i
e k
ta s
Ġk i
l o
. \
d o
u r
t oj
w ar
e d
Ġ t
a m
Ġa l
â Ģ
war c
l e
Ġ Äī
t en
Ġ 1
k a
Ġ ti
Ġ (
2 0
i o
Ġes tas
i g
d a
Ġ li
Ġ E
Ġ L
k o
Ġ h
Ġ K
Ġ S
, {"
Ġ in
o v
ta j
Å Ŀ
t er
Ġ M
Ġ b
Ġ re
c on
ti s
Ġ A
p er
i a
Ġ P
Ġk on
o s
t u
f i
Ġp or
Ġ o
er s
Ġ j
oj n
Ġp ro
Ġn e
Ġ i
e m
Ġ g
99 9
u m
Ġv i
p o
u j
c a
Ġ an
p e
u s
Ġ T
Ġp ri
r an
la n
ro j
i ta
aj n
Ġ el
Ġ e
Ġm al
Ġ ÄĿ
Ġm i
u a
\ "
Ġ âĢ
c o
ten t
g o
t on
con tent
ĠÄī i
Ġ B
i k
v o
Ġk un
9 8
c e
2 2
s h
Ġ R
id en
ĠL a
v i
d i
1 1
m o
g e
Ġ ek
Ä µ
Ġ N
Ġ 20
a d
Ġk e
t y
per an
Ġ I
g i
Ġ D
d e
1 2
l u
Ġk om
Ġ 2
Ġ ÅĿ
r es
Ġ F
iden ti
9 7
Ġs u
n L
Ġ V
n g
Ġes tis
identi fi
r u
Ġa ÅŃ
": {"
ta n
a k
z i
Ġp li
a v
8 4
m a
Ġp er
ri s
ti on
Ġ C
1 3
ĠE s
p a
m e
k on
9 6
t ra
Ġd i
Ġ G
8 5
9 5
h e
i l
t ri
00 00
Ġ un
d on
b o
1 0
Ġki el
Ġ U
9 4
1 5
8 7
v a
Ġp a
Ġin ter
Ġ H
8 6
Ġ J
a ÅŃ
ka ÅŃ
1 4
Ġ -
ur n
Ġp ov
Ġ Ä
ÄĿ o
Ġs i
1 6
k i
1 7
Ġki u
8 3
o l
a ci
9 3
te m
d u
8 0
m an
Ġ ri
u z
v ers
e b
n K
la s
": [
Ġ ar
r en
2 7
ĠEs peran
2 5
Ġi li
n E
g a
u u
k s
j o
on i
Ġa li
on o
ca tion
t l
Ġn i
n P
n i
ty pe
Ġ \"
":" <
0 4
identifi cation
uu id
} ,"
t ro
a la
Ġp re
Ġs en
s en
c h
tl sh
Ġp o
in g
ti n
z o
2 3
Ġti u
ĠÄī e
l en
p on
k ti
nL a
is to
t h
2 6
Ġf or
0 6
2 4
> ","
ÄĿ is
Ġ O
b ro
v en
i on
Ġki uj
n A
Ġm on
âĢ Ŀ
Ġ c
) \
t p
0 7
m i
n S
4 4
ta r
or d
Ġk a
0 5
toj n
Ġp os
Ġpov as
ta ÅŃ
a do
l oj
Ġh av
Ġs ed
0 3
e ro
1 9
Ġd is
Ġkon s
le j
n o
f or
ci o
go ri
a b
4 7
or g
k u
a ri
m en
Ġp ar
c k
Ġan kaÅŃ
l on
Ġun u
te gori
n M
p i
ĠÄĿ i
4 3
4 6
ĠEsperan to
s o
a ta
Ġli ng
5 6
. .
Ġj a
Ġd a
1 8
5 3
h t
Ġs ur
99 7
Ġt ra
Ġ 3
ik i
/ /
: //
sen ten
Ġp lej
Ġ oni
ĠÄ Ī
v as
0 2
u ri
Ġ uz
v e
d oj
t r
u b
ti ko
on a
n R
k to
li s
5 7
v an
f er
a Äµ
c es
la j
Ġv er
Ġ [
Ġ ta
he ad
n e
b lo
ig i
Ġn om
ĠâĢ ľ
e z
d is
g is
p ren
Ġt u
Ġm ul
es t
ÄĿ as
Ġsu b
p la
ar m
3 3
Ġn ov
Ġh om
Ġ r
g ra
Ġ te
} }
ht tp
Ġd u
p ar
" ]
":[ "
"] ,"
) ,
an i
6 6
Ġ res
d ig
b er
Ġ ra
Ġti o
Ġn ur
5 5
20 22
2 1
in o
] \
al o
en to
Ġm em
p p
k aj
Ġd um
ÄĿ oj
3 7
8 8
Ġs e
ĠM i
Ġ lo
b a
s i
b le
Ġek z
re c
ÄĿ i
e po
ĠI n
u ti
Ġ Â
Ġs ek
Ġ W
n T
n N
li o
Ġj e
n a
k e
Ġla ÅŃ
4 5
da ta
x t
me ta
ar a
b u
el o
3 6
7 7
Ġ tem
Ġ |
g ua
an to
re f
99 6
m oj
n ing
Ġb on
an o
Ġhav as
: \
Ġt ro
ge t
Ġo f
ĠE n
li ty
q ua
te xt
gua ge
f ul
da te
sh a
du k
identifi ed
ca tegori
vers ion
h arm
len g
tar get
n D
v is
] }}
pla in
lan guage
f o
qua lity
0 8
ning s
Ġ2 00
blo ck
leng th
categori es
rec ord
con version
meta data
dig est
war nings
head ers
senten ce
identification s
harm ful
" },"
ref ers
s e
m on
Å ľ
p an
Ġg ran
ka z
Ġek s
2 8
v oj
v id
am en
Ġan taÅŃ
r as
ĠL i
k ri
E A
":[ {"
0 9
ul oj
ed ak
p or
0 1
) .
Ġ le
99 99
ĠÄīi uj
s ta
r on
Ġ l
an te
Ġa k
ri g
p li
t ru
Ġg ra
ĠâĢ ĵ
Ġes ti
an ta
ul o
an toj
Ġa m
} ]}}
Ġv id
Ġt re
3 5
7 6
ri o
http s
Ġn un
ĠT i
ĠR e
Ġo l
Ġm a
f e
n V
edak ti
2 9
k oj
taj n
roj n
Ġpos t
el e
8 9
p le
n B
en c
Ġo kaz
Ġf on
ĠK on
3 4
n Ä
Ġti uj
Ġv en
Ġd o
g u
Ġla n
f a
p ri
Ġv o
Ġs am
o d
Ġki am
ĠâĢ ¢
â Ĩ
in a
Ġs o
al e
ĠÄĿ is
en i
Ġkon tra
ĠÄĿ in
p ed
d as
Äī e
5 4
i r
Ġs ia
e t
Ġali aj
ĠÄ ľ
Ġin s
d aj
da kti
a z
an oj
a li
Ġs er
Ġk re
e j
w iki
n F
Ġs ci
i m
Ġpre z
Ġs in
p re
ĠK om
Ġf ari
ek ti
t re
ub li
g as
Ġar tiko
Ġkontra ÅŃ
ĠÅĿ i
Ð °
ĠA n
Ġ ur
99 8
er n
p u
ĠÄī ar
e a
Ġv or
m in
999 6
C C
Ġj am
4 2
9 0
to s
er man
ÄĿ on
âĨ ĳ
en s
Ġt ri
nE n
tu ro
a t
Ġt ran
a ti
Ġpar to
Ġling vo
Ġm in
er i
Ġ1 9
Ã ©
p l
ĠA r
0000 5
7 5
a ro
w w
lan do
g oj
Ġ ro
ci a
ĠA l
Ġf in
Ġm an
Ġja roj
6 5
Äµ o
n I
Ġ 5
b e
k is
Ġs ta
b i
Ġf un
R edakti
v er
Ġ 4
c en
Ġk el
8 2
e co
v aj
B C
Äµ oj
9 2
7 4
ÅŃ ro
Ġmi li
z a
um o
aci a
9 1
Ġp ers
k or
Ġm or
Ġk o
nÄ Ī
Ġh el
7 3
ĠK i
Ġf i
Ġes peran
Ġs pe
Ġ Z
ri n
k om
D C
Ġkom un
g res
e to
li ng
6 3
Ġ ci
c oj
âĢ ĵ
ek to
e jo
v in
Ã ¡
ĠS e
Ġs ig
Ġf o
Ġmal s
ek s
Ġf ar
ta do
Ġhom oj
an d
en o
vo lu
ĠÅĿ an
ĠâĢ Ķ
ĠV i
Ġm ar
t s
en er
Ġin for
Ġk u
Ġin f
Ġsi an
ã ģ
lo g
p en
F C
Ġti el
3 0
m es
Ġk or
b on
Ġ /
ig o
Ġpa ro
6 7
aÄµ o
Ġun ua
Ġe Äī
Ä ¥
ce p
? \
Ġv ia
A D
id e
u zi
Ġj u
Ġ :
ĠN i
n H
ĠM a
ĠP ro
4 8
ti o
ku to
Ġpo li
p oj
ĠM ar
h o
3 2
d an
B A
. ","
Ġkom en
Ġde vas
Ġe b
u o
Ġ Åľ
Ñ ģ
Ġ1 6
Ġmul taj
on oj
Ġe ble
Ð º
Ġp len
ĠL e
f oj
em bro
ar d
8 1
e c
Ġdi vers
Ġh isto
Ġti e
tri bu
Ġ org
99 5
o k
Ġp lu
ĠÄľ i
Ġ1 7
ti k
999 7
li n
h a
om o
i t
Ġn eni
s er
ri ta
aÄµ oj
.. .
ta ro
ti ta
Ġa per
in e
Ġn ia
2 00
Ġt he
u la
ig is
Ġde c
ĠIn ter
Ġm ia
Ġki un
ĠK aj
ĠM on
4 0
n C
ĠÄĪ i
v on
b or
r aj
el i
L a
Ġ to
Ġtran s
ĠN e
or t
Ġ 6
ĠÂ »
en g
tin y
Ġfon ton
k ul
Ġ1 8
ĠÄīi u
B D
Ġp l
Ġmon do
n s
n J
tu s
Ġli ber
Ġsi m
an a
peran to
k ci
5 1
h av
c om
ĠU EA
Ġ lu
ÄĿ a
ĠU n
Ġti un
k as
di Äī
5 9
ĠS ed
Ġekz is
Ġa par
Ġf a
in i
Ġp as
4 1
ul se
ua ro
E E
Ġm e
! \
Ġri la
m ed
n G
ĠÂ «
te jo
Ġte ks
Ġm ala
A C
Ġki e
E J
ĠR o
ro m
Ð ¸
Ġpro p
4 9
p h
Ġbon e
is toj
Ġc er
ĠP o
z e
Ġi om
5 0
Ġj ar
Ġa g
is mo
ĠF ran
Ġgran da
Ġtu te
k ta
. [
Ġp ubli
Ġk ul
Ġ or
n O
Ġki o
b roj
ad on
ci ala
n ov
Ġk la
a g
Ġli a
Ġk ol
k lu
Ñ Ģ
Ġal don
âĢ Ķ
Ġli gi
f es
Ġa d
ĠaÅŃ to
er a
el oj
min is
Ġorg ani
Ġj un
Ġti on
5 8
) .\
sh ort
senten ces
v ar
Ġres pon
Ġi m
kri b
Ġde man
am i
Ġm ov
em ple
E D
3 8
ka do
k la
Ġdi ris
an g
os t
tem pe
Ġre dakti
te co
Ġ 7
ĠÅĿ ta
ig as
Ġre z
ĠÄī u
Ġpos te
ig ita
Ġ lon
Ð ¾
Ġan kor
5 2
Ġf ak
Ġsig ni
Ġla bo
Ġes tos
Ġmul te
Ġel ek
' '
Ġili n
en toj
Ġur bo
Ġv in
ĠÄīi r
Ġ ren
F A
Ġartiko lo
n acia
Ġri ce
Ġli n
Ġkom pren
ĠÄīir kaÅŃ
6 4
Ġ1 0
Ġtem po
Ġ1 5
âĢ Ļ
B E
Ġ ed
ter i
a to
Ġali a
Ġsu per
Ġb ez
en ta
Ġtro vi
F D
3 9
l ojn
g ran
k ces
Ġan g
t ran
Ġa kti
âĢ ľ
g an
7 2
Ġkel kaj
n U
Ġd aÅŃ
Ġankor aÅŃ
nM i
Ġ20 22
Ġre gis
g on
ĠE l
ĠC h
ci oj
re dakti
i e
ĠP or
Ġta men
i taj
o ro
Ġja ro
Ġf ra
F E
ga do
3 1
ur aj
ĠÄīe f
Ġ w
p lo
eb las
p as
t es
Ġvo las
m ojn
Ġof te
ter a
ped ia
f ri
u d
eb la
foj e
tu ra
u ro
Ġn ek
ĠP a
Ġn o
00 0
Ġk ri
Ġvi an
Ġinter es
EJ O
Ġv oj
r y
nE s
ĠE ÅŃro
Ġa s
ti gi
Ġnov a
u t
E C
ĠU ni
Ġparto pren
ĠV iki
v ita
en co
b oj
Ġpro duk
k am
q u
uj o
A A
Ġti am
Ġm en
il oj
Ġpro gra
f f
Ġt er
Ð µ
.. .\
Ġprez en
n Åľ
Ġn or
a c
is te
Ġling voj
Ġr aj
Ġ Ð
Ġk ar
is kuto
g ita
ĠK a
g ar
Ġla bor
on as
i c
ĠÄīi am
g us
i lo
ti ka
tis toj
ww w
in io
7 1
ed er
B F
âĢĿ ,
b la
Ġan d
Ġp res
Ġfun kci
ĠM al
Ġlo ÄĿ
0000 6
T C
ĠD e
Ġmal f
al oj
c iden
er e
Ġp lan
m ar
d ek
Ġdivers aj
nK i
z oj
m aj
Ġo rig
e x
ped io
Ġp ens
Ġtu ta
id u
Ġp e
a y
Ġd an
ĠKom un
D A
ti ng
Ġ Äµ
m as
wiki pedia
z io
Ġc en
Ġ 0
ĠA li
ĠN ov
Ġi u
u x
à ¤
aci o
Ġg ru
n Ð
m is
Ġp ra
99 4
ik oj
ĠJ o
ĠE k
Ġhav is
99 3
Ġa ten
tegori o
g en
Ġvi vo
ÄĿ in
âĢ ¦
lis te
Ġsi aj
Ġeks ter
e f
ĠU s
am o
em o
\" ,
Ġf ran
Ġ ajn
ita to
Ġo k
Ġ =
p ek
Ġpro j
ĠA ÅŃ
tin o
Ġg erman
Ġo fi
Ġre gi
Ġs tu
id o
k ur
ro s
am a
Äī o
Ġk an
] ]
C D
e la
ne t
z on
Ġsu kces
Ġel don
Ġp en
Ġkom enc
Ġper mes
Ġm od
ĠUni vers
es pon
l er
a taj
ĠÄĪ u
ov e
um ero
Ġl er
Ġn a
\" .
c ento
aj o
o ter
Ġpre ci
6 2
S B
m ul
nL e
Ġekzis tas
ar e
k an
h i
ks i
Ġin d
Ġo p
u ra
gres o
Ġde ta
6 1
te ro
Ġlan doj
Ġdi ras
es to
6 8
7 8
id a
Ġkiuj n
r us
ĠP ar
Ġ on
ta b
eb le
Ġne ces
Ġhisto ri
ti tu
7 0
s ki
Ġmal pli
Ġb ona
6 0
van kam
fo oter
i b
B B
Ġre g
k ra
is pan
Ġm o
head er
el on
Ġpro ble
j a
Ġo b
Ġs an
Ġf aci
Ġde v
Ġsu fi
Ġsi tu
Ġsub ten
d ojn
as ki
on om
E F
Ġ 8
or a
Ġra p
Ġf il
or e
Ġ1 98
Ġd en
Ġ[ [
Ġlan do
Ġsigni f
Ġ â
log io
Ġpa ÄĿo
iste mo
Ã ³
Ġs ol
m al
Ġokaz is
C A
Ġra kon
Ġk am
Ġ20 11
g aj
i te
Ġa pli
ĠI li
Ġka p
Ġk uti
Â «
ri gi
s k
ÅĿ i
Ġ20 20
Ġ z
Ð ½
Ġekz emple
nE l
Ġki on
Ġ1 2
Ã Ń
s a
tr ua
Ġv ers
Ġk ur
Ġ1 3
7 9
nÄĪ i
Ġen hav
Ġk va
E R
D D
Ġ uzi
f io
Â »
pre z
ĠT EJO
Ġla s
Ġjar cento
c er
Ġ20 21
c is
Ġek de
i ÄĿis
SB N
t ur
ĠS an
E B
en d
Ġorgani z
Ġ20 17
ĠT he
s on
ĠÄĿ ener
Ġren kon
Ġm ez
Ġteks to
Ġ Y
ÅĿ o
c aj
tis to
Ñ Ĥ
6 9
Ġsi ajn
kto bro
25 7
Ġ 9
lan d
Ġ1 4
Ġuz as
g io
um e
F F
pi x
Ġ1 1
nK on
p os
Ġin klu
Ġn u
ĠG erman
ĠA m
nT i
Ġins tru
li to
ĠP re
Ñģ Ðº
Ġnom o
Ġpov us
f ero
ex amen
ĠT io
Ġes pri
o u
Ġkons id
tr as
nR e
pa ro
anta ro
D iskuto
- -
u re
Ġpo po
nI n
i ÄĿas
Ġpro pon
Ġe ven
a f
in de
999 8
vo l
o ri
Ġin di
Ġ us
Ġb a
Ġmal gran
l es
v or
li a
li no
A E
Ġre tejo
Ġl ern
nR edakti
i ko
ĠâĢ ŀ
al u
ĠI SBN
Ġm ed
g es
p tem
p is
Äī a
Ġ ru
sta taÅŃ
ris to
Ġdis pon
Ġp la
ajn e
nK a
Ġv ol
un g
Ġkom er
ita n
Ġf oj
Ġang la
f r
Ġg vid
laj n
Ġk tp
ĠR ulse
Ġes tus
Ã ¼
Ġtra du
ĠÄĿ ia
ci on
ĠJ a
nR espon
Ġ em
Ġs per
C B
Ġak cep
e tro
ĠJ u
a ÄĿ
Ġk aÅŃ
T O
Ġf ami
ĠÂ» \
F B
t el
ĠB o
Ġs krib
Ġm ani
vi zi
on e
d em
nP ro
Ġe fi
Ġkon tribu
ala j
pri lo
Ġs em
Ġ ?
Ġfa ris
un d
i an
ph p
ĠD o
ĠUs ono
Ġ20 19
eb r
Ġsci as
> "},"
Ġki es
Ġdec id
ĠR us
p aj
á ĥ
Ġv e
ĠL u
gus to
ĠS u
Ġsi mi
D E
tan te
Ġa b
Ġ ce
Ġrez ul
Ġhom o
od ia
Ġ 22
Ġfar e
ta lo
un a
Ġh a
ĠÄĿ us
Äī i
ĠT amen
nA l
Ġ3 0
1 84
uz ik
97 8
ebr uaro
an uaro
d io
Ġf lu
v u
Ġk var
ko v
Ġk res
C E
Ġspe ci
I n
ĠTi u
Ð »
id anto
h el
E s
99 84
Ġd on
b b
to lo
k ojn
Ġ20 18
k ajn
Ġ {
Ġla sta
Ġb ata
Ġku ra
Ġh t
us tri
Ġde zi
es ti
A B
Ġun i
Ġni aj
van ta
Ġkun lab
t le
ĠUn u
A F
enc oj
j oj
Ġht tp
âĢĿ \
in s
Ġkons tru
men to
Ġpres kaÅŃ
Ġkun e
Ġtra duk
ĠS o
ra zi
Ġd ua
med ia
Ġri gar
Ġek onom
in ta
p ubli
Ġkon diÄī
D F
Äµ ojn
ptem bro
c an
Ġsam e
99 86
Ġ Ġ
f on
Ġam as
ĠV er
nP or
Ġj en
v ed
ek z
nA r
Ġfi lo
Ġorig in
999 5
Ġaper is
Ġp i
Ġdi f
ĠViki pedio
Ġ id
Ġb il
li gi
Ġb az
Ġt uj
er on
ĠO r
Ġpov is
Ġneni am
Ġes tu
Ġe volu
Ġka pa
li ta
Ġpro fi
t roj
A N
nA n
U TC
an taj
lo gi
Ġvi aj
Ġ is
Ġa Äīe
D B
ĠJ un
d f
Ġli s
ÄĿ os
ĠO ni
j u
Ġhisto rio
e w
pe ro
Ġpo ten
Ġre da
ĠEÅŃro po
i aj
Ġ20 12
Ġ2 1
ar an
ha vo
99 83
Ġ1 94
te k
ĠP ost
Ġ1 96
b aÅŃ
Ġpro fes
47 3
Ġli bro
Ġvor toj
nK om
k lo
Ġf er
Ġh ej
Ġh o
ĠS i
Ġpri n
x i
b ur
ĠD i
amen ho
9996 257
Ġgra va
Ġbez onas
Ġver e
Ġ *
98 7
Ġtra di
Ġan stataÅŃ
99 87
ÄĿ ojn
Ġre t
es peranto
f un
ã Ĥ
Ġ1 93
Ġn in
ĠD um
ĠÄīiuj n
Ġ uti
Ġ2 4
ĠV idu
ĠP ri
99 85
Ġkons er
80 4
Ġo ku
c c
999 4
Ġ1 97
Ġsub s
ek toj
ĠS en
0000 4
E S
Ġa fi
es e
Ġ ide
ti lo
p res
Ġvi zi
id i
n aci
un o
Ġinfor moj
Ġpa ÄĿoj
ri a
, \
Ġmalf aci
Ä Ī
Ġali an
10 7
Ġi uj
ti taj
nM al
Ġligi loj
1 94
ĠK ar
nS e
z is
aci oj
b d
.\ "
Ġartiko loj
Ġ2 5
da p
ro me
inde x
gra fio
odia ÅŃ
Ġpa ÄĿon
a e
nÅľ ati
Ġmal fer
ĠKi el
ri go
z as
ĠÅĿan ÄĿoj
0 12
Ġinklu zi
Ġde k
to r
Ġn umero
tr on
es tro
k ita
y s
Ġeb las
Ġti a
ven o
Ġr us
Ġs istemo
1 93
Ġtem as
Ġmals am
ĠJo h
or on
ib lio
99 0
ab ri
os i
Ã §
b f
Ġp ren
isto rio
la do
Ġti es
Ġkon ta
Ġg e
Ġf lan
Ġmon a
Ġ .
Ġsam a
Ġal ta
j n
kon s
1 98
Ġkon tro
Ġte k
Ġr el
d ita
en ce
Ġa fe
po ÅĿ
e ta
84 5
Ġtu t
in oj
e g
per is
is i
re ta
Ġvor to
p uti
n oj
ĠF re
999 42
Ġlabo ro
Ġpubli k
ajn o
so cio
Ġv es
C F
e e
Ġ20 13
in to
Ġa t
ĠEs tas
ĠP er
ĠB er
ig a
b c
re k
Ã ¶
ar to
Ġ1 95
Ġmili to
Ġ '
O N
re a
te d
Ġinter nacia
Ø ±
Ġak vo
ĠÄīe fe
ĠAr ki
Ġf ru
ig u
ĠK un
ĠInter nacia
ri no
ur bo
Â °
Ġuz ata
n om
un do
amenho f
en ca
per i
to ro
Ġn aski
v os
Ġnov embro
999 3
Ġk al
ĠC en
b re
ik aj
k um
Ġ <
u ea
da ÅŃ
Ġsignif as
Ġkonsid er
Ġkon f
; \
Ġfran ca
Ġso ci
13 6
Ġk vankam
in d
Äµ on
Ġti om
Ġgerman a
Ġr ulse
en a
999 86
Ø §
Ġpl uraj
Ġ20 15
âĢĿ .
Ġad minis
igi taj
1 95
\ \
Ñ ĥ
Ġaper as
ton o
Ġb u
Ġ X
ter aj
Ġda tu
Ġn en
tin a
u p
Ġ Ã
uzi ko
Ġkons is
b ron
Ġpri s
99942 85
ks im
Ġde s
Ġtrovi ÄĿas
Ġk li
m l
Ġk las
Ġnom e
nov aj
d d
ĠM o
is tem
ko l
Ġpro vi
Ġre vizi
ul ojn
ĠS er
ti gas
Ġs pi
ĠkondiÄī oj
Å ¡
ten o
Ġ20 10
Ġsen pa
ti c
al uti
um a
20 11
Ġpreci pe
Ġ y
ol d
ĠKon greso
va do
ko s
ĠI s
Ġgran daj
Ġden ove
Ġuni vers
de pen
ÅĿ an
prez en
Ġ20 16
Ġt eo
ÑģÐº Ð¸
Ġtiuj n
Ġmem broj
Ġdis vol
en t
ĠÅĿ ajn
M al
Ġk rom
Ġde f
Ġm is
Ġmen ci
Ġs tra
ÄĿ u
ĠÅĿ a
Äī as
' s
Ġed u
ta la
Ġrenkon ti
Ġili a
es a
ona to
l y
ĠKi am
ling va
ĠT ra
tan o
lis to
un i
1 96
nL i
Ġpra kti
per a
Ġlo ko
b ra
Ġm as
v ojn
Ġfar as
f ekti
Ġam baÅŃ
kto ro
Ġfaci le
Ġa pu
Ġkomenc is
Ġ +
Ġ20 14
a go
Ġb i
Ġnov an
ĠM an
99 2
po zi
Ġta go
A T
Ġa ting
li sh
a a
Ġa fero
Ġ2 3
eb laj
nRespon di
Ġmi an
8 87
ĠP ol
/ ","
ĠÄĪ inio
p un
Ġin ten
t elo
eri to
Ġsufi Äīe
Ġo ri
ÄĿ aj
98 6
tru k
Ġt ele
Ġnov aj
Ġe ÅŃro
Ġel ekti
ĠN a
Ġa ki
ti go
k toj
ti gis
Ġp r
ar y
fri ko
v uo
n u
pan io
G O
ĠR i
Ġv ar
Ġpers ono
Ġb y
Ġgru po
tan ta
ĠRulse ÄĿoj
Ġb e
al on
in da
Ġk os
kri bo
Ġper io
Ġ200 8
Ġinf lu
Ġi ÄĿis
à ¦
ad is
tera turo
a h
Ġmal lon
Ġokaz as
m ov
Ġk lu
i re
Ġgran dan
Ġfor mo
Ġesperan tistoj
b io
ÅĿ u
p ita
Ġk vin
Ġ2 7
Ġd om
Ġra por
j on
Ġfin an
ĠK o
c ojn
Ġrice vis
em a
i li
ĠC om
Ã ¤
Ġte mo
Ġpa tro
lan da
l us
Ġ taÅŃ
g ru
ĠaÅŃ s
Ġdeta loj
87 8
Ġok ciden
ĠR es
Ġmon tri
nP ri
j ara
Ġkomen ci
la r
ĠD an
ĠG ra
R O
ko lo
c as
ar on
Ġkre i
v es
4 27
Ĥ ¬
nV i
Ġm uzik
0000 3
um an
Ġma teri
Ġregi ono
ĠS ch
v io
Ġling von
nP li
98 5
ĠB ri
p t
Ġvers io
tu ri
A S
83 9
tu ala
ven is
w a
c f
Ġali ajn
ĠLa ÅŃ
ĠC o
ĠK an
ĠÄī io
80 1
E N
Â ł
Ġkom ple
Ġ er
Ġven is
Ġre k
Ġkar ak
b ri
te ko
Ġhel pi
f lan
in ter
nKi el
vi li
Ġs on
en te
e roj
v igi
f ra
Ð ²
Ġni an
l ono
ti tle
ĠT h
Ġm om
er ka
ti ve
or as
ĠH o
2 98
vid u
te ks
Ġop ini
Ġvo Äī
Ġkon ata
ig ra
Ð° Ñ
b r
Ġi on
Ġprez idanto
Ġg as
om a
ĠN or
nN i
E n
ÅĿ uti
Ġdis ku
u k
n W
Ġkel kajn
ti kaj
Ġpro ksi
ĠFran cio
ĠEsperan ton
dek so
tri no
Ġmul tajn
Ġni v
ĠÄĪ e
Ġs id
ĠT o
nÄĪ u
c he
Ġpl ur
Ġb o
kon diÄī
ĠD io
Ġrap ide
Ġi am
Ġri mar
Ġk ru
pu la
97 7
ĠS ek
Ġprop ra
da do
Ġid eo
ĠM ed
c d
qu e
Ġh odiaÅŃ
ba ck
Ġuz o
Ġ ,
in te
m u
Ġli aj
ĠZ amenhof
l d
Ġneni u
ÅĿ aj
ad oj
ĠR a
Ġsim ple
us o
Ġpro du
Ġp un
Ġpre fer
en oj
ÅĿ oj
ed oj
ĠG ran
m ita
Ġkuti me
tri lo
tu jo
ĠA s
ĠF o
Ġ ...
ov a
ch i
Ġplen um
Ġd ona
Ġdec embro
Ġv ari
tan toj
ĠS ci
Ġkon cer
b laj
Ġprogra mo
Ġpli bon
Ġdi ri
g n
ik e
Ġvi rin
Ġpo zi
lo s
aÄµ ojn
Ġ &
ĠGerman io
ad minis
ung ara
Ġhistori on
ĠS ta
n en
Ġdi fer
Ġmal mul
Ġli m
s ka
z aÅŃ
Ġpos ed
Ġmov ado
ed io
06 5
per io
k un
Ġen e
Ġfari ÄĿis
f lu
tegori oj
dis kuto
li gas
Ġha vi
i ma
ng lish
Ġt erito
ã Ģ
ĠG o
ris tan
Ġb al
men aÅŃ
en e
Ġf re
Ġâ Ĥ¬
_ _
5 10
ĠI ta
nul o
Ġunu e
Ġinf anoj
Ġler ne
ar aj
Ġb ri
Ġmon tras
Ġre prezen
Ġf ino
Ġpos tu
Ġre ÄĿo
R I
am e
ik so
. ,
Ġen i
Ġapar ten
ĠIn s
Ġk lo
ti va
par te
Es peranto
ĠÄīe fa
k ciden
Ġju lio
Ġo ktobro
gis tri
t ris
ĠKon s
Ġn aci
z aj
98 4
Ġm ajo
Ġmem bro
don o
p ra
Ġ tas
Ġtut mon
Ġso cia
ĠN o
Ġta goj
ks o
an do
Ġt h
Ġj anuaro
tis ta
ka dem
Ġes ton
en do
el l
s pe
tin gi
re to
ĠF or
nÄ ľ
s oj
99 997
Ġdis vas
ĠÅĿan ÄĿi
Ġ200 9
Ġ1 00
Ġmala l
97 6
Ġa gado
kri bi
85 6
9 14
Ġenhav as
on aj
Ġle g
Âł Âł
Ġre kom
Ġg az
s ek
Ġind ustri
à ¥
Ġ200 7
Ġvid is
ĠÅľ i
Ġili aj
M i
Ġh ispan
Ġs a
Ġkapa b
ĠJ e
Ġvid i
Ġcer te
87 6
Ġv as
Ġregis taro
Ġkons trua
ĠH el
Ġsen depen
ej oj
m eo
nP a
ek ta
Ġkva zaÅŃ
Ġk ov
ĠV ento
Ġde kla
ab lono
ĠAn d
Ġs es
Ġmi l
p ekti
Ġde vis
nEs peranto
ĠG eo
ÅĿ a
i ÄĿo
ĠP li
te ma
Ġproj ekto
Ġe t
Ġkomun umo
\" \
e ter
ĠB ar
p s
d en
Å Ĥ
Ġmar to
la ro
Ġafe roj
z an
15 7
Ġjun io
Ġa ta
g ani
publi ko
res s
di Äīe
Ġapli k
ĠB a
k re
Ġekz em
c b
as a
ven as
Ġo fer
Ġprezen tas
p len
Ġdispon eblas
ti gita
ki vo
Ġ2 6
Ġmon d
m or
nD e
ĠJ es
Ġinter naci
Ġa prilo
ĠC i
ÅĿ ajne
Ġar an
Ġh er
z er
v ero
Ġv al
Ġvi ajn
Ø± Ø
Ġc elo
tra ro
80 6
Ġvol on
ĠEÅŃro pa
ĠMon tri
s tra
nP o
Ġpro ksim
tu re
c to
li bro
Ġv alo
Ġk and
Ġlabo ris
Ġtem oj
um oj
Ġpermes ilo
k isto
Ġf en
f d
Ġre te
Ġso cio
Ġnom bro
ht ml
aci la
tr aj
ĠÅĿta to
ta Äµoj
Ġper e
tar y
kondiÄī ojn
Ġd or
Ġra d
i oj
Ġklo po
pe ciala
'' '
ĠAli rita
ks teraj
om oj
Ġ{ {
Ġliber a
ĠA tribu
Ġpro te
de co
Ð° ÑĢ
Ġs tre
97 3
ĠaÅŃ gusto
Ġe fekti
Ġmal nov
Ġk v
Ġe po
gistri ÄĿi
L I
Ġse ptembro
Ġapu d
Ġpers onoj
Ġkon kur
ĠL o
ĠM ari
es toj
Ġob j
Ġesperan to
g os
Ġfin e
ĠÄĿener ale
ĠS a
Ġm ak
Ġ2 8
m ino
r ajn
ma do
ĠÄĿus te
ĠH a
dap tita
Ġ ord
âĢ ²
k va
ĠD u
Ġal menaÅŃ
on to
ĠH ispan
ĠAn kaÅŃ
ri gis
Ġkul turo
ĠW ay
s u
Ġmor to
Ġser io
Ð ¹
Ġtro vis
Ġti tolo
ĠantaÅŃ e
uz a
ĠÄīiu ta
] [
S am
e toj
eri ko
Ġp ru
z anto
Ġ[ #
Ġb an
83 6
Ã ±
Ġro man
Ġ[# ]\
0 14
fer encoj
i ÄĿin
Ġfak te
Ġdo kum
ĠâĢ ĺ
ula ro
v ajn
Ġaldon aj
) :
Ġlon ga
Ġnun a
an tojn
ĠMa ch
alu ton
Ġk m
Ġrila te
pl eks
ran s
ĠB razi
ula ra
Ġ2 9
adminis trilo
ĠA d
Ġpov os
Ġb ru
1 00
CC C
á Ģ
Ġf abri
Ġbon volu
lo go
Ġam ikoj
Ġliber e
ĠI m
= =
98 8
ĠS te
ig n
Ġ $
k t
rig as
ĠV ir
Ġmalgran da
d ajn
Ġe v
tr um
Ġla r
Ġ200 6
Ġf la
0000 57
Ġvi la
Ġmi aj
96 6
I V
Ġlis to
Ġrevizi oj
log ia
i ka
nLe gi
00005 98
Ġ io
g ojn
ĠK rea
Ġokaz os
Ġbon aj
ĠÅĿ ia
kon diÄīe
Ġs istem
men t
si ko
li goj
ĠF in
j p
Ġpo pula
ta l
ĠKomun aÄµo
tri o
Ġgra vas
97 5
Ġm uziko
Ġvoj a
84 12
ĠL ing
lo v
94 4
osi ero
ĠSan kta
Ġed z
14 4
w e
99 996
Ġkon sen
ar s
Ġ 978
por to
Ġdatu moj
ĠN ea
kom un
97 4
Ġte ro
ĠPol lando
ĠAtribu ite
Ġuz kondiÄīojn
id oj
d in
n os
n ab
ĠN un
Ġproduk toj
Sam kondiÄīe
ĠdaÅŃ re
Ġkor po
d b
f b
Ġaplik eblas
ti ÄĿo
Ġle gi
Ġes plo
m onato
98 3
ĠP i
tre pren
2 20
Ġk van
ĠC on
Ġdi vid
Ġdev us
ĠP os
Ġinter v
A R
Ġki al
ĠEk z
Ġdis tri
d eks
Ġdi re
ĠU N
un ga
er na
as o
Ġsek s
Ġvid as
Ġhom ojn
Ġsam tempe
Ġparo las
nD um
at ur
Ġf ir
d c
Ġgra vaj
Ġfami lio
Ġman ÄĿ
Ġakti ve
nIn ter
Ġm ono
ĠÅĿ in
p ojn
ĠL on
Ġp ron
Ġde pen
Â ·
Ġver ko
k antaro
Ġ Q
Ġen er
di ka
80 5
ĠNea daptita
ĠR om
ul on
Ġpro fun
is ta
v el
Ġti al
ĠTi al
Ġg ener
is h
b an
d s
Ġmul t
Ġperio do
ar do
Ġpro vin
Ġel em
ĠMach ine
Ñ ĭ
BC D
ĠÄī am
In dekso
tu roj
te g
Ġro m
R etro
Ġdu on
ti ÄĿis
Ġt ru
Ġki om
Ġmani ero
pa co
ĠNe w
E ns
f ine
Ġen kon
ĠFre ÅĿaj
Ġd omo
M edio
ci aj
I loj
Ġm erka
u g
Mal novaj
à ´
ts ch
flan ke
nTi u
ĠÅĿanÄĿoj Medio
administrilo Indekso
Ġrevizioj Retro
ĠreviziojRetro ligoj
ĠJ en
ĠRe gistriÄĿi
Ens aluti
Ġsu pro
ĠRegistriÄĿi Ensaluti
or do
Ġtu tan
f c
old id
nV idi
nE k
ta roj
Ġbon an
Ġlon ge
Ġti aj
Ġus ona
Ð ·
vi ew
ĠaÅŃs kul
ĠRus io
Ġc x
8 00
Ġf eli
de ta
pl om
vi l
Ġofi ciala
Ġres tas
ĠPre zo
24 3
p lan
t t
I N
80 3
Ġs truk
ĠaÅŃto ma
ĠJ an
do s
ĠG re
p to
n er
is ma
Ġm eto
us e
Ġver kis
Ġmin u
Ġprin ci
f ab
nK la
ĠU r
Ġas pek
z h
isi ono
E FC
um on
ci e
11 4
Ñ Į
v al
Ġpens as
Ä į
mi lito
Ð ³
16 1
80 87
99 56
Ġen tu
86 6
ĠD is
k vi
Ġunu aj
Ĵ \
Ġfoj e
lo ven
] .
ĠD ec
Ġling va
Ġt en
ĠLe gu
13 5
es ta
ĠWay back
ĠT em
a is
b as
âĢ ¢
bo ok
in taj
Ġg re
Ġli an
Ġnov ajn
il s
98 9
Ġfilo zo
ti a
i ro
ĠEsperan ta
Ġbez on
c x
te roj
Ġvi za
95 5
vigi te
Ġk ad
Ġkom puti
tar kivo
ĠS in
tan to
Ġso la
g no
ĠB u
Ġmor tis
Ġpr ele
un io
8 22
jp g
Ġvirin oj
12 11
ĠpaÄĿon Malnovaj
Ġver koj
Ġp ol
b rojn
ĠArki vigite
Ġur boj
96 7
lis mo
Ġre ali
Ġci r
Ġpoli tiko
ĠÄĿ oj
Ġreda k
Ġspe ciala
ig on
d er
nul oj
tion al
ĠÄīi on
94 5
aÄµ on
k ar
10 3
Ġver a
Ġfunkci as
Ġre tarkivo
J K
Ġind ik
m s
ĠUnivers itato
Ġk ristan
tem pa
Ġd onas
n le
Ġvi v
Ġregis tri
tra do
Ġmals u
Ġmal kov
ter na
27 13
ber t
p ens
99 1
A L
Ġ co
Ġh i
tiko lo
98 2
ek ton
37 36
77 04
Ġen trepren
Ġt urn
Ġde mo
Ġe vi
35 00
Ġc el
Ġka fo
b in
lo ro
an s
+ \
ĠÄĪi uj
Ġ- -
Ġb lan
98 32
ma to
Ġeldon o
Ġ5 0
Ġnom on
ĠS h
37 65
il on
Ġser Äī
Ġ Å
kaz e
si m
nN e
u e
Ġekz amen
ch a
h r
Ġs ti
Ġh ungara
Ġf ik
Ġneces as
E K
Ġsu po
Ġunu an
Ġre gu
Ġfor las
ĠW il
25 01
11 7
Ġmal hel
Ġmal bon
a ce
R e
Ġa ser
nP ost
Ġfak to
fri ka
Ġrek te
Ġhttp s
Ġar e
04 19
Ġdecid is
12 90
c s
Ġmili onoj
ĠM ajo
ĠP ari
kon sen
Ġja rojn
Ġkontribu oj
to li
Ã¡ n
Ġf ebruaro
Ġc om
Ġdeman doj
r un
jo ro
13 4
es s
v alo
Ġ200 5
Ġri f
ĠLi ber
Ġinkluzi ve
20 21
Ġpro ce
Ġsim bo
ran o
b el
n am
ĠEsperan tujo
ima ge
9 06
ĠB on
] ,
Ġkon gres
Ġpers on
li ber
gra ÅŃ
Ġg en
ĠE ter
8 26
K U
Ġm ur
84 7
Ġuz ataj
ab a
02 136
00 3
Ġinfor mojn
34 845
184 51
il do
8412 71
13 841271
27 3736
012 7704
427 0419
8087 804
2713 065
0127704 56
Ġbal daÅŃ
fer enco
Ġres tis
Ġp ez
mi ko
ĠB el
n v
E L
Ġpo la
ta Äµo
ÅĿ is
k er
Ġan ali
ĠA friko
Ġel i
Ð ´
fi les
Åľ ati
Ġan on
10 6
s v
9832 801
nÅľati Åľati
Ġpar toj
ĠÅĿajn as
Ġdon is
vanta ÄĿoj
Ã ¨
e te
o f
ÅŃ tra
. âĢĿ\
99 88
ĠMar to
Ġpoli tika
ki taj
11 3
u i
m er
Ġraj toj
Ġproble mo
b al
Ġfo rigi
z ita
Ġ3 1
Ġrel ig
Ġ %
Ġfun t
Ġnom ata
f ar
Ġin vi
ĠÄµ us
ti ke
Ġsci enc
95 6
pa ri
p x
Ġkon as
Ġsukces is
ĠÄĪ ar
nF ran
ĠK rome
ci klo
Ġ* \
f in
99 80
ĠâĤ¬ \
16 3
ĠBrazi lo
I S
âĢ İ
nEn havo
Ġ 000
ed aÅŃ
ĠM os
ÄĿ e
Ġkon du
Ġa po
Ġp an
Ġpopo lo
Ġri med
ĠaÅŃto ro
ĠK or
ÅĿ ita
Ġ u
ĠRes publiko
Ġret poÅĿ
nK un
Ġhel pas
99 66
Ġsenpa ge
c isto
ĠM ul
Ġepo ko
nL o
nle gu
d am
1 85
Ġmom ento
âĢĿ .\
d or
ik an
87 4
Ġfari ta
95 4
ik io
Ġlas taj
Ġtre jn
ĠÄĿi aj
ĠO ri
Ġd ia
deta ils
pa ÄĿo
99 999
Ġ âĨ
Ġen havo
Ġkon tin
Ġf u
Ġd oni
Ġo ka
ĠTi el
Ġfami li
Ġparo li
g x
12 5
k res
le zio
Ġm u
ĠU K
nL ing
n l
Ġan tik
ĠJ am
ta ta
Ġartiko lon
ĠR u
for mo
ĠÄµ urn
Ġapar te
c ed
Ġtradu ko
U R
di taj
c t
ÅĿ t
Ġgra ve
Ġg la
Ġmal j
O R
Ġven as
man i
ĠO n
k ton
Ġpri va
l ua
ter io
ĠO ktobro
ĠKomun ejo
ĠS ur
ĠÄīef urbo
Ġkla re
Ġja pan
a u
4 80
Ġtro v
l or
Ġinf an
Ġfor ges
Ġp u
b ab
Ġs om
ce jo
lov ak
Ġh e
Ġkomen co
ri la
Ġkom pon
Ġhom a
ĠU kra
v ia
te con
g ale
O M
Ġper f
Ġa tingi
Ġk nab
ĠTi uj
Ġvoj o
Ġler ni
il l
ĠS am
i la
Ġti en
Ġta b
ĠH e
ĠF ak
Ġuz is
Ġde tru
00 7
Ġdif in
Ġre ta
ber g
ke to
pl or
T T
20 3
12 3
9 11
E I
Ġmal b
Ġling vaj
ĠPo li
Ġtri a
Ġver ÅĿajne
to kolo
Ġi un
Ġs il
83 5
b aj
ĠP e
25 5
94 6
Ġkompren as
Ġkon cep
Ġ| |
84 0
p io
Ġi ma
ĠA ng
999 28
Ġal t
per mes
46 3
Ġdemo kra
on ta
12 6
oni ka
Ġdezi ras
Ġser vo
fi r
Ġdivers ajn
f aj
nK io
uza iko
k vo
ra do
85 27
duk is
Ġv a
Ġtem pon
9 03
Ġan ka
ÄĿ us
c y
999 76
25 6
Ġvi von
Ġpar ti
Ġsitu acio
f an
nKla rigo
ard ek
n es
don i
le y
res o
1 86
Ġes per
k in
Ġli teraturo
Ġlo koj
ĠS ud
for m
91 85
ĠF ebruaro
A l
ĠAn taÅŃ
u tsch
Ġraj tas
Ġce las
ĠPari zo
ĠA ra
k tu
for ma
Ġrila toj
ĠP la
Ġdisvol vi
Ã ł
Ġrespon de
por t
96 5
ĠÄĿener ala
at man
ĠK ol
Ã ¢
Ġd el
Ġh on
ĠT ur
in t
Ġ con
Ġre volu
nV idu
nS er
Ġ ris
w it
ĠÄī es
Ġag nos
T A
ĠEter nulo
pro ksi
ĠL an
ĠGeo r
Ġis la
ĠJ os
for moj
87 5
Ġa so
K i
P ro
20 6
Ġjun a
Ġver kisto
Ð ¿
nL aÅŃ
96 3
w i
Ġrespon dis
Ġg ajn
nN or
Ġrekom en
9 26
b ar
× Ļ
Ġb ela
15 6
ĠA prilo
nS aluton
ĠOr gani
U N
\" .\
kadem io
ĠUn io
S peciala
Ġhispan a
ĠM as
ut mon
e v
r ua
Ġh aÅŃ
Ġek i
Ġb ele
Ġi ris
Ġvi r
ig os
bi le
Ġ ;
ĠH en
Ġc xi
Ġsu fer
Ġtri n
999 80
li go
Ġvo lis
11 5
Ġaparten as
Ġin i
84 4
Ġkonsis tas
93 6
à ®
Ġe ten
2 95
ik on
2 14
Ġ x
Ġpoli tik
ra p
ĠHispan io
9 05
nS u
ĠUnu iÄĿin
ĠM in
Ġuz anto
Ġuz ado
cto ry
z y
ÄĿ an
8 24
il ojn
ĠEsperan tista
ĠD em
la mento
da to
ĠG u
Ġdis kon
p ov
k io
ĠP ress
ĠN eder
k cio
g er
n ekz
Ġ4 0
â Ī
Ġprop ono
e con
Ġm aj
el kaj
Ġne pre
ĠR en
trua do
Ġindi vidu
i ty
ÅĿ as
ĠRo tary
87 7
8 13
es peran
c el
nM a
ÄĿ er
ata l
9 17
999 03
ä ¸
uz o
du ko
ĠKa tegorio
Ġligi lo
Ġstu d
ĠPos te
I L
y a
em b
Ġrus a
ÅĿuti ta
o p
Ġpubli ka
Ġmalsam aj
1 97
9 24
ĠC ar
ig oj
ĠIta lio
Ġri g
Ġn as
ĠloÄĿ antoj
Ġfo ri
ri ch
Äī aj
di ÄĿis
ĠM e
95 7
Ġins titu
g ajn
Ġin sta
Ġre vuo
nA li
Ġs al
85 3
ali e
11 6
Ġm esa
nA ÅŃ
Ġkre is
Ġ200 4
14 6
Ġb io
93 4
ĠâĢ ¦
53 6
1 83
en tojn
Ġri vero
S O
ĠN u
Ġs k
ace book
Ġob ser
Ġcen tro
Ġspi ri
s t
Ġnun tempe
en da
Ġpartopren is
ig ado
pun kto
nD an
Ġkap ita
lan taÅŃ
ĠM ala
Ġs pek
80 7
Ġrice vi
ĠÄīef aj
Ġf aj
94 3
âĢ¦ \
Î »
th er
Ġkom par
en aj
Ġkonf li
Ġse p
Ġe ge
46 5
ĠV en
ĠH ar
Ġpartopren i
8527 9185
or k
ĠÅĿ ar
nS ed
Ġs tar
or to
tr y
Ġ[ âĢ¦
99 57
9 23
Ġre kon
ĠB en
Ġdeman dis
Ġofi ci
Ġpris krib
] .\
Ġpoten co
em on
Û Į
Ġti to
Ġho roj
16 6
Ġ ia
n on
ÅĿ ino
Ġsem ajn
n aj
Ġlabor on
or ld
Ã³ n
9 27
tu ga
Ñ ĩ
em oj
nK aj
Ġf id
ta to
85 4
Ġde se
20 5
f ia
99986 887
S D
Ġk as
ĠV o
ĠÅĿta toj
84 6
Ġal por
vi ctory
Ġb ir
Ġgru poj
O V
ÄĿ ejo
ti ÄĿas
Ġor don
Ġskrib is
A M
ĠS tu
z or
z ono
96 4
la ÅŃ
Ġdi plom
Ġn acia
Ã º
L i
Ġci vita
5 00
Ġrakon tas
Ġf av
Ġpa trino
Ġo per
Ġg eo
g um
Ġprop ran
87 3
K a
Ġfre m
Ġsen di
9 04
Ġal vo
15 3
Ġeven toj
Ġopini as
Ġ200 0
Ġin tel
Ġre la
rin de
ĠTi am
22 3
53 4
Ġro lon
94 7
Ġte amo
Ġating is
Ġz org
Ġeks ci
vid e
0 23
Ġa c
Ġb ra
16 7
45 4
c istoj
cen toj
gi p
Ġtro vas
f re
ĠB ur
56 4
mul to
86 4
20 7
ĠH er
es o
Ġkre das
85 7
Ġf al
20 4
Ġfil mo
ĠS ub
f t
99928 21
Ġligi lojn
è ª
ma po
Ġnen ion
Ġplen a
Ġs t
ta g
i ÄĿi
Ġli broj
S U
Ġdeman do
Ġmalnov a
f ono
Ġta gon
Ä¥ a
Ġj us
ĠP ers
ad io
Ġedu kado
ĠL in
Ġde ks
86 7
ĠV ik
Ġh al
ĠB ul
en ton
ĠK u
ĠS vis
ĠĠ ĠĠ
tar on
nLe gu
07 6
e ca
ed i
es tis
tan coj
ris toj
E M
8 27
Ä ľ
v ikio
ĠCen tra
ï »
19 23
ĠAÅŃ gusto
ej on
Ġkompren i
h an
Äī is
p ekto
Ġrap id
10 5
ĠH isto
16 5
ĠantaÅŃ a
17 7
ta ri
00 5
Ġe ÅŃ
t uraj
Ġok uloj
Ġc eloj
A n
Ġvi rino
Ġmona toj
O J
Ġorigin alo
Ġre a
em io
25 2
Ġsim pla
ï» ¿
I I
Ġakti v
li gis
in toj
Ġe ga
Ġpro gres
Ġkol ekti
ĠB al
z ojn
Ġproble moj
Ġproksim ume
997 6
Ġev iden
fi ko
3 89
Ġprofi le
ĠT ri
o ur
Ġkon ten
ul e
ĠloÄĿ antaro
ĠÄī ina
ĠD av
ti g
d ia
Ð ¼
Ġar meo
9999 4
z ia
S S
c al
lan toj
Ġar eo
Ġve turi
li ano
Ġs tran
n y
17 5
Ġt raj
Ġvor tojn
c ern
ã ĥ
Ġfor ta
ĠP ra
ĠE x
K on
A J
eks and
ĠN ord
22 7
Ġsitu as
I D
tu ale
nAn taÅŃ
Ġak om
ĠU TC
duk toj
Ġproksi me
i le
O D
ĠÄĪi u
ĠN ur
99 44
tan taj
ran te
tan oj
to m
Ġv ali
ris mo
ĠJu lio
ĠP lej
ĠL ia
Ġafi ÅĿo
èª ŀ
ik ed
Ã¼ r
ĠBri tio
tar aj
ĠIn don
Ġko ro
Ġk anto
ling vo
997 4
ez io
ri oj
ÄĿ anta
tem po
Ġfor te
nÐ ĳ
uz eo
ĠJun ulara
ĠEkz emple
Å Ħ
en on
E T
Ġfru e
Ġre ven
8 94
93 3
k ro
Ġb lo
17 4
8 95
ĠV il
ari o
k y
lon g
Â ²
gra mo
ĠÂ ·
[ [
ĠKom itato
20 20
ad aj
ĠNov embro
25 3
2 13
Ġ ran
ĠP as
Ġnaski ÄĿis
ĠK ul
97 47
Ġnor ma
Ġinter konsen
gra fi
Ġkur so
ĠUnivers ity
en ti
o g
Ġaldon i
Ġbata lo
ĠO kciden
nKi am
om e
li an
Ġen s
20 19
L iked
16 4
ars ov
Ù Ĭ
ci ojn
ĠUnivers ala
17 6
nÅľati Liked
ĠA u
Ġeven to
po li
ig ni
12 7
0 13
Ġd ra
re t
ĠB an
22 6
) ;
t ulo
15 5
Ġcen tra
kom pren
Ġmalfaci le
ma ta
Ġniv elo
O S
l eo
for to
Ġpar ton
10 4
du kti
Ġpropon as
93 7
Ġrezul to
Ġpopo loj
Ġmod erna
ure co
Ġfor m
ka pa
83 3
ĠT e
-- --
Äī oj
ĠN acioj
ki el
Ġge pa
Ġim peri
n as
Ã ¥
Ġedz ino
I T
Ġstra te
Ġgran de
te bla
ĠK io
n Z
n Ù
Ġkon vin
ti kon
Ġh oro
nU nu
96 8
wit ter
Ġfin fine
Ġrel igi
Ġpa co
> \
Ġpostu las
14 5
ĠT ago
ĠJa panio
9 07
Ġp p
pa Ã±
ĠE r
Ġar ki
Ġpre zo
Ġterito rio
Ġe ta
Ġvi vas
Ġa u
Ġn aj
Ġmin is
Ġminu toj
t uloj
ĠK vankam
86 5
di re
85 5
Ġproj ektoj
Ġs kribi
Ġma lantaÅŃ
tu o
ĠJ anuaro
Ġgra van
r eo
Ġflan ko
Ġkon cern
m io
Ġaki ri
ter on
es tas
bur go
Ġel ekto
ri m
unga rio
83 7
Ġar gum
ti vo
05 3
nAr tikolo
15 4
Ġta ks
t z
Ġ ch
âĢ ³
Ġgran d
Ġprovin co
Ġrice vas
ling vaj
in aj
86 3
14 3
Ġo kul
ĠKon gres
ov aÄµoj
et roj
Ġinterv ju
aci on
ĠT er
Ġb alo
ĠÅĿa tas
Ġka tegorio
mi ÄĿis
Ġvi ki
nB ildo
men toj
p loj
ĠE nglish
Ġh um
in on
tion s
88 2
ĠÄľ ener
Ġv an
ĠA kademio
93 5
m os
ĠE ble
ĠE d
33 8
ĠaÄīe ti
Ġmal deks
Ġ ...\
Ã ª
Ġkomun a
ĠR edak
Ġ200 3
ang le
99 89
ĠC or
46 7
h y
Ġa prob
ba ro
ĠÄī a
Ġra dio
ÅĿu tu
Ġkon greso
tan co
07 2
nKa tegorioj
10 2
es ko
ĠB iblio
999 85
ĠGran da
ï ¼
00 6
ok ra
Äī u
Ġde diÄī
lab or
Ġa do
Ġpar tio
N e
Ġka toli
Ġni ajn
tu gu
999 56
05 6
ta don
az ar
ĠLe gi
E G
tion ary
Ġtele vid
Ù Ħ
kur so
w ik
ĠSe ptembro
Ġmal permes
t ta
ĠViki media
M ul
ĠL ern
em aj
Ģ Õ
Ġ200 2
al d
00 4
Ġti an
Ġsen du
8 84
h am
to so
95 3
Ġf ama
999 87
23 4
ĠM ad
w s
Ġes plor
j are
nEl ÅĿutita
22 5
ĠH istorio
Ġtran si
Ġj es
Ġ ''
Ġmal ri
Ġmalfaci la
Ġa mo
12 4
Ã§ ais
Ġri pe
Ġs p
O L
h u
ar ko
ar ki
Ġvi ro
S P
ĠM ia
ĠJoh n
ciklo pedio
S e
Ġinteres a
Äīe tu
9 13
al l
us a
Ġlo ÄĿas
Ġ[ +
Ġkomen ce
Ġna turo
nÄĪ e
Ġr on
ÅĿ to
u el
{ {
Ġpro tek
Ø§ Ø±Ø
Ġhel po
al es
tiko loj
Ġplibon igi
Ġan ta
on g
47 7
Ġgra ma
Ġa ver
ĠV ol
nKa tegorio
bur g
Ġm ina
nB on
tis mo
83 4
mi taj
Ġb iblio
ĠD osiero
Ġplen e
Ġmalgran daj
Ġlo kon
n an
tera tura
nH istorio
ĠâĢ Ŀ
ri do
Ġprodu kto
b las
22 4
Ġsta to
ri an
ĠÂ °
ov o
A socio
ta kto
Ġp le
17 3
K o
Ġa go
ĠM or
lan daj
ur on
997 7
ĠDec embro
ĠEk de
Ġhel pis
b y
20 2
80 2
or aj
ĠC a
Ġpens is
ĠKon si
Ġkonser vi
b lan
ĠIm perio
da Äµo
ĠUnuiÄĿin taj
S T
n omo
Ġam pleks
ab lon
d ro
ar t
li g
Ġre to
ĠF on
tr ar
Ġparo lis
Ġre m
43 9
999 82
ĠÄīi un
ik ojn
W iki
nS ek
26 5
ba roj
voj a
27 8
Ġoku pi
p ng
ĠVir tuala
li m
ĠT u
ku li
Ġkla rig
Ġmal pe
M o
Ù Ī
Ġtek no
d re
Ġi tala
996 7
Ġnor do
ord ina
ĠV arsov
Ġorig ina
8 23
84 3
Ġkompren eble
n or
Ġj ardek
I M
Ġklu bo
Ġprodu kti
Ġkomen toj
nEs tas
9 25
Ġg aran
Ġinter na
ĠÅĿ ajne
Ġlo ka
n de
ca do
13 7
nL as
= &
Ġvi roj
ĠÅľ ablono
n à
Ġkand id
Ġiom ete
) ","
Ġher ed
nT ra
i p
24 6
Ġakom pan
g ne
53 5
land s
ro w
nV er
Ġevolu o
U L
8 11
999 0
ĠU zanto
Ġsigni fo
nE nglish
ni ko
Ġmon tris
um i
ek tojn
Ġkons ci
ĠE ks
33 4
vo le
âĪ Ĵ\
ĠC er
nA Äīetu
ĠÄ ´
Ġa tes
99 47
ĠB os
Ġre ÄĿ
ek cio
Ġf am
Ġekonom ia
ĠEsperan tistoj
N i
Ġn es
Ġsen tas
n la
ĠPo la
Ġmin im
Ġ5 00
ÄĿin ta
Ġkons i
Ġar to
8 86
s ub
Ġsu ges
ĠO fi
ig ante
Ġkon fir
36 5
i ri
ed u
ĠN acia
Ġso li
Ġn ok
Ġ[+ ]\
26 7
mov ado
ov et
Ġinfor mo
ĠG az
ĠMed ia
Ġfor moj
à ¸
Ġt ur
Ġplur ajn
O T
un da
Ġregi onoj
ĠJun io
pozi cio
Ðº Ð°
m m
ĠAÅŃ s
Ġna tura
ĠB e
Ġesperan tis
Ġvid u
ks id
Ġsci i
e Å¡
999 77
Ġim pres
8 83
Ġdu o
f ari
on on
Ġs tri
25 4
Ġakti va
Ġsek reta
Ġokciden ta
ĠT re
98 0
Ġtek n
d li
Ġmal for
ĠD a
Ġd ol
46 6
Ġsu do
Ġel sen
i to
nO ni
11 1
ter e
ĠF er
lo roj
Ä¥ o
in as
Ġfor to
Ġsek va
9 15
æ ľ
ĠÄµurn a
mi ÄĿas
Ġ( \"
ĠI JK
9 16
ĠS al
06 3
Ġes traro
Ġlabor as
Ġ #
13 3
tra ÅŃ
999 84
paÃ± ol
ĠT utmon
57 4
Ġpro mes
Ġfon to
. )
mi lo
ĠKi al
p r
ĠA zio
e do
tri med
Ġinter alie
Ġdistri kto
Ġevi ti
f is
Ġtrov eblas
9747 84
8 15
90 974784
Ġsek ve
Ġprez iden
Ġman kas
K aj
Ġorgani zo
Ġsoci aj
Ġes tab
Ġredakti ta
×Ļ ×
j e
24 7
c ri
Ġ Î
04 5
ab i
Ġmals an
P H
Ġba zi
Ñ ı
ĠNeder lando
t m
Ġvor ton
Ġrulse ÄĿo
Ġsan go
Ġra di
Ġkva li
Ġnom oj
trimed aj
Ġs to
27 7
Mul trimedaj
.\" \
æ ĸ
le co
Ġi ri
Ġsam an
ti kis
999 83
b ojn
a lan
nD iskuto
Ġparo la
Ñĥ Ñģ
ka ro
ĠL as
ĠT aj
ub er
Ġpartopren antoj
Ġ[âĢ¦ ]\
Ġ 02
to ra
Ġs cen
par to
Ġ200 1
9 22
K O
A r
Äī jo
Äī on
Ġentu te
Ġter min
an t
Ġb ran
Ġlon g
ĠIns titu
ka Äµoj
Ġ1 990
eni u
cia lan
Ġkonta kto
Ġsek so
ĠS im
__ __
Ġt end
ĠF i
Ġproduk tado
Ġres pekti
V i
47 4
Ġini cia
Ġelek tis
om as
ÅĿ on
Ġefekti ve
8 93
Ġsci is
Ġkarak teri
ka p
Ġa miko
Ġn er
0 97
20 17
11 2
Ġtutmon da
Ġmed ic
ĠM em
Ġekzem plo
lu bo
à¥ Ģ
ĠFin n
ĠÅĿan ÄĿo
ĠAli aj
en con
Ġv arm
ĠAl eksand
8 85
tur on
56 5
I O
14 7
Ġ era
pen aÅŃ
pro duk
ĠB la
Ġs paco
enc aj
Ġre fer
Ġmon on
Ġsur fa
Ġuz antoj
in fo
vi ce
Ġme ti
Ġma ro
p il
ĠI ru
l om
ĠMar tin
Ġla si
Ġdis kuto
ĠÄĿ uu
Ġs un
Ġk antoj
ĠÄ ¤
ĠÅĿ ul
ci an
w o
re z
Ġpun kto
Ġprote kti
1 87
s an
Ġte a
e ton
5 13
nS i
an ton
Ġtra k
om i
ĠG i
w er
Ġdi rek
00 2
nN o
ĠE du
389 13
ra m
ĠF acila
gi on
ĠAr men
l l
nI ta
Ġindi ÄĿ
Ġd un
j i
Ġpermes as
999 2
Ġmod ern
voj o
Ġfo rig
pl y
por ta
lis toj
ve la
F ran
Ġs kri
Ġunu o
Ġb ar
ĠÄĿi an
Ġesperan tisto
ma il
Ġinter ÅĿan
s tro
Ġd er
9 12
72 15
Ka tegorio
47 6
ma ro
po la
Ġide oj
i th
g h
en ci
en taj
nC i
Ġor do
ĠF ili
Ġle vi
Ġb as
Ġmi ks
4 16
Ġes cep
ÅĿ ta
ĠV al
Ġfun d
Ġ 04
10 1
Ġproble mojn
Ġm us
ĠA peris
Ġme ta
ĠantaÅŃ en
Ġkons ta
Ġkunlab or
Ġfir ma
ko do
b ek
Ġinter pre
, âĢĿ
ĠK e
ĠB ra
Ġk rome
li taj
Ġg x
Ġnen io
Ġkom p
ty le
Ġkomenci ÄĿis
00 1
44 6
ĠJe an
ri el
to roj
Ġkel k
Ġnov aÄµoj
ĠA socio
Ġhom aj
ĠKom isiono
03 3
200 5
Ġci vili
Ġkunlab oro
Ġling vojn
ĠC am
van o
ah asa
Ġord in
em i
Ġeks tre
Ġsig no
26 6
ĠArki vita
Ġokaz e
Ġal terna
li ni
ĠO f
nG eo
lan te
Ġmal graÅŃ
Ġpi ed
Ġn ig
Ġnom iÄĿas
ven on
Ġ os
kul turo
Ġafi ÅĿoj
zis tas
Ġpren is
ordina toj
em in
Ġfund amen
Ġkva lito
Ġvila ÄĿo
b en
ĠV in
Ġsistem on
Ġkvan to
nA peris
ĠP an
ĠRedak cio
Ġser Äīas
li oj
Ġhav os
Ġe gale
c id
ĠR adio
Ġves per
so lu
Ġplej parte
al ojn
Ġrimed oj
33 3
Ġdu ono
ĠHel po
ĠH in
Ġbil doj
nD i
T he
Ġpar te
Ġsimi la
em e
29 2
ĠUn esko
Ġd ub
nM ar
tu m
Ġmal var
27 6
nÄľ i
07 3
ĠPar tio
Ġpe tas
ĠP etro
ĠS AT
Ġkon cen
ÑģÐºÐ¸ Ð¹
43 3
T P
Ġesper as
26 3
8 96
Ġju nuloj
Ġka zo
Ġka tegorioj
Ġunivers ita
l ern
Ġsci enca
ĠM ek
ĠN umero
tik ed
te la
Ġn eder
Ġdu dek
ĠaÅŃto rita
Ġl um
ĠD ua
Ġpoli tikaj
8 25
ĠNov a
k le
Ġteks toj
I P
Ġili an
ĠC as
nKon s
Ġv un
46 4
Ġpar t
Ġekzis tis
Ġsta tu
Ġdef en
f os
Ġd ama
23 5
kons tru
v elo
ĠRulse ÄĿo
Ġar me
edaÅŃ rinde
997 7215
ĠMon da
ĠM aro
ge bla
Ġen ciklopedio
ĠS ovet
ĠEl ÅĿutu
Ġka po
Ġ taj
ik eco
Ġsubten i
56 6
ĠMedia Wiki
1 22
ĠÄĿus ta
57 6
Ġinfor m
Ġinternaci aj
Ġsem ajno
ĠaÅŃtoma te
Ġ6 0
Ġvid eo
ĠB ona
Ġde venas
Ġa dap
Ġrela tive
Ø§ ÙĦ
ĠK risto
Ġf aro
Ġv on
Ġpa ci
æ Ĺ
el ojn
Ġli bron
ĠÄĿ en
z ado
nP lej
ti vaj
Î ¹
uz is
ti an
ĠTi e
Ġ Ñģ
e oj
Ġb razi
Ġkol ekto
Ġins ulo
Ġtrans for
Ġa ro
Ġlabo ri
ig aj
ĠâĢ İ
Ġi ras
Ġtradi cia
po lo
Ġku ke
Ġrigar dis
26 4
s eks
D i
43 6
pres s
Ġmateri alo
53 7
ord oj
Ġprezen tis
23 6
j an
55 5
Ġtran kvi
24 5
fer on
76 3
Ġafe rojn
Ġmen so
P or
om b
Ġdepen das
Ġeks plo
ĠvoÄī don
Ġpro tes
27 3
Ġmalal ta
55 4
Ġa ux
ĠK am
Ġsu da
ĠPa ul
L U
Ġprezen ti
Ġz or
53 3
Î ½
Ġki a
Ġnom ita
Ðµ Ð»
Ġproce zo
Ġto m
Ġnom as
Ġki aj
< /
Ġgre ka
Ġko pi
Ġto r
nE ksteraj
24 4
Ġtem pera
27 4
Ġsek van
Ġadminis tran
Ġn atur
Ġmal of
ÂłÂł ÂłÂł
Ġv ig
9999 5
Ġal venis
Ġtra kta
P o
Ġjar on
ĠSu per
ling vis
us te
ad e
b ata
999 66
Ġa vanta
86 2
Ġinf ano
Ġinkluzi vas
Ġsu pre
Ġpo eto
Ġmalmul te
E U
Ġeki pa
nS en
ĠR aj
tin ta
Ġfar u
ĠÄīiuta ge
l ek
99903 93
lo ko
Ġmem o
lan o
ĠE gip
nDe utsch
35 4
9999 3
nV endo
k arto
23 3
Ġmalb ona
ĠP u
Ġlasta foje
F acila
Ġori enta
Ġvor taro
Ġteks ton
n is
Ġofer tas
20 1
06 7
Ġkons um
. )\
Ġ emo
Ġkon ataj
Ġsin joro
æĸ ĩ
Ġamas komun
á ŀ
fi l
Ġtrans por
Ġdiskon igu
ba ze
87 014
Ġkre ita
Ã© s
ik iloj
nP er
Ġen me
Ġsol da
pis ko
tic le
Ġfoj on
Ġre cen
ĠMari a
ĠW e
Ġre venis
tigi taj
i kado
ĠMul taj
ĠB i
Ġta g
22 2
logi aj
ga ta
Ġan i
Ġn eo
Ġkam po
ĠT a
Ġ identi
999 15
44 5
ĠeÅŃro paj
04 7
I C
Ġa penaÅŃ
pu teko
Äį ina
Ġrelig io
ov i
Ġnor da
Ġmon don
ped i
n à¤
ĠÅĿ ablon
ĠSer vo
Ġb en
44 7
Ð¾ Ð½
914 87014
99 07
Ġa via
ĠÅĿ ton
43 5
li gita
Ġsek vas
ara to
gi taj
Ġali ÄĿi
nU r
Ġb estoj
ĠB lan
T M
ĠD ek
997 3
pren is
R A
ta go
li am
Ġ 09
Ġs or
23 7
c ajn
ĠaÅŃ dis
56 7
Ġmerka to
f ran
Ġlerne jo
tra Äµoj
15 2
Ġkul tura
Ġprogra me
.\" ,
Ġkom panio
ÑĢ Ð¿
ä¸ Ń
Ġno kto
g lo
80 9
ĠP IV
Ġ iden
Ð ±
Ġnek on
Ġcer ta
ĠK os
Ġdan ÄĿ
Ġri Äīa
20 8
ĠFran cis
ĠS lovak
ĠK as
Ġspe co
K A
z u
ĠIndon es
43 7
2 85
d ante
Ġapar ta
ĠK re
ĠV an
fe roj
Ġel sta
Ġrila tas
Ġman ko
ani an
04 3
ER GO
Ġrez er
ka Äµo
Ġko le
Ġespri mo
Ġkom ita
ĠB atman
uri o
Ġflu g
nÄĪi uj
un u
ĠÂ» ,
ĠE Äī
lan ta
8 17
ĠK elkaj
Ġindustri o
ek u
nD o
K om
vi taj
Ġekonom io
nIta liano
Ġkun s
ĠI z
Ġlern is
Ġcen t
Â» ,
d amo
Ġmon ato
J un
Ġa socio
nS ub
P S
ÄĿin toj
ĠJa pan
s ula
nP os
nP ol
Ġpla t
ł ÑĥÑģ
id er
Ġpe tis
Ġgaz eto
Ġmi ajn
Ġlo kaj
Ġrespon don
Ġadminis tra
Ġkon duk
ts ki
Ġfo to
elon ge
Ġy ou
ĠS ved
Ġspeci ale
Ġmallon g
ĠOrgani zo
æĹ ¥
di ÄĿas
ch o
ĠPro duktoj
ĠKan ado
Ġs kla
Ġ1 999
a toj
nF or
p ost
Â Ń
Ġdese gn
wik tionary
ur an
Ġdev os
ig ht
Ġhistori a
tra Äµo
Ġsub ite
Ġm ens
ra ko
ti ri
Ġ .\
ig h
Ġsig n
pren i
ĠA k
Ġvoj on
g erman
Ġjapan a
44 3
lan to
nR o
Ġkonsider as
Ġsper to
Ġf rom
ĠInter na
Ġba zo
fi ÅĿita
ĠLiber a
Ġpre ter
nJ en
Ġtrejn ado
Ġ ~
og le
Ġ @
Ġur bon
plen a
Ġkon ven
ĠN ia
kon to
ta d
Ġle gis
Ġk ron
Ġkons ul
Äī an
Ãª s
k tojn
E P
20 16
47 5
Ġma ten
d ik
lab o
Ġsur pri
Ġbon ven
43 4
Ġantik va
10 8
Ġs tilo
Ġsen co
N T
9 00
Ġs ove
84 2
Ġkand ida
ĠP len
tu moj
Ġ1 997
ch en
Ġma tema
Ġp uri
Ġdeta laj
gra fia
f ron
Ġre ÄĿi
ĠC ol
ĠPre z
in ion
Ġre ci
Ġmed io
200 6
ĠK ri
ĠC an
Ġelek tro
ĠV ia
Ġorigin ala
pa g
03 6
Ġ 80
av a
nP ar
ar ch
Ġbil do
Ġvalo ro
ĠE ksteraj
s ko
00005 94
ĠP M
ĠF ri
va tski
Ġn igra
ĠUn ua
al vide
ig x
ri lo
996 5
k uloj
z ajn
ĠM c
2 83
os a
ĠSvis lando
g y
ĠM od
ĠT rans
Ġmond milito
Ġviza ÄĿo
ĠÄµ e
Ġaten das
ĠEs tis
r um
r ono
j ekto
Ġmals ano
04 4
cen t
Ġpubli ko
Ġtrans lo
ÄĿ ante
m ajn
Ġvid alvide
Ġkonsen tas
997 5
ĠP ubli
Ġhom aro
vor te
ĠIs ra
Ð°Ñ ı
Ġkapab las
g ia
tugu Ãªs
Ġs ano
tik edoj
à ¨
Ġel s
U M
Ġ om
di ÄĿo
ĠW al
ĠJoh ano
¡ Õ
04 6
Ġkomer co
ub a
Ġeb ligas
gi ono
ed a
ka ta
ĠK rom
ĠE U
ĠCh ar
ig no
Ġs pa
am on
Ġrad ikoj
Ġeni ris
Ġ 00
Ġvor taroj
eter e
fi ciala
Ġpro vis
Ġprop raj
ĠJes uo
ĠA t
ĠB io
0 15
ĠÄľ is
at uraj
ĠVer onika
Ġh or
f u
Ġrila to
nK o
0 26
s istemo
ĠK ion
ud h
9999 338
Ġfi z
Ġsen dis
minis tro
ÄĪ i
46 1
Ġser voj
Ġb ur
ĠT ero
Ġins trum
ĠDav id
la men
Ä¥ io
n io
Ġmal rap
Ġpro vas
]] ,
teks to
ĠP rin
Ġstruk turo
gi an
nNor sk
ĠSovet unio
ĠEs ton
Ð° ÑĤ
Ġpli multo
ĠJ er
Ġpers one
Ġal taj
Ġener gio
Ġkomun ikado
es ton
Ġs us
pi ri
Ġfra zo
nO r
20 18
si mi
Ðº ÑĢ
0 17
f ord
d ar
Ġvo Äīo
Ġvid punkto
ten oj
Ġmal liber
ez a
P R
Ġokaz oj
tu mo
c tion
88 9
c u
ĠÄ ¥
lo ke
ber to
8 16
ĠKonsi lio
ĠOri enta
Ø ©
la roj
Ġmak sim
I F
Ġv ek
b ru
nB ahasa
gra m
? ?
tri kto
klu zi
m ig
Ø§ÙĦ Ø
Ġjar centoj
ĠV oj
hi li
98 1
Ġeston teco
10 9
ĠÄīam bro
lu b
27 5
Ġ1 77
ĠtaÅŃ gas
la v
lis ma
. âĢĿ
55 8
ĠS loven
Ġag adon
Ġin ven
Ġne ÅŃtra
Ġdu an
g al
for maj
ĠLi to
log y
99982 11
ĠCen tro
po l
97 2
Ġmani fes
Ġkonsider ata
z org
Ġmalf ru
ĠeÅŃro pa
k us
ÄĿ eni
Ġsci enco
tu alaj
ag es
Ġprofes oro
ĠW iki
Ġmeto do
Ġkontro li
an tan
di lo
s ion
nJ o
nR et
m uzik
ĠâĨ Ĵ
Ġsubten as
k al
Ġle ÄĿo
Ġfaro s
Ġkomple ta
Ġpers ona
ser vo
ÅĦ ski
ku ra
van g
Ġb re
ĠI r
Ġuz u
18 8
Ġ198 0
Ġprez id
rin da
56 3
Ġespri mi
Ġrulse ÄĿoj
nN un
on ojn
07 7
p pe
Ġes trar
03 5
Ġab solu
Ġa ÄĿo
uni ci
ĠLing vo
Ġfon toj
eta ra
Ġre gado
A P
Ġm anoj
gran da
h ar
Q L
99 46
us k
rig ar
Ġkons titu
Ġli ter
nN ia
be to
ĠUkra inio
ci pe
Ġa ero
zi as
Ġma ÅĿ
s ur
ki u
Ġbone ga
æľ ¬
96 0
Ġesperan ta
ĠKon takto
em ber
Ġrakon to
Ġprefer as
Ġin ves
kon om
ĠEsperan tis
Ġkomun umoj
kul p
Ġmallon ga
Ġfen om
Ġpar a
ãģ ®
Ġjun aj
I K
j uo
Ġm ek
Ġl umo
Ġser vi
V K
b un
ÄĪ u
ri on
ĠTem as
poÅĿ to
I R
l um
Ġres ti
Ġter mino
ĠY ork
Ġf ron
N D
a tan
Ġ3 5
Ġka tegori
nM on
à¦ ¾
Ġre kla
ä¸Ń æĸĩ
ĠD on
ĠK ata
Ġm ano
T ra
ta Äµon
Ġn aÅŃ
Ġrekomen das
ti koj
Ġun d
Ġal tan
Ġajn a
8 14
ris kribo
Ġmon da
Ġs ved
Ġh un
2 16
Ġd io
ch er
44 4
el ig
b il
Ġkonta kti
Ġgaran ti
eb u
ĠA le
ri e
ĠK ur
Ġpro ces
ĠH om
99 06
Ġmala m
ĠKom puteko
Ġroman o
á »
g re
86 0
ter ia
Ġar m
Ġmo di
Ġtro vos
Ã £
Ġmal proksi
ĠBer lino
ed on
nJ u
Ġge ed
Ġ !
ĠaÅŃto roj
Ġartiko lojn
Ġpreci ze
a te
Ġk ro
ĠM uzaiko
w ski
ter min
g ro
A TO
ter damo
999 74
et nam
Ñ ħ
Ġla tina
pren eble
Ġkompar e
Ñģ ÑĮ
Ġsignif on
ĠÅĿa tus
ĠAÅŃ stra
ĠF acebook
Ġol eo
Ġpen si
Ġli to
ĠMon d
ĠA f
Ġfor mon
lan doj
ĠÅĿta lo
ĠH i
Ġplenum i
85 1
ir kaÅŃ
T S
nH el
á º
Ġide on
ÄĿ ado
van te
Ġmateri aloj
n un
ĠH ungario
200 8
Ġvizi tis
tri e
b ara
Ġa riel
res pon
Ġspe cioj
nÐ łÑĥÑģ
Ġmod elo
el d
Ġal fab
ĠM ov
t eo
tent on
53 1
Ġelekti ta
6 36
ĠB il
ĠLon dono
05 7
nD is
lo si
Ġpreziden to
ĠÄĿ u
L A
8 97
don e
Ġh ero
ĠM ak
y u
Ġli ni
Ġproksi ma
Ġkoncer na
me to
Ġim perio
ati o
Ġfon dita
x o
lin go
EA D
k ulo
2 17
Ġsubs krib
gru po
epo ko
Ġper dis
am oj
h er
ĠP lan
e u
Ġrimar kis
ĠAm eri
æĹ¥ æľ¬
j ekti
Ġsub e
Ġme tis
ta ra
Ġso le
Ġk av
Ġti po
est roj
d igi
Ġ qu
aÅŃ lo
Ġkandid ati
ĠV a
tem paj
vi to
Ġe pi
84 8
5 43
R EJO
ter n
Ġk ara
c us
Ġtrans don
ĠK ore
ve co
Ġkom pli
Ġmov adaj
tl er
Ġ{ \\
I A
Ġliber eco
Ġag ri
Ġunivers itato
Ġfari ÄĿas
ĠE li
Ġpublik igis
cen tro
ÅĿ e
Ġefi ke
Ġali e
20 14
Ġrete jon
ĠB ir
X X
li ne
ÄĿ ita
ĠE m
ĠS tra
nG ra
ĠE uro
na bo
Ġakcep tas
ĠH on
ĠFak te
ĠRaj toj
ani ere
Ġg ar
U ser
Ġpropon is
Ġkomer ca
d om
zi taj
Ġsur baze
Ġpli long
Ġfik s
Ġf rua
Ġoka zo
Ġpre mi
nLo ÄĿ
Ġs ono
ĠIn di
Ġprop oni
ks a
Ġintervju on
ĠR os
Ġf eder
ĠG a
Ġno t
Ġka zoj
Ġgran dajn
Ġfaci la
Ù Ĩ
pe ci
Ġkompren is
c z
Ġre dukti
Ġrevolu cio
ĠB r
Ġreda kto
Ġkri zo
19 2
Ġmon to
Ġ ca
99 53
E V
n ia
66 5
gi lo
Ġkol ek
Ġd ik
Ġi ÄĿas
ĠV or
mo d
= \"
ra lo
Ġlu das
85 2
15 0
Ġta gojn
). ","
ĠE ven
Ġin v
× ¨
Ġmalmul taj
Ġelem entoj
la ra
ten i
Ġlin io
Ð¾ Ð²
ĠÄľener ala
99 33
06 6
57 5
Ġeviden te
ĠM er
Ġim pli
mi r
ĠAm eriko
tri a
Ġdef ini
man o
Ä Ļ
Ġki aloj
Ġkre ado
is ion
Ġli teroj
Ġem as
Ġsen tis
emb leo
s ci
g ri
ti l
ĠMos kvo
U D
r oni
æĹ¥æľ¬ èªŀ
ras il
ĠEs traro
Ġeks tera
Ġkon k
Â» .
Ġa pe
ari a
Ġiuj n
Ġla tin
Ġlu d
Ġkonstru i
v arm
07 4
66 6
Ġpli for
} \
ven ska
Ø§Ø±Ø ³
ĠT TT
07 5
20 12
Ġlan don
86 8
pl ek
Ġfra to
Ġado p
200 4
ĠJoh an
220 8
ģ Ø§Ø±Ø³
ĠK lubo
nJ e
Ġekster aj
Ġre kta
Ġres pek
k esto
el ek
ĠF eder
mon d
Ġsol vo
í ķ
ĠP RO
Î¹ Î
Ã¼r k
Ġpa la
ĠW orld
999 73
nS loven
Ġkre as
Ġprovi zas
ĠPro tokolo
ĠGerman a
Ġvi ta
Ġan ti
em ia
Ġkad re
Ġmalsu kces
Ñĩ Ð°
Ġek lezio
Ġins truado
ÃŃ n
Ġi el
Ġek o
Ġkom bin
nFran Ã§ais
Ġsta ris
Ġs av
ĠB as
200 3
Ġnaski ÄĿ
ĠW i
tu la
r p
ÅĿt ele
ig ojn
Ġjardek oj
Ġop inio
Ġkon klu
Ġus on
j or
Ñ Ĭ
pri n
Å ¾
Ġ1 998
ĠWil liam
P O
ter an
05 4
s ch
a w
Ġ www
Ġkam pan
hav igi
ĠI KU
Ġdan ke
P M
Ġinstru is
Ġrenkonti ÄĿo
982 1923
ĠFran ca
Ġakcep ti
Ġen spe
ĠV e
to ko
Ġrespon do
Ä¥ i
Ġgepa troj
Ĺ Ð½
Ġ 08
S A
Ġprovi z
rig in
Ġsu pra
ĠOn do
ĠÄĿ ard
nN eder
Ġpli aj
99 13
37 3
37 6
ÐºÑĢ Ð°Ñ
k anta
is s
Ġ1 87
te in
van to
nA m
Ġuz ante
Ġposed as
ð Ł
ĠB arato
ga z
ÐºÑĢÐ°Ñ ĹÐ½
Ġvi vi
Ġri de
Ġreg uloj
Ġkri tik
Ġb rita
Ġfor ma
Ġfari taj
Ġnor m
03 4
07 9
ĠkaÅŃ zas
Ġo port
nT amen
nRe ferencoj
ĠÄľ ia
Ġdec ido
200 7
à¤ ¾
Ġ 45
Ġlo g
nC o
Ġp tm
Ġi zo
Ġvoj aÄĿ
ÐºÑĢÐ°ÑĹÐ½ ÑģÑĮ
ĠS tan
ĠD E
Ġdi al
96 85
ka tegorio
1 996
G V
Ġb el
lon ga
ĠA ma
C H
Ġka pon
63 8
Ġprele goj
lab ori
ÐºÑĢÐ°ÑĹÐ½ÑģÑĮ ÐºÐ°
c lo
ãĢ Ĥ
Ã§ e
Ġcer tigi
Ġpas in
k loj
Ġ ul
Ġki lom
12 9
à ²
ĠF ra
nEs paÃ±ol
h at
ve jo
pa do
Ġfun kcio
da ro
Ġ1 994
2 93
vi ko
57 7
! âĢĿ
¨ ÙĬ
ĠÅľ an
Ġlu di
us ta
nAli aj
et rojn
OD x
Ġlu do
c os
Ġli ver
ni ka
Ġproble mon
nV iki
ess ages
99 54
ab lo
Ġkomenc as
x oj
Ġli gita
Ġhel p
ĠKi u
822 2208
ĠAn ton
or an
Ġe x
ÑģÐº Ð°Ñı
Ġ197 0
w n
p Ã©
ĠÄīi e
83 83
Ġteo rio
Jun ularo
trie ved
Ġf esto
G H
Ġsenpa ga
Ö ĢÕ
Ġpre ÄĿejo
ĠÅĿ ablono
Ġpron on
T i
l t
Ġn um
Ġlu dis
Ġdire kto
97 0
de talo
77 4
K K
Ġstar as
] ]\
ĠDan kon
Ġsistem oj
z itan
Ġven on
ig iloj
ĠH av
Ġsimi le
ãģ Ħ
ÅĿ ojn
Ġkol oni
1 99
li on
nD ek
ra ta
nN aski
ĠâĨ Ĵ\
à¥Ģ \
Ġri b
Ġsek vis
£ ÐºÑĢÐ°ÑĹÐ½ÑģÑĮÐºÐ°
Ġal b
53 2
nM essages
ĠMi lito
Ġpopula ra
Ġtraj toj
u ta
Ġide ojn
Ġenkon du
tas tro
ling van
nP ers
24 2
atal Ãł
ĠantaÅŃ aj
fi ci
86 27
Ġag adoj
Ġs por
Ġn ord
am eriko
is maj
18 2
Ġsubten o
Ġpro vizi
ĠAÅŃs trio
Ġinstru isto
m em
Î ·
ĠSci enca
80 8
nen keto
Ġkelk foje
ĠR omo
840 95
f as
¹ Ø±Ø
Ġci fer
Ġ7 0
0000 8
Ġaki ris
ÄĿ aro
Ġmona Ä¥
ter s
Ġakcep tis
Ġentu zias
ĠLi bro
Ġprefer e
d kas
no toj
05 5
re te
Ġsukces o
Ġeks peri
20 10
Ġg ri
di oj
Ġri Äī
Ġobj ekto
Ġtempera turo
N ova
46 8
996 84095
ĠVarsov io
17 9
Ġindik as
Ġkla ra
17 2
Ġdeman dojn
ad ojn
Ġmem or
¹Ø±Ø ¨ÙĬ
â ĸ
me tis
54 8
ĠtaÅŃ ga
Ġoka zi
Ġvi vis
Ġlon gaj
Ġhej mo
Ġro bo
kom puti
k anto
× ¢
Ġ \\
Ġneni un
Ġden as
N A
U K
ni vers
Ġa tribu
in k
Ġspe cialan
Ġrap ida
9 08
G B
à º
Ġkam par
in daj
le g
Ġak uz
Ġorganiz aÄµo
d y
Ġsek cio
Ġus onaj
b raj
Ġkon dam
Ġmal e
ĠI l
ĠK az
h isto
ĠKon go
er no
Ġli brojn
Ì ģ
ĠeÅŃ roj
Ġsta tis
Ġs alaj
nO f
Ġ '''
Ġrigar di
Ġg ras
Ġnek om
uzi ka
Ġf ig
Ġkul turoj
ĠBon volu
Ġfi zi
Ġâ Ī
Ġtas ko
Ġ1 76
Ġseks ne
un try
Ġsek vi
ĠCh in
Ġsol vi
Ġnaci aj
32 86
Ġfil moj
o t
Ġkom itato
do l
Ġem fa
C O
Ġn ed
9 10
0 85
4 13
is mon
Ġti ajn
Ġrete joj
Ġklu boj
ĠHisto ry
ek te
Ġdis ting
ĠGaz etara
Ġtraduk ita
ĠBul ga
L e
fre d
Ġblan ka
Ġbon ajn
8 98
Ġs alu
inas tio
Ġtem on
t vi
nA vantaÄĿoj
Ġvi c
Ġstu do
ti gu
Ġdekla ris
j ar
ĠMek siko
W V
Ġde ba
Ġb ul
ÃŃ a
99 36
Ġprogra moj
Äī am
de c
Ġdi man
em an
ê µ
Ġper for
Ġhel pon
Ġkres kis
Ġpro bab
duk ta
E Z
ĠL A
Ġsu pren
Ġfi lino
nov a
M T
k en
ĠIz ra
P a
Ġ 75
Ġrapor to
7 57
2011 11
N S
L O
Ġsem in
r Ã©
ĠM onato
ĠInterna tional
tuga la
ĠFinn lando
prez idanto
Äµ e
ĠPri va
Ġofici ale
l eks
ĠÄīiuta ga
× ĳ
ru po
lon ge
nKon ta
ĠaÄīe to
Ġa vantaÄĿoj
U P
Ġfor toj
Ġsimi laj
Ġres ta
Ġp ul
Ġda to
Ã£ o
99 26
ĠO s
ad as
Ġspe coj
03 7
nÐłÑĥÑģ ÑģÐºÐ¸Ð¹
nK re
n Î
nP re
tran s
Ġreci pro
ch t
Ġfon d
n Y
nA k
nR i
ran ta
ĠKomun iko
mani ere
Ġf ren
ĠÄī as
Ġ >
Ġs uno
ov as
06 4
Ġkul tur
Ġw ith
Ġstra to
Ġple z
1 20
Ġmez e
ĠIsra elo
s ti
u li
vi rus
97 92
Ġelek tra
Ġek le
Ġuti la
Ġaldon is
ĠF u
ri ko
vid o
in f
66 7
Ġbaz a
Ġvi kti
ĠH am
2011 10
ĠFili p
nenketo detalo
Ġ( =
cha el
tu ris
ĠaÅŃ ton
Ġkonkur so
Ġefi ko
ĠF ine
th o
Ġver ki
y m
ti ga
z bek
man a
Ġtraduk oj
ten on
ik ajn
Ġren ov
c ar
eÅ¡ tina
A K
Ġkon gru
Ġkons ek
Ġvas ta
ĠF und
Ðº Ðµ
f en
44 61
i j
Ġpor do
ku la
Ġindi vid
Ġbaz ita
bi li
e fa
Ġro lo
Ġpov u
Ġsin jo
ĠOfi cejo
? âĢĿ\
Ġnom is
b s
99 55
Ġf ina
Ġpren i
Ġsolda toj
Ġfaj ro
Ġkla rigi
2 11
Ġre tro
ĠRe trieved
s io
ti gon
99 14
Ġtrovi ÄĿis
g z
Ġkun ven
ĠEs pero
re gis
eb lan
996 4
Ġa fri
Ġth at
ak te
84 9
57 3
Ġek vili
k taj
v ino
Ġmals anoj
Ġkun veno
ÐµÐ» Ð°ÑĢ
]] .
ran to
º Î
ri taj
Ġlaboris toj
ģØ§Ø±Ø³ ÛĮ
Ġt eni
88 8
D R
Ġ1 996
fi lo
ĠT ele
nA d
nB iblio
Ġvas te
Ø§ÙĦØ ¹Ø±Ø¨ÙĬ
Ġ zo
Ġs ak
mi li
Ġak von
ÐµÐ»Ð°ÑĢ Ñĥ
Ġkonsid eri
20 15
s ono
Ø§ÙĦØ¹Ø±Ø¨ÙĬ Ø©
Ġel spe
ris t
pa gan
Ġ ov
Ġre gas
Ġsendepen de
ÐµÐ»Ð°ÑĢÑĥ ÑģÐºÐ°Ñı
Ġper cep
ci ta
33 5
Ġmili t
teri oj
ì ĸ
Ġpa tri
ĠG rek
nPol ski
Ġmal novaj
Ġinteres iÄĿas
Ġn ura
Ġniv eloj
ar k
Ġaso cioj
Ġimperi estro
Ġpartopren o
Ġpublik igita
G R
ĠdaÅŃ ri
Ġlerne joj
ĠAr gen
Ġpa gi
Ġlo ÄĿis
Ġrice vos
Ġs ang
te to
Ġre ak
nR om
íķ ľ
Ġg u
Ġinflu o
00004 84
Ġrif u
ĠChin ese
du kto
ãĤ ĭ
Ġpro vo
ìĸ ´
Z Z
Ġkonstru ita
Ġtra vi
Ġka ri
Ä ģ
Ġf esti
85 0
m p
Ġsendu be
Ġekz er
Ġvizi ti
Ġkoncep to
Ġmala peris
Ġ 90
voj e
Ã¡ s
kla ku
' ,
Ġ 47
Ġp siko
êµ Ń
h is
Ġraj ton
Ġrez is
ĠM ez
ĠN om
Ġkre di
Ġpubli kaj
to ri
ĠHen ry
53 8
9997 072
Ġ198 9
M P
aj a
chi ve
ĠT ek
la u
ĠÅĿajn is
Ġtra kti
N F
U S
Ġmar bor
nPor tuguÃªs
Ġkom pa
ab e
pe za
13 8
se t
00005 96
Ġh azar
ĠhaÅŃ to
Ġinvi tas
pro p
om on
lo w
96 2
Ġre f
ĠLu do
ĠS il
ak is
ĠT ro
ĠF a
Ġvers ion
Ġrimar k
h n
kul tura
ĠSo ci
ak u
ĠÐ ¿
Ġsan kta
Ġpri pens
Ġ3 2
Ġse ver
Ġrigar das
Ġmem oras
ti me
er vo
24 9
f ino
Ñģ ÑĤ
9983 3286
nNeder lands
ĠEk lezio
li broj
Ġa gra
Ġre duk
ĠH u
Mo bile
tin toj
Ġreg ule
ĠLern iloj
s paco
77 7
Ġd os
ski j
Å Ļ
um aj
Ġas pekto
Ġprofes ia
Ġkli entoj
ul d
in an
Ġili ajn
Ġproj ekton
eo ple
áĥ Ĳ
8 12
p ion
Į eÅ¡tina
e p
05 2
ka to
van s
om bo
Ġrakon toj
ĠRo bert
ĠTutmon da
86 9
nR ila
ĠÄĿis da
Ġkomputi lo
A G
Ġi an
Ġ chi
à ª
Ġar aba
Ġm un
b us
ag y
99 22
Ġ1 992
44 2
0 93
SU G
íķľ êµŃ
qu es
Ġpl us
da d
Ġpa po
ka don
Ġeb ligi
66 3
tike do
nS im
pi taj
Ġf an
t urn
ĠkaÅŃ zis
16 2
ig an
Ġ196 0
dis pla
íķľêµŃ ìĸ´
Q Q
11 9
ĠV la
blo g
33 6
ĠP eter
áĥĲ áĥ
Ġver kojn
po le
Ġorg an
Ġkapa blo
ri l
Ġind iki
Ġintel ig
ĠEl ek
Ġ1 995
Ġne ga
I B
25 0
ĠKu bo
Ġim pos
um ado
ko la
aÅŃ to
ri c
ne jo
Ġplen kres
Ġkres ko
Ã¶ r
k li
Ġfor umo
Ġ3 00
Ġvoja ÄĿo
\" )
Ġal te
Ġmesa ÄĿon
ĠRe ÄĿ
fi ka
kur soj
27 9
ce ro
Ã ¹
te koj
V P
Ġv ento
ĠG lo
Ġskrib as
×Ļ× ª
Ġa feron
ti en
Ð» Ð³
Ġlern antoj
Ġu kra
en tis
, [
W S
Ġfoj o
Ġkomen ton
Ġkura cisto
V D
Ġ3 4
37 7
2 12
Ġkv ara
man n
Ġ3 6
ĠRe toso
Ġkon to
4 03
el s
ale co
ĠFran k
ri enta
Ġkla rigas
Ġa tenton
Ġf as
Ġg us
Ġuz ita
Ġtutmon de
Ã¼rk Ã§e
94 53
Ġmalsam oj
Ġcivita noj
X O
Ġm ig
vin co
le gi
ĠY ou
enc as
eble co
M A
ig ar
pro vi
Ġhel pos
to logio
Ġakti vas
Õ ¥
ĠH un
! !
j ojn
r ajno
Ġ )
Ġta blo
Ġser Äīi
I G
n ä¸Ńæĸĩ
ek o
Ġop inion
Ġf eb
Ġprop rajn
Ġal um
nS venska
nN ov
ta taj
don a
Ġkap ti
ĠM at
Ġa tin
Ġin ÄĿeni
ĠD ie
nS h
Ġ1 991
ãģ ¦
8627 06
âĢ ŀ
999 53
vi Äī
nMa po
K io
81 862706
ĠE ÅŃ
Ġkomun iki
pag lia
M a
ĠSo cia
tta paglia
99 15
T R
Ġ( ...
Ġ2 50
c n
s ed
te mo
Ġr as
me ti
83 1
27 1
Ġun un
nÐ £ÐºÑĢÐ°ÑĹÐ½ÑģÑĮÐºÐ°
2 15
ton a
ĠIzra el
ĠT or
ĠVik ida
876 4461
Ġparti oj
ĠOkciden ta
18 1
nEs peran
Ġapli ki
Ġfen estro
ĠC etere
Ġfin iÄĿis
t risto
ł áĥ
ĠI rano
Ġpe ti
b ran
ki e
Ġdifer enco
ãĢ ģ
ĠD uo
Ġpris kribo
Ġ 05
Ġelek tr
Ġal fron
ĠÄīi elo
999 46
Ġre vi
duk ita
ic s
Ġdire ktoro
Ġsek ureco
ĠNor da
tr onom
Ġg ej
Ġkon ci
ĠF ar
ĠLito vio
Ġs x
ten as
Ġur b
Ġs ki
tin oj
ĠMa c
J F
Õ ¶
ri na
Ġkon fes
ĠAÅŃstra lio
Ġfa lis
Ġhe zi
tik an
tan a
Ġc elon
Ġg o
Ñ Ī
Ġsen con
Ã¥ l
p id
ie roj
8383 157
M O
Ġm unici
23 2
ĠIn f
ami lio
0 11
3 00
Ġi ta
Ġrespon di
Ġ 06
Ġsub pre
ĠVi eno
er io
Ġsimi las
ma tiko
Ġfilozo fio
nEk z
Ġforlas is
Ġprez oj
Ġpro s
Ġvi van
37 2
Ġneces a
h en
Å ¼
ĠRe volu
34 2
tu li
Ġmalf eli
p el
Ġri ver
Ġstud entoj
99976 295
Ġins pi
do si
nC atalÃł
Ġsufi Äīas
n http
Ġal lo
ĠA frika
p oni
fun kci
9792 9996
44 8
ĠJos Ã©
7 07
s l
Ġdona coj
Ġseksne ÅŃtra
nÐ ¡
Ġkonstrua do
p lej
q uo
Ġman on
ĠIndones ia
v igo
ej mo
Ġta vo
ekz emple
Ġde termin
Ġtradu ki
Ġprez ento
kri min
la go
Ġler no
83 8
99 17
Ġofi cejo
Ġe blo
20 13
ĠTh omas
U T
y n
Ġsta bi
Ġklas ika
996 3
t rojn
an doj
83 0
pan oj
Ġgerman aj
14 2
ĠÅĿan ÄĿis
12 1
0000 7
Ġprofun de
Ġdisvolvi ÄĿo
Ġkam poj
Ġcx e
id on
83 2
Ġme tro
Ġaldon u
E l
L C
re co
U O
ĠR ez
43 1
Ġ 07
Ġarki tek
Ġbir doj
Ġokul ojn
Ġfinan ca
nL T
ĠRi ch
Ġkoncern as
n Ã
ĠKar man
ge ta
ta ria
Ġkom pleks
Ġa goj
ĠPar lamento
Ġsimbo lo
Ġkon dukis
ĠÅĿ to
ĠÅĿta ta
Ġkom for
P P
ĠÄīef ministro
Ġtradi cio
87 9
ris ta
Ġpropon ojn
14 1
Ġpre pari
Ġ1 993
uri g
Ġkon ati
nA fiÅĿita
Ġvar me
ti loj
gra ph
02 8
0 16
Ġdiplom ati
ĠG er
Ġkon ver
ĠSved io
áº ¿
g ov
ĠRe vuo
ĠMal fer
Ġefi ka
ĠM aj
Ġmon um
men a
Ġm er
Ġkon vers
J S
ĠD om
Ġkons tante
ĠS om
Ġgra vajn
nK ar
Ġju doj
k m
9 20
lin oj
nEk de
Ġsitu acion
Ġoper aci
Ġa kto
ĠG ar
Ġpos taj
áĢ ¬
999 33
un e
d ustri
k te
ĠkontraÅŃ sta
ori zon
ÅĿ itaj
ĠÄīiuj are
v ig
Ġ ?\
ĠSu da
Ġleg antoj
y o
86 1
pen si
ĠÐ ²
ani oj
nC on
Ġkv ad
ĠAng lio
0 22
W K
ti m
ĠP res
ĠT om
88 1
Ġe pisko
28 9
Ġk nabo
26 2
Ġkonstrua Äµo
monato tri
Ġka tastro
Ġdif ini
Ø ª
Ġre ala
C en
mi ka
Ġpas tro
i ch
ĠD iskuto
Ġesplor ado
n h
ku po
Ġ igas
Ġre vu
Ġkom isiono
ĠO kt
si an
nV ia
n re
99 43
don u
Ġproj ek
men ta
Ġkuti ma
enda ro
28 2
Ġs ana
Ġi l
53 9
Ġfon dis
Ġb ab
rig ita
ĠÅĿi an
Ġklas o
Ð»Ð³ Ð°ÑĢ
nF acebook
E O
ĠG al
Ġsin sek
Ġkol on
Ġorgani zi
ĠP h
ĠUs ona
Ġsemajn oj
ti voj
N C
ĠB ela
Ġcivili z
/ \
T rans
me do
Ġentrepren oj
Ġdemokra tio
displa ys
Ġen ga
Ġefi kon
Ġrulse ÄĿon
Ġspiri to
p in
47 2
Ġpri zorg
Ġkunlab ori
Ġpren as
ĠB ru
ĠH an
i ra
95 2
Ġali ÄĿis
/ ?
R GO
85 8
Ġstrate gio
Ġkoncen tri
U B
Ġprogra mon
displays tyle
te blaj
44 1
nM ul
DC F
18 9
37 5
ekti ta
Ġko ti
I Z
Ġki alo
66 4
Ġstu doj
Ġpre par
ĠÅĿi aj
Ġro l
Ġre en
45 9
Ġf ri
Ġmal tran
94 1
nU ser
a da
eb si
Ġvolon te
ksid ebla
7 17
nE d
par tem
ĠantaÅŃ vid
nÄĪ ef
Ġsubs tan
n æĹ¥æľ¬èªŀ
ĠG e
W H
de jo
12 8
ĠI L
ĠÄĪ ina
ĠreÄĿi mo
nCo untry
? âĢĿ
14 9
man te
os pita
Ġb ro
9685 439
ĠBel gio
ĠB re
Ġ 01
11 0
In ter
à ±
Ġorgani zoj
N O
Ġpar lamen
Ġtu ris
nDan kon
999 13
Ġkur soj
4 22
I Y
s in
Ġad mi
I H
Ġaser tas
Ġmal kon
ĠEk zistas
o ks
94 8
Ġtekno logio
k las
Ġm es
ĠT ion
45 2
Ġ194 5
up ra
ta Äµojn
Ġli mo
Ġnun tempa
Ġrila tojn
Ġru ÄĿa
e rojn
Ġ 03
Ġaran ÄĿo
nÐĳ ÐµÐ»Ð°ÑĢÑĥÑģÐºÐ°Ñı
nÙ ģØ§Ø±Ø³ÛĮ
Ġs kulp
ĠT eo
ĠGra ttapaglia
Î¹Î ºÎ
le t
ka tegori
Ġven os
Ġmenci as
Ġmov i
Ġh id
Ġpre tas
Ġ 46
Ġju ro
m Ã¥l
o b
nF ebruaro
Ġfin i
99 27
Ġkontribu i
Ġma gne
d es
U J
talo go
89 0
Ġsim p
m und
s aluti
tra k
Ġes tro
Ġmal ÅĿ
Äī er
Ġraj tojn
76 4
00005 9
Ġdan kon
nE r
Ġreprezen tas
Ġsubten on
nÄ ĮeÅ¡tina
26 8
Ġser vis
g in
Ġm eri
Ġkon ker
vor to
ĠT am
nAn kaÅŃ
usk ara
Ġtem poj
Ġdeman don
Ġkres kas
de ble
37 4
Ġrenkon tis
ĠW ar
ĠDem okra
ra ÅŃ
ang la
Ġbez onoj
85 9
36 7
ĠAleksand ro
Ġd ro
is t
ele gi
Ġorganiz antoj
Ġf ab
84 1
47 9
ĠIr lando
d ge
nA s
ik isto
Ġekz isto
b ado
Ġpro kla
23 8
zi aj
n https
er mo
Ġb ok
nS ci
ĠÄµurna listo
eb re
Ġdokum entoj
ti ÄĿi
per e
36 4
77 6
don ejo
ĠN eniu
Ġare oj
Ġka f
Ġad res
Ġsekreta rio
Ġhej me
Ġpolitik isto
os o
zi oj
Ġsen s
Ġv ero
ur as
ĠKi e
Ġkontin ento
03 9
ĠAr meo
Ġa er
la ta
ĠretpoÅĿ ton
Ġcxi uj
b g
nM em
0 95
Ġlern ado
U C
Ġur ba
Ġanon cis
á» ĩ
nJ es
Ġsupo z
ĠMi chael
N K
d us
Ġm uro
ĠQ u
Ġsukces a
Ġg lo
Ġri ve
25 1
ĠMond milito
ba y
94 2
g k
Ġh arm
15 9
Ġe tiked
Ġpro v
n Ø§ÙĦØ¹Ø±Ø¨ÙĬØ©
al s
os e
Ġpoli co
×ĳ ×¨
ĠÄīa pi
Ġtele fon
Ġpo dkas
Ġdo laroj
Ġdan k
T V
d ra
ak on
Ġa f
ĠO ce
ing er
Ġkarak tero
Î» Î»
Di ff
Ġdi ru
Ġkandida toj
D L
t he
Ġpriva ta
13 1
ĠIs la
89 2
Ġed zo
ĠM us
ĠLa tin
ĠG il
Ġsen to
Ġa bon
ĠGo ogle
ÑĬ Ð»Ð³Ð°ÑĢ
Ġmez a
Ġsurfa co
Î· Î½
Ġth is
Ġfamili oj
11 8
Mobile Diff
Ġ )\
al tu
k eo
ÄĿ antaj
ĠP aÅŃlo
nB as
ÄĿin taj
Ġkonsek ven
nT witter
Ġeb la
Ġgaz e
E Y
Ġmal ka
Ġven kis
Ġpens oj
Ġepi zo
ti po
Ġgran deco
Ġdo i
Ġkatoli ka
n el
Ġbok mÃ¥l
l n
Ġla ng
di loj
ĠD es
n å
Ġ 43
\" ),
b loj
Ġor to
vang el
Ġpozi cio
Ġsam aj
k ras
Ġp ura
Ġsu k
997 99
ĠKom er
Ġman ojn
bre to
Ð°Ñ Ī
vi la
Re ply
P L
j na
is e
Ġvor t
Ġ2011 11
ĠCh ris
Ġmalsam ajn
3 03
S F
vor toj
5 03
Ġal ven
ĠS to
Ġver da
Ġsek re
s ia
te rojn
Ġven onta
ta goj
am aj
ÑĬÐ»Ð³Ð°ÑĢ ÑģÐºÐ¸
_ %
97 06
man oj
23 9
33 7
Ġkomun iko
tikis toj
.. ..
ĠPa ÄĿo
Ġprofun da
Ġkonfli kto
áº¿ ng
Ġnom bron
á»ĩ t
f ona
999 57
00005 97
Ġcir kons
Ġkul turaj
gon om
Ġtra fi
S o
T H
Ġin teg
ĠA b
0 83
T L
W M
Ġjen aj
ĠF onto
999 55
13 2
Ġfa ko
Ġce tere
36 3
ĠG ro
16 76
Ġan im
200 9
ĠI uj
ĠC ha
Ġrezul toj
ĠJ ul
ĠMala y
4 93
Ġtri dek
nOf taj
war d
uj on
ĠF il
ki ÄĿis
Ġtradi ciaj
fes to
Ã «
Ġar bo
p ta
96 07
Ġdis sen
Î¹ÎºÎ ¬
4 02
Ġang le
X Y
Ġtra pas
¡Õ µ
Î»Î» Î·Î½
lan de
Ġli gno
ĠT el
Ġobj ektoj
nÄ ĥ
nP riskribo
Ġdis tan
s or
Ġv ak
Ġek kon
Ġgajn is
9 02
O C
Ġven ko
Ġli ajn
22 1
Ġanka ux
Ġi ama
Ġminis tro
ĠA zer
ĠCer te
ĠÅĿ tu
ÑģÐº Ð¾
15 1
Ġfor mas
Ġc m
Ġnom broj
Ġkomen tojn
Ġmi kro
Ġkonser va
Ġinternaci an
R G
is tojn
Ġjun ulara
muzik notoj
Ã¢ nÄĥ
for me
Ðµ Ð½
Ð° Ð·
Ġn aturaj
ĠSe p
Ġling vis
Ġd ig
ma teri
A V
Ġmem brojn
respon di
}} \
Ġtro m
Ġpa f
Ġlan da
Ġprezen tita
ĠUnu e
ins ulo
h al
as is
ĠÄīe es
ĠVi á»ĩt
1 994
s ojn
ĠF eb
24 8
ec aj
Ġnu kle
Ġmalof te
R K
z ajno
Ġ tan
54 2
45 8
É Ļ
for umo
Ġforigi taj
ĠEdu kado
d anto
76 5
Ġdif ino
A m
ĠM y
ĠB ern
Ġkor espon
Ġk ra
Ġla go
un de
Ġti m
n íķľêµŃìĸ´
li na
te kto
Ġlis ton
Ġinstitu cioj
rim ley
pe zaj
ĠB rita
Ġsim pto
Ġalt kva
per s
nN av
Ġordon is
Î»Î»Î·Î½ Î¹ÎºÎ¬
ar ticle
ks oj
nT ele
nKi al
Ġf ing
ig e
ĠdaÅŃ ras
Ġves pero
Ã ½
16 9
Ġ3 3
b org
r din
ul tura
Ġkre do
ĠSek ve
47 8
Ġlim igita
Ġma po
W F
0 87
26 1
Ġprinci po
ÑĢÐ¿ ÑģÐºÐ¸
da pe
Ġlon gan
Ġgerman oj
ĠD en
pa ge
nT EJO
Ġmalgran dan
99 05
ãģ «
Ġm etroj
15 8
20 9
ĠL en
Ġg lu
Ġmalj una
Ġko loro
Ġkon kre
li aj
do ro
ĠK ro
Ġpri zor
ĠGrek io
ĠK al
Ġpar lamento
ĠS w
Ġkan tis
Ġdi alo
Ġmin er
Ġko lo
ĠdaÅŃ rigi
Ġpr un
Ġi t
45 1
×¢ ×ĳ×¨
nSu omi
ĠK la
rek ven
×¢×ĳ×¨ ×Ļ×ª
ķ Î»Î»Î·Î½Î¹ÎºÎ¬
Äīe co
an io
ĠB ro
ĠAs embleo
Q H
nE ks
Ġmili ta
Ġespri mas
diÄī oj
Ġad reso
ĠD C
Ġdifin ita
ĠMov ado
P C
Ġ :\
ol s
nÄĪi u
* *
ĠK ato
Ġan arki
Ġta len
Ġpe zo
Ġst ul
9453 278
Ġreali gi
k vili
n Å
Ġpor tugala
Ġreda ktoro
ĠKul turo
em ajn
X H
Ġp las
Ġb logo
ĠankaÅŃ Redakti
Ġfin is
U V
Ġkom isi
26 9
Ġpar tojn
Ġi ÄĿi
ele ct
nÅľ ta
ÄĿer io
er re
ĠF ern
va li
Ð¸ Ð½
an co
li ka
ling ve
Ġgvid antoj
Ġrenkonti ÄĿoj
Ġa ma
ĠK en
ak i
Ġver kita
99915 58
ĠJ us
W Z
ta cio
an u
86 07
04 2
47 1
N ov
Äī ita
Ġp il
Ġd eli
ajn as
Ġfor mato
Ġres umo
agy ar
z en
ti van
Ġlu doj
Ġvar ma
ĠT witter
Ġn av
Ġating as
ĠaÅŃskul ti
Ġsupo zas
Õ¥ ÖĢÕ
ser va
Ġmuzik on
Ġeli ris
ĠLudo viko
pro fi
Ġmo toro
nBon volu
Ġb r
56 9
ok um
Ġvalo roj
Ġanali zo
Ġprograme roj
nO kupo
13 9
Ġmi loj
Ġof ta
Ġindividu oj
W J
Ġega las
Ġprobab le
Ġ 44
200 0
Es peran
ĠFo iro
mon s
ĠJam es
Ä ´
à ¡
Ġh ar
vers aj
Ġprinci poj
ling voj
Q Y
Ġplen an
Ġm uzika
P G
Ġde fi
Ġpro men
Ġali ro
2 88
Ġb edaÅŃ
di v
b is
00 9
ĠP ovas
nA lia
Ġhej men
nS ur
Ġmem oro
n ×¢×ĳ×¨×Ļ×ª
Ġb ov
Ġneni el
Ġaspek tas
pÃ© ranto
K C
nK vankam
D O
ĠdaÅŃ ris
P ri
dig o
08 9
Ġkad ro
Ġdis krimin
Ġnom i
Ġrelig ia
999 88
Ġterito rioj
ĠEx press
d omo
W Y
nT Ã¼rkÃ§e
Ġplat formo
ĠM u
mani ero
X Z
Ġpor tas
vil karto
X L
Ð¾ ÑĢ
nP rin
Ġdis tanco
ãģ ¯
à¥ į
un aj
pren u
55 2
Ġproduk tas
Ġdom on
l s
Ġpers onaj
Ġpas is
97 1
L u
14 8
vin eo
Ġmed i
Ġekzem ploj
Ġnorma la
nP res
Ġp and
id aj
m y
Ġka to
ti mo
nLo ko
0 27
ĠK el
ĠP en
ĠSlovak io
Ġme zo
Ġprogra m
6 53
Ġfor pas
pi lo
Ġle tero
k ano
Ġti mo
Ġfor tan
ÅŃro pa
ãģ Ĺ
Ġkonduk as
99 23
Ġor nam
Ġkonstrua Äµoj
Ġk ler
Ġstran ga
p ru
U Y
in ia
ton oj
Ġkor pon
0 86
0 24
8 19
Ð¾ Ð»
Ġsom ero
Ġd ata
Ġpov o
Ġpre ta
Ġrem emo
98 93
Ġrakon tis
ke jo
âĢĻ ,
Ġmalhel pi
Ki el
aÄĿ e
U Z
Ġle gas
Ġmalkov ris
ire jo
Ġar baro
ti v
Ġtraduk is
243 43
N G
Ġb lin
16 8
Ġdis tingi
Ġvo lo
Ġt on
25 9
Ġri po
Ġar ab
Ġplan toj
tuga lio
ĠS ame
nRespon do
paro lo
Ġsved a
Ġe toso
Ġp eople
999 75
Ġali ron
nR ulse
plan o
Ġverkis toj
ro r
ci taj
Ġpro pagan
Ġorganiz ado
Ġkonser vas
nSi tuo
an aj
lin io
nJ a
Ġmala k
Ġestrar ano
to don
tri b
ĠT ag
N ovaÄµoj
an ojn
Ġpli gran
org ani
Ġligi taj
Ġdeman di
ĠNov jor
Ġn acioj
Å ³
par ky
Ġkontro lo
ÅĤ aw
Ġma ÅĿino
ĠÅĿi po
ļ áĥ
Ġsendepen da
tin da
Ġperf ekta
z aÄµoj
ua do
Ġinter reto
Ġprofes i
us al
93 2
nS o
Ġa kadem
ĠR ed
Ġlern as
Ġani mo
rig u
Ġman ÄĿi
teg ia
Ġmeto doj
Ġh uman
ĠP ara
gu la
Ġapar ato
Ġrespekti ve
is a
96 84
Ġhav u
9 134
o per
er aj
al th
Ġa ven
Ġdon ita
S H
U G
t ter
u lino
Ġb log
Ð¸ Ðº
Ġkuke toj
Ġmili ton
à ©
Ġmalbon e
ti aj
Ġpre ÄĿ
Ġeldon ita
nMal longa
j k
ĠI REJO
Ġinfan ojn
Ġmesa ÄĿo
pl ua
CC A
Ġspe cio
nLing voj
¡Õµ Õ¥ÖĢÕ
Ġp ed
Ġlan dli
l Ã¡
ĠM il
Ġn az
Ġinteres o
Ġnas kita
s r
Ġparo lantoj
99 25
k ante
Ġ Ø
99 45
Ġinter rom
ĠJ ES
Ġv ul
14 77
T Y
am ento
97 35
nN u
n aski
logi on
Ġhi po
áĥĲáĥ łáĥ
N H
18 84
quo te
c in
4 06
por ti
Ġlas is
Ġspeci fa
ne ÅŃ
0 94
I ns
Ġpropon on
ĠK ali
ĠAn stataÅŃ
Ġsid ejo
Ġeni ri
Ġadministran to
ĠVikida tumoj
S K
00 8
55 1
29 1
Äľ i
N I
an on
ĠÄī er
ĠArgen tino
R Y
G erman
et z
f ano
dis toj
Ġw e
c eli
95 8
200 1
. ;
87 2
Ġali flanke
09 2
N Y
Ġ( âĢľ
Ġpers pekti
as t
om en
Ġsubs ekcio
ted ralo
teks toj
ĠKom preneble
Ġkoncer ne
Ñ ĸ
22 8
ĠkaÅŃ zi
E H
Ġrila taj
ĠVer da
Ðµ ÑĢ
ãĤ Ĵ
Ġser vas
g na
ĠF rom
em ent
Ġdan kas
D M
Ġ3 9
ĠMad rido
W Q
Ġkomer caj
Ġs umo
ĠÅĿ losi
gra moj
Ġinten cas
Ġin das
Ġkal ku
17 8
998 95
ĠGeor ge
X F
Ġfirma o
Ġv et
ton on
Ġraj to
ĠKon ferenco
Ġtru poj
e on
Ġrig ard
g eno
Ġm g
un k
Ġunua foje
02 9
Ġsek ure
Ġ 65
Ġvizi to
Ġbrazi la
D Y
Ġkon is
43 2
Ġinstru i
ĠSin joro
n b
ĠIn vers
Ġsek sa
ĠAli a
Ġmarbor do
Ġ3 7
nBas kuli
a ten
4 23
Ġlo gi
Ġh an
ĠP ala
Ġ198 7
999 47
Ġpublik igo
Ġprakti ke
ĠG or
Ġdeman das
el sen
Ġsub ven
Ġgvid is
Ġprin co
Ġoku pa
nKun havigi
Ġp al
ĠS t
nAr tikoloj
Ġa fab
99 37
pe to
Ġinfor mi
ĠaÅŃtoma ta
ĠPoli tiko
Ġhi er
be jo
go lando
Ġd eri
lin on
tu vi
93 86
Ġdis pu
nI ns
Ġ4 00
ĠM uzeo
A friko
m ik
Ġs ez
h om
r vatski
ĠA g
ĠP al
Ġli moj
Ġse t
Ġmala per
Ġt un
Ġkon ferenco
Ġval oron
pa y
nNo toj
8 20
b araj
Ġkor on
raj to
Ġdom in
Ġper forto
Ġang lan
£ áĥ
Ġde ven
Ġde zer
Ġfi ÅĿ
ĠkaÅŃ zo
Ġori en
k alo
por toj
pe talo
Ġregu la
h or
p ajn
y er
ĠVi vo
hel mo
Ġf ali
17 0
kom er
Ġveturi lo
U H
07 1
ĠVor taro
Ñ Ĩ
or aÄµoj
46 2
Ġvi zitan
19 1
nF il
nKom enco
V C
Ġka ÅĿ
Ġfunkci oj
Ġmal varm
v isto
43 8
Ġmalhel pas
---- ----
ks on
Ġle ÄĿoj
kci oj
ĠT on
46 9
voja ÄĿo
tuvi Å³
in ujo
il d
Ġfor tika
Ġpoli tikon
Ġg r
Ġmi ra
ale go
Ġmar kis
Ġelem ento
Ġanka u
W B
Ġs porto
Ġbezon is
. :
ĠMon go
Ġfru aj
96 1
Ġsen Äī
Ġkompren o
us oj
um is
Ġr uman
Ã³ r
Ġkonstru is
Ġk vi
ĠB ea
ĠÅĿan ÄĿojn
sk y
Ġsper toj
Ġ195 0
ĠÂ ©
Ġbil don
Ġbiblio teko
prob le
wiki quote
Ġre for
ĠV id
zo lu
Ġvid pun
Ġklopo doj
Ġgen ro
Ġsubten is
Ġminim ume
ĠInstitu to
em ajno
Ġaktiv uloj
ĠPlen a
lab oro
ĠF e
Ġb ak
us z
Ġ 55
ÄĿ antoj
ĠN OM
Ġ20 23
org aÅŃ
999 24
Ġplan o
Ġpen tristo
kategori a
7 00
pe ten
Ġdeta le
Ġinstru istoj
Ġpriskrib as
Ġmodern aj
ĠIL EI
W L
Ġpoten con
uber ni
K ore
de bla
ak to
Ġdire kti
ĠL igo
ez u
vi er
n ka
nM o
36 2
b ona
ov er
Ġinteres aj
Ġknab ino
Ġar te
nE uskara
Ġenhav tab
m uziko
Ġtermin oj
ĠReÄĿ lando
Q Z
pu ra
ma ÅĿino
Ġpos ta
igra do
nT io
frika ans
Ġneder landa
I J
X M
nO ficiala
Ġn acio
Ġ[ ...
s ter
98 55
94 9
Ġ4 8
nPo li
mi ÄĿo
enc ojn
Ġfeli Äīo
R C
as h
Ġrespon das
rist nas
s pa
ãģ Ł
gus t
ĠâĪ Ĵ
Ġ198 8
nKonta ktu
nM agyar
eni am
Ġvers ioj
ĠDuo lingo
Ġpen so
Ġmani eroj
Ġdisvas ti
use ppe
999 43
ĠÄīe Ä¥a
Ġb lu
Ġaldon as
Ġel ÅĿuti
Ġd osi
Ġp eto
22 9
Ġpa pera
Ġfer voj
27 2
77 3
Ġlas tan
ĠMas todon
ĠU l
ĠPRO P
ĠO x
Ġg xi
Ġbaz aj
ãģ ¨
R L
g mento
Ġs ul
ĠAma zon
ĠMon de
nAr eo
Ġligiloj Redakti
an tajn
Ġkons tanta
nRespon du
ĠIn c
b ir
Ġt es
76 7
li ÄĿis
ig anta
Ġek vid
Ġek kri
Ġpre mo
nKom un
X V
Ġjun ula
Ġkon tras
Ġproduk tojn
Ġori ente
n n
Ġper di
flu o
Ġst eloj
tag me
Ġradi ko
nGeo grafio
M on
urn al
66 2
W G
alaj n
V iki
e go
Ġe tikedo
56 1
Ġpartopren as
Ġkvan ton
Ġgrande ga
Ġk anta
Ġenhav on
t te
ĠT an
à °
Ġp ej
9134 856
i ris
f ur
999 44
Ġpo ezio
nM or
Ġres tos
Ġle gen
Ġdezi ro
N Z
95 193
Ġs ko
Ġmem sta
vin petalo
06 2
ĠRe ferencoj
Ã© e
33 1
Ġreg no
P Y
X J
ri ento
Ġi loj
he im
nA kti
5 05
ĠK ir
ĠM ik
Ġdi oj
eb lajn
Ġel d
13 0
Ġpar don
Ġmili toj
Ġekonom iaj
i va
Ġm ol
Ġpas intaj
Q J
Ġins uloj
Ġkomenci ÄĿas
7 25
ti to
Ġsig noj
85 70
Ġnekon ata
Ġd inastio
ĠW a
AN TO
Ġre e
ĠPo pola
ĠUr bo
U F
ĠE ng
ĠEsperantis taj
ĠA na
ĠO t
Ġdis ko
Ġenkon duko
999 89
Ġgener alo
ĠJos e
Ġ ðŁ
Ġsid is
Ġmenci ita
h ard
nK ion
nS ta
s es
Ġy our
Ġenhavtab elon
z aÄµo
Ġf es
66 26
Ã¡ r
ĠindiÄĿ enaj
Ġi lo
Ġfo toj
Ġekster e
l do
Ġdon os
ri aj
Ġplan edo
Ġmal ju
Ġfun toj
Ġel tro
8607 1676
Ġak tuala
Ġsa vi
944 24343
Ġkomp anioj
ri ÄĿis
Ġkondu to
ĠAle x
Ġf leks
ĠL es
nM ia
ĠKun ar
Ġplenum as
Ġalvo ko
4 89
_ {
95 9
M F
dis h
Ġpas inta
reta rio
Ġrimed ojn
24 1
titu cio
Ġprakti ko
8 80
Ġver bo
nJ aro
ĠPor tugalio
D e
h ol
à¤ ¨
v ad
Ġin vers
eb ar
Ġmod eloj
ej a
4 00
Ġal teco
pan ish
Ġaten dis
Ġelsta ra
ĠH or
nÅľ altu
Ġflu gi
wa hili
ĠBan ko
ÅĿta toj
va ro
elig io
ĠPro fes
Ġgvid anto
ÄĪ efa
Ġang ulo
Ġkompon isto
ĠFran c
mal pli
ekz amen
b alo
Ġ19 20
Ġmili onojn
Ġata ko
Ġmek an
Ġs iste
ci i
ĠP ek
ata lo
08 2
995 11
ĠSci ence
ĠKongres a
S Y
Ġko loroj
Ġs h
Ġa pero
Ġfav ore
T F
Ġ que
sh o
rig ardo
Ġ= =
Ġsper ton
Ġ193 0
ĠMon do
g vid
Ġkre dis
k antoj
Ġk reo
Ġb rus
R o
ĠV j
Ġz ono
Ġtito lon
95193 416
ra toj
ha i
184 6
ĠAm baÅŃ
ĠTra dukis
Ġsek vaj
Ġdom oj
Ġfam aj
Ġrib elo
l umo
ÅĿ ing
Ġf iloj
m om
ĠS p
t v
w ay
Ġs cio
99 35
ys tem
ug h
8 10
ĠF lo
Ġstu dis
k anoj
tu be
Ġhom on
rp ski
a ÄĿa
Ġgra ved
Ġdivers eco
Ġnor de
Ġdezi ris
nÄĪ ar
nN umero
Ġvolon tu
Ġpov i
N L
ek a
Ġti mas
Ġg ita
87 0
z eco
Ġh ono
77 5
Ġadminis trado
ĠAnd re
Ġli go
ĠO b
05 0
ĠSi mi
Q V
Ġb udh
ĠlaÅŃ eble
gu e
Ġparo lado
s elect
ĠA M
Ġpers eku
y e
nL u
hav eno
Ġskri bu
ĠChar les
ĠNovjor ko
um b
âĸ º
ran a
ĠaÄīe tis
ĠTur kio
nÐĳ ÑĬÐ»Ð³Ð°ÑĢÑģÐºÐ¸
la Äµo
Ġka tal
m ion
Ġali lingva
tin e
N J
ro id
Ġfari ÄĿi
Ġfru kto
Ġbe laj
ĠRich ard
Ġfrem d
Ġape ros
99799 114
Ä ħ
Ġmem ori
tre jo
Õ ĢÕ
Ã ®
ge blaj
nU n
Ġeven tuale
nSer Äīu
999 36
ni velo
Ġkv ina
Ġekipa Äµo
asis prop
Ġdisvas tigi
p ia
zi on
Ġuz on
ĠDem andoj
ĠB rasil
el li
ĠM Ã¼
Ġmalfer mi
X K
nÐ ľ
Ġob s
Ko ordinatoj
M H
ĠaÅŃ g
t ren
¥ Õ¶
Ġfor ton
ra d
Ġi e
Ġsuper a
don ita
94 84
28 1
Ġva roj
4 57
m uloj
so cia
nJ am
Ġelek toj
Ġaten di
Ġv el
ĠKar lo
Ġviza ÄĿon
Ġdun gi
i ces
à ·
ĠBu dape
99 34
Ġmor ti
Ġeb lon
b ano
m us
Ġekzamen oj
B L
M ar
Ġmalfer mita
ĠAn na
nSim ple
e ga
w in
Ġ 42
ul u
t ele
Ġpoten ca
Ġmul to
Ġflan koj
Ø§ Ø
oj e
96 9
ĠG ener
Ġim per
Ġmalak cep
G L
Ġpa per
ĠB ab
Ġreligi aj
¡ÕµÕ¥ÖĢÕ ¥Õ¶
Ú ©
Ġm uz
re y
da y
ka talogo
kor aÅŃ
ĠS ko
Ġno toj
A Z
r z
Ġinterv juo
Ġ\" \
Ġtran Äī
157 44
Ġv ag
56 2
kapa blo
nB atman
Ġentrepren o
Å Ľ
à¤ ¿
ĠArmen io
Ġmal lar
Ġkonf uz
Ġinterkonsen to
Ġkuns ido
lus tuli
Cen tro
ran taj
Ġdis tribu
ĠFo lio
Ġdokum ento
ĠRom an
ĠEgip tio
S L
Ġpro por
ĠF la
56 0
Ġliber aj
Ġmalvar ma
Ġamaskomun ikiloj
an taÅŃ
raj toj
om bio
da Äµoj
Ġb es
Ġekster landaj
mal s
lustuli mu
92 20
Ġsukces e
Ġbata li
97 9
Ġsu p
d eno
k ana
ĠÄīes is
Ġi ru
Ġvi rus
X P
ĠF ren
av e
il le
Ġinter ne
Ġhej m
Ġs tan
Ġmal d
th i
se co
89 1
Ġw as
Ġaparten is
ĠRu ÄĿa
n p
Ġs kribo
ĠI I
23 1
Ġeks tero
Ġkom b
ĠKon traÅŃ
9996 7
Ġdeks tra
Ġs rpski
ĠS z
ĠMal graÅŃ
c anoj
tin te
Ġdepen de
nDan sk
3 13
Ġinteres oj
Ġorganiz aÄµoj
nÐ¡ ÑĢÐ¿ÑģÐºÐ¸
m undo
en ojn
ÄĿ ajn
Ġen ke
Ð» Ð°
998 15744
i ÄĿon
nRom Ã¢nÄĥ
n d
Ġv alu
Ġre taj
ma la
bo ur
ĠAÅŃ to
Ġce teraj
4 25
cy clo
999 27
ĠKons ul
Ġgeed zi
ĠÅĿ ata
nF i
or y
Ġal u
Ġre ÄĿis
Ġven i
987 82
Ġnum eron
ĠGlo bal
8570 989
Ġmal kres
reto so
Ġfilozo fo
fari ta
ĠC lub
ĠH um
ĠKon diÄīoj
Ġorig ine
nPers ona
ĠOx ford
T E
98 77
Ġbu ÅĿo
ĠJer usal
C om
Ġ Ï
Ġkun ord
Ġw ill
Ġmalrap ide
ĠD aÅŃ
ĠaÅŃ di
Ġ1 75
Ġmal ven
Ġ198 6
pro j
Ġar ÄĿ
nT re
Ġfo rigo
ĠSen kategoria
ĠF eli
Ġfunkci i
Ġrezul tojn
Ġt era
Ġeble co
R Z
Ġsper tis
O K
55 9
Ġs vis
ch el
Ġkan ton
Ġmalsu pren
p us
le gis
44 9
Ġajn an
kan taj
igar du
b ari
f fe
ĠMa y
ĠK atal
Ġal ti
0 25
nK ara
Ġtiam a
Ã Ł
ĠA ten
98 75
mi th
nT he
Ġsta rigi
Ġnu tra
R H
Ġsukces as
nTi tolo
Ġ Ù
Ġpostu lis
ĠM ela
n al
nD u
Ġer aro
ÉĻ r
ĠB az
i ojn
Ġkal kuli
Q K
Ä ĩ
99 11
Ġn ere
Ġdi rante
and er
Ġbazi ÄĿas
g ulo
t eloj
la vo
Ġkom ento
ĠLon don
Ġima gi
G Y
ĠÄĿ ui
ĠAl done
s kul
86 39
è ¯
Ġpro toko
nRila taj
X C
Ä¥ os
Ġkap tis
Ġmenci itaj
0 96
Ġvoj oj
Ġproj ektojn
Ġegale co
5 23
G J
Ġpre mio
Ġhistori aj
Ġpatro lita
b ono
ha vi
Ġfeli Äīa
Ġf ad
T K
n ret
w p
ĠP l
kciden ta
ĠR am
ĠC ro
Ġfor taj
ck er
nT rans
Ġelek tron
tic s
ĠE konom
ĠB y
Q M
R P
S M
nD ez
e ÅŃ
Ġof en
logi e
p ova
ĠP aci
tan tan
Ġri medo
Ġku ÅĿas
Ġna ture
Ġsufer is
Ġfenom eno
ĠÅĿan con
nH ejmo
Q F
999 37
Ġdi e
Ġinfor mon
Ġto ler
Ġinklu das
Ġinstru as
Ġplur foje
Ġa gi
11 17
Ġsu de
Ġfra ÅŃ
ĠÄĿoj o
s ol
Ġpo emoj
t d
Ġnov aÄµojn
Ġfori ris
Ġre tiri
fi toj
Ġali re
nÎ ķÎ»Î»Î·Î½Î¹ÎºÎ¬
r ele
Ġelek taÄµon
aran ÄĿo
Ġf os
ĠB rus
ĠKa fo
ligi taj
Ġpolitik an
Ġmaten e
G F
ĠP aro
Äµ a
Ġc an
Ġnom ojn
Ġfakto roj
ur s
ĠT ia
Ġsen ton
33 0
98782 945
Ġuti las
Ġ 54
ĠP O
me z
nP e
nUr sula
5 02
04 8
nTi áº¿ng
ĠFri ed
g ni
g ante
Ġar boj
Ġtek niko
Ġkristan a
T Z
ĠK ru
Ġb ordo
ĠP Ã©
di men
66 9
pli fi
nI li
Ġfil me
h istorio
Ġ 99
Ġed zi
9956 1477
Ġvali das
Ġpand emio
nF o
inter est
te toj
ĠlaÅŃ le
ĠInter naci
93 8
ic z
Ġreprezen tantoj
G M
ĠS co
ĠMar ch
ĠCh i
Ġpris kribi
Ġbez ono
Ġpermes is
ar doj
ĠF ron
ĠPla tano
R M
Ġpre pa
ĠdaÅŃ ra
truk turo
Ġspeciala j
Ġmalfru e
ĠMalfer ma
ÕĢÕ ¡ÕµÕ¥ÖĢÕ¥Õ¶
z ÉĻr
us io
Ġgru pon
ĠEsperan tisto
Ġsen ti
bay can
k el
ĠSek ureco
Ġspek ta
1 80
nE RGO
Ġoficiala j
dire kti
ĠD ia
ku ro
Ġcirkons tancoj
zÉĻr baycan
ĠCi vito
ĠÄĪ ef
ĠM ol
Ġpl um
ĠInvers igi
un doj
Ġpro pri
Ġm uzeo
ie tuviÅ³
Ġhazar de
e ven
um as
Ġfa ka
ĠÐ ½
Ġdisku ti
0 84
tu te
Ġpri labori
ej ojn
Ġindustri a
Ġsta rigis
, \"
Ġjar e
nCi vita
vor taro
nLoÄĿ antaro
Ġeks pli
Ġindik ita
N V
ĠÅĿanÄĿi ÄĿis
Ġprote kto
li p
Ġmalfer mis
Ġprakti ka
N M
is o
Ġli teratura
land anoj
ĠBlan ka
W C
Ġmal eb
5 15
h on
Ġp ek
un ua
29 27
Ġregis taroj
he j
Ġda tre
Ġf ro
Ġl es
Ġfunkci is
Ġac ido
ĠL ou
j aro
Ã ´
nE esti
nN ovaÄµoj
Ġlim dato
0000 88
kis toj
200 2
Ġdona co
4 53
re jo
ĠI a
f ak
9607 6626
____ ____
c ki
Ġ Ñ
Ġ1 50
lan taj
74 8
nLas taj
Ġg ene
57 1
Ġkli ma
g vaj
da taj
ub e
Ġlar ÄĿa
43 0
56 8
Ġ3 8
ĠH odiaÅŃ
ĠBla ck
Ġres publiko
ĠS ig
par a
ĠVi an
194 3
Ġpasin teco
Î ¿
man ta
pu ro
B O
nA frikaans
form kesto
Ġh ospita
Ġokaz inta
Å¡ Äįina
ĠK iss
Ġkun teksto
ĠI rako
men ts
lan oj
ĠaÅŃto mo
Ġdef endo
ana da
Ġs orto
pa ci
03 1
vis mo
Ġkomun ika
Ġanta ux
p ul
vi vo
nHistorio Redakti
f ina
Ġha roj
ĠOkciden to
nK or
bri dge
id f
ĠÄīe esto
pi ro
3 22
Ġmal mo
Ġs pon
Ġe roj
9 21
in do
Ġkomple te
00 19
nÅľ i
Ġpropon oj
Ġtradu kon
4 05
K ol
t Ã©
nC om
Ġapar taj
ĠMela yu
as e
999 25
Ġmal ÄĿus
t mo
ĠÅĿ er
lis ta
Ġpa ÅĿo
Ġunun ura
Ġmor tigis
f fer
ona taj
de ven
Ġkom peten
te j
Ġcer taj
ĠA fri
Ġfunkci ojn
Ġaspek toj
Ġfig uro
Ġzo dia
ti e
Ġnom ataj
x on
99 24
98 27
g s
Ġb edaÅŃrinde
Ġinfor ma
ĠaÅŃs tra
Ġener gi
ig ata
D H
ĠM ara
Ġelek tas
Ġkas telo
ĠÄĪ io
Ġinf la
Ġeb ligis
parte toj
ĠEsperan taj
nN ova
Ġplu e
Ġplan as
ĠTo golando
Ġsufer as
Ġalfab eto
s to
Ġt rajn
ĠAf gan
pe roj
Ġtradu kado
Ġpli a
Ġsinjo rino
Ġenga ÄĿi
2 94
4 97
ĠS ove
57 8
ĠPar ko
Ġar Ä¥i
00005 95
Ġpi edoj
ĠZ o
Ġorganiz is
ĠMed i
kun s
nSu per
Ġf ol
5 06
h ano
v aloj
Ġfor mi
ĠâĢĵ \
Ġcx ar
N U
Ġf ut
ĠP akis
ĠKon tro
istem on
) [
kis h
Ġrapor ton
¹ Ħ
ĠÅĿ o
W P
Ġvol us
Ġpo ÅĿtele
Ġpron omo
à¸ Ĺ
Ġteks tojn
Ġkvad ra
S Z
Ġa bo
am etro
Ġh orizon
Ġka fe
Ġver kon
Ġmor tigi
ĠSam uel
Ġ5 2
à¸ ¢
nK elkaj
ĠB or
ĠS on
ĠM ON
Ġ4 9
Ġgener acio
Ġruman ia
n áĥ
ĠN igra
nM an
b lajn
Ġo ce
nD ua
ĠMed ic
lo va
nR a
Ġse ÄĿoj
kri bu
Ġkontakto s
Ġm m
di vid
lu do
ĠBudape ÅĿto
ci as
ĠÄī inaj
Ġan oj
aci aj
Ġta ge
ĠZ b
Ġkan tojn
3 23
Ã ¸
Ġver kado
Ġbe lan
pro ksim
Ġri kol
nB er
Ġkla rigis
ustri ta
Ġlini oj
le to
Ġtrans porto
Ġdatu m
4 04
ez ia
ur man
Ġter ura
2 97
N B
Ġj ara
Ġar baroj
Ġven do
ĠE di
Ġ193 9
â Ĺ
li e
re d
Ġi r
urn a
ĠLi aj
Ġflan ka
pil ko
te go
Ġ2 10
17 1
76 8
ĠH ol
000057 7
_ (
le c
Ġdo k
Î ±
ĠÄĪe Ä¥io
à¸Ĺ à¸¢
4 07
¹Ħ à¸Ĺà¸¢
Ġeks plua
2 80
99 04
ĠR uman
ĠN et
Ġme tas
Ġkur son
9 28
f el
Ġf lo
Ġhav us
Ġkapab lon
Ġdifin as
Ġgra do
Ġp on
Ġj an
zi lo
ze ch
Ġreg ulojn
Ġb abi
996 34
ĠSan kt
ĠPrez idanto
Ġhan dika
an kaÅŃ
ati ve
nPro fes
98 23
Ġfoj ojn
Ġener gion
S u
ren o
nM orto
ĠloÄĿ antojn
Ã§ o
5 04
c ro
Ġelsen do
gvaj o
L igiloj
S C
l la
Ġpro kras
Ġc he
ĠMi li
ĠW ord
partem ento
vangel io
98 96
ĠR im
03 8
nR en
ekti taj
Ġkonstru o
G K
bil doj
dig is
Ġkura ÄĿ
Ġ194 8
Ġpo emo
Ġmili ardoj
4 10
th a
ĠVer ÅĿajne
Ġeble con
Ġantik vaj
R F
i tajn
Ġh as
Ġpli ajn
rig ht
Ð° Ð½
Ġregistri ta
produk tado
G Z
ĠN ata
Ġviki pedio
d enta
gonom iaj
ĠA us
ĠTi un
Ç Ķ
Ġgrama tiko
a ÄĿo
te ca
Ġpi oni
ĠRom ia
9 18
n m
s is
Ġde pon
Ġkon ton
nT ro
f la
Ġd elonge
dem okra
ĠR em
45 0
Ġpost uloj
ĠdaÅŃ rigis
Ġgaz etoj
Ġho rojn
ne y
00005 92
ĠFre d
Ġorganiz ita
g ano
ku ti
cep toj
Ġapar atoj
_ -
Ġtas koj
AR Y
ĠmanÄĿ aÄµoj
n Q
Ġku i
Ġunivers ala
Ġalpor tis
im bab
ĠNor ve
Ġserio ze
ĠL er
Ġg li
uj ara
ĠB ud
Ġ194 0
Ġm ino
T D
om an
eri ka
tom b
ta loj
999 23
Ġser von
N P
ho u
j am
tin on
Ġad jekti
4 15
Ġpli an
Ġlan daj
Ġesperan t
à² ¨
u oj
Ġam ikeco
Ġro tari
Ġespri mis
Ġkal endaro
Ġisla ma
Ġf emin
999 45
Ġar tisto
Ġnaski ÄĿo
Ġplilong igi
J H
Ġkon i
ĠV el
Ġres tora
Ġokciden te
las ta
Ġmalpe za
Ġskrib ita
Ġtelevid o
k igi
ĠK aro
44 0
rin oj
63 9
Ġbi ci
ĠVa ÅĿing
J Y
Ġs ing
is moj
Ġarm iloj
Ġsimp laj
Ġal proksi
Ġpubli ke
Ġamas o
Ġk ver
Ġp into
Ġde zajno
uti me
Ġeb loj
12 59
ĠNom spaco
ĠS un
Ġar tistoj
ĠNi co
Ĺ áĥ
ĠP DF
ĠO lim
ener ala
Ġpopo la
paro lis
ĠAmeri can
Ġfizi ka
ļáĥ ĺ
Ġpro fe
gra fo
Ġinflu as
ĠCom ics
73 2
5 16
Ê »
ĠUN ES
ĠÄĿoj as
co de
Ġokaz on
AD E
Ġfran caj
Ġmis kompren
Ġkoncer to
ĠD ra
Ġokciden taj
ĠKiss inger
Ġcel ojn
Ġpan elo
6 03
J B
ĠLa bo
ĠG ali
ĠRevolu cio
A H
D osiero
n by
Ġa ktoro
ĠPa co
Ġ198 4
ĠNo bel
nret poÅĿto
ti la
Ġs ab
Ġneces e
) :\
7 04
O H
X B
á ±
am ikoj
Ġdisvol vita
. ).
Ġkonsid era
á Ĭ
in ojn
Ġmalfer ma
uo kaze
Ġen re
1 999
ci Ã³n
nP i
Ġ ÑĤ
ĠH oro
L L
ĠK ari
ĠM is
Ġb lua
Ġv io
Ġo ro
ĠEn cyclo
O r
Ġf estoj
Ġle gado
ĠAl ta
f al
¥ áĥĲáĥłáĥ
Ġrila ton
ĠJo urnal
¥áĥĲáĥłáĥ Ĺáĥ
ĠNa pole
3 12
c ra
Ġw hi
J Z
tig ante
4 95
4 83
Ġd in
oj o
7 23
G P
Q C
f to
un t
ov Ã¡
ĠÄĿ ermo
Ġapar tan
Ġnorm ale
g ener
ci ante
ht m
á Ī
98 16
Ġper do
Ġeks por
ĠEven ta
Ġp in
Ø ¬
ĠM en
mi t
nG ran
99956 894
Ġd osiero
âĢ ĺ
nL igo
Ġforlas i
e y
k tis
z ante
or u
Ġkov ras
Ġ- --
ĠNun tempe
Ġvesper e
g la
Ġpo laj
Ġfo li
Ġ(... )\
46 51
ĠÃ ģ
ĠreÄĿ ino
Ġkampan jo
le con
ĠÄī eloj
nH rvatski
Ġkontro lon
Ġrom ia
Ġal ÅĿu
ĠB us
pi tula
Ġlu kto
ĠBar cel
v iden
ba zo
3 83
is ton
fa co
Ġdeta lojn
Ġsitu o
Ġkomun an
nPa ÄĿoj
N E
4 86
nS an
ĠvoÄī oj
fo ro
Ġvid ebla
Ġsemin ario
52 13
5 11
m uzaiko
Ġn y
Ġmona tojn
9386 292
% \
ĠSi rio
4 17
Ġkvar talo
s tan
Ġb esto
nLe vilkarto
Ġpun ktoj
Ġampleks a
97 72
ĠH unga
Ġf rekven
94 0
Ġuni ka
razi lo
Ġmenci is
Ġ1 000
me t
Ġko do
5 53
z ar
ĠC re
Ġtem ojn
V Z
ri d
ĠRo bin
Ġal veno
Ġo be
Ġdi men
54 1
ĠRen konto
nN om
00005 91
ĠKan tono
Ġsu ver
9999 1846
Ġprez enta
ĠNov aÄµoj
Ġrif uz
Q B
Ð° ÐºÐµ
ĠMar k
ĠK ing
Ġju nulo
ebu ano
V Y
s aj
te joj
ĠP roj
vil le
ter ne
05 8
Ġju da
Ġreg ulo
Ġesplo ri
Ġstrate gi
ĠHin di
ĠS ol
nL ietuviÅ³
Ð´ Ð¾Ð½
Ġsus pek
N o
Ġoku pis
gru poj
Ġmult nom
Ġa to
Ġ198 5
Ġmalproksi me
ek taj
Ġne e
ĠF ab
Ġo ks
Ġkom pi
ĠBer tilo
ãĢ Į
p df
h id
U nivers
ga li
pan te
Ġsci pov
Ġfinan caj
ĠJa ko
M an
ĠFrancis ko
oni an
plo ad
logi an
kol ekto
Ġsin dika
Ġfra zoj
nLi teratura
Ġgrave co
komputi laj
ĠW el
ĠRi la
kluzi ve
3 85
A Y
g ara
Ġlasta tempe
Ġordin ara
Ġpre ten
tor s
57 2
ĠJo ze
Ã³ w
Ġespri moj
Ð°ÐºÐµ Ð´Ð¾Ð½
T X
nP arto
ĠLi broj
T lustulimu
d el
ar ma
vi r
ĠC O
kon duko
Ġrevizi on
Ġelekti taj
ĠOf te
G C
ĠJ aro
f li
99 16
Ġinf ana
5 14
d t
o rita
nA tribu
Ġakcep tita
l v
re g
Ġvid os
cen zoj
ĠP ales
ĠÅĿ los
ĠKata lin
vi val
eÅ¡ u
Ġbran Äīo
n k
95 20
Ġsin teno
65 0
ãĢ į
Ġfond into
Ġi ros
Ġvizi tas
Ġvita mino
j un
Ġ= \"
V idu
am as
Ġpa con
Ġso ciala
Ġver an
Ġvid eblas
9996 3
Ð°ÐºÐµÐ´Ð¾Ð½ ÑģÐºÐ¸
5 117
ti goj
Ġs ov
tan eco
Ġhered aÄµo
Ġpej za
ĠE rich
ĠT ar
man ÄĿo
Ġdisku toj
Ġin aÅŃ
tu rojn
== ==
Ġs aÄĿ
Ġf ul
00005 88
ĠMal s
H o
25 8
ĠSoci eto
3 531
n ç
go ro
Ġfi as
w or
à ¶
Ġ ï»¿
po ten
Ġe ro
ĠO ra
48 1
Ġmalal taj
V H
Ġmal plen
igita n
Ġstu di
b lon
c are
nK rome
tvi eÅ¡u
Ġkom ision
p lon
pe co
Ġori ento
Ġbir do
87 1
Ġman ÄĿo
Ġsta cid
Ġkan alo
Ġki r
Ġpri komputilaj
Ġmal he
Ġrad ikojn
ĠAt lan
ĠEuro pe
08 1
Ġkristan oj
nor sk
Ġkomita tanoj
J M
c um
Ġrive roj
Ġ igis
Ġuz adon
u ko
Ġkons cio
ĠNe ces
02 1
33 2
Ġam bi
Ġekstero rdin
T I
me tri
Ġrom pi
Ġrif uzis
9 09
kis mo
à¤ ¦
nSloven Äįina
u to
la g
Ġplan to
Ġtab eloj
pi c
ber a
Ġmez epo
Ġ197 9
f und
Ġb ari
ĠInter reto
Ġfra toj
Ġforges is
s s
Ġg uberni
ĠG ol
03 2
ĠRo terdamo
nEl ek
Ġru bri
ek va
Ġmateri alon
ps ko
nNaski ÄĿo
Ġmov adon
Ðµ Ðº
pri l
Ġkonsis tigas
Ġjus teco
Ġliter atur
Ġli gas
Ġkristan ismo
Ġnok te
F EAD
c ere
s krib
em uloj
Ġsoli d
à± ģ
A ÅŃ
ar koj
lan don
ĠW ol
Ġtradu ku
93 9
978 83
ĠDi re
Ġkuke tojn
98 95
eb as
âĢľ ,
Ġ8 00
zo ro
Ġser vojn
Ġad vo
Ġniv elon
Ġvi co
ks em
47 0
ĠLe on
SP ER
£áĥ ļáĥĺ
S im
Ġf ero
Ġdo loro
Ġreven i
19 0
Ðµ ÑĤ
Ġscienc istoj
grafi aj
ĠVla di
Ġf lor
eb a
Ġpor tre
Ġmal o
22 52
Ġkor e
nG alego
Ð² Ð°ÑĤ
ĠKons tan
¥áĥĲáĥłáĥĹáĥ £áĥļáĥĺ
er y
nD EC
à¦ ¬
ĠĠĠĠ ĠĠĠĠ
ĠL ud
ãģ ĭ
ĠM el
Ġuti li
Ġeston ta
- \
ĠS piri
\" >
ĠPar to
Ġaser tis
Ġki en
Ġman ÄĿas
â ĺ
ĠÄī ia
ebsi te
tra kta
Ġfak uloj
Ġindividu aj
Kore io
à ¯
Ġn ume
ĠlaÅŃ longe
Ġprezen titaj
ia do
84 9735
95 1
4 94
d ing
Ġven di
144 04
en tan
ti ca
Ġam ik
Ġankor a
Ġris ko
uj n
eb lo
c ido
ble co
Ġcer tas
kol ora
6 00
6 13
Ã ģ
ÅĿ ar
nA ng
Ġpart n
849735 44
ĠR io
Ġ196 8
Ġkli mato
Ġka ÅĿi
ĠMin is
ĠVarsov ia
Ġdos ieroj
G D
z ed
ti ce
áĢ Ļ
ĠGre ek
ĠTaj vano
Ġpro vu
53 0
la Äµoj
Ġk in
Ġpro ced
4 96
5 86
x u
Ġpor tis
\" ","
Ġkam ar
plek so
W O
lingvan oj
! âĢĿ\
ka Äµon
ĠN eo
Ġorganiz as
2 86
Ò Ľ
ä º
Ġa mon
ĠE volu
ĠÅ Ľ
5 21
ka taj
Ġmar k
_- _
Ġve tero
Ð°Ð· Ð°
nDez ajn
de u
74 0
Ġkonsen to
Ġpo lu
Ġas tro
m ad
ĠF abri
Ġargum entoj
Ġka li
37 1
nH or
Ġcer bo
Ġpozi cion
Ġtea tro
D o
ĠDe utsch
Ġmaldeks tra
Ġul tra
W D
tis h
Ġpo e
Ġvenon taj
T B
ÄĿ eto
Ġes pero
à¤ °
z ino
fekti ve
Ġ å
ĠP lu
ĠB one
amen ta
min oj
Ġera roj
z Ã¡
tas ervo
nV en
ĠPakis tano
V er
te kti
ĠK D
Ġdis de
à¤ ²
Ġaspek ton
8 1923
ĠB ol
ĠC la
m ina
998 94
dli teraturo
tar as
Ġproksim aj
a tas
di c
ĠW o
93 1
tr ajn
35 2
u pload
Ġ Ã©
Ġ1 15
na ro
ĠAli flanke
j aj
gas y
Ġpru vi
ĠDis trikto
d antoj
Ġp ak
Ġpa go
63 0
A li
n ÕĢÕ¡ÕµÕ¥ÖĢÕ¥Õ¶
s tu
t elon
kon tro
CC B
g lu
k tan
id is
Ġo le
Ġmov adoj
9684 2927
nAtribu to
paro li
ĠDan io
955 8639
nPrin tisto
97883 564
nDezajn isto
is taj
ins tru
Ġdefen di
bi c
Ġata kis
5 07
eo r
Ġkontribu is
Ġmak ler
Ġke urig
ĠFran ce
nU l
Ġoku pas
Ġkvali ton
naski ÄĿis
Ġres publi
Ġakti vi
Ġok t
ĠLern u
Ġli tero
ĠM ani
7 05
Ġre ferencoj
ĠJ ac
Ġfer mita
Ġopini is
wi ÄĻ
us s
Ġfaci ligi
Ġpere is
pro tek
07 1884
P K
ĠVo ices
5117 22
ec an
ĠPo z
Ġakti vado
Ġjen a
Ġtas kon
513 365
757 473
14404 1259
Ð°Ð·Ð° ÒĽ
81923 4651
071884 5213
Ò ļ
Ġ !\
Ġflan ke
nEk zistas
Ġgr undo
65 2
Ġfo lioj
J L
Ġes pl
ĠA pp
ĠO kaz
ĠPar toj
c ele
Ã ĵ
Ä ±
va Äµoj
ĠBiblio teko
R B
ĠÄīe fo
2 19
Ġtradi cie
vado ro
T U
s te
.. .","
Ġsek son
34 9
Ġdatu mojn
ĠHispan a
Ġkonsidera taj
Ġkom and
tra dio
Ġim por
Ġmu roj
ren kon
Ġreprezen tanto
ĠPubli sh
Ġsek ura
ĠD el
ĠanstataÅŃ e
Ġalt ni
Ġabsolu te
ĠFren ch
M aku
nK rom
nP as
Ġmili tis
ãģ ¾
Ġorig ino
ĠDi plom
Ġven ki
Ġf loroj
Ġt el
man d
Ġof taj
Ġtrak tas
Òļ Ð°Ð·Ð°ÒĽ
P i
Ġpa ÅĿ
Ġklopo das
Ġforges u
B o
m ara
ĠPar ti
Ġsuges tas
Ġavanta ÄĿojn
Ġhor lo
ĠA ni
pa tro
ch es
Ġf anta
999 06
ĠaÅŃ t
nF ine
pro du
Ġpez a
Ġinteres e
ĠB edaÅŃrinde
ta ge
tri ta
ĠMon tre
emon io
Ñħ ÑĢ
s kribo
Ġen try
Ġre alo
Ġsub jekto
dig as
CC E
wa i
Ġturn is
ĠI van
ĠUni ted
Ġal ko
ab el
Ġescep te
Ġli k
Ġpar ko
Ġaper i
amenho fa
cto ber
. -
Z H
s p
ur ajn
Ġscienc aj
ĠPek ino
Ġt esto
Ġkonsider is
Pro tokolo
u bo
Ġeb laj
hr vatski
k k
Ġm orgaÅŃ
ãģ ª
Ġter on
nJu lio
4 12
ce lan
Ġpra vas
di t
Ġinter reta
ĠÄīe estis
ĠP rus
sta to
Ġesti ÄĿis
Ġplez uro
v ara
ec t
rom pita
Ġekkri is
¯ ÙĪ
Ġsen das
Ġlin ks
azar da
H istorio
c ino
ala m
nR edak
Ġdisku t
Ġdiplomati que
Ġe taj
Ġmi z
ĠG as
Ġeks a
ĠBer lin
nEr gonomiaj
Ġre zolu
nS r
Ġunu ajn
hav as
Ġ198 3
G S
w ell
bi an
3 01
m ak
ĠM ODx
nM ODx
AA E
Ġeldon is
Ġpor ti
vi ro
ck r
81 93
tik ajn
ĠmanÄĿ aÄµo
ĠÄĿard eno
7 27
s pi
nR u
y es
Ġpo em
ĠJ ar
Ġmed ik
ĠSci enco
Ġeksci i
edu kado
fos emoj
n kaj
Ġ1 67
Ġmal ÄĿoj
ĠR on
at ch
Ġdecid i
Ġpron omoj
i er
14 0
Ġne go
999 11
de go
nP ubli
30 15
). [
gan taj
Ġproduk ta
Ġ193 4
Ġimpres on
psko hrvatski
ti ÄĿon
16 0
Ġcel is
X D
Ù ī
99 00
Ġvari as
Ġval oras
da v
ĠF esti
ÑĢÐ¿ ÑģÐºÐ¾
ĠRuman io
Ð²Ð°ÑĤ ÑģÐºÐ¸
ÑħÑĢ Ð²Ð°ÑĤÑģÐºÐ¸
ÑĢÐ¿ÑģÐºÐ¾ ÑħÑĢÐ²Ð°ÑĤÑģÐºÐ¸
4 11
nH o
nO ktobro
ĠÑģ ÑĢÐ¿ÑģÐºÐ¾ÑħÑĢÐ²Ð°ÑĤÑģÐºÐ¸
nSr pskohrvatski
97 94
04 9
36 1
Ġle vis
Ġtraduk isto
Ġtrak tado
ĠCam bridge
d uso
k ru
ĠH ebre
Ġunu foje
Ġfak oj
D is
h oj
ĠLe ono
vor ton
6 23
an da
ĠÅĿ ir
ĠRus sian
ĠkondiÄī ojn
Ġkongres oj
ĠFon daÄµo
999 20
999 54
06 9
to rio
9996 5
196 0
ĠhodiaÅŃ a
Ġrapid eco
ĠVj etnam
06 1
ver bo
Ġe coj
Ġam bas
Ġbil dojn
zan io
Ġkonsta tis
re da
Ġh undo
Ġam uz
Ġem in
ĠJan Maku
Ġkilom etroj
X Q
999 26
nEn saluti
Ġret pa
Ġiden teco
Ġve geta
V L
ga taj
len a
las o
05 1
n f
ba to
Ġspeci fe
ĠÃ ł
nReferencoj Redakti
n kon
nMul taj
Ġpa c
Ġvila ÄĿoj
ĠFrom m
4 55
kul tur
Ġdifer encoj
4 85
P D
nN a
Ġsam tema
sk Ã¡
Ġkor ek
Ġâ ĸ
Ġciviliz acioj
99 177
Ġtraduk ojn
nÄľ is
Ġre prez
37 9
ĠCi ty
c or
uri ero
Ġle teron
à¯ į
h ala
n ur
Ã »
di ko
ĠF al
ĠGerman ujo
ãģ Ļ
Ġklas i
Ġtito loj
m k
999 34
1 997
7 11
Ġpre fi
24 0
/ .
u rec
ti es
ami ko
Ġmas trum
Ġels taraj
ĠSam tempe
en daj
ĠI tala
ĠHin dio
. ),
999 14
Ġmals ama
Y Y
ĠS and
Ġpa ÅŃ
Ġeks pozi
es te
Ġre tan
ÄĿin te
ĠM ana
Ġdecid as
us kri
ĠHom aj
nAk tuala
lau de
aj xoj
Ġgra fi
35 8
63 2
ini an
ĠKongres oj
eb rea
tro s
tik isto
Ġklopo dis
v juo
à¤ ª
ci ajn
25 25
deks tra
2 87
cation s
Ġpre ven
35 9
Ġkomun ik
Ġinteres on
ut ch
66 8
ĠKon kurso
Ġco loj
nK ri
nA zÉĻrbaycan
Ġfa zo
ÅĿi po
Ġokciden to
e ge
Ġnur aj
Ġsoci an
46 0
Ġm am
ĠN an
ĠF A
ak tuale
Ã¨ re
à® ®
set ti
- ,
zi ÅĦski
Ġenkondu ki
ãģ §
V B
97 43
Ġtek nika
ĠserÄī is
à® ¿
nHel pu
2 84
4 26
Ġta Äī
66 1
d um
Ġi lus
Ġka toj
Ġra dika
Ġ19 18
Ġrez isto
Ġfilozo fi
Ġinter naj
Ġstabi la
Ġb or
Ġb ono
Ġtri bun
00005 44
Ġopini oj
Ġses io
Ġagnos kas
99994 98
4 87
Ġfunkci ado
komun umo
Ġped ago
imbab vo
la zono
Ġvikti moj
Ġgaze taro
ĠE UR
ki es
ga Äµo
ĠÄĪ irkaÅŃ
ĠAd am
Ġsim pa
Ġinflu on
nAd minis
Ġetiked igita
Ġvi tro
Ġvi vanta
Ġkom pro
men ciante
Ġfo rigis
Ġreligi oj
n mov
w orld
ĠNa tional
ĠJose ph
ĠE ric
ĠK ra
Ġpor don
Ġsimi lan
à® ¤
tin taj
Äīam bro
9484 1117
don is
nA le
ĠTh eo
8 18
d uloj
Ġgej u
Ġ Ð¾
ĠS tar
ĠO rigin
tic al
d ua
99 03
ĠL eo
à® ´
ĠBr ze
ĠL is
Ġ193 3
Ġstra toj
ten is
3 15
5 17
g l
s che
ĠÐ ¼
Ġ198 2
Ġes ta
ĠKar l
nRet poÅĿto
Ġkonsen tis
Ġel di
Ġfra tino
Ġkan cero
2 96
4 84
J es
Ġki an
tem aj
ĠPra kti
Ġinicia to
à®¤ à®®
ti co
ĠMa x
ĠVil helmo
Ĥ \
Ġp s
95 0
Ġins trua
Ġesperan taj
Ġrez ign
lova ka
V M
ĠB ran
Ġpas igis
ĠAnton io
Ġny norsk
Ġli gn
Ġhav ebla
u is
99 08
Ġpro tokolo
57 9
Ġagri kulturo
j ari
Ġpermes i
ĠD ar
Ġdiman Äīo
ci lio
ord er
CD D
Ġmez uri
Ġspeci faj
Ġunuo paj
ĠVaÅĿing tono
Ġes tante
Ġhav e
à¦ ²
far ado
Ġepizo do
Ġmontri ÄĿis
oper ati
Ġri Äīaj
Ġesperan te
Ġenhav is
ĠSa int
Ġma gaz
Ġkarak teron
J o
Ġsubskrib is
f lo
ed e
ig anto
Ġci taÄµoj
u as
ħ Ø
ĠO li
be la
Ø§Ø±Ø ¯ÙĪ
Ġeksperi men
4 98
ĠS uno
Ġfren ez
ym ra
K Z
99511 63
Ġpa tr
ĠIn dustri
Ġdispon as
nAzÉĻrbaycan ca
98 94
BA C
Ġvin tro
ĠSo cie
194 1
Ġesperantis tojn
O B
vi lo
tem p
82 973
Ġten is
Ġp onto
Ġkun me
ne to
Ġnun aj
ĠBrze ziÅĦski
ĠC zech
Ġpublik igitaj
4 90
u kso
Ġg ol
a di
Ġprovin coj
Ġmus ko
ĠS pa
ku ris
Ġle gu
nKa ÅĿitaj
Ġkomer cistoj
re toj
ĠA ri
999 04
33 9
Ġab un
Ġmanifes ta
ĠA gen
m il
93 0
Ġperson ojn
99634 826
U zanto
Ġf alo
ĠAl poj
Ġinstitu cio
nUnu e
P B
v ing
999 16
ĠAr tikolo
nViki media
o la
Ġd ens
Ġekzis tanta
à¦ Ĥ
Ġfir me
Ġan o
pre mi
à¦¾ à¦Ĥ
Ġindivid ua
Ù ĩ
Ġmi rinda
93 911
Ġ19 05
Ġ Ð¸
Ġs ka
Ġes enca
805 2252
4 56
Ġ4 1
Ġpas troj
000057 3
ĠdanÄĿ ero
82973 534
Ï Ĥ
du kado
ĠH ero
F or
Ġf ono
ba ch
Ġakti vaj
ptem ber
Ġredak cio
Ġsimpto moj
okum entoj
pa ga
Ġfami lia
Ġf ara
06 8
ÅĿt kodo
c ci
h l
Ġla kto
Ġre konstru
Ġmenci i
Ġsan kt
ĠFranc ujo
Ġ193 2
Ġpo ÅĿ
ĠNi kola
4 28
Â ®
in tojn
Ġes ence
ĠS panish
Ġin k
ĠneÅŃtra la
f aci
n eo
ĠS mith
Ġek estis
nM in
Ġlan Äīis
Ġpli igi
Ġak ciden
ĠZ odia
Ġkron virus
a ton
ĠK ia
. --
ĠC y
istem oj
a ch
ov en
ĠA mas
ĠC al
nD ona
ĠB ak
Ġinter re
Ġpre tigi
Ġlabo roj
9 01
j es
ta ble
Ġf ros
Ġma gi
os an
tin to
ĠPra go
S h
ĠS peciala
Ġinteres as
ĠHa i
Ġban ko
Ġj ul
igu el
Ġro mi
ĠR od
Ġ194 4
000057 8
Ġzorg as
Ġhid ro
W R
ti ma
nH azarda
Ġrespon doj
Ġeldon on
E X
Ġeks pedi
ĠPa ris
ĠTra kta
6 37
f alo
ĠÅĿta la
Ġjen e
Ġsubs tre
4 92
54 9
Ġas tronom
Ġk emia
Ġsigni foj
TM L
f te
ĠAd minis
09 1
ĠÅĿablon oj
O Y
Ġek rano
nE ble
Ġfari ÄĿos
Ġmala miko
Ġmedic ino
Ġzor gi
ĠF ilo
ĠRe gno
Ġren vers
Ġkonsis tis
Ġdiskrimin acio
ĠFried rich
ĠHoro sko
e zo
Ġ igi
ta ga
ĠP un
Ġtra fis
nSloven Å¡Äįina
m erka
Ö ´
ĠK ura
vo ko
98 22
nK an
Ġfunkci on
Ġini ci
93911 17
/ "},"
V F
ĠG vineo
ed zi
Ġlo s
igni ew
4 88
į s
ĠC ho
nLa tvieÅ¡u
Ġsta tus
ĠaÄīe tas
Ġenkon duk
Ġkav ali
P ress
Ġmino rita
Ġhistori isto
ĠÄµe tis
Q D
ĠH omoj
Ġturn i
li bron
98 86
Ġper das
ĠdaÅŃ ro
Ġmallon gaj
Ġeni ras
p ono
ĠkontraÅŃsta ro
um ita
2 18
Ġt rajno
ĠA ven
pe e
len ska
ĠvoÄī dono
uber t
Ġ æ
ti oj
ak oj
ros s
Ġ195 7
Ġdes tin
P Z
k lon
q ip
~ ~
Ġg aj
igi lo
ĠÐ ´
aÅŃ mo
Ġkan tas
b ez
f onoj
Ġti poj
ĠM eta
999 35
Ġpri orita
Ġmar ko
1 998
ing ton
nÅľta taneco
n ik
ks aj
Ġmor ton
di ff
nK ol
Ġnov aÄµo
ener ale
Ġfabri ko
nPos te
Ġroman oj
ĠJapan ese
nAntaÅŃ a
99177 29
c tor
Ä Ľ
er to
Ġe jo
nLa tina
Ġc entoj
Ġeb lis
Ġkres kanta
Ð° Ð»
Ġinten cis
ds tri
6 04
a ko
ĠIta lian
n ak
Ġ 53
Ġ197 4
Ġek vival
998 93
Ġris kon
ĠR igardu
men oj
Ġneces o
ĠMos eo
Ġkonstitu cio
à¦¾ \
ĠJohan n
ĠT y
AA B
9220 463
ĠMON ATO
K H
b li
Ġm os
em oni
Ġtro vita
195 1
Ġpopula raj
lovak io
ĠÄĿi ajn
Ġ197 6
e i
p ano
Ġmon toj
âĢĻ .
ĠRus ia
Ġ197 5
liber a
gale cen
9772 97
Ġa gas
ĠL or
esperanto b
C h
po ro
Ġrigar do
Ġdef end
Ġforig ita
Ã§o is
Ġf ek
ĠN ek
Ġma teria
Ġpreci za
Â» .\
Ġvoja ÄĿi
4 14
w il
Ã Ĺ
kon greso
Ġ194 9
ĠÅĿanÄĿi ÄĿas
Ġde vo
ĠAn t
Ġ5 1
Ġvar mo
n di
ĠP es
ĠG rimley
Ġres pekto
Ġon do
Ġevolu is
Ġvolon tulo
Ġev identi
Ġkategori on
Ġm elo
da don
ĠR espon
ge co
95 94
Ġpost tagme
Ġesplo roj
Ġp el
Ġ1 978
Ġhav eno
Ġvor ta
ĠBulga rio
li b
ce la
Ġdi ros
ind ustri
Ġspa con
Ġpos teno
FA E
ĠÅĿa tis
ĠUr sula
Ġindivid uo
Ġde vi
Ġle ÄĿ
Ġlas as
Ġpopo l
Ġklarig ojn
S R
Ġsin te
nU EA
Ġkontribu as
196 4
Ġkru c
la va
ĠGre en
Ġlingva Äµo
en tas
Ġkom pari
Ġpa pero
nN omo
AC A
Ġprele go
Ġelektr onika
ÅĿ tato
999 17
Ġ6 00
Ġkun por
Ġpoli tikistoj
5 22
999 07
ĠKom ita
995 063
ĠMon to
M M
in go
Ġdo ktoro
Ġsam ide
Ġsol von
lingvis mo
ri t
34 8
Ġven dre
Ġfak toj
tura do
vu oj
Ġekzamen o
ĠdediÄī ita
I X
M ari
h ome
Ġre toj
Ġ197 3
Ġklas oj
d isto
} },
Ġ1 20
Ġres to
Ġregi ona
ĠC ata
ĠTi mes
Ġkritik as
vo lon
37 8
9 29
P ol
ĠGran d
ĠSte fano
Ġten as
Ġmaltran kvi
Å ĳ
ĠKore an
z os
Ġan tio
ĠT ea
Ġe f
ĠI P
nIn formoj
Ġsper tas
C o
99 18
mi ÄĿi
ĠÄľener ale
A EA
à ½
es tero
le m
vi va
Ġneni an
Ġsan on
55 0
si ka
Ġsek a
cep to
ĠÅĿablon on
4 20
Ġel pens
ni e
Ġ19 17
Ġman kis
Ġproduk tis
Ġ198 1
Ġag ad
Ġnor mo
Ġ[âĢ¦ ]
g mail
m uni
ĠkaÅŃ zoj
nom e
kciden to
ĠâĢ¦ \
m ono
no logio
Ġso cioj
kam po
5 57
99 20
Ġg amo
inda Äµoj
sek cio
nP rez
van toj
fi koj
Ġpo etoj
Ġmals ek
Ġ197 7
Ġkli ento
L Y
ĠS peci
Ġkonfli ktoj
Ġreduk tas
H e
N R
Ġg es
Ġare on
Ġmodi fi
6 43
ta rio
po t
lan ko
ĠHen ri
Ġa pr
Ġsia vice
ver boj
Ġkomen ca
ĠÃ ī
Ġsupoz eble
5 12
ĠK OV
di tional
ven i
âĢľ .
far as
Ġuniversita toj
ĠS ar
ÅĿ ajn
Ġel ÅĿu
Ġju ÄĿ
Ġrapor tis
c le
lo koj
ĠG vid
nÄ ´
Ġlar ÄĿ
3 90
995063 84
6 27
f abri
ä ½
am an
95 46
ni an
Ġkos to
Ġkov ri
Ġstatu so
įs lenska
7 26
Ġb om
kon o
tes tro
Ġaten to
Ġefi koj
Ġblan kaj
ĠÄīapi tro
g bo
Ġk lin
ĠU zbek
Ġpa g
h one
ran toj
Ġâ Ŀ
k igita
Ġpla Äīas
ĠLa bor
nA bon
Ġkunlab ore
ĠAra bic
T e
ĠS amo
Ġsi e
pla te
ĠÄľ in
nVer koj
Ġhun gar
is m
23 0
Ġmul ton
Ã¤ n
Ġal venas
Ġ1 73
Ġ196 7
ÅĿan ÄĿo
Ġfla go
S ed
ĠKol ombio
row n
3 45
Q R
u roj
v igis
ĠLu ci
Ġ197 2
ĠBa ch
Ġlang ua
P F
ul t
87 66
Ġkos mo
4 24
Ġeks pozicio
Ġokaz igis
Ġneces aj
Ġrakon ti
ĠFilip ino
J C
è¯ Ń
tro po
6 33
7 22
lo goj
2 10
5 25
ia ÅŃ
ub oj
Ġpas i
I E
Ġd ras
Ġg im
urn i
Ġokupi ÄĿas
ĠMem broj
I U
Ġa pos
93 467
Ġgas o
ĠHe alth
ĠIndon ezio
Ġf urio
Ġb ron
998 85
Ã ²
998 80
Ġkar bon
nà ¹Ħà¸Ĺà¸¢
Ġti ele
nK ur
nL isto
ab le
p ton
ri ng
nR im
ĠIn sta
klu bo
Ġpreci zaj
utmon da
ad d
Ġaso ci
edon io
34 0
ĠkontraÅŃ di
65 8
5 47
ĠB ah
ĠaÅŃ das
ĠÅĿan ÄĿon
ĠOr deno
Ġkilom etrojn
S a
pro gramo
sta ta
Ġ193 6
ĠBulga rian
ĠsenÄī ese
) ;\
em ploj
nR es
Ġdu foje
Ġkapab loj
Ġm etrojn
Ġkre into
nKom ento
Ġserio za
Ġgrave con
Ġd elegi
ma th
Ġprofes iaj
ek tan
BA A
Ġ195 6
3 93
W W
999 05
pe c
ĠO rig
Ġsek toro
998 87
Fran ce
g li
Ġpozi tiva
Ġprotek tas
G U
en io
ĠS tre
nF amilio
m un
is man
Ġpez aj
ĠT ok
il la
ĠRo berto
Ġfil on
K Y
p al
Ġre veno
ĠB at
ĠV K
ĠAr tikoloj
Ġin tri
Ġinter rete
ĠH ans
ĠBar bara
ard in
Ġor an
Ġbaz on
ĠLing voj
99980 77
âĺ ħ
Ġspeci ali
Ġbata loj
kos taj
ĠOri ento
ĠPers on
ĠHunga rian
9 19
ĠH al
Ġgra v
Ġjen ajn
Ġdefini tiva
ĠZb igniew
Ġvi va
nE mail
Ġhel pe
Ġkonker is
ĠM ona
ĠVi etnam
Ġkor up
paro lantoj
Ġfor mojn
ĠFor umo
teg ory
ĠaÅŃton om
i ts
04 0
ĠAl fred
Ġkul turon
à´ ¯
tra kti
Ġkla rigo
ĠKar t
à´ ²
à´ ¾
Ġpromes is
Ġlong daÅŃ
Ġver on
Ġr eli
63 1
Ġmalbon aj
Ġorigina lan
Ġnig raj
fi ce
Ġling van
Ġver aj
Ġaldon ita
à´ ®
nÙ ¾
7 13
M C
u te
ed ia
ka ux
lan dan
ĠB atalo
Ġhe pa
ĠaÅŃtorita toj
ci r
34 1
Ġ 57
di on
ĠJ i
Ġdis poni
ver y
Ġkri is
à´ ³
Ġpez on
à´² à´¯
à´® à´²à´¯
ĠÅĿ par
84 06
ĠH ej
ĠW es
tugu ese
5 45
i ÄĿos
Ġtiu tempe
Ġrenkon tas
U nu
n ojn
dig ita
35 0
Ġmod er
Ġs telo
Ġg run
nM ani
Ġven das
Ġfa vo
Ġdon aci
Ġuti laj
Ġprez listo
Ġmani eron
le ro
ĠG ri
à¥ ĩ
sho pee
e ce
m id
ĠJ on
ĠCh ina
Q U
V V
Ġv ino
ĠI N
âĢĿ )
Äį ek
ÄĿ adis
ĠRe gis
Ġkri tiko
Ġ194 1
' \
kon ferenco
E ksteraj
ĠG old
ĠÂ« \
rus e
Ġkuti mo
ĠAu gust
5 27
n no
ka d
Ġku iri
ĠNew s
b ulo
en ts
us en
6 84
Ġe gip
Ġplenum is
Ġleg anto
Ġdik ta
a il
li ko
li gen
00003 66
Ġkapita lismo
Ġkonvin ki
Ġtend enco
Ġfeder acia
nNav igado
ul to
ĠB ag
ĠU SD
74 1
ĠhaÅŃ ton
um ojn
ĠT V
he ro
Ġle ci
ĠAm ike
93467 08
6 11
n una
Ġti pa
Ġin tes
Ġek va
ĠV era
kor e
Ġaten ti
ĠÄĿener alan
Ġdecid on
L ing
li ma
ĠPo lish
Ġdor so
plifi ed
5 83
a tajn
nT eo
Ġmo ti
Ġ196 4
ĠJam aj
ĠdanÄĿ era
0 10
Ġs onas
ĠKom ence
Ġtri an
Ġknab inoj
Ġre ÄĿa
vi ÄĿis
Ġfo kus
Ġ196 5
C BD
es per
in das
ci taro
Ġnen ia
Ġdivid ita
ĠK ad
ĠLu ksem
999 22
95 85
Ġzor ge
german a
H H
i ce
Ġg al
nM ala
Ġ194 7
ĠSta lin
ĠVen ezu
Ġkandid ato
6 26
Ġde veno
id as
Ġku ÅĿis
tive co
ç Ķ
or ajn
ita mino
par toj
ymra eg
u ris
Ġpri vi
Ġmal laÅŃ
Ġsil ento
}} .
Ġkol ekton
M L
is y
Ġrila ta
Ġeksci is
b ia
and ro
Ġkomenc antoj
Ġfil m
Ġdifer enci
99 10
Ġn elonge
Ġlas u
ĠBel or
dol f
: )
ĠA mo
Ġsta ri
ĠloÄĿ ejo
lan taro
Ġur beto
ux em
nÐ ¢
Ġkontribu o
nUl tra
ĠMontre alo
ur boj
Ġre ÄĿoj
Ġeldon ejo
Ġins is
Ġaldon e
Ġarkitek turo
6 83
k es
ĠE SPER
Ġpa ÅĿoj
Ġsek se
92 93
ĠÂ» .
Ġfrem daj
s A
99 48
Ġinter rila
eks a
Ġaldon o
Ġw ay
nÐ ļ
8 28
p uri
Ġlon go
ori no
Ġ195 9
Ġbezon os
tad reso
B EA
M S
X R
Ġman uskri
Ġrezul tas
9957 717
ĠSw ed
Ġ[... ]
náĥ ¥áĥĲáĥłáĥĹáĥ£áĥļáĥĺ
4 08
s ign
Ġokaz onta
Ġpala co
Ġuz ebla
Ġsta ton
ĠPa tro
Ġinsta li
ĠCro ati
u er
ä »
ĠKato lika
P A
g ono
ti lon
pro gra
ped ion
Ġfo tojn
Ġcel eb
op ini
5 56
Z Y
Ġla m
Ġver boj
eng en
99 12
th u
Ġko la
lar d
ĠF EI
nE tikedoj
nS peciala
988 15
Ġregistri taj
Ġd rin
ĠB lua
Ġesperan tista
In formkesto
5 46
L E
ĠL td
Ġin vado
ĠA bra
98 66
kon toj
35 1
Ġisla manoj
ĠKatal unio
b ul
ne co
et ti
Ġdecid oj
Ġrad ik
5 01
T J
ĠB lo
ani el
fe rojn
Ġeston te
ĠHen riko
Ġmedic ina
ĠStra tegia
k cia
Ġ193 7
ĠTur kish
nBiblio grafio
gra de
Ġ19 19
Ġofi ce
Ġkvin dek
gx o
Ġekvid is
b l
Ġneces ajn
Ġevolu on
k ani
fi loj
Ġfon diÄĿis
Ġ196 2
6 93
Ġa ku
Ġis ra
ĠB lu
Ġ193 8
R AS
Ġs at
pren as
Ġra doj
Ġlan dojn
Ġbata l
ĠArmen ian
X S
Ġv os
10 43
ve y
ke tojn
Ġprez on
nJe an
C DC
M Y
O F
va Äµo
nD en
Ġkomun aj
ãģ ı
Ġsitu anta
ĠT hai
Ġmalam ikoj
Ġ 56
Ġre venas
Ġpo ÅĿt
Ã© r
Ġefi kas
Ġskri ba
F o
Ġt tt
em plo
Ġelek traj
ĠBo ris
Ġran do
zbek cha
3 16
Ġk erno
ĠV ers
tan tojn
Ġpost ulojn
ĠKonsul tita
ĠHebre w
n in
rig oj
Ġelek tu
nSer Äīi
6 25
ĠE o
Ġh im
ĠD utch
76 0
ĠRa p
ĠSocie ty
28 83
4 82
b oni
ĠÅľ ar
german e
ĠNi aj
ami ka
Ġgla ci
7 24
th am
ãģ Į
Ġallo ga
Ï ģ
ĠS pi
ĠP EN
ĠV as
04 1
07 8
ĠAr chi
ĠPor tuguese
ĠÄµurn alo
N ew
Ġj ub
Ġjun ularo
Ġera rojn
Ġoport un
Ġa ga
Ġpli mul
tran te
Ġfru ktoj
3 24
ĠS ak
uj oj
tin go
Ġ19 10
Ġ19 29
Ġ196 6
on io
Ġs oj
nM od
Ġrifu ÄĿintoj
n av
Ġpa ÄĿojn
Ġkapita lo
Ġsov aÄĿ
ĠT ria
Ġun uso
nB a
Ġsukces os
ĠRom anian
5 26
B S
b ad
Ġb us
ĠG on
ta dis
Ġsta ÄĿojn
ED A
Ġobj ekti
T ube
u gu
in ara
ĠV ati
FE F
977 17
Ġlevi ÄĿis
' .
R E
Ġinfor mado
Ġ196 9
Ġinten co
our ce
Ġepisko po
b n
p eli
ĠF oje
Ġfin iÄĿas
Ð½ Ð¾
ig us
dan ÄĿer
N Q
s el
ta ks
Ġes ka
98 46
tri aj
ber io
Ġdialo go
ĠG am
ĠAn tar
nEs tis
ĠNapole ono
å ®
Ġprofes io
3 84
Ġal klaku
vi ÄĿo
ser io
ĠIli a
Ġmal uti
ĠD omo
Ġor a
ĠBur undo
n c
Ġp ik
ĠN ATO
ĠÄľ ene
Ġrigar du
ĠTam il
Ġgeju nuloj
L o
ĠS ind
Ġvi ra
Ġpos tenoj
ãĤ Į
ĠT ran
nA ra
ler ne
ĠLibera pay
ĠUNES KO
ak onto
54 0
ĠÅĿi poj
h um
Ð¸ ÑĤ
Ġdispon ebla
ĠVietnam ese
Ã ¦
Ġs tyle
ĠM iguel
Ġre ale
nB o
ĠÄīam bron
ĠÅĽ wiÄĻ
F i
b et
w en
Ġa ÄĿa
ÄĿ ano
ĠL uxem
nKon traÅŃ
Ġvol umo
Ġafi ÅĿon
ÑĪ Ð°
3 97
Ġli v
Ġpost ulo
74 9
AD A
Ġpla co
ĠÄĿus tan
ĠreÄĿ lando
Ġrecen zo
ĠCroati an
a roj
g anta
ek de
ĠF lor
Ġhal tis
Ġdatre veno
ĠM es
di es
Ġsid as
Ġsendepen deco
ĠAnd reo
nka ÅĿi
Ġf igu
999 00
nKi om
Ġmallon ge
Ġvoja ÄĿoj
Ġsign ojn
Ġp lo
98 76
nT ri
Ġ196 1
Ġre ago
ĠV ar
Ġsta bile
Ġdev iga
Ġsper tojn
ĠAfgan io
Ä Ĺ
ĠS y
Ġkura cis
Ġinstrum entoj
nmov igi
n j
si ca
Ġkomputi loj
Ġre pu
999 10
Ġpov on
ĠLu ter
Ġfre ÅĿa
Ġaprob is
Ġproces o
Ë Ī
ĠF E
Ġsam ajn
Ġplan oj
0 80
P ar
g ren
ĠT ais
ni ca
ĠÐ ¡
ĠÄĪe Ä¥os
Ġata koj
Ġparola ta
Ġom bro
lara cio
ti vajn
in es
ĠFrancis co
do kum
827 5
w ig
en ko
ro tary
ti lio
Ġf eri
av ia
ni taj
Ñĭ ÑĢ
p lu
ĠW en
ĠÄľ uste
Ġaran ÄĿi
ĠStan is
Ġ 67
em is
05 9
Ġ194 6
Ġgajn i
dar eco
Ġpriva taj
ĠFern ando
ĠarÄ¥i vejo
7 33
Ġeldon isto
nS am
Ġtem is
ĠTi an
99980 24
Ġorto do
Ġk rono
aj lo
Ġar on
Ġplej parto
eder acio
TO J
Ġge amikoj
nSen du
ĠPro fitoj
1 995
E k
O Z
Ġ ÑĢ
Ġli bre
Ġpro greso
Ġpoten coj
Ġalpor tas
rin te
Ġkoncep toj
ĠkontraÅŃ bata
mal l
Ġtraduk as
fra to
nB re
ĠUni on
Ġpe tro
ef ratoj
Ġrezul ton
Ġmes aÄĿ
Ġsez ono
7 37
K un
Ġkatal una
Ġsvis a
V A
s z
u f
Ġar bi
36 9
se ÅŃ
00005 23
Ġju ra
K S
Ġe tos
998 86
rigar dis
Ġb un
97 83
Ġmon ar
Ã© n
Ġekzis tantaj
Ð¾ Ð´
Ġaran ÄĿoj
C BE
p ing
rin ta
Ġperf ekte
el em
Ġtu rismo
993 46
Ġkonstru itaj
Ġf ide
Ġtem plo
3 07
g eo
Ġ195 8
nPri va
Ġgener acioj
Ġtom bo
roni ko
Ġplenkres kuloj
7 15
Ġ1 25
Ġin dig
Ġg eno
ĠO p
bu tiko
ĠÅĿi p
s tre
Ġe pid
ĠJ ord
ĠW est
Ġim pon
Ġfran c
Ġbaz ajn
Ġrekom end
p toj
id ojn
ĠL ar
ĠK aÅŃ
aci ojn
Ġelek ton
Ġkos toj
Ġesplo ro
ra dio
999 12
98 83
Ġcen troj
ĠAnd roid
Ġ19 28
Ġsuper as
Ġru b
Es tas
Ġmalfaci laj
ĠCom ment
we gian
3 87
Ð ¶
Ġin te
ĠM ale
Ġg ro
Ġha rojn
Ġtele fono
ï¼ Į
ĠBrus elo
Ï Ħ
or di
ci is
ĠI om
Ġri pro
men o
Ġgra doj
Ġinteres ajn
Ġkura cistoj
Ġat m
Ġalb umo
Kol ekto
6 81
p ho
Ġ à¤
3 11
nK vinpetalo
09 16
Ġto ta
195 5
S an
d anta
el la
Ġn edu
Ġc ed
194 5
ĠFeder acio
l ora
Ġal ÅĿuti
cen tra
Ġci lin
Ġdisvas tigo
ĠD er
Ġkuti maj
Ġhej ma
Ġstruk turoj
Ġmedik amen
66 0
Ġid ea
Ġkonser vado
Ġer aron
Ġdistri ktoj
3 53
98 84
ĠÅĿ al
ĠÅĿan ÄĿas
nG erman
Ġfin on
ĠÄīirkaÅŃ aÄµo
ek uti
Ġka fon
Ġminu tojn
ĠHi tler
ĠFund amento
n à¦¬
Ġin fo
Ġsen toj
pren o
ĠUkra inian
² µ
Ġ ì
Ġp neÅŃ
Ġan oni
Ġrespon deco
) âĢİ
4 99
Ġfran can
ĠSci encoj
97717 184
kri bon
nTi uj
logi oj
nÐľ Ð°ÐºÐµÐ´Ð¾Ð½ÑģÐºÐ¸
ĠWord Press
ĠÄĪ am
Ġtaks as
²µ èªŀ
Ġk ern
ĠE ar
Ġali nom
CC D
ĠMar x
Ġinflu is
G I
ĠE mi
em as
87 75
Ġfin na
Ġkel ke
ĠB ad
leg into
nUn ua
H P
ne roj
Ġinfor mis
turi anu
nLing vo
nç ²µèªŀ
bas e
nSh are
ĠL os
Ġpro centoj
em bra
jara ÄĿa
ĠIndones ian
vid ebla
Ġfrem da
Ġservi lo
n ar
ĠP hili
ĠÅĿta taj
FA B
Ġaten te
pos ed
Ġmom entoj
Ġsk alo
D an
m ismo
ĠÅľ tata
nU nivers
Ġnek re
fon so
Ġ195 4
ĠRa portoj
di e
nAl fred
ĠÄī ag
Ð¸ Ð¹
ĠKomun umo
Ġsukces on
Ġet no
labo ris
0 20
3 43
Ġa Äµoj
ĠA pril
Ġjus ta
cri pt
Ġstatus on
5 80
S i
en tado
ĠO l
ĠPa tri
5 44
Ġmal simi
Ġmon taro
K L
ĠS av
ĠM unk
\" -
98 14
Ġres an
Ġak v
Ġak tu
Al donita
N N
ti gos
ĠD ur
Ġvivan taj
ĠDiplom atio
6 07
ak s
ĠG en
Ġmem b
Ġkongru as
6 12
an e
re giono
ĠT uj
ĠF lu
ĠV ere
Ġtrankvi la
ĠPales tino
1 990
B Y
998 13
ĠHun ting
P er
ri ojn
ka toli
ĠS id
vo la
98 56
Ġsen dita
na da
Ġnu an
Ġtavo lo
Ġstacid omo
C ED
Ġm ara
Ġal l
Ġe gal
Ġka dav
nC er
Ġfra z
gos la
nAs turianu
Ġnume roj
5 24
Ġmi rin
hav ebla
Ġdan ÄĿer
Ġdek li
ĠMedi teran
8 29
h ara
is tan
95 56
ĠÄĪ inujo
Ġ196 3
ĠGeor go
Ġfik si
Ġkonsci as
3 17
H isto
Ġs te
Äī ojn
nAÅŃ to
Q P
Äī ar
nS in
ĠNe p
Ġlu k
Ġuzi taj
ĠtaÅŃ gan
Ġoks ig
ĠA jna
ĠAl ban
BF B
Ġdivid o
Ġpol oj
ĠretpoÅĿ to
ĠFeder acia
C AC
G A
de z
ke toj
ras a
fa ro
Ġins ul
ard eno
in ten
tr oni
Ġse ÄĿo
Ġ18 87
Ġkres kon
Ġakadem i
Ġnee vi
0 18
ĠI S
Ġhav eblas
teri alo
nEsperan ta
ĠCata lan
J D
W X
n faras
nT his
Ġko pio
Ġgrand parte
Ġmatema tiko
nPres ebla
Sim plified
Å į
ĠA kvo
perio do
Ġrevu on
celan dic
4 09
7 53
Ġo li
97 46
Ġ193 1
nMal peza
ĠVjetnam io
dis mo
Ġ19 25
Ġvolon tuloj
poli tiko
ta gon
li bre
ĠL isto
tra Äµojn
Ġpa tron
ne ws
Ġsufi kso
Ġsitu acioj
Ġmalgran dajn
Ġmed ioj
Ġmalri Äī
98 87
ru ary
19 05
Ġ= ==
ĠÄĿener alaj
nCi ti
Ãĵ R
t lando
on an
fo lio
nV id
ĠvoÄī on
ĠLou is
n ÒļÐ°Ð·Ð°ÒĽ
ĠM uzik
ĠD eb
Ġmar ki
Ġplu vo
ĠeÅŃro panoj
Ġpriskrib is
Ġduo bla
Ġkomisi ito
Ġkomun ikiloj
Ġgerman an
Ġvoja ÄĿis
Ġarki tekto
Ġhipo te
b anian
ĠS ti
ĠF un
ĠMa ced
ĠPo Ã³r
nPro duk
Ġhier aÅŃ
7 83
17 06
Ġgx in
K urman
e ti
Ġ 97
en ces
ĠÅĿ tel
Ġokaz aÄµoj
00005 85
ĠNorve gio
. .\
Ġb uti
ĠI celandic
Ġim un
nAl doni
Ġflu as
Ġamas a
Ġmeri tas
u da
à ¬
Ġrig ht
etz sche
k Ã¡
enc an
ĠkontraÅŃ as
ĠfiÅĿ kap
H el
BA E
nPro gramo
á Ł
en jo
Ġin o
nE o
eks ik
Ġ/ >
BA B
993 03
9984 574
9855 8193
Ġkul p
Ġor dono
ente ze
j araj
l ujo
Ġar keo
par ta
Ġ19 14
Ġpublik igi
ĠNor wegian
ĠNo toj
ĠAzer ba
nÒļÐ°Ð·Ð°ÒĽ ÑĪÐ°
âĢ ī
Ġsci encoj
ĠPro vi
ĠPO ÃĵR
k ino
Ġde puti
Ġku ÅĿ
S en
Ġla ux
ri med
Ġs ter
96 43
men ton
Ġ197 1
ĠSim ple
ĠD ic
B a
is tino
ĠV d
bra ro
ĠH ab
lis maj
Äīi uj
hel m
ĠIns ulo
i toj
à «
ĠL ind
Ġri bel
ĠkondiÄī o
wo od
V O
Ġj o
Ġtu to
Ġrimar kas
Ġflug haveno
Ġne aten
Ġtra g
33 33
ĠZ amenhofa
nH av
Ġpens ojn
ĠHisto ria
men ko
nN iaj
ĠBen gali
eso tho
ĠSwed ish
95 76
Ġukra ina
ĠFron to
Ġb eb
Ġre vo
em iaj
Ġfor tojn
Ġnov aÄµ
ĠÄĪi lio
Ġspi rita
Ġjardek o
b eno
Ġali ri
Ġekonom ian
Ġat mos
ĠSer bian
Ġkos tas
Ġabsolu ta
H C
Ġh ebrea
83 96
Ġtem per
ĠSur voje
Ġrigard ante
Ġ 77
Ġinter paro
Ġfor ex
par ata
ĠAl bert
Ġsigni fe
Ġkunlab oron
Ġpas as
nKi u
Ġmalkov ri
5 20
Ġam uzi
gran daj
ĠHunting ton
i z
Ġar ta
Ġtra fe
ĠPi erre
Ġstud ento
Ġbazi taj
Ġafri kaj
3 04
ĠI ri
Ġba terio
nKre i
G X
Ġsam seks
Ġgvid as
ĠOce ano
B ur
Â §
98 63
ej s
ec ojn
ĠUr du
labor ado
Ġatin go
lan g
Ġorgani za
cus sion
y r
Ġs ku
Ġtu bo
Ġhom an
Ġaper igis
Ġtradu kitaj
Ġkapita no
osan ski
es taj
ĠE fektive
pe coj
ĠH ungara
ing s
75 8
ato ro
er an
id an
ĠS ebas
Ġmen cio
Ġagra bla
nEkz emple
borg rupo
Ġma teno
Ġpens ado
Ġkapa bla
Ġdetru i
t ulojn
ĠT emple
Ġpli e
998 96
ac tion
ĠIa foje
i ru
y an
Ġs ch
ko op
ĠK us
Ġstruk turon
lingvis tiko
3 27
c ts
Ġa van
id eco
Ġel mon
98 85
nÄĪ ina
ĠUnivers ita
mul taj
Ġapu da
nPo ÅĿtkodo
ar tikoloj
Ġel eg
ĠO ctober
si oj
Ġorg ano
Ġme tal
Ġmalnov an
l Ã³
Ġel Äīer
ĠF ul
Ġvid e
ĠLon g
ĠKongres on
Ġaver aÄĿa
6 22
6 06
er t
Ġre ag
Ġflu o
P DF
Ġinter kompren
gra vaj
tio pio
95 63
76 2
Ġnor moj
pos tas
àº ²
ĠLuter mano
c era
{ \\
Ġtrankvi le
igx as
Ġper i
ĠRe te
Ġtraj tojn
Ġ19 08
ĠMo z
Ġopini ojn
ĠÄĿu as
K D
n par
p eo
Ġh eg
Ġ19 21
Ġeb en
Ġtrakta to
ĠA ki
nP ra
Ġregis taron
ĠinterÅĿan ÄĿo
ĠBru ce
5 09
Ġv esto
ÅĿ ov
98 073
Ġali loke
nP interest
Ġbon f
Ġto tala
ĠTem po
ĠBela r
U sono
ĠR ek
Ġsur loke
Ġser ion
ĠLan guage
0 98
G N
Ġa z
no w
ĠEl donejo
ĠDan ish
Ġbran Äīoj
3 25
Ġreg anto
n mi
Ġmem bri
Ġposed anto
4 19
å ½
ri da
Ġt ens
Ġar t
Ġda y
nBiblio tekoj
ĠC ali
Ġpar al
ĠPro zo
Ġdeks tre
àº² àº
6 77
Ģ \
Ġen mig
Ġka faj
Ġbon gus
Ġ19 00
ĠViki citaro
ĠTutmon de
4 91
6 05
L igo
l ta
Ġli kva
nT ag
ĠGi useppe
Ĳ ´
la m
la o
24 86
nT a
Ġak ces
ĠJu an
4 29
86 06
Ġkons on
uri n
Ġmemo rigas
Ġf az
Ġter eno
Ġkunlab o
9907 763
D ED
ve turi
ĠCh u
ou th
Ġru ÄĿaj
nà¤ ¹
âĢĿ ),
ĠÅĿta t
ĠRa fa
Ġlim igi
Ġmaksim ume
b anoj
p elo
in di
de f
bi b
Q S
con om
nE konom
nG i
nMal pezaj
Ġkomp ak
un ter
Ġen igi
nB al
Ġsemin ari
ĠVenezu elo
um u
Ġkunlab oras
pro fun
ĠLi thu
999 58
pu d
ĠÅľ ta
nAl klaku
Ġron do
er as
ĠA po
Ġt rio
Ġli goj
Ġpa gas
65 1
Ġmor e
883 866
Ġmon ero
mon g
Ġ19 23
Ġmor t
nPo la
Ġmalb ono
Ġpolitik ajn
ĠFinn ish
Ġkatastro fo
nå Ĳ´
nåĲ´ è¯Ń
J V
a tion
ti u
ĠKi om
tik va
Ġamas oj
ĠSi mon
nLing vaj
K P
Â ¸
ĠA L
nL ando
ĠG r
Ġregi onaj
4 18
ĠU ru
36 8
75 0
nIn f
¯ ÛĮ
Å ¬
Ġapo gi
nLing va
M Z
g or
k var
pe cioj
Ġmal kla
Ġliber igi
ij ani
4 01
H F
t j
Ġh is
ĠRe ÄĿo
00005 27
Ġsim plan
Ġmalri Äīaj
ĠSloven ian
la t
ĠT eks
de la
ĠlaÅŃ te
824 1943
6 47
e tojn
ra Äµo
ĠR ol
94 85
ĠTi m
Ġeble coj
tribu oj
Ġtrans prenis
Ġdona con
7 43
C AD
µ Ø±
er ra
Ġunu oj
ĠEston ian
Ġfizi ko
Ġpro cen
nD av
et s
Ġter tre
Ġkura cado
M B
ca tegory
las s
Ġ195 5
ĠKur dish
y ou
84 84
pi ka
ĠTi aj
Ġmar nivelo
Ġplibon igo
Ġla d
re vuoj
ĠÅĿ tono
pon oj
Ġparo lo
Ġkul ti
Ġver daj
Ġtem plate
Ġdo kto
Ġna fto
Ġresponde cas
/ %
? \"
Ġk ub
ĠK ab
997 2
Ġfar ante
Ġdor mo
ĠTan zanio
J O
K F
Ġk is
Ġmal plena
ĠI vo
Ġda ys
Ġplej multo
nT utmonda
Ġkon trib
ĠFran ces
Ġalum inio
n pro
ĠSen depen
Ġsenpa gan
ĠKro atio
n ro
Ġa man
Tra ditional
Ġharm oni
pli ko
Ġkandidati ÄĿi
Ġ 73
20 74
Ġtradi cioj
ĠLuxem bour
6 17
Ġvo k
kondiÄī oj
ĠWiki Trans
Ġfesti valo
5 81
n umero
Ġk ris
Ġen tenas
97 96
Ġta l
ĠZ am
nAm ike
ãĢĤ \
nBer tilo
7 66
x ml
ĠN ik
nA ten
ĠRus a
Ġco o
L B
ĠIn formoj
Ġdon u
Ġmina co
Ġan ima
kon du
Ġkomen tas
Ġmalf rua
Ġdi ka
ĠRe cenzoj
Ġprogra mojn
kur son
Kurman ji
98 33
lu doj
ing en
Ġdo laro
Ġgvid i
ĠBo oks
R D
bo lo
nB io
Ġkar aj
ic he
ĠCor setti
Ġrecipro ke
Ġperspekti vo
nK araj
Ġprogra maro
Ġunivers o
Ġdifer encon
E W
logi ajn
Ã¢ n
ĠA c
ĠB is
Ġofi cialan
ĠGeor gian
Ki am
Ġmaldeks tre
Ġguberni estro
nP rele
nF on
lin k
ĠÄĿu is
Ġkonk ero
ujara ti
ri tan
ĠLa tvi
ki uj
nS tela
Ġur baj
à¯į \
i ajn
n à®¤à®®
s ez
ħØ µØ±
ĠEs tos
Ġrenkon to
Ġmalfor ta
98073 053
Ġli ge
Ġri ng
tr us
Ġintel ek
Ġtur ka
viden te
r el
ur ce
ĠE ri
Ġre aranÄĿo
Ġek zi
ĠZ a
Ġmar kita
Ġrezul tis
Ġ{ *
esta mento
ĠHe in
99974 906
kuns ido
ur ch
Ġka tedralo
Ġdokum entojn
cx e
ĠDemokra tia
C BC
es pri
Ġal tajn
di rek
Ġbone ge
vor ta
Ġduon on
Ð· Ð±
Ġfid inda
ĠNata ÅĿa
Ġm ej
ĠÅľ tato
Ġtiam aniere
Ġnes u
Ġpreter pas
ejs bu
un uo
Ġfor mis
997 97
ĠTaj ik
Ġblog on
e ar
an ge
ke t
ĠJoze fo
ti ro
Ġpro mo
98 97
Ġkre itaj
Ġmor tintoj
Ġamaskomun iki
ĠFesti valo
. /
tran to
gi aj
Ġali direkti
Ġmar b
198 9
Ġg h
Ġtu ro
Ġekz akte
duk oj
75 2
Ġsoci ajn
Ġplilong igita
L Z
ĠK r
Ġle ÄĿojn
Ġku ir
ĠMa ÅĿino
Ġgas toj
Ñĭ Ð¹
ĠUnuiÄĿin ta
E nEo
Q X
v igas
tan tajn
95 097
vid i
Ġpli al
84 95
nC h
ĠRo y
Ġreg antoj
Ġrigar don
ew icz
flan ka
iÄĿin ta
Ġmunici po
nPe EnEo
ĠKart vel
ĠMaced onian
G ran
ÄĿ elo
ge blas
ĠAr chive
ay s
Ġespri m
publi ka
fran ce
ĠKore io
Ġeblo s
ekzamen oj
R U
oj a
Ġ19 07
Ġkomple tan
ħØµØ± Ùī
A BA
Q O
f ad
nB one
998 97
995 56
Ġvolontu lado
A d
y i
Õ ¡Õ
ma ÅĿ
Ġmontri taj
Ġsal ono
nÙ ħØµØ±Ùī
n t
am p
Ġ19 24
Ã§ a
Ġenkon dukis
E FA
i ras
Ġali ÄĿas
Ġkons isto
Ġprin tempo
Ġb omb
ĠLi teraturo
nom a
Ġregu laj
6 24
ĠL and
ĠI t
ma gne
kon gres
Ġinter a
hav is
Ġho telo
E EA
ar eo
Ġne mov
Ġka fosemoj
ver a
Ġfa ÅĿ
Ġ194 2
ĠDec ember
Ġte jo
pre mo
Ã¤ r
ĠEncyclo pedia
dstri oj
Ġre tu
ĠJu lia
Ġorigin al
Ġmona ton
Ġ195 3
kos mo
Ġtas kojn
7 16
Î µ
ĠN aski
198 3
Ġmond ordo
ĠTe ch
5 84
N PH
lo t
Ġ( +
ub ern
ae il
Ġmalnov ajn
Ġavia di
ce zo
Ġmar ks
Ġligi lon
Ġve turis
Ġbru o
ĠLithu anian
f ojn
ĠÄīi us
Ġega la
3 26
L D
Ġdi rus
Ġr aso
Ġkunlabor antoj
Ġbezon ata
Ġkonten ta
3 14
Ġp ure
Ġbri la
gro up
ystem s
6 55
Ġ19 22
ard io
nC ymraeg
Ġkura ci
Ġafi ÅĿojn
Ġalpor ti
Ġbrus to
ĠAzerba ijani
7 36
to loj
ita Äµoj
Ġakuz ati
w eb
Ġs el
Ġen or
Ġbu ÄĿeto
ĠR ay
il y
Ġpar tik
Ġcer tan
Ġmuzik istoj
Ġelem entojn
ĠAzer baj
7 03
is wahili
ĠK ristnas
Ġmal esti
Ġsu d
Ġci tas
Ġad iaÅŃ
7 06
ci te
ĠI am
av an
voj oj
ĠRe ÄĿa
ES S
h osa
Ġa vo
ki ÄĿo
Ġar ti
nR ez
! )
n Ø§Ø±Ø¯ÙĪ
ten e
ĠA kti
Ġmon eroj
Ġci vi
Ġkor ekti
Ġrulse ÄĿojn
Ġmalsu pre
Ġrem em
8275 079
D um
b ala
ĠS el
ĠB ras
ĠZ imbabvo
Ġprofun dan
Ġrefer end
Ġdub as
Ġprilabori taj
K lubo
Ġfor mor
nI REJO
nov aÄµoj
teks taro
Ġuniversita ta
ĠTel ugu
7 12
A BE
M D
Ġh ab
18 24
gis h
Ġfra zon
7 10
J en
Ġver kas
nAr ki
Ġkli ni
Ġdekla roj
Ġesplo ristoj
Ð·Ð± ÐµÐº
Ġ len
ti ÄĿoj
ĠLa go
Ġ19 26
Ġrapor ti
Ġredak tantoj
tari ko
ĠÄľene vo
F on
ul turo
ĠB udh
ĠRe ta
Ġmult lingvismo
ĠaÅŃskul tis
ĠLatvi an
on ia
ci pli
Ġ195 2
Ġsoci al
Ġsoci eto
Z F
o kaze
Ġekzem plon
Ġviki pedi
Ġneo ksidebla
ĠJohan nes
6 14
ĠD ona
de zi
ĠJ ava
Ġma tri
ãģ ĵ
Ġregi onon
Ġmontri ÄĿas
z aro
ĠE tikedoj
ĠR SS
ĠLa t
ĠH aÅŃto
Ġ19 12
Ġhel pu
Ġakcep to
ĠHa usa
ĠMara thi
ĠLuxembour gish
8 856
Ġ uea
in dan
ĠG ujarati
02 14
Ġpl urni
ĠSin ga
ĠBos nian
Ġgx is
ĠDek laracio
ĠInternaci an
5 93
Ġa frika
ca te
Ġak tuale
ĠKan nada
ĠSind hi
6 76
Z e
Ġs pu
te a
ĠÄĿ enti
vers io
ga ri
nF re
ĠBo li
Ġbezon ojn
Ð·Ð±ÐµÐº ÑĩÐ°
b ea
å Ń
ĠM AS
Ġkon ekti
Ġi jk
ĠG MT
Ġproce zon
Ġmonum ento
ĠMalay alam
! \"
ĠÅĿ af
Ġuz os
ĠSin hala
lern u
histo ry
ĠMar ko
Ġdosi eron
Ġa mi
ek siko
lo gis
Ġte Ä¥
65 9
ash ington
3 46
es an
Ġs una
lis t
Ġdum e
Ġkonfir mis
95097 84
Ġtre j
29 0
Ġorg anoj
Ġid oj
Ġkv ardek
Ġoper acio
6 74
Ġek funkci
Ġpa ÄĿaro
ĠÅľ ia
ana o
H Y
in er
as pe
ĠD ol
Ġmals tre
Ġtrans la
5 08
7 14
J P
S I
Ġpas int
ie rojn
z es
li tiko
Â» \
Ġbata lis
M ia
ar n
Ġti mis
da ÅŃro
ĠR akonto
mon do
ĠNi etzsche
Ġestab lita
i f
us on
97 93
Ġtekn ikaj
nAktuala Äµoj
3 86
R T
m igrado
Ġfran coj
Ġ2011 12
Ġlibere con
ĠMe zo
\" .[
Ġkun meta
ĠAn koraÅŃ
BD B
Ġmala gra
3 95
BE B
ĠCom mons
ĠÅĿar ÄĿo
Ġmaksim uma
ĠTrakta to
Ġde zajn
ri ismo
ĠK h
Ġta ksi
Ġpopo lon
M X
ĠC laude
nK ultura
Ġkol estero
Ġsan k
emb ran
Ġfundamen ta
Ġvig la
ĠE le
ers on
80 26
Ġka ta
ĠAl um
Ġkongres a
à¨ ¾
Ġ 84
ko sta
ĠM aÅŃ
Ġpar am
Ġperson on
Ġknab oj
I KU
bi lo
Ġcer tigas
ĠBo ok
vi ÄĿas
Ġpas vorton
ĠCar l
ĠantaÅŃen igi
Ġplurni vela
d into
ĠI SO
ĠFin fine
nAÅŃ gusto
ĠTu te
Ġhero o
à© °
s y
Ñ ŀ
re ÄĿo
ov al
Ġo pozicio
84 05
88 26
Ġsin cere
Ġbil d
Ñĭ Ð·
ĠJan u
ĠP om
ru p
Ġins tancoj
Ġresponde c
ebar chive
6 57
k and
ins uloj
Ġnaci an
igx is
5 85
Ġ 85
Ġs ati
ĠK im
Ġi P
ĠÐ ±
ĠkaÅŃ zita
à¨ ľ
W A
li c
Ġen landa
Ġb order
Ġres tu
ãģ £
à¨ ¬
6 46
8 21
Ġli terojn
ĠJ or
pi rajto
ÂłÂłÂłÂł ÂłÂłÂłÂł
Ġalko ho
ta blo
Ġek a
Ġsen dos
ĠHa wai
lig ante
ĠindiÄĿ enoj
Ġeksplo do
ĠinÄĿeni ero
uni vers
Ġbele ga
Ġtransfor mi
Q G
Ġ uk
sh all
Ġins tigis
DC B
EC A
Ġkomer ci
Ġekzem pl
Ġsove tia
Com par
ĠL ea
ĠP ed
Ġci vil
nSe ptembro
D AC
c lub
nK ie
ĠanstataÅŃ igi
ĠNa tura
ĠKaz a
ĠYou Tube
Ġvizitan toj
3 05
Ġp ilo
to ron
ton e
Ġ5 8
ĠY o
ĠSch ubert
ĠSta tes
3 56
ĠAl l
nH isto
ĠPro vinco
ĠEl ekti
Ġproduk tadon
ĠUs ti
ĠIns tru
Ġdisvas tiÄĿis
9947 974
Ġlud antoj
nTro vu
F P
Ġli b
13 05
Ġinter tempe
Ġeten diÄĿas
ĠMaro ko
1 991
K I
t ulon
Ġde von
âĢ ĳ
nN ur
00005 46
ry sk
ĠGeo grafio
Ġbiblio te
ĠVladi mir
7 93
Ġg hi
res on
Ġte gmento
vita n
ĠK var
ĠK rako
ĠA gado
96 00
tri n
va tem
nT er
Ġkan tisto
Ġdezi ron
esa ÄĿo
Ġaktive co
C DA
f y
z antoj
re con
ĠM AN
de a
Ġfa las
s al
la don
Ġpo ur
Ġpen tris
nNun tempe
j aran
Ġin a
di to
ĠN in
Ġar mena
Ġsek urec
Ã¡ l
Ð³ ÑĭÐ·
ÑĭÑĢ Ð³ÑĭÐ·
gx is
Ġreta d
ĠStu dies
0 88
W N
k igis
99 28
Äī ado
Ġi mi
Ġg i
Ġsen do
ve laj
Ġmez epoko
Ġprofi ti
Ġprofi lon
fran ca
Ġs tel
ci enco
ÅĿ os
Ġpli igas
az a
nKo ordinatoj
Ġdezer to
k igo
Ġp ano
ĠIn tel
Ġnun tempaj
var ma
âĢĻ \
Ġrus ia
ĠâĢĿ \
Ġsove ta
Ġpro voj
Ġunu flanke
Ġmor tas
ph y
Kon greso
Ġliv eri
ÄĿ en
Ġper man
nD aÅŃ
Ġko ordinatoj
Ġfi ÅĿoj
AD O
nKon klu
Ġprotekti ta
Ġestrar anoj
graph y
upload s
Ġunuso la
3 94
Ġel las
Ġmal tra
Ġpla to
Ġspeciala jn
ĠBarcel ono
to mana
Ġt um
Ġg el
\" ).
iden to
fer a
vid eo
Ġvid eblaj
ĠAng la
Ġalterna tivo
6 02
C EA
Ġne ÄĿo
Ġe terne
Ġvid o
Ġlabor plano
nKom er
bur ga
6 87
Ġkre danto
Ġesperan ton
pov o
ĠIndi vidu
Ġrotari anoj
nS te
Ġkons ilojn
Ġtermin ojn
ĠPan amo
6 15
L H
Ġp om
00005 87
BD A
nO Ê»
Ð¾ Ð¼
Ġdor mi
rila te
882 1043
0 19
4 21
Ġtrovi taj
ĠPer uo
nRet poÅĿ
ĠFilip inoj
NPH R
Ñŀ Ð·Ð±ÐµÐºÑĩÐ°
nOÊ» zbekcha
3 47
âĢ ĭ
Ġkom pu
Ġnom itaj
risto ph
Ġdispon eblaj
pozi cioj
Ġeli ri
Ġfirma oj
Ġdial ekto
Ġturis ma
7 34
J a
CC N
Ġstu dado
Ġkonta ktoj
Mal fer
Ġpri trak
98 98
du o
Ġsub a
Ġpe coj
ÑĭÑĢÐ³ÑĭÐ· ÑĩÐ°
3 44
ĠAr t
Ġmerka toj
fin aj
Ġmol ek
C EE
b os
ten a
Ġre produk
ĠA ir
ÑĤ Ð°ÑĢ
ĠJun ularo
Ġeviden ta
Ġmaltran kvili
p ino
rec en
Ġfo rigas
nKon tro
Ġpropon ita
Ġmis io
x a
z ab
Ġ `
ĠK li
Ġpa ca
ĠH omo
Ġle teroj
Ġgerman e
Ġrap ido
Ġfer vojo
Ġprote kta
ĠKas tilio
Ġsiste me
ĠB ron
nA fi
FE B
ĠVal en
es i
ĠK utime
Ġsam kiel
nF lago
ãģ Ĩ
Ġkomen tis
Ġfak ton
ja roj
ĠCom pan
Ġkonsi lanto
ĠVoj aÄĿ
m ia
ĠloÄĿ anta
Ġkomer cisto
Ġmom enton
li tan
ven cio
ler nejo
Ġefi kojn
ĠretpoÅĿ te
Ġkontin entoj
Ġgepa tra
Ġkole ro
ĠAmeri ca
D EA
20 25
98 73
Ġ2 16
ĠG es
Ġso pi
Ġmuzik isto
Ġpru vas
Ġmalpe zaj
Kom itato
e zi
ĠK le
tes e
Ġeldon i
3 21
6 16
O P
¦ \
Ġ\" (
so ci
Ġpl ua
ĠÅĿta ton
kre do
til har
Ġenre tigita
3 57
7 20
l ed
Ġprofes ie
ĠRen kon
Compar tilhar
e laj
ĠP od
Ġmal le
ĠB run
bu ro
Ġsta cio
ĠÅ ł
kultur ajn
04 55
Ġsub meta
ĠIn for
2011 100
Ġperson ajn
Ġkondu ki
Ġresponde con
ĠâĿ ¦\
( '
z el
à §
Ġv is
ĠA uld
Ġkun metis
ni ty
âĨ Ĳ
998 2
Ġ19 27
nH odiaÅŃ
nEl don
nPro ksim
Ġindustri aj
Ġdivid as
ĠÄīam broj
edi plo
f ig
ĠSch o
Ġestab lis
ĠPublish ing
å ¤
ĠD ata
ĠG usta
Ġag adojn
Ġkompren ebla
Ġop tim
ĠÃ Ĺ
Ġenme ti
mond ediplo
C on
Ġs ablo
pren ante
ĠTi mo
ĠMar ta
Ġ6 4
mal fer
Ġkuti moj
Ġeven tojn
Ġrus aj
Ġer ar
ĠJapan a
ar bo
ca dem
nE galecen
Ġver k
AA A
ĠHo ffer
Ġkompli ka
Ġvalu to
or s
Ġel ti
FC B
Ġlabor ato
Ġprinci pojn
vatem alo
b ed
99 49
Ġmaj stro
Ġarme on
3 66
à ³
Ġ ×
Ġl un
BD D
Ġekster lande
Ġspi te
ĠAs tro
Ġurb estro
Ġde partemento
ĠT ul
ĠAl ÄĿerio
Ġdekla ras
Ġdetru is
aeil ge
n X
Ġunu eco
Ġnu traÄµoj
Ġdifer encas
Ġkomputi la
nul ojn
ten caj
Ġb aro
ĠRe ceptoj
Ġko in
ns ke
Ġkur sojn
Ġmateri alojn
Ġleg adon
fin ita
nÃ įslenska
as on
ani ko
998 15
áŀ ¶
J J
ĠLe e
ilo so
Ġ 76
ĠE N
ĠM ur
lis m
Ġfun eb
Ġgvid ado
Ġavanta ÄĿo
ep ub
Ġetos on
p es
06 0
ĠRe giono
Ġ19 13
Ġinstrum ento
Ġ um
ĠZ uri
Ä¥ an
Ġplan on
Ġtrin ki
lini oj
ĠIl ustrita
W U
ĠS tri
de v
96 95
ĠMi lano
77 2
998 84
Ġci vila
Ġfran ce
Ġhistori e
Ġ194 3
Ġ193 5
ĠSvis a
ĠOf taj
n XO
zi ko
âĢĿ :
Ġpreci z
BB B
Ġpron omon
Ġk g
95 813
9996 8
Ġkapab lojn
5 87
7 35
Ġde kom
Ġa gres
Ġf uro
al ly
26 0
ku ri
az e
Ġsk and
ÙĪ Ø±Ø
pro dukti
si va
ron on
Ġhel pan
193 1
][ /
nInter nacia
5 18
Ġg las
Ġ7 8
Ġok ulo
ĠOfi ciala
ÑĨ Ð°
95 47
Ġlo kojn
one g
Ġteo rioj
ĠBern ard
R R
s om
ĠP on
ĠI II
Ġsigni fi
Ġbez ona
Ġsimi lajn
Ġsocia lismo
ĠÄ´ om
Ġlogi ko
1 993
F EA
Ġm eb
Ġali ÄĿo
nO rigin
Ġhun doj
ĠDire ktoro
98815 477
te ble
ten ojn
ĠS ab
Ġne ÅŃ
Ġsen sen
Ġkontra kto
Ġgru pojn
Ġsubs kribi
ĠMan uel
nW ebarchive
Ġinvi tis
ï¼ ī
nSpeciala j
ubern io
7 56
P eter
o roj
Ġsen labor
Ġkomun ismo
Ġkolek tas
nSh qip
zÃ¡ nske
Ġp ie
ĠS tran
Ġko don
à¤ ł
ja listo
ĠBos nio
Ġfigu roj
1 992
® à¤°
Ġel mig
ĠEs paÃ±ol
tra kto
Ġinter nan
Ġuson anoj
3 82
U EA
Ġk l
Ġs la
ÅĿ ado
nK u
uri ta
teko sta
Ġva por
Ġkole goj
am er
ĠF EL
Ġlingvo uzo
Ġtom bejo
g uloj
el ita
es tra
Ġbon kva
Ġl umon
DC D
Ġmar koj
Ġprinci pe
n ita
Ġs umon
ĠS ah
ĠS emin
ĠG y
Ġtran kvili
Ġfer mi
ĠAzerbaj ÄĿano
98 80
98 53
ord ojn
Ġpas aÄĿ
ĠMal nova
nTi el
198 1
rum p
L S
te blas
us se
mi lita
Ġdivid i
ĠSko tlando
6 73
Y Z
ĠL ED
Ġper tur
kor pio
L F
L AN
ul ture
ĠA h
Ġtro a
998 16
nKi uj
00004 91
Ġterito rion
E FD
n ama
Ġnun an
ĠSek retario
ĠEd mundo
A EC
ri ÄĿo
Ġparo l
ĠNi ko
Ġvas tan
Ġ 92
li gos
Ġs aba
Ġsek vanta
k ing
z ig
ĠK ER
vo ro
Ġpre mion
Ġte amoj
Ġkar to
ĠĠ Ġ
ĠArchi ved
5 95
N X
P re
ca ta
66 66
Ġfon do
Ġvo kis
cen o
Fran cio
7 46
K EJ
84 58
Ġpa gis
Ġr um
Ġret paÄĿo
Ġal ju
th y
Ġeks klu
Ġnaj baroj
Ġates tas
M I
a tribu
tu bo
em ajne
ĠN eniam
Ġsi metri
Ġse pa
Ġak tualaj
Ġkari ero
nHor zono
I SBN
\ ":
h ui
r uloj
Ġvi voj
ĠH and
nM arto
Ñĥ ÑĢ
ĠIs lando
ĠJes sica
zh oneg
ĠTur k
ul te
Ġpro vos
Ġi ra
di an
ol on
Ġkre deble
kul tu
emo grafio
Ġdeba to
G T
ÄĿ enaj
Ġskla voj
ĠBud ho
h ua
Ġla ci
ĠP ic
nB il
Ġsti loj
m b
á ¹
Ġa de
Ġv esti
ton io
de joj
Ġpa ka
Ġfunkci anta
Ġstu den
Ġdol oron
ĠÅĿata ta
cci tan
Ġt ono
lu zi
ĠAl eks
Ġsti mu
Ġkoncep ton
Ġado les
Ġvic prezidanto
999 50
Ġdi pl
pi tro
par e
BC A
BD E
Ġperson eco
Ġordin araj
nBre zhoneg
alo ke
09 0
ĠSe ptember
ÅĤ o
bib lio
95813 16
6 56
Ġmalpli igi
fin an
ĠKaro lo
Ġantio ksid
99 40
Ġmal gaj
ble mo
ĠEn landa
nD ec
Ġ19 09
AD D
Ġmalliber ejo
Ġen keto
ĠK er
ĠK AJ
ĠJoh ns
ĠÄĪeÄ¥os lovakio
urn o
ĠÅľ talo
Ġnekom er
ÙĪØ±Ø ¯ÛĮ
Ġ Ðº
us ch
ĠLi fe
ĠFran Ã§ois
ĠKomun ista
993 24
Ġval ora
Ġintelig enta
7 44
Ġes te
00 47
ĠK in
Ġfil mon
Ġeven ton
Ġkunven oj
T a
^ {
nB osanski
Ġpartopren on
K V
W T
b ita
Ġes tr
Ġ19 11
ay lor
Ġkoncern aj
ĠLuci en
d al
Ġre pa
ero ldo
ĠDan ke
ĠVoj o
Ġkonk reta
Ġnukle a
em bre
nL igi
ĠV alo
Ġobj ektojn
Ġveturi loj
T io
ĠF aj
Ġkons iloj
Ġam ikojn
6 10
c eo
f g
pro jekto
ĠT rin
Ġpri pensi
ĠantaÅŃ an
tre ketojn
DC A
uzis treketojn
ĠRo taria
...\ "
Ġkompleks a
Ġway back
Ġmul tan
ĠX i
Ġbri taj
ĠUsti menko
H Z
Ġa tom
Ġpers a
Ġfi bro
AD F
ĠNor th
Ġripe ti
nTra dukita
Ġpodkas to
ul tur
Ġes taÄµo
ĠM id
ĠA kadem
qu ire
zan ca
07 0
anta uas
ali a
Ġfak aj
Ġlibro servo
Ġoport una
postas ekcio
antauas ekcio
6 85
c re
ĠS ano
ce a
ĠSu do
v igita
li mit
ara g
EE B
Ġpren u
Ġmembro ÅĿtatoj
Ġkanta do
ges ch
ĠKonstan tino
E BA
P ers
nP l
Ġfor mita
Ġmor tinta
Ġekstre me
Ġrubri ko
f ru
00 05
Ġf r
ĠGra m
Ġrecipro ka
ĠNikola o
Ġm y
ĠT al
rin toj
ĠNov ember
Ġangla lingva
9907 67
Ġkolek tis
la e
li breto
le toj
ĠLo ko
Ġkategori ojn
ĠPrus io
L aÅŃ
Ġgran dio
nI uj
elon go
ĠPre cipe
Ġref lek
spi p
Ġo pozi
ĠT orino
de blaj
997 23
ÅŃro po
nRe vuo
ĠSte fan
Ġmallong igojn
ĠOt Ã¡
ĠZodia ko
Ġ 95
Ġfor Äµe
Ġc ele
03 0
Ġtu ÅĿas
ok ciden
Ð¸ Ñı
220 6
ï¼ Ī
nPer io
f ajn
g g
re gi
ara ro
Ġob sta
ĠKo f
Ġbezon on
Ġgaranti as
Ġdifini taj
ĠChris tian
ĠLen in
ĠMunk eno
N un
Ġ oma
in tan
ka t
35 24
FD B
ĠOtÃ¡ vio
R a
ĠM etro
for ta
ling ua
ent Ã¡
ĠKul tura
Ġpaci entoj
K B
Ġre formo
Ġo ur
Ġfin ita
hi te
Ġvers iojn
ãĤ ī
Ġrus oj
Ġdekla ro
ĠseksneÅŃtra la
Ġdok trino
ĠParti zÃ¡nske
ĠPerson eco
1 987
Ġam ike
Ġprezen tado
3 10
K ar
Q T
nD on
Ġsci vole
Ġekzis ton
Ġduon insulo
ĠBos co
ĠMod ern
ĠWiki media
f ing
il kosmo
Ġad d
tab ulo
ĠÅľan h
3 20
u an
z onoj
å Ľ
ĠT aÅŃ
Ġ2 43
ĠG rupo
Ġkomun umon
Ġad min
ins ton
Ġalvo kas
ĠSal om
ĠmaÅĿ inoj
n à´®à´²à´¯
es pero
ĠP ren
Ġpos tenon
Ġpropagan do
N or
R S
ĠÅĿ n
ĠÄīe valo
Ġdiri te
à´ Ĥ\
800 6
Ġsti lon
Ġpriskrib ita
Ġavia dilo
Øª ÙĪ
3 06
er ts
Ġs kolo
in ovaÄµoj
Ġb ol
Ġan alo
Ġmez uro
Ġjapan aj
ĠN av
tra roj
ĠSer bio
inara y
R V
U X
me a
kon go
dis trikto
Ġinfor mas
nU N
Ġcom entÃ¡
ĠTon kin
med io
Ġab oni
nW inaray
9974 0916
nGeo grafia
nAkti vaj
ĠNeces as
ĠNep alo
è ¨
ĠÄīe estas
ĠÄīef an
193 5
gru eco
Ġmezepo ka
7 02
m ulo
ro po
99 32
ĠC he
aÅŃ do
Ġtu ristoj
Ġci klo
dan taj
DA B
Ġsubten ata
Ġpoten ci
Ġrenkonti ÄĿis
Ã¨ s
ĠMartin us
li k
Ġs pekti
97 76
Ġspe gu
ĠBa ud
Ġfabri kado
Ġisla mo
ĠCol le
f ro
99 465
Ġtrans doni
Ġekzis ti
Ġmani pu
ĠP av
Ġinter veno
Ġsub me
gu ro
ir s
Ġpru vo
Ġman ÄĿis
ĠNord ameriko
Ġtun oj
5 19
fi c
ad get
ĠNi ÄĿerio
ER T
Ġme tu
Ġpodkas toj
ani me
998 83
Ġme tita
Ġsol dato
Ġaktiv ula
nSek vu
Ġfiks ita
Ġdiskut paÄĿo
6 96
Ġmal kom
ĠÄīi aj
ĠÅĿ pru
Ġmon th
mi la
Ġsta ÄĿoj
ĠEgip tujo
ĠRem oval
Ġli mojn
tis ma
th al
nD ire
nG ND
Ġkap titaj
B ri
s tar
Ġti pe
ĠT ita
ĠOrgani zaÄµo
ÄĿ ero
le tin
ĠP ok
na fiÅĿita
ĠMar shall
Ġinten citaj
Ġliver as
Ġar taj
nM er
77 8
28 24
ÑĤ Ð¾
Ġtradi cian
Ġhi per
Ġmur do
An taÅŃ
L AT
Ġs xi
Ġes t
ci to
pa ÄĿon
ĠRe j
Ġplen igi
Ġide ala
n go
en an
ti tolo
ĠK alo
Ġ19 06
Ġ5 9
Ġvian do
ĠdediÄī is
ĠCre ative
Ġmi to
Ġ2 47
nL ink
ĠMa g
ag re
ĠHo use
ĠTok io
6 86
Ġkri mo
Ġem ail
materi alo
U A
Ġre go
Ġan ek
ni kov
ari ng
Ġter ure
Ġkal kul
Ġkov rilo
Ġels taras
g Ãº
99 42
ĠâĢ Ĵ
rig on
Ġmov is
fra zo
Ġran go
Ġpart ner
Ze lando
B BA
a zo
h ispan
ĠaÅŃ da
org io
nR ed
ĠMar Äįek
ĠdaÅŃ ros
ĠPa po
Ġefekti va
! ","
es tron
Ġsek cioj
Ġgvid o
ĠEston teco
k rom
Ġen tomb
98 25
Ġ2 48
ĠW eb
Ġeks pan
00005 89
Ġkristan aj
6 44
Ġen lo
Ġinter n
997 87
Ġdu ko
nV I
Ġku bo
Ġsuper i
Ġadap ti
er z
98 12
Ġab sur
Ð² Ñĸ
prin table
Y F
v us
ri ga
Ġel vo
ĠV I
24 55
ve turis
erman n
kci ojn
ĠPa ge
Ġekster landa
Ġdev igis
Ġekstre ma
Ġsuk ero
Ġf run
bo t
ven oj
AC B
Ġapli ko
ĠtaÅŃ gaj
Ġakompan aj
Ġkvali fi
Ã« tz
n inter
ti que
Ġen ig
Ġmal pura
Ġpar ale
ĠKons titucio
fil mo
ĠESPER ANTO
tu do
Ġfor baroj
gra da
Ġma li
Ġproduk ton
ebu er
Ġk erna
Ġinter kon
ÅŃro paj
73 94
Ġvirin ojn
Ġagnos kis
Ġform ale
Ġrobo to
Ã«tz ebuer
98 45
9999 2883
nO ccitan
Ġkuti mas
ãĤ ĵ
Ġvalo rojn
Ġlaboris ta
C FC
Ġp seÅŃ
el le
Ġindi ko
Ġdispon igo
Ġbu tonon
ĠÄīiuta gaj
Ġbonven a
Ġkoloni oj
nDek laro
ĠJul y
9827 09
m ur
26 12
Ġdona c
Ġkov rita
Ġcx u
kal ku
Ġtransdon is
F LU
Ġper dita
Ġmalbon an
Ġklarig oj
M AS
pi tulo
Ġmas ko
Ġkapab lis
Ġreven os
Ġg ren
sh ed
FA A
Ġnor ve
ins trum
Ġapu de
Ġpol lando
ĠWil helm
C EC
Ġs log
Ġh ere
ĠA p
Ġmal lumo
si lo
73 8
ĠÅľ ajnas
nJ unio
?? ??
Z C
Ġf ido
Ġpre taj
ĠIm peri
ĠbedaÅŃ ras
ĠS parky
Ġ3 05
ĠÄīer pitaj
D BA
n w
Ġla u
Ġs ala
Ġg rim
ĠR OT
44 46
Ġmalj un
Pro dukta
3 02
S cript
Ġen ter
ka dre
ĠL am
Ġkun havigi
Ġkor tu
AD B
konsen to
dor f
ril lard
6 94
P I
p y
per as
ĠW ashington
Ġpen e
Ġfil tri
Ġrakon tojn
Ġbele co
Ġfol low
ĠÄīag ren
Q A
ĠU S
194 4
Ġinflu i
Ġsever a
Ã«tzebuer gesch
c ca
Ġp ales
an tino
ĠF ir
ĠG la
nA prilo
Ġdis Äīi
Ġ7 00
Ġno cio
Ġkonser vis
Ġpart neroj
nMani festo
F G
ç ļ
ka ÅĿa
Ġin oj
ki ÄĿas
Ġsur voje
Ġnom iÄĿis
Ġrakon ton
Ġab stra
Ġstre Äī
ĠBaud rillard
K an
L V
R J
r s
Ð ¢
ĠT ab
ĠO ne
ling vajn
Ġsignif ojn
ĠreÄĿis oro
Ġlangua ge
ĠIndividu aj
7 42
d Ã©
Ġ ÅŃ
li t
Ġpre mis
nU sono
ĠIs tv
Ġdirek te
6 75
a par
ĠK ris
ni vela
nG aeilge
Ġpermes o
Ġmalsan ul
ĠJerusal emo
ek onom
ov ado
Ġmili ono
Ġci feroj
ĠLing va
Ġmalproksi ma
Ġcifer a
n ed
el ds
Ġes encaj
ĠL inio
ĠM AL
ĠâĢĶ \
Ġbone gaj
ĠFran Ã§ais
Ġrapid an
pers ona
Ġen danÄĿer
ĠI u
ĠD un
nN acia
67 0
Ġplu vi
hel pe
Ġinternaci ajn
Ġsuges tojn
ĠMana ger
O U
ta le
99 38
Ġf em
ĠS ara
ĠD aniel
va la
ĠH as
ura do
Ġ195 1
ĠÅĿto fo
5 97
7 47
Ġ \
ĠâĢ Ļ
ak es
ma taj
Ġinten ce
Ġdesegn ita
Ġtemper atur
ĠIstv Ã¡n
00 03
ĠaÅŃ toj
Ġlo kan
Ġpas porta
ĠAu di
nZ amenhof
Ġnatur on
98 37
Ġsol voj
Ġbo tan
ĠWiki pedia
Ġdefini tive
Ġekvili bro
Ġambas ado
36 04
Ġfun dam
Ġinteres an
Ġmas tro
7 54
L M
ĠMar y
Ġplen aj
ĠFran z
ĠÄīef ajn
Ġdisting as
nProfes io
Ġp ur
Ġkon forme
Ġ2 46
me tria
jo fte
Ġsub j
9997 2486
kces oraÄµoj
Ġstran ge
Ġgus to
3 80
; \">
n aÅŃ
Ġli breto
di al
ĠF ari
pa da
Ġpa fi
ĠSu fi
×Ļ× ©
Ġokaz igi
998 14
00005 53
67 2
Ġed ik
ĠKun e
Ġsom era
ĠÄµurna listoj
Ġsubmeta taj
3 88
c ks
v iki
Ġde tekti
Ġling vajn
alo g
pek ta
ãĤ Ĭ
Ġesplo risto
K E
ĠN omo
Ġtri boj
Ġdec embra
Ġdia gramoj
Ġfundam ento
z ata
li lo
Ġe tan
98 65
Ġver karo
Ġgran do
ele co
Ġso cion
hav a
ĠKomun a
naci aj
Ġfamili on
Ġminer aloj
da dis
Ġne mal
ĠD as
kor a
ĠRus ujo
gani zado
Ġinternaci e
Ð³ Ð¾Ð»
Ġakto rino
Ġpil gri
Ġe tikedoj
nE ven
cen ter
logi cal
Ġnok ton
ĠKartvel io
Ġ Õ
ita do
ve t
ÄĿi ÄĿis
ĠBil dliteraturo
Ġsalaj ro
Ġreprez enta
a o
to ry
toj Redakti
ĠS ho
ĠD or
Ġar b
van i
Ġtrans gen
Ġmov iÄĿas
poÅĿ te
Ġens alu
uste c
ĠPlan ado
ĠSinga puro
5 28
co ln
Ġden un
] )
v adon
â Ĥ¬
nL CCN
for mon
Ġro s
ner gren
Ġfori ri
nLas ta
c elo
da toj
po loj
Ġak re
Ġmas o
ĠIzrael idoj
Ø§Ø ¨
7 97
Ġp es
ord aj
nÄĪ irkaÅŃ
Ġuti ligi
Ġevi tas
Ġsimbo loj
pisko po
Ġokupa taj
Ġe terna
Ġdokum enta
c ante
ĠT en
Ġres tado
Ġtri bo
Ġag ojn
Ġstre bas
Ġesplo ris
mani eron
ÐºÐµ Ð²Ñĸ
Ð°ÑĪ ÐºÐµÐ²Ñĸ
Ð°ÑĪÐºÐµÐ²Ñĸ ÑĨÐ°
âĢ¦ âĢĿ
: ","
27 0
nM ez
Ġbon as
Ġapli kaÄµoj
Ġafab la
ÑĤÐ°ÑĢ Ð°ÑĪÐºÐµÐ²ÑĸÑĨÐ°
Ġp eco
in ko
ig ataj
ĠF ris
ĠantaÅŃ eni
Ġnek uti
Ġfer v
ĠLo de
Ġcifer eca
German io
nCom ment
Ġkvadra taj
Ø ³
la te
ta tar
Ġkun vi
Ġra do
nH ungara
nom on
Ġmas ak
Ġnaci ismo
lern is
Ġgaranti i
C FD
P ubli
P ost
ĠS hi
ĠI ma
nE sta
73 1
Ġmalri Äīa
ĠTaj lando
Ġkompro mis
ĠS aluton
ran ko
Ġpa ÄĿ
bi to
Ġkoncer toj
2 99
f ini
Ġb v
ĠT erito
19 24
et tes
pen ha
titu to
ĠBer no
Ġnaj baraj
h omo
Ġke y
96 66
nV o
Ġeb lojn
ĠPa y
Ġaran ÄĿis
Ġescep to
k vankam
| -\
li tajn
in tus
te ga
Ġlas te
Ġespri mon
nProksim uma
h ere
u ts
Ġforges i
ĠDom ini
N a
ĠJ im
Ġmar gin
Ġ7 2
nMal long
nPa tro
Ġfla va
Ġtransi ris
ĠIri sh
eb e
Ġ18 00
nEl donejo
Ġtas o
Ġdissen dita
Histo ry
Q W
S V
x is
Ġpor tu
ĠD ion
ĠD ume
me trio
0000 039
pi re
nD okumentoj
Ġmala mo
ĠJu gosla
Ġadministran toj
dosi eron
nMem broj
Ġf e
Ġh oron
nP roj
Ġlan d
197 0
Ġadvo kato
K M
ê ¯
ra k
ur bon
ĠR ub
ĠF ru
Ġeb lus
end re
kos toj
deven a
C X
ti gado
86 74
87 214
dis ku
ÃŃ s
ĠSta tis
Ġvirus o
Ġs onoj
Ġh ungario
ĠS outh
ĠJ Ã³
ard ojn
eg ale
ĠBiblio grafio
Ġpasin tan
Ġdeba toj
A FE
Ġd entoj
Äī ie
pre mio
Ġmor ala
ĠBo h
ĠPes ilo
Ġgel ern
H D
n ell
ĠK ristan
ĠS tano
Ġmi tologio
93 55
tem pan
67 1
era erts
rigi taj
ĠLan daj
k lojn
u ch
ka po
Ġh unga
nP an
CD E
Ġpen traÄµoj
nRe en
Ġsendepen daj
ĠAnd rÃ©
G G
J X
Ġb ut
ĠC ez
Ġpen traÄµo
Ġaprob o
B P
Ġc or
sta cio
76 1
Ġpubli kan
Ġjun ulino
Ġneces is
Ġrapor tas
Ġ ign
ĠH y
Ġsem ajne
ĠserÄī ilo
Ġfamili anoj
ĠPe eraerts
Ð¾Ð½ Ð³Ð¾Ð»
ĠEston io
ĠÅĿ ov
ED B
ĠÐ ľ
Ġcir ku
Ne havebla
ĠmonaÄ¥ ejo
nNotoj Redakti
8406 21
! ...
5 94
7 98
Ú ļ
å ħ
Ġs idi
ĠT P
sta ro
nEs pÃ©ranto
9984 8396
flu as
Ġedz inon
bal l
ĠLas ta
B iblio
g em
Ġo d
vi ra
ĠC FD
Ġkompren on
Ġkri terioj
Ġpermes on
Ġkonsis tanta
ĠIns uloj
Ġaser to
Ġhon ora
ĠaÅŃtorita to
ĠÅĿton oj
FLU GO
' )","
7 80
Ġkomun e
Ġeston taj
Úļ ØªÙĪ
C AA
Ġ 66
ti poj
ĠT rump
di ro
ĠaÅŃ ten
ĠkontraÅŃ a
ĠkontraÅŃ le
Ġmod elon
nKom preneble
Ġgaran tio
5 96
la taj
to ma
Ġkon fer
Ġapli koj
Ġkonsta ti
Ġlandli mo
ĠPrakti kado
ĠKrako vo
Ġde koj
li ga
ĠS istemo
Ġg or
ĠLa o
gra do
ĠAn ne
Ġ19 15
Ġaspek tis
ĠNeo ksidebla
iche wa
Ġf anto
ĠK ov
Ġhav eblaj
67 9
Ġpoli tike
Ġinteres ojn
Ġindustri oj
Ġinfan on
ĠVel de
ĠHealth care
b es
x ojn
Ġs ke
om ojn
Ġ1 028
ca t
Ġunu op
Ġmili taj
Ġkor ea
eli to
ĠY or
Ġpla Äīis
198 6
nLi teraturo
ell s
ĠUru gvajo
6 97
E vans
j us
u laj
ĵ ×Ļ×©
ti fi
ng el
Ġdi am
Ġar tis
Ġpo ezia
th an
9999 33
82 12
Ġkres ki
Ġmalkov ro
Ġkonsta tas
Ġdetermin i
rig os
Ġfir m
Ġkopi ita
x el
in n
ĠN ar
Ġpen is
Ġplibon igas
âĹ ı
A BC
as s
ĠL uno
taj pu
98 57
ba c
ĠW ag
pan jo
9997 067
Ġfak toro
mar t
Ġindik is
Ġdese gni
atribu ton
Ġ 86
Ġf ajn
pa ÄĿa
kul turaj
Ġlito va
bili dad
D BC
Ã ī
id el
ĠP ie
96 67
Ġinter no
Ġunua vice
ĠPo ÅĿtele
ic al
Ġindi fer
.\" [
ĠBla hu
Ġrezer vitaj
Ġ á
Ġd ele
Ġv ej
ĠT uni
Ġkor pa
Ġsigni fa
Ġpi ram
ra ire
999 49
ĠB av
nL im
pi ÄĿo
Ġmen uo
kan alo
Ġekzemple rojn
ĠBal daÅŃ
ĠFer din
Ġbr ul
nRulse ÄĿaj
ĠJanu ary
Malfer miÄĿas
L an
m el
mi karo
ejsbu ko
6 35
j s
ed it
ĠAr to
Ġfun do
Ġkomenc intojn
ĠserÄī ado
gx as
ovi Äī
ĠProfes ie
Ġdungi toj
I s
h ost
98 74
de to
tin daj
Ġak cen
Ġcer emonio
gran ge
Ġon doj
Ġnatur an
ln umero
n tl
v uloj
di zo
ĠV ene
nB ona
Ġlas t
Ġru in
Ġkonf uzi
Ġverkoj aro
ĠStu denta
d ens
gi loj
nT ombo
Ġeks ta
09 26
ĠZ e
nMal graÅŃ
ova ÄĿa
Ġvari aj
cs ay
Ġscienc isto
Ã¢ m
Ġsp ion
001 000
7 94
S ta
re tradio
ma o
ĠH ind
Ġmem braro
EA B
998 12
Ġmalri Äīeco
7 95
7 45
Ġ1 05
97 95
ĠlaÅŃ dire
Ġkonsid ero
Ġneder lando
Ġproviz ore
Ġmalven ko
home page
an ce
98 04
ĠÄīe valoj
nR eligio
EA A
ĠTra di
ĠInsta gram
p eno
00 54
nP aro
997 27
ĠAr mand
Ġsta tuo
EB UO
Ġekonom ion
Ġscen ejo
Y H
on ata
pro v
ĠA Ä¥
ĠLi bio
998 24
Ġplan ko
ĠRulse ÄĿaj
Ġmalpermes is
ĠBela rus
trak tado
Ġkomand anto
ĠZuri ko
? )
c ano
e vans
m d
p ikaj
99 30
Ġmi ksi
96 89
las i
Ġma poj
Ġekster an
Ġmalfer mo
Pol lando
Ġb uro
ĠI aloke
ĠO pen
Ġklopo dos
# ]
Ġk urio
ĠE vans
pa ta
man kantaj
th or
nB logo
Ġaper inta
Ġprofi lo
nom oj
Ġreali go
ĠFeb ruary
% ,
d ed
li ÄĿo
ku tejo
Ġko li
Ġoku pado
007 999
ĠJava Script
7 87
ed mund
ka dro
Ġnov e
nF er
ĠÄľi aj
kun veno
Re ferencoj
Ġrevolu cia
Ġride to
8856 535
ntl world
g rimley
ik s
de ÅĿo
Ġdis er
pan a
Ġartiko lnumero
Ġur be
00005 56
ag ita
Ġteksto partetoj
Ã¶ n
Ġklu bon
teks taroj
Ġvari o
nÄĪe Ä¥a
Ġtesto partetoj
9293 161
[ #]
j ono
Ġm isi
pe z
Ġri pari
CC F
Ġkam pon
Ġdial ektoj
rimed oj
87214 57
ten berg
ĠP r
par t
Ġpra ve
eble con
Ġdisvas tiÄĿo
Ġbrazi laj
ĠmesaÄĿ ojn
à³ į
P RI
le do
ĠSu pera
Ġhospita lo
8458 208
F re
Ġ }
Ġrez igni
Ġideo logio
Ġtab elo
Ġgita ro
ĠRej no
ĠÄīi an
nL ia
me zo
Ġfo und
vor ez
Ġmalkon ten
N ia
V I
s tri
Ġd Ã©
Ġliber an
Ġkol oron
zon on
ĠÄĪe fe
ĠBlahu Å¡
Ġli gon
ĠMar vel
Ġkur s
Ġrapor toj
ĠCo o
Ġarme a
Ã¡s z
produ ct
n bi
Ġp ian
ĠM Ã©
po ta
Ġres taÄµoj
Ġgra tu
Ġpoli tikoj
193 0
Ġnas kis
Ġtransi ro
Ġfiz ikaj
Z B
Ġg amon
999 806
Ġvi rina
9999 8
Ġku ris
mes a
cx as
Ã¡n dez
Ġsto ma
ĠSil fer
ĠKali for
Ġrifuz as
ĠL ang
Ġg ard
ĠEs plo
nP la
fa ce
Ġmor tigita
Ġfo ton
com ment
ta gan
Ġinf ras
Ġ2011 1
Ġperio doj
ÅĿ in
98 44
ĠF land
nKa ÅĿita
Ġrelig ion
Ġfav ora
B il
do v
vis ion
Ġlas tajn
nProduk taj
3 96
O Q
ĠE blas
ĠS anta
Ġka pri
Ġhav igi
nT ek
tru o
Ġko ali
Ġesperan ts
Ġ15 00
Ġsol vojn
oma lio
Ġgrande gan
ĠWen nergren
Ġa eron
Ġa friko
ĠE re
di mento
ad er
Ġali maniere
Ġins tigas
998 26
Ġman dato
EE C
Ġadres on
T o
03 51
Ġ6 2
Ġpl ed
ispan io
Ġima gas
Ġokupi ÄĿis
Ġtur men
ĠÅľan ÄĿi
âĺħ âĺħ
ĠLat vio
V E
Y C
s ona
v ebla
li brojn
Ġh ela
ĠR aÅŃmo
93 64
997 22
75 1
pen na
Ġpres ti
Ġisla maj
unda tion
Ġzodia ka
I ta
blo go
Ġmili tistoj
Ġz onoj
cer ne
Ġprokla mis
Ġlogi ka
Äī os
am bi
gra f
Ġte g
Ġkan cer
Ġkontribu on
Ġredak tado
Ġsil ente
Ġprodukti ta
ĠinterÅĿan ÄĿi
Ġb er
pa roj
ĠH od
Ġc ar
Ġkons ili
Ġmem bre
Ġes taÄµoj
ĠMa h
== =
ro l
es aj
ĠA teno
Ġekz eku
Ġvidpun ktoj
6 18
li gon
Ġkon for
Ġg od
pa trino
Ġak ra
Ġnaj bara
ĠKos ovo
ĠEli as
jari ÄĿo
' t
3 55
A ng
ĠK av
um eno
95 86
0000 56
Ġpa ÅĿojn
Ġka ÅĿita
9996 4
BD F
Ġim pul
Ġfra zojn
ĠGra matiko
din toj
Ġforlas as
Ġdemokra tia
] ;
n sen
24 34
Ġven u
ĠK va
ĠK ara
Ġe cojn
ĠLe gas
Ġag on
Ġforpas is
6 42
D AA
J u
ra to
ig ebla
Ġb ando
arm eo
ĠRo u
Ġsignif is
Ġba lan
ĠVik inovaÄµoj
Ġkonsum ado
Ġwhi le
ĠLuksem burgo
5 29
Ġk s
ak teri
il ed
dis ko
Ġju ÄĿis
ĠSu pra
Ġprofi to
Ġdisku ton
Ġordin are
A ED
Ġde ko
per son
Ġmals ana
Ġkor poj
ĠSimi le
Ġmultnom braj
m ona
... ),
FA F
gen a
Ġklarig on
ĠFili po
* \
C BA
S E
p uso
or ado
Ġt ub
ka elo
ĠF ettes
Ġri Äīeco
ali zo
Ġbone gan
Ġplan is
nLe tero
Ġenspe zo
Ġsang on
ĠalÅĿu tis
ĠWo od
ĠN em
ĠG ala
ĠJ as
ĠAl to
Ġno b
Ġkongres anoj
Ġmalfacila Äµoj
7 84
7 85
98 13
ol eo
nS co
57 0
Ġmalfer mas
Ġeston tecon
Ti u
nSci encaj
Ġmagi ajn
X W
Ġf Ã¼r
193 6
Ġdona cis
ĠFak toj
Ġekle zioj
Ġde fio
ra l
Ġal log
ĠkontraÅŃ e
ĠNe pa
ĠBri tan
Ġpru vis
ustec ligo
L K
e vo
Ġkon tes
ĠÅĿ os
Ġur bojn
be ta
Ġfar us
Ġkla ku
rus a
Ġmiks aÄµo
ĠpreÄĿ ejoj
Ġabo ut
A s
X T
l Ã¢m
Ġo pero
mi ro
ÄĿi lo
ej k
fon to
ĠSud ameriko
ĠAra baj
naj a
teo rio
nInf anoj
ci po
Ġre ply
Ġo lim
ĠI gbo
ble moj
Ġven dis
nF akte
Ġinteres iÄĿis
Ġanali zi
Ġfron te
Ġ 98
li teraturo
ig ajn
ĠR is
ĠH uman
996 9594
Ġbon ÅĿan
nB Ã¢n
Ġseks aj
ĠRen ato
Ġampleks an
ĠPres kaÅŃ
Ġkunlabo ris
7 55
H O
i am
s istemon
Ġle ÄĿon
Ġsci igi
ĠPli e
Ġbalo to
Ġ é
ek tas
ĠS emajno
vi zio
96 16
Ġsta ÄĿo
Ġmov o
nPa ulo
Ki al
ĠPÃ© raire
katoli ka
6 01
nM aria
Ġam plek
75 9
Ġtranspor ti
npar enteze
X U
w atch
â °
Ġa kso
Ġm uzaiko
Ġli mon
di te
Ġte amon
nT ur
Ġsin oni
ĠSi las
ĠAlban io
Ġtens io
ĠROT ARY
ti paj
Ġti me
ĠP RI
Ġsen tojn
rec oj
ĠInter vjuo
Ġaktiv ulo
g el
te ton
Ġmal proksim
gi r
97 86
198 5
kre ado
ĠJan e
Ġeta po
à² ¡
Ġ1 07
ca f
ik ilojn
ĠMar kso
Ġobj ekton
nMar ek
Ġtranslo kiÄĿis
ĠFe ed
indo ws
Ġs kol
ĠS ea
ĠS Ã¡n
Ġl uno
nC etere
ĠMala gasy
Ġaktiva Äµoj
mik si
Ġmalhe la
ĠSpiri to
ĠBelor usio
çļ Ħ
P IV
w ord
ķ à²¨
Ġre pres
Ġe vol
ĠR oma
di rec
Ġek ran
Ġplan ojn
Ã¼ n
nÅ ¬
Ġprepa ris
à²¨ à²¡
ĠaÅŃt uno
A frika
u al
Ġd ana
Ġa te
Ġo pera
ĠT rajno
ĠTi es
998 27
67 8
Ġeldon oj
Ġrus an
ĠfraÅŃ lino
ĠGol fo
industri o
ĠFrances co
? \"\
b Ã¡
Ë Ĳ
Ġe timo
Ġpost vi
Ġtri um
Ġro z
Ġkel ka
nPro dukta
Ġprofi tas
Ġmona te
eg alo
Ġpopula cio
Ġkonvin kis
ĠEd ward
OT E
V J
i zo
s taraj
Ġ ]
ĠLi bano
Ġma t
Ġmala prob
Ġbe bo
Ġcom ment
Ġeli ras
Ġsiste ma
Ġfollow ing
id ejo
em ina
98 54
Ġpo le
bu d
Ġfak tojn
Ġmo bili
Ġpostu li
Ġmult lingva
IL A
Ġtito lojn
Ġrezign is
D DA
b da
ĠF an
Ġres ani
Ġokaz aÄµo
Ġlan Äīita
Ġlu don
Ġfra g
Ġmallon gan
vang eli
Ġrezis ton
Ġmalju nulo
Ġre gata
ĠB jalisto
jo rino
Ðµ Ð¼
Ġves toj
Ġlerno libro
ĠBoli vio
Q I
S er
h ari
ĠE th
ĠE vangelio
ĠV is
Ġali uloj
ke co
ĠKon kursoj
ec ajn
BE F
Ġating os
Ġakompan as
Ġsekure con
Ġdisponi bilidad
Ġnesu fi
6 09
U ES
Ġde voj
es anco
ten ado
98 43
9999 99
rin to
ĠInter alie
ĠPo pula
dem an
ĠLu is
Ġab sor
Ġinformoj Produkta
198 0
ĠLin coln
RA Z
ĠMongo lio
5 88
Q N
i res
Ġâ ī
IT E
ĠOt to
99 256
ĠMi chel
Ġapli kaÄµon
9994 125
zy ÅĦski
ĠSig noj
Ġklasi fi
enc is
gu laro
ĠAÅŃ g
014 3
ĠOn tario
Ġfav or
ĠMad rid
9967 144
Ġidenti gi
quire d
to ols
ĠM eto
nK os
az aj
Ġsta rigita
vin te
ebsi tes
t no
Ð ¡
ul toj
nS parky
nH a
ĠAm s
nIn dekso
Ġtradi cion
Ġmalpe z
Ġkampar anoj
ĠMol da
1 974
ĠS ri
97 56
ani ka
kons trua
Ġkru roj
Ġposed is
Ġcivili zo
Ġinvers e
Ġspon tan
6 95
V S
X I
Ù ħ
id h
Ġkon a
Ġdetru ita
Ġefike co
Ġkombin aÄµo
nAng le
36 0
nTi am
ĠFon duso
Ġadop tis
nDona coj
akes pe
ĠA N
ik istoj
Ġ- \
Ġsta rigo
Ġkvar an
Ġtutmon dan
H M
k ron
m r
z in
la h
999 48
98 47
ĠG od
va ta
Ġfon e
ĠMal tese
Ġmur dita
Ġekipa Äµoj
nPos ted
ĠDon ald
provi zo
áĪ Ń
nGi useppe
Ġnekomer caj
ĠLa borgrupo
96 97
ekz is
Ġalvo kis
s am
ro ugh
ĠB it
ĠRe g
AC E
Ġoku pita
5 82
D I
h un
ĠP ens
ĠB rown
ĠW hite
Ġkap tita
nPor talo
Ġkonta kton
G ra
[ /
y d
Ã µ
Ä «
80 27
ĠVir gu
Ġdekom ence
7 86
D FD
Äī ajn
ĠA pr
tro du
Ġpre mon
Ġling visto
ĠZ ulu
Ġdec embran
razi la
Ġtrin kejo
Ġtraj to
Ġminim uma
je viÄī
Ġspekta klo
D P
g anoj
al to
ko ti
per f
ĠI NS
ĠJ ona
19 14
tribu tors
Ġas tron
Ġem bar
Ġer ror
ĠEks ter
ĠÄĿ em
Ġmals upra
Ġreg anta
ĠRa di
Ġanon ci
ĠvoÄīdon ado
v ina
Ġi ÄĿos
ce gov
Ġka ÅĿas
Ġsta m
socia tion
áĬ Ľ
áĪŃ áĬĽ
er do
Ġes troj
Äī irkaÅŃ
di vers
ver da
ekto ro
Ġsuper is
Ġpozi cioj
Ġamaskomun ikilojn
Ġmatema tikisto
ĠmaÅĿ in
ĠBelar taj
z hou
Ġal tran
go lo
Ġvo kalo
nF ra
ĠKa faj
Ġespl oras
Ġ[âĢ¦] ","
akespe are
K R
Ġs kato
ĠB ros
ĠEs tu
Ġpa ri
Ġrekon is
Ġestab li
Ġanim aloj
nParto prenu
p per
Ġ 0000
Ġp h
nM ajo
998 11
Ġci gar
Li ber
Ġalfron ti
5 92
ĠV AL
Ġfor mado
Ġemfa zis
N eniu
k vanto
en kov
ĠP A
ĠÅĿ raÅŃ
ĠF ejsbuko
ak h
Ġar esti
Ġsubs tanco
nLi bera
ĠSuper man
ĠCan cel
6 34
Ġk ardin
Ġver tika
ec u
Ġinstru o
ĠCo un
Ġmesa ÄĿoj
ĠBen ino
Ġhandika p
Ġpartn ero
W I
b be
k ero
p so
r ar
âĢ ¯
de Å¾
ĠMi ra
Ġam is
nI tala
Ġci taÄµo
Ġses dek
use um
Ġobser vi
Ġmemor u
Ġakciden to
nVI AF
T EJO
ĠD ub
ĠEsperan tan
ĠEn konduko
Ġstu das
Ġalian canoj
uni kado
Ġprakti ki
nKla ku
ĠPers ian
nKons titucio
Ġa mika
Ġm lÃ¡
00 30
Ġre vojaÄĿo
ĠLa penna
bo l
Ġklopo do
Ġsemajn ojn
Ġmalaper as
wor ks
ĠLud wig
Ġpli boni
Ġmul ti
Ġvid eoj
Ġpost ul
gan do
Ġneces an
EF F
9956 42
197 9
Ġpronon co
Ġtribun alo
Ġgim na
ĠmlÃ¡ deÅ¾
Ġar es
kis met
Ġku pro
Ġinf ekti
Ġkap tas
000057 9
Ġcir kvi
ĠFak e
Ġplifor tigi
Ġenspe zoj
Ġrevu oj
T ron
89 056
ĠAl t
Ġsoli dareco
protek tado
L R
n ek
Ã ĥ
ĠJ ung
no logy
nR os
ĠPro bal
nKom itato
ĠDi ck
Ġkolekti va
Ġarte farita
J N
is cher
re vuo
Ġ1 848
Ġri t
Ġak va
Ġedu ka
ĠeÅŃ rojn
4 201
i lia
997 8
Ġhom ajn
ED E
Ġsufi Äīa
Ġform ula
Ġ eo
Ġ 63
is ter
96 967
nN eniu
nF ak
Ġsim pli
Ð¾ Ò
alaj zio
pun kton
Ġdirek ton
nNov embro
Ġras ismo
nre vuo
Ġprotoko loj
å ı
ti te
0000 463
nT e
89 04
ver ko
Ġkor to
Ġparo lu
med iaj
ĠSte la
Ġargum ento
Ġretu milo
w ebsites
Ġa gis
Ġt ras
am b
Ġkon toj
Ġan stata
lan a
av io
ĠDe pen
nKom ence
Ġvir tuala
ĠCan etti
Inter nacia
C Z
h omoj
Ġ1 10
ĠT ut
nP lena
Ġbaz an
163 13
Ġsendepende con
0000 342
az ure
Ġmulte ge
Ġkonta ktis
Ñĭ Ðº
Ġsal ut
Ġfal s
Ġdenas ka
Ġtravi vis
U n
pa per
zo fio
Ġka pitula
ĠlaÅŃ tle
ĠJu li
Ġveturi lon
nSek va
Ġlud anto
ĠLea gue
6 21
6 54
C M
n head
ĠÅĿ pari
ĠF ut
Ġta m
76 9
998 25
Ġspe cia
Ġkol or
Ġkomenc os
Ġenhav listo
Ġrestora cio
L ER
ĠE mir
Ġpa roj
nI do
Ġdev igas
Ġfen estroj
hat sA
Ġska tolo
ĠHorosko po
hatsA pp
3 28
k ara
es is
co a
ĠI sa
Ġle gan
Ġins tigi
Ġprezen tiÄĿis
Ġban koj
ĠSloven skÃ¡
af t
Ġret urn
Ġkov ritaj
ĠCon tent
ĠÅ ģ
ĠLibro servo
ĠAgen do
· Ð¸Ðº
Ġen co
98 15
98 58
ĠN E
Ġso laj
Ġofi cisto
Ġson on
ĠÅ ļ
Ġch ar
ĠSco t
ĠAms terdamo
f eb
k r
s igni
al uz
ci l
th ur
Ġliber igo
Ġlern u
193 9
Ġmalju nuloj
nAbon antoj
nTag alog
tu b
ĠT aylor
ĠR eligio
ĠJ OTE
Ä¥ oj
den so
Ġedz ini
Ġmeto don
6 08
B M
g ed
n tra
n esperanto
ĠA kismet
98 06
ĠH mong
Ġsi te
fa c
Ðµ Ð²
Ġsper ta
ĠSo cio
9994 9974
Ġkal end
ĠSh ona
wo ord
Ġnega tiva
8 995642
l eder
Ï ĥ
Ġp um
aÅŃ mismo
37 0
Ġ19 03
Ġden se
Ġev s
Ġstri kte
flo at
Ġpie do
Ġs ume
eo logio
99 39
ĠS esotho
ov ajxoj
Ġek is
ĠJun e
Ġrespekti vaj
Ġzor go
ĠCompan y
agita rio
Ó £
Ġ ç
Ġpro le
ĠB et
Ġfor bari
77 1
Ġparo los
ĠSo li
847 2612
813 65
Ġgri za
Ġsalu tas
Ð¾Ò ·Ð¸Ðº
L P
s x
Ġt ren
tu ma
Ġel im
98 07
ĠF lan
ĠLi teratura
ĠKi pro
Ġbio logia
ĠBona ero
nBal daÅŃ
A FD
D EC
Ġ 83
da gas
11 11
nL on
nS KEJ
Ġreg adon
Ġkomer con
Ġspeci lae
ĠWay ne
azure websites
8 866
Â ©
Ġa roj
om aj
Ġb la
Ġmi lojn
ch te
ens tein
vin ta
nDire kti
Ġesperants kÃ¡
D Z
ĠG abri
Ġpa ten
Ġfron to
ÙĨ Ø¬
Ġpropor cio
99556 83
99465 96
6 91
7 01
u c
ĠJ in
nK li
Ġsen kul
Ġ19 04
Ġkri moj
Ġfeli Äīon
Ġega laj
nNaski ÄĿintoj
ĠFund amenta
ĠÐ¿ ÑĢ
ĠApp le
99324 97
6 45
6 48
ĠV es
nLa bor
ĠÃ ¿
Ġteo rie
Ġiden tecon
Ġfenom enoj
9922 144
9743 7394
revuoj La
kulturajn ovajxoj
D EE
N ot
Ġk us
Ġne g
14 82
Ġar gen
Ġnom umita
Ġlon gajn
ae y
nW ebsite
ĠPli aj
Ġbra ko
277 53
nEkonom io
å Ĳ
en ne
ĠH ay
fer eca
nN ame
ĠVi rino
ĠCh ristoph
Ġstu don
ĠTra duko
Ġfinan coj
ĠCar los
968 9905
Ġinterpre to
ĠPu tin
ĠGro up
Ġscipov as
nPrele goj
prov leginto
D FE
ĠP lus
tr ono
nH ono
BF F
Ġus e
Ġmed ia
Ġstatu to
Ġsurpri zo
nRi Äīa
3 003
U r
ĠE tiopio
Ġe aey
\" ;
ĠR Ã©
ĠH TML
ve z
ĠPo ezio
ĠPre mio
Ġrezul te
Ġsch engen
pro vinco
ĠR EU
Ġmon daj
DC E
Ġpubli shed
Ġkan ti
9984 707
ĠvoÄīdon is
à° Ĺ
nMallong igoj
f oni
bo ut
Ġma ter
50 126
Ġw orld
Ġmalj uni
Ġvarm arkoj
9906 288
ĠTek staro
à± Ĩ
So ci
s kri
v ak
Ġ 88
ed ic
ĠRe in
ple ta
pri ng
Ġplan ita
ĠCo ur
Ġvun di
Ġkonven a
à° ²
Ġesperant lingva
T s
er aloj
ĠJ ud
Ġraj tis
Ġlern adon
Ġkrom aj
Ġkonfli k
Ġsemajn on
Ġelspe zoj
ĠFrank fur
Ġdata base
ĠðŁ Ļ
ĠAdminis tra
Ġprivi legi
Ġepid emio
89056 23
nJ EBUO
Ġmo tor
nPar lamento
nCon tributors
ĠFred eriko
99346 536
d ri
Ġb ib
po zio
97 10
ris on
par on
Ġro ta
ĠdaÅŃ rigas
Ġsper ti
Ġves taÄµoj
954 16313
Ġani mon
ĠHav ano
Ġkompleks aj
nbi eroj
81365 466
Ð¾Ò·Ð¸Ðº Ó£
7 96
Ġ1 30
ĠG io
arm aj
ĠSloven io
ndi versaj
K re
te c
ĠK vin
ĠS ala
Ġre ques
98 26
me tas
Ġsen ditaj
89 22
Ġavia diloj
ecu tion
D S
ĠM P
Ġres ource
Äīe ti
Ġju ris
Ġas pi
6 20
Ġg ig
ki lo
9999 2
âĢĶ âĢĶ
Ġkomer can
198 4
Ġtero rismo
ĠSh akespeare
A EE
f lua
Å «
ĠB ay
nL A
ĠMal peza
nLe ÄĿoj
Ġkam paro
kol oraj
ĠGo tham
Ġkomita tano
ĠKaza Ä¥io
ĠKof man
H A
Ġre al
ĠC ur
ĠW inston
za tion
Ġsukces aj
Ġgla ta
esperan tio
nJo hn
ĠVe geta
Ġvidpun kton
ĠKalo csay
B on
l uma
Ġd ron
Ġsu ple
kom isiono
Ġsem oj
Ġspeci fan
195 4
Ġfinan can
Ġmalmul tekosta
Ġtab ulo
Kon s
Ġinterkonsen ton
Ġform ulo
Ġ== \
nKonklu doj
cegov ino
! --
I ON
t to
Ġg ara
tent s
Ġpa ge
nV IP
Ġas embleo
ĠKol um
8775 882
ĠJugosla vio
n angle
w an
Ġn os
Ġal tler
ce j
Ġsu fo
Ġdis e
pre v
Ġ19 16
198 2
Ġinten sa
895 50126
K G
Y M
Ġa lar
Ġuz anton
Ġko rido
teri ojn
gon Ã©s
Ġadd ress
ro c
ka toj
gi oj
Ġtre ege
ir d
998 17
Ġro ko
Ġfo k
Ġkonta ktu
Ġfing roj
ĠiP hone
Z U
n um
s ig
Ä ĥ
pro fes
tu to
gi er
Ġdi eto
ĠH it
ga la
Ġfor miÄĿis
nR ek
Ġsci on
ĠMon ta
Ġprakti koj
rila toj
Ġreques ted
D U
on y
ĠE conom
Ġe tiko
pa Äµo
ĠÄīiu foje
eg ro
Ġbi er
Ġdistri b
Ġdisvolvi ÄĿon
Ġsubskrib ita
ĠKOV Ãģ
da e
98 67
nL F
91 83
nJ anuaro
Ġbata lon
Ġmur dis
Ġesper on
ĠKul turaj
H B
X G
p ikoj
ra porto
Ġf osi
Ġvi zita
ĠC e
Ġunu iÄĿo
Ġsam noma
ĠFran co
Ġdan s
844 0351
ĠCentra l
Ġdestin ita
ra don
ge do
Ġsek undoj
Ġser ioj
ĠEk vadoro
seks a
blog s
Lu han
nPoli tiko
ĠlarÄĿ igo
T h
i van
l b
on jo
ta in
ĠK n
ĠC ris
ali gh
ĠNe il
Ġakti vis
Ġsubs tancoj
ĠFo undation
ĠLin ukso
Ġhezi tu
nNom bro
i u
Ġdu e
DA F
ĠFor ex
ĠBrazi la
Ġmult foje
Ġredak tis
Ġkongres on
Ġmalj us
Ġrekon as
ĠPala co
áĬ ł
Ġakces oraÄµoj
Ø§Ø¨ ÛĮ
= %
A FA
D BD
ĠB ill
0000 536
nH eroldo
Ġdeta lan
Ġindi co
Ġfoj foje
ĠBar ry
Ġavanta ÄĿon
Ġkonvers acio
Ġbes tojn
ca go
Ġofi cistoj
tur es
ĠInstitu toj
Ġkultur an
7 08
g ana
è ©
Ġe cx
rita to
Ġfa iled
Ġno to
Ðµ Ð·
Ġat eli
ĠSta te
ĠSte ph
lini ÄĿu
i ca
en z
Ġs fero
ĠA risto
ĠA cadem
ĠD r
for ton
ĠRe to
ĠSu dan
Ġkonsider ita
Ġprovi zanto
Ġbi eno
Ġaki ras
nà¤ ¨
ĠMc Luhan
Ġdosi er
Ġmallar ÄĿa
ĠRafa el
0 99
K T
el don
Ġes eo
me co
19 17
cep te
ler ni
Ġkur ento
ĠNor do
Ġproce zoj
Ġmens a
ĠEkonom ia
even taservo
L T
p ani
po ko
us ona
ĠB angla
ali go
Ġno bel
tor m
Ġofer ti
Ġsupo zis
ĠEr ror
nÄĪe fa
Ġrezolu cio
ÙĨØ¬ Ø§Ø¨ÛĮ
C FA
fi eld
Ġe co
ĠJ em
nB lazono
9997 548
Ġanon cas
Ġescep toj
ight s
ĠDic tionary
ĠÅĿ ak
Ġar ticle
par u
77 9
Ġbon vole
nV oj
ĠÄīirkaÅŃ e
Ġhispan aj
rap ide
968 97
ĠKOVÃģ TS
K al
h to
t eli
z ek
ĠA vantaÄĿoj
nL ern
kon traÅŃ
nK roniko
fer e
9999 57
ĠZ agre
Ġnek a
Ġmed ion
Ġher bo
Ġseks an
803 26
Ġbra koj
áĪ Ľ
Ġedik toj
Äµ aj
eb lis
88 27753
Ġma lin
995 26
ser vi
Ġsuper rigardo
Ġeksplo dis
Ġimpli cas
6 80
F M
s rp
Ġb et
Ġka ted
997 0
nD a
Ġon idi
Ġfaci ligas
å½ ¢
Ġtal k
áĬł áĪĽ
es io
ed zo
ĠEs tante
Ġka ze
19 03
for mado
997 36
Ġleg os
ĠMari e
ĠAmas o
áĬłáĪĽ áĪŃáĬĽ
8 99
tr uma
Ġlar ÄĿan
nRulse ÄĿoj
7 09
K J
ek uro
ĠU zi
man toj
ĠKa pri
nTi al
Ġvirin on
99 267
Ġra b
Ġgru p
Ġdispon igas
fra c
000057 6
800 8495
886 37
ĠEdu ardo
ĠLis bono
vo lo
nT o
ĠantaÅŃ ju
AN DA
Ġat temp
Ġata ki
ĠÅ »
en eco
an don
al ta
ĠS or
97 85
ĠG ron
ni c
ces s
Ġhistori istoj
Ġfil mojn
ĠSta lino
ĠVir tualaj
Ġmalsan ojn
PH PS
nViki pedio
Ġhezi tis
ĠAbra ham
S id
i i
p ti
Ġa kri
Ġkun fon
ÄĿi taj
Ġvid eon
Ġro k
EC F
Ġklu bojn
Ġbri le
Ġstatis tiko
à¶ ½
ĠS ha
tl y
Ġeks kluzive
995 15
nG o
ĠPa ulo
à· Ĵ
ESS ID
PHPS ESSID
ra taj
ci us
Ġdi ligen
Ġsen proble
19 18
gori a
nM en
BC B
nKa pitula
Ġbonven igas
A BB
C a
w is
ĠS omalio
ĠI ng
nK al
ga ro
ĠSe gedo
9997 3524
Ġme talo
iste ro
CA E
195 7
Ġkli entojn
nOr gano
Ġhorlo ÄĿo
le z
Ġ1 890
ĠS wahili
ĠB IF
Ġle go
Ġ19 01
nLe ave
Ġreg ulon
ĠGran de
Ġkov ris
Ġvan e
nFor muloj
Ġfab oj
à· Ħ
c m
ti ge
Ġpor dego
Ġj c
ak e
Ġsek vo
ĠRe al
AC F
Ġmov ebleco
Ġdev igita
ĠISBN ajn
9995 8766
Ġprefer is
836 47
mem broj
mals amoj
à¶ Ĥ
B ul
er is
19 20
Ġkons ide
9999 03
Ġfo tilo
Ġmals ato
31 87
Ġru ÄĿ
Ġsoci e
ĠDan k
Ġlim igas
Ġord eno
zor ÃŃn
ĠInf ana
ĠBelarus ian
D FC
d inda
Ñ İ
Ġ uri
en ro
Ġg efratoj
ĠT ru
Ġel paro
Ġali ÄĿ
Ġsek uri
ĠRe t
Ġgvid ata
Ġpol vo
Ġ187 0
Am eriko
Ġkalku las
Ġmemsta ra
Ġkir ur
Ġreli ef
nCer te
à·Ĵ à¶Ĥ
à·Ħ à¶½
Ġ identified
ti ago
Ġh in
10 433
Ġfor pel
Ġl ek
ãģ į
Ġfeli Äīe
Ġkatoli kaj
Ġvesper on
ĠG ren
nP akto
pli cate
Ġkam pojn
ĠNu ligi
Ġtermin on
ĠÐ¿ Ð¾
N u
b ino
v alon
Ġa zio
ĠS korpio
999 38
Ġak voj
Ġgra fo
bi la
mas to
Ġresponde ca
nKor tumo
ĠA la
ku ÅĿi
fa lis
at s
mes e
Ä¥ in
000057 2
deks tre
906 2
ben aÄµo
Ġpsiko logio
-------- --------
ĠPl uraj
Ġenco unter
s ystems
Ġ //
Ġ1 888
Ġtem p
Ġkarak teroj
Ġet naj
Ġagnos ki
B FA
u en
Ġf aÅŃ
ĠF ed
Ġsi li
Ġfor vi
nI s
Ġkri tika
ĠAli maniere
Ġofici ro
blan ka
Ġera o
Ġkonklu do
nCon tents
ĠTea tro
Ġre doni
ĠA gri
Ġver kitaj
Ġmo la
Ġkonsider ante
ĠCom muni
Ġos toj
ĠWal ter
Ġrespek tas
Ġburo kra
' )
7 21
` .
ĠT es
Ġel teni
ĠEs ti
ĠRe fer
enc ajn
daj oj
Ġpoten caj
tor ganizado
Ġbe lajn
ĠBul ler
nKons ulo
Ġvikti mo
nEd z
Ġlegen do
Ġhono ro
Ġkomb ini
ĠÅľar gas
Ġparal ele
B ar
Ġmal dika
Ġek bru
Ġtra fiko
Ġam uza
998 981
ĠPo wer
ĠPar se
Ġrea goj
Ġarte fari
nRen kontoj
D AD
F R
stra te
ĠmanÄĿ aÄµojn
Z O
u on
Ġ1 80
ĠM uziko
ĠD NA
nS QL
Ġuz antojn
lis mon
Ġkor bo
ting s
Ġon e
Ġinklu de
Ġorigin alaj
ĠÄīes igi
ĠEx ecution
gla mentoj
m ing
nR aÅŃmismo
996 0143
nAl eksand
9986 2206
Ġfer voja
Ġmina cas
ĠTele gram
Peter burgo
S ub
k foje
p nb
Ġt esti
ĠK em
ÅĿ tono
Ġg a
ĠT omas
ce b
nM EF
nD emografio
Ġro terdamo
ĠÄĪi am
BE C
br ajn
Ġaspek tojn
214 74
ĠBus h
nDirekti voj
Ġattemp ting
nK antaro
23 14
Ġpar se
adminis tranto
Ġgeo grafia
99994 84
nGeografio Redakti
9794 27
J R
Ã ¬
tu ko
Ġpa trio
Ġeven torganizado
984 80326
Ġlisto pada
ĠBal ta
nDek retoj
9917 2074
taria esperantob
9893 824
Ġarab aj
nIns tancoj
9576 152
nro tariaesperantob
Ġencounter ed
nrotariaesperantob razilo
A BD
n helpe
Ġk enjo
ten egro
Ġre ton
us ence
na ejk
nF emina
00005 8
AC D
ĠMal granda
nRe glamentoj
Ġkarak traroj
966 2455
ĠJos ef
Ġobser vis
Ġtaj lando
Ġben ino
Ġbur undo
9875 8006
96967 334
3 08
A EB
F BA
J W
M ARY
s eri
Ġli poj
Ġpost las
fes ti
Ġter p
nKa pitulo
ĠJu Ts
Ġuni code
Ġkru da
836 10433
nFran Ãĥ
nNor maro
Ġhum ili
9926 188
nCivita naro
nÙ¾ ÙĨØ¬Ø§Ø¨ÛĮ
ĠIN TO
9585 58
8606 0214
Ġtertre mo
8405 4446
nPerio dajoj
nUN PO
nEsta bloj
88637 334
2 107
ĠÄī aro
Ġin gre
Ġmal h
Ġsen kom
Ġle cion
umo ro
kom panio
Ġteo ri
Ġer ara
iÄĿin taj
Ġkvan toj
Ġrom pis
Ġsp am
Ġqu ery
operati ng
H a
w y
li mo
ul ta
Ġi lu
men tal
997 77
si ze
ĠÅĿan co
Ġmen do
Ġevolu igi
Ġlerne jon
Ġval or
sp am
ĠTul uzo
ta ktu
li ÄĿas
in formoj
Ġal kuti
ĠC os
ĠÄīe esti
Ġfra kas
Ġem eri
Ġepo koj
Ġgre kaj
Ġmalpermes o
Ġtend encoj
Ġprograme rojn
ĠWal ly
ĠAlex ander
Ġmark ed
ĠINS ERT
tion et
Ġtra fas
van a
nN ord
73 9
ĠNov aj
ĠDu plicate
Ġfu ÄĿis
esperan tionet
II I
mod x
3015 3604
PRI MARY
ĠVAL UES
21474 83647
30153604 60
P usch
Ġen ami
Ġvi vaj
ĠB BC
98 17
05 48
cen ta
Ġna zo
Ġdia blo
uli loj
an taron
ri ente
Ġra ba
Ġcir klo
Ġuson an
ĠZo om
Ġgelern antoj
X A
ka fo
ĠA zorÃŃn
Ġsi lab
man uel
Ġfor a
Ġte am
nom braj
Ġsa ÄĿa
ĠJus tice
Ġkomunika don
ĠmalÄĿus ta
Ġingre di
a ca
ĠE vidente
Ġkon o
ĠRe view
pen so
ie w
mal ÅĿi
ãĤ Ĥ
Ġmalfer miÄĿis
Ġbi to
plen aj
arag vo
V U
n publika
Ġk ram
Ġkon diÄīe
ga t
Ġkons o
ĠRo bo
Ġher b
Ġeki ris
tter dam
Ġmemsta re
P T
g rim
ĠT rajn
Ġel e
53 204
ĠUs onon
Ġmo toroj
Ġfer mis
Ġeni ro
Ġprizor gado
emajn a
ĠWag ner
k lino
r d
ti mis
Ġpo entoj
43 53
194 0
k vin
x e
Ġes enco
ĠM alajzio
Ġsan aj
Ġpi edi
ĠdediÄī as
474 03
Ġpejza ÄĿo
6 88
A FB
G eo
ĠM embro
Ġne pra
ĠG ene
âĨ Ĵ
Ġson ÄĿo
Ġfabri kanto
Ġcivita no
Ġarme oj
Ġpuri gi
nÅ¬ ali
n mar
ÅŃ ten
Ġf le
id dish
98 11
ce ton
ĠR ad
Ġsen kons
EA F
DD D
EK TO
Ġhero oj
Ġsinsek vo
ĠE tiked
Ġpro fund
Ġg aja
ik to
Ġek havis
ĠÅĿan ÄĿ
ĠRo ad
ĠCh urch
ĠPar k
DD E
Ġagnos kita
Ġproviz ora
Ġciviliz acio
hor lo
Ġjunula raj
Ġgeno cido
Ġ Ñı
li ter
ĠA si
ĠG ab
ĠU V
Ġse ÄĿon
Ġsin tenon
ĠAl banian
ĠSen paga
Ġefekti vigi
ÄĿ enerala
Ġpro f
BC E
Ġkvar taloj
g anto
u linoj
ti gan
ĠK OL
ĠA tes
ĠC ebuano
nN aj
Ġeks kluzi
nC ebuano
Ġcer emoni
aria triaj
N W
m iloj
Ġkons umo
Ġlo kajn
ĠKom prenante
cen co
Ġnu trado
Ġens aluti
Ð°ÑĤ Ð°ÑĢ
nY our
He Ko
9556 8484
è¨ Ģ
nHono rigoj
Ġm et
ÅĿ ante
Ġkun venis
av en
), \
Ġneni om
Ġ> >
nMor tintoj
ĠKalifor nio
A EF
Ġ1 076
ka la
ĠE lis
Ġmal ob
tra to
bo x
ĠMi aj
Ġbon far
Ġkre iÄĿis
Ġparo lanto
ĠMa ori
ĠKor Äµ
ĠKor tumo
ĠH aÅŃ
ĠO ber
ĠÐ ĳ
kons truado
Ġperson an
ĠÄĿusta tempe
Ġretro vi
Ġpaf mor
G Q
P os
h ame
96 94
nC a
Ġno be
DA E
ĠSen egalo
Ġprotek ton
ĠMinis terio
5 98
6 28
T eo
n pri
in kluzive
ĠR as
ge to
ĠN as
17 33
Ġtu ÅĿis
ãģ ķ
Ġkor tego
Ġmen di
Ġdecid ojn
Ġintel ekta
ĠSamo an
1 977
V o
ter no
Ġi lojn
ĠT estamento
97 15
95 65
tem pon
996 8
998 23
TO N
Ġbaz e
Ġteo rion
ĠJako b
Ġmakler isto
ĠTuni zio
3 81
C I
Ġen irejo
ĠÄīi es
Ġun ikan
ĠInter net
w al
Ġs ho
Ġe go
ĠN eni
Ġdu one
00005 83
Ġno ti
Ġdia gno
ĠÄīes i
ÅĽ ci
ĠNepa li
ĠEmir landoj
ĠS kribu
999 59
96 26
997 43
Ġlo go
Ġtri aj
Ġmo do
Ġjen an
ĠOr do
Ġminu to
ĠSud ano
Ġnekom pren
Ġaltkva lita
ĠEurope an
a ff
n ta
s at
en teco
Ġpar encoj
Äīe f
Ġfo lio
Ġcer b
ĠCh ichewa
ind ajn
ĠJon es
Ġ loj
Ġn edi
tis lavo
tra di
ĠJ r
Ġsen mov
men tojn
fe f
et nama
Ġon klo
Ġdeks tren
p ris
s ze
s mall
te jn
Ġser pen
Ġmulte kosta
Ġori entaj
ĠMongo lian
A FC
h oma
Ġf estas
ĠC ale
Ġdis cipli
Ġunu anime
por taj
00005 82
Ġmor tigitaj
ĠÂ» ","
Ġefi kaj
Ġevolu igo
Ġsoli da
ĠKam bo
bata lo
1 000
y on
Ð ķ
99 9996
Ġen kar
Ġf lus
ĠM un
ĠÄĿ erman
Ġkun fan
ĠU zo
du ro
Ġmon go
Ġpla ta
Ġva rojn
917 47403
¨ ª
Ġa prez
is on
ĠS pe
Ġsu pozi
15 15
ĠO c
Ġdis tingo
Ġkontro lita
ĠKo penha
Ġdona cojn
Ġsocia lisma
su pre
Ġdetru o
Ġdefen das
Ġkoti zoj
Ġp Ã¥
Ġs esa
me g
Ġsen uti
Ġres ur
pen dioj
ph rey
Ġhistori an
Ġmalal tan
su kces
ĠMediteran eo
g r
Ġa Äµojn
ĠÄī elo
98 05
ĠÄ Į
ber go
Ġlo k
nF eli
ĠAÅŃ toro
Ġkomenc u
Ġdeta la
und ita
nArki voj
ĠA ktu
ĠP io
em ie
ĠN aci
Ġpre m
OV ID
nis ch
6 29
":" (
ĠÄīi um
85 44
Ġra cia
Ġekz ekuti
and el
Ġdan cis
Ġlar ÄĿe
ther ine
ĠInstitu te
Ġfundamen taj
ĠJohns on
7 89
G E
G W
K ubo
la ma
te ch
re volu
Ġi es
Ġ6 8
ĠÐ ·
Ø± Ú©
ĠRi vero
ĠaÅŃskul tas
Ġmeto dojn
Ġredak tojn
Ġarm ilojn
ĠSom ali
Ġprun te
ĠNet works
Ġla titu
Ġ1 24
ĠB ee
ĠLa w
Ġkom paro
Ġar kivo
Ġdis cussion
vid oj
Ġmili ardojn
Ġokupi ÄĿi
Ġscen o
Ġtrak tis
Ġdomin ado
Ġir landa
Ġ q
ĠI do
ĠC H
Ġfor mu
Ġka blo
lej oj
997 14
9999 8826
Ġfon di
Ġrigar data
tek turo
ĠSen du
Ġprakti kaj
Ġtrejn adon
ĠKen jo
Ġjub ile
Ġ Ã§
Ġs pri
aÅŃ de
ĠTi ele
Ð° Ð¹
Ġmala vanta
ĠHa w
ĠretpoÅĿ ta
Ġron doj
Ġekvili bron
Ġprizor gi
ĠKorÄµ enkov
B an
B EE
n Øª
â Ļ
99 234
Ġpa ÅĿon
nK iswahili
ĠÄīe val
Ð° Ðº
Ġurbo centro
Ġlern anto
ĠGre at
tikis mo
Ġadministra cio
Ġoce ano
ĠHein rich
ti tan
lo kaj
Ġ1 889
ĠK ona
ÅĿ al
Ġre formoj
91 86
Ġliber igis
ag an
ĠY iddish
Ġespri mojn
Ġmalvar me
ĠIKU E
ĠFu ÄĿo
96897 465
d itan
93 75
ĠIn forma
Ġman kon
ED D
Ġposte d
Ġstre Äīi
Ġalfron tas
Ġsup raj
ĠBudh ismo
A FF
Ð Ĳ
de b
ĠG ua
ado s
uri ng
mon tri
ĠÅĿi ajn
eli j
Ġâ Ħ
ĠLu ko
ĠMc K
Ġfiz ikisto
ĠMez epoko
Ġtavo loj
Ġi al
vi co
Ġar toj
Ġuz us
Ġkre ante
ska tolo
we i
Ã¹ bÃ¡
Ġsankt ulo
E ks
Ġ1 04
pe toj
97 66
Ġri vel
Ġar ko
Ġmon s
pi ÄĿis
ato r
titu roj
Ġlar moj
Ġmalpe zan
ÙĨ Ú
L ou
Ġk r
to mo
ra Äµoj
Ġli mas
Ġre ten
ĠG LAT
Ġc in
ele y
Ġapar tajn
AA F
ac c
198 8
Ġves tojn
Ġkru co
nà ¨ª
Ġlini on
à© Ģ\
ĠlaÅŃle ÄĿa
Ø¬ Ùĩ
Û Ĩ
Ġ igno
ri ÄĿas
Ġpro gno
Ġmor ta
ser voj
Ġliber igita
Ġfinan ce
Ġeten dis
ĠHod ler
Ġs elek
ĠLa grange
kon ton
fe c
ĠKomun ikoj
Ġnu tri
Ġkonstru as
Ġalian co
ĠCen ter
ĠlongdaÅŃ ra
ĠSak sio
nAra gonÃ©s
ĠÅľanh ajo
ĠCez aro
Y B
Ġde mis
Ġb est
Ġre alaj
Ġre produkti
997 57
be c
ĠEl saluti
Ġmil da
Ġkantis tino
Ġwhi ch
ĠÃģ ngel
Ġbonf arto
Ø±Ú© Ø¬Ùĩ
nØª ÛĨ
nØªÛĨ Ø±Ú©Ø¬Ùĩ
nul on
ra di
Ġli tera
us t
04 15
ĠVi rinoj
Ġmar kas
Ġed i
Ġbalo tado
Ġgeedzi ÄĿo
nGran da
Ġfide la
Ġperi fer
D DC
| |
ci gi
Ġka b
ÄĿa taj
Ġ10 80
tron g
8412 1305
Ġpan jo
Ãł idh
Ġakompan is
Ġekstre m
ultura l
Ġleci onoj
Ãłidh lig
6 98
H S
w ald
zi an
Äīe fe
be e
Ġekster land
Ġbata las
dosi ero
ĠÄ´om art
7 18
Ġa y
Ġen vi
ak vo
kon tin
Ġfor no
ho ro
Ġkar t
Ġvoja ÄĿon
ĠFab oj
S ud
Äī ilo
ter ajn
se j
Ġkla ran
Ġrice vita
ĠloÄĿ ata
áĢ ŀ
Ġkafe jo
D on
c ÃŃa
Ġi ts
bo oks
ĠH il
mi ento
Ġfaci lan
ĠSh la
sl k
ĠIsla mo
3 92
B er
c ce
Ġma turi
ÅĿi poj
Ã¶ te
ĠX hosa
Ġparlamen ta
Ġp eko
99 29
Ġkom pens
Ġhav igis
997 66
ĠW indows
Ġnun tempo
Ġren aski
FD F
Ġrapid aj
Ġinv esti
ĠPh iloso
ĠChi cago
Ġa mato
Äī us
ĠA z
go ogle
ĠC le
par ti
nT h
ĠAn ti
Ġmor tigas
Ġekzemple roj
ÑĤ Ñģ
Ġbezon us
Ġrekon i
ĠVin do
ĠWel sh
Ġprefi kso
H K
n da
v ard
Ä ¤
ur u
ĠM eza
83 94
Ġpo ÅĿa
Ġra cio
ĠÄīu k
Ġdama ÄĿo
nAle man
K ion
ĠM erka
Ġpor talo
ĠB ib
Ġper fekti
il van
las si
ĠO tomana
9999 0
Ġkontra ux
Ġkomen ti
Ġjun an
Ġkan aloj
tur y
ĠParo las
dagas karo
Z M
Ġk emi
ĠK res
Ġo u
Ġi tin
ad ing
19 25
ĠRe publi
Ġdo lo
ĠPro men
Ġreg noj
Ġvorta rojn
f ed
i ve
nV ir
Ġme tala
CA B
fon io
Ġtuj a
Ġkonta ktojn
196 3
Ġdokum en
Ġforges as
ĠFrank lin
99895 954
Ġposttagme ze
ĠMuzik istoj
nSco ts
Ġk uba
Ġvi vos
Ġmi zer
bu ch
gua ges
ese arch
ĠLing vis
Ġatin gebla
Ġoperaci umaj
ĠShla fer
X N
n Ú©
Ġri ismo
Ġar Ä¥
ns ter
Ġpres ita
bra do
Ġskribi taj
Ġvarm aj
ĠChu ck
you tube
Ġekzempl ojn
999806 94
hame do
: :
T Q
h ora
Ġa kura
Ġnov eloj
Ġto po
Ġ18 96
Ġkonkur enci
eso to
Ġkonsul ti
Ġsubstan tivo
materi aloj
in en
or don
ĠÄīi uokaze
9999 53
nB ar
ea u
ĠBri tish
Ġdisvolvi ÄĿis
ĠVol on
Ġalterna tiva
ĠPriva teco
ĠAus tra
Ġsing ar
Ġinici ati
Ġal ÄĿus
ĠÄī inoj
ĠEn tute
ĠAn th
nAli ÄĿu
Ġform ularo
ĠGi orgio
ĠKri meo
Ġnaz ia
ĠSove ta
opini e
U U
ti gojn
ga Äµoj
Ġres er
EA C
Ġdo g
Ġsci u
Ġfi elds
les s
Ġorigin ale
Ġmalfaci las
193 4
Ġadop tita
Ġekspedi cio
Ġb run
eb en
19 19
ea th
ver peno
ĠÐ ļ
Ġgerman lingva
Ġemo cioj
Ġama zon
ĠSebas tian
ad b
ĠC id
Ġfor pren
Ġak celi
Ġmar on
Ġtraduk intoj
br ary
Ġreferend umo
Ġdi ino
Ġekster en
193 3
% .
P J
P V
c v
el igi
al uloj
Ġre ferenco
ĠD al
Ġnom atan
Ġam plekso
FD A
ĠSer ge
RI S
Ġpied ojn
ĠProj ect
Ġparam etroj
G o
l ler
Ġs ac
Ġsen i
Ġra ÅŃ
ĠZ h
Ġler ta
dec ulo
ĠStre et
Ġgod z
i x
r lando
Ġk rista
Ġne cer
ca d
ĠÐ Ł
Ġab omen
Ġmalpermes ita
Ġvek is
H L
Ġek lo
95 43
kor no
end ita
194 6
Ġpozi tive
ĠPers one
Ġgrama tika
W ER
Ġmon teto
nF rysk
nH omoj
Ġmen don
Ġsid ebar
Ġfal sa
Ġmalsan on
Ġunuo pa
nh ide
Ġedzi ÄĿis
nÚ© ÙĪØ±Ø¯ÛĮ
b eb
la ron
Ġd ung
ti von
ci vita
ka o
Ġins piri
Ġor eloj
Ã¼ ck
Ġfer mitaj
Ġmom ente
Ġkonk eri
nm ove
nAleman nisch
an ne
Ġmi rinde
\" [
ĠantaÅŃ di
nC ar
Ġniv elojn
Ġmalhel pis
ĠRu ando
Ġkonfir mi
Ġk od
el es
ĠS P
98 24
Ġdi rita
ĠTi po
Ġet na
ĠmanÄĿ aÄµon
256 26
omb ard
nBibliografio Redakti
1 976
3 91
t ten
el u
ĠÄī eno
di ÄĿi
ĠD ay
94 46
ĠMa lio
Ġ6 9
Ġno tis
nPli aj
Ġrimar ki
Ġspiri ton
Ġesperantis taj
Ġkonati ÄĿis
e us
n ne
x y
Ġs alo
re zis
Ġal tru
Ġal kla
20 2011
vi van
Ġlo ÄĿi
194 7
Ġtea tra
Ġemfa zas
Ġprepar as
Ġpardon pe
Ġkronvirus o
ĠJem eno
å ĭ
Ġin cen
tu mojn
ik lo
98 36
ĠW it
et te
Ġrek tan
ĠKor ea
Ġkunlabor ado
nSan kta
Ġpoem ojn
fg ang
ĠScot tish
Ġsenproble me
6 99
F Y
la to
Ġla goj
Ġli gna
999 08
ni v
Ġins tanco
Ġce tera
Ġbri toj
ĠKos tariko
on is
al b
ĠS T
Ġre aleco
ĠP EJ
ĠP OR
ĠI JS
ki am
van ni
Ġesperan tan
nRe gistriÄĿi
ĠBo ard
Ġrek taj
ame tron
Ġris kas
nBon vole
nÐļ ÑĭÑĢÐ³ÑĭÐ·ÑĩÐ°
Î ¼
id ad
Ġri Äīe
tre to
ida toj
Ġflan kon
Ġedu kadon
5 89
N eder
Ġ aj
Ġal flu
ĠF ord
Ġpli vas
Ġdi ametro
nF onto
Ġapo gis
Ġvita minoj
ĠGil bert
Ġ ido
999 30
97 14
nV il
Ġeb lan
Ġme tri
Ġbez onataj
ĠViki vojaÄĿo
Ġinklu dis
Ġhon or
Ġita laj
ĠIsla ma
99 9997
tu i
Ġfon tojn
DD F
Ġinicia toj
ĠÄĿen as
Viki pedio
6 19
ka u
Ġan tropo
98 03
997 53
Ġte on
Ġmem oron
pre mon
Ä¥ aj
9997 94
Ġ18 97
ĠÐ Ĵ
Ġentuzias mo
ĠPaci fiko
ĠinaÅŃ g
Ġmiz ero
E DC
e gis
ko lon
tu ÅĿ
Ġg iganta
Ġpri mi
Ġe rojn
ĠN es
tre jn
998 00
FC A
ĠanstataÅŃ is
Ġtutmon daj
Ġmu ta
Ġfortika Äµo
ĠAtlan tiko
E Q
n ami
Ġf li
ĠA bd
93 67
uz ado
Ġsek toroj
nC en
Ġcen z
]] </
Ġce tero
Ġvizi toj
194 2
Ġsamide anoj
M N
n kom
Ġ 96
uj a
Ġel pro
ĠU gando
nT em
fe jo
nB NF
Ġspe gulo
ĠPro gramo
Ġ6 1
qu i
áĢ º
Ġtab lon
Ġnorma laj
pr ele
Ġinstrua don
c lando
j abi
la tion
tu mi
gi pto
97 23
Ġmon trante
nT ran
Ġma terio
Ġfin as
ĠMa ÅĿ
eli c
Ġ18 95
nRe giono
ĠvoÄī doni
Ġmalrap ida
Ġinfana ÄĿo
? ...
S ek
c ur
d oma
ul ton
ĠB and
Ġek parolis
Ġesti ÄĿas
ĠRe quired
Ġsci oj
ĠRo tterdam
Ġang laj
Ġhej mon
ĠSi cilio
kar ton
ĠStu doj
Ġmalof taj
Ġgraved eco
ĠAten tu
ĠjuÄĿ isto
ĠStanis ÅĤaw
ĠpoÅĿa parata
C Y
F Z
Ġpri trakti
ĠF ort
tin aj
Ġsia tempe
Ġor k
00004 88
Ġfilozo fia
lek si
gy z
3 09
S N
b uti
d Ã®
e an
ĠP ur
Ġsu fero
nS peci
19 06
aÄµ a
00005 25
Ġlern os
Ġprakti kas
Ġverkis tino
Ġscienc fi
Ġrol uloj
yr gyz
n nomo
æ Ŀ
ï ¿
ta ksa
ĠL ub
ven ante
997 24
195 3
Ġtelevid a
nHel po
________ ________
) |
6 82
K W
M ak
ĠEs per
ĠG anao
10 53
aÅŃ a
Ġdis falo
Ġdu bo
ĠZ ono
Ġw ebsite
Ġpe ton
Ġpren ita
Ġlim igitaj
Ġforig u
ĠRez er
V R
Ġm igrado
Ġ2 97
zi l
ĠH id
ki r
Ġplen umo
9706 18
9563 198
9600 227
ĠCale gari
7 28
f ado
u th
Ġpo entojn
Äīe fa
tre joj
Ġku ÅĿi
ard en
dem a
Ġdens a
0047 33
H U
Ġre iru
ĠH ill
14 44
Ġri ngo
03 25626
Ġda toj
pla ÅŃ
ina ro
Ġro las
Ġmili tista
68 970618
CB FE
198 543
Ġsistem ojn
Ġprinci pon
nGeo r
422 9689
ĠColle ge
99256 97
202011 00
4229689 243
u di
Ġde fici
Ġes tingi
Ġfor esto
Ġpar ado
997 85
par ado
ĠMi Ä¥a
Ġaldon ante
nAn d
ĠX X
9944 725
Ġchi uj
Ġlerno libroj
Ġtrapas is
ĠKru co
Ã² l
99303 97
Ġatmos fero
avan ese
ĠMolda vio
p f
t ti
Ġ 74
en das
ĠS ES
ĠS ign
Ġpa pi
so ft
Ġeks kurso
Ġ18 98
Ġas tero
esperan te
ĠAki ri
J Q
id es
th oven
kor do
Ġw ie
** **
ĠEar th
I li
n per
Ġb in
bo ard
9999 85
Ġfar ma
Ġeven tualaj
Ġve ter
Ġkontin enta
Ġhal tigi
Ġaprob ita
ĠInf anoj
Ġmalfeli Äīa
Ġdok tri
Ð°ÑĤÐ°ÑĢ ÑĩÐ°
D FF
O f
Ġn ulo
Ġn esto
ĠR ab
bo wski
ĠO EM
ĠRe c
nF in
Ġneni uj
nAl ma
ĠSen ato
Ġterito riojn
Ġleg omoj
kar toj
ĠVil la
9965 0455
nOr gani
Ġekkon i
Ġfad eno
ĠSemin ario
Ġp si
to v
ur ba
ĠS telo
Ġhav ante
Ġpar enco
ĠRo tari
Ġ7 9
pas por
Ġadminis traj
Ġdivid itaj
Ġmalj unaj
abe th
ĠElek tu
Ġpa troj
43 16
volu o
ĠMa terialo
Ġvizi tos
ĠOn line
ĠRez ulte
Ġtrajn oj
ĠTita ns
tatar Ã§a
f amilio
k laj
m ale
Ġde mon
Ġ( -
Ġmor tos
FC F
ĠRo ber
Ġgvid ilo
Ġkontro lis
Ġval oraj
Ġinsta lado
grafi oj
nÐ¢ Ð°ÑĤÐ°ÑĢÑĩÐ°
Ġinte gra
Ġneka pa
S ch
a ux
ÅĿ tu
ĠR esearch
ch ou
Ġkomen con
Ġamas e
Ġdisku tis
Ġu to
Ġmaldeks tro
nLas u
Ġvivan tan
bez one
Ġintri go
Ġtrej ni
T W
i Äī
97 65
96 44
ĠEsperan tio
nP eter
nA ki
997 68
ĠÅĿan ÄĿita
ĠVi c
EE E
Ġrekom pen
Ġeksterordin ara
a fa
y Ã²l
ÄĿ tagoj
ĠN az
ĠN enio
nL igiloj
Ġr Ã©
Ġmor alo
Ġpubli kon
Ġevolu igis
Ġkonsi las
Ġfiz ike
nAd reso
n ni
ĠM ati
ad an
Ġpa peran
nN KC
fa con
nI m
ĠMa o
EC D
mar ko
Ġposed aÄµo
ĠPh il
Ġes peris
lo d
Ġal to
999 52
ĠT aÄĿ
ris ma
Ġpreci zeco
ligi lo
Ġsa ko
Esperan ta
dimen sia
Ġmalo port
Ġimpon a
ĠKopenha go
@ .
Ġk emiaj
Ġre foje
co in
il lo
man ieroj
Ġka talo
9996 9995
Ġ19 02
Ġfin aÄµo
Ġorigin alajn
PM EG
Ġspor toj
ĠTor re
Ġkui rila
t tle
Ġh ebre
ĠLa tino
10 55
Ġpe tu
Ġsukces i
Ġkonkur soj
Ġkongres ejo
ĠBio grafio
Ġinterrom pis
Ġbudh ismo
Ġalu das
paspor taservo
p ak
Ġp ing
to le
Ġn on
Ġne w
ĠB B
997 76
ĠSe c
Ġdivers econ
ĠSch war
spam aÄµo
d ento
Ġs trio
ĠM ike
pa go
nS al
09 14
por tado
Ġ7 1
Ġlabor pos
sa h
Ġnu traÄµo
ES P
Ġliter aturaj
6 49
ra dis
ĠK las
Ġam ikon
Ġpartopren os
195 0
Ġteo logo
D ie
e fe
":" '''
to do
Ġen kor
ci ita
us enaj
ĠN ig
ĠI V
ĠG vatemalo
tri c
ĠW or
Ġfar ata
ins tein
ĠAs sociation
A AD
ĠK ovÃ¡
Ġek ri
Ġsek aj
klu lino
'' ,
Ġkar ton
sa ge
ĠCi vita
ĠDu on
ĠAra bio
Ġdos ierojn
ĠSom era
ĠOkaz as
5 91
an mar
Ġf eÅŃ
Ġh ib
ĠS at
Ġjun ajn
Ġren dimento
nEs tu
Ġkap vortoj
Ġmontri ta
Ġens krib
ĠKas telo
Soci eto
ĠBangla deÅĿo
ĠC reo
nA jna
Ġaper intaj
Ġinteres i
nMal fer
kun ar
Ġrekom endo
ĠÅĿlosi lo
D FA
Ġ up
Ġs tro
Ġf ata
ed ge
Ġ1 40
Ġvi ron
ak so
ĠG and
19 28
men io
Ġsek voj
sta dt
ali gita
90 803
Ġsignif an
Ġelsen doj
Ġnig ran
Ġprezid anton
ĠFund amen
9914 1824
Ġfilme ton
Ġastron omo
Ġp uno
Ġpre dik
foj a
Ġrila tajn
Ġperio don
Ġfilozo foj
Ġofici roj
ret poÅĿte
kapa blon
ĠNik aragvo
7 88
A BF
999 39
nN una
ĠAl terna
Ġfi an
ĠMon tenegro
Ġsuper re
Ġfabri koj
C P
L J
ĠM az
ita Äµo
ĠD c
0000 567
15 146
Ġins ektoj
Ġeble cojn
Ġregis tara
kur s
Ġpublik igas
Ġstra tegia
ip zig
Ġbab ili
nRetpoÅĿ tadreso
I W
P EN
ti pa
pe ros
Ġmi ris
ĠC lo
19 15
gra matiko
Ġkar bo
Ġcen tojn
Ġekster landanoj
Ġmalfer mitaj
Ġkontin ua
forma cio
ĠPara gvajo
Ġamaskomuniki laro
99267 08
ĠKambo ÄĿo
7 92
98 38
ĠC lar
997 94
Ġ18 94
Ġelek tos
Ġkomenc antojn
publi cations
Ġdokum enton
ĠMin naja
Ġmald un
Ġprofe to
ĠEmi lio
ĠHawai ian
nDec embro
1 978
D N
F ederacio
ti gaj
li zo
Äī emi
Ġkom is
pa ÄĿoj
ni us
19 22
53 023
Ġsek von
na tura
ĠAl berto
Ġju ÄĿo
Ġregis tris
Ġkatoli koj
Ġlingvis tiko
Ġvos to
Ò ¡
ri es
as so
ĠT r
ĠÄīi ela
ĠG ru
Ġvid ita
ĠkontraÅŃ s
fon on
Ġpan on
ĠdanÄĿer aj
ï¿ ½
Ġpri ju
Ġar bus
Ġkons ilo
ĠW y
ang ulo
196 8
Ġkondu ton
ĠKaz akh
819 01
ĠJor ge
G vineo
b estro
g rua
z amenhof
ta cion
ov ern
tra ta
Ä¥ ejo
Ġkos tojn
ĠKons ider
Ġregu laro
nà¤ ®à¤°
ĠHon ora
Ġkultur ajn
Ġvio lon
isy en
RAZ ILA
U Q
r ÃŃ
Ġk ristnas
Ġa ÄĿaj
ĠE de
Ġkun igas
97 33
nE Äī
Ġling vos
54 089
00005 13
ED F
CA F
500 80
Ġbalo toj
ĠHon kongo
Ġfren eza
ĠGor don
7 81
in ajn
ĠI JF
ĠF ara
96 36
18 271
Ġmulte kostaj
Ġfil trilo
ĠX ia
Ġminim um
Ġfan ati
Ġprezento s
ĠSco tt
Ġsab ato
9520 944
bud hano
Ġay isyen
ĠCreo le
A AC
ti el
Äī eno
Ġmul ta
ĠW ells
Ġinf lua
Ġ16 0
ud io
Ġmallong igoj
Ġkandida tojn
Ġfro ma
Ġisra ela
I Q
O ni
e Äī
am uloj
Ġal mena
le a
Ġ1 830
999 18
FC D
Ġkri m
ĠÅ ¬
Ġesper eble
ĠMy anmar
Ġbak terioj
Ġflugi loj
Ġnemov adaj
Ġbito koj
ÙĨÚ Į
Ġs ovaÄĿa
te jon
Ġh araro
Ġo ch
Ġne ÄĿ
ĠÅĿ u
27 00
33 2824
ĠAntaÅŃ e
Ġagra ble
ĠOli ver
Ġfara ono
Ġkonside roj
22 0005
97 36
13 56
Ġsen fina
997 96
Ġspe cojn
Ġkomun istoj
Ġkri tikis
Ġaten tigas
ER N
Ġkomer cajn
Ġsper taj
Ġkru d
390 170
0003 41
0030 80
3003 19
220005 50080
A CC
S emajno
æ Ī
Ġ 94
Ġt run
Ġli gojn
Ġh ind
Ġmal sta
Ġkun pre
ĠI de
nB u
Ġfari tajn
Ġw o
Ġ9 00
Ġmuzik aj
Ġlerne j
Ġlar ÄĿo
ĠLin k
Ġsever e
Ġkonati ÄĿi
Ġfing ro
ÙĨÚĮ ÙĬ
P N
el y
Ġf era
ĠA ro
Ġne ak
Ġri zo
77 0
mar aj
nW il
LI O
Ġpopula reco
Ġfemin ismo
ĠKura cistoj
c ens
f eld
Ġa risto
ĠE va
Äµ aro
25 8212
Ġpos edo
Ġsur metis
ani ma
ĠLi m
Ð° Ð´
ĠMar gar
ĠPo ten
FF CCB
Ġsid iÄĿis
Ġlonge co
Ġregistri te
Ġfid as
076 461
Ġtea traÄµo
Ġabon antoj
9520 943
;\"> [[
2107 08
15146 87
ri er
Ġa p
ĠT ol
Ġpri laborado
ĠB ele
97 17
Ġsen pere
Ġelek tran
Ġnu tras
00004 85
Ġfru ktojn
ĠtaÅŃ ge
nPa trino
ĠdaÅŃri pova
nPoli tika
Ġkamar ado
ĠFris ian
ĠKOL EKTO
g ers
es p
Ġf Ã¶r
ci uloj
ĠC ra
Ġvid ante
ĠKi un
ser vu
Ġamas on
Ġkontro las
Ġpioni ro
ĠLabo rista
Ġole on
3 18
don as
ĠAn n
ĠAr ch
nJ os
Ġmalsam e
Ġgre koj
Ġnukle aj
3 99
f ami
Ġ 89
Ġla ce
Ġkon j
mi le
Ġfunkci adon
Ġbonven aj
Ġrimark inda
ĠKie vo
Ġfrekven co
1 975
S J
se e
EA E
kom o
Ġparo lante
ĠPro f
Ġkomputi lon
ĠCor si
Ġinv esto
ĠGali cian
3 98
Ġkaj ero
om in
do lo
ĠK yrgyz
ĠS agitario
ĠÄīi el
Ġven dejo
ej ro
Ġmalf av
pra kti
Ġanon co
ĠAleksand er
Ġdirek tis
ĠSoci al
Ġsekure ca
nUnivers ala
ĠSah aro
w id
te amo
for mojn
996 87
Ġma is
pre ci
Ġlu dado
Ġekonom iajn
Ġkli mata
Ġtito lita
Ġrea gis
Ġtaks is
Ġprodukti taj
ĠKe urig
Po litiko
Ġmallong igo
Ġkontras te
hari c
V G
d inte
Ġs va
ĠÄī emi
Ġh odia
Ġne esperan
Ġuz oj
por tis
Ġtri ono
Ġmar ÅĿ
ĠLe ÄĿo
Ġplu v
EE F
Ġrespon dojn
Ġmo tivoj
pres so
nSer Äīo
ĠPas hto
ĠGa elic
nAdminis trado
ĠFlor enco
ĠKh mer
n po
¼ \
ĠA pli
Ġri tmo
ĠAn tikva
FC E
Ġproduk tad
Ġfunkci os
196 7
Ġer are
Ġkru ela
ĠQ ue
Ġaser toj
ĠPun jabi
Ġk ran
ca ro
ĠT ig
Ġdi zajn
0000 163
Ġmon dan
ĠAl fonso
Ġvoj ojn
193 7
Ġkonven e
ĠBas que
jam in
T EK
g acio
Ð ŀ
97 34
Ġdu ona
fe to
ĠPro ksi
ĠRus lando
ign on
Ġgla vo
Ġkonfir mas
Ġstoma ko
ĠJ avanese
ol voj
Ġsen ÅĿan
19 12
ĠKa pa
maj o
ĠJa ck
aÄĿ aj
Ġiam aj
Ġevidenti ÄĿis
5 90
A O
ÄĿ ino
ĠB eli
19 21
Ġsci igis
pre cipe
ns t
Ġkapa blaj
ĠPla co
ĠKul tur
Ġmalfacila Äµojn
ĠÅĿtu paro
Ins tituto
Ġvet uras
ĠðŁ ĺ
reda ktoro
T G
Ö Ĥ
Ġf um
ĠL ig
Ġin ci
98 64
ĠR ik
nL ad
at es
ula r
Ġrice vu
Ġakcep titaj
Ġgas tig
ĠnaskiÄĿ tagoj
Ġvok aloj
A h
Î ¯
Ġs aÅŃ
20 75
ĠS ul
ĠP interest
lis ton
Ġpens u
Ġskrib ado
Ġreprezen ti
ĠEkz emploj
Ġampleks as
Z amenhof
l Ã©
ĠG h
19 27
pi oj
ĠAr ticle
nAl voko
196 1
Ġima go
ĠBal Ã¡
Ġride tis
Ġmatri co
V X
97 87
Ġinkluzi vi
gru o
Ġgla cio
Ġripe tis
ĠKam er
dec embro
Ġ(... )
bir doj
ĠYor uba
U W
en tajn
Ġs he
20 86
Ġmon tros
vid a
ini aj
Ġnor maj
ĠJo e
Ã± a
ĠLan da
Ġpromes as
ĠÄ¥ a
Ġdro goj
.... ....
ĠHum phrey
ĠtaÄī mento
Ġk emio
99 02
Ġin dekso
me tika
95 04
ĠAm haric
Ġten daro
Ġblan kan
Ġfaj ron
Ġakademi ano
Bur mese
b ff
le gio
ik ia
nE m
Ġkomun ista
sk ale
ĠMo hamedo
ĠaÅŃskul tu
Ġdefen dis
ĠHai tian
H R
H ungario
m itan
Ġb ud
Ġkon ced
Ġkons umi
997 86
ĠâĢľ -
ante co
Ġfi linon
ĠMa uri
ĠPe tr
ĠVo la
Ġdama ÄĿon
ĠVene cio
S KA
n mal
Ġ1 892
ks ojn
ber ia
Ġ18 80
Ġkontribu ojn
196 6
ĠCon tin
Ġpu Äīo
Ġrela tiva
ĠDen ove
Ġprofesi uloj
ĠCorsi can
S in
b ca
ÄĿ anoj
Ġ1 08
0000 538
th ing
Ġka ÅĿis
Ġeks kursoj
Ġkre don
Ġaten tigis
nVi zi
Ġposed antoj
Ġnas k
Ġov oj
E x
ko doj
ĠF ac
96 24
tr eo
ne joj
998 22
and id
ĠVi ro
Ġat t
Ġlerne ja
Ġmalkov ras
labo rita
rigar di
Ġeko logia
Ġbel ga
Ġmonum entoj
ĠGram Trans
5 99
i vo
n ano
s tru
Ã ¯
999 40
pa ÅĿis
nK as
dis pon
ba zita
Ġso ft
ĠAn golo
00005 21
Ġthe ir
CD B
Ġdifer encaj
Ġata kas
ĠÄīes as
grafi on
Ġ187 1
nEd mundo
komer co
p siko
Ï Ģ
as tro
Ġfor pu
Ġta ri
Ġta pi
Ġakcep tebla
Ġteo ria
Ġdor mis
Ġdoni taj
Ġdiskon igi
Ġos ta
Ġsav is
ĠPriva t
nTele fono
ĠJako bo
D EB
Ġ 82
en tejo
Ġku irejo
ide oj
raj ta
Ġpermes os
pos te
ĠSte ele
Ġreali gis
Ġkompon antoj
Ġinstitu to
Ġdra mo
Ġekzer coj
Ġdeli kata
Ã¡sz lÃ³
e uro
ĠA S
ĠA ta
ĠC aro
83 45
pi zo
ĠMi an
Ð¸ Ñĩ
Ġkal kulo
ĠPi ron
ĠJac ques
C EB
Ġkom forto
97 77
996 0
Ġprez entoj
Ġspe con
Ġju risto
ĠJa co
nMal pli
Ġbi le
teks tojn
à¥ ĭ
áĢ Ķ
Ġapo go
Ġmodern an
Ġaltkva litaj
ĠBjalisto ko
p ik
Ġla t
Ġa mata
ĠS ez
98 35
gi e
ĠD ro
tra dukoj
ĠO m
nR use
73 0
nH i
ĠInter lingvis
ĠBri tujo
nInter lingua
ĠMos kva
Ġkonsci enco
Ġerar as
1 973
b ba
s tilo
Ġr ul
Ġkomun isma
Ġju daj
ĠSan tiago
Ġbo ato
Ġens kribo
Ġlog ike
Ġeltro vis
Ġalire bla
ĠAnt verpeno
D BB
k ins
do fi
ka da
ÅĿ ev
nB RAZILA
Ġsubten antoj
196 5
poli tika
Ġdra to
nUr bo
ĠBlan k
Ġsor ton
Ġforma la
Ġrobo toj
Ġseni luzi
ð Ĳ
on do
to la
ĠK ON
98 78
96 23
Ġbu ÅĿon
Ġsimbo las
ÄĿan tan
kompren eble
Ġplez uron
da la
ĠS ad
Ġek lernis
96 60
ĠH all
997 56
Ġapar aton
teri aloj
tran ta
Ġregis ta
Ġaten tas
bur gio
Ġide aloj
Ġmemo ris
æ ĺ
le tero
ĠR an
ĠV itamino
ĠO ran
Ġokaz u
Ġser Äīo
Ġevolu as
Ġfal saj
UL T
Ġradi oj
Ġlingvis toj
ĠPed ro
D CC
Z L
v y
Ġokaz igas
Ġkor ekta
ini oj
bb c
Ġkonfli kton
ĠVin ilkosmo
Ġpaci ento
Ġkomfor ta
ĠKomer ca
b ce
k ia
ĠP le
ĠN ami
tan taro
Ġr ele
Ġmals ani
Ġw ho
ĠloÄĿ ado
Ġzorg is
ĠÄĿen ro
ĠBea u
ĠSudan ese
Ġde kor
is ko
ĠN ome
ki ewicz
Ġda tiÄĿas
nI S
EC E
kva lita
Ġhim no
ĠTech nology
h as
Ġm ari
ajn is
Ġtra vid
Ġak roni
rig ante
ĠRe gi
Ġtrans dono
Ġkres k
Ġid io
Ġprofi tis
ĠMo on
Ġprofun do
cri p
Ġvarm arko
nLoÄĿ denso
nÄĪef paÄĿo
Ġares tita
É Ľ
ĠG DR
Ġhav anta
kom ple
Ġmani erojn
oron to
Ġori enti
ĠNa ture
Ġfinan ci
ÅŃten anto
z berg
ÄĿ ema
ur l
999 09
97 67
95 31
âĢĿ ).
ĠMar ÃŃa
ĠÐ »
Ã¼ k
Ġklas ikaj
kciden te
Ġekle zia
Ġplum bo
ĠRenkon tiÄĿo
j unio
Ġki lo
Ġ1 01
um ento
Ġel uzi
nE tiked
nov embro
ĠJo Ã£o
194 9
Ġ% \
ĠCar lo
Äľ is
Ġfam an
kap ti
Ġned is
C L
ek vili
Ġ1 891
Ġre ÄĿon
ĠV ini
pa ÅŃ
Ġpo ÅĿto
ĠO ld
pi ko
ĠÄľ em
ĠFo to
Ġrad iado
Ġtru o
Ġargum entas
Ġple jofte
ĠSved a
Ġkoin cid
s tein
Ġ 81
Ġs lovaka
Ġt rono
nP etro
Ġsig non
Ġpas igi
Ġad ekva
ĠBo b
Ġprofes ian
Ġgas to
ĠaÅŃskul tantoj
nes tas
Ġbiblio tekoj
Ġmalsukces is
Ġsinsek vaj
Ġkolon io
ĠJord anio
A ra
C EF
Ġf loro
ĠLa h
85 16
Ġfor tigi
gra mon
Ġmor tin
Ðµ Ð´
ĠSi lezio
Ġgrande gaj
ĠTag on
Sid loko
p taj
Ġ ulo
ĠU SB
Ġfor tajn
Ġsek soj
ĠMon te
Ġ18 99
Ġsubten ataj
Ġce lante
Ġgrand urbo
ĠÄ´ urna
sci enco
ĠFu kuÅĿi
3 29
G eor
K Q
n por
Ġ 87
ek i
999 81
ĠH ong
19 11
Ġam ba
áĢ ĺ
ĠFin an
Ġturn as
Ġaver tis
Ġfeder acio
Ġlog ikan
Ġavan gar
pi aj
997 84
Ġrapor tojn
Ġpan eloj
Ġtekn ikoj
ĠDie go
Ġtransla ted
J or
M od
c ture
ĠG RAS
ren t
CD F
Ġeven tuala
Ġrimed on
Ġtempera turoj
nJa wa
ri k
te ur
Ġki ajn
Ġti n
Ġvi vojn
Ġhav igas
ĠÄīar ma
ĠMa dagaskaro
Ġru li
ĠBras ilia
W e
Z D
ter ion
po ir
Ġe uro
EE D
Ġkura ÄĿon
196 9
Ġreprezen tis
ĠTri bun
Ġkomb ino
ĠmalriÄī uloj
Ġmeb loj
b cc
y um
Ġde venis
Ġpe con
ĠVer lag
Ġcxi u
Ġfav oras
Ġprotes toj
Ġref l
Ġskulp tisto
ĠSove tio
Ġvendre do
Ġmedikamen toj
ĠBee thoven
6 92
ci ÄĿo
lo ka
Ġb ati
um ena
ĠF ischer
Ġpar ametro
si e
Ġven tro
Ġme tio
Ġelem enton
Ġdel la
Ġsuges tis
ĠIndi ÄĿenaj
Ġinterre taj
Ġd am
Ġan eks
ven dejo
no t
ari el
ho o
Ġraj tigita
nAl to
ju lio
Ġfid on
Ġsuges toj
nDis trikto
nÄĪef urbo
Ġdatum bazo
7 90
G rin
P al
R ulse
a ab
b j
lo kon
Ġt r
ĠE gipto
Ġek sen
97 63
19 04
Ġ3 16
Ġsek vu
Ġespri mita
cx u
ĠEsperantis tojn
Ð°ÑĪ Ò¡
ĠGener acio
Ġfok uso
ĠRober ts
Ð°ÑĪÒ¡ Ð¾ÑĢ
B abel
Ġs um
Ġre el
Ġpa gita
nD em
Ġfin aj
Ġaktive coj
Ġpez an
Ġdese gno
ĠcomentÃ¡ rio
ĠGRAS SO
D oj
w ska
es tan
Äī ov
Ġj uraj
ĠÅĿ tor
84 83
vers a
Ġsen es
Ġfra pis
Ġdan co
Ġofi c
ĠX a
Ġedu kaj
ĠGran daj
sek so
Ġjapan oj
Ġvali da
Ġdol Äīa
Ġgar di
ĠMÃ¼ n
Ġpropri eto
Ġmalmo la
Ġâĸ º
p ment
Ġp eno
om j
ĠM EP
Ġan y
nP aÄĿ
ĠAr no
mul te
Ġata kon
Ġstrategi oj
Ġstabile co
d eo
n daÅŃ
p ha
ĠB aj
ĠR eloj
Ġper don
95 09
Ġun e
Ġdis sol
997 93
ver kisto
nÐ §
eme laj
Ġinven tis
3 19
re bla
ĠA lan
Ġri be
for ges
nM as
997 46
igi tajn
Ġam iki
nG vid
Ġnaci ajn
Ġdifin is
TA J
Ġfid indaj
bs p
ĠS ia
ran tan
ad or
97 12
nN as
Ð° Ð²
ĠkaÅŃ zon
oma ali
nBon venon
Ġforpas o
ĠalÅĿuti taj
Ġpasint jare
97 73
nT u
mon t
Ġsam on
Ġaldon oj
ĠCh er
Ġnek ona
Ġab unde
Ġdiplom ato
Ġkuns idoj
Ġinstruis tino
gov io
ĠPara ÃŃ
ĠpoÅĿtele fono
Ġastronom io
B BC
ĠÄī o
da f
Ġkon atan
Ġpri paro
ĠEs tus
93 806
ks e
ĠO ks
Ġsin cer
ĠloÄĿ antaron
nRe tejo
nÐĳ Ð°ÑĪÒ¡Ð¾ÑĢ
Ġkari eron
Ġamik ino
ÑĤÑģ Ð°
6 40
F I
L as
T N
a ec
p he
å ¹
Ġk ino
is k
Ġal gori
ĠA NT
co l
ĠRe ich
Ġmov iÄĿo
Ġfil meto
Ġkomer cado
nRespon deculo
ĠDa tum
H ar
a ef
b iloj
ti ano
Ġde bu
ĠS pring
de con
Ġar men
nM esaÄĿo
ĠAr thur
nI SO
BA F
Ġna zi
nLi ber
Ġsa ÄĿo
Ġmalpermes as
ant woord
Ġkoncen trejo
Ġkopi i
Ġvenon tan
mana ko
ĠEkonom io
Ġromi anoj
9364 269
nÐĳÐ°ÑĪÒ¡Ð¾ÑĢ ÑĤÑģÐ°
7 82
er ia
per nity
Ġe la
Ġsu ko
0000 565
Ġkons cia
ĠSi berio
Ġfre ÅĿaj
ug ht
ĠEr tl
Ġtom boj
Ġsubstan tivoj
Ġmusko loj
7 29
B CC
C S
Z J
s ano
ĳ Ð²
ro v
Ġpor doj
ĠÄĿ eni
ĠB in
nM e
nM edio
ve turo
rig ine
Ã© ra
eg el
bc b
nom bro
Ġvoja ÄĿas
ĠHom ero
Ġimper ia
ĠRegis taro
C FE
Ġde post
Ġs ali
ĠS kol
Ġb lazono
ĠF ori
he la
Ġali lingvaj
ab er
van taj
Ġna zioj
Ġba tis
Ġhej maj
Ġreprezen tado
Ġproce do
Ġparola don
Ġpuri gado
Ġefike con
Ġmuz eoj
H E
Z W
ĠR al
ĠR ib
vi za
ga te
ea ce
Ġaper igi
ĠÐ ¢
DD B
ĠJu lian
ĠÅĿul do
ĠKata ro
Ġbro ÅĿ
Ġripo z
ĠpaÅŃ zo
ĠÄĪam bro
6 41
Y L
f fa
ĠL umo
Ġkun divid
nL ombard
ĠC u
ĠG ej
Ġun a
Ġpre ÄĿo
be roj
Ġ18 15
ĠDo br
Ġdezi rus
Ġdom ojn
ĠDu e
Ġapo gon
Ġmer kre
Ġdepon ejo
ĠLer nejo
Ġvej noj
v esti
Ù Ģ
Ġ1 850
Ġo pon
ĠD ez
ĠU AE
nR aj
Ġas ign
Ġfoj oj
Ġpris kribon
Ġrom po
ĠVol ta
Ġvun doj
Ġtan koj
Ġanarki ismo
Ġjuris dik
D BE
Z P
to pic
Ġes eoj
le x
Ġ3 000
Ġposte ulo
Ġsukces oj
ĠJun ula
Ġnorve ga
K uriero
0000 354
0000 331
ĠloÄĿ ejoj
ĠAm er
Ġmalbon on
Ġvan aj
ĠRim edoj
- âĢĿ
S ur
a ed
a ea
e ed
n bsp
kon takto
ĠG run
tl edge
19 10
Ġle geblas
nV itamino
pu o
Ġpas io
Ġapli kaÄµo
prezen tita
Ġbele con
Ġduo ble
Ġdras te
Ġanek do
p ad
Å ¯
te kta
Ġg ek
Ġ- >
Ġpo lan
nS ame
998 98
bor do
FD E
Ġdan ki
ska toloj
Ġban k
Ġtab loj
ev na
Ġmodi foj
tiv uloj
ĠUl rich
Ġfek un
ĠSÃ¡n dor
99234 045
U I
ĠK il
ling von
ĠKa zi
ĠRus sia
pera turo
ĠRes publi
Ġeta ÄĿo
âĹ Ħ
nKur dÃ®
96 05
0000 558
nK ulturo
19 13
Ġmin us
it ge
Ġaldon a
Ġekster lando
ĠIs land
ĠmanÄĿ ado
Ġprogres on
Ġspa coj
proj ektoj
Ġadjekti vo
Ġkamar adoj
trodu ction
ri os
Ġs lovak
re e
da Äµojn
ĠA aron
ĠC in
ĠC elo
Ġar ton
19 26
18 96
Ġtran ok
Ġem is
Ġperf ektan
Ġprograme ro
Ġharm onio
dev iga
ro y
Ġal tiri
Ġ1 860
ge ro
Ġ3 50
Ġkomun ajn
Ġfra p
tras te
Ġating ita
ĠCom ments
ĠÄīa p
Ġgrama tikaj
Ġorgan ismo
Ġsup ran
ambi ko
Ġb ala
se arch
fe a
Ġven kon
Ġso lan
Ġtiam aj
sub a
ĠKos mo
Ġdisting on
ĠHun gar
Ġmaleb ligi
festi valo
Ġs alon
pro pon
Ġv j
ĠP in
tri taj
nH en
Ġekzis tado
Ġpriva teco
Ġkompon aÄµoj
ĠGu ide
fre do
ĠHer cegovino
Ġdelegi toj
ĠEde gem
t est
la an
li gado
ĠE SF
ĠS abi
Ġuz atan
Ġsan an
Ġsan ktaj
Ġbu ÄĿe
ĠAu gus
Ä¥i vo
ĠElek tra
ãģ¦ ãģĦ
Ġdispu to
ĠmallaÅŃ te
M or
Ġen kadre
ĠK uriero
Ġsu preni
ne ta
ĠMi kaelo
nB azaj
Ġ17 89
ĠIs lands
Ġrom pitaj
Ġvir seks
ĠindiÄĿ ena
Ġpsiko logia
Ġliteratur on
ĠAntar kto
ĠkontraÅŃbata li
ĠParaÃŃ so
E BC
g noj
ta doj
pro pri
Ġa ÄĿon
ÄĿ ardeno
Ġ1 35
97 53
nB ul
ĠKon vencio
ãģ Ĥ
Ġapar tigi
Ð¸ Ðµ
Ġajn aj
Ġz u
Ġia foje
Ġdiplom atio
ĠVol ume
Ġarab oj
Ġsuver eneco
Mari e
c lu
ri Äī
Ġg ubernio
Ġmal konsen
di ono
nL inio
Ġmon arko
ĠTi me
Ġmod esta
Ġrulse ÄĿaj
ĠMan ÄĿ
Ġpozi tivaj
kin toj
Ġhor mon
Univers itato
d E
s igno
id ado
ĠE ST
ĠL KK
ĠG R
Ġdis pono
18 94
ĠÄĿis nun
ej no
ard ante
Ġplu aj
Ġkompren os
Ġw ork
mor tigo
ĠGeor g
Ġanta u
Ġnok ta
ĠHon duro
R en
ta mo
pro duktoj
Ġv az
de ro
96 11
10 16
ĠIn fan
ĠMar t
EC B
Ġcen tron
Ġlis tigas
Ġkonkur son
áĢ ¼
form ularo
Ġtrapas i
S ci
Z R
Ġta kti
Ġsub jekti
38 85
Ġobser vas
ĠHar ry
Ġokul vi
Ġgras a
Ġil ustrita
ĠBarcel ona
99 09
da ton
ĠÄĪ a
ĠFre ud
val ora
ĠEven toj
Ġkuir arto
Â º
ti vismo
li ke
Ġh u
Ġne a
98 88
de esperantob
97 55
ĠC ri
Ġsen a
nÐ Ĳ
FF B
Ġvila ÄĿon
ficiala j
Ġakto roj
Ġmalakcep tis
ĠHai tio
ĠGusta v
Ġhunga roj
ĠLingvis tiko
deesperantob rasil
C ar
n novaÄµoj
ï ¬
Ġti mu
ĠM useum
man ÄĿ
00005 03
nÄĪ io
ãģ ł
nH ej
Ġsufi Äīan
paro lanto
ĠkaÅŃ z
novaj hoj
Ġpozi tivan
Ġsil entis
Ġgajn as
Ġpatri non
Ġorgan ismoj
Ġdeli ka
f lando
Ġk uri
ci al
ce f
pp ort
Ġesti gis
ĠMal varma
193 8
ĠMul te
Ġanti cipe
Ġperfor te
ĠDur wa
club deesperantobrasil
M V
a eb
u koj
ĠS porto
Ġb ordoj
Ġel centoj
ton aj
96 74
19 16
Ġdis koj
47 54
bu la
nB i
Ġsta cioj
995 45
Ġpartopren antojn
Ġvers oj
vor tojn
ind ro
Ġvig lecon
Ġalum inia
ĠKomer co
d elegi
k l
Ġ ë
ĠN RO
ad f
ĠEÅŃro pon
Ġdif inoj
Ġkolon ia
ĠVid eo
i ron
n vi
n acio
Ġen havi
Ġmal gra
Ġkun vo
zi one
ĠAl menaÅŃ
Ġmo tivo
Ġsubs kribo
ÃŁ e
b fa
h ak
Ġ ovo
Ġp anta
ĠG Ã¶
gori o
Ġler te
Ġkva za
chi chte
Ġdekla rita
Ġreali gita
âĪ Ĵ
ĠVla Äījo
ĠLatin ameriko
hej mo
Ġmonar kio
Ġoksig eno
Ġeleg anta
b rio
i uj
Ð ĺ
Ġsu daj
ĠG uj
kci on
kla don
ĠAli an
Ġrakon tos
cis ta
Ġdecid os
Ġkonser vita
ĠTo ledo
bin eto
Ġbas eno
ĠWes tern
vani zita
M e
Ġd ento
ar kio
eo t
17 75
nB edaÅŃrinde
nB ariatriaj
ens aluti
fri ed
Ġno bla
Ġcen ter
bd d
Ġflan ken
Ġkonkur s
Ġfeli Äīaj
Ġkarakteri zas
sch aft
ĠantaÅŃvid as
O A
ul tato
Ġki alon
war e
Ġh ak
for toj
org ano
tr arto
Ġins tin
Ġkri ti
Ġkar toj
Ġdon ante
pita no
Ġson is
ĠIta lujo
Ġsekvan te
Ġrecen zoj
Ġstul ta
ĠFla sh
äº º
) )
C N
F H
K X
M W
Ġp ad
ĠÄĿ er
ĠD Ã©
nP lu
19 07
nF ari
Ġkomun uma
ĠÅĿta tan
Ġkri tikoj
Ġas is
ĠÐ ³
Ġklu banoj
Ġmalfeli Äīo
Ġske p
B H
B R
F T
S tu
n ÃŃ
Ġp lon
Ġs tom
Ġkon ektita
Ġel fos
vi zo
Ġar ka
Ġar milo
oni ko
Ġtu ÅĿ
Ġag ord
Ġkol onoj
ĠAs tronom
ĠMul t
ji ang
Ġdikta turo
li ch
ĠP L
nE UR
sen to
ver baro
ĠMar so
dan ÄĿ
Ġkol er
ĠTo us
Ġlingva ro
tag libro
nan taÅŃ
Ġpatri noj
Ġmembre co
E CC
p meg
s em
Ġal mo
Ġo ther
Ġkun igi
ĠH igh
Ġsen d
nB ir
ĠIli aj
Ġflu go
Ġinten se
Ġdifer encojn
Ġgaz eton
Ġinvi ti
Ġsekvan toj
nRu ÄĿa
ĠtaÄī mentoj
áŁ Ĵ
) -
P li
S X
b ras
Ġ zi
ÄĿ antaro
ĠP ere
ĠT ade
de ca
tan ton
ple te
00005 84
Ñģ Ð¿
ins truado
bd b
Ġinten con
bri ÄĿi
Ġvari a
ĠTem pli
Z V
Ġ _
ri te
Ġre vig
Ġg is
0000 566
Ġres p
nAl done
ĠSo urce
Ġhispan oj
Ġkad u
Ġinsta laÄµoj
nDan ke
Ġkonten tigi
Ð°ÑĪ Ð»Ð°
yum va
M AN
S ekva
b df
n áĢĻ
Ó ĳÐ²
ÄĿ isto
ĠM ore
me tro
83 05
man to
ĠMi ch
Ġven kita
Ġko her
Ġ16 00
Ġas pekti
Ġpartopren anto
mar to
Ġpi ano
Ġpun ktojn
ĠÄĿoj on
Ġnok toj
áĢ¬ \
Ġkuracis ton
ÓĳÐ² Ð°ÑĪÐ»Ð°
L ando
h x
Ì Ĥ
ĠE RGO
ce las
ris o
nLi broj
Ġgeo grafio
nà ²
811 4353
Ġkredi t
àª ¾
eksik ono
99968 255
nÐ§ ÓĳÐ²Ð°ÑĪÐ»Ð°
Ġ 91
ĠS us
Ġo doro
ĠEs plor
0000 268
ĠH us
sta ra
nV e
Ġag ro
ie wer
nÐ Ŀ
]] .\
Ġreda kta
ĠDi versaj
Ġaki rita
Ġkonkur enco
Ġbio grafio
ĠNiko laj
D BF
F AC
F und
n ikaj
la di
ar kivo
pe ti
ĠI o
ĠF el
nK N
Ġka poj
ba f
Ġma lab
ĠKon f
Ã¡ k
nC hi
nJ ustecligo
Ġorgani zitaj
ou g
Ġprofi ton
Ġanali zas
ĠmalantaÅŃ a
Ġinform ilon
áŀ ļ
Ġekkon is
C R
a ac
la mo
Ġf arm
97 27
ĠC OVID
Ġeb lajn
Ġjar milo
ĠÐ ł
Ġneces us
tek no
ĠVil no
Ġesperantis taro
ĠKe y
Ġfiz ikan
San kta
ĠHab s
6 90
ta kso
Ġen vol
Ġg ento
97 84
nV ita
Ð°Ñ ħ
tigita n
konstru ita
glo bo
àª °
Ġsimp lajn
D ec
E BD
e ars
p isto
Ġd elo
," ,"
Ġper ditaj
ki ÄĿi
ĠMi cro
Ġak um
Ġplen igis
Ġneces ejo
Ġab unda
ĠNor man
Ġvig le
ĠMals upra
Ġhepa to
M G
R adio
c zy
Ġ ;\
Ġf lua
Ġh az
Ġg eni
ĠD Ä´
nL in
org an
Ġtu taj
ĠIn dia
Ġlan Äīi
90 94
Ġprezen tiÄĿas
Ġregi on
ÄĪ e
ted t
ug eot
grafi e
907 7
áŀ ĺ
Ġmun tis
timo logio
ĠRila toj
ĠBritan nica
Y R
w ork
â ī
ľ àª°
Ġm ure
ĠS um
ĠS tru
ĠLa oso
ĠF I
ne c
Ġsub ita
ĠKon to
92 84
tel ojn
ĠOr der
197 2
ĠPriva ta
àª ¤
àª ľàª°
Ġnega tivaj
ĠGil son
Ġelpens is
Ġsat eli
à« ģ
ĠKonstantino polo
C BB
Y J
p laj
ÄĿ el
Ġes tre
ka Äµojn
ĠM oni
Ġri pozi
Ã¡ nos
9984 6
Ġdezi roj
Ġuti le
Ġinflu ita
ĠserÄī u
mili toj
Ġorto grafio
ci lian
am aso
Ġli tur
ĠE ta
ĠM am
ĠA B
lis man
nV iew
ĠMa ur
Ġsendepen diÄĿo
ĠKol ekto
c ul
s trio
ri isto
99 9993
le v
ĠB ata
ĠD okum
97 04
ĠC el
ks ido
ab c
eri es
Ġmor toj
ĠSe ulo
Ġju dojn
Ġposte uloj
bb d
Ġlis tigitaj
teks ton
Ð³ Ð¾
9956 005
Ġagnos ko
proksi me
Ġtag libro
ĠHu go
Ġdistan con
nFo to
Ġlibre ton
ĠBav ario
% )
g antoj
j una
Äī itaj
Ġg loro
ĠB Ã©
44 59
Ġparo lan
Ġplu ra
Ġ18 93
ĠEk va
Ġlas ante
ĠJa vier
Ġlerne jaj
ĠMul to
Ġoper acioj
meto do
Ġeksperi mento
Ġbab ila
Ġabun das
ĠPromen antoj
ĠSabi yumva
6 89
T ri
e fi
Ġa plaÅŃ
Ġli vero
Ġmal ÅĿa
Ġvor taron
ns ub
Ġfa ce
ĠCh ang
ae e
ĠSek reta
Ġregistri ÄĿi
Ġparti kula
Ġkondam nita
D EF
P E
s titu
ì Ŀ
Ġto ks
qu ez
ĠÐ Ĳ
ĠTre vor
Ġmeta loj
Ġeksperi mentoj
ĠKontro lita
Ġcoo kies
D J
Â ´
Ġp ig
lab oras
ĠP S
dis tan
Ġam er
00004 83
99986 15
su per
ĠLing vaj
Ġviza ÄĿoj
in gi
Ġm igra
Ġes tin
ca e
nL Ã«tzebuergesch
nK liniÄĿu
996 2
Ġlan go
ĠCh am
Ġeten di
ĠdediÄī i
áŀ ģ
Ġskla vo
Ġdenas kaj
elij ke
a ris
ĠN y
ven to
mi tri
ĠKom entoj
Ġve turado
ĠKu vaj
nTra di
Ġqu i
Ġnedu um
áŁ Ĥ
Ġi f
ĠÅĿ v
tan t
for t
et he
ĠKa tedralo
ĠWil son
nFran cis
ĠMod erna
Ġrespek ton
uta gaj
ĠHorosko pa
g hi
Ġd ikeco
Ġs kan
Ġa peran
Ġen fer
ga ze
jo roj
no isy
ve c
igi te
ba a
998 20
Ġfar tas
Ġkomple tigi
WV iewer
er gio
ĠK eb
ĠM ali
ĠM orto
for nia
ĠlaÅŃ bezone
Ġkla raj
Ġakti vismo
Ġrenkonti ÄĿas
nW hatsApp
Ġaso cion
ĠSal vadoro
Ġsac erdo
E BB
M J
Ġs ving
pro dukto
om ente
ĠT oronto
ĠMi r
996 85
ej aj
90 83
Ġsta rigas
nO p
mis sion
Ġaten tigi
ĠCo de
Ġkoncep tojn
Ġblo ko
Ġmens on
ĠPrin ci
ĠGar cÃŃa
ĠJamaj ka
Ġplimul ton
ĠVati kano
Ġkonflik ts
ĠB Ã¡
Ġka ro
ĠRo ger
Ġrus e
ĠAd vo
Ġfori ro
99985 22
Ġagri kultura
Ġbul gara
Ġmunici poj
ĠFeli Äīe
ĠScho ol
ĠBros ch
ĠDurwa el
on der
en tu
ÅĿ kin
tu aro
Ġel pensi
il de
pan ta
Ġpe te
Ġfran Ã§ais
Ġpun kton
ĠMari o
Ġens kribi
Ġner vo
histo ria
Ġmalvarm aj
ĠarÄĿ ento
Ġekspli cite
F L
g ina
è ¡
ĠK vinpetalo
Ġne p
Ġpar ametron
nM uzik
Ġsub Äīie
9999 46
ĠÂ» .\
ER O
Ġkura ÄĿis
195 6
ĠVil nius
ĠYou tube
p ida
Ñ ī
Ġal taro
Ġti mi
ĠP it
Ġvi zio
ĠD VD
Ġstu dojn
Ġinstru oj
bb f
Ġhispan an
nFran cio
Ġparti ci
Ġtrin kis
ĠTa goj
Ġegip ta
Ġrum ana
ĠA dolf
ĠT as
ĠC eloj
eb b
Ġtem ploj
Ġplen dis
ha usen
fes toj
Ġpen as
Ġfil ojn
Ġpren os
eg aleco
ĠOri entis
Univers ala
A I
F X
n ess
li gu
Ġb os
ĠA so
ĠA miko
sh i
pi ra
Ġvo la
ĠAl ek
nI om
]] .","
ĠÃ ĸ
ĠGre co
Ġaser ti
D V
Ï ħ
tu alan
nP ing
categori zed
se ptembro
Ġdec ida
Ġag ordi
Ġinteres aÄµojn
ĠPar t
Ġlis toj
Ġdik tato
Ġ Ñĥ
en taro
lab ora
ig eblaj
ĠE L
ĠS pra
997 44
Ġle gebla
nÄ ¤
hel po
Ġating oj
ĠSa uda
Ġtrejn istoj
ĠDepen de
O O
i om
Ġb oj
ĠA parte
ki on
Ġor aj
ĠPor tuguÃªs
ĠDe f
Ġon ly
ĠMan u
Ġprotek tado
nLas i
Ġkampan jon
Ġrenov igita
Ġdro its
M R
t kov
Ġ ujo
ti ÄĿos
ĠS he
Ġin aj
ĠÄīi elon
Ġsu ker
Ġpa gon
ĠRe ad
nB an
998 10
Ġapli kas
bb b
Ġban kro
Ġsimpto mojn
nKan tono
Ġambasado ro
ĠBalÃ¡ Å¾
itge ver
D K
Ä ĵ
ci antoj
Ġ1 18
da c
ĠL Ã©
997 95
Ġta kso
ens is
Ġfra ton
Ġkunlabor anto
R om
a af
å ľ
Ġ( Â«
ĠS va
Ġne vid
Ġel ef
97 802
80 53
uz as
Ġar mitaj
997 37
pu lar
âĢĻ .\
Ġang uloj
Ġind ul
Ġekonom ie
194 8
nSe arch
Ġrad ia
Ġregistri ÄĿu
ĠPla y
Ġinsta lita
Ġbra kum
Ġsango premon
Ġinicia tis
Ġpremi oj
E BE
t Ã¨
":" âĹĦ
Ġf legis
ĠI ran
Ġvid eble
Ġpost res
ĠCen tre
Ġrimar kin
Ġvari anto
Ġsurpri ze
ĠÐ½ Ð°
Sh are
nLern u
B u
I m
g rasa
v re
to ria
Ġm oj
Ġpor de
Ġne po
Ġvi ve
co la
ĠkontraÅŃ is
Ġkul po
Ġlabor ejo
Ġperf ek
Ġfori ras
profi t
ĠVindo zo
ĠGilson laan
B K
B V
S W
Ð Ŀ
en ia
ed In
Ġ1 881
fi ks
ĠF TP
kon kurso
Ġpa gos
aÅŃ gusto
Ġpres ado
Ġcen so
Ġspek tantoj
Ġminis terio
Ġtoler emo
ĠGron lando
m uzeo
Ġf estis
per to
us h
Ġmal plej
Ġkom pan
ma Äµo
83 13
Ġpo p
Ġtu ÅĿi
Ġnov elo
Åľ ablono
Ġsci igos
ĠAl len
Ġmod elojn
Ġdisku tas
Ġtekno logion
ĠUl tra
Ling vo
ĠRoy al
M K
p iloj
ĠG ug
93 25
ern oj
Ġko ko
Ġredakti lo
ps uloj
Ġdetru as
ĠBe ck
Ġsor Äī
Ġplat formoj
Ġmalsukces o
Ġpal pe
diro la
ka li
di vido
97 58
19 29
Ġpar koj
Ġling v
kaj a
Ġvid a
Ġfi ÅĿo
Ġme lanko
bc d
Ki u
UD OC
ĠFern Ã¡ndez
Ġneg lek
Ġâĸº ","
en is
ti am
re mo
Ġn ub
Ġ1 882
Ġvi kio
22 22
pa la
nK ura
ĠMi rejo
pl es
nU TC
mas o
kur sojn
aÄĿ uloj
ĠSer io
ĠDis tri
Ġelektro magne
Ġvak c
poten co
ĠMoz ambiko
B I
J ES
v adis
w eg
ro ko
pro cezo
fi cejo
Ġvi coj
Ġfor peli
tar ajn
19 08
Ġdis ÅĿi
ĠEn ciklopedio
eli lo
Ġmala pero
Ġmov iÄĿi
gn os
Ġinspi ris
Ġalven os
a tu
p tis
ĠÄī elojn
Ġne forma
Ġkons tantan
men doj
fo lioj
ati ng
ver e
ãģ Ľ
lin t
Ġfak ulojn
Ġsuper aj
sek retario
we en
Ġrom pas
Ġsolda tojn
bun tu
Ġkonci lio
Hel po
P U
b ildo
e ff
li gan
te coj
le jo
ĠN er
Ġmon tara
tr onika
ĠW ang
nC itaÄµoj
Ġvian don
ĠKOV IM
Ġkonflikts olvoj
h os
n Ã©
Ġa tomb
ĠN atur
Ġtro vu
ĠMar teno
Ġ18 85
Ġkul pas
kla do
alu to
fon toj
valo ro
Ġpriva te
Ġsom ere
Ġrea lan
Ġargum entojn
Ġkonsum as
Ġdimen sio
B AD
E uro
Ġla ca
ti ni
es plo
Ġs porta
or da
am erika
Ġvi rojn
Ġan s
Ġsu den
uz on
laj a
Ġak ordoj
Ä¥ e
Ġ17 98
ĠÄīiu kaze
Ġon klino
bf b
Ġanali zon
trar ano
Ġfilme toj
o ta
Ġa daptita
ĠL Ã¡szlÃ³
ĠK ub
97 16
tan ojn
Ġun us
urn alo
nS UDOC
ĠKi uj
nC elo
Ġaten du
Ġinstru kciojn
Ġeten diÄĿis
Ġstran gaj
Ġkandidati ÄĿo
ĠmonaÄ¥ oj
Ġtalen to
kontro lo
ĠKamer uno
M ala
Ġt rum
Ġli gis
ĠE is
ran oj
Ġek si
Ġri Äīan
Ġfor t
Ġka lio
par ton
ba e
Ġeks pon
Ġsci os
Ġmili tisto
Ġthe y
kva lito
Ġmerka ton
ĠKir gi
ĠTimo ro
ĠRou tledge
H z
ĠK AS
po lon
Ġe vangeli
98 873
Ġres taÅŃ
37 25
Ġsci ante
Ġci fero
Ġoku p
ĠPer dita
Ġvek i
ĠJus teco
ĠÑ ĺ
Ġmanifesta cioj
ĠAristo telo
WER PEN
nAki ru
ĠANT WERPEN
C LC
Ġd ri
ek tado
Ġki ras
ĠS tras
Ġb is
ĠI f
kon si
25 58
ni z
ĠO kaze
ĠMi ajn
ÄĿi ÄĿo
ke ton
BC F
Ġmez aj
Ġkontro lu
196 2
Ġdirek toj
nIS NI
an ejro
ti gebla
te me
am ar
ĠÄī inan
ca don
ĠB ez
ĠD emo
97 05
pa tra
nA ktu
ck e
be f
nKon takto
Ġnu ligi
ĠPre mi
Ġpoten c
Ġmona Ä¥o
Ġprovi zo
ĠGra va
ĠMaj stro
Ġintelek tuloj
B FE
i as
Ð ļ
zi e
Ġun io
for e
Ġak vorez
Ġtre m
Ġfon diÄĿo
pre zo
aro v
ula do
ĠRo gier
Ġjun eco
nÅľ an
9998 86
Ġprovi zita
ĠMan libro
Ġelektron ikaj
ĠDobr zyÅĦski
ed aÄµo
ĠB es
ĠU m
997 83
se ca
gu in
Ġkol ere
hi la
Ġflu gas
Ã¨ neto
Ġpripens is
ĠJerusal em
No toj
B FD
B RO
n nor
Ġa ba
tu lado
vi e
Ġper eo
Ġun uj
nT aj
nV Ã¨neto
Ġsci ence
nEl ÅĿuti
Ġve ge
kolo ro
Ã± o
Ġvali di
Ġnordo rienta
ĠPu erto
Ġimpos to
Ġvarme ga
ĠPok alo
Ġtemperatur on
C K
F AD
H V
Ð ł
ro man
Ġ1 06
ĠL ando
ĠK anto
tu a
Ġek os
ĠEs pÃ©ranto
pi ono
ona virus
996 57
Ġven dejoj
ĠMal to
Ġplan edoj
Ġus kladon
pita l
ĠRos s
nÙ¾ ÚļØªÙĪ
Ġdeputi toj
999903 74
g xi
× ĵ×Ļ×©
da tigita
Ġre form
ĠP onto
Ġkon ekto
ĠN aj
nT ab
Ġbon dezi
ns ays
nG re
Ġsuper hero
Ġpra va
Ġapli kado
Ġenme tas
Ġdiman Äīe
vad or
Ġkardin alo
97802 836
O E
P ra
e coj
§ ģ
á Ĥ
Ġde ka
99 806
97 37
tin d
Ġkura ÄĿo
ĠOr digi
sim pla
Ġindividu ajn
Ġradio ak
nMon da
Ġvita min
profi ta
åŃ ¦
gir l
Y V
g le
Ð ľ
Ġp uraj
ĠM ono
95 19
997 16
89 06
kom pu
Ġmar kitaj
995 0
ski e
pos ten
Ġuti ligas
Ġbi ero
ĠDis vol
ev skij
Ġpublika Äµoj
nAÅŃ toroj
ĠPl ur
ĠGio vanni
+ +
c anta
z z
ti vi
Ġa bor
20 77
nE ÅŃropa
nR adio
Ġver dik
ĠViki pedion
Ġcen tran
Ġru ÄĿan
×Ļ ×Ļ
ï¼ ļ
Ġ[... ]\
ĠarÄĿ enta
Ġkunpor tis
Ġkoali cio
7 91
P roj
R AN
V ia
va di
nI ri
cen te
Ġcer teco
Ġlabo risto
Ġkri zon
Ġvol umoj
up raj
Ġbio logio
ĠBona parte
Ġmalof ta
Ġov ojn
Ġpligran digi
nÐľ Ð¾Ð½Ð³Ð¾Ð»
g ujo
s ung
is majn
ĠA TX
Ġne gra
ĠÄīi ajn
ĠN el
ĠH inda
uri lo
ba go
Ġle terojn
Ġinf ini
Ġplenum ita
Ġmalmul tajn
ĠFer enc
ĠPM EG
ĠJamaj ko
ĠsovaÄĿ aj
àº²àº §
Ġa tle
ĠE fiko
ĠO pera
Ġuz eblaj
ĠÅĿi pon
Ġmor fo
ec tor
Ġflu gis
Ġsa vo
su po
Ġparola doj
Ġdun gita
Ġsalu tojn
ĠinÄĿeni er
Ġkreo s
ĠMedic ina
mina ro
O G
æ ł
Ġf los
Ġre voj
per forto
Ġel ten
pa ÄĿ
Ġci tita
72 11
Ġkur siva
ãĤ Ī
Ġvizi ton
ĠPer mes
Ġvar bi
Ġmalkov rita
Ġcentra lo
elig ia
clo se
Ġnord aj
Ġpreten das
Ġfias ko
Ġradika la
group s
å ¼
ĠE ras
Ġin tui
Ġi rana
44 44
ĠÄīirkaÅŃ ita
nÄľ enerale
ĠPrez idento
nOr do
Ġinsis tas
urin amo
999933 84
Ġkorido ro
G u
U SD
n kun
Û ĩ
ar ajn
Ġs aluton
Ġ1 863
ĠP et
tu lino
98 34
96 06
pla to
ĠVi aj
Ġju nulojn
Ġ18 86
Ġkol um
Ġfak ulo
bf c
Ġvar man
Ġkoncer ton
ĠHel poj
Ġaver aÄĿe
Ġduo b
ĠNaski ÄĿtagoj
A W
ran d
ab d
Ã¡ ri
ĠMon t
Ġw ord
Ġve turo
Ġinterkonsen toj
Ġmagne ta
m Ã¡n
al fab
lo kaÅŃ
ĠE bur
ĠL um
ĠK OM
ĠB aran
Ġka bineto
ab f
ke y
ver koj
Ġâ Ĺ
FF F
ĠBri an
Ġbri lis
Ġrig li
Ġsto kado
Ġlevi ÄĿas
Ġsalaj roj
ĠAÅŃto mata
Ġleci ono
H J
Ġk ana
tu rismo
pe rojn
98 00
nE dukado
Ġhom aron
63 56
nU SD
Ġnu da
ĠVer antwoord
Ġoku po
ĠRa porto
Ġlar ÄĿaj
aso cio
Ġtransi ri
Ġkondam nis
ĠFil m
Ġenmig rintoj
K or
S G
a fe
la tine
da b
ĠS em
Ġpor tuga
Ġpro zo
Ġe in
tl es
nM ak
Ġling ve
Ġman ov
Ġinfor milo
Ð¾ Ñģ
Ġmez ur
ĠTh is
ĠLan doj
Ġrepu tacion
ĠKuvaj to
ar es
ek tis
Ġg am
men te
ĠW hat
nH on
tab el
Ġbaz oj
ile jo
pil lod
Ġatribu ita
Ġriver on
Ġkoti zon
ĠDemokra tio
ä½ ĵ
Ġdipl oma
Kubo F
& _
A DC
a tojn
d omoj
Ġa lo
Ġa simi
ĠS UL
Ġre ga
ĠD ubli
97 26
ma ch
Ġsen ka
Ġle vil
ĠÅľ tala
ĠSen naci
Ġfinan cajn
Ġbri las
Ġpez as
Ġkoti zo
Ġprov leg
ĠOrigin ala
Ġkunme tita
endre do
A U
Y P
j en
p ento
Õ ¸
Ġi ran
Ġmal re
ĠU z
no to
eni e
Ġkul tiva
Ġ[[ :
Ġnaski ÄĿas
ĠMan dirola
Ġgras o
B BD
k ristan
r ligo
Ġes e
war ds
Ġli ne
ĠL id
95 05
Ġar menoj
Ġsek reto
Ġ| -
Ġma gis
ĠSen t
195 8
ĠÄĿoj is
nMar tin
Ġsono ri
ĠTek nologio
Ġkonsekven coj
nPriva teco
nFre ÅĿaj
Ġmalagra bla
ĠBoh emio
7 19
S co
n ariel
n prezentita
Ã °
Ġs par
Ġpro cento
999 02
us aj
ad c
ĠD am
ine ws
nC or
Ġplan ado
ida e
Ġvar bado
Ġfinan co
inter faco
Ġhon esta
Li teraturo
ĠTer mino
Ġkonsi lio
Ġned ezi
Ġkonkre te
Ġkavali ro
99813 29
nOrigin al
Ġspegu las
ĠÑı Ð·
ĠRepubli c
å ¸
es traro
Ġt ris
ĠD os
aci Ã³n
Ġaten tu
ĠÄīiuta gan
nDi versaj
komputi lo
ndaÅŃ rligo
B J
K ER
M Q
en berg
ĠA par
96 96
ab b
Ġnom umis
36 960
pli ng
ĠVi zi
Ġves pera
Ġdisvol vo
Ġmedic inaj
Ġafri kanoj
Ġdetermin as
B DC
D u
s cen
Ï Į
to ler
Ġf is
tu oj
em ble
ĠR I
97 44
18 83
ÄĿi mo
996 94
Ġfi linoj
ry s
Ġsol ena
bd c
Ġpozi tiveco
flu gis
Ġtekno logioj
Ġprizorg as
nAkti va
Ġhelpan toj
Ġsaba ton
ĠKapri korno
Ġaristo kra
B U
p b
¥ àº²àº§
Ñ Ħ
re i
re ton
Ġti pon
ĠL igoj
ĠS S
ĠM ini
Ġali neo
Ġres pe
Ġra don
Ġins ulon
Ġnu ligita
Ġrenkonti ÄĿi
ĠHel sin
nPa ÅĿoj
ĠCi fereca
Ġsk ele
Ġtransdon as
ĠWilliam s
ĠLer ni
Or gani
ĠFul mo
Ġh umoro
ĠS za
Ġkon venas
Ġsen mor
Ġkre doj
ĠRo usse
ĠFran caj
Ġpra vigi
Ġaran ÄĿon
ĠLin eo
Ġkolekti taj
Ġca ro
ĠEÅŃ geno
ĠÄīapi troj
merka to
g adon
Ġne ÅŃro
ĠT urn
mo toro
ĠI NT
Ġ[ ?
nD C
Ġlis tigi
Ġ' *
nVi vo
stra to
OV A
Ġ187 9
Ġkvad rata
Ġeben aÄµo
divers eco
E FE
h aÅŃ
x x
Ġd as
te br
Ġvid inda
ĠAr row
Ġko doj
bc f
Ġkonsis ton
RI O
Ġklopo di
ĠBul teno
Ġsurfa con
Ġmalvar mo
Ġmatema tika
Ġsinjo roj
Ġkalku lis
rotary clubdeesperantobrasil
Ġlaborato rio
w icz
Ġ1 876
96 04
ona te
Ġven k
Ġkontra u
Ġmar kon
Ġiom a
kan tan
Ġdeta lo
195 9
spe ci
Ġbra kapo
ĠEks tera
ĠBir ds
nMala gasy
ivan ovo
I DA
S Q
t lan
Ġ 93
ter y
96 76
ĠH ermann
tem on
uz u
od y
Ġkiam aniere
Ġden tojn
ĠÄµurn aloj
rila taj
ĠOb ama
nDon aci
Ġmalproksim aj
B ED
i ÄĿoj
la ce
99 41
Ġkun igitaj
nK var
Ġesti gas
Ġparo lajn
Ġkuti mis
ĠTra du
Ġroman on
Ġprofun daj
Ġtekn ikojn
ĠaÅŃtorita ton
Ġadop tas
an ti
re tejo
Ġ( [[
tis taj
ĠP at
Ġi aj
Ġe ch
ĠF ros
av ano
me ro
nK el
Ġfor bru
nM uziko
dis tri
9999 896
nF lu
ĠInter tempe
Ġlabo rojn
Ġnen e
Ġmis tera
ĠNa tions
Ġelem enta
Ġeska pi
Ġvertika la
Ġreser ves
/ #
b de
Ġmi k
Ġkun venon
Ġek zilo
Ġdi veni
Ġtra d
00005 07
Ġfar uno
ĠSek va
Ġron da
nRo berto
Ġpripens as
Ġafab le
Z K
p son
t ul
la da
Ġes peri
Ġen miksi
Ġti r
Ġkon v
ĠÅĿ uoj
ĠH aj
Ġka Å¼
19 00
fo bio
Ġmin i
Ġko k
Ġko pion
Ġju ÄĿi
ĠNi ÄĿero
Ġskrib os
Ġge filoj
ĠAra gono
ĠBra tislavo
Ġenkonduk as
Liber aj
ntra dukita
Ġkalend aron
Ġhin du
s as
Ġ war
ĠS tel
ĠP rele
ĠI ni
0000 554
Ġte roj
Ġsek cion
nC zy
Ð¾ ÑĤ
Ġvin tre
Ġkompren u
Ġkap elo
Ġru inoj
Ġkal cio
00003 46
000057 5
Ġmalj unu
emb recoj
nSi cilian
igar di
ĠAfri ca
R u
h io
n ×Ļ×Ļ
or Ã¹bÃ¡
Ġ1 02
97 3187
96 93
96 57
ata ko
pp le
bon e
nU zanto
nÅľ ablono
bf d
Ġata kojn
nInter esaj
Ġkampar a
Ġgus ton
ĠRap ida
ĠfaÅĿ ismo
è© ŀ
/ ,
/ @
in ess
Ġn uboj
Ġ1 867
ig adon
Ġinter lingvistiko
Ġkons tela
vis toj
lin ojn
ĠInter reta
ĠÄµ az
AN T
Ã¤ l
Ġtekn ikan
ĠaliÄĿi lo
nGra vaj
9964 156
spa coj
dokum entoj
ĠEre vano
M EG
b lis
g haveno
l eri
ĠK ee
Ġj x
Ġne el
Ġvi tra
ĠâĢ ķ
pa troj
15 95
nK ad
Ġnom braj
Ġdu cent
Ġnun e
âĢľ \
Ġkam ion
ĠX in
kos te
Ġth an
ĠBu tano
Ġfid inde
Ġnaj baro
Ġimpres o
Ġner va
Ġallo gas
Ġkonkre taj
Ġkontrib uu
Ġekfunkci is
ĠGuj ano
A Q
Y D
v ujo
ci ulo
ĠN ok
96 65
94 24
nS a
ĠlaÅŃ vorte
se f
Ġfon tan
ĠAl ter
Ġkla ri
ĠBo ur
Ġdivid is
EL LER
197 1
wik inews
ĠÄīas ado
ĠÅľta toj
nSicilian u
i us
s trukturo
Ġ1 878
ĠA j
ĠP riskribo
Ġali ÄĿintoj
Ġplej e
}} .\
pan e
Ġliber ala
pas ter
ĠLu doj
Ġho w
Ġbal da
Ġdor mas
Ġkontin u
Ġricevi taj
non ce
ĠKonsi lantaro
Ġliver is
Ġtan ko
usz paster
8 975
F V
v k
en de
ÄĿ enoj
20 23
Ġh aj
ĠK anta
Ġkun porti
nE le
Ġuz ant
pan dem
pen se
Ġnek onataj
ĠDe taloj
Ġneces on
Ġdev ige
Ġskrib ajn
ĠÃ ¤
ĠIm per
Ġ-- >
ham mad
Ġgrama tikon
nKo pirajto
ĠVoj a
Ġinves toj
ĠArgen tina
ĠAnstataÅŃ e
Ġwie cej
nCzy taj
g am
o kaz
p Ã¼k
s istemoj
ÅĿ los
ĠP ing
999 29
Ġmal vas
tra du
il eo
997 33
ba o
Ġhel ena
ÃŃ o
Ġblan k
Ġdub ojn
dkas to
Ġimpos toj
ĠMÃ¼ nster
Ġkuiri laro
b ero
z ano
Ġa pri
Ġf l
Ġ1 873
Ġre dukto
ĠA K
me roj
Ġar mi
Ġtra legis
ĠIn formo
Ġma pon
ĠAl don
ha w
Ġoficiala jn
Ġtur koj
lern ado
Ġpara dizo
ĠEli zab
ĠAndre j
ĠRobin son
ĠRila te
n nu
Ġa vino
Ġne bulo
97 24
23 15
Ġins pek
Ġ5 000
bi oj
Ġrenkonti ÄĿon
ĠHispan ujo
wit z
Ġtrin kas
Ġnaj bar
nBon ÅĿan
Ġmaksim uman
Ġmodi fo
G lo
Z X
v igitaj
el j
te tojn
Ġ1 861
ĠK ni
98 89
ĠLa tina
Ġinter kultura
ĠO CLC
ven da
ve con
Ġl undo
nB ele
Ġokaz igo
Ġvor tetoj
ĠÄīef urbon
Ġpreci zan
Ġmo to
ĠTo bago
ÅĤ a
Ġmalsu preni
ĠGeor ges
Ġaso cia
Ġrefer encas
Ġbel or
Ġstabile con
ĠAN EB
M U
a prilo
or amo
Ġ1 859
Ġti ea
ĠS L
ĠR ADE
97 57
nK ata
Ġtu ton
Ġokaz anta
Ġpas inte
ĠViki vortaro
ĠDo ktoro
Ð» Ð¸
Ġmalsam ojn
Ġklopo dojn
ans son
Ġepisko poj
Ġmalka ÅĿas
Ġfut balo
==== ====
instru isto
Ġpreven ti
B el
Ġde pri
pe ta
âĢĿ -
53 07
996 84
Ġfari ÄĿu
ĠKa ÅĿi
Ġkan tono
Ġkan alon
Ġapu daj
Ġkole go
ĠmalÅĿ al
ĠBy elongo
Ġpin ton
Ġful mo
Ð°Ð» ÑĮ
Ġenkor p
C V
la Äµojn
in kluzi
un don
Ġv undo
Ġ1 03
Ġ1 849
ĠE ne
ĠK Ã¶
Ġb uso
Ġmi ld
ĠN AS
Ġ2 650
Ġfi broj
ĠNi elsen
Ġag ento
Ġsan ita
Ġfaci laj
nRe gistri
kov ru
Ġide alo
ĠCom ic
99997 18
sim ple
nJo Ã£o
Tra ck
ninter nacia
A X
97 13
ĠÄīe eston
Ġmon ta
18 85
Ġro ma
Ġ18 84
Ġdan ci
Ġeldon as
Ġkonta k
Ġspi ra
Ġdisvol vigo
Ġfacile co
ĠeÅŃro pan
Ġet noj
500 2
ĠreÄĿi mon
rigar don
Ġlatin e
ĠÄĿard enoj
deven aj
Ali ke
ĠAni ma
Ġsankt uloj
ĠKristnas ko
word press
F BB
g d
Ġen tj
nS to
nS tu
hi en
Ġis t
ĠNa turo
ĠGaz e
Ġkro ata
ĠÏ Ģ
Ġcivi laj
ĠStran ge
H N
Î ³
un dojn
Ġen ir
Äī ina
Ġmal pra
18 95
Ġtra legi
it z
Ġkar b
Ġflu on
nAn dre
Ġsoci etoj
Ġklu b
ĠHisto ri
Ġvesper man
Ġvek iÄĿis
Ġdefi oj
Ġgrandio za
Ġgratu las
ĠVegeta rismo
ĠCher pillod
- )
R i
Ñ į
å Ī
en ajn
ar bar
Ġm ok
om bro
Ġre produktado
85 94
18 87
997 9
ĠW at
titu cia
nIn di
Ġkonservi taj
Ar t
GH T
Ġdirekti ta
ĠWol fgang
nà² ķà²¨
ti er
Ġm istero
al t
Ġre teni
83 55
80 75
nV in
enc y
ac f
Ġmalpli mul
gaj a
ĠY u
Ġposed i
ĠserÄī ante
Ġvir tuale
Ġstri kta
nDi man
Ġneo logis
cra mer
Ġdimen sioj
Ġargen tina
ek rano
Ġ1 840
ko wski
Ġel ÅĿi
pon to
997 47
Ġak cel
ele c
cen tojn
Ġhel pa
hav aj
nKon grueco
Ġpopo laj
Ġspeci fajn
ĠNeder landa
Ġalvo kon
Ġstrate gion
Ġmiks ita
Ġkonvers acioj
bir do
wp nonce
recen zo
ĠSri lanko
ĠâĹ ı
Ġde partem
le ci
Ġe ter
pa tio
Ġkons cion
Ġpar ta
997 03
nMi aj
ĠPor tu
Ð½ Ñĭ
Ġmalfaci lan
ĠÃ Ħ
Ġperf id
Ġcxi am
ĠaÅŃton oma
ĠÄīees tantoj
ĠFlo rido
ĠCommuni ty
chou k
F DC
ĠE lec
ĠL ins
ĠK lu
em ys
Ġg rajn
ĠIn dekso
Ġsek vos
Ġeb ri
qu er
ĠUnivers alaj
ĠBer g
Ġkonf ron
ĠBa zi
tag em
Ġsang an
Ġdin am
stu doj
Ġslog ano
v d
Ø ¯
un oj
Ġ1 865
Ġkom plekso
0000 534
Ġtra kto
enc kadro
Ã© ri
Ġunue ca
856 93806
ÅĤ os
ĠBa terio
ĠBrazi l
!! !
ĠThomas Pusch
ĠPaci fika
lerne joj
ĠMaÅŃ ritan
mesa ÄĿon
8922 889
? ,
F EE
O n
e ec
on s
ci u
ĠE instein
ĠM asa
96 33
ĠLi brary
Ġkor a
kam poj
Ġnor mojn
trua Äµo
Ġkur as
ĠÄĿus teco
Å¡ ka
nPa ge
Ã¨ ne
ĠhaÅŃ ta
Ġvesper manÄĿo
gaz eto
Ġretiri ÄĿis
Ġmam uloj
Ġretad reso
ĠRein hard
nPing back
chouk ball
en as
el lo
ig acio
Ġmal p
Ġkun tekstoj
ĠF ig
ĠF esto
46 91
ĠMi t
ern er
ener gio
ĠLe ipzig
nEs ti
ros ko
sk Ã½
Ġbo beno
Ġinvi to
Ġzorg u
ĠÄĿisda tigoj
Ġkompro mi
Share Alike
Y Q
Ġs and
pro gram
ĠE dis
ĠS la
man taj
Ġfor tike
ĠW in
Ġro taria
ĠAli vorte
ĠTh or
ĠÄīam pion
Ġsimbo la
Ġsom e
934 06
poli tikaj
Ġinterpre tado
elsen do
Ġeltro vi
Ġaltni vela
Ġtrag edio
C FB
L N
L Q
Z Q
å °
ri vero
ĠaÅŃ diÄĿis
eri co
75 17
ĠSe vilo
ĠLe gen
Ġkri pta
nRe gis
pres io
Ġrevizi anto
Ġth ere
Ġprele gis
ĠAra ba
Ġenme tis
cos cramer
Ġkonci z
Ġvet ur
Ġkvi e
ĠAndre w
ĠBaz elo
nVil helmo
c ff
97 25
96 46
ĠG aran
lin s
Ġvin tra
ĠÄīirkaÅŃ as
nPro duktoj
Ġkura ÄĿas
Ġkomputi laj
ĠKor ano
Ġdia beto
Ġalterna tivaj
Ġsubpre mado
sez onoj
Ġeksta ris
nMen uo
Ġ[? ]\
B T
H er
Ġk esto
Ġpli iÄĿis
kon dukis
85 85
Ġnov el
nH e
Ġbi ciklo
pun ktoj
ĠSin jorino
99999 21
Ġnas ko
Ġflug hav
ĠdaÅŃri pov
ĠHu ang
Ġinspi rita
Ġbr una
ĠCho pin
biblio teko
Y G
Ġk anada
Ġh inda
ĠP siko
84 26
Ġpa pa
ĠH eb
th m
18 97
ĠÄĪ arto
193 2
Ġnekon s
Ġkomfor te
Ġromi aj
ĠUzbek io
Fre md
Z G
r Ã³
ra ro
ci ent
ĠS ie
Ġan tis
ĠC ir
Ġmem bron
Ġsek rete
Ġurbo domo
Ġvoj ag
Ġvol umeno
Ġrek ru
Ġfik cio
Ġsimbo lajn
ĠUkra inujo
Ġlandli moj
Ġdistribu o
Ġpafmor tigis
g ma
i ÄĿ
z sef
à ł
li ck
fi ta
Ġra ci
kri ba
Ġadminis tri
195 2
ĠHar ris
Ġtor d
Ġbre ms
Ġkorek tis
nÐ¢ Ð¾Ò·Ð¸ÐºÓ£
Ġkontrib ua
f ol
â Ĥ
Ġn ul
ka dis
ĠM emo
ĠA ran
uj i
18 93
Ġvid vino
Ġsin cera
Ġmals eka
Ġad mon
ĠAÅŃ gus
hi p
Ġem blemo
nPro dukto
Ġdona cu
Ġvas taj
Ġpriskrib oj
Ġlong tempe
Ġmek anika
Ġkolo rojn
ĠZam bio
J G
R N
99 454
ku time
9999 22
Ġak us
Ġsta riÄĿis
Ġhisto ry
ĠMo ore
Ġmerka ta
ĠBen jamin
Ġfav oraj
Ġplas ta
Ġdelegi to
çĶ ¨
Ġnekuti ma
ĠKav ali
C i
O I
c l
j om
Ġp ecojn
Ġen ten
Ġf leksi
al ys
Ġti mon
ĠP ul
sh ip
Ġkom an
96 77
80 74
ari oj
Ġsur strate
Ġr eor
Ġinf ektoj
Ġneni e
ĠKa p
ĠloÄĿ loko
Ġkres kos
tek niko
Ġbu tiko
Ġmenci u
nLi bro
bio grafio
Ġrimar kos
nPa ÄĿo
Ġstre Äīon
Ġfir st
ĠRen Ã©
áŀ Ł
mom etro
ĠOkaz is
Ġsensen ca
nmar coscramer
Of fice
Ġk ante
Ġti paj
ĠE fikoj
98 10
98 59
ĠÅĿ il
ĠF ram
95 30
ĠJ una
19 09
ĠNi lo
Ġsol vita
Ġves tita
Ġprefer ata
Ġpu poj
Ġofen si
Ġamplek se
e tis
ig enta
ĠA feroj
22 14
Ġpre dika
Ġtiu rilate
19 01
Ġrila tis
ac d
ĠÐ ĺ
Ġ+ \
ĠMari no
ĠEr n
Ġkarakteri zaÄµoj
Ġlini ojn
Ġinv adis
Ġkonklu dis
Ġ187 2
Ġhazar da
Ġkonfes as
Ġkonserva tiva
ĠPoz nano
! \"\
Y X
¸ ı
Ġp df
es teco
is ha
un sch
ed aj
ĠS urinamo
Ġre vis
ĠA pos
Ġri v
ĠantaÅŃ ulo
ĠAn tologio
za taj
Ġmor tigo
ãģ ¤
Ġpen et
Ġkos tis
Ġprovin ca
Ġatribu as
ĠVojaÄĿ u
nEven toj
Publi ka
Ġgor ÄĿo
B BE
J E
M ovado
a i
n se
n ms
Ġe tajn
Ġ20 30
ĠG NU
ĠRe gularo
eks aj
dan tojn
à¤ Ĥ
nTi poj
bur y
ĠMin eraloj
Ġmaj s
ĠVo Äīoj
ĠLas tan
ĠDek laro
nÄĪef aj
zen ia
Ġgol fo
Track back
ä ¼
Ġv ekto
ĠB res
man da
Ġkons ilon
ĠÄĪ I
Ġokaz us
Ġlan Äīo
Ġtradi ciajn
Ġdek du
887 4
Ġher boj
ĠHer zberg
Ġau to
kura cisto
Ġbre m
Ä´ anejro
nFil moj
Ġmalkres ko
Ġfilme tojn
Ġlik vid
C BF
w ing
z ona
ÄĿ io
Ġh alo
93 24
Ġka talogo
18 25
88 88
ang alo
Ġregis trado
Ġden seco
ĠCo hen
Ġsid ejon
99999 857
Ġbas tono
pedi isto
Ġsalaj ron
nAle x
Ġbeb oj
m pos
Ġs ino
ĠE u
Ġan tologio
roj o
Ġel iro
ce c
97 54
tion ale
Ġun der
ve lan
nN eo
Ġab om
Ġkru daj
ĠEuro pa
Ġfiks aj
Ġsalu tis
Ġkomuniki lo
Ġkonfes i
ĠantaÅŃvid i
Ġsindika toj
ĠXa vier
Ġk ami
Ġdis par
997 73
Ġeks tra
Ġfi eras
nH ar
Ġmov eblaj
Ġapli kata
ĠJoh ansson
Ġkonsen ton
ĠUr ba
Ġfik sa
Ġsango premo
Ġresta rigi
ĠLind en
kongres oj
Pers ona
ri ed
te kon
Ġf esta
ĠK anada
av er
Ġse g
Ġmar aj
ĠInter nacio
ze f
Ġaldon itaj
Ġkar bona
Ġefi kan
Ġener gia
Ġjapan an
áŀ Ĺ
Ġfini ÄĿos
Ġhandikap uloj
Y T
Ġ1 875
Ġ1 868
Ġne as
ĠN um
il ono
Ġda ton
ĠÄĪ ado
fa ris
nH er
Ġuti lis
ĠTra de
ĠKons umi
Ġtransfor miÄĿis
F K
F BC
H ispanio
m adon
id mann
tis tino
Ġun ikaj
997 07
Ġba ga
Ġhispan e
ĠSte in
Ġgrande con
Ġminis troj
ĠTu rismo
ĠNami bio
R Q
Ġf land
ed zino
Ġ1 874
ĠL F
ĠU zu
aci an
Ġsen inter
Ġsur ben
blo ko
enc antoj
ati vo
Ġro loj
Ġpl umo
Ġrez on
ĠUs onaj
mov adon
Ġscienc an
Ġstatis tika
Ġvikipedi isto
ÂłÂłÂłÂłÂłÂłÂłÂł ÂłÂł
Ġli fe
ĠD okumentoj
me jo
96 83
nK ON
Ġvor tor
Ġfi zio
Ã¡ z
Ġaper u
Ġmov iÄĿis
Ġâ ľ
Ġsper tuloj
tle jo
aa a
ĠSub ite
Ġrememo ris
Ins truado
Ġpriskribi taj
ĠÑ į
Ġhorizon tala
Ġmagaz ino
Ġbibliote kojn
ĠIma gu
P aÅŃlo
é ĸ
Ġd inas
al do
Ġ1 14
ru z
ĠC ind
Ġpa vi
ren konto
25 79
mi c
nB ra
Ġorg en
Ġme titaj
Ġfer mo
AT I
Ġordon ojn
Ġsuk ced
Ġdistan ca
ĠEtiked igita
f ara
Ġa v
ur g
999 1931
vi ron
ĠG B
Ġpar ali
ĠRe y
91 87
ĠLe g
ĠEl ekta
Ġmen doj
Ġkomenci ta
Ġdisku tado
ĠEkz emplo
Ġevi tis
Ġfab elo
Ġalven i
ĠKel kfoje
Ġripo zo
b asa
le go
Ġ1 803
Ġdis kre
nM eksiko
fo to
ĠKom panio
ĠPro vin
ns u
ĠDe velo
cx a
Ġmur m
Ġrekomen dis
Ġmaldeks tren
Ġorien tiÄĿo
ĠDaÅŃ ri
ĠinaÅŃ guro
Ġortodo ksa
Ġade ptoj
Ġantioksid antoj
ĠFukuÅĿi ma
H T
Ġla ser
to p
Ġle do
ron oj
nG a
Ġenhav oj
Ġedu ki
ĠÄĿoj e
Ġtransi ras
Ġskla veco
maÅĿ inoj
Ġpritrak tas
ĠTaÄĿ ikio
C or
f rekven
as tori
Äī enko
ci go
Ġ1 869
999 1
ĠB ara
de e
ren ce
997 06
Ġnom brojn
fo li
Ġeks idis
ĠkontraÅŃ aj
Ġmod ulo
af d
hel pas
vide astori
Ġform adon
ĠAnstataÅŃ aj
Ġkavali roj
nda videastori
nVita minoj
d ino
Ġs tru
le ana
ĠB ut
ĠI R
ĠC IA
ĠEs paÃ±
ks ismo
Ġsci ojn
9996 57
Ġpas iva
âĢľ .\
Ġregis tro
Ġsufi Äīis
ĠDi ana
Ġrom pita
Ġzorg oj
Ġepizo doj
German ujo
ĠJar libro
Ġlign aj
Ġpatr ujo
ĠIndustri o
ĠFaj ro
ĠSendu be
O RI
U ni
U nio
f acila
o fici
è ¦
Ġ zon
ĠS ten
Ġb ras
Ġpri labor
Ġel labori
Ġmal ver
ĠâĢ ³
Ġsek uran
ĠlaÅŃ vice
Ġtran Äīi
and anto
Ġor nami
Ġmov oj
df d
ĠFo x
aring hien
aris ch
p igra
u tra
y l
ta u
Ġ1 864
Ġ1 079
ĠL ITE
Ġo ut
lan co
Ġek havi
ĠD oro
ĠH ali
Ġmon tetoj
nS panish
997 55
dig a
nB el
ĠNe ÅŃ
ĠVan ua
nVen onta
Ġrespondec uloj
ĠdisÄīi ploj
ĠTerito rioj
ti tajn
ti ÄĿu
in tajn
or de
al menaÅŃ
ĠI lus
ĠF LI
95 24
87 44
17 66
nP MEG
19 02
nD inastio
Ġkre adon
Ġsci vo
Ġmili tan
ĠMa ia
ĠMa th
ĠMar c
Ġmala var
Ġsuper flu
Ġmo toron
ĠNo tu
ĠArmen a
Ġape la
nKar man
ĠlaÅŃle ÄĿe
ĠEri treo
R W
R X
Ġde mons
Ġvi raj
lan ka
ĠÅĿ pa
ĠH ern
nP len
Ġaldon iÄĿas
Ġpen trarto
EF B
nAl terna
Ġspeci men
ĠRi ver
nAli flanke
ĠEr nst
Ġripe tas
ĠAleksand r
Ġsign aloj
ĠnaskiÄĿ tago
Ġcoo kie
Kal edonio
ĠVini cius
2 801
d ers
tem pajn
for man
Ġbon on
Ġvo los
Ġman e
Ġku d
Ġcen time
Ġkomenc anto
Ġbi en
ĠSte pan
Ġrif uzo
wi ce
nTra fiko
Ġenkondu kon
Ġkomfor ton
ĠGand hi
* ,
L X
z aÄµojn
li te
Ġes tado
ĠF en
ĠH iro
14 36
997 26
ve roj
gra ma
ea e
Ġman ÄĿoj
Ġcen traj
Ġafi ÅĿi
Ġva po
Ġobser vado
Ġbra kojn
Ġinterkonsen tis
Ġmina cis
ĠTele gramo
Ġfas ado
ãģ£ ãģŁ
ĠAktu ale
I rlando
M E
b fe
m isto
ar tikolo
con d
\" ?
ĠD in
me tita
va Äµojn
ĠJ Ã¡nos
93 16
ĠZ ara
Ġ/ \
mul on
nAl teco
ĠanstataÅŃ as
Ġinflu oj
Ġlim igoj
Ġmalal t
ĠAnd y
Ġforlas ita
ĠRen esanco
Ġforig os
Ġprofesi ulo
Ġklasi fiko
ĠNan cy
ĠIndustri a
fig uro
. <
K ultur
u go
Ġre ti
ĠB ou
tra duko
fa f
ĠdaÅŃ ran
nAn koraÅŃ
Ġreda kt
Ġprefer us
ÑĮ ÑģÐº
Ġdetru itaj
Ġgrand ska
simi la
mals ano
ĠCali fornia
Ġakuzati vo
Ġnobe laro
98873 854
B Z
R us
v ulo
Ð ĳ
ra y
do wn
Ġpli iÄĿas
ĠO mano
nT uj
Ġligi ÄĿas
dek o
gen ro
Ġbata lado
Ġprofi toj
Ġho teloj
ĠSte ven
Ġscienc ajn
Ġmalfor taj
Ġrefer enci
Ġsurfa ca
Ġproponi taj
ĠFal k
Ġferi oj
ĠHaÅŃ taj
B ordo
v na
es h
Ġv aro
Ġen u
Ġ1 99
da tita
ĠS anto
ĠA xel
Ġan ato
95 03
Ġfor kuris
org anoj
tran d
ĠUnivers o
ĠUnivers alan
Ġkonsider u
su fi
Ġhon ore
Se p
Ġsign alo
Ġokupa ta
ĠMaur elli
ĠRousse au
d entoj
er en
Ġa us
ĠD re
0000 569
par ko
kor espon
Ġdivers a
Ð¸ Ð¸
Ġag entoj
Ġrespon dos
ĠMo toro
lus o
esperan ta
urio zaÄµoj
ĠPrin co
meto doj
Ġintelig entaj
ĠmalÅĿ ar
ĠGener al
Ġkorup to
Ġgrun don
A u
b ers
n ÄĿenerala
li kaj
ar ang
Äī aro
Ġ1 28
ĠE co
tis mon
ĠF ore
zi anoj
84 56
va taj
ĠH ua
88 14
nT TT
ĠRe prezen
ĠÅĿan coj
Ġflu e
cd c
nFran ca
Ġminim uman
Ġrestora cioj
nc leder
nDav ide
ncleder esperanto
M ON
R usio
Ð Ł
ï ¸ı
el ekto
ci za
tu rita
98 20
ki un
ab ato
ba u
rus o
ĠBo c
Ġfla goj
Ġprele gon
Ġreligi an
ĠCas tro
ĠFar u
R iko
d ca
h era
i co
o ut
Ġli ke
Ġb ek
ĠA pud
em ulo
ol oj
Ġri pa
25 64
ÄĿis oro
no wiki
Ġpas igas
Ġmalpli iÄĿis
nPro vinco
Ġtru di
Ġfu ÄĿi
Ġfrem dan
ĠTe am
056 15
inf la
Ġpripens u
Ġkolon elo
Ġnere gis
Ġprepa rita
Ġkolestero lon
ĠYo ung
ĠMAL ANDA
ĠBeli zo
H I
H X
O X
Ġk amen
an ia
Ġm uzi
da Äµon
ĠE ni
ĠD ante
84 75
80 80
Ġc un
ĠÄīiuj ara
Ġman koj
Ġeldon itan
Ġsol data
Ġtrov ebla
Ġinfan eco
Ġdifin on
ĠKol onjo
ĠTiam aniere
ÄĪi uj
fici al
908 2
Ġzo o
ÅĻ ÃŃ
borg ru
ĠBah amoj
a ckr
am bro
em ati
ua tion
ĠC ross
nE N
ĠO k
nM embrecoj
Ġsur paper
epo ka
Ġser i
ling en
Ġkla ras
Ġad or
987 99515
ĠLiber io
rz ej
ĠKus eno
9531 851
J I
O rienta
f ana
f cc
Ġn ame
ÄĿ ento
Ġne ebla
ĠB estoj
97 74
Ġsen ar
nT emoj
Ġku ire
ag on
ĠaÅŃto vojo
gita n
Ġplan lingvo
ĠTra fiko
ĠGo ethe
Ġscen oj
ĠÅĿul das
Ġkopi raj
Ġpercep to
ĠÐ½ Ðµ
Ġeksplua tado
ĠTrin idado
ĠBit coin
A b
c dd
in sta
99 3015
ĠL inda
ĠM s
Ġg ala
ĠR akon
ĠlaÅŃ ta
Ð¾ Ñħ
Ġprogra mado
ama cho
Ð½ ÑĭÐ¹
ĠÄīefe piskopo
Ġaki ro
00003 29
ĠvoÄī ojn
Ġduo blan
nDis kutejo
Ġkunme titaj
ra da
ÅĿ asa
tu al
Ġmal puri
Ġek kompren
Ġek dispon
ad ers
96 27
ĠG ras
Ġsen kulp
Ġka z
997 916
nT el
Ġak ord
BE T
Ġapo gas
Ġproksime co
burg s
ĠFon seca
dom eto
99913 91
ĠOce anio
Ġmira klo
Ġalire blaj
Ġaga di
Ġpartik loj
E LI
H Q
L W
a ae
n ma
Ġal so
ĠP hy
96 87
tra don
Ġali ris
ni ÄĿo
ven a
Ġkons cie
Ġra cie
996 53
ĠEÅŃro paj
mar k
Ġpens on
Ġkomenc aj
Ġkvar ono
ĠHel ena
Ġenme tu
ĠBir mo
ĠBr uno
Ġblu aj
premi ita
Ġensalu tinta
ĠMÃ¼n chen
F FA
b estoj
y le
È Ļ
er d
Ġal logi
ge ti
95 44
Ġra m
ĠW ars
ke do
ĠKa f
af b
9988 219
Ġordon on
Ġakompan ata
ĠTutmon daj
99993 93
972 9998
uta ga
nÎ Ķ
Ġneevi teble
D FB
a ad
d da
Ġ za
en di
ta m
ci m
Ġal s
Ġmi elo
ĠR G
vi c
ĠD ark
95 33
Ġ\" \\
ĠW all
fa e
ped ioj
eri c
ĠLe ib
... )
Ġrice vo
BE K
Ġter uro
Ġlim igo
ĠGo tt
Ġparola taj
ĠEven tualaj
ĠMil ler
Ġh et
tu t
97 64
Ġfor tik
Ġpar tion
Ġtra iris
Ġmem f
Ġse tlejo
nEn tute
995 2
ĠPa puo
nPro pon
Ġreda ktoj
Ġkontro l
ĠaÅŃs pi
Ġlerne jojn
Ġfik cia
Ġordon oj
ĠÅĿul tro
ÑģÑĤ Ð²
Ġprepar ado
aspe ca
Ġkunmeta Äµo
Ġferv ore
o lo
Ġ _{
om end
Ġ( âĢĺ
ĠâĢ ĭ
ĠC Ã©
15 25
man e
Ġri dis
ĠO ver
Ġbon vo
Ġlan Äīas
ĠDe v
Ġdev igata
Ġdif ekti
804 94
00004 21
ĠSer vice
inter facon
Ġvolon tula
847 96
Ġov er
Ġpon toj
renkon tiÄĿoj
Ġsenlabor eco
ĠFlan kaj
I JK
ri ka
ar ab
ĠP el
ĠB onaj
nM ag
arm iloj
996 36
FD D
Ġbri lo
Ġfabri kaj
Ġu itgever
Ġima gis
C ULT
te blan
al te
Ġal kro
ru ÄĿa
ĠC ulture
tra de
94 00
ga rio
9999 86
nF ilo
Ġplen das
ĠMon taro
ĠÄĪi ka
bor n
Ġkul ture
Ġno tojn
kan aj
Ġorganiz anto
Ġkres kigi
Ġfer vor
\\ '
ĠGra vas
Ġbru on
Ġrea gas
ĠEr fur
ĠKla ku
ĠEng els
Ġmemb ras
Ġdiligen te
K ri
b v
d ulo
f l
ig inta
Ġpro tagon
999 220
Ġek dor
ĠH ig
997 64
Ġ3 04
ani ano
Ġsia tempa
ĠÅĿta tojn
Ġlabor ado
ĠkaÅŃ zitaj
Ġprofes ioj
ĠKo pirajto
Ġstre Äīo
Ġdol Äī
Ġsudo rienta
ĠBlan ke
9965 833
ĠBir d
Ġbul teno
eman n
Ġemin enta
Ġkompak t
nRed dit
Ġekdispon igis
f ca
h in
Ł á±
Ġen tabel
ed d
Ġmi toj
nE blas
997 65
nN igra
wiki trans
nI loj
cen zo
Ġ17 0
Ġme Ä¥an
ĠÄīef ro
ĠUnu iÄĿo
Ġdisvas tigita
Ġgen roj
emon tÃ¨
Ġstran gan
Ġnorma lan
Ġsor Äīis
Ġekvili b
Ġinvers a
á± Łá±
nLim burgs
ilvan io
ĠEsper eble
ĠRezer vitaj
993015 05
emontÃ¨ is
L in
m ove
Ġ ãĢĮ
ti do
Ġf ia
Ġf eston
ten u
ko don
pe cio
ĠT rus
Ġel flu
ĠF os
me ga
0000 54
fer aj
}} }
tre veno
Ġter enoj
ĠY ear
af c
nPa ÅĿo
ãĥ »
Ġmaten on
ĠEm pire
Ġkonson antoj
Ø³ ÙĨÚĮÙĬ
Ġinfras truk
93406 206
O W
T amen
e eb
Ġa kademio
ĠE K
ĠP sy
Ġi kso
man s
mon ata
and ra
ĠLe vilkarto
Ġregis taraj
ac b
eder acia
Ġcen tri
993 45
Ġrulse ÄĿa
Ġpu po
Ġpersona ro
Ġrezis ti
ĠMez e
Ġpros per
Ġmagne zio
Ġrikol to
nPi emontÃ¨is
Ġarbi tra
C T
N acia
b ujo
å Ĭ
Ġre publi
Ġj ida
Ġi kon
Ġe very
ĠF ami
ĠC xu
nA stro
Ġdis tancoj
pren ita
Ġle ono
Ġvid indaÄµoj
Ġur ÄĿe
ling veco
ns ano
Ġmov ebla
994 93
ĠBo ulton
mor tis
Ġsal tis
ĠÅĿar go
947 13
kli ft
Ġmedi teran
Ġinterrom pi
ĠKali ning
ĠLabo ro
Ġaltni velaj
Ġmagaz eno
Ġnene ces
nnu traÄµojn
E ÅŃropa
ci lia
ÅĿ tejn
kon omo
96 55
Ġsen li
Ġdis don
fer ence
Ġsub ak
pla t
ĠRe ply
Ġfon daÄµo
995 86
000057 1
din as
Ġkondu kos
ĠLas i
nSub skribo
ĠsenÄī esa
Ġglas on
Ġreflek tas
Ġkunfon dinto
ï¬ ģ
F er
Y W
u kas
Õ «
Ġp uran
Ġs loven
ÄĿ ene
ĠS end
co unt
ĠH ou
pla y
996 44
ĠÐ Ŀ
ĠloÄĿ ejon
Ġaten co
ĠmalantaÅŃ en
dro mo
nor ma
ĠÄµe tas
ĠJer emie
nGra matiko
f cf
å ¿
95 26
0000 279
ĠEsperan te
ve tur
nD ie
pli n
et t
ĠZ i
ĠÅĿan celi
Ġrespon du
Ġfunkci uloj
Ġdan c
ĠÃ ħ
Ġgen eri
Ġaprob on
ĠOs mo
Ġster eo
Gran da
N ord
V ir
ti le
pro kras
99 31
Ġen zi
ĠC is
ĠG ir
nK e
ks io
mi ra
Ġesti ÄĿo
Ġekonom ikisto
Ġenkon dukita
Ġkonsci is
Ġminorita toj
Ġced is
ĠRefer enckadro
omj elito
ĠRal ph
B W
S loven
a ka
c ka
h and
s ing
al y
zi ka
ĠG li
94 47
tr ujo
ba tis
Ġgra fika
9997 8
Ġcer tajn
Ġhej tado
Ġpru voj
966 4459
Ġfu ÅĿ
ĠUkra ina
ĠPoli cy
ĠPla t
Li cenco
ĠÄµe ti
Ġmetro o
ĠpreÄĿ ejon
Ġmallar ÄĿaj
arbar vojo
' .\
d cf
ur t
ka zo
ĠT ren
Ġmi ras
Ġkom ikso
ĠAr ms
rin daj
Ġ17 00
Ð¸ ÑĢ
990 9355
komun iki
ĠQ ing
Ġrekomen dojn
ĠMala vio
ĠNico las
blogs pot
E BF
K N
V Q
Y I
z anoj
Ġa Äµo
as oj
ko tta
Ġre d
lu dado
Ġsu feroj
Ġfor tigas
996 25
90 96
ĠAl manako
Ġren esan
inter pre
ĠGran t
ĠJe ff
Ġekzamen on
Ġfu turo
ĠBen ed
Ġsemajn fino
Ġkonci ze
nEkz emploj
ĠSuda friko
proble mo
Ġmaleb ligas
9823 536
ĠEsplo ro
Bil dliteraturo
ĠVerantwoord elijke
e va
g run
Ġen ire
ĠN I
Ġper doj
kon tra
bo la
nB ru
ĠAr k
Ġsig lojn
Ġelek tojn
ĠDe partemento
Ġind ikoj
ispan a
Ġret listo
Ġteo logio
ĠGra y
Ġideo logia
Ġsil enta
Ġkatoli kismo
Ġflo rojn
ĠGam bio
ĠÅĿn uro
Ġfrun to
Ġkatalo gas
es tado
Ġs emo
ĠE ko
Ġre du
ĠP aÅŃ
Ġj uran
9999 12
92 97
bon eco
ho f
ĠMon dial
9985 5
ĠFre e
Ġinvi ton
ĠPe zo
nLaÅŃ taksa
Ġkonfli ktojn
ĠVen ko
dosi eroj
Viki pedion
Ġstan d
eÅŃ so
Ġakroni mojn
Fremd lingvo
! ).
Y S
r Ã¡
Ġp up
el is
ĠL ubli
ĠA ward
ĠC A
87 156
Ġar bojn
ĠW andel
sta cioj
Ġtre zoro
ĠPro pon
Ġaten tis
Ġsignif aj
cion es
ese gn
ĠSte ve
dro id
ĠÄ´ ur
Ġtranspor tado
ovi ce
9913 1733
ĠHam burgo
ĠKeb ek
F CC
L G
T re
Z N
æ Ń
pro ces
Ġ1 858
Ġg reno
po lis
ĠG ros
997 75
ĠAl ess
Ġeb eno
Ġor elo
ĠÅĿta testro
ĠÄĿus taj
Ġ' \\'
ĠBon n
Ġned ev
Ġkonsekven ce
tagme ze
nAbon u
ĠKovÃ¡ ts
T ago
p ter
s per
ri Äīa
ĠA ckr
go l
Ġpo rin
ĠMar cel
Ġeb ligos
Ġ18 83
Ġdeman du
Ġprofes oroj
Ġprele gojn
Ġsep dek
Ġkvali toj
Ġrimark inde
Ġcivil uloj
Ġentabel igas
D T
d be
d cc
Ġ igante
am bu
94 44
ĠH ip
ĠLi ve
Ġtre zo
ĠKon cerne
Ð° Ð¼
Ġ18 12
kla vo
ĠÅĿajn i
ĠÄĪe Ä¥a
Ġmak uloj
Ġsekvan taj
Ġcxiuj n
tito loj
Ġmakler istoj
Ġmanuskri pto
ĠðŁĻ Ĥ\
Ġkonciz igojn
D X
b ig
Ġli cen
ĠS k
Ġre tradukoj
po dkasto
Ġan ÄĿ
ni to
nS kribu
997 25
Ġra bato
Ġmalpli multo
ÄĪ ar
99996 11
gale co
nes ko
Ġcivita neco
ĠBan ana
Ġsekreta ri
Ġsto ki
097 1
omb ia
Ġgeed zoj
Ġinformi ÄĿi
Ġmalstre Äīi
° ¤
ĠS es
ge la
94 55
93 43
tar to
nR una
et rans
ĠAn arch
nH aber
Ġpoli glo
ĠÅľ elo
ĠRo ÄĿer
ĠÅĿta laj
tran si
Ġpla tp
ĠDi ru
Ġkos ton
ĠTiuj n
ĠBur g
Ġintervju oj
Po tencaj
Ġadjekti voj
ĠBag hy
Ġinsis tis
ĠMezo riento
Ban ejo
) ?
K arma
Å Ł
é ĩ
Ġ( âĢŀ
Ġpro pozicio
Ġpri du
gi onoj
96 15
997 15
nV or
bi t
Ġku nulo
995 46
nG aze
ang laj
mar on
ĠGo od
ĠAtribu te
ĠAntaÅŃ a
Ġeten do
Ġac idoj
Ġpremi ojn
ĠinÄĿeni eroj
celi ero
K anoj
k tado
Ġes tris
Ġ1 857
Ġb eko
\" ).\
Ġri das
ĠO ut
996 35
ts ek
Ġag adis
ĠMal pli
Ġnu ligo
Ġce terajn
Ġkad ron
ĠBan anoj
Ġrenov igo
Ġsak ra
turn o
Ġmig rantoj
nNav igacio
Ġdisko teko
Ġsolid are
Ġsocial demokra
ĠFir st
ĠarÄ¥ ite
Jor ko
ĠDatum bazo
2 806
6 963
6 265
M anaj
P as
c ina
f ce
al en
ĠP VC
Ġkun venas
ĠÅĿ elo
ki en
nK ia
ch s
Ġsek undo
Ġle ÄĿaro
fa a
ĠPro ksim
ser vado
Ġno w
Ġter mo
Ġkontro lado
985 2558
kar ak
ID O
Ġkonsi listo
Ġstatu ton
nPers onaj
Ġfig uron
ffe e
Ġneevi tebla
ĠAstro shopee
Sco oter
! ),
B BF
P W
P AG
u es
ç ¾
Ġm oni
Ġen landaj
Ġt uboj
Ġ1 866
ad ri
ĠD res
Ġsu peran
ĠC C
ĠU zante
cen tri
Ġor atoro
Ġevolu i
Ġrus iaj
ĠCen tr
ĠFo lia
Ġvari kaj
nAÅŃ toro
ĠBur kino
Ġrea gi
Ġmalpermes itaj
nà °¤
ÄĪi utagaj
mom ente
Ġmalkres kis
à±ģ \
nBio grafio
B FC
R ol
n plej
er Äīi
Ġf idi
ĠE tikedo
Ġpri ra
Ġkun a
ĠN acion
82 86
ff c
Ġter uran
ĠDi vers
Ġkonsider inde
nÄľ enerala
Ġkoncern an
Ġsekre taj
ĠÅĿata taj
ĠÐ¾ Ð±
lokaÅŃ sto
7 99
F S
K usenaj
L itaj
R uliloj
ta ng
ĠF ero
ĠC amacho
13 04
Ġver as
FE C
Ġnor man
ĠDe talo
Ġplan tojn
ĠRi ce
ĠRulseÄĿoj Persona
ĠRulseÄĿoj Manaj
ĠRulseÄĿoj Kusenaj
ĠRulseÄĿoj Ruliloj
Ġbo telo
Ġkonstrua don
Ġdra ma
ĠEd mond
Ġuniversita taj
prin co
nKomun umoj
ĠSekureco Potencaj
ĠSekureco Litaj
ĠPartoj Rulse
sA kcesoraÄµoj
Äīiuj Banejo
uts che
ĠReloj Kanoj
ĠPromenantoj Scooter
ĠHelpoj Karma
ĠFLI GHT
ĠPartojRulse ÄĿaj
ĠRelojKanoj ÄĪiutagaj
ĠPromenantojScooter sAkcesoraÄµoj
C ablono
D a
J U
e ef
ar u
ra dik
Ġ1 877
Ġb ea
ĠA do
co lor
ĠN GO
Ġpa tra
Ġpar on
nM arko
997 63
nD eta
ĠTi om
89 200
Ġkla varo
Ġren de
Ġorigin an
esa ÄĿoj
Ġaparten anta
Ġaran ÄĿita
nPo tencaj
Ġkonvin kos
884 05615
Ġalfab eton
ĠMak sim
tej no
ĠRay mond
f ujo
Ġk now
ĠE ast
ĠK ron
Ġre paci
Ġmal egale
ce to
Ġek regis
ĠW aringhien
Ġvo us
Ġju dismo
9997 2075
ns ki
ĠdaÅŃ rigo
pas is
ĠloÄĿ antaj
Ġsitu aciojn
nRe cenzoj
nPro toko
Ġproksi man
Ġknab on
ĠPM ID
Ġnord en
ĠPic asso
ĠVirgu lino
ĠCoun cil
Ġpartikula re
c df
on bu
Ġ1 11
Ġli teron
ĠE in
ĠL isa
ĠS ik
Ġmal kura
15 875
ve turado
ba ti
nB ri
Ġparo lon
995 8
Ġlu dojn
Ġfamili aj
Ġinterkonsen tita
ider ed
nRulse ÄĿa
Ġmastrum ado
ĠTrajn oj
Ġselek tado
99768 27
Ġd igno
un ta
ĠN ight
nK ore
18 90
Ġuz anta
ona ro
Ġver uko
Ġtu roj
Ġven dado
ĠkontraÅŃ ulo
âĨĳ \
00005 14
ĠLu ther
kapa bloj
igh as
nPrez ento
Ġ/> <
Ġalidirekti lo
Ġalkoho lo
Un ua
ĠClar k
v ik
Ġk raj
ĠG adget
ĠEsperan t
997 67
pla co
Ġte zo
9999 1935
Ġak raj
Äīe to
Ġins tigo
Ġman dar
bi as
gres s
ho ught
tik ojn
eli taj
nO kaze
Ġren dimen
ee e
spe caj
Ġserio zaj
ĠRu dolf
SS R
Ġargum entis
ĠBra h
ĠWa ter
ĠEkva tora
profit cela
7 111
Z T
i anoj
k emio
Äī ino
ĠK oro
tu lita
ĠB uti
ĠI rana
gi f
kon ta
Ġpre tigis
taÅŃ ga
43 89
pp en
be i
ĠVi la
ĠÅľ ajne
Ġag adas
tera pio
Ġret butiko
Ġvari aÄµoj
lov skij
Ġkial ojn
Ġscen aro
ĠKad ar
Ġkonfor mas
ĠCris is
3 987
Z I
Ġen glu
am ik
tu maj
po z
96 86
25 924
Ġmon df
88 23
Ġser ba
Ġci ferojn
Ä¥ on
ĠMa gaz
Ġ18 14
Ġkol ora
ff f
Ġnu ligis
ĠKan t
ĠVir g
ĠPubli ka
orizon to
Ġprokla mita
Ġprizor go
Ġorien ten
ĠSp ider
Ġseminari on
Ġmort pa
Â ª
ĠE ki
ĠE poko
Ġo kto
96 37
don aj
86 94
ni tz
Ġc lass
Ġdis tin
[...]
