#version: 0.2
l a
Ġ k
o n
t a
o j
Ġ la
e n
Ġ d
Ġ p
a n
e r
a j
i s
Ġd e
i n
Ġ e
o r
Ġ a
Ġ s
t i
l i
Ġ m
t o
r e
r o
a s
r i
Ġ n
Ä Ŀ
Ġk aj
t e
r a
u n
Ġe s
Å Ń
Ġ v
Ġ en
Ġ f
a r
Ä ī
l e
o m
c i
l o
ta s
a l
Ġk i
d o
t oj
Ġa l
Ġ t
â Ģ
a m
i o
k a
e l
Ġ Äī
Ġ 1
e s
u r
Ġ ti
Ġ re
Ġ (
Ġes tas
Ġ E
Ġ L
k o
Ġ 2
e d
Ġ h
i g
Ġ K
Ġ S
Ġ in
t er
ta j
o v
Ġv i
Å Ŀ
Ġ M
Ġ b
oj n
p er
Ġ A
t is
u l
Ġ P
Ġ i
Ġk on
o s
Ġn e
Ġp or
t u
Ġ j
d a
i a
Ġ g
Ġ o
v i
Ġp ro
u m
d i
Ġ li
e k
u j
Ġ an
r an
e m
Ġ T
u s
Ġ2 0
aj n
Ġ ÄĿ
Ġm i
Ġp ri
Ġ âĢ
Ġm al
t on
c o
ĠÄī i
d e
Ġ B
i ta
Ġk un
Ġ l
v o
p o
Ġ R
in g
k s
ĠL a
m o
r u
Ġe l
la n
z i
Ä µ
Ġ N
k i
Ġk e
Ġp er
Ġ I
Ġ D
per an
Ġk om
g i
ta n
Ġ ÅĿ
Ġ F
k on
k ti
Ġs u
Ġ V
d u
d on
Ġes tis
Ġa ÅŃ
v a
l u
p a
m a
Ġp li
c e
Ġ C
ĠE s
t ra
0 0
g a
Ġp a
Ġs i
v as
Ġ G
Ġd i
Ġ te
Ġ un
Ġki el
Ġ U
f i
Ġin ter
Ġ H
L a
Ġ J
ka ÅŃ
o l
Ġp re
Ġ -
Ġp ov
p e
Ġ Ä
ÄĿ o
t en
i l
Ġ1 9
t ri
Ġki u
a ci
t or
g o
Ġk a
m an
Ġ ri
la s
r en
ĠEs peran
on i
m i
Ġe k
Ġf or
Ġun u
c h
z o
Ġn i
a ÅŃ
v er
Ġa li
in o
Ġ "
n i
r is
b o
Ġ u
Ġ20 1
t ro
p on
Ġs en
Ġh a
Ġf a
e b
a la
Ġp o
Ġti u
ĠÄī e
on o
j o
v en
. .
f er
d is
ÄĿ is
Ġa r
Ġ O
z a
s i
p i
b ro
k u
Ġki uj
s o
Ġm on
âĢ Ŀ
m e
l oj
d oj
Ġi li
Ġ c
m en
Ġp os
Ġpov as
ta ÅŃ
toj n
Ġs ed
r oj
f or
le j
Ġv er
Ġd is
v e
a do
a ro
Ġan kaÅŃ
ĠÄĿ i
ci o
Ġ or
ĠEsperan to
Ġd a
Ġl ing
s t
2 0
g an
Ġd u
Ġs ur
Ġt ra
c a
Ġ 3
Ġp ar
k to
Ġ oni
v an
Ġp lej
ĠÄ Ī
v is
er o
on a
in a
k e
b or
) .
k aj
ti ko
ĠV i
g e
r as
d an
ig i
Ġ ta
la j
Ġ [
en to
b a
Ġn om
ĠâĢ ľ
k oj
is to
b er
b le
p ren
1 9
Ġm ul
ÄĿ as
g is
re s
Ġn ov
m oj
r on
Ġh om
Ġsu b
g ra
Ġt u
Ġj ar
) ,
Ġs e
h a
Ġ ra
l on
er n
ed a
ĠM i
Ġti o
Äµ o
Ġn ur
s ta
e z
m p
Ġm em
Ġm a
Ġd um
ÄĿ oj
m on
ĠE n
Ġa p
b li
ÄĿ i
z is
h e
ĠI n
Ġ lo
s e
a ta
Äµ oj
Ġ Â
Ġ W
Ġre s
Ġj e
Ġla ÅŃ
Ġs ek
d en
ul oj
c on
d as
Ġ |
Ġb on
g u
Ġha vas
p an
Ġt ro
Ġo f
Ġe ks
E n
ver s
ĠL i
Å ľ
Ġ le
Ġg ran
du k
z e
v oj
r aj
Ġkon s
Ġan taÅŃ
k ri
e t
Ġm an
Ġp l
p u
Ġ1 8
n a
Ġ20 0
d aj
ĠÄīi uj
p or
Ġo ka
en i
li o
te m
Ġa k
ĠT i
Ġg ra
ĠâĢ ĵ
Ġes ti
c es
f a
ĠR e
R eda
Ġt re
r in
Ġn un
in i
Reda kti
ĠM a
taj n
Ġpos t
b u
Ġf i
Ġla n
p ro
st ru
Ġ 4
Ġk u
Ġf on
1 1
e j
.. .
ĠK on
Ġo l
en c
k ci
or o
Ġti uj
g as
Ġs am
an o
ĠA n
Ġki am
ĠâĢ ¢
â Ĩ
Ġs o
in e
b i
Ġv en
ĠÄĿ is
is tor
Ġkon tra
ĠÄĿ in
Ġk re
2 2
Ä Ī
Ġte m
Ġu z
Ġd o
Äī e
Ġs ia
Ġali aj
ĠÄ ľ
Ġ 5
da kti
Ġs er
k is
Ġe le
n o
p re
Ġs ci
ĠÅĿ i
p le
ĠK om
o d
Ġ ur
Ġla bor
Ġs in
k an
Ġv o
Ġar tiko
l in
Ġkontra ÅŃ
Ġfa ri
Ð °
ĠÄī ar
m in
am en
Ġv or
er i
t h
Ġs ta
Ġj am
t ur
s on
ÄĿ on
t p
ci a
Ġ 0
b e
er man
g oj
ks i
âĨ ĳ
er a
ĠK i
an toj
k ta
Ġt ran
tu ro
1 0
Ġpar to
Ġling vo
Ã ©
to s
Ġb a
an te
ĠA r
t in
t re
en s
Ġ ro
lan do
f o
g or
Ġ1 7
Ġek z
p l
v aj
Ġjar oj
a ti
Ġm or
Ġp u
k or
Ġf un
c en
p ri
Ġk o
z en
Ġk el
k om
Ġt ri
u lo
an ta
Ġm in
Ġ1 6
a li
Ġmi li
ÅŃ ro
g io
p ar
ĠN e
ti ta
ĠS e
t s
aci a
c oj
ig o
Ġm e
2 1
Ġes peran
Ġs pe
Ġ Z
Ġa m
a ra
l is
an oj
Ġkom un
ov a
Ġ ci
âĢ ĵ
vo lu
Ġh el
an to
Ġm ar
Ġk or
Ã ¡
e jo
a d
Ġs ig
ÄĿ a
V i
Ġf ar
gan i
b on
Ġhom oj
n e
ĠA l
ĠÅĿ an
ĠâĢ Ķ
Ġ r
Ġ :
Ġn eni
um o
E s
ĠN i
Ġin for
Ġ 9
ed io
Ġmal s
Ġsi an
ã ģ
Ġ 6
Ġ /
E A
Ġin f
Ġti el
m es
ĠL e
v in
Ġpa ro
Ġunu a
Ä ¥
Ġe Äī
Ġa per
ce p
Ġvi a
ĠÄīe f
is toj
p li
tri bu
k as
ĠP a
ig is
ĠP ro
ti on
is mo
Ġ1 0
ĠM ar
l ing
Ġti e
t ing
ti o
M i
ku to
Ġpo li
1 8
Ġde vas
t r
Ġkom en
p en
Ġ Åľ
Ñ ģ
I n
v on
Ġmul taj
Ġe ble
Ð º
oj e
Ġp lu
te gor
Ġ 7
ĠÄĪ i
Ġpl en
em bro
e o
i on
Ġj un
p ek
g en
c k
ĠÄľ i
h o
Ġh istor
0 2
k ul
d ek
ĠK a
Ġt he
v ar
g on
Ġn ia
R e
Ġm ia
ĠIn ter
ta ro
Ġki un
ĠK aj
Ġoka z
ĠM on
o k
u d
s er
Ġtran s
ĠÄīi u
om o
Ġnov a
p oj
d er
Ġm u
Ġ1 5
ĠÂ »
is te
Ġfon ton
n u
Ġ 8
am i
Ġmon do
Ġli ber
Ġdi vers
h i
an a
ĠU EA
b oj
s ti
u la
Ġti un
di Äī
ri o
ig as
tor o
Ġek zis
g ar
ĠS ed
ĠD e
Ġp as
Ġm ala
s a
e co
Ġri la
ul se
ta do
ig ita
ĠR o
ĠÂ «
Ġes tu
Ġki e
Ġn a
K i
Ð ¸
Ġte ks
Ġbon e
1 2
Ġl u
al u
Ġc er
r kaÅŃ
a b
Ġi om
Ġk ul
Ġtu te
Ġ19 9
ĠF ran
Ġj u
Ġgran da
. [
Ġe b
Ġki o
s ono
Ġk la
v u
Ġli a
b roj
/ /
Ġor gani
k la
Ñ Ģ
Ġ w
Ġal don
âĢ Ķ
ki p
f es
k te
Ġli gi
Ġf in
Ġpu bli
ĠP o
min is
Ġti on
Ġj a
Ġa d
z on
t tp
Ġ to
ta r
: //
la bor
Ġres pon
l ojn
E J
Ġde man
k lu
Ġl ern
ter a
Ġdi ris
Ġre dakti
tem pe
m aj
ti k
ĠÅĿ ta
Ġpos te
ĠÄī u
Ġl on
te co
Ð ¾
Ġan kor
Ġtro vi
Ġp e
Ġsig ni
ri ta
te jo
Ġk an
Ġes tos
Ġmul te
Ġu za
ka do
2 00
1 5
' '
Ġi lin
or i
Ġ ce
Ġur bo
Ġv in
ed i
Ġ ren
Ġartiko lo
Ġri ce
Ġekz em
z oj
g ita
Ġt er
n acia
Ġkom pren
ĠÄīi rkaÅŃ
os t
Ġsu per
L i
Ġl in
" .
âĢ Ļ
Ġtem po
Ġali a
Ġin di
Ġb ez
Ġn or
g ran
Ġs kri
k ces
re so
b la
Ġa kti
ĠP or
âĢ ľ
or g
1 7
Ġkel kaj
Ġap ar
Ġa fer
un a
Ġd aÅŃ
Ġankor aÅŃ
Ġ20 22
Ġre gis
Ġpre zen
1 6
q u
en o
m ar
m ojn
Ġn o
re dakti
Ġta men
Ġj aro
Ġm en
d ojn
Ġf ra
am a
or a
ga do
en a
t ran
Ġvo las
Ġof te
i r
f oje
Ġen ha
Ġvi an
Ġf il
ti gi
tu ra
Ġinter es
ro m
f ri
Ġk ri
" ,
D is
ĠU ni
roj ek
ci oj
EJ O
m as
Ġb e
k am
ĠE ÅŃro
an i
Ġpro duk
Ġparto pren
peran to
Ġpro p
s en
el oj
eb las
Ġm o
Ġv oj
Ġan g
1 4
M al
uj o
Ġi de
00 0
Äµ ojn
Ġa ten
Ġpro gra
ci ala
w i
ĠB a
L e
u t
] ]
Ġre z
Ð µ
er e
e lo
Ġ1 2
on oj
Ġkon stru
g us
Ġling voj
an u
Ġ raj
ti ka
Ġ Ð
Ġele k
k ur
Ġc en
ita to
Ġfun kci
in io
Ġk va
on as
Ġeks ter
Ġ1 3
m is
ĠÄīi am
ed ia
eb la
p as
âĢĿ ,
or d
f ek
tis toj
ĠÄĿ en
w w
i oj
Ġpl ur
ĠM al
0 4
Ġan d
ÄĪ i
al oj
Ġp lan
i taj
b ri
Ġlo ÄĿ
Ġkon si
1 3
Ġs a
an g
Ġti am
Ġdivers aj
v or
dan to
Ġpro pon
en co
ed er
e li
ĠC h
Ġor ig
K on
in ta
K a
Ġtu ta
t ru
Ġd an
Ġ1 4
z io
Ġ Äµ
Ġv ol
Ġa s
ĠS u
un i
ĠA li
Ġi u
à ¤
Ġmal f
Ġp ens
Ġg ru
ĠE l
aci o
Ġp ra
T i
ĠJ o
Ġha vis
ĠE k
e to
Ġvi vo
âĢ ¦
er oj
Ġsi aj
i d
Ġin stru
Ġsigni f
Ġs an
Ġ ajn
Ġf ran
Ġs iste
ov e
A n
Ġ =
ĠA ÅŃ
Ġg erman
Ġo fi
Ġre gi
P ro
Ġs tu
ÅĿ u
5 0
Ġsi mp
Ġp en
Ġmu zi
Äī o
am o
d em
u x
Ġsu kces
Ġel don
ĠJ a
m ul
Ġkom enc
Ġp rojek
Ġm ov
Ġper mes
ĠÄĪ u
Ġa mi
es pon
Ġper son
s ki
Dis kuto
ĠP ar
Ġpre ci
l er
c ento
k ojn
3 0
Ġekzis tas
T C
ĠS i
Ġk ol
Äī i
Ġo p
s tan
Ġde ta
um ero
k ra
Ġd en
Ġlan doj
c aj
Ġdi ras
g reso
Ġn u
j a
um en
Ġkiuj n
v os
Ġne ces
Ġde ci
t y
A l
g res
Ġmal pli
Ġb ona
Ġv a
van kam
Äī a
r us
is pan
g es
Ġpro ble
m al
Ġa ting
u ro
Åľ ati
Ġf aci
ĠS an
g aj
Ġsu fi
Ġsi tu
Ġsub ten
Ġ on
Ġk ur
as ki
d in
ĠI S
or oj
c om
Ġp i
li gi
lo gio
tegor io
Ġpre s
di ta
ÅĿ i
eb le
Ġra pi
Ġ19 8
Ġ[ [
Ġlan do
Ġ â
Ġpa ÄĿo
B N
M a
t ino
Ġtra du
ĠT he
g n
Ġs ol
s ek
e a
Ã ³
om i
aj o
Ġoka zis
Äµ on
Ġra kon
E l
E R
Ġk am
d us
c is
ĠP re
Ġap li
ter i
ĠI li
n ov
Â «
men to
Ġku ti
o u
Ġo b
Ð ½
Ġ20 20
ĠU nu
i ero
S e
Ġki on
k ajn
Ġka p
Ã Ń
P or
Ġpro ksi
âĢĿ .
Ġ ?
s u
Ġu zi
Ġf o
ti ve
Â »
f io
Ġ2 4
a le
ĠT EJO
ar d
ĠD i
a y
Ġ20 21
Ġjar cento
Ġek de
k toj
ĠL u
e le
ter o
ro s
Ġ201 7
kip edio
lo g
Ġpre zi
Ġren kon
p h
z as
ÅĿ o
Ġ Y
Es peranto
Ġteks to
Ñ Ĥ
Ġsi ajn
i m
tis to
Ġko le
il oj
Ġuz as
li to
kto bro
es to
eb ru
Ġin klu
ĠG erman
Ġv ar
Ġ z
ĠP er
Ñģ Ðº
Ġpov us
Ġnom o
te s
ĠT io
Ġ3 0
Ġes pri
u o
li a
Ġun i
Ġkon tribu
Ġdis pon
an d
K om
Ġpo po
en ta
pa ro
ĠJ u
re k
t roj
s k
- -
Ġe ven
Ġb i
un ga
Ġ us
Ġ ru
Ġmal gran
Ġm od
Ġekzem ple
Ġre tejo
Ġri gar
Ġg en
ra k
7 8
ĠâĢ ŀ
ĠIS BN
ri a
c an
Ġt ur
m um
i te
Ġ1 1
A r
sta taÅŃ
ajn e
p tem
Ġp la
N i
or e
Ġmon a
Ġkom er
van ta
R espon
Ġang la
Ġg vi
Ġs em
laj n
d io
Ġk var
Ġk tp
ĠR ulse
Ġestu s
Ã ¼
m per
ven o
ĠÄĿ ia
kci den
pa b
Ġs per
Ġfa re
Ġak cep
Ġka ÅŃ
ĠD u
j ek
ĠN ov
ĠF a
2 3
Ġ .
vi zi
Ġe fi
k ita
ti lo
Ġf lu
d s
Ġfar is
Ġ201 9
ĠU sono
t ras
Ġsci as
Ġki es
i lo
ala j
lo gi
Ġf ami
ĠR us
á ĥ
z ita
ig a
ci on
le ks
ĠS a
gus to
vo l
Ġhom o
Ġrez ul
od ia
v igi
ĠV er
ĠÄĿ us
ĠT amen
tan te
ĠT a
Ġv al
ri lo
ĠTi u
} }
r ojn
ebru aro
c embro
2 5
Ġa b
el on
anu aro
x i
Ġsi mi
Ġk res
m u
9 9
ti taj
Ġm ez
Ð »
ko v
ta lo
0 5
ÄĿ in
f on
Ġ201 8
3 3
Ġ {
Ġla sta
Ġb ata
f un
Ġku ra
Ġde zi
Ġv e
le s
Ġd on
ti va
ttp s
ĠB o
Ġni aj
Ġkon c
vi ta
Ġf ru
Ġkun labor
h el
re a
Ġe volu
ĠJ un
b ur
f u
li ta
ĠD o
ÄĿ ojn
Ġin s
Ġso ci
Ġpro te
Ġkun e
Ġpres kaÅŃ
Ġe kon
in oj
0 3
ra zi
Ġde v
Ġkon diÄī
Ġsam e
Ġ Ġ
sti tu
Ġ2 2
Ġam as
Ġfi lo
Ġg e
Ġne k
U TC
ptem bro
Ġdu a
P a
ĠS o
er on
0 9
Ġb il
Ġaper is
Ġ ...
Ġskri b
ĠVi kipedio
ed oj
Ġt uj
Ġ2 5
e la
ĠUni vers
2 4
Ġo ku
Ġpov is
Ġneni am
ĠD um
to lo
fer enc
ĠO r
6 0
Ä ľ
tu s
ĠR a
ÄĿ os
ĠO ni
om a
u re
p is
Ġvi aj
T O
Ġ is
Ġla s
Ġhistor io
Ġpo ten
2 8
Ġre da
ĠEÅŃro po
ĠA m
0 1
ĠaÅŃ to
pu bli
ar oj
ris kri
Ġ201 2
Ġ2 1
i ÄĿas
f e
Ġ19 4
i t
Ġ201 1
b aÅŃ
Ġpro fes
ĠP ost
Ġes pl
k lo
Ġpro fi
Ġvor toj
ĠÅĿ a
Ġh ej
Ġli bro
Ġp rin
Ġi mp
ĠH a
Ġe vi
Ġgra va
Ġbez onas
Ġa Äīe
Ġver e
Ġ *
o te
19 9
Ġtra di
Ġf er
k io
Ġan stataÅŃ
ri g
ã Ĥ
amen ho
Ġn in
ĠÄīiuj n
s tra
ĠR i
ĠP ri
per a
ĠVi du
ar an
Ġe d
Ġkons er
0 8
z aj
Ġ19 7
Ġa fi
aci oj
Ġkom ple
a ze
0 6
Ġv es
Ġb u
Ġvi zi
Ġinfor moj
u ra
Ġpa ÄĿoj
Ġmalf aci
Ġali an
s io
pa ra
ĠU n
Ġj en
igi taj
Ġi uj
0 7
Ġligi loj
Ġre t
ek z
Ġti a
al is
2 7
Ġartiko loj
ÄĪ u
tri o
ĠS en
ro me
es e
Ġf lan
n aci
Ġkonsi der
N e
da p
g ru
odia ÅŃ
Ġpa ÄĿon
Ġkomun i
Ġmal fer
ĠKi el
gra fio
vi du
D e
un o
ĠÅĿan ÄĿoj
A N
Ġinklu zi
k tu
Ġn umero
Ġm is
Ġde k
] .
a lo
Ġeb las
Ġsam a
Ġr us
t n
Ġsiste mo
pre zen
la do
p lo
Ġtem as
ks o
Ġu ti
es a
ĠJo h
Ġal ta
Ġmals am
Ã §
es tro
ig u
2 6
Ġp ren
r y
ĠN a
Ġti es
Ġkon ta
b ra
w a
an taj
istor io
ĠP ol
Ġop ini
i ÄĿis
l us
Ġkon tro
Ġs pi
Ġte k
P ri
S u
po ÅĿ
re ta
en ce
Ġci vi
ÄĿ aj
Ġtu t
em o
per is
da do
Ġvor to
Ġlabor o
i an
v es
Ġpubli k
ĠF re
Ġ201 3
ĠEs tas
Ġk al
k isto
Ġra di
ajn o
Ġvi de
Ã ¶
Ġdi f
so cio
c ojn
Ġ2 3
j u
ta la
Ġt en
ĠM o
s alu
Ġmili to
ĠAr ki
Ġ '
un d
te d
lis h
f en
Ġk ar
Ġinter nacia
Ø ±
Ġdo k
Ġa t
ĠÄīef e
Ġak vo
ĠC en
ĠInter nacia
k in
Â °
E S
Ġuza ta
b as
Ġtra duk
d re
p aj
da ÅŃ
ej oj
Ġn aski
b re
ĠP e
Ġnov embro
Ki el
Ġa re
Ġvi r
un do
Ġ <
ĠK un
Ġsignif as
ÄĿ u
Ġ er
amenho f
s kri
Ġfran ca
tan o
Ġk vankam
Ġ2 7
k cio
Ġvi d
2 9
Ġgerman a
Ġka pab
per o
Ġr ulse
Ġpro vi
l en
Ø §
de co
Ġplur aj
en ca
Ġad minis
Ġ201 5
Ġti om
P o
lo s
Ñ ĥ
Ġaper as
Ġkons is
Ġ X
B a
ĠK ar
te j
Ġda tu
ton o
do s
Ġd ia
Ġ Ã
l y
ter aj
t ris
ri gi
is i
ĠÄĪ e
6 6
um i
Ġtrovi ÄĿas
Ġk las
c as
Ġnom e
Ġs on
par te
Ġre vizi
ur bo
v ojn
ĠkondiÄī oj
Å ¡
ĠS er
Ġsen pa
ul ojn
Ġ201 0
k vi
Ġ y
Ġpreci pe
le co
Ġpoli ti
b ron
ĠKon greso
Ġgran daj
Ġden ove
Ġspe ci
de pen
k ar
res s
k uloj
Ġ201 6
ti ÄĿo
p ra
ÅĿ an
ÑģÐº Ð¸
Ġtiuj n
Ġmem broj
ko s
Ġdis vol
on e
ĠÅĿ ajn
ten o
Ġs tra
ita n
Ġmen ci
d ento
Äī as
' s
Ġili a
d ajn
a taj
Ġinf lu
es t
ĠKi am
ĠB er
era le
Ġvoj a
Ġpra kti
Ġlo ko
Ġte le
ĠD a
Ġm as
i e
ti gas
ter n
Ġfar as
Ġam baÅŃ
p os
tor oj
Ġkomenc is
Ġ +
om oj
Ġ201 4
t ina
v io
ĠT ra
Ġnov an
ĠVi ki
Ġta go
Ġre gu
ern a
ch e
Ġafer o
Respon di
ĠK o
z an
Ġmi an
or on
po zi
3 6
ĠÄĪ inio
Ġsi m
er ala
P li
Ġin ten
Ġsufi Äīe
ÅĿ a
nov aj
u a
Ġnov aj
b lo
b io
k t
Ġele kti
Ġe ÅŃro
Ġa ki
ri go
Ġor i
eb laj
Ġb y
Ġper sono
Ġgru po
ĠM u
ling va
Ġgran dan
ĠRulse ÄĿoj
Ġ200 8
Ġk os
Ġfaci le
Ġper io
Ġi ÄĿis
ĠR es
g h
à ¦
Ġpre fer
ĠA fri
pan io
Ġmal lon
Ġokaz as
Ġk lu
Ġesperan tistoj
Ġfor mo
vu o
ti go
tera turo
f lan
f lu
k ton
Ġra por
Ġfin an
Ġk vin
Ġrice vis
Ã ¤
Ġte mo
Ġpa tro
5 5
p un
Ġ taÅŃ
Ġa ga
Ġdeta loj
eri tor
salu ti
Ġkomen ci
j ara
ĠG ra
j n
Ġp riskri
Ġen i
la r
ĠS ek
ti gis
lan da
Ġkre i
Ġas pek
er s
Ĥ ¬
Ġmon tri
ĠS ch
ĠN or
Ġregi ono
Ġorig ina
ig n
F ran
al on
Ġling von
ĠF i
ĠB ri
po ko
Ġver sio
Ġre prezen
Ġali ajn
ĠLa ÅŃ
Ġk li
Ġuni vers
ĠÄī io
Ġk rom
a Äµo
Â ł
Ġven is
Ð ²
Ġhel pi
Ġka rak
20 11
om e
Ġni an
Ġ19 6
O N
Ġ2 6
Ġm om
4 7
m ita
er ka
ĠF or
Ġkon ata
Ð° Ñ
ta l
Ġprezi danto
Ġg as
Ġi on
Ġvo Äī
8 0
ti ÄĿis
ww w
Ġ ,
ur n
l or
ven is
g os
ra do
te ma
Ġkel kajn
me o
Ġd ona
ĠFran cio
Ġdis ku
Ġvi di
ĠEsperan ton
In ter
ĠB i
S am
ĠC o
Ġmul tajn
ĠK an
kon diÄī
em ple
Ġrapi de
em a
ĠT o
ĠD io
ĠD an
dek so
Ġi am
20 22
Ġri mar
. âĢĿ
pu la
tan ta
Ġvi rin
Ġprop ra
lo go
Ġi mper
tr ino
y s
l ono
Ġunu e
Ġu zo
ĠZ amenhof
Ġh odiaÅŃ
Ġide o
Ġli aj
Ġneni u
ÅĿ aj
r un
Ġ2 9
ĠJ e
g ojn
s kul
ÅĿ oj
ĠG ran
Ġdi ri
) :
Ġkuti me
ÄĪ e
tri lo
Ġri ver
Ġde cembro
Ġp un
3 9
ba ck
ĠS ci
ĠKom un
Ġprogra mo
Ġpli bon
du kti
Ġpo zi
ĠD is
va do
Ġ2 8
K aj
Ġ &
ĠGerman io
tan oj
Ġhistor ion
z aÅŃ
g lish
ch i
f ra
Ġmal mul
qu e
don o
unga ra
Ġen e
ĠP i
in ter
Ġmov ado
ferenc oj
ĠÄīe fa
Ġe li
tu jo
Ġfari ÄĿis
re to
dis kuto
Ġha vi
tegor ioj
Ġk ris
Ġre g
Ġ1 00
ã Ģ
di da
Ġt eritor
ĠH o
ĠI s
s pe
ĠÅľ i
men aÅŃ
A T
Ġli m
Ġb al
Ġf re
Ġe du
to ko
Ġâ Ĥ¬
um a
ĠM an
ĠG o
ÄĿ e
ad minis
Ġsimp le
s oj
Ġinf anoj
vi de
S i
t le
Ġmon tras
. "
E N
Ġf ino
. ,
Ġre ÄĿo
b laj
Ġo fer
Ġin dus
3 4
Ġapar ten
Ġm edi
_ _
Ġpos tu
Ġn aci
tis ta
Ġju lio
Ġmi l
K o
ĠK u
Ġo ktobro
ĠS te
tri ÄĿi
r ajn
Ġkul tur
Ġf oj
is ta
Ġ tas
k va
Ġmem bro
t m
as a
d ro
Ġtut mon
um an
Ġta goj
3 5
in te
ĠC i
Ġ19 5
ran o
Ġj anuaro
b an
is ma
Ġes ton
Ġe fek
mum e
Ġ200 9
en t
Ġh ispan
Ġdis vas
ĠÅĿan ÄĿi
Ġo kciden
Ġmala l
Ġa gado
ĠN o
D um
ve lo
Ġenha vas
d or
ka dem
k re
Ġre a
Ġ200 7
Âł Âł
k un
fer enco
Ġre kom
ar on
ĠÄĿ u
g ri
ĠF o
à ¥
3 8
Ġekon om
Ġvi dis
Ġili aj
4 8
n ova
3 1
Ġmem or
Ġes tra
v al
Ġb ri
li bro
ti c
# ]
ĠM e
Ġin te
in s
Ġcer te
Ġregis taro
A S
Ġv as
En saluti
Ġk lo
Ġsen depen
c tor
Ġa ran
ĠH el
Ġe bli
ĠVi r
Ġb an
anta ro
Ġkva zaÅŃ
Ġe ga
ĠRe gis
Ġl er
t ron
is h
Ġde kla
ĠV ento
Ġs es
Ġk ov
in to
Ġde vis
to li
la ro
ĠS ta
lan d
Ġman i
ĠKom una
ĠP li
ter ia
Ġprojek to
ĠI ta
Ġkomun umo
ar aj
Ġg aze
Ġf en
tan toj
ti gita
tru k
Ġb ru
Å Ĥ
Ġmar to
Ġorgani za
Ġafer oj
Ġjun io
Ġa ta
Ġk ru
ĠG e
pu ti
di Äīe
Ġde s
Ġs tre
Ġh er
Ġprezen tas
ĠA s
4 0
Ġdispon eblas
en toj
3 7
publi ko
Ġper e
f oj
ona to
ven as
ĠJ es
ki vo
am e
Ġinter naci
Ġm ur
kis toj
Ġap rilo
ÅĿ ajne
Ġvi ajn
Ġliber e
Ø± Ø
Ġk na
ris to
Ġce lo
Ġvol on
k ed
ĠEÅŃro pa
Ġm ajo
um oj
ĠMon tri
m ed
Ġpa ra
Ġespl or
v ig
ch a
E k
Ġkon kur
ĠB u
ÄĿ en
Ġte moj
m or
Ġpermes ilo
Ġapli k
ab lono
men toj
ĠB ar
Ã¡ n
Ġd or
Ġnom bro
Ġorig in
ĠÅĿta to
4 4
te lo
G O
Ġp an
ĠA tribu
kondiÄī ojn
Ti u
i ko
Ġklo po
Ġb o
aci la
'' '
ĠL o
In dekso
ks teraj
ĠAli rita
Ġres pek
Ġso cio
Ġ{ {
Ġ9 78
ber t
h ttps
Ġmals u
R O
Ð° ÑĢ
Ġpro fun
Ġkom pa
Ġf u
Ġesperan to
ĠaÅŃ gusto
Ġap ud
ĠG u
Ġse ptembro
Ġindi vidu
ĠC om
Ġperson oj
ĠH ispan
Ġf ine
z er
v ajn
ta Äµoj
z or
i aj
i ÄĿo
ĠÄĿen erale
ĠÄĿus te
dap tita
âĢ ²
Ġf es
Ġal menaÅŃ
a Äµoj
d am
tu re
t t
ĠAn kaÅŃ
ĠW ay
Ġser io
m edia
Ð ¹
Ġkul turo
Ġtro vis
Ġmor to
Ġti tolo
ĠantaÅŃ e
ĠÄīiu ta
Ġh ttp
bli ote
] [
in de
ĠR u
ar s
ma do
Ġfa kte
Ġob jek
m ino
Ġmal j
Ã ±
Ġ[ #]
M edio
Ġro man
Ġp ru
Ġlon ga
ĠâĢ ĺ
Ġnun a
Ġaldon aj
ti a
tu ala
el l
p s
eri ko
Ġk m
. )
ĠT h
Ġla r
Ġrila te
i re
tro li
si ko
ĠMa ch
m ov
ĠB razi
v ed
Ġh on
log ia
Ġpov os
adminis trilo
z anto
Ġbon volu
Ġfa bri
á Ģ
Le gi
Ġami koj
I S
Ġ200 6
= =
Ġ $
Ġmalgran da
ta roj
ul on
Ġdi vi
I loj
Ġl isto
Ġvi la
Ġmi aj
Ġte mp
Ġrevizi oj
ĠK rea
ĠL ing
Ġf la
b aj
Ġ io
lo va
ko l
p la
19 8
ula ro
Ġokaz os
ĠF in
Ġbon aj
ĠÅĿ ia
kon diÄīe
Ġliber a
Ġpo pula
ula ra
g ia
Ġe m
ĠKomuna Äµo
4 5
Ġgra vas
en te
Ġmuzi ko
Ġi den
ĠSan kta
d ia
ĠNe a
os iero
umen toj
a t
w e
Ġdatu moj
i ki
ĠP os
alu ton
M ar
en e
Ġen kon
dan toj
ĠPol lando
ĠAtribu ite
Ġkan dida
Ġuz kondiÄīojn
ĠP u
tre pren
3 2
ver si
f ine
Ġproduk toj
ig ra
Sam kondiÄīe
ti vo
ĠdaÅŃ re
Ġkor po
Ġaplik eblas
Ġle gi
tu ri
Mal novaj
Ġk van
ĠC on
Ġdev us
Ġki al
ter e
K la
dan te
p ita
Ġvi das
U nu
us o
Ġhom ojn
Ġsam tempe
Ġparo las
ĠN un
t ter
ĠU N
Ġd om
Ġfi r
g x
l d
Ġgra vaj
ĠEk z
Ġfami lio
Ġakti ve
P ost
ĠÅĿ in
Ġm ono
L o
kta do
Ġt ru
a don
ĠL on
Ġver ko
Ġp ron
Ġde pen
Â ·
Ġsci enc
Ġ Q
Ġsek s
N ova
te ks
ĠNea daptita
Ġen er
Ġti al
Ġed z
flan ke
Ġrekom en
f li
por to
ĠTi al
K un
ki taj
Ġperio do
Ġpro vin
Ġspe cia
ĠMach ine
Ñ ĭ
ĠNe w
ĠÄī am
ĠJ en
Ġha v
Ġre kon
g no
ĠH e
Ġman iero
Ġh i
Re troli
Retroli goj
Ġki om
ĠFre ÅĿaj
Ġd omo
Ġm erka
à ´
c er
an do
c t
ĠÅĿanÄĿoj Medio
administrilo Indekso
Ġrevizioj Retroligoj
Ġtek ni
ĠRegis triÄĿi
di taj
T ra
Ġma le
Ġs pa
Vi di
ĠRegistriÄĿi Ensaluti
Ġdu on
Ġtu tan
n et
ta Äµo
um on
ha vo
L ing
Ġrenkon ti
Ġm ova
Ð ·
Ġbon an
Ġlon ge
Ġti aj
Ġus ona
ĠaÅŃ skul
v ia
pro ksi
ig on
ĠRus io
tar y
Ġsu pro
Ġh e
Vi du
ter oj
ÄĿin taj
ts ch
Ġprin ci
Ġf eli
tri kto
ran s
Ġofi ciala
R i
Ġres tas
ĠPre zo
ĠT ur
in on
pri lo
Ä į
ĠaÅŃto ma
4 9
Ġmin u
Ġme to
Ġmon d
ĠS in
lo ven
f aj
l ino
Ð ³
Ġkla ri
le o
Ñ Į
p ojn
men t
Ġpens as
A li
Ġz or
isi ono
Ġc x
Ġen tu
Ġunu aj
Ġf oje
Ġling va
ĠLe gu
in taj
ĠWay back
us e
Ar tiko
ĠT em
âĢ ¢
Ġli an
Ġnov ajn
vigi te
Ġp ol
d ra
ĠU r
7 7
Ġfilo zo
an tojn
ci aj
b is
ĠEsperan ta
Ġvi za
k er
Ġre li
ĠR om
si on
tar kivo
Ġva ri
Ġso la
m er
Ġmor tis
Ġpre le
Ġde fen
ta ta
b rojn
A ÅŃ
Ġvirin oj
ĠpaÄĿon Malnovaj
Ġver koj
Ġsu fer
ĠB on
Ġre ali
ĠArki vigite
bo ok
Ġur boj
z ar
Ġver a
Ġg re
Ġpoli tiko
4 6
mi lito
Ġspe ciala
u ri
ĠK or
ĠÄīi on
kip edia
te k
Ġes per
Ġkonc ern
Ġfunkci as
Ġre tarkivo
S er
ĠUnivers itato
un io
P re
Ġinter v
Ġd onas
Ġper s
A R
5 8
m pi
b el
Ġmal kov
ĠÄĪ ar
tem pa
7 0
5 6
b al
z ojn
Ġ co
Ġen trepren
k ro
v el
Ġde mo
Ġ 000
ĠF on
b r
Ġci r
Ġm esa
te mp
Ġka fo
Ġal t
Ġs truk
du kto
Ġ5 0
M ul
ĠÄĪi uj
ter na
Ġ- -
N or
Ġb lan
Ġeldon o
Ġnom on
] ,
m em
le gu
Ġ Å
di ÄĿis
K io
Ġh ungara
Ġs ti
os i
st r
B il
Ī Ĵ
Ġneces as
ka ze
ĠW il
Ġsu po
Ġunu an
Ġfor las
Ġvi v
âĨ Ĵ
g le
Ġre kte
Ġpos ed
Ġmal bon
Ġa ser
Ġ200 5
I N
Ġh ttps
Ġde tru
Ġdeci dis
ri zo
an s
Ġmili onoj
Ġd ol
ig oj
ig h
Ġjar ojn
Ġkontribu oj
es peranto
ĠT e
Ġf ebruaro
Ġmal hel
ĠLi ber
Ġdeman doj
p ens
z ono
ĠM ajo
g er
La ÅŃ
j oro
ĠS ur
Ġinkluzi ve
Ġma teri
Ġpro ce
5 9
Ġe t
ĠG re
Ġfor ma
ĠEsperan tujo
ke to
S ed
Ġsig n
gn os
vanta ÄĿoj
gra ÅŃ
Ġuza taj
Ġf ini
Ġnor ma
k vo
for ma
Ġinfor mojn
Ġri fu
Ġbal daÅŃ
Ġkon gres
Ġres tis
Ġpo la
k tas
tan to
Ġin vi
9 0
t man
Ð ´
ÅĿ is
En havo
Ġan ali
ĠAfri ko
li oj
Ġan on
Äī is
in as
Åľati Åľati
Ġpar toj
ĠÅĿajn as
Ġdon is
Ã ¨
kon s
P ar
ÅŃ tra
li p
Ġpoli tika
ĠMar to
Ġ3 1
tra do
Ġraj toj
Ġproble mo
den o
Ġ %
D an
st re
Ġfun t
a re
Ġnom ata
ĠÄµ us
A L
ĠÄĿ oj
Ġkon as
Ġc om
Ġsukces is
ĠK rome
Ġpar ti
Ġa mp
ĠBrazi lo
p x
âĢ İ
ci klo
ĠO ri
j oj
ed aÅŃ
ĠM os
ta ra
Ġpopo lo
ar y
Ġs pek
Ġa po
ÅĿ ita
ĠRes publiko
Ġret poÅĿ
Ġhel pas
n g
s ka
z ia
te con
Ġsenpa ge
ÄĿ inta
Ġregis tri
Ġe poko
c isto
Ġdi re
Ġevi den
ĠaÅŃ toro
Ġmom ento
f t
4 1
Ġja pan
Ġfari ta
tur aj
j or
Ġlas taj
ĠÄĿi aj
ĠA d
k res
j on
Ġm aj
pa ÄĿo
ĠE tern
ĠM ul
N o
por t
Ġar b
gan te
ks a
ĠB el
f ar
Ġparo li
Ġenha vo
Ġd oni
Ġkon tin
ĠTi el
ĠN u
Ġdi pl
Ġ ;
ci e
Ġkom pon
urn al
E L
Ġre tej
f an
7 5
Ġso cia
in da
Ġartiko lon
Ġg la
V en
l ern
ti ÄĿas
in aj
8 8
Ġtradu ko
vi d
Ġgra ve
Ġan tik
le zio
ĠJ am
di ka
for mo
ĠU K
Ġreda k
duk is
Ġven as
ĠV en
ek s
vi l
Ġpri va
Ġkon du
Ġapar te
ÄĿ an
ĠO ktobro
ĠKomun ejo
Ġkla re
ĠÄīef urbo
ter io
Ġfor ges
I V
li ber
iste mo
ĠO n
Ġkomen co
Ġhom a
es toj
ce jo
f te
ĠU kra
le y
S aluton
il on
c al
Ġinf an
Ġt h
Ġbez on
Ġre ta
ig os
Ġel sta
Ka tegorio
ĠE le
Ġtri a
li go
ĠTi uj
Ġvoj o
Ġler ni
ce book
Ġti en
i ro
Ġu zis
) ;
4 3
os e
F a
7 6
ĠJ an
ĠÄīe es
5 1
8 6
Ġling vaj
ri la
Ġver ÅĿajne
Ġkons en
ord ina
Ġi un
Ġkompren as
Ġkon cep
ĠH en
Ġfi zi
Ġ| |
in t
ÄĿ er
ÄĿ us
Ġi ma
Ġ âĨĴ
Ġdemo kra
Ġh or
Ġdezi ras
Ġplen um
Ġser vo
Ġdivers ajn
ĠL an
oni ka
per mes
gi p
Ġc on
Ġtem pon
Ki am
P er
fi r
e w
Ġan ka
ti kaj
don i
Ġek vi
c y
as o
V er
Kla rigo
g y
Ġvi von
ctor y
Ġsitu acio
tri a
ĠA ra
An taÅŃ
ph p
z y
um ento
l isto
Ġli teraturo
Ġlo koj
ĠF ebruaro
c s
Ġmul t
4 2
p io
Ġmal b
ĠAn taÅŃ
D i
Ġjun a
la ÅŃ
ke co
S ek
Ġraj tas
Ġb lo
Ġma lo
Ġdisvol vi
ĠPa rizo
Ġce las
H istorio
p lan
Ð ¿
Ġc xi
ta li
Ġekz amen
Ġrila toj
El ÅĿu
Ġrespon de
Ġes ta
Ã ł
ĠÄĿen erala
u tsch
Ã ¢
Ġp le
Ġre volu
T he
om b
ĠI mper
Ġating i
ĠP la
kom pren
Ġ ris
be to
Äľ i
Ġa gnos
ĠEtern ulo
ĠÄī es
ĠC a
Ġis la
ĠPo li
fer en
ĠC ar
Ġdis ting
Ġa so
e te
ĠB en
Ġver kisto
f f
t raj
ez io
c tion
Ġrespon dis
Ġg ajn
ĠOr gani
tan a
× Ļ
g ajn
ĠÄī a
ĠA prilo
ĠN ova
ĠS am
ati on
Ġin i
Ġmal var
Ġsta tu
ĠUn io
g re
Ġhispan a
7 9
f ia
Ġh aÅŃ
Ġn en
Ġi ris
teria lo
ĠUnu i
ut mon
Ġekon omi
Ġaparten as
Ġvol is
c x
toko lo
Ġkonsis tas
H a
à ®
Ġe ten
ĠL ern
20 21
a is
ĠHispan io
Ġs om
tu lo
Ġ x
Ġre ligi
da ta
Ġt rin
ĠEsperan tista
L E
F or
tu ga
kadem io
Ġus on
Ġuza do
ÄĿ ejo
il l
Ġdis kon
ĠM in
for moj
Ġuz anto
da to
la mento
ĠaÅŃ tor
du ko
5 4
ĠN eder
ĠD em
Ä¥ a
8 9
Ġne pre
ber g
Le gu
ĠP ress
Ġamp leks
Ġde l
Ġfa k
ĠL in
Ġpropon o
Ġse p
Ġan i
y a
ĠS ud
ÅĿ as
Äī u
Ġa ra
i ka
ĠRo tary
h ttp
ĠPos te
ä ¸
ĠKa tegorio
Ġ4 0
Ġligi lo
ata l
5 3
Äī aj
h u
el kaj
Ġrus a
ĠI J
Ġpubli ka
Ġmalsam aj
Ġbe la
ĠIta lio
Ġdi rek
ĠloÄĿ antoj
Ġn as
o p
d ri
Ġrice vi
Ġin stitu
ĠUni versi
Ġin sta
Ġstra te
Es tas
inde x
B on
6 9
Ġre vuo
kom uni
Ġl is
te ko
ing o
ĠM ala
Ġkre is
Ġ200 4
Ġtro v
ĠâĢ ¦
Ġb io
ĠJoh n
Ġriver o
R o
Ġspi ri
Ġob ser
Ġnun tempe
Ġpo ÅĿ
gan toj
T a
es ta
Ġpartopren is
Ġcen tro
de jo
e con
Ã³ n
lan taÅŃ
Ġkap ita
âĢ¦ ]
b las
ĠÄīef aj
Ġf aj
ĠM as
Î »
ĠB e
le gi
Ġe ge
Ð ĳ
be lo
ze o
Ġkon fli
Ġt ero
or to
ri ch
Ġa ku
Ġpartopren i
ĠA u
Ġe ki
ĠÅĿ ar
N a
Ġdeman dis
Ġplen a
per i
Ġsem ajn
h an
Ġpoten co
Û Į
Ġh oroj
Ġlabor on
ÅĿ ino
m ig
Ġti to
fer o
Ġde se
t z
ver se
Ñ ĩ
ur oj
Ġi a
ali e
n am
Ġ20 00
Ġ[ âĢ¦]
R I
em oj
Ġk as
ĠÅĿta toj
Ġal por
Ġele kto
ĠA leks
Ġsen di
Ġsek ure
vi ctory
Ġb ir
Ġgru poj
Ġor don
Ġskrib is
ĠS tu
Ġn acia
te le
Ġo per
Ã º
di re
Ġper fek
ej on
Ġrakon tas
7 2
Ġpa trino
tur oj
Ġprop ran
Ġfre m
Ġsta ri
Ġal vo
Ġeven toj
Ġopini as
Ġre sta
Ġre la
Ġro lon
A fri
p g
van o
Ġte amo
Ġating is
Ġeks ci
b ojn
ĠTi am
p ov
U ser
c istoj
Ġtro vas
for m
rin de
Ġmal nova
ÄĿ anta
bli o
cen toj
mul to
l ini
c ed
Ġkre das
c u
f re
Ġf al
j e
te l
ĠH er
Ġver kis
in toj
f ono
wi kipedia
Ġfil mo
da Äµo
Ġ18 9
Ġtre jn
Ġligi lojn
è ª
Ġneni on
um e
ma po
pun kto
Ġli broj
Ġdeman do
ri gar
Ġta gon
Ġh ar
ĠantaÅŃ a
Ġa para
Ġj us
Ġkon ten
5 7
ĠĠ ĠĠ
5 2
Ġedu kado
ER GO
ĠK ol
om pan
ĠdaÅŃ ri
ĠS vis
Ġde ks
ra pi
h am
or k
Ġkompren i
ĠV o
za iko
ta don
ĠCen tra
M on
ï »
Ð ¼
ĠE x
ĠAÅŃ gusto
Ġmez e
Ġe ÅŃ
ĠB ul
Ġo kuloj
de lo
Ġc eloj
T E
Ġmona toj
Ġvir ino
Ġorigina lo
pa ri
Ġsimp la
Ġinteres a
ï» ¿
tion al
ul ino
ciklo p
ĠB al
ad io
Ġkole kti
Ġp ez
m onato
Ġproble moj
Ġproksi mume
ti tle
Ġprofi le
Ġg u
ti ke
ĠloÄĿ antaro
Ã¼ r
ĠÄī ina
fi ko
ĠKon si
gan to
Ġh al
tr y
Ġar meo
Ġs tran
lan toj
ĠB ur
Ġgen er
man i
m io
Ġt raj
Ġare o
Ġvor tojn
ta ri
Ġfor ta
ã ĥ
ĠÄľ en
z u
ĠN ur
ĠG a
Ġsitu as
ku lo
ĠP ra
ĠÄĪi u
tur on
c el
ĠU TC
Ġproksi me
Ġfor te
ri el
or ld
li an
ĠAn g
y n
Ġak ompan
Ġc el
ĠJu lio
s tro
Ġv ali
ĠP lej
ĠL ia
Ġafi ÅĿo
èª ŀ
ĠBri tio
ran te
ĠIn don
le kto
Ġk oro
Ġfru e
ĠJun ulara
Å Ħ
ĠV il
b ar
duk toj
Ġven on
ĠEkz emple
Ġre ven
ĠH ar
h r
ig ni
Ġman ÄĿa
em on
ĠG i
Â ²
ol di
ĠÂ ·
[ [
ĠKom itato
ĠNov embro
L as
Ġaldon i
Ġ ran
ĠK ul
Ġnaski ÄĿis
da ro
li taj
zi danto
ĠUniversi ty
lon g
Ġbata lo
Äī oj
Ġar ki
Ġinterv ju
K U
ĠP as
Li ked
Ġlabor is
Ù Ĭ
ĠUnivers ala
Åľati Liked
j pg
Ġkur so
tem po
Ġeven to
ars ov
Ġfa vor
ElÅĿu tita
? âĢĿ
Ġm ini
Artiko lo
ur aj
Ġcen tra
gra fi
Ġni velo
Ġa u
Ġpar ton
O ni
ĠH istor
E ksteraj
Ġpropon as
Ġmod erna
u e
Ġb or
Ġpopo loj
ĠC or
Ġrezul to
P e
â ĪĴ
li gas
Ġkonsi d
ĠN acioj
-- --
for to
Ġ201 11
Ġgran de
Ã ¥
Ġge pa
Ġedz ino
ĠK io
P ol
Ġbe le
k tis
ĠT ri
un g
Ġkon vin
ÄĿ ado
a to
n er
ha t
z ajn
ma il
ĠB an
Ġar g
ti vaj
Ġfin fine
T A
wi tter
gra mo
Ġk anto
Ġpostu las
Ġp p
Ġe ta
voj a
Ġd ra
Ġpa co
ĠSo ci
ĠTa go
ĠJa panio
pa Ã±
ter on
p il
Ġteritor io
Ġap ro
Ġvi vas
Bil do
Ġmin is
Ġn aj
ÅĿ ta
Ġminu toj
n is
m s
Ġmala mi
ĠK vankam
Ġskri bi
ĠR eda
Ġprojek toj
Ġsub skri
Ġi m
Ġma lantaÅŃ
ĠJ anuaro
Ġgra van
ĠE r
ĠV a
Ġaki ri
Ġpre zo
Ġflan ko
Ġsim bo
7 4
th er
oldi d
B i
Ka tegorioj
ĠW i
ĠR en
M o
li gen
bur go
er ojn
S en
b in
D E
âĢ ³
Ġini cia
unga rio
di lo
Ġprovin co
Ġrice vas
ĠKon gres
m edoj
aci on
Ġka f
Ġkomun a
6 4
mi ÄĿis
Ġba lo
ĠE U
ĠÅĿa tas
Ġka tegorio
Ġo kul
ĠV ol
en oj
Ġmal dek
n es
ver a
ĠEn glish
ki el
ĠA kademio
Ġm ina
ĠE ble
van te
Ġs al
ĠaÄīe ti
ci ojn
ĠN ord
Ã ª
b lan
Ġ200 3
O r
Ġpro gres
stan coj
ang le
Ġkon greso
Ġtran kvi
En glish
ĠGran da
F i
ï ¼
to so
u p
ok ra
ĠH in
6 8
po li
Ġdis tan
c ajn
Ġde diÄī
Ġmalfaci le
gu lo
Ġ )
Ġor d
Ġra dio
ma ta
Ġpar tio
ov i
Ġka toli
Ġv an
Ġni ajn
tu gu
Ù Ħ
ĠLe gi
m os
Ġj es
Ġfa kto
or is
Ġf ama
ĠGe or
ĠSe ptembro
Ġmal permes
tan taj
ĠViki media
lu a
ja re
W iki
Ģ Õ
Ġ200 2
m b
ĠE d
Ġsen du
Ġ ch
li da
Ġti an
ĠS h
e ca
Ġtem pera
ĠT er
ta kto
ĠH istorio
Ġtran si
Ġmal ri
Ġ ''
Ġmalfaci la
ĠK e
ch en
Ã§ ais
Ġri pe
Ġprogra m
Ġ !
ti tu
Ġakti va
Ġf am
6 7
ĠM ia
Ġvi ro
A Äīe
b y
+ ]
ciklop edio
ĠM em
Ġte or
Ġkomen ce
M E
Ġakti v
Ġlo ÄĿas
V I
u ea
e do
Ġ ron
Ġ[ +]
es peran
Ġna turo
Ġimper i
{ {
Ø§ Ø±Ø
Ġsu ges
Ġli tera
re o
Ġhel po
Ġplibon igi
f is
Ġan ta
kci dento
t uloj
Ġgra ma
8 7
Ġinter na
Ġi ri
za do
te bla
Ġn es
g ro
mi taj
Ġplen e
ĠD osiero
Ġmalgran daj
Ġlo kon
kciden ta
k al
d amen
ĠâĢ Ŀ
kur so
A socio
Ġkonc er
O R
ki loj
Ġsta to
ĠÂ °
Ġri Äīa
Ġkonser vi
C i
re t
J en
m m
Ġkom puti
ling vaj
ĠDe cembro
Ġa fri
ĠEk de
Ġhel pis
Ġpens is
lan daj
us a
ĠImper io
ĠUnui ÄĿintaj
J o
Ġne kon
ĠC e
T T
Ġa go
Ġh o
i ri
ig ante
Ġparo lis
m ajn
ĠÄīi un
ĠV al
Ġb ra
6 5
e toj
Ġoku pi
em i
ĠVir tuala
vi do
Ġesperan tis
Ù Ī
Ġofi cia
Ġmal pe
Ġlo ka
ar ki
Ġtek no
Ġi tala
Ġ5 00
ĠV arsov
Ġkompren eble
Ġta ks
om ati
Ġval or
Ġpro dukti
Ġkomen toj
Ġklu bo
Ġd un
Ġg aran
ĠÅĿ ajne
bur g
Ġfor igi
un da
Es peran
Ġvi roj
ĠÅľ ablono
Ġpro dukto
ÅĿu tu
t ta
li gita
Ġfor to
Ġiom ete
n y
Ġe pi
gan ta
c em
Ġevolu o
8 5
L u
Ġmon tris
ĠU zanto
a k
ĠM ek
Ġsigni fo
Ġkor ek
Ġmod ern
U r
AÄīe tu
ĠM or
ĠÄ ´
es o
Ġsci i
Ġkon sta
ĠPo la
! âĢĿ
Ġkons ci
Ġekonom ia
ĠEsperan tistoj
Ġa mo
Ġsen tas
f ini
lan ds
zis tas
U N
ku li
Ġli ver
ĠO fi
Ġkon fir
c ado
Ġar to
ĠN acia
Ġmalf ru
Ġa do
de bla
zi taj
Ġter min
à ¸
gru po
lon ge
C o
h tm
ov et
d li
ĠM edia
ĠB os
Ġinfor mo
Ġfor moj
es ti
Ġplur ajn
Ġn um
Ġv un
Ġna tura
ĠC er
Ġregi onoj
ĠJun io
ro w
Ðº Ð°
Ġsek va
Äī on
Â» .
ĠT re
Ġvi du
M O
Ġci fer
tra ro
a u
e Å¡
Ġmal for
pozi cio
ĠE gip
k le
ka p
Ġsek reta
d y
um ado
b ita
Ġokciden ta
L I
Ġves per
vo le
Ġel sen
Ä¥ o
in ita
e ta
d igi
ĠE ks
mi ÄĿas
æ ľ
Ġ( "
mov ado
ĠIJ K
Ġle g
Ġlabor as
Ġestra ro
Ġ #
tra ÅŃ
J un
ka Äµoj
1 00
Ġk ro
ĠT utmon
Ġpro mes
al l
s ter
ka lo
ĠKi al
Ġko pi
Ġor gan
ur on
om on
ĠA zio
di ÄĿas
Ġinter alie
Ġevi ti
Ġdis trikto
Ġin sti
L A
s pa
Ġtrov eblas
Ġsek ve
ti ÄĿi
Ġf ina
Ġman kas
il ojn
Ġh oro
ven on
Ġorgani zo
Ġsoci aj
p loj
paÃ± ol
Ġredakti ta
ĠS al
×Ļ ×
ri an
Ġ Î
Ġkri ti
ĠFin n
h asa
med aj
r oni
mi lo
Ñ ı
ĠNeder lando
Ġg eo
k taj
Ġvor ton
D o
Ġrulse ÄĿo
es ko
kon to
u zi
Ġs tri
Ġnom oj
tis mo
tri medaj
Ġfon to
and ro
Mul trimedaj
Ġunu o
k y
Ġb en
Ġsan go
H el
æ ĸ
ab lon
Ġni v
Ġparo la
N ov
Ñĥ Ñģ
P os
om as
Ġsam an
Ġs p
Ġg ar
ĠF er
ĠT aj
S o
ĠL as
Ġpartopren antoj
J u
u ti
N un
Ġdu o
20 20
bi le
Ġs cen
Ġpre z
Ġ200 1
Ġpri zor
Ġm et
Äī jo
ĠSu b
Ġentu te
Ġb ran
j i
h ar
on g
ĠIn stitu
f taj
ka ra
Ġ199 0
li on
Ġte a
ĠP an
__ __
S a
Ġproduk tado
eni u
7 3
Ġkonta kto
Ġsur fa
Ġsek so
Ġelek tis
Ġd er
Ġdok umen
Ġefek tive
Ġre ÄĿi
Ġsci is
Ġkarak teri
ti ga
Ġami ko
ĠT u
Ġtutmon da
tik isto
7 1
Ġekzem plo
à¥ Ģ
ĠÅĿan ÄĿo
i ris
ĠKon s
ĠAli aj
à ¨
lu bo
ka ro
Ġinter kon
ĠB la
P lej
k tojn
Ġlon g
bliote ko
Ġspa co
Ġmon on
Ġuz antoj
Ġm aro
6 3
N ia
Ġs to
ĠI ru
l l
Ġla si
Ġdis kuto
R A
ed u
ĠÄĿu u
ni ve
K O
Ġk antoj
ĠÄ ¤
Ġd osi
ĠÅĿ ul
Ġpun kto
g lo
Ġme ti
Ġkva li
J a
Ġprote kti
Ġmedi c
i ÄĿi
l om
ta taj
ĠE du
w o
ĠF acila
ĠAr men
c z
, âĢĿ
s ona
ĠA mi
Ġpermes as
Ġsol da
9 5
Ġin ves
Ġs un
ĠS pe
vi ce
ÄĪi uj
De utsch
ĠKom uni
Ġle vi
b il
Ġinter ÅĿan
Ġtrans por
T rans
tu o
ĠÄĿi an
Ġesperan tisto
z antoj
Ġpre mi
in an
par to
tali ano
pro duk
em aj
Ġ0 2
ĠMar tin
Ġide oj
g ne
Ġk rome
Ġ os
ÅĿ to
Ġta b
ov o
Ġes cep
Ġor do
Ġb as
Ġmal proksi
ĠantaÅŃ en
Ġs alu
Ġproble mojn
va li
ur is
ĠA peris
Ġfir ma
gi on
Ġinter pre
ma ro
pl en
li gis
Ġnen io
20 19
Ġoka ze
Ġgran d
Ġkomenci ÄĿis
Ġkna b
Ġm us
Ġal terna
ĠJe an
men ta
A peris
Ġnova Äµoj
ĠA socio
Ġhom aj
ĠKom isiono
G ra
Ġling vojn
al d
Ġcivi li
Ġeks tre
ĠArki vita
Ġre to
ÅĿ on
ĠP l
F acila
Ġkel k
ern o
f ron
Ġv ek
p to
kul turo
D O
Ġmal graÅŃ
Ġpri labor
Ġnom iÄĿas
ĠPa ul
Ġafi ÅĿoj
Ġ 00
ĠC am
t rin
Ġpren is
Ġfun damen
Ġkva lito
Ġvila ÄĿo
Ġf ig
Ġs te
Ġsiste mon
Ġkvan to
ĠReda kcio
Ġser Äīas
Ġha vos
b en
Ġkole kto
s an
ordina toj
ĠR adio
Ġplej parte
pl y
Ġri medoj
Ġkun me
Ġdu ono
logi aj
ĠHel po
os a
Ġpreci ze
din da
ba ra
ĠTi e
Ġbil doj
ĠB ra
ko do
so lu
Ġpar te
Ġsimi la
ĠB ona
ĠUn esko
on to
Ġme ta
om io
ĠPar tio
Ġpe tas
ĠPe tro
ĠS AT
Ġkon cen
ÑģÐºÐ¸ Ð¹
G eo
ĠH u
Ð ł
Ġd ama
ka pab
Ġesper as
ga don
Ġjun uloj
Ġka tegorioj
Ġunivers ita
Ġa ro
Ġka zo
h en
Ġn eder
gu a
ĠMon da
Ġsci enca
8 4
ĠLa bor
lan te
ci an
ĠN umero
Ġpoliti kaj
Ġteks toj
Ġili an
Ġekzis tis
ko po
Ġn ig
Ġindus tri
ĠS lova
ĠRulse ÄĿo
edaÅŃ rinde
ĠC ol
st ron
ar do
Ġar me
g erman
oj a
ĠS ovet
R a
ĠM aro
kar to
Ġen ciklopedio
ĠEl ÅĿutu
Ġsubten i
ĠDu a
Ġ taj
Ġ6 0
po la
ĠMedia Wiki
ĠÄĿus ta
Ġkris tan
Ġinternaci aj
Ġkompa re
Ġka po
Ġsem ajno
ĠaÅŃtoma te
o ur
Ġlo gi
mum a
Ġde venas
ĠC as
Ġa dap
Ġte s
Ġrela tive
ĠW e
ÅĿ e
ĠV in
Ø§ ÙĦ
N eder
Ġv on
ĠK risto
Ġpa ci
æ Ĺ
Ġl um
Ġli bron
p p
Ġap en
Î ¹
8 3
Ġkom b
Ġ Ñģ
Ġtradi cia
Ġb razi
E K
po lo
n io
ka Äµo
Ġins ulo
6 1
tion s
ĠâĢ İ
Ġi ras
Ġkunlabor o
I taliano
Ġku ke
Ġrigar dis
Ġ ras
ĠB ara
Ġen me
Ġma terialo
Ġtrans for
]] .
Ġmalj un
6 2
re co
Ġprezen tis
ti an
Ġn ok
ĠG aze
Ġa ux
ig ado
ĠK am
Ġafer ojn
Ġmen so
Ġdepen das
Nova Äµoj
ĠvoÄī don
Ġmalal ta
Ġh un
Ġsu da
Re ferencoj
Ġki a
Ġstu den
Ġka ra
M an
lan o
Î ½
us te
Ġnom ita
Ðµ Ð»
Ġnom as
Ġproce zo
Ġki aj
< /
Ġgre ka
Ġg x
A d
ÄĿ ante
voj o
Ġadminis tran
zita n
ÂłÂł ÂłÂł
Ġv ig
lo ko
Ġtra kta
Ġal venis
Ġ0 4
ba ze
tu ale
tigi taj
Ġsu pre
Ġjar on
ĠSu per
Ġte o
Ġeki pa
Ġa vanta
Ġinf ano
Ġinkluzi vas
w s
ĠM edi
Ġpo eto
Ġ0 9
ĠR aj
Ven do
ĠMa ria
Ġfar u
ĠÄīiuta ge
em e
ku la
Ġmalb ona
Ġamas komuni
S D
S pe
Ġlasta foje
J e
Ġori enta
Ġeks plo
Ġvor taro
Ġteks ton
Ġofer tas
ti me
Ġe mo
Ġkon ataj
Ġg ri
es sa
Ġsin joro
æĸ ĩ
Ġkon ek
Ġinter n
b ol
á ŀ
Ġdiskon igu
d omo
lo ke
ĠD ek
Ġkre ita
Ġprezen ti
Ġre cen
i p
Ġpi ed
ma to
Ġfoj on
Ġkom pu
lan ta
Ġre venis
ĠMul taj
ĠÄµ urnal
Ġkam po
Ð ±
Ġt or
Ġeks p
em ble
di ÄĿo
ĠeÅŃro paj
Ġnor da
Ġapen aÅŃ
pren is
Äį ina
Ġreli gio
Ġmon don
s ula
ĠSer vo
Ð¾ Ð½
Ġ qu
Ġa via
Ba hasa
ĠK re
ĠÅĿ ton
vi kio
Ġsek vas
Ġali ÄĿi
ĠB lan
Ġb estoj
Ġmar bor
Ġkul tura
J es
ling vis
i th
ĠaÅŃ dis
ĠW a
Ġn er
Ġlern ejo
Ã© s
Ġmerka to
Ġs or
ĠAm eri
Ġkom panio
ÑĢ Ð¿
ä¸ Ń
tra Äµoj
ÄĿin toj
L T
ĠP IV
. ",
Ġno kto
Ġdan ÄĿ
enc oj
Ġlabor i
Ġcer ta
ba to
ĠFran cis
ĠJa pan
ri taj
li am
Ġmalmul te
pl ena
Ġspe co
200 5
O M
ĠIndon es
i to
i de
ta d
Ġapar ta
ĠK as
Ġin str
Ġman ko
Ġrila tas
ĠJ er
f ran
g na
r ono
Ġrez er
b ek
ven a
ĠÂ» ,
Ġkom ita
Su b
ĠBa tman
8 1
Ġpar tn
U ni
Ġhistor ia
j na
ur an
b ran
Ġespri mo
ĠS pi
ĠE Äī
Ġ199 9
Ġm ek
ine o
ĠK elkaj
Â» ,
Ġindus trio
? ?
e v
ts ki
Ġekonom io
Ġpla t
ĠK os
Ġlern is
ten e
Ġmona to
Ġa socio
Ġkon fu
ĠF ri
ti l
Ġmallon g
ling vo
Ġadminis tra
Ġpe tis
Ġmi ajn
Ġlo kaj
ĠT or
Ġrespon don
Ġgaze to
Ġy ou
ĠOrgani zo
Nor sk
æĹ ¥
g al
da tu
ĠPro duktoj
ĠKan ado
Ġs kla
Â Ń
ĠÄµ e
Ġde vos
vi taj
Ġsub ite
tra Äµo
ka ta
ĠB il
d amo
C on
Ġvoj on
Ġjapan a
Ġimp res
za Äµoj
Äī an
ani an
ĠInter na
Ġkonsider as
ti voj
Ġf rom
Ġba zo
Ġspecia le
fi ÅĿita
Ġsper to
Ġre ÄĿ
ĠAÅŃ s
Ġtrejn ado
Ġ ~
Ġ @
ĠKom pu
Ġvide o
Ġs por
Ġur bon
ĠCh ar
enc aj
Ġpre ter
tor a
lan to
tri ta
Ġle gis
ĠN ia
Ġ3 5
Ãª s
ĠÅĿ ablon
Ġre ci
ki e
do l
ĠAn d
Ġa te
9 8
Ġkon duk
Ġantik va
Ġsur pri
R et
Ġs tilo
Ġsen co
h er
à ²
ĠV ia
Ġs ove
ro mp
ĠI r
n om
Ġma tema
Ġdeta laj
mp le
ĠLiber a
lan dan
Ġperson e
Ġm edio
ĠD E
k tan
Ġorigin ala
w er
ch o
gra fia
tik ed
o gle
Ġbil do
ĠE ksteraj
K re
va tski
Ġn igra
ĠM c
al vide
ĠH or
Ġval oro
i ra
9 4
ĠSvis lando
ĠUnu a
Ġ199 7
Ġs v
Ġmond milito
Ġviza ÄĿo
c ri
Ġaten das
ĠEs tis
Ġma ksi
Ġmals ano
M em
Ġpubli ko
Ġtrans lo
ra ko
Ġvid alvide
Ġkonsen tas
ci pe
S loven
Ġhom aro
om en
Ġkapab las
Ð°Ñ ı
ĠIs ra
p res
E T
I I
Ġcen t
tugu Ãªs
R u
aj a
Ġs ano
for d
ĠJoh ano
¡ Õ
8 2
Ġkomer co
k en
Ä ´
tik edoj
Ġebli gas
m iloj
ĠW al
Ġfi ks
ĠV e
fi l
Ġradi koj
Ġeni ris
ta go
te la
Ġvor taroj
Ġpro vis
Ġprop raj
htm l
tin ta
la roj
ĠB io
ĠÄľ is
ĠVer onika
ĠJes uo
]] ,
ka don
Ġrila to
Ġelek tr
Ġmal kon
Ġsen dis
ĠKi on
T amen
Ġa ci
Ġb ur
Ġdu dek
! !
ud h
Ġser voj
Ġkun si
is maj
ten oj
Ù ģ
Ġori en
ĠI N
Ġpro vas
Ä¥ io
Ġmal rapi
ĠP rin
va lo
minis tro
Ġstruk turo
Ġindi ÄĿen
ti ri
ĠA ma
s h
Ġser Äīi
cen t
Ġsig no
ĠSovet unio
ĠEs ton
Ð° ÑĤ
b s
Ġpli multo
Ġal taj
gra m
gi ono
Ġkomuni kado
Ġten den
Ġs us
ÃŃ n
Ġfra zo
ĠLi to
Ðº ÑĢ
Ġener gio
ÑĥÑģ ÑģÐºÐ¸Ð¹
ĠA le
Ġvo Äīo
Ġvid punkto
Ġmal liber
Ġokaz oj
Ġser Äī
Ġjar dek
ĠÄ ¥
ĠC an
ÄĪi u
ĠKonsi lio
zi ko
ĠOri enta
Ø ©
Ã¢ n
Ġsu pren
teks to
j an
Ġve turi
wi ki
Ø§ÙĦ Ø
Ġmals an
Ġjar centoj
ber to
Ġeston teco
klu zi
ĠtaÅŃ gas
ĠÄīam bro
log y
ĠS loven
Ġregi on
Ġaga don
ig aj
Ġin ven
Ġne ÅŃtra
Ġdu an
K ar
ĠK ata
Ġmani fes
Ġto m
ĠK ri
al ojn
fi ciala
ÄĿ eni
ĠCen tro
van to
Ġal fa
Ġkonsider ata
ĠeÅŃro pa
Ġkons ul
Ġsci enco
Ġprofes oro
for maj
Ġmeto do
9 2
Ġkontro li
re z
ĠIn di
bu lo
Ġsubten as
Ġfa ros
ka to
t ul
Ġkomple ta
Ġle ÄĿo
dan ta
ÅĦ ski
ĠDa vid
r um
gran da
Ġ198 0
Ġhistor i
C om
Ġespri mi
Ġrulse ÄĿoj
s istemo
Ġel ÅĿu
an t
Ġab solu
tu alaj
Ġa ÄĿo
Ġfon toj
c us
D ek
ĠK rom
uni ci
A J
ĠLing vo
k loj
or ita
Ġre gado
ĠH on
b ru
Ġkons titu
Ġman oj
ĠV an
zi as
ĠUkra inio
am on
Ġelek tro
ĠV or
tor i
Ġbone ga
æľ ¬
Ġ8 0
Ġma ÅĿ
Ġesperan ta
d ar
ĠKon takto
Ġuz u
Ġflu g
Ġrakon to
Ġprefer as
tr ojn
Ġmallon ga
Ġser vi
Ġkomun umoj
al ismo
ãģ ®
Ġjun aj
A TO
ser vo
A M
Ġl umo
ve co
Ð ¡
ĠT rans
ĠTem as
Ġres ti
ter s
Ġplen umi
poÅĿ to
Ġka tegor
Ġajn a
Ġter mino
Ġf ron
ti v
" )
ĠEsperan tis
eb u
à¦ ¾
Ġre kla
ä¸Ń æĸĩ
Ġb re
Ġsta bi
Ġre vi
Ġfo to
Ġn aÅŃ
Ġrekomen das
Ġal tan
ĠA t
Ġv et
Ġman o
w ski
ĠF ra
Lo ÄĿ
Ġmon da
gi an
ĠT ero
tri e
si oj
R om
Ali aj
ki u
Ġk ana
riskri bo
Ġd io
vor te
ĠY ork
Ġroman o
j uo
Ġla tina
Ġpro ces
20 17
Ġkonta kti
ĠKompu teko
d ge
á »
Ġmo di
Ġeks tera
Ġtro vos
Ã £
ĠBer lino
Ġge ed
ĠaÅŃ toroj
Ġartiko lojn
Ġinterkon sen
le to
ĠMu zaiko
P i
Ġre mem
ĠK ur
ĠG en
ÄĿ ita
Fran Ã§ais
Ñ ħ
Ñģ ÑĮ
Ġsignif on
ĠÅĿa tus
ta g
ĠAÅŃ stra
si an
ĠFa cebook
y u
Ġm ig
Ġsi l
is s
tu mo
ĠS v
Ġo k
Ġfor mon
Ġnor do
Ġli to
ĠÅĿta lo
ĠC hi
M essa
ten on
ĠH om
ch er
es tas
Ġgaran ti
á º
Ġide on
d el
9 6
Ġmateri aloj
N aski
ĠH ungario
Ġvizi tis
Ġa riel
don e
ona ta
ĠMon d
Ġspe cioj
Ġmo delo
Ä¥ i
ej a
I O
Ġelekti ta
et nam
Ġso le
Ġa ma
Ġl ini
ĠLon dono
ta ron
Ġprezi dento
r Ã©
z ra
ĠT ele
Ġproksi ma
Ġimper io
Ġsub stan
Ġfon dita
lo si
ĠG ri
kul p
g el
ta b
en keto
lan doj
ĠJ os
Ġo leo
D u
mi li
ĠE S
Ġper dis
Ġins pi
ĠMa dri
Ġa ero
ĠP lan
ĠM ez
Ġba zi
æĹ¥ æľ¬
pren eble
Ġsub e
Ġrimar kis
Ġme tis
aÅŃ lo
Ġal lo
di loj
Ġti po
h n
R EJO
ĠK ore
v ino
s ci
Ġro m
D F
Ġpen si
9 3
E le
Es paÃ±ol
B o
Ġmi ks
re jo
ĠD on
ten i
Ġta g
ta to
Ġtrans don
ov ado
Ġa gri
Ġkom pli
Ġmova daj
Ġ{ \
Ġliber eco
Ġunivers itato
Ġali e
Ġfari ÄĿas
me to
ti kon
temp aj
A s
y le
ĠIn s
ĠB ir
Ġretej on
ĠS tra
ĠA f
res pon
Ġkon gru
Ġpublik igis
S S
Ġkom pan
Ġakcep tas
Ġsu do
ĠFa kte
Ġba za
ĠRaj toj
do vi
ani ere
ĠE uro
un u
Ġpropon is
Ù Ĩ
Ġf eder
Ġsur baze
Ġkomer ca
= "
Ġpli long
Ġoka zo
Ġno t
Ġte ori
Ġprop oni
Ġintervju on
ci ta
9 7
man a
ĠE li
p ost
Ġka zoj
Ġgran dajn
Ġfaci la
Ġa to
Ġkompren is
Ġre dukti
ri c
dem io
Ġfru a
Ġrevolu cio
pa gan
ĠAn dre
Ġkri zo
Ġde fini
... )
lon ga
Ġenha v
Ġi ÄĿas
Ġpa la
A m
Ġlu das
S ci
Ġe ko
Ġta gojn
Ġoku pa
× ¨
Ġmon to
Ġele mentoj
Ġmalmul taj
ĠE ven
Ġlin io
ĠaÅŃtor ita
Ð¾ Ð²
Ġdese gn
ĠÄľen erala
mi r
Ġa tribu
Ġeviden te
Ä Ļ
g in
Ġimp li
Ġado p
G erman
ĠAm eriko
ina ra
Ð £
Ġki aloj
ĠL A
Ġkre ado
Ġe mas
Ġli teroj
Ġsen tis
Ġsi len
Ġna tur
Äµ e
cen tro
Ġe x
ĠMos kvo
à º
Ġkonstru i
æĹ¥æľ¬ èªŀ
Ġp siko
ĠEs traro
ig ar
Ġiuj n
N u
ra lo
ĠO li
Ġkon k
Ġpli for
Ġun d
Ġfra to
Ġha zar
K ul
kan to
ig an
ĠB r
ĠF eder
Ø§Ø±Ø ³
emble o
ĠT TT
ven ska
ĠF u
Ġlan don
n oj
kan ta
ĠK ris
Ùģ Ø§Ø±Ø³
ĠK lubo
Ġekster aj
ĠJoh an
Ġvi c
Ġh ero
a te
Ġkam pan
í ķ
ĠP RO
Ġsol vo
Î¹ Î
Ġka dre
Ġkre as
Ġprovi zas
ĠPro tokolo
ĠCi vi
ĠGerman a
Ki al
Ġinstru ado
Ġmalsu kces
Ñĩ Ð°
Ġri de
Ã¼r k
Ġek lezio
Ġi el
Ġling vis
van taj
Ġsta ris
su b
ter an
ĠB as
Ġdipl omati
ĠC ha
Ġjardek oj
Ġop inio
Ġvi ta
ĠP ara
Ġkon klu
ga ta
Ġfor m
Ñ Ĭ
Å ¾
is mon
ĠÄĿ ar
ha vigi
Ġpen tris
ĠWil liam
Ġw ww
ĠI KU
Ġrenkon tiÄĿo
Ġinstru is
Ġne o
Ġpa gi
man o
ĠFran ca
C en
Ġen spe
Ġsu pra
E U
gan o
el d
ÃŃ a
Ġgepa troj
Ġrespon do
Ġlu dis
K u
Ĺ Ð½
bi li
Ġkonc erna
ĠM er
ĠBul ga
Ġnaski ÄĿ
Ä ĥ
Ġdan ke
f la
Ġk em
Ġakcep ti
era lo
s ur
ar ko
Ġap u
Ġ199 8
ĠOn do
w n
ig ojn
Ġpli aj
kom er
ÐºÑĢ Ð°Ñ
Ġ0 8
ko lo
Ġvi vi
don a
tu la
Ġuz ante
O S
za Äµo
Ġpas in
Ġposed as
ð Ł
Ġmal nov
ĠBara to
s em
ÐºÑĢÐ°Ñ ĹÐ½
Ġreg uloj
T h
T EJO
Ġfari taj
la te
i da
Ġo port
ĠkaÅŃ zas
Ġdeci do
ĠÄľ ia
200 8
le con
à¤ ¾
Ġb rita
Ġp tm
ÐºÑĢÐ°ÑĹÐ½ ÑģÑĮ
200 6
ig iloj
van ge
kti ta
ĠW ar
d es
us en
Ã§ e
Ġka pon
tiva lo
te in
c os
Ġprele goj
ÐºÑĢÐ°ÑĹÐ½ÑģÑĮ ÐºÐ°
ãĢ Ĥ
c lo
us ta
Ġinfor m
Ġcer tigi
D x
Pro duk
ĠA p
Ġfun kcio
b aro
Ġre zis
d oro
Ġ199 4
¨ ÙĬ
ĠÅľ an
ta loj
u zo
la taj
Ġklas i
e ga
P u
M ia
de talo
u el
Jun ularo
Ġproble mon
Ðł ÑĥÑģÑģÐºÐ¸Ð¹
Ġ ul
b aroj
l um
ĠÄīi e
ĠKi u
Ġkomenc as
atal Ãł
V ia
Ġli gita
lom et
ve jo
s in
t vi
ĠAn ton
Ġ197 0
ÑģÐº Ð°Ñı
k es
Ġ om
Ġenkon du
T io
Ġteor io
trie ved
Ġdi verse
Ġf esto
Ġsenpa ga
Ö ĢÕ
Ġpre ÄĿejo
ĠÅĿ ablono
Ġpron on
por ta
ĠB ras
ki ÄĿis
pa g
Kon ta
ke o
Ġsta ras
Ġple z
ĠDan kon
Ġsiste moj
kon stru
Ġkol oni
x o
k esto
p ress
Ġlu do
ãģ Ħ
Messa ges
ÄĿ aro
rin da
tera tura
E D
ĠW orld
Ġsek vis
p t
Ġpopula ra
Ġtraj toj
ku ti
Ġide ojn
Ġ era
ku ra
ĠMi lito
ĠantaÅŃ aj
Ġokaz on
Ġk ra
Ġaga doj
S an
x t
din to
Ġsubten o
Ġpers ona
Ġpro vizi
tas tro
ĠAÅŃs trio
i ojn
Ġinstru isto
Pol ski
Î ·
Afri ka
ko la
Ġsub jek
ĠS tan
20 16
Ġk ron
ĠSci enca
' ,
Ko ordinatoj
Ġkelk foje
eb re
ĠR omo
¹ Ø±Ø
Ġi zo
pla y
si mi
Ġaki ris
Ġakcep tis
Ġentu zias
Ġmona Ä¥
Ġprefer e
Ġh umi
à ª
ka tegorio
Ġsukces o
Ġeks peri
Ġ7 0
Ġal b
Ġtempera turo
E ks
Ġobjek to
A vantaÄĿoj
ĠPri va
ĠVarsov io
Ġindi kas
Ġkla ra
Ġf an
ĠLi bro
Ġdeman dojn
am eriko
K ur
Ġekzem pl
¹Ø±Ø ¨ÙĬ
â ĸ
ĠtaÅŃ ga
Ġal ÅĿu
ig no
Ġvi vis
Ġoka zi
Ġlon gaj
Ġrapi da
Ġro bo
× ¢
Ġ \
Ġneni un
Ġden as
Ġsek vi
Ġhej mo
Ġ >
ov as
Ġspecia lan
ĠG ar
ĠJ ose
duk ita
Äµ a
Por tuguÃªs
ti gu
Ġorganiza Äµo
Ġsek cio
f as
20 10
Ġuson aj
p Ã©
Ġkon dam
Ġpro ba
D a
ĠKon go
Ġli brojn
Ì ģ
ĠFi lip
ĠeÅŃ roj
ĠG eo
kan te
Ġsta tis
Ġs alaj
Ġsol vi
Ġ '''
Ġg ras
Ġde ter
ĠK al
Ġrigar di
ĠBon volu
ĠH i
Ġkultur oj
di oj
fre d
Neder lands
Ġseks ne
un try
os to
Ġnaci aj
Ġfil moj
Ġtas ko
H o
k toro
Ġkom itato
Ġki lomet
Ġem fa
9 1
pre zidanto
Ek z
n or
ĠQ u
Ġm ed
Ġti ajn
Ġretej oj
Ġpor tuga
Ġklu boj
ĠHistor y
ĠGaze tara
Ġtraduk ita
Ġek le
Ġs uno
Ġte mon
Ġblan ka
ing er
Ġinter re
ĠkontraÅŃ sta
Ġbon ajn
eda Äµo
.. ..
Ġde fi
Ġstu do
Ġdekla ris
ĠCh in
ĠMek siko
ĠG ol
kons ento
Ġinf ek
Ġprogra moj
d kas
ÅĿ ojn
Ġdi man
inas tio
ê µ
Ġhel pon
Ġkres kis
E d
Äī am
Ġfil ino
ch t
ul is
ĠI zra
Ġrapor to
d ori
n as
ĠA b
Ġcx e
ĠM onato
ĠFinn lando
ĠÄīiuta ga
× ĳ
2011 11
S ur
ĠT ek
Ġdis tri
ĠaÄīe to
g z
Ġa vantaÄĿoj
k cep
ks oj
Ġfor toj
fun kci
blio grafio
f ino
Ġan ti
Ġsimi laj
on ojn
ĠInterna tional
Ã£ o
ri ko
Ġspe coj
Ġda to
Ġb el
v ina
ar t
Ġreci pro
Ġkon ven
ĠAr tiko
Ġf l
Ä Į
B as
ĠKomuni ko
Ġf ren
T e
men ton
Ġw ith
ĠIsra elo
Ġelek tra
ti gon
Ġuti la
Ġaldon is
el ojn
Ġstra to
Ġvi kti
ĠF ine
ĠM en
Ġsek re
enketo detalo
la ra
Ġ( =
2011 10
ĠaÅŃ ton
Ġkonkur so
Ġefi ko
ti van
t ti
Ġtradu koj
ĠP M
Ġtra vi
Ġa gra
Ġvas ta
is ion
eÅ¡ tina
in k
Ġpor do
Ġkons ek
z bek
de ko
Ðº Ðµ
la u
Ġba zita
Ä ģ
ter ioj
Ġb ar
Ġro lo
ĠF und
Ġpov u
Ġsem ina
Ġpren i
ĠOfi cejo
Ġnom is
200 3
cha el
Ġp ul
Ġsolda toj
T u
ĠZ a
Ġkla rigi
Ġper for
ĠRe trieved
Ġsendepen de
Ġka ri
Ġm eri
Ġtrovi ÄĿis
ĠEs pero
Ġt hat
Ġver ki
s or
Ġmals anoj
Ġkun veno
ven oj
ÐµÐ» Ð°ÑĢ
Ġt eni
Ġkons um
º Î
Ġser vis
S ta
vi rus
Ġlabor istoj
ÙģØ§Ø±Ø³ ÛĮ
w ard
tu m
ling van
Ġvas te
S venska
Ġoficia le
eo ple
Ø§ÙĦØ ¹Ø±Ø¨ÙĬ
ra ta
po l
Ġak von
ÐµÐ»Ð°ÑĢ Ñĥ
Ġkonsid eri
Ġa gor
Ġren ov
Ø§ÙĦØ¹Ø±Ø¨ÙĬ Ø©
L igo
Ġel spe
ĠRo bert
ĠAr gen
te o
Dan kon
Ġre gas
s aj
es tis
ÐµÐ»Ð°ÑĢÑĥ ÑģÐºÐ°Ñı
k ia
Ġper cep
ĠP en
la v
R ulse
ì ĸ
pren i
ĠG rek
Ġmal novaj
Ġinteres iÄĿas
ĠM od
Ġnu ra
Ġniv eloj
Ġaso cioj
Ġimperi estro
Ġtur ni
Ġpartopren o
ĠF E
Ġpublik igita
Ġ199 6
s ed
Ġlern ejoj
Ð£ ÐºÑĢÐ°ÑĹÐ½ÑģÑĮÐºÐ°
Ù ħ
Ġ chi
Ġlo ÄĿis
Ġrice vos
ran to
Po li
Ġkre di
íķ ľ
Ġinflu o
f ina
ba y
ĠChin ese
ãĤ ĭ
voj e
199 6
Ġpro vo
ìĸ ´
le st
kci oj
Ġkonstru ita
igh t
E F
Ek de
K ara
c ar
Ġre duk
Ġsendu be
Ġekz er
Ġvizi ti
Ġmala peris
Ġkoncep to
kla ku
êµ Ń
Ġ3 00
Ġraj ton
spa co
K or
i j
I C
Ġpubli kaj
Ġ198 9
ĠHen ry
an doj
ÄĪe fa
ÅĤ a
ar ch
Ġfaj ro
Ġre kta
Ġskri ba
à¤ ¨
Ġer ar
ĠÅĿajn is
ĠK ara
C atalÃł
ti g
Ġ zo
ĠH un
ĠT ro
E r
kul tura
tik ajn
Ġlu di
Ġal te
am oj
qu es
ĠS il
Ġregu le
K A
dis to
Ġinvi tas
ĠÄĿis da
th o
Ã¡ s
ran ta
datu moj
p in
gi taj
Ġ9 0
ĠhaÅŃ to
Ġdi ferenc
Ġsan kta
Ġde st
ĠÐ ¿
Ġn ed
Ġsimi le
Ġpar la
Ġrigar das
mani ere
Ġmemor as
b ado
ĠO s
Ñģ ÑĤ
Ġne ga
Ġh um
ĠEk lezio
Ġver sion
Ġsta r
ĠLern iloj
Å Ļ
Ġb ul
Ġprofes ia
Ġaspek to
pe za
Ġkli entoj
Ġele kta
Ġ4 5
ks on
Ġkal en
ĠF ar
Ġili ajn
k ano
Ġprojek ton
An kaÅŃ
áĥ Ĳ
Ġarg umen
ski j
Ma po
Ġri med
Ġrakon toj
Ġg o
ĠO rig
ĠTutmon da
Ġkompu tilo
c in
Ġ3 2
van s
200 4
Ġpri pens
G ran
Ġi an
po le
Ġbon ven
Ġara ba
Ġfen om
p pe
an der
T ele
k ler
Ġ199 2
íķľ êµŃ
Ġm un
tran kvi
Ġpa po
ĠMa ri
ĠkaÅŃ zis
E M
O J
Ġ19 60
b lish
na lo
íķľêµŃ ìĸ´
st yle
K ion
kom un
ci al
ĠV la
Ġdis tribu
áĥĲ áĥ
Ġver kojn
eb lan
ki lo
m il
to logio
du lo
ton a
ten t
c ero
ĠKu bo
Ġkva ra
tike do
lis mo
Ġplen kres
gy ar
Ġfor umo
Ġvoja ÄĿo
Ġebli gi
Ġ3 4
Ġmesa ÄĿon
f os
g la
gu la
Ġmili t
n omo
n un
Ã ¹
Ġskrib as
×Ļ× ª
ro ati
Ġsek van
Ġafer on
Ð» Ð³
Ġam u
Ġ199 5
Ġu kra
Ġlern antoj
Ġkres ko
E C
Ġesta bli
, [
men a
h or
om bo
fi ka
Ġfoj o
Ġkomen ton
Ġkura cisto
H ej
Ã¶ r
Ġre tro
kis mo
Ġ3 6
Ġdi feren
ĠRe toso
20 12
M or
ĠFran k
ĠH am
li broj
Ġaten ton
Ġklari gas
ĠY ou
Ġuz ita
Ġtutmon de
Ã¼rk Ã§e
ĠN om
gen o
Ġa res
Ġ2 50
Ġmalsam oj
Ġcivi tanoj
Ġg us
omi aj
kan oj
Ġhel pos
ta raj
Ġakti vas
No toj
Õ ¥
or as
Ġf em
ul d
Ġka pa
Ġal um
Ġneces a
J am
chi ve
Ġprop rajn
Ġs ki
Ġin ÄĿeni
ĠS em
r ajno
Ġta blo
Ġvar me
ãģ ¦
Ġ199 1
Ġopini on
K an
âĢ ŀ
ĠE ÅŃ
a tan
kip edi
Ġkon to
ĠR os
Ã¼ n
ti kan
Re ply
a lan
Ġsub pre
Ġfami li
lu b
ol ingo
pag lia
z ino
i c
tta paglia
Ġv ento
l ine
Ġmili ar
ĠRe ÄĿ
ÄĿ antoj
jor ino
s ojn
ĠO kcidenta
Ġparti oj
Ġde li
ĠÄīi elo
Ġfini ÄĿis
ĠCe tere
Ġur b
Ġkap ti
ł áĥ
ĠI rano
Ġpe ti
p oni
Ġdi ferenco
ãĢ ģ
Ġpriskri bo
is tojn
tin toj
ta ria
Ġal fron
P rin
ori zon
ĠNor da
G e
Ġun un
Ġdirek toro
g ren
Ġkon ci
20 18
Ġsekure co
ĠLito vio
Ġkol on
e g
Ðĳ ÐµÐ»Ð°ÑĢÑĥÑģÐºÐ°Ñı
kur soj
Õ ¶
Ġkon fes
ĠAÅŃstra lio
d om
en ton
Ġfen estro
Ġf alis
Ġhe zi
ĠG lo
Ġc elon
P ers
Ġhel p
Ñ Ī
Ġsen con
Ã¥ l
Ġm unici
I li
ter damo
ten as
Ġrespon di
man te
ĠVi eno
Ġsimi las
dovi ko
er aj
Ġfilozo fio
t te
Ġforlas is
tor io
200 7
Ġpre zoj
ÄĮ eÅ¡tina
Ġpre par
Å ¼
ĠRe volu
i k
Ġmalf eli
ĠAfri ka
Ġstuden toj
ekz emple
j ar
Ġre f
Ġsufi Äīas
Ġapli ki
Fa cebook
is t
Ġof en
ĠMa c
ĠJos Ã©
20 14
Ġdona coj
Ġseksne ÅŃtra
Ġkonstru ado
man n
Ġman on
ĠIndones ia
v le
Ġa ver
Ġta vo
ami lio
Ġa tes
ĠCh ris
z ante
Ġprez ento
F ebruaro
Ġe pis
Ġs x
Ġofi cejo
e tu
ig x
ĠTh omas
Ġklas ika
ver o
Ġgerman aj
ĠÅĿan ÄĿis
ĠDi e
ĠRi ch
Ġdisvolvi ÄĿo
or gani
Ġkam poj
ta Äµojn
Ġi lus
da taj
ĠG er
Ġprofun de
lo w
y o
de ble
Ġaldon u
tu li
Ġsub me
ÄĿ antaj
Ġbir doj
Ġokul ojn
Ġfinan ca
Ġkoncern as
P riskribo
Ġ ov
vin co
ĠÅĿta ta
Ġsimbo lo
Ġa goj
es troj
Ġkon dukis
ĠPar lamento
ĠKar man
Ġro mp
ĠÅĿ to
ĠW iki
Ġkonser va
is e
Ġkom for
fi lo
ĠÄīef ministro
Ġtradi cio
ĠÄī as
A fiÅĿita
ks aj
Ġpropon ojn
Ġme tro
dis play
f ita
Ġ199 3
Ġkol or
nive la
Ġkon ati
ĠM aj
g ov
Bon volu
Ġtele fon
Ġpre pari
Ġinte le
Vi ki
Ġkon ver
ĠG al
an ton
ĠSv edio
áº ¿
ĠRe vuo
ĠMal fer
Ġefi ka
ĠR ez
tin oj
Ġmal ka
Ġre vu
Ġme za
Ġkons tante
Ġgra vajn
oj o
te to
Ġju doj
ĠKi e
ver so
Ġf lor
Ġsitu acion
K ore
do si
Ġpos taj
áĢ ¬
m ova
re gis
Ġkon vers
ĠSu da
li e
ĠÄīiuj are
Ġmala per
ÅĿ itaj
ez u
de o
ĠS om
Ġle gantoj
kri min
Ġlern o
or u
ĠB ru
Ġpa per
ĠÐ ²
d f
ter ojn
Ġoper aci
ĠAng lio
m Ã¥l
Ġdif ini
Ġinte ligen
I T
li ÄĿis
Ġkonstru aÄµo
Ġcir kon
Ġka tastro
sek cio
Ø ª
Ġre ala
Ġs ana
Ġb ro
ĠDis kuto
Ġesplor ado
Ġ igas
ku po
Ġpas tro
Ġkna bo
Ġkom isiono
Ġsu k
ĠO kt
ÄĪ ar
Ð ľ
an taÅŃ
Li ber
e c
Ġfon dis
ĠÅĿi an
eble co
Ġkuti ma
Ġklas o
Ð»Ð³ Ð°ÑĢ
Ġen ga
Ġsin sek
Ġorgani zi
ĠU sona
Ġsemajn oj
à °
ĠB ela
Ġko ti
Ġf as
Ġentrepren oj
Ġdemokra tio
Ġali ÄĿis
Ġefi kon
Ġrulse ÄĿon
Co untry
pen si
Ġspiri to
Ġpren as
ĠPe ter
ĠD en
Ġstrate gio
f ano
ĠM us
Ġre en
ĠB re
Ġprogra mon
Ġcivili z
display style
ke jo
Si tuo
a dis
Ġki alo
ĠF il
Ġstu doj
ĠÅĿi aj
Ġ( ...)
Ġpro pagan
Ġvolon te
ĠÄĪ ina
den ta
ĠreÄĿi mo
a Äµojn
Ġru ÄĿa
me do
ge ta
vaj o
za ro
Ã ½
ĠBel gio
Ġdi fek
os pita
à ±
Ġorgani zoj
Ġmov i
I L
Ġf ri
Ġkam par
gi lo
p lej
Ġad mi
k las
Ġs kulp
Ġm ens
ĠL en
Ġkur soj
Ġkapab lo
Ġaser tas
le toj
ĠEk zistas
Su omi
Ġ194 5
Ġtekno logio
K vankam
in fo
Ġkon ker
Ġli mo
Ġnun tempa
Ġrila tojn
gua ge
ĠTi on
Ġaran ÄĿo
da Äµoj
Ġkunlabor i
ĠGra ttapaglia
Î¹Î ºÎ
Ġven os
Ġmenci as
Ġmal trankvi
Ġf ro
Ġpre tas
Ġpar don
n en
h one
B er
Ġkontribu i
er mo
Äī er
l n
a e
in is
Ġju ro
L igiloj
k us
ri l
Ġes tro
kom puti
Ġh id
ĠJ or
Ġraj tojn
Ġdan kon
Ġreprezen tas
k ru
Ġsubten on
L U
Ġg ej
r or
ĠD om
Ġa er
zi aj
Ġ0 7
us kara
Ġdeman don
Ġkres kas
Ġtemp oj
ci taj
Ġrenkon tis
ĠSek ure
Ġur ba
ĠDem okra
dis toj
Ġbez onoj
ĠAleks andro
ol on
aÅŃ to
alis ma
Ġorgani zantoj
A mi
Ġg lu
zi oj
Ġver kita
ksi debla
i do
ĠIr lando
I F
Ġpro kla
ĠÄµurnal isto
Ġdok umentoj
ĠN eniu
Ġ0 1
Ġare oj
n ia
E B
Ġefi ke
Ġsekreta rio
Ġpoli tikisto
ok mÃ¥l
Ġhej me
ka tegor
tu rilo
Ġkontin ento
ĠAr meo
don ejo
Ġspeci fa
um aj
ĠretpoÅĿ ton
Ġcxi uj
Uni vers
F o
Ġfor mi
Ġlern ado
Ġkva dra
Ġreda kto
Ġanon cis
á» ĩ
er alaj
logi on
ĠN ation
5 00
Ġd ro
ĠMi chael
s es
Ġsukces a
Ġver o
Ġ0 6
f ona
Ġsu p
et h
Ġekz isto
ĠMond milito
ti fi
T witter
ciala j
Afri ko
T Ã¼rkÃ§e
ĠT om
Ġpoli co
vor to
ĠPer son
Respon do
×ĳ ×¨
ĠÄīa pi
Ġ tan
Pers ona
Ġpo dkas
Ġdo laroj
Ġm er
ĠO ce
an tan
Ġpriva ta
ĠP aÅŃlo
Ġkarak tero
Î» Î»
ĠB or
ĠC O
Ġdi ru
Ġkandida toj
d ing
g mento
mo d
ĠIs la
A lia
Ġvor t
Ġsen to
Ġed zo
Ġt on
Ġtradu ki
O ftaj
S U
ĠA k
Ġpri tra
ĠGo ogle
ÑĬ Ð»Ð³Ð°ÑĢ
Ġsurfa co
Î· Î½
à ·
Ġth is
la ta
in ojn
Ġfami lioj
al tu
ĠK O
ĠG il
Ġmu ro
LE I
g li
Ġtra kti
" ),
Ġkonsek ven
Ġeb la
bre to
toli ka
Geo grafio
Ġa bon
le ct
Ġ4 7
Ġpens oj
Ġepi zo
g em
Ġven kis
s ia
man oj
Åľ ta
Ġdo i
ora Äµoj
ba ta
Ġgran deco
Ġkatoli ka
Ġb okmÃ¥l
ĠD es
ĠC omi
ang la
Ġproba ble
ig e
ĠD ia
Ġso li
ĠPor tuga
Ġmem sta
Ġpozi cio
m uloj
ĠH an
Ġsam aj
in ia
Ġa vera
Ġs tan
Ġman ojn
ĠKom er
Ð°Ñ Ī
Ġor to
Ġmalsam ajn
k li
Ġne a
Ġek kon
ktu ala
Ġvenon ta
k ras
ÑĬÐ»Ð³Ð°ÑĢ ÑģÐºÐ¸
Ġpu ra
ra ÅŃ
um is
Ġpu ri
ĠSe p
ĠPa ÄĿo
áº¿ ng
Ġnom bron
Ling voj
á»ĩ t
ĠM y
Ġkonfli kto
ĠT am
Ġgu ber
Ġkultur aj
zon oj
c ci
D A
Ġjen aj
Ġmal ÅĿ
ĠFon to
ur as
Ġfa ko
Ġor a
Ġang le
Ġver da
Ġce tere
v ora
Ġpara me
u rig
ĠI uj
Ġrezul toj
Ġper sek
ĠG ro
ĠMala y
Ã «
ĠM ol
Ġtradi ciaj
uj on
Ġ0 5
Î¹ÎºÎ ¬
en tojn
Ġdis sen
Ġtra pas
gu e
ĠA na
¡Õ µ
Î»Î» Î·Î½
Ġobjek toj
ta goj
ĠM O
ĠUnu e
Ġgajn is
d t
Ġli ajn
ĠB ern
ven i
Ġven ko
Ġanka ux
T re
Ġi ama
ĠÅĿ tu
Ġminis tro
ĠCer te
Ġde cem
ĠK en
ĠA zer
rek ven
Ġlan da
Ġce le
ÑģÐº Ð¾
t l
Ġfor mas
Ġnom broj
Ġkomen tojn
Ġprofun da
ĠKon stan
Ġc m
Ġinternaci an
Ġjun ulara
Ġkomuni ko
Ġnu kle
Ġli gno
ton oj
M e
Ã¢n Äĥ
Ġa g
ĠP hi
Ðµ Ð½
T P
lan de
Ð° Ð·
ho u
Ġe tiked
ran oj
Ġna turaj
ĠLa tin
kan a
Ġmem brojn
respon di
Ġprezen tita
A C
ĠVi á»ĩt
Ġmalo fte
Ġar bo
Ġmor ti
m ley
p ta
is a
à ¡
ej ojn
e u
É Ļ
Ġfor igitaj
as is
ĠEdu kado
Ġdif ino
Ġkor espon
Ġla go
c to
r p
z ajno
Ġinstitu cioj
Ġlis ton
ĠD C
ĠB rita
Ġsimp to
Ġmalgran dan
Ġalt kva
Ġp il
Ġordon is
Î»Î»Î·Î½ Î¹ÎºÎ¬
Ġf ing
kci a
ĠdaÅŃ ras
Ġves pero
ĠSek ve
Ġmalj una
ĠF ern
pe zaj
Ġlim igita
ti loj
Ġkre do
Ġma po
Ġlon gan
Ġprinci po
ÑĢÐ¿ ÑģÐºÐ¸
vi Äī
ton on
Ġkom isi
Ġgerman oj
Ġmi kro
il le
Ġvar ma
F on
ãģ «
Lo ko
Ġmet roj
C h
f fi
ma la
Ġp eople
Ġkon kre
ĠGrek io
t ine
Ġp run
Ġ3 3
m und
Ġpar lamento
Ġkan tis
y m
da pe
Ġ3 9
ĠdaÅŃ rigi
Ġg xi
×¢ ×ĳ×¨
ĠK la
Ġi t
fes to
ÄĿer io
×¢×ĳ×¨ ×Ļ×ª
ķ Î»Î»Î·Î½Î¹ÎºÎ¬
Äīe co
ra di
for me
ĠAs embleo
Ġa stron
pe ten
Ġkol oro
Ġan arki
Ġmili ta
vor toj
Ġespri mas
ĠM ovado
Ġdif inita
la go
diÄī oj
Ġdire kto
ĠB ro
* *
Ġpe zo
z os
Ġd ig
Ġreali gi
s ch
Ġs tul
un e
Ġad reso
Ġso lida
bliote koj
Ġnom i
Ġredak toro
ĠKul turo
Ġportuga la
ti koj
Ġp las
Ġb logo
ĠankaÅŃ Redakti
Ġfin is
in d
Ġi ÄĿi
tan eco
Ġpar tojn
ser va
l oro
Ġf e
Ġh ote
be jo
Ð¸ Ð½
h on
ti ÄĿon
ha v
lin io
Ġgvi dantoj
Ġrenkonti ÄĿoj
Ġre te
men tojn
Ð ¢
Ġro mpi
Äī ita
âĢĻ ,
ĠJ us
Ġforma to
. :
ajn as
Ġres umo
Ġlu doj
ĠT witter
Ġmalhel pi
Ġating as
ĠaÅŃskul ti
Ġs ova
Ġsupo zas
Õ¥ ÖĢÕ
O kupo
Ġmuzi kon
Ġeli ris
s v
Ġ4 00
ĠLu doviko
ing a
Ġ0 3
Ġval oroj
Ġanali zo
Ġprogram eroj
Ġmo toro
Ġad res
Ġmi loj
Ġof ta
Ġinfor ma
Ġindividu oj
Po ÅĿ
Ġega las
F il
tran s
ĠFo iro
p hi
ĠJam es
Ġprinci poj
Å Ľ
m igi
199 4
E ÅŃro
Ġplen an
pÃ© ranto
U EA
Ġali ro
Ma gyar
Ġb edaÅŃ
ĠP ovas
Ġhej men
Ġneni el
Ġaspek tas
ĠdaÅŃ ris
Ġre for
Ġkla rig
k h
Ġka dro
Ġreli gia
ĠI l
vers aj
Ġteritor ioj
Artiko loj
Ġk vi
Ġplat formo
Ġpor tas
ga ÅŃ
ha re
vil karto
Ð¾ ÑĢ
ãģ ¯
à¥ į
Ġdistan co
ĠF ab
an co
Ġf eb
b us
er io
E uskara
Ġproduk tas
I M
Ġdom on
p ru
s ol
di v
Ġpas is
Ġperson aj
c ino
Ġn ere
ÄĿ ajn
pro vi
ligi taj
Ba tman
Ġekzem ploj
Ġnorma la
Ġper di
i z
om ia
Ġka to
Su per
va ro
te blaj
skri bo
ĠSlova kio
Ġfor pas
Mal longa
Ġkom an
Ġle tero
Ġfor tan
P ER
ãģ Ĺ
Ġkonduk as
Ġkonstru aÄµoj
Ġti mo
Ġstran ga
ĠA M
ĠR ed
s pi
as ko
Ġpov o
Ġkor pon
e x
ĠS ame
Ð¾ Ð»
Ġpre ta
Ġrakon tis
Ġmalkov ris
v ineo
ĠMa ra
te kto
Ġsom ero
i ch
Ġle gas
Ġb lin
Ġarb aro
in stru
ĠP res
20 15
Ġeni ri
Ġvo lo
a kti
20 13
ĠNov jor
Ġtraduk is
Ġri po
Ġplan toj
Ġinstru i
Ġindi ki
Ġmuzi ka
Ġsv eda
Ġe toso
Ġali ron
Ġver kistoj
ĠEx press
Ġkonser vas
Kom un
f to
Ġlan dli
Ġestra rano
Ġorganiza do
Ġnas kita
Ġpli gran
Ġligi taj
Ġdeman di
Å ³
ĠL es
Ġarki tek
Ġn acioj
Ġtele vi
Ġkontro lo
Ġma ÅĿino
ĠÅĿi po
Ġsendepen da
ļ áĥ
. ;
d ig
Ġinter reto
Ġa kadem
ĠK el
Ġdis krimin
Åľ i
ab lo
Ġlern as
Ġani mo
ÅĤa w
Ġman ÄĿi
Ġmeto doj
to don
per e
pa do
j un
Ġ3 7
Ġapara to
ti aj
Ġrespek tive
Ġha vu
P l
S O
b loj
ga le
ĠS w
Ġdon ita
li bron
Ġb es
Ð¸ Ðº
kapab lo
Ġkuke toj
h y
Ġmili ton
f fer
à ©
vi r
ta cio
Ġeldon ita
Ġpro s
Ġperfek ta
ĠI REJO
dan o
Ġinfan ojn
. ).
g s
he im
Ġmesa ÄĿo
Ġh uman
paro lo
¡Õµ Õ¥ÖĢÕ
l Ã¡
em an
ma tiko
Ġdis pu
Ġ4 8
Ġspe cio
Ġinteres o
ĠD ar
Ġparo lantoj
s is
be la
Ġ Ø
te fa
Ġv ul
ĠT an
ĠJ ES
Äľ is
Ġh an
de la
tej oj
Ġsek sa
áĥĲáĥ łáĥ
P O
Ġdan k
200 0
Ġlas is
Ġpropon on
t ch
Ġhi po
ĠantaÅŃ vi
Ġsi dejo
pro p
ĠAn stataÅŃ
O ficiala
ĠH it
ĠViki datumoj
Ġadministran to
ĠÄī er
ĠArgen tino
Ġsus pek
T ur
ĠVer da
Ġpers pek
Ġa ven
Ġali flanke
Ġmalsu pren
Ġ( âĢľ
Ġsub sekcio
pan oj
ĠGeor ge
ĠKom preneble
Ñ ĸ
ĠkaÅŃ zi
er re
Ġrila taj
Ġkoncern e
Ġpli a
pi lo
Ðµ ÑĢ
plan o
ãĤ Ĵ
t Ã©
ĠS ha
Ġser vas
ti la
ĠF rom
y er
Ġdan kas
ĠAli a
us ale
Ġmalbon e
ĠMadri do
ĠB ea
Ġw e
Ġkomer caj
Ġs umo
pren u
Ġinten cas
H e
e ton
Ġin das
man iero
ph y
S A
n aski
kan toj
Ġfirma o
J aro
ĠP ala
ĠKon ferenco
Ġtru poj
pa re
gra moj
W eb
Ġunua foje
Ġraj to
Ġf ok
Ġm g
Kom enco
Ġvizi to
m oni
Ġa fa
AN TO
ted ralo
ĠÅĿ losi
Ġeks por
Ġgvi dis
gh t
Ġbrazi la
Ġkon is
ĠSin joro
Ġpara le
Ðĳ ÑĬÐ»Ð³Ð°ÑĢÑģÐºÐ¸
Ġmarbor do
k el
n on
Bas kuli
g k
m ini
mon d
Ġ4 6
Ġf le
Ġpro men
U R
ta laj
Ġ198 7
Ġimp os
Kun havigi
Ġpublik igo
Ġme zo
L C
d uloj
Ġdeman das
A kti
Ġsub ven
Ġprin co
ĠPoli tiko
Ġinfor mi
ĠaÅŃtoma ta
f r
I A
Ġd eri
ne ÅŃ
ĠMu zeo
Ġhi er
Ġal u
r vatski
Ġo li
bo ur
ÄĪe f
os o
etu vi
Ġli moj
Ġkon ferenco
ĠA N
Ġval oron
Ġab un
Ġkal ku
Ġper forto
ni ko
Ġang lan
£ áĥ
Ġde zer
Ġse t
rojek to
b ano
ĠkaÅŃ zo
Ġpersek u
ĠVi vo
Ġg r
ĠT on
Ġro l
Ġve turilo
ĠTo go
ĠVor taro
Ñ Ĩ
M u
Ġvi zitan
in ujo
Ġg lo
Ġpos ta
Ġfunkci oj
h al
Ġmalhel pas
---- ----
Ġla tin
u k
Ġle ÄĿoj
en on
voja ÄĿo
etuvi Å³
Ġfor tika
Ġdia le
Ġpoliti kon
Ġanka u
ĠM il
Ġele mento
Pu bli
Ġregu la
Ġbezon is
Ġs porto
li g
Ġmar kis
Ġfru aj
Ġkompren o
Dan sk
Ġr uman
Ġkonstru is
Ã³ r
Ġmal he
Ġ19 50
Ġsen Äī
ĠÅĿan ÄĿojn
Ġsper toj
ĠÂ ©
Ġbi blioteko
Ġbil don
ĠPl ena
ĠF e
Ġvid pun
Ġklopo doj
Ġmini mume
Ġsubten is
hel mo
ĠInstitu to
is o
Ġa c
Ġaktiv uloj
ĠP O
U sono
Ġ20 23
Ð¡ ÑĢÐ¿ÑģÐºÐ¸
Ġpre ÄĿ
pe to
Ġpa pera
Rom Ã¢nÄĥ
P as
Ġplan o
Ġâ ĪĴ
zo lu
Ġinstru istoj
Ġpriskri bas
ĠPu bli
Ġmodern aj
Ġpentris to
Ġk anta
ĠI LEI
Ġprakti ke
j k
Ġal proksi
Konta ktu
Ġv alu
ig anta
ha i
kategor ia
ĠÄĿen era
Ġpoten con
flu o
ĠI I
A reo
ĠV oja
ĠL igo
k ino
Ġinteres aj
Ġknab ino
ĠAma zon
gen do
Ġtermin oj
ĠReÄĿ lando
y e
b ia
ma ÅĿino
Ġneder landa
k igi
Ġt era
ĠS p
Ġ[ ...
Ġn acio
um as
pu ra
ling ve
Ġfeli Äīo
Ġrespon das
ĠPRO P
Ġk r
ãģ Ł
Afrika ans
vi er
ĠG or
Ġb lu
Ġ198 8
Ġver sioj
fer oj
min oj
Ġsim bol
ĠDu olingo
ĠÄīe Ä¥a
Ġmani eroj
ĠU l
raj to
Ġaldon as
tab elon
Ġla stan
Ġe di
Ġba bi
F re
ĠMas todon
den te
pro ble
Ġmalfer mi
Ġba zaj
Respon du
Ġfer voj
ãģ ¨
use ppe
' )
ci i
ĠF eli
Ġligiloj Redakti
b un
Ġkons tanta
Cen tro
or do
aÅŃ ri
Ġdeta le
S h
å Ĳ
va Äµoj
Ġpre mo
Ġek kri
Ġjun ula
Ġprofes i
D ua
Ġkor on
p us
Ġkon tras
Ġproduk tojn
f ur
sk y
Ġori ente
ĠO x
Ġda ta
Ġradi ko
Ġste loj
V o
bi r
Ġs ul
Î ķÎ»Î»Î·Î½Î¹ÎºÎ¬
tag me
Ġe tikedo
tor on
Ġenha von
Ġgen ro
et z
ti to
Ġpartopren as
Ġkvan ton
Ġgrande ga
ek u
200 1
Ġmem oro
Ti áº¿ng
Ġp ej
ale go
Ġre e
gus t
Ġpen so
Ġher ed
Ġres tos
Ġpo ezio
? "
ĠH ol
Ġdezi ro
tin da
ĠRe ferencoj
Ġk ler
tro s
Ġreg no
O rig
Ġf leks
Ġi loj
Ġpro tes
Ġdi oj
ĠMon de
vig ado
us z
ce li
Ġmili toj
elon ge
Ġekonomi aj
N umero
d igo
Ġpas intaj
Ġel d
Ġins uloj
Ġkomenci ÄĿas
Å ¬
ĠKi r
Ġsign oj
8 00
Ġnekon ata
l s
Ġd inastio
Ġta l
ĠPo pola
Ġsa vi
Ġrimar kin
m us
ĠEsperantis taj
kon o
Ġekster e
Ġenkon duko
Ġdis ko
ĠAn na
Ġgen eralo
Ġ ðŁ
Ġsi dis
hi li
ĠUr bo
Ġmenci ita
ĠaÅŃ g
Ã¡ r
Ġy our
Ġenhav tabelon
ĠindiÄĿen aj
ter ne
Ġi lo
P A
Ġtra fi
Ġfo toj
C O
Ġdon os
Äľ en
Ġkom peten
ĠIn c
ĠIn dus
E esti
Ġfun toj
v igo
Ġel tro
dis h
Ġplan edo
Ġak tuala
Ġkompan ioj
Ġpe to
Ġkondu to
Ġde ba
ĠO t
ĠZ o
ĠKun ar
Ġplenum as
Ġalvo ko
_ {
ĠAle x
H er
Ġpas inta
a Äµon
t he
ĠÅĿ o
Ġrimed ojn
Ġega le
Ur sula
g ni
ĠPortuga lio
M ala
âĢĻ .
logi e
Ġprakti ko
Re gis
Ġmod eloj
ul u
Ġal teco
Ġre ale
ĠFran c
la Äµo
Ġaten dis
Ġelsta ra
ĠV ar
Åľ altu
Ġflu gi
ĠBan ko
pe talo
th i
200 9
ÅĿta toj
ĠPro fes
Ġgvi danto
Ġkomuni ki
Ġan gulo
eb lajn
Ġkompon isto
reta rio
P R
ĠJ ul
Ġ19 20
Ġmili onojn
Ġata ko
R en
Ġak ci
ĠSci ence
se lect
Ġpl us
ĠKongres a
w ay
Ġkol oroj
ĠelÅĿu ti
T ro
Ġ= =
K ri
Ġ que
Ġ19 30
pan ish
pl or
Ġsper ton
b ona
n ing
b lis
Ġkre dis
Ġfavor e
Ġb rus
Ġaper o
Ġver bo
wa hili
Ġnor de
mal pli
Ġz ono
stitu cio
Ġtito lon
in di
Ġe po
ĠM un
ĠÅĿ te
Si mple
Ġinter konsento
Par to
am aj
ĠAm baÅŃ
ĠTra dukis
Ġd omoj
Ġin va
Ġsek vaj
Ġfam aj
Ġdi kta
ha veno
ÅĿ ing
ĠA us
Ġri belo
kan taj
Ġfil oj
Ġaten di
mp li
Ä ħ
Ġs cio
Ġ4 9
Ser Äīu
ĠN OM
Ġpov i
Ġstu dis
ĠP ek
Ġhom on
rp ski
g vi
Ġdezi ris
ins ulo
Ġdiverse co
vers igi
Ġti mas
Ġg ita
pa ci
Ã© e
ĠR em
Ġsuper a
LoÄĿ antaro
ena to
Ġuz on
Ġadminis trado
ĠSi mi
ĠT el
Ġb udh
Ġli go
ĠlaÅŃ eble
Ġparo lado
A F
f al
Ġsen s
tre jo
ĠChar les
Ġde c
Ġskri bu
Ġmek ani
Ġk vina
bi taj
ĠNovjor ko
on on
Ġfi ÅĿ
Ġ4 4
âĸ º
Ã ®
Ġv el
Ġka tal
Ġpo lu
ĠaÄīe tis
ĠTur kio
V A
ba lo
Ġimp or
D ez
l umo
Ġali lingva
par ky
Ġv eni
Ġfari ÄĿi
Ġbe laj
Ti tolo
ĠRich ard
ur ojn
Ġener gi
Ġaper os
ur ce
za ta
ĠMon do
l ina
Õ ĢÕ
ta ge
Ã© ra
Ġeven tuale
tic le
I D
li gio
Li teratura
omb raj
va Äµo
ĠKar lo
Ġekipa Äµo
asis prop
Ġdisvas tigi
ov er
mal s
gru poj
ĠDem andoj
ĠN eni
ĠBras il
A z
Ġs ko
¥ Õ¶
ĠN et
Ġfor ton
Ġi e
Ġfru kto
Ġkoncen tri
c anoj
Ġvar oj
Ġelek toj
Ġsukces e
Ri lataj
U L
f anoj
ĠB ata
don ita
Ġviza ÄĿon
Ġdun gi
ĠBu dape
vis mo
Ġkun por
Ġeb lon
P res
ek on
Ġekzamen oj
ni velo
Ġmalfer mita
Ġmul to
Ġflan koj
Ø§ Ø
Ġmala kcep
kor aÅŃ
Ã¤ n
as h
Ġpoten ca
Ġreligi aj
¡ÕµÕ¥ÖĢÕ ¥Õ¶
Ú ©
ĠV j
Pro fes
T ri
Ġno toj
Ġmalvar ma
ble co
ĠRu ÄĿa
Ġinterv juo
eda go
ta ga
}} .
K elkaj
Ġ3 8
Ġentrepren o
à¤ ¿
Hej mo
Ġdi e
ĠArmen io
Ġmal lar
Ġkunsi do
Ġpro por
ĠFo lio
ĠEgip tio
ol s
o ks
Ġt un
Ġliber aj
Ġamaskomuni kiloj
lus tuli
per io
Ġekster landaj
ge o
Ġb r
Ġ9 9
ĠÄīes is
A le
lustuli mu
Ġvi rus
Ġi ru
ĠaÅŃ di
ĠF ren
Ġtri dek
Ġw as
Ġc a
vin petalo
H or
om an
ez ia
Ġaparten is
Ġinter ne
Ġz org
ĠS ko
Ġindi kita
00 00
ĠKon traÅŃ
Ġdeks tra
Ġs rpski
ĠMal graÅŃ
Ġdepen de
m po
Ġal ti
Ġinteres oj
Ġmuzi k
Ð» Ð°
Ġorganiza Äµoj
A ra
Ġen ke
ling voj
Ġdok umento
x oj
ti mo
Ġorig ine
m ono
os lova
ĠÂ» .
ran a
Ġamaskomuni ki
Ġto ler
Ġre taj
fi toj
den oj
Ġce teraj
Ġ4 3
ĠGlo bal
Ġre ÄĿis
Ġgeed zi
ĠP et
ĠÅĿ ata
Ġskri bo
Ġnum eron
C N
Ġmal kres
Ġ7 5
Ġfilozo fo
ĠKon diÄīoj
Ġna ture
Ġfunkci i
Ġmalrapi de
Ġ Ï
Ġpl um
Ġva por
Ġbu ÅĿo
e zi
ĠS on
Ġw ill
d igis
Ġ198 6
Ġmal ven
Ġkun ord
gan oj
Ġfor igo
ka la
âĢľ .
ĠSen kategoria
igar du
b araj
Ġrezul tojn
N om
Ġeble co
ĠJer usale
i ras
Ġc an
men ts
Ġkan ton
Ġsper tis
Ġk lini
al th
ĠK atal
Ġs vis
Ġsen ti
en con
en ci
Ġti ama
ran taj
Ġajn an
ĠA ten
reto so
cy clo
ĠC lub
Ġnu tra
Ġefek ti
ĠB y
Ġbata li
m undo
Ã Ł
Ġsta rigi
Ġpro toko
Ġsukces as
Ġvolon tu
Las taj
Ġpro pri
pre mi
Ġkli ma
ĠRom an
D osiero
c ra
k ing
Ù ¾
Ġs kan
ĠE kon
Ġpost ulis
ĠM ela
ys tem
Ġfeli Äīa
Ä ĩ
Ġer aro
tu be
ĠD ok
Ġpas i
ÉĻ r
ĠOx ford
Ġre tiri
Ġma gne
Esperan ta
si te
ĠF A
ĠKons ul
Ġdi rante
Ġbazi ÄĿas
R es
Ġkom ento
ĠLon don
Ġo be
ĠÄĿu i
Ġserio ze
p rin
ĠAl done
w in
Ð ļ
ĠMa y
è ¯
ti von
Ġkap tis
Ġmenci itaj
om bio
lan oj
Ġvoj oj
Ġprojek tojn
Ġega leco
Ġima gi
an kaÅŃ
Ġpre mio
Ġhistor iaj
Kom itato
Ġpatro lita
" >
i ÄĿon
ĠFri ed
te toj
Ġre feren
Ġe tn
Ġsu de
b lajn
c ro
p ova
Ġfor taj
por toj
mi th
pi taj
Ġ[... ]
T M
Ġa gi
ĠP aci
ĠI a
Ġku ÅĿas
Ġsufer is
Ġfenom eno
em io
ĠÅĿan con
ĠT ia
Ġinfor mon
Ġplur foje
Ġinstru as
Ġinklu das
ĠJ ar
ĠÄĿoj o
t d
Ġri medo
Ġfra ÅŃ
R us
Ġp al
Ġl ud
Ġpo emoj
Ġ1 15
Ġfor iris
Ġnova Äµojn
ko le
Ġelekta Äµon
H rvatski
ĠB rus
Ġali re
Ġma tene
ĠKa fo
Ġofi ci
Ġpoliti kan
e vi
Ġprovi z
Ġspek ta
ĠP aro
Ġnom ojn
Ġfak toroj
Ġsen ton
ĠMar ch
l la
s el
man ta
Ġuti las
Ġmal mo
Ġka ÅĿ
Ġrekon stru
ĠNe pa
Ġtekni ko
Ġar boj
Ġkris tana
tri aj
Tra di
Ġsupo z
Ġed zi
Ġpan demio
Ġvali das
m l
ĠlaÅŃ le
raj toj
gan taj
inter est
c le
ĠL ou
Ġreprezen tantoj
ĠMalfer ma
i li
i le
un ua
Ġbez ono
Ġpermes is
ĠF ron
ĠPla tano
m edi
ajn a
Ġja re
Ġspeciala j
Ġmalfru e
ÕĢÕ ¡ÕµÕ¥ÖĢÕ¥Õ¶
ĠS co
Ġgru pon
h istorio
ĠEsperan tisto
Ġ4 2
ĠInter naci
ĠdaÅŃ ra
bay can
t ve
tro lo
ĠSekure co
ÉĻr baycan
, "
f el
ch el
ĠMon go
Ġoficiala j
Ġpa f
Ġcirkon stancoj
Ġri Äī
ur nalo
ĠCivi to
l ori
ma ra
bri ko
p el
ĠIn versigi
ne y
Ġbor do
Li etuviÅ³
rigar do
K rome
en tis
Ġfa ka
mon s
Ġhazar de
ĠÐ ½
Ġdisku ti
ĠM is
Ġindus tria
M orto
à ¹
Ġfil me
Ġstari gis
Ã ´
Ġprakti ka
Ġlitera tura
Ġeks pli
an on
Ġmu zeo
ĠBi blio
ĠÅĿanÄĿi ÄĿis
Ġhun gar
Ġmalfer mis
S in
en taj
ĠBlan ka
i ces
Ġregis taroj
Ġ2 10
Ġda tre
Ġaci do
E ble
Ġfunkci is
N D
w or
po ka
ĠV I
tem aj
Ġlim dato
lan taj
Ġdona co
landan oj
ĠFre d
Ġlar ÄĿa
ĠVi an
Ġse ver
____ ____
s ulo
Î ¿
Ġ Ñ
am ento
tu te
ĠE di
in daj
ta le
ĠH odiaÅŃ
Ġres publiko
Ġ15 0
pil ko
Ġkom par
ĠaÅŃto mo
Ġpasin teco
Produk ta
Ġkon fi
ĠS to
Ġh ospita
Ġokaz inta
Å¡ Äįina
Ġkun teksto
ĠI rako
Ad minis
ĠK iss
ba b
ck er
Ġanta ux
da don
Historio Redakti
ĠO kcidento
Ġle s
pu ro
ĠKa za
ĠBla ck
Ġs orto
ÄĿin te
ĠÄīe esto
ĠS un
me tis
Ġad jek
Ġ eroj
Ġs pon
Ä¥ oslova
S hare
c ina
v iga
Ġh aroj
Ġkomple te
Ġpropon oj
Ġtradu kon
ME G
bri dge
Ġapar taj
ĠAf gan
ĠMela yu
Ġb ov
ĠP al
Ġj ara
Ġmal ÄĿus
wi cz
Ġcx ar
ĠÅĿ er
Ġpa ÅĿo
Ġunun ura
Ġp on
Ġmor tigis
Ġmas tr
b ono
N A
e go
da y
Ġinter a
Ġcer taj
aran ÄĿo
un doj
Ġfunkci ojn
Ġp ris
Ġaspek toj
Ġfig uro
T S
Ġs ono
Ġzo dia
Ġf ol
Ġnom ataj
id f
in do
ĠO ka
Sloven Äįina
Ġb edaÅŃrinde
ĠaÅŃ stra
19 99
Ġkas telo
g lu
Ġt rajn
Ġinf la
Ġelek tas
Ġfo li
ĠK ana
ĠÄĪ io
rig h
parte toj
Ġebli gis
o kaze
ĠEsperan taj
Ġplu e
Ġplan as
is moj
Ġorgani zis
Ġsufer as
ĠTogo lando
ĠK ru
vi ew
monato tri
Ġtradu kado
la vo
ti e
Ġsin jorino
Ġenga ÄĿi
ĠPar ko
p ia
Ġar Ä¥i
Ġpi edoj
cen zoj
er aloj
Ġal ven
di on
mar ko
Ġdeci di
ĠS ove
ĠPa kis
igita n
Ġrapor ton
C a
Ġar tefa
Ġalfa beto
k tor
Ġkons ento
Ġvol us
à¸ Ĺ
Ġpron omo
ĠpoÅĿ tele
G alego
Ġd in
al s
Ġteks tojn
Î ±
Ġver kon
Ġmor tigi
Ġh orizon
Ġfa ra
kis h
Ġkor e
Ling vo
à¸ ¢
' .
H on
Ġo ce
ĠloÄĿ anta
ĠM ON
Ġgener acio
Ġruman ia
h ard
Ã ¸
ĠZ b
as e
Ġpro f
Inter nacia
is taj
zi lo
ĠN igra
Ġse ÄĿoj
Ġ5 2
Ġkontakto s
dus o
ĠBudape ÅĿto
Ġp in
ĠÄī inaj
Ġta ge
Ġkan tojn
c or
Ġh as
Ġan oj
Ġver kado
Ġbe lan
) [
c ki
ti ÄĿoj
Ġri kol
Ġklari gis
Ġlini oj
k m
tan tan
don u
Ġhej m
Ġde pon
Ġm m
Ġi r
n ama
le jo
Ġ19 39
iste mon
le t
ĠS t
Ġter ura
ĠSam uel
Ġtrans porto
Ġarb aroj
mu zi
à¹ Ħ
â Ĺ
ĠM anu
Ġven do
lo goj
ĠLi aj
Ġuti li
Ġflan ka
ri on
Ġj ur
ĠN ata
et y
logi an
B C
ekz amen
ĠÄĪe Ä¥io
à¸Ĺ à¸¢
Ki u
Ġva ria
à¹Ħ à¸Ĺà¸¢
va ra
Ġres tor
ĠR uman
Ġme tas
Ġkur son
Ġdif inas
Ġkapab lon
Ġhav us
ĠStra te
Ġgra do
Ġreg ulojn
M A
S K
ĠPre zidanto
Ġespl ori
ktu ale
Ġhan dika
lu do
form kesto
Ġg li
ze ch
Ã§ o
Ġfoj ojn
Ġener gion
pe lo
ha ra
ĠloÄĿ antojn
Ġkonsid era
Ġkonstru o
mu ziko
Ġelsen do
Ġpro kras
pa y
i doj
Ġ194 8
DE C
h istor
Ġpo emo
Ġmiliar doj
Ġj an
ĠVer ÅĿajne
Ġeble con
Ġantik vaj
Ġkon i
Ġpli ajn
ĠW ord
Ð° Ð½
Ġkura ÄĿ
Ġregistri ta
Ġbez ona
Ġvi kipedio
3 00
ĠTi un
Ç Ķ
Ġgrama tiko
re f
Ġpi oni
Ġtele vido
ĠRom ia
ar to
Ġkon ton
L ando
Ġde longe
ĠG ru
ĠMi li
Ġpost uloj
Ġokciden te
Ġgaze toj
ĠdaÅŃri gis
Ġhor ojn
mes a
I s
e f
ĠR am
Ġorgani zita
Ġapara toj
B u
ig ata
Ġtas koj
sti lo
ĠmanÄĿa Äµoj
me ti
Ġunivers ala
Ġalpor tis
ci do
ĠO b
ĠNor ve
l ens
ĠB ud
Ġ194 0
Ġmalfer ma
g vajo
s tu
gon omiaj
Ġek ha
Ġser von
parte mento
d igas
Ġs ing
uj ara
Ġpli an
Ġlan daj
Ġisla ma
à² ¨
Ġro tari
Ġesperan t
Ġami keco
Ġespri mis
Ġmalpe za
Ġkalen daro
te go
Ġplilong igi
ret poÅĿto
Ġar tisto
Ġbi ci
Ġnaski ÄĿo
Mal fer
Ġskrib ita
Mul taj
Ġforlas i
ĠK aro
ĠVa ÅĿing
us oj
Ġar miloj
Ġsimp laj
Ġamas o
er vo
tic s
Ġeb loj
U l
ĠJo urnal
ĠNom spaco
Ġde zajno
al isto
ol f
Ġar tistoj
ĠNi co
paro lis
x u
Ĺ áĥ
Ġpopo la
Ġkal kuli
Ġp into
produk tado
ĠAmeri can
ļáĥ ĺ
Ġk ver
Ġinflu as
Ġfizi ka
ĠComi cs
ĠP DF
Pa ÄĿoj
Bi bliografio
Ġw hi
Ê »
Ġel labor
ĠUN ES
ĠÄĿoj as
Ġmi rak
dro id
Ġkon a
gra fo
Ġfran caj
Ġmis kompren
Ġkoncer to
se co
Ġokciden taj
ĠKiss inger
Ġpan elo
Ġcel ojn
Ju lio
or aj
ĠRevolu cio
Ġak toro
ĠPa co
Ġneces e
Ġ198 4
ĠNo bel
á ±
e e
Ã ģ
ĠRo bin
O ktobro
á Ĭ
mi ÄĿo
fa co
Ġdefen do
P ra
T lustulimu
r to
Ġ ÑĤ
Ġ1 20
di vi
Ek zistas
Ġv io
ĠEn cyclo
Ġle gado
Ġfes toj
¥ áĥĲáĥłáĥ
Ġrila ton
¥áĥĲáĥłáĥ Ĺáĥ
Ġhel pan
dem okra
ĠNa pole
ĠAl ta
kun si
Ġ che
ĠÄĿ ermo
Ġb lua
las ta
á Ī
Ġsta ci
ĠEven ta
I R
Ø ¬
âĢ ĺ
el sen
Ġper do
lu lo
Ġsitu o
he j
Ġkov ras
Ġkomb ina
Ġd osiero
Ġ- --
Ġapar tan
ĠNun tempe
Ġvesper e
Ġpo laj
Ġdisvol vita
cep toj
ĠÃ ģ
ĠreÄĿ ino
Ġkampan jo
ĠÄī eloj
kon toj
Ġpa trin
ĠSan kt
Ġkontro lon
Ġrom ia
/ .
Ġpos eda
Le vilkarto
áĥ ¥áĥĲáĥłáĥĹáĥ
ĠB us
ĠH ej
pi tula
Ġlu kto
Ġdeta lojn
Ġ1 000
Ġkomun an
ri t
ĠBer lin
Ġmi z
200 2
lo v
Ġinf ana
99 99
Ġvide bla
ĠvoÄī oj
Ġsemina rio
Ġmona tojn
ĠBar cel
Ġnorma le
an tajn
ba zo
ĠSi rio
ĠDi pl
Ġmenci i
T o
ka Äµon
ĠE volu
ĠD ra
eri ka
Ġkvar talo
AR Y
x on
ÄĿ eto
Ġpun ktoj
Ġampleks a
vange lio
Ġfi din
Ġmenci is
re y
Ġf rekven
Ġtem ojn
ci ante
Ġka ÅĿi
Ġma ra
Ġko do
F ine
Ġal veno
Ġdi men
Ġmul tn
Ġmale bli
ĠRen konto
Ġf os
ĠKan tono
Ġsu ver
ĠW el
Ġprote kto
A tribu
ĠAÅŃ to
ĠNova Äµoj
N omo
Ð° ÐºÐµ
a c
Ġb esto
Ġor din
Ġpubli ke
Ġstrate gi
ĠK ing
van toj
Ġjun ulo
ebu ano
Ġju da
N eniu
Ġuni ka
Ġregu lo
Ð´ Ð¾Ð½
romp ita
Ġin d
Ġoku pis
D en
c ulo
ami koj
Ġmalproksi me
ĠO fte
Pe ter
Ġord inara
Ġ198 5
å ®
ĠBer tilo
ãĢ Į
for o
fa lo
ĠM ani
D on
Ġfinan caj
1 000
re toj
es s
Ġva lo
L O
ĠFrancis ko
Ġtri an
Az ÉĻrbaycan
à ½
ks em
Ġor o
Ġfra zoj
Ġgrave co
komputi laj
Ġsin dika
Ġlasta tempe
ĠS pa
Ġpre ten
ĠTi m
kluzi ve
K rom
ĠJo ze
ĠJa ko
Ġprezi dan
Ġespri moj
Ð°ÐºÐµ Ð´Ð¾Ð½
s p
ĠLi broj
Ġsci pov
h l
Ġrevizi on
Ġelekti taj
as t
ĠJ aro
aci aj
Ã³ w
Ġakcep tita
s to
ka tolo
Ġo le
ĠC re
ĠU S
ĠKata lin
tvi eÅ¡
Ġes e
ĠG ali
tvieÅ¡ u
à¤ ¹
Ġfon dinto
Ġsin teno
ãĢ į
Naski ÄĿo
Ġi ros
Ġver an
Ġvizi tas
T eo
Ġ= "
Ġvita mino
Ġpa con
Ġf ul
Ġvide blas
Ð°ÐºÐµÐ´Ð¾Ð½ ÑģÐºÐ¸
u oj
Ġvi dos
ce le
man ÄĿo
Ġpej za
du a
ĠÄĿen eralaj
Ġher edaÄµo
ĠE rich
h ala
ga li
Ġdisku toj
ĠEuro pe
Ġin aÅŃ
== ==
la Äµoj
Ġbran Äīo
ĠSoci eto
à ¶
ĠA ni
Ġ ï»¿
fek tive
Ġmalal taj
C er
Ġ ign
Ġpre sti
Ġ6 5
" ).
Ġori ento
Ġkana lo
u z
ĠPa lest
ti goj
Ġki r
Ġpri komputilaj
Ġradi kojn
ĠAt lan
Ġen re
Ġkris tanoj
Ġkomita tanoj
f in
Ġ ero
ĠÅĿ los
rek toro
Ġriver oj
T em
Ġ igis
Ġuza don
n ur
Ġman ÄĿo
ĠNe ces
à¤ ¦
Ġkons cio
bi an
Ġ197 9
ĠS ol
Ġrifu zis
G i
ĠH um
Ġam bi
h ol
eb lo
vil le
Ġtab eloj
T utmon
ĠInter reto
Ġfra toj
Ġforges is
Kore io
ĠF al
Ġguber ni
Ġ8 00
ĠRo terdamo
Ġplan to
lern ejo
im bab
Ġmateri alon
ren o
Ðµ Ðº
Ġmova don
c ere
or sk
Ġs k
Ġkonsis tigas
ps ko
Ġjus teco
ka taj
Ġli gas
ĠO ra
âĢľ ,
Ġkristan ismo
b anoj
ÅĿ ar
ĠU son
Ġ5 5
à± ģ
kti taj
Ġtradu ku
Ġre gn
ĠH unga
S T
ca tion
Ġankor a
Ġkuke tojn
D R
r z
en ti
Ġde ven
Ġser vojn
Ġad vo
gx o
Ġniv elon
Ġvi co
um ita
s ko
kon duko
ĠĠĠĠ ĠĠĠĠ
Ġnok te
£áĥ ļáĥĺ
es tra
sek s
Ġreven i
Hel pu
Ðµ ÑĤ
Ġscienc istoj
Ġdol oro
ĠVla di
lan don
Unu a
ĠS ign
Ġpor tre
Ġba k
Ð² Ð°ÑĤ
áĥ¥áĥĲáĥłáĥĹáĥ £áĥļáĥĺ
ks io
à¦ ¬
Ġeston ta
un t
ãģ ĭ
co de
ĠPar to
Ġaser tis
ri e
Ġki en
so cia
Ġman ÄĿas
Ġven di
grafi aj
â ĺ
is ton
Ġsi me
ĠMin is
Ġfa kuloj
Ġindividu aj
! "
à ¯
eb as
Ġlabor a
Ġkam ara
Ġflan ke
ĠÄī ia
ĠV el
ĠlaÅŃ longe
Ġprezen titaj
Ġpru vi
eb rea
ĠP len
ĠT ar
kol ora
yn orsk
Ġkom ision
Ġris ko
t kodo
Ġak or
Ġpa tr
Ġcer tas
Ġkli mato
Ġ196 8
g ono
ĠR io
ĠVarsov ia
Ä ±
Ġpro vu
áĢ Ļ
ĠGre ek
ĠTaj vano
Ġdosi eroj
à¤ ®
j aro
ĠW en
ini an
or io
Ġpor tis
po ten
ĠMar k
h om
Sloven Å¡Äįina
Ġul tra
Ġsu ba
Ġorgani zas
ena Äµo
Unu e
Ò Ľ
ä º
ĠPar ti
ĠÅ Ľ
ti ce
ĠP lu
Ġstu di
Ġa mon
Ð°Ð· Ð°
ĠK D
à¤ °
Dez ajn
! )
ge t
bi c
Ġarg umentoj
Ġka li
L isto
Ġcer bo
Ġve tero
Ġpozi cion
ĠDe utsch
Ġmaldek stra
Ġvenon taj
b eloj
Ġes pero
K ol
an ojn
Ġa gen
tis h
Ġp ek
Ġs h
ĠB one
Ġpo em
Ġer aroj
Ġabsolu te
Ä Ľ
B os
à¤ ²
ĠPakis tano
Ġp si
ÄĿis to
Ġdis de
Ġaspek ton
T er
Ã ĵ
labor o
Ġproksi maj
Ġdefen di
dli teraturo
ĠAli flanke
Ġtea tro
la va
or us
ĠZ e
ĠDis trikto
Ġpa go
ku ro
Atribu to
m y
la g
Ġmova doj
ĠDan io
ĠHin di
Prin tisto
Dezajn isto
Ù ĩ
pri l
Ġelektr oni
Ġ Ã©
Ġata kis
te mo
Ġj ena
Ġkontribu is
mpli fi
Ġke urig
ĠFran ce
Ġoku pas
Ġkvali ton
uj n
Ġek za
Ġakti vi
ĠLern u
ur s
ĠS kri
Ġo kt
Ġpro vle
Ġsi de
Ġres publi
gas y
paro li
wi ÄĻ
ĠIzra el
. -
Ġre ferencoj
Ġfer mita
Ġopini is
naski ÄĿis
Ġen mig
Ġfaci ligi
Ġpere is
G o
pro te
33 33
ĠVo ices
us kri
Ġman ÄĿ
Ġakti vado
Ġtas kon
Ð°Ð·Ð° ÒĽ
u da
Ò ļ
Ġpe za
Ġter or
Ġfo lioj
Ġli tero
de go
ĠPar toj
m bo
ĠBi blioteko
Ġgr undo
ĠÄīe fo
ĠK ali
logi oj
Ġtradi cie
Ġsek son
Ġdatu mojn
ĠHispan a
Ġkonsidera taj
Z amenhof
Ġor nam
Ġmur oj
Es tis
Ġreprezen tanto
ĠPu blish
te ca
Ġsek ura
Ġproduk ta
ĠanstataÅŃ e
ĠFren ch
Ġven ki
ãģ ¾
Ġinteres e
Ġorig ino
p df
tor s
Ġprote stan
em ber
Ġfl oroj
s y
es ton
Ġvi ki
Ġtra ktas
Ġof taj
Òļ Ð°Ð·Ð°ÒĽ
Ġklopo das
Ġforges u
Ġhor lo
Ġsuges tas
Ġavanta ÄĿojn
S r
s al
Ġvi kipedi
Ġku i
ĠÄµ urn
à¤ ª
ĠJa c
Ġf anta
Ġeks a
ti ca
ĠaÅŃ t
ĠW o
D ona
ci as
Ġaper i
Ġfami lia
- ,
ĠB edaÅŃrinde
ĠI lus
ca re
H ispan
Ġper fi
ĠMon tre
Ñħ ÑĢ
Ġen try
Ġal ko
Ġre alo
Ġtur nis
Ġsubjek to
Ġin sek
ĠUni ted
B ur
ĠM el
Ma ku
Ġescep te
Ġpar ko
ÄĪ ina
Ġas tro
Ġkru c
lis toj
Ġscienc aj
ĠPek ino
Ġkonsider is
wa i
zan io
Je an
v aloj
ĠI van
Ġeb laj
hr vatski
vi ro
Ġmor gaÅŃ
ãģ ª
Ġtes to
Ġter on
ce lan
Ġinter reta
Ġpra vas
Ġ oma
Ġf ut
ĠÄīees tis
ĠP rus
Ġesti ÄĿis
Fran ce
Fran cio
Ġplez uro
D ok
Ġekkri is
¯ ÙĪ
Ġsen das
Ġlin ks
Ġdiplomati que
Er gonomiaj
Ġe taj
ĠG as
zar da
Th is
S te
f ana
Ġre zolu
Ġkun ven
O T
di ro
Ġunu ajn
t ha
Ser Äīi
Ġb ote
Ġpor ti
der s
Ġeldon is
Ġ198 3
MO Dx
ĠMO Dx
Ġf ero
ĠmanÄĿa Äµo
ĠÄĿar deno
ĠI P
ĠR on
w ell
ĠSci enco
Ġeksci i
A ktuala
B la
Ġmal ÄĿoj
tio ksi
Ġpron omoj
Ù ī
Ġne go
vi va
Ġ19 34
tin te
Ġmals ama
Ġimpres on
psko hrvatski
ĠHa i
Ġcel is
di t
Ġma kler
Ġ5 4
Ġvari as
Ġvalor as
ĠH ebre
Ġam bas
tar ojn
ÑĢÐ¿ ÑģÐºÐ¾
ĠRuman io
Ð²Ð°ÑĤ ÑģÐºÐ¸
ÑħÑĢ Ð²Ð°ÑĤÑģÐºÐ¸
ÑĢÐ¿ÑģÐºÐ¾ ÑħÑĢÐ²Ð°ÑĤÑģÐºÐ¸
ol do
Ġle vis
Ġdev iga
ĠÑģ ÑĢÐ¿ÑģÐºÐ¾ÑħÑĢÐ²Ð°ÑĤÑģÐºÐ¸
Sr pskohrvatski
j ojn
Ġtraduk isto
ĠCam bridge
Ġalfa be
Ġunu foje
Ġfa koj
sk Ã¡
emon io
H R
ĠKon tro
ĠLe ono
lingvan oj
da v
Ġtra ktado
ĠRus sian
ĠkondiÄī ojn
ĠFon daÄµo
Ġkongres oj
u li
Ã ²
re l
Ġrapi deco
ĠhodiaÅŃ a
ĠVj etnam
p edia
Ġe min
ÄĿ ar
vor ton
Ġe coj
pa tro
me t
Ġkons il
Ġbil dojn
Ġkonsta tis
P an
Ġpro ced
ĠJan Maku
german e
Ġkilomet roj
Ġgej un
dan taj
amenho fa
Ġret pa
Ġiden teco
L in
Ret poÅĿto
man d
es i
di c
âĢĿ )
ĠÃ ł
Referencoj Redakti
Ġh undo
ĠA dam
ga taj
ĠÅĿi r
razi lo
Ġvila ÄĿoj
ĠFrom m
Ġdi ferencoj
Pos te
Ġsam tema
Ġâ ĸ
Ġciviliz acioj
Ã »
ĠS z
ĠM ana
ĠNe o
Ġtraduk ojn
Ver koj
ad s
ĠCi ty
Ġle teron
Ġop ti
à¯ į
Ġpre fi
dis mo
ĠGerman ujo
ãģ Ļ
mar koj
Ġtito loj
p ajn
din te
alaj n
B al
s te
las o
Ġelsta raj
l ero
gen er
ĠSam tempe
ĠI tala
ĠHin dio
Ġsi d
ver bo
ke toj
. ),
Ġre tan
Ġpa ÅŃ
Ġeks pozi
e poko
st roj
Ġpa ÅĿ
Ġdeci das
Ġ å
Ġdisku t
ĠHom aj
cto ber
ĠKongres oj
b una
ve tur
Ġklopo dis
tro po
ty le
righ t
ati ve
Ġin k
te xt
ed ion
Ġo kcidento
Ġpre ven
Ġinteres on
ĠFund amen
ĠG ab
ĠKon kurso
Ġco loj
Ġref le
O ri
ÅĿi po
Po la
Ġdisvas ti
Ġnur aj
Ġsoci an
z oro
Ġ19 18
Ġfa zo
Ġbon far
Ġser Äīis
Ġgen e
fra toj
Ã¨ re
à® ®
M uzi
s che
zi ÅĦski
dek stra
Viki media
ãģ §
ĠK ia
Ã© n
Ġdatu m
à® ¿
Ġta Äī
Ġka toj
pi ro
ut ch
Ġfilozo fi
ĠC la
Ġlern ej
Ġintern aj
Ġstabi la
Ġm am
Ġb ono
Ġrez isto
Ġopini oj
Ġses io
Ġagnos kas
A K
Ġp edago
Ġa bo
ri ero
sta ta
Ġfunkci ado
Ġinflu on
ern e
Ġgaze taro
ĠEU R
Ġvikti moj
ka pa
Ġha ve
me z
ĠÄĪi rkaÅŃ
Ġdisting i
i ru
Ġvi vanta
Ġsim pa
Ġetiked igita
Ġkom pro
Ġfor igis
men ciante
Ġreligi oj
j am
ing ton
se tti
AntaÅŃ a
E P
ĠE ric
Ġpor don
Ġpermes i
Ġsimi lan
à® ¤
ĠJose ph
lau de
ĠS ar
ĠS tar
k lon
Ġvi tro
Ġfra tino
Ġsoci al
Äīam bro
Ġ Ð¾
Ġmili tis
ĠK ra
don is
Ġ19 33
à® ´
ĠBr ze
Ġenkondu ki
b ras
Ġstra toj
ami ko
Ġ198 2
ĠNation al
La tina
ten is
Ġrez ign
ĠÐ ¼
B ri
m ismo
Ġe duk
ĠL or
fa ri
Ka ÅĿitaj
ki es
Ġkonsen tis
M ani
Ġkan cero
m om
Ġki an
ĠPo ÅĿ
ĠPra kti
Ġparla men
à®¤ à®®
Å ĳ
le go
ĠVil helmo
E tikedoj
H istor
M T
N U
Ġesperan taj
Ġn ynorsk
ĠAnton io
ĠB ran
Ġhav ebla
Ġs ke
Ġma ga
ÄĿa dis
Ġbir do
Ġinicia to
Ġesperan te
Ġagri kulturo
Ġdiman Äīo
Ġb la
Ġpro tokolo
Ġspeci faj
Ġunuo paj
ĠVaÅĿing tono
en da
Ġes tante
ĠT ran
ĠMu zi
à¦ ²
Ġepizo do
va doro
Ġmontri ÄĿis
Ġri Äīaj
oni an
ba ch
Ki om
Ġenha vis
ĠSa int
b et
ĠS uno
ĠKar l
Ġkarak teron
f ojn
Ġekz eku
Ġsubskri bis
i la
Ġci taÄµoj
Ni aj
B io
tor ino
ĠMa x
Ġtekni ka
Ùħ Ø
S em
ĠL ud
Ġgra fi
Ø§Ø±Ø ¯ÙĪ
B one
Ġti m
ym ra
re d
In formoj
ti es
). [
Ġpas igis
Ġdispon as
AzÉĻrbaycan ca
m ina
um ojn
Ġesperantis tojn
w ar
Ġten is
Sek va
ga Äµo
Ġnun aj
ĠBrze ziÅĦski
Ġvi va
ĠC zech
Ġpublik igitaj
Ġmanifes ta
Ġprovin coj
C H
Ġle gu
Ġkomer cistoj
ĠL is
Ġ4 1
Ġri t
Ġfa lo
v juo
ĠLe o
Ġperson ojn
19 60
ĠAl poj
Ġvin tro
Ġinstitu cio
Ġeksp edi
C e
ke t
Ġlo s
Ġgra v
ĠLe on
ĠArtiko lo
Ġekzis tanta
à¦ Ĥ
Ġfir me
ti ma
di men
kta to
Ġgvi di
à¦¾ à¦Ĥ
Ġmi rinda
Ġ19 05
Ġmini mum
Ġ Ð¸
Ġp onto
Ġes enca
Ġg es
Ġpas troj
p lu
Ï Ĥ
Ġan o
tin on
ĠM ora
pa ga
Ġeb lo
Ġpi ra
ĠEle k
Ha zarda
A u
Ġf ono
il la
ĠNi kola
Ġakti vaj
Ġreda kcio
ĠSpi ri
Ġsimpto moj
in tojn
ci lio
ĠdanÄĿ ero
u ko
pa ge
alis ta
Z e
Li teraturo
Ġla kto
Ġve geta
Ġsto ma
k igita
à ¬
ti vajn
Ġma gi
kul ojn
Ġmus ko
ĠFranc ujo
ĠM ed
Ġ19 32
Kon traÅŃ
ĠOli mpi
S kri
Â ®
Ġes ence
ĠS panish
para do
ĠneÅŃtra la
A ten
ĠS mith
Ġek estis
Ġlan Äīis
lo koj
ĠA ri
us on
Ġpli igi
ĠZ odia
Ġkron virus
u kso
ig anto
Ġb om
il d
m ulo
n an
ĠA mas
Ġtre jna
iste moj
Ġpre tigi
Ġlabor oj
ĠF lor
La tvieÅ¡u
Ġ19 25
ti co
ĠF ilo
Ġro mi
ĠPra go
f aci
ĠC y
sta to
Ġinteres as
u is
. --
Ġj ul
Ġ194 4
Ġkov ri
Ġd ens
ĠS amo
du kado
Ġeldon on
Ġzor gas
ĠHor os
Ġpa tron
ĠW es
Ġrespon doj
ĠP un
Ġspeci fe
Ġban ko
Ġhid ro
Ġek va
ĠÅĿta la
Ġjen e
b ul
Ġpa c
La bor
ren kon
Ġsignif oj
ĠSo cia
ĠAd minis
Ġkem ia
e ven
ĠK ura
Ti uj
ĠRa pi
ĠÅĿablon oj
b ez
ci ajn
Ġek rano
Ġfari ÄĿos
Ġzor gi
Ġmalami ko
Ġmedic ino
į s
Ġta len
ĠRe gno
Ġkonsis tis
Ġdiskrimin acio
ĠFried rich
Ġ igi
Ġtra fis
ĠDipl omati
F amilio
e ge
Ö ´
Ġen skri
Ġ/ >
Ġdeter min
Ġen to
ed zi
ĠG vineo
P ress
tra dio
V a
Ġka vali
ĠaÄīe tas
ga ra
Ġfunkci on
ĠO l
cem ber
ĠÄµe tis
Ġhistori isto
ĠH omoj
igu el
d um
k igis
Ġper das
men oj
Ġmals a
ĠdaÅŃ ro
Ġmallon gaj
Ġeni ras
igni ew
Ġmon ar
ĠkontraÅŃsta ro
A bon
P la
ja ri
ĠvoÄī dono
b raj
Ġ æ
lens ka
N I
Ġ195 7
g bo
q ip
~ ~
ptem ber
Ġcivi tan
Ġmo le
ĠÐ ´
tad reso
M er
Ġt rajno
vi lo
ĠD el
Ġle ÄĿ
Ġkan tas
m uni
Ġti poj
aÅŃ mo
Åľta taneco
ti tan
vi tan
ĠC al
Ġmor ton
Ġg aj
Ġmar ko
Ġnova Äµo
Ġroman oj
ĠJapan ese
Ġal in
ki ÄĿo
S co
Ġe jo
ze co
Ġeb lis
Ġcen toj
Pro ksi
Ġfabri ko
Ð° Ð»
Ġkres kanta
Ġinten cis
ul ing
Ġ6 00
f onoj
ra Äµo
ĠK ov
Ġaten ti
ĠIta lian
zi on
Ġ197 4
Ġekvi val
ĠJohan n
i ma
Ġme lo
Mar to
K K
le goj
ĠR igardu
Ġneces o
ĠMos eo
Ġris kon
Ġkonstitu cio
m erka
ĠP es
ĠMON ATO
Ġpopula raj
ta rio
Ġde vi
ar chive
ĠÄĿi ajn
Ġ197 6
Ġmon toj
ĠRus ia
Ġ197 5
ti oj
Ġ5 1
Ġnor dori
Ġindividu a
Ġa gas
fi loj
Ġ19 78
ĠSlova k
T ek
k amen
Ġfor igita
ĠDe c
Ġkategor ion
Ã§o is
E kon
do k
Ġpreci za
Ġrigar do
Ġvoja ÄĿi
Ã Ĺ
tri oj
Ġ194 9
ĠÅĿanÄĿi ÄĿas
e caj
Vi kipedio
Ġvar mo
ĠGre en
gale cen
o per
re con
Ġevolu is
vide bla
Ġvolon tulo
Ġrespek to
ĠGri mley
ĠR espon
Ġse ka
Ġpost tagme
Ġon do
Ġespl oroj
Ġde vo
Ġha veno
ĠBulga rio
Ġoport un
x a
ÄĿ uloj
Ġdi ros
pon o
Ġsin te
Ġbil d
Ġpos teno
ĠÅĿa tis
Ġindividu o
ĠUr sula
N ur
ĠA ven
Ġsam ide
Ġlas as
Ġspa con
Ġklarig ojn
P S
Ġh in
ĠI m
is m
Ġkontribu as
ĠT eo
Ġlingva Äµo
Ġpa pero
ĠÄµ a
Ġprele go
ÅĿta to
Ġelektr onika
ĠE m
ĠC ata
Ġekzamen o
M ez
Ġpoliti kistoj
ks ig
ni e
ĠKom ita
ĠMon to
ĠS y
ov en
Ġsol von
k igo
Ġfa ktoj
ĠdediÄī ita
Ġre toj
ĠS tre
ĠH al
Ġ197 3
Ġdok toro
Ġklas oj
Ġenkon duk
german a
Ðľ Ð°ÐºÐµÐ´Ð¾Ð½ÑģÐºÐ¸
ten a
tura do
}} ,
ĠGran d
ĠTi mes
Ġven dre
Ġkriti kas
re vuo
ĠT y
ĠN an
buna lo
Ġten as
ĠSte fano
ĠKore an
ĠT ea
Ġsper tas
ĠE o
Ġ19 17
ge co
ĠÄľen erale
g uloj
g into
k eno
ĠM ona
Ġse le
ĠIn stru
Ġneni an
Ġsan on
dire kti
imbab vo
ĠB ab
Pri va
ĠÅĿablon on
a ve
Ġman kis
Ġproduk tis
Ġ198 1
ros s
Ġval ora
an ski
Ġe gip
mi ÄĿi
g mail
ĠkaÅŃ zoj
Ġso cioj
ran toj
Ġnor mo
TM L
ko lor
Ġg amo
ĠC ho
ĠAn t
Ġmals ek
Ġaten to
Ġel pens
Ġpo etoj
Ġ197 7
V K
Ġregi ona
ĠLu ci
Ġkli ento
Ġkonfli ktoj
Ġreduk tas
Ġsi e
Ġka d
19 41
kur is
Ġare on
Ġgra ved
ĠBa ch
N acia
Ġsia vice
Ġkomen ca
Ġdon aci
ĠÃ ī
Ġsupoz eble
b oni
de joj
Ġuniversita toj
Ġli gn
ol ing
Ġrapor tis
Ġap r
Ġba z
S tela
ä ½
Ġstatu so
įs lenska
Ġri gi
âĢĿ :
Ġpopo l
Ġefi koj
Ġblan kaj
ĠHen ri
ĠÄīapi tro
fa rado
Rulse ÄĿaj
Ġde legi
Ġan tioksi
Ġesperan tista
Ġâ Ŀ
Ġkos to
f ro
h ome
Ġres to
Ġpla Äīas
es tivalo
Ġsub stre
tes tro
B ar
kul tur
Ġnek re
ĠAra bic
Ġfem in
lej oj
Ġmul ton
Ġal venas
ĠÄľ in
Ġfla go
er y
Ġ197 2
ÅĿan ÄĿo
Ġ196 7
ĠKol ombio
w il
ce la
tin to
Ġneces aj
Ġlar ÄĿ
G U
Ġkunlabor e
C A
Ġeks pozicio
Ġokaz igis
ĠFilip ino
ri oj
Ġkos mo
è¯ Ń
i tajn
re da
Ġj o
Ġgas o
te li
Ġan im
Ġha ra
E mail
Ġd ras
Ġg h
ĠMa le
row n
ĠH ans
Ki e
Ko lekto
ĠMem broj
Ġokupi ÄĿas
teri aloj
ĠIndon ezio
li ma
Ġb ron
Kom ento
Ġrakon ti
Ġfu rio
ĠHe alth
in dus
ri gis
Ġg im
ĠIn sta
Ġpreci zaj
Ġtie le
vor taro
Ġserio za
ma th
Ġ19 36
r d
ĠaÅŃ das
ol oj
ĠÅĿan ÄĿon
ĠOr deno
tic al
Ġkilomet rojn
s ano
t ren
Pro tokolo
ĠBulga rian
ĠsenÄī ese
a toj
Ġdu foje
Ġkapab loj
Ġi l
Ġkre into
Ġ5 3
Ġgrave con
Ġmet rojn
no logio
Ġprofes iaj
Ġg al
ĠT V
ĠU SD
Ġ195 6
y ou
ĠR ek
ĠF un
Ġsek toro
kom ple
Ġmal plen
Ġba zon
Ġprote ktas
kos taj
Ġpozi tiva
Ġdom in
f ru
ka ÅĿi
ala m
Ġdan ÄĿer
ĠSta lin
Ġpez aj
ĠU zbek
cia le
kor e
Ġhel pe
ĠRo berto
ĠPo z
Ġfil on
H odiaÅŃ
Ð Ĳ
Ġre veno
ĠArtiko loj
Ġor an
ĠBar bara
Ġkompa ri
far as
m un
Ġm os
ĠLing voj
âĺ ħ
v oro
Ġbata loj
ĠOri ento
ĠHunga rian
Ġs lova
ĠL ar
Ġkre o
ĠAr chi
Ġdefini tiva
vi ÄĿo
Ġta ksi
stru k
Ġjen ajn
Tutmon da
Ġs telo
li ga
Ġel mig
kam po
ĠAmi ke
Ġkonker is
ĠZb igniew
u i
ĠVi etnam
Ġkor up
Ġinterre te
ĠV es
Ġfor mojn
ĠFor umo
Ġs ku
Ġre ÄĿa
Ġg a
ĠAl fred
199 7
Ġkultur on
à´ ¯
ç Ķ
Ġre tu
Ġg run
em ploj
ni ka
Ġver aj
Ġkla rigo
à´ ²
à´ ¾
à´ Ĥ
Ġmalbon aj
Ġpromes is
Ġlong daÅŃ
w an
Ġf eri
ĠJ on
vu oj
Ġpriskri bi
Ġorigina lan
Ġnig raj
F in
Ġling van
Vi r
Ġaldon ita
paro lantoj
à´ ®
ĠV era
Ġver on
Se ptembro
Ling va
ĠaÅŃtorita toj
ĠBata lo
Ġmedic ina
: )
F er
Ġdis poni
Ġkri is
à´ ³
Ġpez on
Nun tempe
à´² à´¯
à´® à´²à´¯
Na vigado
Ul tra
i er
Ġn edu
ĠPro vi
Sen du
tugu ese
Ġtiu tempe
Ġrenkon tas
b os
v igis
c ul
Ġven das
Ġuti laj
p lon
ĠI sa
Ġmani eron
Ġhe pa
Ġprez listo
ing s
ĠPar is
à¥ ĩ
ĠAu gust
n una
ĠCh ina
Ġdeci don
Ġv ino
Ġbi bliote
ĠdanÄĿ era
Ã ¦
ci ita
de z
vo ko
lan ko
Ġkri tiko
rus e
Ġ194 1
ta dis
ĠG va
Ġkuti mo
Ġhej ma
ĠNew s
de con
A B
b ero
ĠD ani
Ġri ve
Ġle ganto
Ġhar moni
li ko
lo t
Ġkapita lismo
Ġtenden co
Ġfeder acia
ĠV K
rila te
Ġplenum is
ĠhaÅŃ ton
ig us
ĠK le
B an
e za
Ġe ka
Ġre ferenc
ĠÄĿenera lan
en er
Ġmi ksi
vo lon
ver y
ĠPol ish
Ġdor so
Ġ196 4
s ke
Ġsu dori
ĠJam aj
ti po
K vinpetalo
Ġs onas
ĠKom ence
Ġnen ia
Ġknab inoj
Ġpri vi
kon greso
Ġ196 5
Ġdivi dita
b b
Ġk in
li aj
ĠLu ksem
Ġkar bon
ki ÄĿas
Kom er
Ġzor ge
ĠVen ezu
E o
Ġ194 7
Ġkandida to
N O
b ine
em ia
ni k
Ġku ÅĿis
ta Äµon
Ġde veno
te kti
ĠM es
ymra eg
Ġmal laÅŃ
ĠJ i
Ġsen labor
Ġsil ento
ul to
Ġkole kton
w en
Ġin tri
Ġeksci is
aci ojn
ver boj
Ġrila ta
Ġkomenc antoj
Ġla su
Ġn elonge
ĠF ore
mplifi ed
e laj
k Ã¡
Ġl un
ĠF eb
19 51
ĠloÄĿ ejo
Ġins is
Ġur beto
ĠÅľ ar
ux em
Ġkontribu o
German io
ĠMontre alo
C ar
Ġre ÄĿoj
Ġeldon ejo
ita mino
lan taro
Ġaldon e
Ġevolu on
Ġarkitek turo
Ġpa ÅĿoj
Ġsek se
Ġ195 9
Ġfrem daj
ĠES PER
Ġw ay
Ġaldon o
n oma
ĠP h
Ġman uskri
th u
ami ka
Ġlon go
Ġbezon os
dol f
ĠSw ed
ĠT ok
Ġle ci
Ġrezul tas
ĠHit ler
ĠD ur
ĠVir g
Ġpala co
f ig
Ä ¤
Ġuz ebla
Ġsta ton
Ġinsta li
u gh
ä »
Ġkom i
Ġka talo
Ġko la
ĠKa tolika
Ġfo tojn
Ġbata l
ĠC roati
Ġver boj
Ġdire kti
G a
la don
ci taro
Ġku iri
Ġinter rila
Ġregistri taj
Ġd rin
ĠA bra
ĠT ria
d un
ĠL td
gra de
Ġisla manoj
Ġfren ez
ĠKatal unio
ĠB lua
Ġdeci doj
rin oj
tin taj
Ġeston te
ĠHen riko
ĠStrate gia
Ġ19 19
Ġ19 37
ĠTur kish
lingvis mo
N P
Ġofi ce
Pro gramo
Ġekvi dis
Ġokazon ta
roati o
Ġneces ajn
Ġfon diÄĿis
tr ajn
Ġ196 2
Ġ19 38
pi on
ve y
Ġis ra
op ini
t ini
ĠGe org
ĠFE I
Äī ado
ĠB lu
Ġra doj
Ġlan dojn
ĠArmen ian
p al
Ġpre zon
Ġmem bri
199 8
d umo
Ġkomun aj
ãģ ı
Ġsitu anta
ĠT hai
ĠN ek
par toj
Ġmalami koj
k l
Ġre venas
Ġefi kas
Po ten
Ä Ĺ
Ġt tt
ĠB oris
Ġelek traj
zbek cha
m ia
Ġh im
Ġpost ulojn
ĠKonsul tita
ĠHebre w
j no
Ġelek tu
L on
p ton
er an
in ten
ĠD utch
Ġmar kita
Ġran do
ĠSoci ety
R AS
Ġk erno
pren as
Ġallo ga
Tu be
L an
Ġin vado
ĠB lo
ĠG on
ni an
Ġb un
ĠNi aj
Kre i
ãģ Į
Ï ģ
am an
ĠP EN
ol d
Ġ19 10
ĠPor tuguese
ĠÄµ urnalo
he ad
Ġerar ojn
T I
Ġpli mul
Ġjun ularo
Ġfru ktoj
ur boj
ĠE vi
Ġ19 29
Ġ19 66
Ġdivi do
Ling vaj
lo so
Ġal l
Ġrifu ÄĿintoj
k um
kon ferenco
Ġpa ÄĿojn
gan a
Ġaten te
mov igi
Ġkapita lo
uj oj
Ġun uso
dan ÄĿer
In formkesto
Ġsukces os
ĠRom anian
vi ÄĿis
lar d
Ġt um
ĠG vi
Ġmon tran
ĠPa tro
ĠÅľ a
ĠpoÅĿ t
w p
Ġre pu
pro fi
Ġsta ÄĿojn
v Ã¡n
ha va
Ð½ Ð¾
Ġlevi ÄĿis
Ġ196 9
Ġhon or
komun umo
Ġinten co
Ġmalkov ri
Ġepis kopo
s ign
ĠF oje
Ġfini ÄĿas
B ul
Ġtrovi ta
Ġdia logo
Ġvi ra
ĠAn tar
ĠIli a
ĠNapole ono
ing en
Ġprofes io
Ġal klaku
ĠE N
Ġar bi
ĠD omo
ĠBur undo
ĠTam il
A D
ĠR od
ĠN ATO
ĠG am
ĠÄľ ene
Ġrigar du
Ġgejun uloj
i ÄĿos
Ġpos tenoj
ha vas
ãĤ Į
f fe
ĠLibera pay
ĠUNES KO
å ½
ç ²
ĠÅĿi poj
kte ks
Ġa ÄĿa
si ca
tr um
Ð¸ ÑĤ
Ġdispon ebla
ĠVietnam ese
ĠM iguel
Ġinfor mado
ĠÄīam bron
ĠÅĽ wiÄĻ
Ġs tyle
ÄĿ ano
ĠL uxem
Ġma teria
Ġvol umo
Ġafi ÅĿon
Ġfre ÅĿa
ÑĪ Ð°
en aj
Ġpre di
ch es
Ġpla co
ĠÄĿus tan
Ġpostu lo
ĠAleks and
Ġrecen zo
ĠreÄĿ lando
ĠCroati an
Ġhal tis
Ġdatre veno
Ġsi das
fra to
Ġsendepen deco
Ġim un
Ġpov on
Ġvoja ÄĿoj
Ġmallon ge
Ġsign ojn
ĠAndre o
Ġ196 1
ĠL os
de blaj
ĠD aÅŃ
ĠV ati
th am
Ġrea go
Äī ojn
ĠOrig in
? )
w orld
en io
in das
Ġn ut
ris mo
Ġsper tojn
Ġpozi tive
ĠAfgan io
Ġli bre
Ġinstr umentoj
p ti
IS BN
Ġkomputi loj
v s
de li
ĠLu ter
Ġmedi kamen
Ġapro bis
Ekz emple
u gu
Ë Ī
en ko
Ġsam ajn
Ġplan oj
Al donita
Ġes ka
ĠK ro
di es
Ġmu ze
ĠÐ ¡
Al fred
Ġata koj
Ġparola ta
Ġb log
di e
tur ojn
Ġtur n
Ġkura cis
ĠFrancis co
ek de
Ġk ern
kon du
Ñĭ ÑĢ
k ron
ĠK ad
ĠÄľ uste
kan i
ĠÄĪe Ä¥oslova
Ġaran ÄĿi
ĠStan is
Ġfran c
Ġ194 6
Ġgajn i
Ġpriva taj
Or gani
Ġom bro
ĠFern ando
ĠarÄ¥i vejo
la to
pro fun
Ġeldon isto
ĠTa is
p ng
Ġtem is
Ġ5 6
Ġk rono
ĠS ti
Ġar on
Ġplej parto
Ġge amikoj
ĠPro fitoj
Ġva k
ĠAm ster
Ġ ÑĢ
ĠA g
Ġpro greso
stan co
Ġpoten coj
Ġalpor tas
00 7
Ġkoncep toj
p toj
ĠS ou
ĠW hi
Ġtraduk as
Ġmaldek st
lara cio
D em
Ġse zono
ĠUni on
Ġrezul ton
F ra
Ġla ux
ĠH ara
Ġju ra
Ġkatal una
Ġsvis a
Ð ¶
Ġs oj
se ÅŃ
V ar
z ento
Ġk l
Ġ1 18
Ġap re
kt uloj
h ero
p ing
Ġekzis tantaj
Ð¾ Ð´
Ġaran ÄĿoj
b eno
Pol lando
1 20
Ġkonstru itaj
Ġtur ismo
G u
t lando
ci Ã³n
ĠC ul
ber io
con tent
Ġle gen
Ġorto do
f ta
es te
Ġ195 8
Ġhar ojn
Ġgener acioj
Ġplenkres kuloj
k var
li m
Ġg eno
ser io
Ġtemp lo
Ġperfek te
Ġba zajn
Ġim pon
Ġkom pi
Ġelek ton
Ġkos toj
! ...
Ġcen troj
Ġtom bo
n aj
Ġinter tra
Ġ19 28
Ġri pro
men o
19 64
Ġsuper as
Ġespl oro
Ġmalfaci laj
ĠFi li
ĠCom ment
Ġeksp lu
ĠAn droid
Ġfin on
we gian
ï¼ Į
ĠBrus elo
Ï Ħ
Äī ar
Ġgra doj
Ġinteres ajn
Ġkura cistoj
Ġat m
Ġtele fono
Ġalb umo
igi lo
Ġb eb
ĠC F
eder acio
Ġkonvin ki
ĠFeder acio
Ġar ÄĿ
Ġci lin
Mal peza
Ġdisvas tigo
Ġdipl oma
roni ko
Ġs is
Ġkuti maj
Ġstruk turoj
ĠÅĿi p
Ti el
Ġer aron
Ġdistri ktoj
Ġ }
ĠÅĿ al
ĠÅĿan ÄĿas
Ġkonser vado
ĠK aÅŃ
ĠÄīirkaÅŃ aÄµo
Ġka fon
Ġw eb
Ġminu tojn
ĠFund amento
N ord
Ġsen toj
ĠUkra inian
Ġ ì
Ġp neÅŃ
Ġin fo
Ġan oni
si ojn
Ġrespon deco
) âĢİ
Ġfi de
tik ojn
Ġfran can
ĠSci encoj
Ġepis ko
las i
ĠÄĪ am
Ġkel ke
Bi bliotekoj
Ġdiferen ci
ç² µ
Ġc ed
Ġtaks as
ç²µ èªŀ
ĠF lu
fon so
Ġinflu is
Ġaku za
ĠTi an
Ar ki
teks toj
Ġg ro
ras a
Vi ew
Mal pezaj
Al doni
ĠD er
Ġinfor mis
turi anu
m ove
Ġ12 5
ĠGen er
ĠWord Press
Ġpro centoj
Ġra dia
be ta
tn as
jara ÄĿa
ĠIndones ian
Ġfrem da
Ġs kalo
Ġel di
Ġres an
cen tra
Ġfin na
ĠÅĿta taj
Ġsukces on
Ġmom entoj
Ġ195 4
Ġservi lo
is man
ĠV ere
ma don
ĠÅľ tata
ĠRa portoj
Hel po
M in
ĠE ar
men ko
Univers ala
i ce
un uo
ĠA pril
Ð¸ Ð¹
Ti am
ĠKomun umo
Ġa Äµoj
ĠD ol
ĠMar x
Ġstatu son
Ġjus ta
Ġkaf os
San kta
Å į
Ġnu an
ta gon
ĠT rin
Ġmon taro
cri pt
Ã ī
Ġne evi
ĠT en
na da
Ġak tu
Ġvi vantaj
mal l
Ġfrem d
ĠDiplomati o
is tan
kon ta
Ġkongru as
" -
ĠT uj
ĠÄīa gren
Ġtrankvi la
ĠPalest ino
Ġfil m
As turianu
ĠHun ting
U S
w ig
Ġfi ksi
Ġtavo lo
Ġstaci domo
S tu
Ġka dav
Ġnum eroj
Ġvi van
vers a
Ġdek li
Ġ196 3
Ci ti
ĠMedi teran
U zanto
Ġpa g
ĠÄĪ inujo
ĠGeor go
Ġakadem i
Ġmi rin
Ġkonsci as
hav ebla
A leks
h um
Ġf ek
ki ri
Ġhipo te
d ino
ĠA jna
Ġo ksig
Ġpo le
Ġuzi taj
ĠtaÅŃ gan
ĠfiÅĿ kap
ĠAl ban
gos la
Ġpol oj
ĠretpoÅĿ to
ĠFeder acia
Ġtro mp
ĠE mi
ce o
Ġsen dita
Ġse ÄĿo
bas e
ul t
Ġ18 87
Ġhav eblas
Ãĵ R
A E
Ġko pio
Ġamas a
Ġgrand parte
Ġmatema tiko
Pres ebla
ni ca
den on
Ġkvin dek
Si mplified
ĠHistor ia
Kur man
Ġrevu on
celan dic
ĠCata lan
F lago
c c
Ġa van
Ġf ur
ĠM Ã¼n
ĠA kvo
rigar dis
ĠVjetnam io
R ez
em plo
Ġparo l
tr oni
Ġvolon tuloj
Ami ke
ĠLou is
K araj
ti tajn
ĠL isto
Ġ19 31
Ġsufi kso
Ġsitu acioj
Ġmalgran dajn
ĠvoÄī on
Ġmedi oj
ell s
Ġ= ==
Ġkres kon
tra Äµojn
st in
H ungara
or itato
Ġin o
Ġmi to
vo la
me a
ĠeÅŃro panoj
Ġpriskri bis
Ġduo bla
Ġkomisi ito
ci is
Ġgerman an
Ġkomuni kiloj
Ġvoja ÄĿis
Ġarki tekto
b anian
vi vo
Ġper i
ĠMa ced
ĠPo Ã³r
logi ajn
Ġhier aÅŃ
ÄĿ ero
Ġgx in
Ã įslenska
Ġoka zaÄµoj
ĠNorve gio
en jo
ĠI celandic
pu ri
Ġplu vo
Ġflu as
Ġmeri tas
Ġmal simi
ÒļÐ°Ð·Ð°ÒĽ ÑĪÐ°
ĠkontraÅŃ as
gran daj
bra ro
AÅŃ to
AÅŃ gusto
Ġremem or
d ress
á Ł
ĠAl bert
ĠAzer ba
Ġor dono
ne to
ente ze
ovi Äī
b jek
ti lio
Ġ19 14
Ġpublik igi
ĠNor wegian
ĠNo toj
etz sche
li ÄĿas
âĢ ī
Ġscienc oj
ĠPO ÃĵR
A P
j araj
ĠCh u
ka le
Ġh ebrea
vis to
ĠZ amenhofa
cep to
Ġ197 1
ĠSch u
c era
i ts
m ilojn
d aron
ÅĿ in
ĠV d
Ġali ri
roj e
bi la
P DF
ti lon
Ġar ta
Äīi uj
Ġlitera tur
ĠIns ulo
Ġnea ten
à «
Ġar t
Ġar keo
par ta
ĠkondiÄī o
Sh qip
I J
ĠK r
Ġrimar kas
Ġflug haveno
ĠLa t
Ġpens ojn
TO J
ked on
ĠBen gali
Ġe gal
eso tho
perio do
ĠinaÅŃ gu
ĠSwed ish
ori enta
Ġspi rita
ĠFron to
P MEG
Ġfor tojn
Ġjar deko
Ġso ciala
ĠÄĪi lio
gx is
Ġani ma
Ġukra ina
lo gis
ga ze
pro gramo
Ġat mos
ĠSer bian
Ġkos tas
Ġekonomi an
Ġabsolu ta
kip edion
Ġrigar dante
ĠSur voje
Ġre vo
Ġinter paro
Ġfor ex
Ġkunlabor on
ĠT emple
ĠC u
Ġme tal
Ġpas as
hel m
ĠMa t
ĠPi erre
PoÅĿ tkodo
ĠHunting ton
Ġba zitaj
les s
66 66
Ġafri kaj
Poli tiko
ĠS hi
Ġkons on
Ġba terio
Ġgvi das
Ġflu o
199 0
ĠOce ano
z am
Â §
si der
Ġhom an
ĠW est
ĠUr du
Kul tura
B ona
fi koj
Ġak v
ej s
Ġam uzi
Ġstu dento
ĠSi mple
Ġdetru i
c ka
ĠE fektive
Ġmal plena
Ġpli e
Ġaper igis
Ġad ia
Ġtradu kitaj
ebru ary
Ġkapita no
K e
ĠH ungara
% .
ĠS ebas
Ġmen cio
Ġnes u
Ġagra bla
R E
ĠF ul
ĠV as
Ġma teno
Ġpens ado
Ġinte gri
Ġkapa bla
ko op
tur ni
ĠDu b
Ġvoja ÄĿ
cus sion
ĠIa foje
et ti
Ġstruk turon
Ġel mon
ĠD or
ĠO ctober
Ġsan kte
Al klaku
ĠUnivers ita
Ġapu da
Ġavera ÄĿa
ti ro
ar tiko
em is
Ġtu bo
Ġmalnov an
R ek
Ġel Äīer
Ġ19 08
ktu lo
ĠKongres on
Ġinstr umen
Gran da
ens io
Ġsignif e
Ġinter kompren
Ġhon ora
M esa
P interest
y an
ci r
Ġnor moj
àº ²
Ġpil gri
ĠLuter mano
{ \
Ġ19 21
ĠlaÅŃ te
ĠR et
ĠJ anu
bi lo
tio pio
Ġtraj tojn
Ġtrankvi le
k aloj
Ð Ŀ
Ġli kva
ĠRa fa
Ġopini ojn
Ġefek tiv
ĠÄĿu as
Ġorgan o
c re
l ta
ĠB ol
tan tojn
Ġtrakta to
Ġregis taron
mul taj
ĠBru ce
Ġtra fe
ÅŃro pa
Ġto tala
B O
Ġsur loke
Ġser ion
ĠLan guage
Ġ19 00
Ġali loke
ĠEl donejo
ĠDan ish
Ġbran Äīoj
Bos anski
b n
Ġv esto
Ġre ganto
Ġda y
tura l
ĠinterÅĿan ÄĿo
or gio
ĠK us
tor y
Ġposed anto
ĠIndi vidu
ĠF ru
ĠPro zo
Ġdeks tre
àº² àº
z igi
Ġs ang
Ġre fer
Ġka faj
Ġbon gus
Ã¶ n
ĠViki citaro
ĠTutmon de
ma d
mon g
su pra
ĠJu an
ĠGi useppe
ĠCol le
d hi
y r
ton e
Ġak ces
åĲ ´
âĨ Ĳ
Ġko lo
ĠÄĪe f
Ġmemor igas
Ġp ur
Ġter eno
Ġekza kte
k ris
Ġru ÄĿaj
âĢĿ ),
Ġlim igi
Ġmaksi mume
ĠBela r
Ġs la
da dis
d al
Ġen igi
Ġmor e
dinda Äµoj
Ber tilo
ĠVenezu elo
Ġkunlabor as
Ġmalri Äī
g g
ĠLi thu
Ġron do
de oj
pe co
c ts
ti gante
Ġ19 23
gra vaj
dor f
li loj
Ġti pa
vi to
Ġli goj
Ġpa gas
Ġmi ri
Ġmal uti
Ġpoli tikajn
Ã§ a
Ġmalb ono
ĠFinn ish
Ġkatastro fo
åĲ´ è¯Ń
Ġmon ero
Ġtu to
por ti
ĠKi om
Ġamas oj
ordina ra
Â ¸
ĠU ru
Ġregion aj
pos ed
Ġdivi di
Ġeksperi men
W e
y en
¯ ÛĮ
er to
am eni
ĠC ali
Ġapo gi
Ġmal kla
Ġliber igi
wo od
ij ani
k tajn
Ġmor t
Ġsimp lan
poli tiko
Ġmalri Äīaj
ĠSloven ian
ĠJor dan
ta ks
Ġpro cen
em uloj
ĠRe ÄĿo
Ġtri o
Ġeble coj
Ġtrans prenis
Ġdona con
µ Ø±
Ġen or
Ġunu oj
Ġkura cado
Ġfizi ko
ĠEston ian
on ta
om aj
Ġ19 55
den s
Ġ5 7
Ġter tre
Ġmon dor
Ġku ÅĿ
ĠSi mon
ĠLon g
ĠKur dish
ĠÅĿ tono
Ġsi la
ĠTi aj
Ġmar nivelo
Kom preneble
Ġplibon igo
er ni
ĠJ O
Ġku ire
Ġparo lo
Ġins ul
Ġver daj
Ġtemp late
Ġresponde cas
lo to
fer on
mp ro
den toj
ĠRe te
Ġfar ante
ĠmaÅĿ in
ĠTan zanio
ti gos
ĠM ur
ĠI vo
Ġda ys
Ġplej multo
pu d
Ġmar ki
tvi an
Tradi tional
ĠFran ces
klu bo
dem an
ĠRus a
ĠBo oks
Äį ek
Ġalum inio
ĠK roatio
ba ri
ĠSen depen
Ġsenpa gan
t ulojn
Ġa man
ĠRo y
Ġren di
kondiÄī oj
o fi
to m
lu doj
Ġkandida tiÄĿi
n ome
er as
ba ton
Ġtradi cioj
Jo hn
ĠLuxem bour
D ie
un ter
es taj
Ġfes tivalo
ĠWiki Trans
Ġen tenas
J anuaro
z in
kci ojn
Ġnor d
rojek toj
. /
F onto
x ml
ĠB j
ve la
ĠIn formoj
Ġdon u
Ġmina co
pli ko
Ġkomen tas
tik va
es pri
Ġdi ka
ĠRe cenzoj
Ġprogra mojn
Ġekvi li
Kurman ji
da ÅŃro
Ġdo laro
ĠZ am
Ġuni verso
Ġkar aj
ĠTem po
ĠCor setti
Ġperspek tivo
d ujo
f inita
r uloj
Ġma li
Ġprogra maro
Ġmaldek stre
Ġdiferen con
E ven
å Ń
ĠPro ksi
ĠDom ini
a ch
El don
99 9
ĠGeor gian
Ġoficia lan
Ġmalkon ten
Ġguberni estro
Ġfor pe
kur son
ĠÄĿu is
ujara ti
j oroj
Ġur baj
ÙħØ µØ±
L ern
Ġb us
Ġo pera
ĠEs tos
Ġek zi
Ġrenkon to
ĠHe in
Ġmalfor ta
Ġtur ka
re giono
Ġre aranÄĿo
ĠE ri
se t
Ġmo tor
Ġrezul tis
Ġ{ *
ejs bu
A prilo
Z I
c ks
Ġka tedralo
Ġdokumen tojn
ĠDemokra tia
Ġal tajn
Ġbone ge
Ġduon on
Ð· Ð±
ĠNata ÅĿa
Ġ ]
Ġfi dinda
ĠÅľ tato
Ġtiam aniere
flan ka
Ġpreter pas
Ġm ej
Ġfor mis
pon oj
so urce
Ġblo gon
Ġmalfru a
Spe cialaj
roje ct
R adio
ĠJoze fo
i b
Ġpro mo
ĠF estivalo
Ġkre itaj
Ġmor tintoj
ÄĿ elo
Ġ5 8
sa y
19 45
ĠTu te
Î µ
Ġk is
an aj
Ġ2 16
Ġli ge
Ġsoci ajn
Ġplilong igita
] )
Ġtu ro
Ġle ÄĿojn
ĠMa ÅĿino
Ġpas a
Ġeb los
Ġgas toj
Ġdor mo
Ñĭ Ð¹
ĠUnui ÄĿinta
U O
h ano
Ġan ek
ĠB is
En Eo
Pe EnEo
Ġre gantoj
Ġpli al
Ġating o
Ġrigar don
ĠMaced onian
d igita
Ġla st
ĠAr chive
Ġna fto
ĠKore io
u plo
ti u
ĠA kti
Ġ19 07
ova Äµoj
Ġkomple tan
ĠPhi lip
ÙħØµØ± Ùī
C ymraeg
om ojn
ko sta
ĠK var
truk turo
Ġavia di
Ġvolontu lado
Õ ¡Õ
ĠP A
Ġsu d
ĠG r
sta do
Ġmontri taj
Ġsal ono
Ġ19 24
Ġenkon dukis
te lon
Ġali ÄĿas
Ġprin tempo
Ġaga d
I REJO
Ġdi ligen
Ġfa ÅĿ
ĠLi teraturo
Ġregu laj
Ġhote lo
ĠkontraÅŃ di
Ġr ing
Ġde puti
ĠDe cember
Ġ194 2
lingvis tiko
ĠFab ri
Ġkafos emoj
K lubo
Ġte jo
tran to
ĠJu lia
ds trioj
Ġorigin al
Ġsango pre
Ele k
ĠEncyclo pedia
o kies
Ġmona ton
Ġtas kojn
Ġ195 3
Ġbru o
ci te
ĠA mo
Ġi P
ĠN aski
Ġfor mor
Åľ ablono
Ġmondor do
Ġ( +
ĠR ay
kom pu
Ġmalnov ajn
de zi
si va
Ġmar ks
Ġligi lon
Ġvet uris
ĠLithu anian
b lon
Ġali direkti
Ġkons isto
ĠJa va
Ġmale sti
ĠI om
Ġdi rus
Ġkunlabor antoj
Las ta
Ġkonk ero
Ġbrus to
ki uj
Ġmem ori
Ġega la
Ġkonten ta
u er
Ġ19 22
Ġtele vid
Ġfok us
Ġh eli
ĠLa go
ER T
Ġafi ÅĿojn
ĠAzerba ijani
M en
ĠD ona
ce zo
Ġkura ci
Ġbez onata
Ġbu ÄĿeto
as on
pe ca
res on
Ġele mentojn
Ġcer tan
Ġmuzi kistoj
ĠAzer baj
U SD
is wahili
da d
ĠC in
ĠRe ÄĿa
Ġci tas
Ġadia ÅŃ
h osa
ĠI am
Ġmin orita
K os
Ġa f
ci to
va ta
Ġproces o
Ġmunici po
P RI
Ġa vo
Ġmon eroj
Pa tro
Ġrulse ÄĿojn
Ġmalsu pre
Aktuala Äµoj
Ġ19 26
Ġdu bas
ĠZ imbabvo
Ġ6 4
Ġbri la
Ġprofun dan
ĠBel orus
Ġprilabor itaj
K al
d ina
h Ã¡
i va
ĠI ris
ĠEr n
Ġuniversita ta
Ġras o
gis h
sti menko
Ġfra zon
Kon greso
Ġami ke
lini oj
ystem s
ĠP on
ĠR I
Ġver kas
Ġdekla roj
Ġesplor istoj
ĠTe ch
ĠTel ugu
Ð·Ð± ÐµÐº
li tan
Ġg ol
Ġredak tantoj
ĠÄľene vo
L AN
z es
Ġs ter
ĠLa tvian
19 55
Es pÃ©ranto
Re vuo
nova Äµoj
ĠaÅŃskul tis
Ġmult lingvismo
J unio
o t
ĠI st
pa ÄĿa
pro dukti
Ã© r
Ġtur isma
Ġsoci eto
Ġ195 2
ĠB udh
Ġekzem plon
ĠJohan nes
Ġneo ksidebla
Ġre ktan
Ġma tri
ãģ ĵ
ĠY o
kin ovaÄµoj
Ġmontri ÄĿas
Ġbor der
Ġdosi eron
ĠE tikedoj
ĠR SS
ĠH aÅŃto
Ġ19 12
ĠRe ta
Ġhel pu
Ġhistor ie
fri ko
Ġakcep to
publi ka
ĠHa usa
ĠTaj ik
Ġregion on
ĠMara thi
Tro vu
ĠLuxembour gish
C or
ĠG ujarati
Ġu ea
Ġak tuale
Ġiden tigi
ĠBos nian
Ġgx is
ĠDek laracio
ĠInternaci an
ĠK va
Ġdum e
voj oj
ĠBo li
rea t
ĠKan nada
ĠSin dhi
p r
Äµ aj
Ġbezon ojn
Ð·Ð±ÐµÐº ÑĩÐ°
h ispan
Ġ um
ĠM AS
Ġi jk
tra du
ĠG MT
Ġmon umento
Ġstu d
Ġproce zon
Ġ> >
ĠMalay alam
p raj
Ġver tika
ĠSin hala
li ÄĿo
ĠS inga
tan tajn
Ġuz os
ele k
Ġf r
ÅĿ ov
ĠF la
Ġte Ä¥
Ġrapor ti
U n
Ġs una
Ġc ar
Ġbata lis
Ġkonfir mis
v us
is tino
Ġi doj
Ġmal stre
ĠO p
ĠÅľ ia
Ne w
Ġorgan oj
Ġpa ÄĿaro
Ġek funkci
Ki uj
ĠSi m
Ġoper acio
Ġg i
" .[
n s
t j
ĠS ara
Ġi mi
di ÄĿi
ĠAl t
Q L
Ġti mis
ĠNi etzsche
ĠRa konto
ka ux
Ġeli ri
Ġtekni kaj
Ġet no
ash ington
b ino
Ġen ka
Ġfran coj
Ġlibere con
Ġvig la
v ing
Ġde zajn
vi ÄĿas
Ġfi as
ĠAn koraÅŃ
Ġmala gra
Ġmaksi muma
Ġestabli ta
M od
i toj
z Ã¡n
ĠK li
ĠTra ktato
ĠCom mons
ĠCar l
ĠÅĿar ÄĿo
A fi
E I
er ra
ĠLe a
ĠMar ko
Ġpopo lon
re vuoj
Ġvi voj
ĠC laude
Ġfundamen ta
fran ce
Ġrecipro ke
vers io
ĠAl um
Ġkongres a
à¨ ¾
Ġperson on
Ġkna boj
la toj
Ġmal di
Ġcer tigas
ĠKar tve
Ġmal gaj
Ã¡ l
ĠAl l
Ġ7 8
Ġpas vorton
Ġplur nivela
tari ko
ĠantaÅŃen igi
Ret poÅĿ
Orig in
ĠI t
Ġso pi
Ġsin cere
ĠFin fine
à© °
à© Ģ
Ñ ŀ
Ġs ati
Ġo pozicio
Ġel ti
ha ts
Ñĭ Ð·
an io
Ġin stancoj
Ġnaci an
C ita
å ¤
ĠF EL
ĠÐ ±
ĠIS O
ĠkaÅŃ zita
à¨ ª
à¨ ľ
Ġhero o
f lo
Ġen landa
em ent
Ġres tu
ãģ £
à¨ ¬
Com par
Ġli terojn
ĠR im
Kon klu
ÂłÂłÂłÂł ÂłÂłÂłÂł
Ġsen dos
ata do
son aj
ĠHa wai
Ġeksplo do
ĠindiÄĿen oj
ĠinÄĿeni ero
ĠÄīi us
Ġkul p
Ġbele ga
Ġtransfor mi
ta lan
Ġoka za
Ġkomer ci
ĠBo ok
Ġinsti gis
Ġsove tia
I uj
pi rajto
ĠanstataÅŃ igi
ĠYou Tube
Ġvizitan toj
E E
Ġe to
Ġvi do
no w
Ġfer mi
ĠSta tes
ĠSchu bert
I KU
ĠPro vinco
Ġlu dantoj
Ġproduk tadon
Ġdisvas tiÄĿis
ĠEle kti
Geo grafia
L AT
Ġinter tempe
ĠW eb
âĢ¦ âĢĿ
Ġeten diÄĿas
ĠMaro ko
Ġde von
âĢ ĳ
ĠS el
ov al
Ġg hi
ĠCom pan
ĠGeo grafio
ĠVladi mir
V D
e zo
ĠK rako
duk ta
Ġmez uri
ĠSch o
ĠA gado
Ġkan tisto
Ġdezi ron
ry sk
Ġaktive co
P aro
ĠM AN
Ġpo ur
Per io
ÄĿ ulo
Ġar mena
Ð³ ÑĭÐ·
Ġreta d
Ta ga
ÑĭÑĢ Ð³ÑĭÐ·
Ġin tes
ĠN in
est ron
ĠStu dies
pov o
X O
j aran
di an
Ġmal tra
Ġfa las
Ġprofi lon
Ġmeze poko
k ero
ĠA c
Ġpli igas
Ġp r
Ġp ano
Ġte gmento
Ġnun tempaj
Ġrus ia
Ġsove ta
Ġdezer to
c ano
p per
Ċ Ġ
Ġpro voj
di to
il ge
Ġunu flanke
Ġfa vora
Ġmor tas
Ġalpor ti
ĠL and
Ġma ten
Ġfi ÅĿoj
Ġko ordinatoj
Ġestra ranoj
ĠAng la
Ġprotekti ta
Ġunuso la
Ġper man
Ġsek vanta
enc an
Ġpla to
vigi taj
Ġprofi ti
Ġspeciala jn
Ġkondu ki
ĠBarcel ono
to mana
tribu oj
Ġvide blaj
Ġdor mi
Ġalterna tivo
O Ê»
f em
Ġe terne
Ġlabor plano
Ġdeter mini
M ek
ĠA L
Ġkre danto
Ġesperan ton
Ġrotari anoj
z ig
Ġkons ilojn
rin te
Ġ5 9
ĠAr t
Ġpas int
Ġtermin ojn
ĠPan amo
ul inoj
ĠP om
Ġu k
gra phy
Ð¾ Ð¼
ĠIzra eli
v uloj
ko lekto
Ġtrovi taj
ĠPer uo
Ġdia lekto
ĠFilip inoj
NP HR
Ñŀ Ð·Ð±ÐµÐºÑĩÐ°
OÊ» zbekcha
V O
Ġde mon
ri ismo
âĢ ĭ
Ġnom itaj
tem ojn
Ġdispon eblaj
Ġprofes ie
Ġfirma oj
an ge
Ġs xi
Ġes ting
el li
ĠA ir
vi la
eb a
Ġstu dado
Ġkonta ktoj
So ci
Ġri be
fer a
Ġpe coj
fra zo
ÑĭÑĢÐ³ÑĭÐ· ÑĩÐ°
V or
f inaj
s s
Ġinter romp
Ġlo g
Ġmerka toj
re ÄĿo
ra d
ur ch
Ġre produk
ĠKon stru
Ġpropon ita
Ġgerman e
ÑĤ Ð°ÑĢ
ĠJun ularo
Ġfer vojo
Ġeviden ta
kunsi do
Ġin a
Ġfor igas
bur ga
Ġmis io
Ġ `
Ġle teroj
Ġrapi do
Ġkal kul
ĠKas tilio
Ġ1 10
ĠB ron
ĠG es
risto ph
ĠH omo
pe ti
Ġsen do
Ġfa kton
Ġsam kiel
ãģ Ĩ
Ġkomen tis
Ġkonsi lanto
ĠKu time
Ġs lo
te ble
Ġmal le
ine jo
Ġkomer cisto
Ġmom enton
uplo ads
ca te
Ġfun eb
Ġkol ero
Ġefi kojn
Ġkontin entoj
Ġgepa tra
ĠAmeri ca
Ð ŀ
å Ľ
Ġpri orita
Ġmuzi kisto
Ġeldon i
para ta
Ġpru vas
Ġmalpe zaj
M AN
pan te
ĠkontraÅŃ a
le gis
Ġ" (
Ġma les
ĠIn for
Ġak ce
Ġkor tu
ĠÅĿta ton
ĠretpoÅĿ te
til har
Ġenre tigita
Ġli ter
Ġ19 27
Ġsiste me
Ġmek an
Compar tilhar
ta blo
ĠP od
ĠH ero
si ka
Ġsta cio
ĠÅ ł
W il
Ġb omb
Ġg las
ĠÅĿ par
ĠLe e
Ġperson ajn
Ġresponde con
ĠRen kon
ĠâĿ ¦
à §
ĠA uld
Ġg el
di ko
Ġro k
Ġprote kta
Ġdivi das
Ġesta blis
Ġkunme tis
Ġindustri aj
b es
li lo
Ġre al
var ma
Ġ8 4
tema lo
ĠÄīam broj
ĠPublish ing
E galecen
in ci
ĠG usta
Ġkompren ebla
ĠÃ Ĺ
Ġaga dojn
Fa kte
c ke
tur no
ĠMar ta
Ġkuti moj
Ġeven tojn
Ġrus aj
Ġspi te
ĠJapan a
EÅŃro pa
N ame
ĠB run
ĠH ab
El donejo
Ã¤ r
ĠHo ffer
Ġkompli ka
( '
pren ante
ck r
Ġprinci pojn
Ġvalu to
ed e
Ġarme on
komer caj
7 00
à ³
Ġ ×
Ġne ÄĿo
Ġpa ca
Ġekster lande
Ġurb estro
te se
Ġj ud
ĠR ol
ĠAl ÄĿerio
Ġdekla ras
Ġdetru is
n os
Ġk s
Ġen salu
Ġfor Äµe
Ġnu traÄµoj
Tra dukita
Ġmaj stro
Ġkomputi la
fran ca
Ġdiferenc as
es an
Ġb aro
Ġle gadon
ĠRe ceptoj
Ġkur sojn
Ġmateri alojn
t ulon
ÄĿ eco
Ġv is
áŀ ¶
de to
ve turi
Ġunu eco
Ġgvi dado
Ġavanta ÄĿo
Ġeto son
Ġ19 13
Ġ19 35
Ġtro pi
ĠRe giono
Ġalt nive
Ġinstr umento
ĠÅĿ il
Ġplan on
hu i
Web archive
ĠIlus trita
pe o
ĠO ftaj
ĠMi lano
Ġfran ce
Ġ194 3
ĠTra di
198 9
ĠSvis a
Ġde partemento
ca dem
ini on
vor ta
kciden te
Ġpron omon
Ġk g
li tajn
Ġplu a
Ġcivi la
Ġkapab lojn
Naski ÄĿintoj
; ">
Ġde kom
Ma ria
2011 100
ÙĪ Ø±Ø
ĠSpe ciala
Ġne ÅŃ
po t
ga ri
Ġman a
ÅĤ o
][ /
tu res
ĠZ uri
ÑĨ Ð°
S QL
lo c
Ġo pozi
Ġlo kojn
hi p
Ġoku lo
Ġteori oj
? ...
y i
Ġb ol
ĠI II
Ġsimi lajn
Ġsoci alismo
kre do
ĠÄ´ om
Ġlogi ko
Ġm eb
te a
Ġali ÄĿo
à¤ ł
ĠDi rektoro
Ġhun doj
Pl ena
Ġa gon
van a
Ġgru pojn
Ġinvi tis
Ġtrin ki
ï¼ ī
Ġoport una
2 50
ten ojn
zen o
Ġkomun ismo
ĠMar sh
Ġ8 5
Ġkole ktas
ĠKo le
zÃ¡n ske
D emo
ĠS tran
Ġdi am
Ġtro a
Ġkontra kto
Ġko don
ĠBos nio
Ġfig uroj
ĠManu el
in er
li bre
mon io
cen o
Ġuson anoj
Ġintern an
à¤® à¤°
E sta
Ġm y
ÅĿ ado
gen a
Ġkole goj
T ER
a tribu
la e
ti toj
le ton
ĠS P
kon gres
Ġlingvo uzo
Ġtom bejo
l le
v igas
Ġl umon
Ġbon kva
Ġmar koj
ĠX X
kie wicz
B ir
Ġs umon
por o
ĠKa ri
Ġcivi l
Ġprinci pe
ĠAzerbaj ÄĿano
ĠL ED
ĠMal nova
ĠSko tlando
E O
el s
Ġne kompren
Ġper tur
dan tojn
Ġafri ka
b ala
g hi
lo ÄĿ
Ġo ur
ks e
kor pio
Kon tro
ĠPre zi
Ġteritor ion
mi lita
Ġnun an
ĠSek retario
Ġmalj uni
ĠEd mundo
ĠVal en
ĠBern ard
199 1
Ġvas tan
f ing
Ġper sa
lu zi
Ġpu re
ĠNi ko
a di
ĠK ER
us se
Ġte amoj
zon on
Ġpremi on
Hon or
ĠArchi ved
B rez
K C
f inan
in tan
Ġa de
ĠA S
Ġfon do
bi te
Ġvo kis
Hor zono
F em
Ġpa gis
Ġeks klu
Ġsuper re
Ġret paÄĿo
Ġkar to
Ġs ablo
Ġal ju
ĠD un
Ġpa ka
Ġnaj baroj
Ġates tas
G en
v ebla
Ġak tualaj
ĠNeni am
ed ro
Ñĥ ÑĢ
ĠIs lando
ĠJes sica
Ġdire kte
hone g
Ġde bato
Ġpro vos
ĠEs paÃ±ol
Ġkre deble
Ġkari ero
ta toj
ra don
mi ka
ÄĪi rkaÅŃ
ÄĿen aj
Ġskla voj
ĠBud ho
Brez honeg
B el
C hi
K ON
Ġla ci
ĠLi fe
Ġsti loj
Ġenme ti
Ġmaksi mum
á ¹
ĠA F
ĠG y
Ġfunkci anta
IS O
Ġdol oron
cci tan
Parto prenu
ĠÅĿata ta
F eli
Ġsigni fi
ĠĠ Ġ
199 5
Ġkoncep ton
Ġvic prezidanto
Ġk ard
per as
ĠF lori
Ġ19 09
ĠSe ptember
Ġperson eco
Ġkvar dek
Ġordin araj
L igi
V e
Ġt ono
ĠT al
ĠH and
Ti al
Ġdese gna
Ġsoli d
ĠK er
Ġmalpli igi
c ante
en ne
ĠEn landa
Ġmalliber ejo
rum p
en g
Ġen keto
ĠK AJ
ĠR OT
Ġmul tan
ĠÄĪeÄ¥oslova kio
o pera
Ġh ere
ĠÅľ talo
ĠKaro lo
ÙĪØ±Ø ¯ÛĮ
C U
D U
a tas
Ġ Ðº
Ġes te
Ġ19 11
ĠFran Ã§ois
ĠKomun ista
Ġfes ti
Ġkun venoj
mi ro
Ġtra g
ĠKi m
ana o
Ġfil mon
Ġeven ton
Ġmalvar me
Ġinteligen ta
Ġnukle a
^ {
te blas
du ction
ga lo
Ġpartopren on
Ġkomple ksa
Ġprivi legi
a doj
Ġkoncern aj
Ġkonk reta
Ġg or
ĠV ojo
ĠDan ke
ri za
tu bo
din toj
Ġobjek tojn
Ġveturi loj
ma gne
Ġkons iloj
Ġami kojn
Her oldo
K as
a fiÅĿita
or ig
ti te
Ġpri pensi
ĠantaÅŃ an
ay lor
ĠEs pl
ĠRo taria
ĠNor th
ĠMod ern
Akti vaj
Ġway back
toj Redakti
ĠF aj
du ro
ĠU stimenko
Ġbri taj
ĠA kadem
Ġlabor ista
ĠX i
Sek vu
Ġkanta do
o ka
Ġes taÄµo
ĠT ul
Ġpodkas to
K li
e p
Ð ĺ
Ġfa kaj
Ġlibro servo
ĠLuci en
m ona
la o
ĠS ano
ma ÅĿ
mi la
ron on
Ġfi bro
us ch
las h
ina rio
ges ch
Ġpren u
zan ca
Inter ling
Ġmembro ÅĿtatoj
ĠTur k
Ġre pa
ĠT eks
qu ire
ĠKonstan tino
Ġfor i
Ġfor mita
Ġmor tinta
Ġru briko
Ġekstre me
j ni
el la
Ġo d
ĠI u
kor a
Ġcx u
Ġekstre ma
Ġrecipro ka
ffi ce
ĠNikola o
x is
or an
Ġ9 2
Ġkole ktis
Ġangla lingva
ĠNov ember
ĠGre gor
Nov embro
f ajn
ton io
il y
Ġfer vor
Ġkategor iojn
ĠPrus io
L ia
k vankam
Ġgran dio
th y
ĠPre cipe
" :
ÄĿ ena
Ġh is
pozi cioj
ĠLo ko
Ġmallong igojn
ĠTor ino
ĠOt Ã¡
ĠZodia ko
S ch
ul te
gra phi
Ġtu ÅĿas
Ð¸ Ñı
Ġfin ita
ï¼ Ī
Mani festo
M as
pro gra
Ġob sta
Ġbezon on
Ġgaranti as
Ġdifini taj
ĠMun keno
h omoj
aj lo
ĠA K
min u
ĠOtÃ¡ vio
Ġspe gu
Ġpaci entoj
ĠChris tian
Ġre formo
ÅĿ ajn
Ġver siojn
ĠPa tri
ãĤ ī
Ġrus oj
Ġdok trino
Ġdekla ro
ĠKul tura
ĠEd ward
ĠseksneÅŃtra la
ĠPerson eco
ĠParti zÃ¡nske
Ġpro fe
Ġkom bin
for ta
Ġprezen tado
R os
in es
Ġekzis ton
ent Ã¡
Ġduon insulo
teko sta
Ci vitan
ĠBos co
ĠWiki media
a da
w eb
Ġekz ameni
Ġkomun umon
Ġefek tiva
ar n
ĠÄīe valo
Ġpos tenon
Ġeks ta
ĠSte fan
ins ton
Ġalvo kas
ĠmaÅĿ inoj
ĠÅľan h
Liber a
ĠGru po
Ġa vi
ĠP ren
Ġpropagan do
li breto
Ġpre si
Ġpriskri bita
Ġdiri te
Ġsti lon
Ġavia dilo
Dek laro
Øª ÙĪ
en daj
Ġs kolo
pren o
Mal graÅŃ
Ġstre Äīi
Ġjapan aj
G B
Ġmez uro
ĠSer bio
gx as
inara y
B logo
L ER
Ġinfor mas
Ġcom entÃ¡
W inaray
ĠT P
In stitu
Ġsuper i
Ġab oni
ĠGra m
ĠTon kin
ĠNepa lo
ĠNeces as
v esto
è ¨
Ġre kor
kon go
Ġsen a
ĠÄīef an
gru eco
ĠÄīees tas
Ġmeze poka
Pos ted
G ND
m ur
Ġci klo
Re ligio
Ġsubten ata
Ġrenkon tiÄĿis
Ġtur istoj
ĠMartin us
v y
Åľ an
Ġ7 00
Ġtrans doni
Ġfabri kado
Ġisla mo
ĠHo use
?? ??
Ġalko ho
u ps
li gon
ĠP Ã©
Ġne gle
Ġinter veno
In fanoj
Ġekzis ti
Ġpru vo
e fi
Ġa gres
ti ÄĿu
Ġman ÄĿis
ĠBa ud
ĠNord ameriko
Ġtun oj
c uloj
ali a
ĠNi ÄĿerio
E x
c ti
Ġri bel
aÅŃ do
Ġme tu
Ġkor id
Ġter ure
uo kaze
Ã¨ s
ĠEli za
E G
g Ãº
ar ojn
Ġba ri
Ġme tita
Ġsol dato
Ġaktiv ula
Ġfiks ita
Ġpodkas toj
Ġdiskut paÄĿo
G ae
ĠÄīi aj
ĠÅĿ pru
las s
Ġmon th
Ġsta ÄĿoj
kces oraÄµoj
ĠEgip tujo
ĠRem oval
ĠA po
Ġli mojn
Ġkap titaj
Malfer miÄĿas
p es
Ġti pe
Ġpa ÄĿ
logi cal
ĠOrgani zaÄµo
c umen
Ġinten citaj
Ġliver as
ĠMarsh all
Ġe mail
ĠL am
ko p
us s
ĠâĢ Ĵ
Ġar taj
Ġpar tik
Ġ24 3
ÑĤ Ð¾
Ġtradi cian
Ġsing ar
ra Äµoj
pa ÄĿon
ma taj
mon do
Ġplen igi
Ġide ala
Ġ24 8
Ġgvi do
Ġmani pu
LE K
H ar
p lin
ri te
Ġ19 06
Ġad min
Ġvian do
ĠdediÄī is
ĠCre ative
Ġri ght
ame tro
ĠLen in
ĠTok io
ĠS S
Ġtran Äī
Ġkri mo
pek to
Ġkov rilo
Ġelsta ras
Ce tere
T R
lan a
Ġmov is
Ġkorek ti
Ze lando
9 80
T V
Ġla u
in ing
ri ÄĿis
ÅĿ tej
ĠPa po
ĠdaÅŃ ros
J or
O ccitan
Ġin ci
Ġsek cioj
ĠÅĿta t
Ġmur do
Mem broj
ĠEston teco
S tra
Ġk erna
Ġeks pan
Ð² Ñĸ
lida d
Ġkristan aj
m igo
ur ajn
Ġfor iri
Ġdu ko
Ġku bo
Ġsci vole
Ġs tru
Ġ24 7
Ġab sur
dam ento
Ġre go
Ġel vo
dis trikto
Ġku ira
ĠBa t
Ġekster landa
ĠImper i
Ġento mb
Ekon omio
Ġf run
Ġre pre
ĠPa ge
ĠtaÅŃ gaj
Ġakompan aj
Ã« tz
L ou
P IV
ma terialo
tor e
ni kov
ĠKon stitucio
Ġtrans la
Ġapli ko
Ġkapab lis
ekzamen oj
ĠESPER ANTO
m iga
t un
Ġi do
Ġmal pura
Ġfor baroj
Ġproduk ton
Ġher eda
ĠSal om
ebu er
Ġsuk ero
G re
Ġvirin ojn
Ġagnos kis
Ġkvali fi
Ġrobo to
Ã«tz ebuer
Ġkuti mas
Ġdev igis
ãĤ ĵ
ĠWil helm
Ġvalor ojn
Ġp seÅŃ
ka ÅĿa
Ġbon vena
Ġindi ko
Ġdispon igo
Ġbu tonon
ĠÄīiuta gaj
Ġkoloni oj
ĠJul y
ĠT aÅŃ
Ġgas ti
Ġkov rita
Ġkapita lis
Ġtransdon is
M AS
Ġper dita
Ġar tis
sta ro
Ġnova Äµ
Ġklari goj
Ġmalbon an
Ġen ter
ve t
Ġfi do
Ġmas ko
Ġreven os
S cript
ĠC H
Ġnor ve
199 2
Ġpol lando
V al
r ing
ĠS ig
ĠA h
Ġg ren
ĠT esta
Ġmal lumo
Ġel las
va rio
pi tulo
gan tojn
gra da
ĠÅľ ajnas
Mal long
ction ary
Ġpre taj
ĠbedaÅŃ ras
vetur is
V il
m el
ĠS parky
pi tro
Ġse vera
kato loj
Kul turo
ĠÄīer pitaj
Gae ilge
o kie
Ġp el
Ġs ala
Ġpa lest
you tube
ÅĿ os
Ġkun havigi
Kon s
Ġrapi dan
vel ojn
I r
K ia
a ktuale
ĠaÅŃ da
pe are
Ġ3 16
ĠW ashington
Ġsuper flu
Ġbe leco
Ġrakon tojn
Ġapu de
Ġfol low
M ajo
m edio
ti tolo
Ġin su
ĠMi d
Ġfil tri
Ġinflu i
Com ment
ril lard
Ã«tzebuer gesch
l ora
te loj
ĠM AL
Ġdis Äīi
gan g
eri kaj
erman n
Ġno cio
Ġkonser vis
Ġpartn eroj
blish ed
L F
ç ļ
Ġin oj
ĠH as
ĠO ne
Ġsur voje
Ġnom iÄĿis
Ġ9 5
Re en
Ġrakon ton
Ġab stra
ĠSta te
ĠBaud rillard
A b
D ire
Ġpa ten
Ġlan guage
Ġsignif ojn
Ġdif in
ĠLing va
ĠIndividu aj
I B
u an
Ġ ÅŃ
en ces
ĠC he
Ġte g
Ġpre mis
ĠW olf
Ġpermes o
ĠJerusale mo
f aro
ki ÄĿi
Ġmili ono
Le tero
dem a
Ġord ina
Ġcifer a
Ġmalproksi ma
Profes io
i f
Ġes encaj
ĠL inio
pre zi
Ġbone gaj
ĠFran Ã§ais
Ġcifer oj
Ġen danÄĿer
Ġinternaci ajn
Ġsuges tojn
Ġdefini tive
Cer te
mal fer
ÄĪe Ä¥a
Ġ195 1
ĠAu di
ĠÅĿto fo
b l
c ta
h ua
er ts
ĠâĢ Ļ
Ġmals anu
Ġ30 5
hel pe
Ġinten ce
Ġdesegn ita
ĠIst vÃ¡n
ĠLa o
pe e
Ġlo kan
Ġpas porta
Ġna turon
ĠSu fi
ĠMana ger
F LU
ĠN omo
pa da
ĠG la
ze lo
et tes
ĠSi mp
Ġbo tan
Ġdol Äīa
Ġekvi libro
ĠWi kipedia
ĠDani el
ĠD am
Ġko li
pen o
| -
ĠF ir
ĠÄīef ajn
Ġplen aj
Ġinteres an
Por talo
Ġdisting as
Ġal kuti
ko pa
Ġkon forme
K ris
Ġes t
di te
Ġli breto
em oni
ĠFran z
poÅĿ te
Ġstran ge
×Ļ× ©
gua ges
Ġafa bla
Ġokaz igi
Ġsom era
ĠÄµurnal istoj
Ġsubme tataj
Dok umentoj
I G
i den
da toj
ĠaÅŃ toj
ĠU V
Ġling vajn
ãĤ Ĭ
Ġmas a
Ġinternaci e
Ġesplor isto
Poten caj
Ġe tan
ga cio
Ġc or
Ġfun damento
Ġtri boj
Ġdia gramoj
198 1
Ð³ Ð¾Ð»
Ġnaj bara
Ġdecem bra
de vena
so ci
Ġver karo
Ġgran do
Ġmin eraloj
Ġfami lion
ĠKun e
M edi
Ġak torino
Ġso cion
ĠMar y
ĠRus ujo
Ġhi per
Ġe tikedoj
ka po
ĠS tri
Ġinter rom
ÄĿi ÄĿis
Ġ7 6
Ġsol voj
Ġnok ton
uste c
ĠKartve lio
Ġ Õ
Ġak re
Ġ24 6
ĠBil dliteraturo
r ze
ĠD as
pan a
Ġplu vi
Ġmov iÄĿas
ĠPlan ado
ĠSinga puro
R ed
Ġka bine
Ġge ome
naci aj
LC CN
â Ĥ¬
å ħ
in ko
os ta
eb e
Ġ18 00
co ln
Ġpu rigi
Ġmas o
Ø§Ø ¨
ĠIzraeli doj
D om
P P
Ġe terna
ti le
Ġnov e
Ġpen tra
Ġevi tas
Ġuti ligi
Ġokupa taj
Ġsimbol oj
m bu
ta tar
Ġden un
T ran
o la
Ġa gojn
te ga
for mon
Ġtri bo
Ġstre bas
fil mo
ÐºÐµ Ð²Ñĸ
Ð°ÑĪ ÐºÐµÐ²Ñĸ
Ð°ÑĪÐºÐµÐ²Ñĸ ÑĨÐ°
ĠF ris
Ġ7 2
Ġgus to
Ġbon as
Ġapli kaÄµoj
Ġem ble
Ġambas ad
Proksi muma
ÑĤÐ°ÑĢ Ð°ÑĪÐºÐµÐ²ÑĸÑĨÐ°
Ġp eco
ra dio
Ġne kuti
ĠantaÅŃ eni
Ġba ze
Ġfra z
ĠLo de
ner gren
Ġkvadra taj
ĠreÄĿis oro
Ø ³
or s
ĠS ho
ĠA la
ĠI ma
ĠAn ne
vin ta
An gle
Ġnaci ismo
Ġcifer eca
Ġgaranti i
I ta
pa per
mi ksi
Ġra do
fo lio
ori ento
Ġmalri Äīa
ĠTaj lando
Ġkompro mis
b Ã¡
d Ã©
g ebla
ta gaj
ĠS aluton
pis kopo
lern is
Ġkoncer toj
H en
Ġb v
ĠT eritor
gra do
Ġkul tiva
Ġlas te
Ġnaj baraj
Ġsalaj ro
Ġeb lojn
Ġva rio
Ġaran ÄĿis
Ġforges i
Ġespri mon
Ġescep to
U B
s cen
Ġk lin
ĠS or
Ġb rak
ĠB erno
ven cio
pen ha
E vans
el ds
ĠE th
Ġfla va
Ġtransi ris
dosi eron
ĠIris h
S parky
Ġke y
ori e
Ġtas o
mova daj
Ġdissen dita
Äī ajn
Ġmala mo
ĠJu gosla
Ġadministran toj
Ġgel ern
ro po
le do
Ġh oron
ĠK h
Ġmar gin
Ġ7 3
Ġmas tro
Ġadvo kato
Ġsime tri
ê ¯
Ļ Ĥ
Ġmal kom
Ġeb lus
Ġelek tron
k r
in amo
to ma
ĠDum e
kos toj
ĠD ion
Ġkomun e
ĠBo h
alo ke
ĠSta tis
Ġvirus o
Ġs onoj
Ġh ungario
ran ko
Ġtrans gen
ĠBi bliografio
Ġpasin tan
Ġdeba toj
g ina
x el
ĠK in
ĠN E
ĠJ im
Ġunu ani
Ġmor ala
pek ta
ho pee
kin to
ĠPes ilo
ĠS tano
Ġmi tologio
den t
ĠLan daj
ĠEks ter
e tojn
ti vojn
kon traÅŃ
Ġmem bre
fa bri
era erts
cen ter
vin te
Ġpen traÄµoj
Ġden toj
Ġsendepen daj
Ġran go
Ġripe ti
ĠAnd rÃ©
Ġpen traÄµo
Ġob st
Fran cis
Ġaser to
Ġresta do
Ġapro bo
c zy
Ġp om
Ġjun ulino
Ġpubli kan
Ġneces is
Kom ence
Ġrapor tas
ĠSou th
ĠaÅŃ ten
ĠPro ble
Ġsem ajne
ĠPe eraerts
Ð¾Ð½ Ð³Ð¾Ð»
ĠserÄīi lo
ĠEston io
Ġfamili anoj
in tus
do v
Ġ10 28
ĠÐ ľ
Ne havebla
Ġaspek tis
Mon da
ĠmonaÄ¥ ejo
Notoj Redakti
Ù¾ Ú
le tin
ka dro
Ġne mal
Ġedz inon
ĠLas ta
FLU GO
Ù¾Ú ļ
C ebuano
Ġkompren on
Ġkri terioj
Ġpermes on
Ġkonsis tanta
ĠaÅŃtor itato
ĠÅĿton oj
ĠIns uloj
c n
en tan
ra dis
An dre
Ġeston taj
Ġspek ti
Ù¾Úļ ØªÙĪ
T ombo
Ġs ved
ĠT rump
ĠkontraÅŃ le
Ġmod elon
Ġgaran tio
ĠOfi ciala
f ul
k rom
ĠJ Ã³
Ġ19 15
ĠW or
Ġapli koj
Ġlandli mo
ĠPrakti kado
ĠCF D
ĠKrako vo
) )
I tala
V oja
h omo
i ÄĿinta
Ġde koj
ĠS istemo
dis ku
Ġak cen
bi lidad
kan alo
che wa
ĠNeo ksidebla
h aro
Ġkor ea
Ġinteres ojn
ome tro
Ġhav eblaj
Ġforma le
Ġinfan on
Ġindustri oj
ĠVel de
ĠHealth care
C C
e cu
Ġf anto
Ġmili taj
Ġpen is
Ġpla Äīis
Ġvari aj
ĠUru gvajo
] ;
ĵ ×Ļ×©
un de
ĠT uni
... ),
Ma rek
Ġmalkov ro
mani eron
Ġkonsta tas
er eco
ĠD eb
ĠAr to
Ġplu ra
kul turaj
Le ave
Ġkopi ita
Ġpo ezia
ĠKa f
Ġplibon igas
âĹ ı
H i
I ON
z z
ĠL uno
ĠV ene
Ġkor pa
Ġpe tro
Ġindi kis
Ġpoliti ke
Ġfak toro
Ġdese gni
atribu ton
K iswahili
tis ma
fi do
Ġfal sa
Ġlito va
Ġpira mi
t ten
u ts
tri taj
Ġtre jni
Ġunua vice
tal ino
ĠBla hu
Ġrezer vitaj
ĠPoÅĿ tele
ejsbu ko
Q u
n ell
Ġ á
Ġv ej
Ġsigni fa
Ġmen uo
ĠBal daÅŃ
Ġekzempl erojn
ĠJanu ary
Rulse ÄĿoj
ĠS anta
Ġfun do
ord in
Ġkomenc intojn
temp an
ĠFer din
ĠserÄī ado
Produk taj
ĠProfes ie
Ã©ra ire
Ġdungi toj
% ,
ĠlaÅŃ dire
Ġcer emonio
Ġon doj
bra do
Ġstari gita
ling vajn
Ġverkoj aro
ĠStu denta
Ġnatur an
ln umero
f man
Ġa le
Ġscienc isto
Ġmodi fi
Ġe mis
ĠE re
ĠR oma
Ġmem braro
Ġkres ki
Ġmalri Äīeco
Ur bo
Ġproviz ore
I do
de ÅĿo
ĠÄīe Ä¥
sta r
Ġneder lando
Ġmalven ko
Bal daÅŃ
H omoj
Ġinter no
ĠÄīe valoj
ina lo
." [
home page
ĠInsta gram
k lojn
fer ence
ĠAr mand
Ġplan ko
199 3
Ġekonom ion
Ġstatu o
Ġscen ejo
K am
ta gan
ĠLi bio
Ġno be
Ġekster an
Ka ÅĿita
ĠRulse ÄĿaj
Ġmalpermes is
ĠBela rus
EB UO
ĠZuri ko
is ch
li c
ka elo
vi ra
ĠN O
me co
van i
Ġma poj
fa rita
pre mio
Ġmalfer mo
Ġkoman danto
" ;
er t
Ġb uro
ĠI aloke
Ġri pari
ĠO ber
ĠO pen
Ġklopo dos
B en
ĠE vans
taj pu
ĠF ebruary
man kantaj
sta cio
Ġku rio
Ġaper inta
tr us
Ġprofi lo
Ġreali go
bal l
Ã¢ m
Ġrevolu cia
Ġliver i
P ara
n tl
ins uloj
Ġokupa do
ĠJava Script
e vans
m ing
Äī os
di zo
pa ta
00 1000
ĠkontraÅŃ e
ĠÄľi aj
ĠSu pera
Respon de
Ġride to
ntl world
T U
j ono
en ts
ed mund
ĠT itan
Ġdis er
Ġartiko lnumero
Ġteksto partetoj
Ġklu bon
gri mley
teks taroj
Ġsti mu
Ġtesto partetoj
007 999
[ #]
ĠF an
tin daj
Ġkam pon
gre di
Ġdiale ktoj
on aj
Ġpra ve
ĠY e
Ġvir ina
Ġdisvas tiÄĿo
Ġmesa ÄĿojn
kal ku
Ġbrazi laj
à³ į
Ġta belo
Ġ6 2
Ġâ Ī
Fo to
Ġhospita lo
C E
Ġd ar
ri aj
Ġal flu
de fen
ha usen
Ġrez igni
Ġideo logio
Ġgita ro
Ġkon for
ĠÄīi an
Ġliber an
gran ge
36 9
Ġd Ã©
de ven
po ta
bu tiko
Ġ6 6
Ġkol oron
Ġarme a
ĠBlahu Å¡
u g
Ġli gon
Ġur be
Ġrapor toj
N aj
um eno
ĠMar vel
Ġpoliti koj
Ġfizi kaj
Ġnas kis
Ġresta Äµoj
Ġtransi ro
Ġkonsta ti
li brojn
Ġg amon
ce j
ĠC ris
ĠÄ Į
âĢĿ ).
Ġ6 7
Ġ10 5
In stru
Ã¡n dez
Ġrifu zas
Am eriko
ĠSil fer
ĠKali for
kteks toj
rin ta
Ġmor tigita
Ġfo ton
Pa ulo
ti poj
kon tro
Ġinf ras
rus a
ĠTa g
Ġperio doj
Sci encaj
Ku bo
Ġd uling
ga leco
ku tejo
Ġak ra
ĠRe jno
Ġ15 00
ĠÄĪe fe
å ı
ma o
Ġlas tajn
Ã¡s z
ĠE blas
Ġha vigi
rin toj
Ġko ali
Ġsol vojn
Par lamento
Ġgrande gan
ĠSpe ci
ĠWen nergren
a a
Ġali maniere
Ġesperan ts
Ġafri ko
Ġinsti gas
Ġadres on
Ġa eron
Ġb ut
oma lio
Ġima gas
Ġokupi ÄĿis
ĠÅľan ÄĿi
âĺħ âĺħ
ĠLat vio
g vo
Ġh ela
ĠR aÅŃmo
me zo
vor ez
Ġisla maj
Ġzodia ka
j es
m umo
Ġ zonoj
ur bon
tan io
ku ri
Ġmili tistoj
AÅŃ toroj
Ġlogi ka
Ġprokla mis
k toroj
Ġsen es
Ġkontribu on
Ġreda ktado
Ġprodukti ta
ĠinterÅĿan ÄĿi
j us
po loj
Ġmals ana
Dona coj
O n
Ġes taÄµoj
ĠM P
ĠÅĿ ov
et s
Ġ8 6
Ġdona c
== =
ĠA teno
par enteze
Ġ9 8
Ġkur is
Ġvidpun ktoj
loc say
c erne
di versaj
ĠH od
ÄĪ inio
Ġ7 7
ĠKos ovo
ĠEli as
jari ÄĿo
' t
ĠE con
Ġpa ÅĿojn
Ġka ÅĿita
Ġfra zojn
Ġpi edi
Ġimp ul
tn omo
kos mo
ĠGra matiko
Ġforlas as
Ġdemokra tia
4 00
ĠC le
Ġven u
Ġgla ci
F rysk
p so
Ġe cojn
ĠG ala
Ġr um
ĠLe gas
pen na
ĠSu pra
ĠJu li
Ġdipl omi
Ġforpas is
Ġen ig
ci vi
ĠVi kinovaÄµoj
Ġkons umado
Ġba lan
Ġas pi
Ġsignif is
Ġwhi le
ĠLuksem burgo
p ho
ĠJ in
pi ÄĿo
ĠRo bo
Ġju ÄĿis
Ġprofi to
Ġdisku ton
Ġklari gon
m igas
ĠÄīi um
pan jo
Ġkor poj
Ġkur s
66 5
ĠSimi le
Ġmultn ombraj
s istemon
Ġsan gon
Ġban do
198 3
ĠFili po
p ha
Ġg od
ĠF ettes
Ġri Äīeco
ĠEn gel
Ġbone gan
Ġplan is
su pre
Ġenspe zo
ĠalÅĿu tis
s ing
ĠAl to
Kon stitucio
Ġfo und
Ġkongres anoj
Bon venon
Ġmalfacila Äµoj
unda tion
SK EJ
ti paj
Ġmalfer mas
Ġeston tecon
Ġmagi ajn
Ġordina re
Ġf Ã¼r
th al
ĠFa ktoj
Ġdona cis
Ġekle zioj
b razilo
y d
Ġde fio
re tradio
Ġb er
30 15
Pa ul
Ġpru vis
lern ejoj
à² ķ
ĠWo od
ustec ligo
t ko
Ġli gna
dis ko
Ġur bojn
Ġfar us
Ġkla ku
Ġmiks aÄµo
ĠpreÄĿ ejoj
Ġabo ut
l Ã¢m
n um
Ä «
te st
ĠAra baj
ĠSud ameriko
Ðļ ÑĭÑĢÐ³ÑĭÐ·ÑĩÐ°
B Ã¢n
S al
Ġde tekti
Ġre ply
ĠI gbo
ĠÄīe val
si lo
Ġle ksi
Ġven dis
Ġinteres iÄĿis
Ġanali zi
Ġfron te
Ġli kvi
ĠR enato
ÄĿi lo
Ġbon ÅĿan
gn er
ĠBri tan
Kla ku
Ġseks aj
Ġampleks an
ĠPres kaÅŃ
Nom bro
ile d
p rojekto
Ġti me
Ġle ÄĿon
Ġman dato
Ġsci igi
Ġkvar an
ĠPli e
x as
Ġ é
ĠP Ã©raire
Ġeks tra
Ġsta ÄĿo
Ġmov o
ĠAs socia
ĠSem ajno
e y
f eld
te ton
E Äī
p uso
â °
Ġt ensio
Ġte amon
Ġsin oni
Ġmu zaiko
Li m
ĠSi las
ĠAlban io
ĠROT ARY
N eni
Ġsen tojn
ĠInter vjuo
Ġmo bili
Ġbalo to
Ġaktiv ulo
F und
Ġs kol
Ġmal si
Ġsi te
ÃŃ s
Ġeta po
à² ¡
l Ã³
ar bo
ĠÄĿ em
ĠMar kso
Ġobjek ton
Ġtranslo kiÄĿis
ĠFe ed
Gi useppe
Ã² l
ta in
is cher
ĠS Ã¡n
Ġo pero
di tan
Ġl uno
men taj
ĠMi chel
10 2
Ġsiste ma
fon to
ĠJan e
ĠMala gasy
Ġaktiva Äµoj
Ġmalhe la
ĠSpiri to
ĠBelorus io
çļ Ħ
S id
ĠM Ã©
Ġmala pro
Ġplan ojn
Nov aj
à²¨ à²¡
ĠaÅŃt uno
à²ķ à²¨
H ungario
Ġd ana
ĠS id
ĠT rajno
ĠTi es
Ġeldon oj
rig os
Ġrus an
Ġreligi on
ĠGol fo
Ġprepar is
ĠfraÅŃ lino
ĠFrances co
g oro
m pa
Ë Ĳ
Ġe timo
di rek
ĠR is
ĠN em
Ġkel ka
Ġtri um
Ġmona te
Ġprofi tas
Ġpopula cio
Ġkonvin kis
e ÅŃro
t no
ĠB et
pa trino
ĠH uman
ĠLi bano
Ġeli ras
Ġcom ment
Ġartefa rita
Ġnesu fi
Ġfollow ing
ci po
Ġbe bo
Ġmult lingva
Ġfak tojn
Ġtito lojn
Ġrezign is
Ġres ani
Ġlan Äīita
Ġfra g
Le ÄĿoj
Ġmallon gan
Ġtranspor ti
Ġmaljun ulo
Ġre gata
Ġoka zaÄµo
ĠPa y
Ġlu don
Ðµ Ð¼
Ġves toj
Ġpostu li
ĠMe tro
ĠLin coln
Ġrezis ton
ĠBj alisto
ĠBoli vio
n aja
li zo
ĠE vangelio
ten berg
Ġali uloj
ĠKon kursoj
ĠAÅŃ g
Ġating os
Ġdetru ita
Ġsekure con
Ġakompan as
Ġlerno libro
indo ws
Ġdisponi bilidad
ĠWhi te
n umero
Ġde voj
in formoj
ka tolika
ĠInter alie
ĠPo pula
Ġab sor
Ġinformoj Produkta
Ġch ar
ĠMongo lio
D C
ci gi
Ġar ti
Ġse pa
Ġâ ī
ĠM s
Ġkul ti
Ġapli kaÄµon
ĠLu is
chen gen
ĠSign oj
A pp
V Ãģ
ĠB rown
ĠÄīef ro
Ġtradi cion
ĠOn tario
Ġk roni
quire d
Ġin verse
ten ado
Ġado les
Ġkampar anoj
ĠOt to
Bla zono
Ð ķ
Ġde Äµ
uj a
ĠJ as
Ġ8 8
Ġposed is
Ġcivili zo
ĠMadri d
Ġklasi fi
ĠMol da
Ġkr uroj
Ġspon tan
ej k
Ġefi keco
ction s
ĠIN S
Ġkombina Äµo
k vanto
ĠB it
Ġfon e
Ġtran Äīi
Ġedu ka
ĠFon duso
AL U
No t
Ġadop tis
P C
p y
li za
ĠM aÅŃri
Ġli mon
ĠT I
ba te
Ġsta rigo
Ġtutmon dan
m itan
Ġa kso
ĠM eto
Ġne komercaj
va la
ĠJ ona
ĠMal tese
Ġmur dita
Ġekipa Äµoj
!! !
ĠDon ald
áĪ Ń
es anco
19 70
Ġalvo kis
ĠLabor grupo
Ã µ
ĠF land
Ġsi li
Ġmul ti
th an
Ġko inci
Ġ10 7
Ġoku pita
Ġbu ÄĿe
Ġsubskri bi
Con tribu
d omoj
ci enco
es aj
ĠS ri
19 30
Ġkap tita
Ġkonta kton
VI AF
[ /
i res
Ġsen kul
kci on
Ġaso ci
Ġdekom ence
i am
Ġpre mon
ĠZ ulu
Ġer ror
Ġtrin kejo
Ġtraj to
Ġmini muma
Ġlingvis to
ĠAp r
Ġdecem bran
Hispan io
g eb
an ce
ĠMa d
Ġkunlabor is
Ġespl ora
Ġem bar
b ris
el le
ĠK ona
gi r
gi aj
ca tions
kci aj
Ġvo kalo
ĠÐ ł
Ġmalsu pra
ĠvoÄīdon ado
Univers itato
d iga
h ere
u to
Ġde le
te orio
Ġi ÄĿos
ĠG od
pe caj
Ġka ÅĿas
Ġkomuni ka
áĬ Ľ
áĪŃ áĬĽ
% )
A G
S tar
Ġes troj
Ġsuper is
Äīi rkaÅŃ
Ġpozi cioj
Ġanon ci
Ġmatema tikisto
Ġamaskomuniki lojn
Ġspekta klo
Abon antoj
ĠBelar taj
Ġal tran
Ġre ganta
pro fes
ĠKa faj
ĠLu b
T ron
ed on
um b
ĠEs tu
ĠMon ta
Ġcir kvi
Ġanim aloj
Demo grafio
T s
a ten
le dge
ch te
ĠW at
Ġesplor as
Ġrekon is
VI P
Ġkonfu zi
ĠCan cel
ig ajn
gu laro
Es tu
Ġemfa zis
Taga log
s ez
ĠS ala
ĠÅĿ raÅŃ
ĠF ejsbuko
ce gov
Ġfor mado
Ġinstru o
Ġkarakteri za
ĠSuper man
Ġsubstan co
Ġk od
ĠÅĿ pari
Ġmesa ÄĿoj
ĠBen ino
e oj
âĢ ¯
Ġre ques
de Å¾
Ġpost vi
Ġam is
Ġmemor u
Ġobser vi
Ġstri kte
or y
ĠB ros
ĠEsperan tan
ĠEn konduko
Ġstu das
Ġalian canoj
Ġpartn ero
Ġakci dento
J EBUO
Ġm lÃ¡
Ġre vojaÄĿo
ĠLa penna
Ġpli boni
Ġci taÄµo
Ġklopo do
Ri Äīa
Ġsemajn ojn
kes peare
Ġmalaper as
ĠLud wig
Ġgim na
V E
ĠH y
Ġtri bunalo
mar t
Ġneces an
Ġsufi Äīa
Ġvide oj
Ġson or
Ġpronon co
ĠmlÃ¡ deÅ¾
a th
Ã ĥ
kis met
ens tein
Ġkap tas
ĠFa ke
Ġprakti ki
Ġplifor tigi
Ġenspe zoj
Ġrevu oj
n ita
dis tan
gan do
Ġ18 48
kre ado
Ġalfron ti
Ġsolida reco
z igas
ĠPro bal
Ġkolekti va
igx is
M ovado
Ġn edi
bi to
omb ard
ĠeÅŃ rojn
S pi
s igni
Ġhom ajn
gu es
Ġku pro
Ġlern u
sek sa
ĠCo un
use um
ĠKol um
Ġ20111 21
Ġform ula
wor ks
Äī itaj
ĠT ut
Ð¾ Ò
Ġmulte ge
Ġami ka
}} }
Ġdirek ton
Ġras ismo
Ġprotoko loj
pe la
ĠIn te
Ġba zan
Ġparo lu
15 0
id h
Ġradi ka
ĠSte la
Ġ-- >
Ġarg umento
Ġretu milo
Ġa gis
Ġt ras
Ġkon toj
Ġan stata
th ur
ĠDe pen
Ġvir tuala
Ġiden tifi
ĠCan etti
go lo
Ġkor to
i zo
de c
ĠPro te
alaj zio
Ġkonta ktis
Ñĭ Ðº
Ġ20111 20
Ġadap ti
ĠAp ple
Ġtravi vis
Ġsendepende con
u f
ko ti
Ġka pitula
ca ta
ĠlaÅŃ tle
Ġlu danto
ĠDi ck
ĠSen ega
ĠEx ecu
Ġveturi lon
Ġdenas ka
ĠLea gue
ĠP ens
dro mo
Ġenhav listo
Ġrestor acio
ĠE mir
tra roj
Ġpar oj
Ġle ga
Ġkomenc os
ĠPer sian
Ġtur men
Ġdev igas
ĠMe ta
Ġfen estroj
Ġ20111 12
Ġfron to
ĠHoros kopo
hats App
ig ebla
Ġprezen tiÄĿis
Al ÅĿu
Ġban koj
ĠSloven skÃ¡
B ab
Ġs katolo
ĠA gendo
ĠN ar
den so
Ġkov ritaj
ĠÅ ģ
ĠLibro servo
Ġbr ul
l uma
· Ð¸Ðº
Ġen co
Ġor nama
Ġso laj
Ġofi cisto
Ġson on
ĠÅ ļ
igh ts
VI D
ĠAmster damo
f oni
li mo
ĠV is
Ġu tilo
ini taj
Ġliber igo
Ġru in
Ġmaljun uloj
n head
Ġo ksi
ĠT aylor
ĠRe ligio
kin s
Ġedz ini
Ġmeto don
Pre legoj
Ġgri za
ĠJO TE
Dire kti
an e
ti que
Ġf ros
ci li
ter no
ĠA kismet
vi da
gi onoj
ĠH mong
ba talo
Ðµ Ð²
Ġden se
Ġsper ta
Ġinte g
Ġcir ku
ĠSh ona
Ġnega tiva
Ġamu za
Ï ĥ
Ġe vs
ĠT ru
Ġ19 03
aÅŃ mismo
Ġak um
Ġpi edo
ĠPre mi
Ġsoci alis
provi zo
en kov
ĠS esotho
ten ts
Ġek is
fer e
pro vle
Re giono
gita rio
ĠJun e
tn asko
Ġrespek tivaj
Ġzor go
Web site
flo at
ĠCompan y
Ó £
Ġm edia
ĠM asa
ĠB B
ĠI F
Ġparo los
Ġsalu tas
Ð¾Ò ·Ð¸Ðº
z za
Ġt ren
Ġpro le
ĠLi teratura
ĠKi pro
Ġbio logia
ĠBona ero
ci l
Ġre gadon
per s
ad get
Ġkomer con
Ġspeci lae
ĠWay ne
D aÅŃ
T emoj
Â ©
re te
Ġmi lojn
gi loj
ĠH ay
Ġ19 04
ver ko
Ġar gen
kun veno
ÙĨ Ø¬
å½ ¢
Ġesperants kÃ¡
K roniko
ĠK em
tu moj
Ġar oj
no logy
In di
ĠCh ristoph
Ġpropor cio
T aj
do zo
ul toj
ek zis
Ġkri moj
Kon stru
Ġega laj
ĠSta tu
Ġfeli Äīon
ĠÐ¿ ÑĢ
ĠSco t
Ġde ka
10 1
Ġ6 9
Ġbi en
ĠÃ ¿
ĠCon tent
Ġteori e
Ġfenom enoj
revuoj La
li teraturo
Ġnom umita
kom pan
Ġlon gajn
Ġfaci li
Ġrimar k
ĠPli aj
Ġbra ko
Mallong igoj
ÅĿ al
ĠA T
ĠT es
ĠR Ã©
ĠH TML
Ġ: )
Ġstu don
ĠTra duko
Ġfinan coj
ĠVir ino
ĠCar los
Ġinterpre to
Ġscipov as
ĠFundamen ta
provle ginto
n ed
Ġe vange
ĠP lus
ĠRe ad
Ġiden tecon
Ġstatu to
Ġsurpri zo
Ġe ae
Ġs chengen
ro c
ĠE tiopio
ĠPo ezio
Ġpres kri
ĠPre mio
Ġrezul te
pun kton
ĠPu tin
Ġform ulo
à° ¤
medi aj
ĠAdminis tra
Ġeae y
ra taj
ĠR EU
ĠD ou
ĠG B
Ġmon daj
Ġpu blished
ĠvoÄīdon is
à° Ĺ
Fem ina
d ed
v igita
Ġ ç
gi er
ĠF R
Ġplan ita
Ġvar markoj
mer ojn
ĠTek staro
à± Ĩ
9999 99
Ġkon vena
Ġj uris
Ġdis e
bi eroj
fek ta
we i
ĠVe geta
à° ²
Ġesperant lingva
Contribu tors
u b
ĠK A
Ġg ara
Ġlern adon
Ġraj tis
Ġsemajn on
Ġepi demio
Ġkro maj
Ġelspe zoj
ĠFrank fur
Ġdata base
i i
p uloj
co a
Ġdu e
wa tch
Ġdol or
Las u
ĠFred eriko
Å «
ber s
ting s
teri ojn
Ġbi er
ĠHa vano
Ġkomple ksaj
Ġves taÄµoj
tej on
ign on
Ġani mon
ĠdaÅŃri gas
Konklu doj
Ð¾Ò·Ð¸Ðº Ó£
z org
da gas
ĠRe al
Ġinsti gi
ĠSloven io
s ig
u le
ki ru
ĠD ay
ĠC ale
Ġsen ditaj
Ġ13 0
Ġavia diloj
Ġre source
ĠE K
ĠB ill
v eloj
an da
ĠG io
Ġ19 16
ĠRe in
gon Ã©s
âĢĶ âĢĶ
Ġkomer can
ĠSha kespeare
Ġteror ismo
Ġro ta
ĠMal peza
Ġkam paro
ĠKo fman
ĠGo tham
Ġkomita tano
Kor tumo
ĠKaza Ä¥io
ta doj
Ġta bulo
ĠW inston
Ġsukces aj
ĠSo cio
Ġat temp
ĠCo ur
Ġgla ta
ĠHar ris
Ġvidpun kton
U K
Ġsu ple
me tas
Kon takto
ler ni
Ġsem oj
Ġspeci fan
Ġfinan can
Ġmalmul tekosta
Ġinterkonsen ton
Rus io
tor gani
ĠKa locsay
ĠSu dan
Ġem eri
dra ta
Ġvun di
ĠJugosla vio
! --
zi l
Ġsu fo
Ġas embleo
Ġinten sa
Sem ajno
kedon io
A stro
Ġa lar
am p
ka toj
ĠF ut
Ġka ze
ver da
Ġeks i
Ġuz anton
kom isiono
Ġad dress
ĠD ata
Åľ a
Ġtre ege
pro vinco
Ã¼ l
Ġkonta ktu
je viÄī
Ġmens a
Ġfing roj
ĠiP hone
du o
pa rita
Ġdi eto
Ġfor miÄĿis
Ġsci on
ĠAr ch
iga taj
Ġprakti koj
Ġreques ted
Ġe tiko
ks an
Ġgran ds
ej aj
10 9
ĠÄīiu foje
Ġno ti
Ġdisvolvi ÄĿon
Ġsubskri bita
ĠKO VÃģ
cegov ino
F ar
Ġvi zita
ĠC ur
Ġsam noma
Ġw orld
Ġbata lon
Ġesper on
ĠKul turaj
Ġunu iÄĿo
Ġma ter
Ġ9 00
tr ono
ĠFran co
ĠNa tura
Ġdest inita
b ajn
ĠE R
Ġsek undoj
Ġser ioj
Ġro ko
Ġ6 8
ori lo
ĠEk vadoro
ĠlarÄĿ igo
Ġf osi
Ġvi da
Ġpor tu
Ġsub stancoj
Ġmin us
ĠNe il
Ġakti vis
fra c
uma don
ĠFo undation
ĠLin ukso
Ġsv ing
Ġhezi tu
C I
P I
S ud
Ġd ron
ge do
ĠPro f
Ġmur dis
ĠBrazi la
Ġrekon as
Ġkongres on
Ġredak tis
Ġmult foje
Lu han
Ġbes tojn
ĠPala co
Ù¾ ÙĨØ¬
áĬ ł
ĠFore x
Ġakces oraÄµoj
Ø§Ø¨ ÛĮ
ed zo
Ġindi co
Ġdeta lan
Ġfoj foje
ĠBar ry
Ġavanta ÄĿon
Ġkonvers acio
Ġmallar ÄĿa
kon ek
Ġdan s
Ġofi cistoj
Ġkultur an
ĠInstitu toj
c ture
h to
i u
z uro
è ©
Ġe cx
Ġs ume
Ġf lus
ks ita
aci Ã³n
Ġfa iled
ca go
Ðµ Ð·
ĠSte ph
lini ÄĿu
Ci vita
Ġate li
ĠA risto
Ġno to
Ġbi eno
Ġkonsider ita
Ġprovi zanto
Ġaki ras
ĠCentra l
ĠEr ror
ĠMc Luhan
ĠRafa el
B razi
G aze
c ord
k na
Ġes eo
Ġo u
Ġkun pre
ĠN um
ĠD r
Ġta bu
De cembro
Ġproce zoj
ĠZa gre
ĠEkon omia
ri er
Ġn os
ĠB angla
Ġkan ti
198 7
Ġsupo zis
Ġrezolu cio
Ù¾ÙĨØ¬ Ø§Ø¨ÛĮ
w al
Ġe co
ĠA cadem
man toj
Ġar ticle
for ton
ĠÄĪ a
pro duktoj
par u
cep te
qu i
ĠDi ctionary
Ġhispan aj
Ġanon cas
Ġescep toj
Ġ00 00
Ġsen i
ku ÅĿi
Ġci ga
ĠSan d
Ġagnos kita
ĠKOVÃģ TS
H O
ĠA Ä¥
ĠA vantaÄĿoj
Ġpa tri
ĠMar ga
Dis trikto
Ġkur ento
Ġsim il
Ġses dek
Ġseks an
Ġbra koj
Ġmed ion
Ġedi ktoj
áĪ Ľ
B e
ĠK vin
Ġka pri
zo fio
For muloj
Ġeksplo dis
Ġimpli cas
es io
Ġka ted
ĠMa g
Vi vo
Li bro
Ġfaci ligas
Mor tintoj
áĬł áĪĽ
z el
Ġa kri
ks ojn
ĠEs tante
Ġle gos
Ġ6 3
ĠMari e
ĠAmas o
áĬłáĪĽ áĪŃáĬĽ
b enaÄµo
k laj
ĠE lis
Ġo bli
ĠN es
Ġsuper rigardo
Ġlar ÄĿan
Ġdosi er
ĠU zi
ĠÄīirkaÅŃ e
Ka pitula
Pa kto
Ġvirin on
Ġanta u
Ġp um
em ajn
ĠantaÅŃ ju
Ġdispon igas
ĠRa di
Or gano
ĠEdu ardo
ĠLis bono
ĠR as
Ġfor a
fer eca
ve z
ĠPa ulo
Ġata ki
ĠÅ »
t to
ĠS talino
ĠG ron
Ġka ver
Ġmon umen
Ġbon vole
Ġle cion
Ġfil mojn
Ġgru p
ĠVir tualaj
Ġmalsan ojn
Ġhistori istoj
Ġhezi tis
Y our
Ġ za
ka fo
Ġkun fon
Ġkun fan
ÄĿi taj
Ġvide on
Ġklu bojn
Ġesplor is
Ġstatis tiko
à¶ ½
] :
h oma
Ġeks kluzive
tter dam
à· ĥ
à· Ĵ
ĠAbra ham
Ġe o
Ġsen proble
ĠKa pri
ME F
Ġbonven igas
ti al
ci us
ĠS omalio
Ġak va
ĠSe gedo
Ġme talo
Ġkli entojn
Ġhorlo ÄĿo
n p
ĠS za
ĠS wahili
Ġmal fa
ĠB IF
Ġ19 01
Ġfa boj
Ġ18 90
ĠKom ple
Ġreg ulon
Ġkov ris
Ġvan e
à· Ħ
Ġpor dego
Ġj c
ĠJ em
ĠIn fana
Ġ18 70
Kon sulo
Ġmov ebleco
Ġbi bli
ĠISBN ajn
Ġdev igita
Ġprefer is
zor ÃŃn
mals amoj
à¶ Ĥ
F ab
Ġdis ci
Ġor deno
Ġmals ato
Ġfo tilo
ES T
Ġlim igas
Ġmemsta ra
Ren kontoj
ĠBelarus ian
` .
k teri
Ñ İ
aÅŃ a
19 44
par on
Ġgvi data
Ġge fratoj
Ġcxi u
Ed z
Ġkalku las
ĠðŁ ĻĤ
Ġkir ur
à·Ĵ à¶Ĥ
à·Ħ à¶½
v ek
en eco
Ġs fero
Ġel paro
19 80
Ġma t
ãģ į
Ġfeli Äīe
verse co
Ġkatoli kaj
Ġvesper on
Con tents
Ġidentifi ed
em ajne
ĠB ut
Ġkun vi
ĠG ren
tor m
pli cate
ĠMar Äįek
Ġkam pojn
ĠJun g
ĠNu ligi
Ġtermin on
ĠÐ¿ Ð¾
d oma
Ġa zio
ĠS korpio
ĠEs ti
Ġpa ge
Ġfor vi
Ġgra fo
ÄĪ io
36 04
inter nacia
Ġher bo
Ġresponde ca
tu do
Ġsen sen
mp os
ĠEn g
daj oj
par oj
Mi lito
Ġespri m
ĠGran de
ĠCom muni
ĠPl uraj
Ġpsiko logio
-------- --------
Ġtal k
Ġenco unter
r s
Ġ18 88
dek stre
Ġkarak teroj
Ġagnos ki
Ġetn aj
R aÅŃmismo
c m
Ġ1 14
Ġpar se
Ġsek vo
Ġkri tika
ĠAli maniere
Ġkonklu do
Ġofici ro
kolor aj
b ser
f amilio
i der
Ġ à¤
Ġf aÅŃ
Ġre doni
ĠP RI
Ġte sta
tor ojn
Ġver kitaj
Ġmili tista
Ġmo la
Ġkonsider ante
47 48
Ġrespek tas
Ġera o
Arki voj
Ġburo kra
: :
K antaro
Ġel teni
ma le
Ġak voj
gor do
Ġbe lajn
Ġsa ÄĿa
Ġpoten caj
ĠBul ler
Ġvikti mo
ĠÅľar gas
torgani zado
ri tan
ĠA gri
Ġmal dika
vo lo
ĠN as
11 11
ĠPo wer
ĠPar se
Ġrea goj
Ġhon oro
Ġpol vo
Ġera ra
Ori enta
ĠTea tro
Ġtra fiko
Ġle gendo
Re gla
Ġfer voja
stra te
Pli aj
ĠmanÄĿa Äµojn
UN PO
He Ko
Peter burgo
â Ī
Ġf li
ĠA B
ĠD NA
Ġali ÄĿ
Ġpar enc
ĠMa ksi
Ġuz antojn
Ġinklu de
ĠMu ziko
ĠDan k
Ġorigin alaj
ĠÄīes igi
Dek retoj
ĠExecu tion
Direkti voj
Ġa z
ĠF ed
ĠC N
tre to
Ġkor bo
15 9
Ġas ek
ĠNov aj
skul tu
Ġmina cas
F R
M S
a ejk
re go
ÅĿ tono
ĠA si
ĠT omas
Ġel flu
Ġpa fi
ĠRe to
Ġro terdamo
ĠÄĪi am
dem o
Ġon e
Ġaspek tojn
Ġattemp ting
s ystems
ro taria
Ġpl usen
Ka pitulo
Ġgeo grafia
Geografio Redakti
ÄĪef paÄĿo
PRI M
a das
Ã ¬
er ia
ti gaj
ga la
kom panio
In stancoj
Ġter p
Ġeven torganizado
36 47
Ġlisto pada
esperanto brazilo
feren con
Ġara baj
ĠBal ta
Ġos toj
ĠTele gram
Ġencounter ed
rotaria esperantobrazilo
d ur
Ġk enjo
le ma
Ġre ton
us ence
ĠMal granda
Ġkarak traroj
tia go
Ġobser vis
Ġben ino
Ġtaj lando
Ġbur undo
opera ting
Regla mentoj
Ġli poj
Ġpost las
Ġpen e
Ġuni code
ĠJu Ts
TO N
Fran Ãĥ
Ġkru da
Nor maro
ĠIN TO
Å¬ ali
ĠAlex ander
Ġtertre mo
Perio dajoj
Esta bloj
Civitan aro
P lu
k foje
ĠÄī aro
ĠÅĿ u
Ġpen et
Ġkvan toj
Ġqu ery
g r
ĠP le
Ġlern ejon
eble con
Ġevolu igi
ĠWal ly
Ġromp is
ĠTul uzo
k lino
z hou
Ġi lu
Ġpa trio
me tro
dan oj
21 4748
Ġmar ked
mes e
Ġfra kas
Ġprogra merojn
Ġgre kaj
Ġmalpermes o
Ġtenden coj
Ġepo koj
ĠINS ERT
c ula
f ado
s am
Ġen ami
ĠV ALU
tra di
Ġtra fas
ba tali
tion et
ĠDu plicate
Ġfu ÄĿis
esperan tionet
mod x
Ġproviz ora
3015 3604
PRIM ARY
214748 3647
ĠVALU ES
30153604 60
- )
in kluzive
Ġvi vaj
Ġte am
ke ton
th on
Ġna zo
Ġdia blo
mem broj
tene gro
x ojn
ĠA zorÃŃn
Ġkon jek
da te
us ona
ĠLa w
et nama
ĠÅĿan co
ĠPar k
Ġcir klo
Ġuson an
ĠZo om
Ġgelern antoj
P usch
Ġin gredi
gn ezio
Ġkomuni kadon
rajn oj
Ru ÄĿa
ĠJus tice
ĠmalÄĿus ta
ĠEvi dente
Honor igoj
lo ÄĿantoj
Ġkon o
Ġmal dun
Ġak celi
ĠRe view
cen ta
mal ÅĿi
Ġbi to
ãĤ Ĥ
Ġmalfer miÄĿis
Ġmemsta re
or ado
to ols
Ġin cen
Ġkon diÄīe
vis tiko
Ġle go
ana da
su kces
Ġpla ta
Ġeki ris
ÅŃ ten
Ġg aja
Ġte sti
Ġvin ber
Ġmo toroj
Ġfer mis
Ġeni ro
Ġprizor gado
ĠWa gner
igx as
ĠUson on
ter ajn
ĠF lo
Ġpo entoj
Ġma turi
Ġmu eli
z ek
Ġes enco
ĠM alajzio
Ġne pra
vis ion
Ġhistor ian
Ġsan aj
ĠdediÄī as
Ġpejza ÄĿo
i lia
ĠM embro
tu ko
ce ton
id dish
ura do
Ġcivi tano
Ġson ÄĿo
Ġofer ti
Ġfabri kanto
Ġarme oj
si ze
hi de
ĠWal ter
Ġato m
Ġhero oj
Ġsinsek vo
ĠBus h
ti gado
de ca
kon ton
ĠPo ten
ĠCh urch
Ġbri le
esperan te
Man aj
Ġciviliz acio
Ġjunula raj
Ġekha vis
Ġgeno cido
Ġ Ñı
li t
le d
for mado
Ġse ÄĿon
Ġsin tenon
ĠAl banian
ĠSen paga
kara gvo
Mu zeo
Ġefekti vigi
o ficiala
Ġpo ezi
Ġcer emoni
Ġkvar taloj
ÄĿen erala
ĠC ebuano
20 25
Ġeks kluzi
Ġ10 76
velo p
Ġrespek ti
! ).
D I
Ġlo kajn
Ġkons umo
ĠKom prenante
cen co
Ä¥ in
Li ke
ria triaj
ĠMe za
Ð°ÑĤ Ð°ÑĢ
Ġkolon ia
EÅŃro po
è¨ Ģ
A h
le m
ÅĿ ante
Ġkun venis
il kosmo
Ġgra tu
kta don
Ġneni om
Ġnu trado
Ġsper ti
IN G
Ġintele kta
ĠKalifor nio
V la
n eni
is la
in dan
Ġsen kom
Ġra cia
ĠIn forma
Ġkre iÄĿis
Ġparo lanto
ĠKor Äµ
ĠKor tumo
Ġretro vi
E dukado
L Ã«tzebuergesch
ĠB ele
ĠH aÅŃ
ĠMi aj
Ġ7 9
ĠÐ ĳ
Ġperson an
Ġkol er
cha ft
ĠÄĿusta tempe
Ġpaf mor
ri medoj
lo k
Ġne u
19 79
Ġmen di
Ġprote kton
ĠÄīees ti
Ġoli mpi
ĠMinis terio
Ita lio
ĠSenega lo
G ru
Ð Ł
ka o
ĠF lan
ona le
Ġtu ÅĿis
tem pon
Ġkor tego
ãģ ķ
Ġdeci dojn
ÅĿe vi
ĠSamo an
h ame
Ġi lojn
hi dra
Mar tin
Ġteor ion
Ġmakler isto
ĠTesta mento
ĠTuni zio
S E
Ġdu ona
Ġdu one
Ġres ur
ĠInter net
Ġuni kan
Ġeni rejo
198 5
ĠÄīes i
D ia
l t
Ġe go
ga t
Ġmo do
Ġjen an
Ġdia gno
oru ba
gem ent
ĠNepa li
ĠEmir landoj
v re
Ġl en
ĠF ro
Ġlo go
Ġtri aj
ĠSu dano
Ġins pek
adminis tranto
Ġminu to
Ġunuo pa
EU R
Ġaltkva lita
ĠEurope an
ĠSkri bu
Ġmal re
ĠR A
Ġpar encoj
ĠLi bra
ĠChi chewa
ÅĽ ci
ĠJon es
Ġs esa
al ta
do fi
vi doj
ĠJ r
Ġ8 3
Ġon klo
Ġdeks tren
Ġ1 19
ĠB BC
Ġser pen
Ġmulte kosta
Ġlar ÄĿe
Ġorien taj
ĠMongo lian
y on
Ġs ho
pro pri
Ġmor tigitaj
Ġefi kaj
Ġevolu igo
Ġfes tas
ĠKam bo
indus trio
l ulino
Ġen kar
tas ervo
per ni
ĠÄĿ erman
ĠÄīi es
pa co
ĠU zo
Ġvar ojn
Ġdetru o
ĠJohn son
k vin
Ġsu pozi
bo lo
Ġsoci alisma
Ġkontro lita
ĠKo penha
Ġdona cojn
Ġdefen das
Ru liloj
Ġkoti zoj
I TE
Ġp Ã¥
Ġf era
Ġt ris
tis lavo
Ġun der
jo fte
fek to
Ġmalal tan
ĠMediteran eo
p ino
Ġa Äµojn
Ġunu op
ĠAÅŃ toro
Ġkomenc u
Ġdeta la
ĠOr do
Ġdisting o
ĠP io
Ġc ul
pan o
ĠJako b
F E
j aroj
x e
Ġ18 0
Ġ18 89
Ġju bile
Ġno bel
Ġdan cis
Ġfo lio
nis ch
ĠInstitu te
Ġfundamen taj
f alis
en d
Ġi es
kon tra
man uel
Ġar milojn
por taj
ĠÐ ·
Ø± Ú©
198 6
ĠaÅŃskul tas
Ġmeto dojn
Ġredak tojn
ther ine
ĠSom ali
Ġprun te
ĠNet works
Ġla titu
in en
Ġkom paro
Ġar kivo
Ġtra ktis
ĠMa ori
ph rey
Ġokupi ÄĿi
Ġscen o
Ġmiliar dojn
Ġdomin ado
Ġp es
Ġde ko
ĠP ur
ĠI do
Ġpa ÅĿon
aÅŃ de
ĠRo ad
Ġrigar data
ĠRi vero
Ġprakti kaj
Ġned e
ĠKen jo
Ġir landa
Ġde kor
Ġs pri
Ġs ab
ĠT hi
ĠTi ele
Ð° Ð¹
Ġmala vanta
Ġren vers
alis m
ĠSen du
ĠretpoÅĿ ta
Ġekvi libron
Ġron doj
Ġprizor gi
Ġtrejna don
Institu to
ĠKorÄµ enkov
G H
b rio
w ald
Ù Ģ
Ġ q
Ġen saluti
Ġdis cussion
ĠAn ge
Ð° Ðº
ĠY iddish
ĠHa w
Ġoce ano
ĠHein rich
l Ã©
Ġre formoj
Ġsen uti
pen dioj
Ġlern anto
Ġespri mojn
Ġmalj us
Ġadministra cio
ĠFu ÄĿo
ĠIKU E
s mall
ge to
pen so
nu ro
Ġposte d
Ġfinan ce
ng el
Ġalfron tas
Ġsup raj
ĠBudh ismo
" [
a ble
c ÃŃa
al to
per eble
Ġi al
ber go
ĠAn ti
ĠÅĿi ajn
Ġliber igis
uni vers
Ġâ Ħ
ĠLu ko
Ġab omen
Ġfizi kisto
ĠMez epoko
Ġtavo loj
m ora
or Ã¹
Ġen vi
Ġar toj
Ġman kon
Ġkre ante
Ġuz us
Ġsan ktulo
orÃ¹ bÃ¡
b log
â Ļ
la ron
Ġre tur
ĠO f
19 39
Ġmuzi kaj
Ba zaj
Ġlar moj
Ġmalpe zan
Ġlini on
ÙĨ Ú
Ara gonÃ©s
Ġb run
per to
Ġli mas
va Äµojn
ĠG LAT
Ġlan d
Ġurbo centro
Ġapar tajn
Ġgvi d
Ġves tojn
ĠlaÅŃle ÄĿa
Ø¬ Ùĩ
ĠHod ler
f le
Û Ĩ
Ġpro gno
Äµ aro
ki r
Ġka blo
Ġliber igita
para to
Ġeten dis
ĠLa grange
Li broj
Ġkonstru as
ĠSa ksio
Ġalian co
ĠCen ter
ĠCe zaro
ĠKomuni koj
ĠlongdaÅŃ ra
ĠÅľanh ajo
m igis
Ġde mis
Ġre alaj
Ġre produkti
pe toj
las si
Ġlo ÄĿi
ĠEl saluti
Pa trino
Ġmil da
plen aj
Ġate sti
Øª ÛĨ
Ġkantis tino
Ġwhi ch
Ġbonfar to
Mek siko
Ø±Ú© Ø¬Ùĩ
ØªÛĨ Ø±Ú©Ø¬Ùĩ
) ?
6 00
li k
ce lo
Ġsi di
ĠVi rinoj
Ġfi dela
Ġmar kas
Ġbalo tado
Ġfren eza
Ġgeedzi ÄĿo
Ġperi fer
c ze
m istoj
| |
ri do
lo ka
Ġt r
Ġser Äīa
Ġpan jo
Ãł idh
Ġakompan is
Ġleci onoj
Ãłidh lig
Ġk emi
Ġre ten
ĠB in
Äīe fe
Ġbata las
Ad reso
ĠÄ´om art
li ano
ru ÄĿa
ĠF ara
kon tin
Ġfor no
ho o
Ġmen stru
ĠFa boj
Ġvoja ÄĿon
Poli tika
Ġparla menta
Sco ts
ĠV alo
Ġap os
ĠKon ser
Äīe f
Ġkla ran
Ġrice vita
ĠloÄĿ ata
Ã¶ te
áĢ ŀ
ĠKol on
Ġkaf ejo
i ca
ĠK n
Ġi ts
Ġ10 80
Ġfaci lan
ĠIsla mo
Ale man
Mesa ÄĿo
B R
Ġpe ko
ÅĿi poj
and el
ĠX hosa
Ali ÄĿu
ĠFrank lin
Ġmalfeli Äīa
d inta
Î ¼
in ajn
Ġa y
Ġka ta
ĠW indows
Ġnun tempo
Ġren aski
Ġrapi daj
ĠSh la
ĠChi cago
ĠPhi loso
s x
ĠD emo
mi ento
Ġku ba
tur y
Ġmor tigas
ÑĤ Ñģ
Ġhav igis
Ġrekon i
Ġbezon us
Ġekzempl eroj
ĠWel sh
Ġprefi kso
M P
u ch
lo kaj
ĠM ini
Ġkom is
Ġpo ÅĿa
Ġra cio
ĠÄīu k
ĠVol on
Ġate stan
U D
z ano
is ter
Ġvi vos
ĠM erka
ĠA so
Ġpor talo
ĠO tomana
Ġkontra ux
Ġjun an
Ġkan aloj
Ġkru co
Bon vole
Ġdama ÄĿo
ĠParo las
å ĭ
Äī us
Ġi tin
ĠRe publi
Ġvor tarojn
Ġme tala
Dis kutejo
Ġtuj a
tek turo
Ġregn oj
zam bi
E uro
Ġka res
Ġar ko
bor do
ĠMi ch
ĠMi ke
Ġkomen ti
Ġkonta ktojn
Ġforges as
ĠMuzi kistoj
Ġposttagme ze
ĠP S
ĠÄīe lo
Ġro z
Ġ12 4
Ġating ebla
Ġpres ita
ĠGa eli
ĠGol d
Ġoperaci umaj
ĠShla fer
K ata
re bla
Ġri ismo
Ġfon di
Ġce tera
Ġvar maj
Ġskribi taj
Ġekzempl ojn
ĠChu ck
hame do
N una
Ġnov eloj
sta dt
ces s
Ġ189 6
Ġsubstan tivo
ĠÄīiu okaze
Fran ca
ĠBri tish
Ġdisvolvi ÄĿis
Ġalterna tiva
ĠPriva teco
Kan tono
ĠAus tra
n omoj
Ġal ÄĿus
ĠÄī inoj
ĠEn tute
ĠPro men
sa ys
Ġna zia
Ġto po
ĠGi orgio
ĠKri meo
Ġform ularo
dosi ero
ĠSove ta
opini e
k inta
ĠT r
Ġar Ä¥
Ġres er
Ġfi elds
Ġmen do
Ġmalfaci las
ret poÅĿte
Ġama zon
Ġadop tita
Ġekspedi cio
8 02
ve c
Ġdo g
ali zo
ĠÐ ļ
Ġekster en
Ġgerman lingva
Al ma
eso to
Ġemo cioj
Ġkategor i
ĠSebas tian
di al
go la
Ġfor pren
Ġhom am
Ġmar on
gru o
Ġtraduk intoj
Ġreferen dumo
Sin joro
K uti
Z a
g ers
l li
ta bulo
Ġdi ino
fon io
ese arch
Ġkonkur enci
ĠSoci al
Ġkonsul ti
Ġparale le
la p
Ġa si
te c
Ġre ferenco
ĠP roject
Ġl oj
il van
Ġnom atan
gor it
ĠSer ge
Ġampleks o
Ġpied ojn
Ðľ Ð¾Ð½Ð³Ð¾Ð»
Ġparame troj
dagas karo
A jna
Ġra ÅŃ
ĠantaÅŃ di
ĠKon ta
Ġsci u
Se p
Ġler ta
ĠStre et
Ġgod z
P al
V ol
ĠA z
Ġne cer
ver peno
ĠÐ Ł
id el
Ġfen omen
Ġmalpermes ita
Ġvek is
L inio
Ġh u
ĠEs plor
Ġku ÅĿi
gy z
Ġgrama tika
hor lo
" ?
Ð §
Ġa bor
ĠB ou
Ġmon teto
eda lo
kor no
Ġmen don
BN F
Ġfami lian
198 2
Ġmalsan on
Ú© ÙĪØ±Ø¯ÛĮ
Ġedzi ÄĿis
Ġside bar
ta ksa
ma terialoj
Ġor eloj
Ġfer mitaj
Ġkonk eri
Ġalin om
Aleman nisch
Ġb in
Ġmi rinde
Ġfor ti
Ġni velojn
19 74
bu ch
ĠRu ando
Ġmalhel pis
Ġkonfir mi
K var
Ġdi rita
Ġha ven
ĠTi po
Ġ8 9
ama Äµo
ĠmanÄĿa Äµon
Bibliografio Redakti
Y ou
ĠÄī eno
ga ro
ĠMa lio
Ġna vig
Ġno tis
Ġspiri ton
Ġesperantis taj
kapab lon
Ġkonati ÄĿis
Ġtelevi da
oj oj
Ġe va
as oj
Ġal kla
Ġal tru
Ġne w
pa Äµo
Ġrimar ki
Ġtea tra
Ġemfa zas
Ġprepar as
Ġkronvirus o
ĠJem eno
in sta
Ġsa lo
Ġkunlabor ado
ĠKor ea
Ġet na
Tele fono
Regis triÄĿi
Ġpoem ojn
ĠScot tish
Ġsenproble me
Ġ Ã§
Ġla goj
Ġla ds
Ġin stanco
tor aj
ĠO kciden
dan ton
ĠW ol
Ġmor ta
Ġeb ena
Ġbri toj
ĠKos tariko
ĠÃģ ngel
w y
Ġre ktaj
ĠS la
ĠP EJ
ĠP OR
Ġpri mi
Ġesperan tan
Ġ9 6
ĠBo ard
Dan ke
Ġris kas
Ġkonfli k
ĠGil bert
Ġreale co
Ġpole mi
R aj
per son
tu i
Ġek bru
lin k
Ġmu ta
Ġpi an
Ma rie
Ġflan kon
kar ton
Ġedu kadon
ĠIJ S
Ġpli vas
Ġri Äīe
se e
11 5
Ġapo gis
ĠKonsi der
Ġvita minoj
1 21
i Äī
er z
ĠP V
Ġi talaj
tu ma
Ġba bil
Ġme tri
Ġeb lan
gita n
Ġinklu dis
ĠViki vojaÄĿo
ĠIsla ma
Ġbezona taj
k estro
ĠD al
Ġdi ametro
Ġor gen
Ġfon tojn
ĠÄĿen as
Ġinstru adon
rapi de
ĠVil la
Ġinicia toj
ĠÄ¥ a
Mala gasy
Soci eto
u te
Ġte on
Ġmem oron
ĠÐ Ĵ
Ġus e
Ġve ter
Ġmom ente
Ġentuzias mo
ĠGro up
ĠPaci fiko
ĠTrin i
J an
g l
le don
ĠK EL
Ġg iganta
Äīe fa
tre joj
Ġ6 1
Ä¥ an
ja bi
ĠanstataÅŃ is
Ġer ojn
Ġtutmon daj
Ġfortika Äµo
Ġmiz ero
ĠAtlan tiko
Ġb est
ĠF ord
Ġsek toroj
Ġce tero
]] </
ĠDu on
Ġvizi toj
Ġsamide anoj
h oj
ĠL ang
ĠU gando
ĠJ ud
Ġspe gulo
ĠPro gramo
ĠvoÄī doni
áĢ º
Ġnorma laj
Ġtab lon
Ġh ebre
ĠM ov
pe cioj
van ni
Ġma terio
ĠW in
Äīe ti
Ġ9 7
Ġfin as
Ġobser va
Ġ189 5
Ġsp am
Ġmalrapi da
Ġinfana ÄĿo
Ġmontran te
I K
N igra
vi di
Ġan tropo
Ġel u
Ġek parolis
Ġesti ÄĿas
ĠRe quired
Ġsci oj
ĠRo tterdam
Ġju ÄĿisto
Ġang laj
ĠSi cilio
Ġhej mon
Ġkontin u
Ġmalo ftaj
ĠStu doj
SU G
ĠAten tu
Ġgraved eco
ĠStanis ÅĤaw
ĠpoÅĿa parata
A k
ĠK res
il s
Ġsia tempe
Al voko
Ġprezi den
Ġfilozo fia
Ġparti kula
Ġ189 7
V in
d Ã®
ci ÄĿo
Ġan alo
Ġpa pi
ha vi
Ġlern os
Ġprakti kas
Ġscienc fi
Ġverkis tino
Ġrol uloj
yr gyz
5 21
C har
n ar
æ Ŀ
ï ¿
tu b
ĠU p
fi eld
mp oj
et te
kor doj
Vi zi
Ġfar ma
Ġna zi
Ġsa ko
________ ________
B RA
B ET
ĠG anao
Ġek lo
Ġfor igu
Ġdis falo
Ġdu bo
ĠZ ono
Ġpe ton
Ġpren ita
Ġlim igitaj
Ta goj
ĠRez er
bez one
oper ati
Ġweb site
) |
p ul
ĠA ro
Ġplen umo
Ġdok trin
Sam e
Ġrekom pen
ĠTor re
Ġmig rado
LEK TO
ĠCale gari
M F
T W
Ġpro pre
ĠC ra
Ġpo entojn
Ġ7 4
12 9
Kom uni
Pe tro
Ġdens a
M os
h ora
Ġre iru
ĠG ene
Ġda toj
Ġro las
Ġ10 4
AN DA
tal ujo
Ġ29 7
Ġprinci pon
Ġsis temojn
ĠColle ge
F ederacio
ĠA kiri
Ġan a
Ġmal fi
Ġpa rado
Ġfor esto
van ese
ĠMi Ä¥a
ini oj
Ġaldon ante
sek retario
Ġduo bli
Ġsilen te
Ġchi uj
Ġlerno libroj
Ġtrapas is
Adminis trado
ĠKru co
Ġatmos fero
ĠMolda vio
o z
ĠS ES
don as
Ġfor bari
Ġeks kurso
Ġas tero
Ġmalsam e
Ġ189 8
F un
p ran
do to
ov ern
tan ismo
tor ita
ini aj
Ġekster ordinara
23 9
ĠBo b
** **
ĠEar th
Ġunuani me
Ġ1 22
Ġti mi
ku time
ĠIn fanoj
Ġw ie
Ġeven tualaj
vide o
ĠSte lo
Ġkontin enta
Ġhal tigi
Ġapro bita
Ġekkon i
dimen sia
Ð°ÑĤÐ°ÑĢ ÑĩÐ°
G A
G vineo
W al
c lando
Ġn ulo
Ġfa deno
ĠVi ctor
ĠW it
Ġr Ã©
Ġneni uj
Re ad
Ġteritor iojn
Ġleg omoj
usen aj
ĠSem inario
y Ã²l
re volu
Ġha vante
gra mon
ĠRo tari
Ġpe tu
Ġadminis traj
Ġinte gra
Ġdivi ditaj
ĠEle ktu
Ġmaljun aj
Ġkondam ni
raÅŃ li
F ilo
O p
g ed
Ġp ing
ÅĿ tu
Ġpa troj
ĠMa terialo
Ġvizi tos
Ġkontro lis
ĠOn line
ĠRez ulte
Ġtrajn oj
ĠPh il
tatar Ã§a
F lu
N KC
Ġn eri
ka talo
Ġmor tos
Ġgvi dilo
ĠX a
Ġinsta lado
Ġvalor aj
Ð¢ Ð°ÑĤÐ°ÑĢÑĩÐ°
ĠTitan s
ĠS enato
Ġu to
Ġsen fina
Ġr ingo
Ġkomen con
Ġinteres i
ĠCh am
Al to
Ġdisku tis
Ale x
Ġintri go
Ġvivan tan
D io
P EN
e Äī
ĠB eli
Ġel pro
ĠEsperan tio
Ġek ri
Ġma is
ĠÅĿan ÄĿita
Ġamas e
Ġmaldek stro
A na
N as
li gado
ÄĿ tagoj
ĠN enio
Ġmor alo
Ġpubli kon
Ġregis tris
Ġkonsi las
Ġher b
Ġfizi ke
Ġteor ia
Ġm es
Ġpa peran
ĠO EM
Ġpos edaÄµo
Ġmaj us
grafi oj
ĠÄĿar den
eth oven
@ .
Ġes peris
lo d
ka u
ĠB and
ĠI R
ĠI V
Ġ19 02
fa con
ĠAn n
Ġ/ /
Ġmalo port
Ġprecize co
Ġimpon a
ĠKopenha go
C D
e vo
Ġal to
Ġre foje
ĠR esearch
ĠMa h
Kon stan
Ġsukces i
Ġorigin alajn
Ġfina Äµo
Ġspor toj
Ġkem iaj
Ġkui rila
f am
r ÃŃ
Ġn on
ĠLa tino
bo wski
pu lo
Ġkonkur soj
Ġkongres ejo
Ġkonsid ero
ĠBio grafio
Ġalu das
Ġbudh ismo
Ġinterromp is
p siko
Ġen kor
Ġkon so
ĠMa o
Ġlabor pos
Ġdiverse con
Ġmed ita
sp amaÄµo
S im
ul ton
Ġnu traÄµo
ligi lo
Ã± a
Ġlitera turaj
bil do
Ġs trio
ĠC lo
Ġpartopren os
Ġami kon
Ar t
elon go
Ġarb us
reo le
Ġdosi erojn
Ġteo logo
IJ K
I U
e va
an mar
ĠE de
ĠEs tra
Ġfa rata
ĠSom era
Muzi ko
ĠGva temalo
ĠAssocia tion
b estro
Ġsek aj
var d
'' ,
fon on
ins tein
ĠAra bio
Ð¢ Ð¾Ò·Ð¸ÐºÓ£
ĠOka zas
ĠKov Ã¡
deli j
P rojekto
ĠVi c
Ġres en
Ġjun ajn
Ġkap vortoj
Ġmontri ta
Ġfe ÅŃ
ĠBangla deÅĿo
E m
K el
ga te
Ġor n
den co
Ġaper intaj
Ġkar ton
ĠÅĿlosi lo
S to
w is
Ġs tro
Ġvi ron
ĠAl terna
Ġsignif an
tes to
Ġelsen doj
Ġastron omo
Ġfilme ton
Ġprezidan ton
B ata
P L
le tojn
ĠA ward
Ġmal ÅĿa
co in
cen zo
ĠNi karagvo
Ġ7 1
Ġrila tajn
Ġperio don
ĠSch war
Ġfilozo foj
Ġnig ran
ĠKas telo
Ġofici roj
K uri
K usenaj
v ujo
ta cion
19 40
Ġfi an
ĠMon tenegro
Ġevolu igis
Ġpan on
Ġfabri koj
Ġp uno
go ogle
Ġeble cojn
Ġcer b
Ġregis tara
Ġpublik igas
foj a
Ġstrate gia
ĠHon ora
Ġrendi mento
RetpoÅĿ tadreso
o lo
Ġvi dita
Ġmi ris
ĠD c
ĠC lar
ĠVi ktor
Ġcen tojn
Ġekster landanoj
Ġmalfer mitaj
str umen
ĠPara gvajo
Ġamaskomuniki laro
Ġinsek toj
ĠKambo ÄĿo
h oro
p taj
ĠP ie
ĠC id
ĠRe a
ĠAl berto
Ġkomenc antojn
ĠMin naja
Ġdokumen ton
ip zig
Ġprof eto
ĠEmi lio
ĠHawai ian
u koj
Äī emi
lan dajn
Ġri gor
Ġsek von
Ġba bili
gen tejo
Ġju ÄĿo
Ġkar bo
Ġkatoli koj
Ġlingvis tiko
ZI LA
o f
Ò ¡
Ġg lor
ĠÄīi ela
kom o
Ġ189 4
ĠdanÄĿer aj
ï¿ ½
Ġv osto
per sona
da lo
Ġg am
Ġpri ju
ĠN ig
aci an
se ka
Ġ16 0
ĠQ ue
Ġkondu ton
cx e
.... ....
ĠJor ge
ĠKaza kh
i x
is yen
vi za
Ġvor ta
Ä¥ ejo
33 3
Ġkos tojn
Ġkultur ajn
ĠBen jam
Ġa ÄĿaj
to le
ÄĿ ema
ĠT ol
Ġkun igas
pa ÄĿoj
Ġregu laro
Ġbalo toj
ĠHon kongo
Ġsova ÄĿa
ĠGor don
Ġal mena
ĠC reole
pi ÄĿis
Ġmulte kostaj
Ġsa bato
Pro vinco
ĠX ia
forma cio
Ġkontin ua
ĠOli ver
Ġfan ati
ĠSco tt
Ġay isyen
ti ÄĿos
Äī eno
ĠE mpi
di ono
ve con
Ġ18 30
Ġfil trilo
Ġ14 0
Ġkandida tojn
Esperan tistoj
Spe ciala
Ġmallong igoj
komer co
Ġfro ma
Ġisra ela
Interling ua
p iloj
Ġne movadaj
ĠW ells
10 6
Ġesper eble
ĠÅ ¬
ĠHun gar
ĠMy anmar
Ġflugi loj
Ġbak terioj
Ġbito koj
ÙĨÚ Į
W S
en z
da Äµojn
men io
Ġsek voj
Mal pli
Ġkonsider oj
ĠAntaÅŃ e
Ġagra ble
bun tu
Ġfara ono
Ġhara ro
Fund amen
j s
Ġk us
on do
Ġt run
tu ÅĿ
Ġo ch
Ġpa pa
Ġkons umi
Ġspe cojn
Ġkomun istoj
Ġproduk tad
Ġaten tigas
ĠBa g
Ġkomer cajn
Ġsper taj
Ġkriti kis
edu kado
Ġsever e
b iloj
d le
Ġli gojn
Ġmal sta
pre ci
Ġfari tajn
Ġkor te
Ġsol ena
Ġorigina le
Ġlar ÄĿo
Ġprezento s
Ġkonati ÄĿi
ÙĨÚĮ ÙĬ
B A
K va
ra porto
rin to
Li to
Ġpopula reco
Ge or
ĠKura cistoj
Ġfemin ismo
B edaÅŃrinde
e can
z berg
æ Ī
Ġ ovo
Ġen u
ĠE va
ko lon
Ġsi diÄĿis
Ġri zo
Ġpos edo
Ġsur metis
gra f
Ġfi das
Ð° Ð´
ĠTra du
Ġlonge co
Ġregistri te
Or do
Ġtea traÄµo
ĠLabor ista
Ġabon antoj
Ġavan gar
;"> [[
ĠÄī o
Ġb et
ĠA ta
ul in
Ġne forma
Ġsen pere
Ġelek tran
Ġfru ktojn
ĠtaÅŃ ge
ĠdaÅŃri pova
Ġprilabor ado
ĠKO LEKTO
Ġkamara do
Ġnut ras
ĠFris ian
am ple
Ġvi dante
ĠKi un
Ġamas on
Ġkontro las
Ser Äīo
Ġpioni ro
Ġole on
a ko
Ġla ce
ĠK il
ĠA R
us t
Ġmon tra
Ġna i
Ġw o
Ġgre koj
Ġnukle aj
Ġs va
ti pa
ĠP edro
ĠC ita
Ġling vos
Ġmul ta
Ġfunkci adon
Ġkru d
Ra pi
Ġbonven aj
ĠKie vo
Ġfrekven co
G er
volu o
Ġparo lante
ĠAleks ander
ĠKul tur
ĠCor si
Ġkomputi lon
ĠGali cian
h as
en daro
ĠK yrgyz
Ġmon dan
Ġven dejo
Ġ10 8
ĠSa haro
ĠSa gitario
Ġanon co
Ġdirek tis
Ġkontras te
Ġkaj ero
ra r
Ġkun a
ha ric
Ġlu dado
Ġkli mata
Ġrea gis
Ġekonomi ajn
Ġtito lita
ĠKe urig
Ġtaks is
Ġprodukti taj
Ġmallong igo
i isto
m isto
an n
ĠÄī emi
Ġh odia
Ġne esperan
Ġuz oj
Ġtri ono
Ġrespon dojn
Ġmo tivoj
ĠPas hto
ĠFlor enco
ĠKh mer
ĠGaeli c
v na
ĠA pli
for mojn
ĠAn tikva
ksi do
Ġfunkci os
Ġkru ela
Ġaser toj
zy ÅĦski
Ġkonven e
ĠPun jabi
ĠP ere
ĠT ig
Ġdi zajn
19 77
ĠAl fonso
Ġvoj ojn
Al ta
Ġskrib ado
Ġsekure ca
ĠBas que
Ġstoma ko
P ala
ÄĿ ino
ĠS ej
rus o
ĠRus lando
gh oj
Ġgla vo
Ġkonfir mas
Ġfing ro
Ġrimarkin da
Ġrit mo
J ustecligo
V itamino
Î ¯
Ġ( -
Ġsen ÅĿan
ĠO m
ĠW y
ĠLe ÄĿo
Ġsa vis
ĠJa vanese
Ġiam aj
Ġeviden tiÄĿis
ÄĿan tan
mani eroj
gro ups
e gis
Ġ aj
Ġa risto
tor ia
19 18
ĠMi r
ud io
Ġfin aj
ĠTa ÄĿi
Ġkapab laj
kar toj
ĠPla co
Ġmalfacila Äµojn
Ġvet uras
ĠÅĿtu paro
ĠðŁ ĺ
Bur mese
p si
u di
Ö Ĥ
ren t
pre cipe
Ġsci igis
Ġvo kaloj
Ä¥ oj
Ġrice vu
Ġakcep titaj
Ġhe g
pres so
Ġeko logia
ĠnaskiÄĿ tagoj
Ġvio lon
B ele
D es
Ġs aÅŃ
ĠP interest
ku o
Re tejo
ĠMon te
Ġpens u
ĠEkz emploj
Ġampleks as
Ja wa
J os
i ÄĿintaj
ki on
pe z
ber ia
ĠAr ticle
Ġima go
ĠBal Ã¡
Ġride tis
Ġmatri co
L ombard
ĠÄīi el
ck en
mar aj
ĠY oruba
Ġinkluzi vi
Ġvide ble
ĠaÅŃskul tu
Ġgla cio
Ġripe tis
ĠKam er
ant wo
struk turo
H z
g ol
de cembro
Ġmon tros
lon go
Ġnor maj
ĠJo e
ĠLan da
Ġpromes as
Ġdro goj
ĠHum phrey
ĠtaÄī mento
K ura
Ġs he
Ġin dekso
por tis
bu ro
Kon grueco
ĠAm haric
Ġblan kan
Ġfaj ron
VI M
Ġkem io
Ġakademi ano
R ES
R use
ÄĿ anoj
Ġ1 11
ĠL eb
Ġin vesto
Ġkomun ista
ĠJun ula
ĠMo hamedo
Ġdefen dis
ĠHai tian
1 22
e us
s tero
ur ba
ĠâĢľ -
Ġfil inon
su per
Ġten daro
Ġprilabor i
Ġdama ÄĿon
Ġlogi ke
Ed mundo
ĠVene cio
R im
a tajn
v alon
um ena
Ġmi zer
Ġfor pu
Ġar mi
Ġar ÄĿen
pi oj
me tika
Ġ18 80
Ġpu Äīo
Ġlern eja
Ġkontribu ojn
ĠCon tin
Ġrela tiva
Ġ189 2
ĠDen ove
Ġprofesi uloj
katalo go
ĠCorsi can
Ġ1 13
Ġmal pra
Ġka ÅĿis
Ġeks kursoj
por tado
Ġkre don
Ġaten tigis
su ba
Ġposed antoj
Ġov oj
gov io
x y
Ã ¯
Ġal is
ka da
ĠS ab
Ġmon umentoj
ĠVi ro
mp is
fa ra
Ġlan Äīi
Ġthe ir
Ġmalkov ras
Ġbel ga
ĠGram Trans
i es
pa ÅĿis
ba zita
Ġ18 71
ĠAn golo
Ġso ft
ĠÄľ ar
Ġnu tri
Ġata kas
AÅŃ stra
ĠÄīes as
grafi on
Ġdiferenc aj
I P
Ï Ģ
te coj
de legi
Ġta ri
Ġta pi
raj ta
Ġakcep tebla
Ġvir sek
ĠSte ele
Ġdor mis
Ġdoni taj
Ġdiskon igi
ĠJako bo
9 69
S on
z anta
Ġe tern
ĠA ga
dis pon
Ġdu b
ĠInter lingvis
Ġpermes os
ban do
Ġreali gis
Ġkompon antoj
Ġinstitu to
Ġdra mo
ĠPriva t
Ġekzer coj
Ġdeli kata
Ġkuire jo
Ã¡sz lÃ³
la h
ti ano
re tejo
Ġkom forto
ĠC ri
ĠC aro
ĠMi an
Ð¸ Ñĩ
Ġkal kulo
Ġat t
Ba terio
Ġreprezen ti
ĠPi ron
Ġner ek
German a
ĠJac ques
Ġfa kul
Ġspe con
ĠJa co
à¥ ĭ
áĢ Ķ
Ġapo go
Ġmodern an
Ġjur isto
ĠBjalisto ko
w ska
Ġa mata
Ġf Ã¶r
ĠR al
ĠN ome
il lo
fer enca
Ġprezen toj
ĠBri tujo
ĠMos kva
LI O
Ġvet ur
Ġerar as
ĠinÄĿeni er
Ġaltkva litaj
c aro
Ġen skribo
ĠS ez
ĠN ami
od or
Ġkomun isma
Ġju daj
ĠSan tiago
ĠNa ture
Ġkonsci enco
Ġos ta
Ġeltro vis
Ġalire bla
ĠAnt verpeno
BRA ZILA
K N
ra l
Ġsubten antoj
fun damen
Ġzor gis
Ġforma la
Ta go
Ġdra to
Ġsor ton
Ġrobo toj
ÄĪef urbo
Ġseni luzi
k turo
t tle
ð Ĳ
ĠK ON
me ta
Ġma gis
Ġbu ÅĿon
Ġbo ato
Ġsimbo las
Ġplez uron
ĠKomer ca
bir doj
il in
Ġek lernis
pi zo
ad er
Ġw ho
Ġide aloj
Ġaten tas
omi c
Ġmemor is
Ġelekto s
Ġapara ton
k tante
æ ĺ
Ġn esto
ÅŃ so
ĠD ro
ĠV itamino
ĠO S
ĠO ran
ĠMa uri
Ġser Äīo
Ġmor tin
Ġokaz u
Ġkonsi lo
Ġevolu as
Ġradi oj
Ġfal saj
Ġlingvis toj
Ġkomfor ta
B razilo
C ol
m igita
in f
ter ion
Ġokaz igas
Ġpe li
ĠloÄĿ ado
Ġgas to
Ro tary
Ġkonfli kton
Ġmeze po
ĠVin ilkosmo
Ġpaci ento
i uj
el don
Ġta ba
19 20
kor do
Ġmals ani
ĠJa ck
bur gio
oron to
Ġjuris di
ĠSudan ese
ÅŃten anto
F ru
ka i
Ġda tiÄĿas
Ġsign on
kompren eble
Äľen erala
Ġhim no
ĠTech nology
B ra
V ita
j eli
Ġi dio
ĠH ill
Ġak roni
Ġtrans dono
Ġvar marko
Ġprofi tis
ĠMo on
Ġy e
kva lita
LoÄĿ denso
Ġares tita
Äľen erale
O s
P G
É Ľ
ĠE tiked
Ġli k
ĠG DR
ĠG reat
ĠH il
Ġha vanta
Ġmani erojn
G al
ĠS O
pa ÅŃ
za taj
ĠMar ÃŃa
ĠÐ »
ĠÄĿen ro
ĠFa ri
ĠTa gon
blo go
Ġprofun do
ĠCar lo
ĠMek si
Ġklasi kaj
Ġekle zia
ĠRenkon tiÄĿo
Bab el
ç §
ti kistoj
Ġki lo
ajn is
ni us
Ġ3 50
Ġpe te
ĠJo Ã£o
Ġkonkur enc
gx on
Ġtru o
ĠIJ F
poli tika
Ġfam an
ĠBlan k
sci enco
Ġned is
Ġplum bo
Sid loko
ti el
Ġre ÄĿon
ĠV ini
ĠMi kaelo
Ġ8 2
Ġto ta
kur s
Ġple jofte
Ġ189 1
ĠSv eda
Ġargumen tas
j unio
v Ã¡
Ġa dek
re ton
ri gita
lo kon
Ġt rono
ĠU R
Ġpas igi
Ġbi bliotekoj
Ġprofes ian
ĠaÅŃskul tantoj
Ġmalsukces is
Ġkolon io
Ġsinsek vaj
Ġslova ka
ĠJordan io
F ri
la dis
ti gan
ran tan
ol voj
Ġfor tigi
Ġkons cia
Ġ18 99
Ġam ba
Ðµ Ð´
ĠSi lezio
stra to
Ġgrande gaj
tiga ta
ka Äµojn
ki am
tan taro
Ġfor tajn
Ġc in
Ġsek soj
ĠÄľ em
Ġce lante
Ġsubten ataj
198 8
Ġfal s
Pos tar
Ġgrand urbo
ĠFu kuÅĿi
f ami
Ġk ran
Ġde bu
Ġu lo
wi d
Ġtur nas
áĢ ĺ
ĠFin an
Ġlogi kan
Ġfeder acio
ĠJose f
Ġaver tis
Ġradia do
å ¹
Ġsub Äīi
... ')
17 9
Ġrapor tojn
Ġpan eloj
Ġtekni koj
Ġreli ef
tig ebla
ĠDie go
Ġtransla ted
00 1
ĠG RAS
ĠVi kipedi
ĠÄīar ma
Ġeven tuala
Ġmez ur
fre do
Ġtempera turoj
cri p
Ġrimed on
la pu
on is
Ġv u
Ġki ajn
Ġvi vojn
vi zio
si e
ĠMa dagaskaro
Ã¼ k
Ġhav igas
Tra fiko
ĠpoÅĿ to
ĠBras ilia
Ġne ÄĿ
ĠLa h
ĠF ischer
Ġun e
ba i
Ġkura ÄĿon
Ġreprezen tis
Ġkomb ino
ĠmalriÄī uloj
Ġmeb loj
W hatsApp
Ġde venis
ĠÅĿ tor
Ġpe con
Ġmod er
Ġve ge
ĠBe ethoven
Ġfavor as
Ġskulp tisto
Ġprotes toj
ĠSove tio
Ġvendre do
Ġmedikamen toj
Cita Äµoj
pe ci
aÅŃ gusto
Ġven tro
Ġele menton
Ġme tio
Ġdel la
Ġsuges tis
ĠIndi ÄĿenaj
Ġinterre taj
Ġparame tro
b ana
p he
Ġe la
ri gas
om y
ka d
Ġh ek
ĠG h
Ġfi don
Ġ9 4
Ġraj tigita
TA J
Ġsuges toj
Ġdatum bazo
b igu
Ġe uro
ĠH D
Ġsen ar
ba d
Ġespri mita
pos te
Pre zidanto
ĠEsperantis tojn
Ð°ÑĪ Ò¡
Ġfok uso
ĠGener acio
Ð°ÑĪÒ¡ Ð¾ÑĢ
Ġre lu
tra dukita
he la
Ġsek vu
ÄĿa taj
gen ro
ĠFo to
val ora
Ġaktive coj
Ġpez an
ĠJer em
ĠcomentÃ¡ rio
ĠGRAS SO
8 70
Ġs ali
Äī ov
Ġj uraj
ĠR E
ĠH all
mon t
Ġsta bile
Ġfra pis
ĠGran daj
Ġedu kaj
Ġjapan oj
rigar di
TE K
Ġvali da
Ġgar di
Ġdeli ka
Ġmalmo la
Ġâĸ º
s igno
Ġp eno
kti ko
ver kisto
so ft
Ġ10 1
Ġru bri
Ġinven tis
Ġstabi leco
Ġstrategi oj
L ink
te amo
ĠR eloj
Ġper don
Ġdis sol
ĠAr no
An d
ĠVer lag
Ġdese gno
even taservo
Responde culo
on an
ĠM EP
ĠA lan
Ġan y
de viga
ĠD aÅŃri
kon takto
Ġlo k
ĠCh er
Ġpi lo
cis ta
Ġdif inis
Ġnaci ajn
bs p
Ġfidin daj
Ġg eni
po ir
ven dejo
pi ra
Ġgra vu
Ġsam on
Ð° Ð²
Ġju ÄĿ
Ġz u
ĠkaÅŃ zon
oma ali
Jo hano
Ġera re
ĠalÅĿu titaj
Ġforpas o
Ġpasint jare
y um
ĠS ia
Ġin jek
ĠP L
tre o
Ġaldon oj
Ðĳ Ð°ÑĪÒ¡Ð¾ÑĢ
Ġkunsi doj
Kar ma
ĠPara ÃŃ
Ġinstruis tino
Ġastron omio
ĠpoÅĿtele fono
ĠloÄĿanta ron
Ġdiploma to
A t
Ġd am
Ġkon atan
Ġpri paro
de ci
ĠEs tus
Ġman ÄĿado
Ġtri bun
Ġ8 7
Ġami kino
TO R
Ġkari eron
ÑĤÑģ Ð°
ĠB aj
ĠG run
Ġfa li
ado s
gan ton
ĠRe ich
Ġdan co
Ġmov iÄĿo
Al done
ĠY a
Ġkomer cado
Mar ko
Ġrevolu ci
Las i
ĠAni ma
C elo
ĠÄĿ eni
Ġun a
Ġar men
ĠAr thur
Ġhel pa
Ġfil meto
Ġsa ÄĿo
Ġvenon tan
Ġmalpermes as
ĠEgip to
Ġkopi i
Ġkoncen trejo
ĠEkon omio
Ġromi anoj
ÐĳÐ°ÑĪÒ¡Ð¾ÑĢ ÑĤÑģÐ°
Ċ ĠĠĠĠ
tu mi
Ġtro vig
ĠSi berio
Ġfre ÅĿaj
Ġata kon
Ġtom boj
Ġsubstan tivoj
Ġmusko loj
S KA
ĳ Ð²
es tan
ig antaj
Ġpor doj
Ġaper igi
Ġ8 1
Ġmo ti
Ġvoja ÄĿas
ĠRegis taro
Ġsign oling
Ġink lin
e po
n ojn
Ġk ino
is on
or usa
Ġs um
ri os
ĠS kol
Ġsu ko
don g
Ġali lingvaj
Ġ18 50
Ġba tis
Ġna zioj
Ġaldon a
ou gh
Ġhej maj
Ġreprezen tado
Ġproce do
Ġparola don
Ġefike con
Ġpuri gado
Ġbla zono
Ġmuze oj
P aÅŃlo
p rojek
Ġo pon
Ġ3 000
19 50
ĠSe c
ĠÐ ¢
Ġas ign
ĠJu lian
ĠEr tl
ĠÅĿul do
ĠKata ro
mana ko
ĠpaÅŃ zo
B asa
h io
Å ¯
ĠL umo
fi zi
Ġ18 15
ĠRe y
ĠKa zi
Ġposte ulo
ĠDu e
Ġdezi rus
ĠDo br
Ġdom ojn
Ġapo gon
ĠLern ejo
Ġrom po
Kur dÃ®
Ġfl oro
Ġmer kre
Ġdepon ejo
Ġnorve ga
Ġvej noj
M aj
S P
ĠM am
Ġb ud
de jon
Ġkun divi
tan aj
kti lo
Ġ- >
men te
ve turo
Ġating ita
ĠSa bi
Ġflan ken
Ġpriskri bon
ĠNor do
Ġfoj oj
rila toj
ĠVol ta
Ġvun doj
Ġtan koj
Ġanarki ismo
Ġpropri eto
ĠUS B
Ban ejo
ti vismo
Ġpre ÄĿo
Ġsin cer
Ġsukces oj
ligen ta
Ġduo ble
ĠMc K
Ġperfor te
Ġese oj
ĠÄĪam bro
- âĢĿ
to do
vi co
vi ki
vi van
Ġsin jor
Ġno kta
ĠloÄĿ ejoj
Ġreda kte
dre do
Ġmalbon on
Ġvan aj
eme laj
Kar man
ĠHom ero
ĠRim edoj
J ose
V P
n bsp
Ġkun igi
Ġri gli
Ġpas io
ĠMal s
Ġapli kaÄµo
Ġbele con
Ġleg eblas
Ġdras te
Ġde post
li te
ĠU AE
Ġpo lan
En konduko
Ġ18 7
ĠkontraÅŃ batali
Ġang lo
Ġdan ki
ĠRes publi
Ġhor mon
Ġtab loj
Ġmodi foj
Ġsup ran
Fil moj
iz ed
ĠUl rich
Se arch
ĠRus sia
Ġeta ÄĿo
âĹ Ħ
om jeli
Ġti mu
ĠA stron
Ġpro du
ĠC elo
th or
mar k
Ġekster lando
ĠGu ide
Ġspa coj
kons cia
Ġprogres on
Ġadjek tivo
Ġkamara doj
B ru
M I
Ġm ol
da ton
ĠH ong
Ġar ton
bu la
Es ti
Li taj
Ġsoci e
Ro berto
Ġperfek tan
Ġhar monio
Ġprogram ero
ĠSÃ¡n dor
velop ment
D Y
aj ka
pu o
Ġkomun ajn
ne o
ĠCom ments
198 4
Ġgrama tikaj
Ġorgan ismo
Priva teco
antwo or
n ano
Ġv j
al fa
Ġb ala
Ġne kla
si d
ĠMi ra
ĠTi me
Ġso lan
no toj
Ġba ra
Ġtiam aj
âĢ¦ .
Ġdisting on
ĠKos mo
ĠES F
Ġmalebli gi
ĠDur wa
u kra
ka rak
Ġres pe
Ġ18 60
Ġekzis tado
mu zeo
Pa ge
prezen tita
Ġkompon aÄµoj
Ġpriva teco
ĠHer cegovino
DO C
pel is
Ġdelegi toj
tradu koj
ĠEde gem
! Â»
5 33
Ġb os
ĠD re
for ges
pro pon
... âĢĿ
Ġ17 89
Ġuza tan
Ġsan an
Ġsan ktaj
Ä¥i vo
ãģ¦ ãģĦ
Ġdispu to
ĠElek tra
ĠmallaÅŃ te
c lu
g run
la an
ta mo
Ġek labor
Ġmon arko
19 42
Ġindi ÄĿena
Kon ser
ĠEk va
ĠY u
ĠIs lands
ĠKu riero
Ġlitera turon
Ġpsiko logia
Ġrompi taj
ĠAntar kto
Ġenka dre
ĠParaÃŃ so
1 19
Ġa ÄĿon
ko doj
ĠP hy
ĠH id
ca tegor
ĠKon vencio
Ġven kita
ãģ Ĥ
Mi aj
Ð¸ Ðµ
Ġapar tigi
Ġajn aj
it ge
Ġara boj
Ġia foje
Ġokul vi
ĠVol ume
Ġdiplomati o
Ġsuver eneco
ÄĿar deno
Dom ini
G I
R ol
X X
ton aj
ĠD ez
tra kta
tro duction
19 33
Ġmod esta
Ġret mesa
Ġrulse ÄĿaj
Ġfinan ci
Ġpozi tivaj
Ġguber nio
Ir lando
J ES
S om
i cal
Ġd oma
ĠJ Ã¡n
ĠÄĿis nun
Ġplu aj
Ġkompren os
Ġcen tron
ĠEl sta
mu zaiko
kt raj
ĠHon duro
Ġgras a
a ri
b estoj
ĠL KK
ov Ã¡
pera turo
ĠNa tur
kin toj
Ġkonkur son
áĢ ¼
Ġlis tigas
ĠAu gus
Ġtrapas i
n ek
en an
ĠS ad
Ġo ut
ch ou
Ġsur ben
ĠMar t
Ġdispon o
Ġobser vas
ĠHar ry
Ġilus trita
ĠBarcel ona
M ON
Ġs alon
li ÄĿi
ĠS tru
ku laj
Ã© ri
ĠInter n
dem ia
ĠMo zambi
ĠMul te
II I
ĠEven toj
Ġkatal un
Lern u
Ġkuira rto
c za
Â º
Ġes tre
Ġak toroj
ut ledge
tras te
Ġvila ÄĿon
ĠLing vistiko
Ġpardon pe
Ġmalakcep tis
Ġhungar oj
ĠHai tio
Kuri ero
? ]
ï ¬
Ġal gorit
ĠM useum
Ġmal hon
ĠO C
Ġman dar
Ġtre zor
ãģ ł
ĠMal varma
Ġsufi Äīan
Ġpozi tivan
Ġgajn as
form ularo
Ġorgan ismoj
Ġsilen tis
Ġpatrin on
ĠWes tern
Ġpasa ÄĿ
T AS
Ġesti gis
pro tek
paro lanto
ĠRi ver
Di versaj
Ġanti cipe
Ġabun de
ĠÄµurn alis
E vi
P ing
u laj
ti kismo
to loj
Ġn ene
Ġel centoj
ĠH igh
Ġver soj
Ġdis koj
dan ÄĿ
19 19
Ġsta cioj
In dus
Ġpartopren antojn
Ġbor doj
Ġvig lecon
Ġalum inia
ĠKomer co
ĠBea u
Ġ ë
Ġ zi
ĠN RO
11 1
'' .
Ġindi fer
ĠEÅŃro pon
Ġimp ro
Ġdif inoj
ÃŁ e
s om
ĠS porto
Ġmal gra
Ġkun vo
bo ut
ĠAl menaÅŃ
Ġmo tivo
vor tojn
S N
Ġp anta
Ġan s
ĠD et
pe coj
ĠIn fan
Ã¡ k
mar to
Ġ13 5
id es
Ġdekla rita
Ġsubskri bo
ĠVla Äījo
ĠLatin ameriko
Ġmonar kio
Ġoksig eno
c anta
g am
es is
Ġin un
ĠM ore
Ġsu daj
ĠG uj
19 68
Ġele ganta
kla don
ĠAli an
ĠTa de
Ġkonser vita
ĠTo ledo
Ġbas eno
ĠGusta v
vani zita
D PR
ĠI o
Ġver di
Ġap osto
Ġno bla
Ġcen ter
mul te
Ġdeci dos
tive co
ÄĿin tajn
Ba riatriaj
tigita n
Ġfeli Äīaj
Ġkarakteri zas
Ġmalkon sen
ĠantaÅŃvi das
c ur
Ġki alon
Ġ1 17
ran on
ĠI talujo
ona te
Ġsek vante
par t
ĠMon t
ĠDe fen
Ġdon ante
Ġkar toj
Ġson is
Ġrecen zoj
Ġstul ta
äº º
B lan
a riel
h x
Ġ _
Ġp lon
li man
ga dis
ĠRo ber
ab loj
ĠÐ ³
Ġrakon tos
Ġdok tor
Ġklu banoj
chi chte
ĠIs land
Ġkriti koj
Ġmalfeli Äīo
geo t
ĠÄĿ er
ĠF lash
Ġar milo
ĠAr n
ÄĿa don
ĠÅĿta tan
Ġkol onoj
ÄĿin tan
pita no
Ġhi bri
Ġkonek tita
Ġdikta turo
an ej
Ġin stin
ĠM oni
ĠG ej
Ġfor mul
ni kaj
Ġu p
se y
ĠMar so
ĠÄµ alu
ĠTo us
Ġlingva ro
Ġpatrin oj
Ġmembre co
c ard
å ľ
Ġd as
Ġal mo
Ġ1 16
Ġre ad
Ġre vig
Ġo ther
em bre
de a
ĠIli aj
tris to
Ġinten se
Ġgaze ton
ĠGu ber
Ġmalo be
Ġinves ti
Ġdiferenc ojn
Ġsekvan toj
ĠtaÄī mentoj
áŁ Ĵ
f lando
is majn
ĠS ul
eri es
Ñģ Ð¿
bri ÄĿi
Ġru b
Ġinten con
Ġvek i
U kra
Ä ĵ
ĠÄĿ oje
ha w
hi re
Ġenha vi
Ġflu go
Ġhispan oj
Ġinsta laÄµoj
Ġkonten tigi
Ð°ÑĪ Ð»Ð°
prote ktado
reda ktoro
yum va
I ri
Ì Ĥ
Ó ĳÐ²
Ġ1 21
ĠS us
ek si
ĠH us
ĠMi cro
Ġven kon
Ġ16 00
Ġpartopren anto
Ġas is
Ġpun ktojn
ĠÄĿoj on
Ġaso cia
Ġnok toj
Ġhepa to
Ġkuracis ton
ÓĳÐ² Ð°ÑĪÐ»Ð°
v ulo
Ġe con
ar kio
ig eblaj
ĠÅĿ os
bo t
Ġpi ano
Ġgen era
Ġgeo grafio
àª ¾
Ġkredi t
ĠER GO
Ð§ ÓĳÐ²Ð°ÑĪÐ»Ð°
ta kso
Ġa gro
ĠP in
Ġg is
ĠR an
Ġra ba
ĠDi versaj
Ġaki rita
Ġkonkur enco
Ġbio grafio
Spe ci
Ġkvi e
ĠNiko laj
U sona
g rasa
to mo
ko logio
ĠA aron
ĠP C
zi one
Ġka poj
Ġorgani zitaj
Al t
Ġprofi ton
Ġreli e
Ġanali zas
ĠmalantaÅŃ a
áŀ ļ
Ġinform ilon
àª Ĺ
Ġekkon is
Ġa Äī
Ġo doro
19 76
Ġsub ita
Ġjar milo
ĠMa ÅĿ
Ġeb lajn
Ġneces us
Nor da
Ġfizi kan
ĠÄīa p
ĠVil no
Ġesperantis taro
Ġvig le
Kul tur
ĠCO VID
ĠHab s
perni ty
C as
å Ī
Ġen vol
ĠE u
Ġg ento
ver baro
Ġres p
fri ed
Ġsimp lajn
Ġab unda
Ð°Ñ ħ
ji ang
àª °
) -
z ona
Ġper ditaj
ĠD Ã©
for toj
kaj a
ĠMa rio
Ġplen igis
maj o
ĠMal supra
Ġneces ejo
Ġmis u
ĠNor man
we g
D S
ĠA ktuale
ĠD Ä´
mi le
Ġtu taj
ĠIn dia
11 0
Ġprezen tiÄĿas
Ġsa cer
ĠRi latoj
áŀ ĺ
Ġmun tis
ĠBritan nica
p ron
u geot
â ī
ľ àª°
la tine
ti er
ĠLa oso
Ġsam seks
ĠOr der
àª ¤
àª ľàª°
ĠPriva ta
Ġnega tivaj
Liber aj
ĠGil son
timo logio
ĠPet r
Ġelpens is
à« Ģ
à« ģ
ĠKonstantino polo
S vis
Ġri pozi
20 2
Ġser Äīu
Ġkor a
Ġdezi roj
Ġuti le
ĠFre ud
Ġinflu ita
Ð³ Ð¾
No to
grafi e
Ġorto grafio
histor ia
kapa bla
f eder
Ġf is
ĠL ig
Ġli tur
Ġkva za
ĠSa uda
ted t
Ġsendepen diÄĿo
Ġqu i
p te
es pl
na tura
Ġmor toj
ĠSe ulo
Ġposte uloj
ĠBa vario
ĠKo lekto
Ġagnos ko
Ġlis tigitaj
Ġdistan con
Ġtag libro
Ġnedu um
Ġlibre ton
Ġjud ojn
ĠE ta
Ġi ra
ĠJa vier
Ġlas ante
ĠMul to
Ġoper acioj
ĠHu go
Ġeksperi mento
Ġabun das
Ġlernej aj
ĠPromen antoj
ĠSabi yumva
in kluzi
Ġg loro
Ġap laÅŃ
Ġvor taron
ori oj
Ġregis triÄĿi
Ġkondam nita
v alu
ì Ŀ
gan tan
Ġra b
ĠKon to
no t
Ġ9 1
ĠÐ Ĳ
ĠSek reta
Ġco okies
Ġ189 3
ĠTre vor
Ġmeta loj
Ġeksperi mentoj
Äľis da
Ġfle ksi
ĠKontro lita
View er
F e
P en
s tein
Â ´
Ġen radi
co la
ĠRe ligi
bi t
Ġko her
ĠLing vaj
Ġviza ÄĿoj
åŃ ¦
K ad
K liniÄĿu
a g
d E
r ino
u on
Ġm igra
zi an
ĠdediÄī i
áŀ ģ
Ġskla vo
Ġdenas kaj
ĠRos s
i vo
Ġa lo
Ġes tin
ĠKom entoj
din daj
Ġve turado
ĠKu vaj
Di man
Ġeten di
áŁ Ĥ
P len
in fla
ĠE L
ĠP it
os toj
Ġtra vide
ĠKa tedralo
ĠCh ang
ĠDi re
ÄĪe faj
Ġler te
Ġrespek ton
ĠWil son
meto do
ĠMod erna
ĠHoros kopa
N eo
W Viewer
Ġa peran
ti en
Ġen fer
ĠG and
Ġdi keco
man to
tur an
Ġro s
Ġfar tas
ĠRo ger
Kon gres
Ġis t
Ġkomple tigi
gx oj
mili toj
Ġparame tron
Even toj
T om
c ens
g ma
Ġ1 12
Ġi f
ĠlaÅŃ bezone
Ġkla raj
Ġakti vismo
Ġmen son
kar do
Ġrenkonti ÄĿas
Ġaso cion
ĠSal vadoro
u al
le z
ĠT oronto
Ġfor mu
Ġaten tigi
Ġrus e
ĠCo de
Ġsufer o
Ġkoncep tojn
Ġblo ko
Bon an
Ġstari gas
ĠGar cÃŃa
Ġbul gara
ĠJamaj ka
Ġplimul ton
ĠVati kano
Ġciga re
Ġkonflik ts
u u
le bla
Ġkom pens
ĠÅĿ ve
Ġfor iro
Ġsen n
ĠSo urce
mor tigo
Par ti
ĠAd vo
Ġagri kultura
Th omas
Ġmunici poj
ĠFeli Äīe
ĠScho ol
ĠBros ch
ĠDurwa el
H P
c ted
al istoj
Ġel pensi
ĠD anu
ĠU m
for nia
Ġw ork
Ġfran Ã§ais
Ġpun kton
Ġmalvar maj
Ġafa ble
Ġekspli cite
N E
R G
è ¡
ĠK vinpetalo
ÅĿ kin
va taj
Ġekster ordin
Ġkura ÄĿis
ĠTem pli
tek no
ĠVil nius
ĠYou tube
ĠarÄĿ ento
Vil helmo
T an
t kov
u h
Ñ ī
Ġal taro
Ġvi zio
ĠM orto
Ġpa gita
mi tri
Ġinstru oj
Ġstu dojn
ale s
ĠTa goj
Ġhispan an
proksi me
Ġtrin kis
Ġegip ta
Ġrum ana
A p
f aÅŃ
Ġp ig
ĠA dolf
ĠC eloj
kan tan
Ġplen dis
fes tivalo
Ġfil ojn
Ġpen as
Ġpren os
wa re
Ġtemp loj
ĠOri entis
Ġner vo
Bio grafio
uts che
Kubo F
z ard
ti gojn
ri anoj
le v
ĠN I
Ġfi ÅĿo
org es
anu a
ĠÃ ĸ
Ġreali gita
ĠGre co
Ġparti ci
ĠAmi ko
itge ver
f ama
k lando
Ï ħ
ĠA qu
Ġl istoj
ĠD VD
kta ta
Ġkomun uma
An koraÅŃ
Ġinteresa Äµojn
F F
Ġ Ñĥ
ĠS pra
ĠB es
fes toj
Ġating oj
ĠFor t
Ġtrejn istoj
Ġleg ebla
Gra vaj
ĠDepen de
+ +
/ ,
ĠA te
ĠA parte
men tal
Ġor aj
pro dukto
ĠPor tuguÃªs
ĠBa y
Ġon ly
Ġprote ktado
Ġaser ti
Ġkampan jon
Ġrenov igita
Ġdro its
ĠFaj ro
j una
Ġ ujo
Ġre zi
Ġin aj
tu aro
ĠÄīi elon
ga z
Ġpa gon
Ġtu ÅĿi
ĠEn er
Ġsa te
Ġsa teli
Ġapli kas
Ġban kro
Ġsimpto mojn
Ġambasad oro
ĠBalÃ¡ Å¾
la tion
Ġp h
ĠL U
Ġta kso
Ġlan go
Ġparo lan
Ġfra ton
Ġkunlabor anto
Ġnas k
m Ã¡n
s as
s eri
Ġ( Â«
ĠP ea
Ġar mitaj
Ġang uloj
Ġregistri ÄĿu
Ġekonomi e
Ġinsta lita
Ġinicia tis
Ġpremi oj
Ġsurpri ze
Ġind ul
mom ente
Ġsangopre mon
A mas
Ġs tel
li ch
ĠB Ã¡
10 8
ĠCen tre
Ġfle gis
ĠÐ½ Ð°
B rak
Ġne po
Ġj x
tan ojn
pa la
Ġfor iras
Ġmon tara
vis toj
Ġlabor ejo
ĠÅĿan ÄĿ
gen e
Ġkul po
Ġdeci da
Al terna
Su da
Ġvari anto
ĠPla y
ĠVin dozo
ĠKris tnas
ĠGilson laan
Ġm oj
ĠF TP
Ġpa ri
Ġpa gos
ber a
19 17
19 46
Ġnov elo
Ġ18 81
ad ojn
Ġpres ado
nov embro
ked In
Ġspek tantoj
Ġminis terio
Ġtoler emo
profi t
ĠGron lando
o ta
ĠS um
Ġg ek
Ġmal plej
Ġsu den
Ġka ro
Ġpo p
19 14
Ġ18 85
Ġsci igos
Ġko ko
Ġmo de
Ġmod elojn
Ġdisku tas
Ġfes tis
Ġsom ere
Ġtekno logion
ĠUl tra
ĠRoy al
V es
ĠS T
Ġpri deman
Ġredakti lo
ju lio
Ġdetru as
Ġplat formoj
Ġmalsukces o
Ġpal pe
I om
ci ent
kon trolo
Ġpar koj
Ġtu ÅĿ
Ġme lanko
ĠSo lida
Jo han
ĠFern Ã¡ndez
Origin al
A kiru
w ork
ro y
ro man
te me
ĠL Ã©
ĠS va
Ġvi kio
ma teri
Ġdis ÅĿi
ĠMi rejo
cen te
Ġbi blio
ĠSer io
ps uloj
Ġpriva te
Ġelektro magne
ĠMozambi ko
Ġvi coj
ĠEn ciklopedio
Ġplu v
Ġmala pero
kur sojn
Ġmov iÄĿi
ĠDis tri
ĠAs tro
ĠPl ur
Ġinspi ris
Cen tra
Ġalven os
O L
S alu
n omon
el is
ĠÄī elojn
Ġfa kulojn
men doj
Ġkons tantan
ãģ Ľ
kla do
Ġsuper aj
Ġkri m
sek so
fon toj
Ġsolda tojn
Ġato mb
Ġkonci lio
Ġromp as
ĠBro ad
3 66
A ma
H A
e ce
tu alan
di vido
laj a
19 43
Ġvian don
ER PEN
Ġagor di
Ġtal ento
Ġkonflikts olvoj
V Ã¨
s per
Ġtro vu
no to
ĠAl len
ĠMar teno
Ġkul pas
14 9
ĠBer g
Ġrea lan
Bil daro
gre si
Ġnas ko
Ġkonsum as
Ġargumen tojn
Ġdimen sio
Ġeva ku
B RO
g ujo
Ġla ca
le ci
Ġvi rojn
ĠI f
Ġun us
den a
Ġ17 98
ĠÄīiu kaze
Ġon klino
Ġob s
val oro
Ġanali zon
Ġfilme toj
Ġakor doj
5 15
H TML
c ine
d ron
p tis
z amenhof
is k
Ġa daptita
ti am
ĠL Ã¡szlÃ³
ĠS he
19 69
ĠKi uj
tran te
Ġaten du
Ġinstru kciojn
ĠTo ba
Ġkandida tiÄĿo
Ġeten diÄĿis
Ġstran gaj
pres io
ĠmonaÄ¥ oj
SU DOC
ĠKamer uno
le g
Ġt rum
Ġli gis
Ġka lio
Ġri Äīan
Ġeks pon
pu lar
pro cezo
22 22
Ġsci os
ĠZ i
Ġthe y
ĠRo utledge
mis sion
Ġkol ere
hel po
Pa ÅĿoj
IS NI
Ġmerka ton
instru ado
ĠKir gi
ĠTim oro
G vi
å ¸
ĠK AS
da e
Ġres taÅŃ
Ġsci ante
Ġmili tisto
Ġinf ini
tr onika
Ġkol um
ĠPer dita
Ko pirajto
glo bo
Ġspor ta
ĠJus teco
ĠAN TW
ĠÑ ĺ
diro la
Ġmanifesta cioj
ĠAristo telo
ĠANTW ERPEN
V arsov
s trio
Ġki ras
ĠS tras
ĠN er
ĠO kaze
19 75
ĠMi ajn
Ġto ks
Pro duktoj
sk Ã½
Ġmez aj
Ġkontro lu
Ġdire ktoj
Ġnaj bar
t Ã¡
ĠÄī inan
eb ek
ca don
19 73
gu laj
Ġnu ligi
Ġmona Ä¥o
ĠMaj stro
Ġintele ktuloj
Ġfut bal
M X
in anoj
Ġun io
pi c
ĠVi deo
ÄĿi ÄĿo
et he
Ġak vorez
Ġfon diÄĿo
lin t
Ġjun eco
ĠRo gier
Ġprovi zita
ĠGra va
ĠMan libro
Jo Ã£o
Ġelektroni kaj
ĠDobr zyÅĦski
G Ãłidhlig
ĠR ad
Ġsci ence
par ton
Ġflu gas
Ver da
ElÅĿu ti
Ġpripens is
Ġvarme ga
Akti va
S tan
å ¼
ĠP onto
Ġpor de
Ġ17 6
ĠPo kalo
Pa ÄĿo
Ġvali di
Ġtempera turon
Ġnordori enta
Wil liam
VÃ¨ neto
, ...
D L
m Ã¡
s ung
Ġe kos
tu al
ĠEs pÃ©ranto
Ġven dejoj
Ġci fero
ani ko
ĠMal to
Ġplan edoj
Ti poj
Ġus kladon
pita l
Tra du
ans son
Mem oru
Ġdeputi toj
× ĵ×Ļ×©
Ġd ri
ĠL ando
Ġne kom
ĠB ez
ing i
ĠaÅŃ s
bo x
ke con
19 49
Ġbon dezi
pro fita
ĠZ h
Ġsuper hero
fri ka
Ġcen tran
Ġpra va
Ġapli kado
Ġkole stero
kva lito
Ġenme tas
ÄĪiu tagaj
Ġdiman Äīe
Ġmalstre Äīi
Ġkard inalo
á Ĥ
ĠK las
Ġb oj
Ġj i
ĠB Ã©
11 4
Ġkura ÄĿo
ĠOr digi
flu as
Ġindividu ajn
Ġresta rigi
Ġtransi ri
S lova
Ġp uraj
ci go
ĠM ono
ĠkontraÅŃ is
Ġmar kitaj
Ar to
Ġuti ligas
ĠKun labor
ĠDis vol
Ġpublika Äµoj
Sa int
ĠGio vanni
A kcesoraÄµoj
B S
c tive
i mp
ĠVi kipedion
ĠSu do
Ġru ÄĿan
×Ļ ×Ļ
ï¼ ļ
Ġradio akti
Ġkomb ini
Ġkunpor tis
ĠJerusale m
hej mo
ĠarÄĿ enta
Ġkoali cio
gir l
c eron
re joj
Ġal tiri
ĠLa u
Ġfa ro
for e
ona virus
Ġ18 82
Ġlabor isto
Ġcer teco
Ġkri zon
Ġvol umoj
Ġmalo fta
Ġbio logio
ĠBona parte
Ġkonek to
Ġov ojn
Ġpligran digi
categor ized
anej ro
P lan
ĠE is
ĠP MEG
Ġne gra
ĠÄīi ajn
ĠH inda
man taj
ĠO ut
Ġle terojn
ĠMar c
ĠDa tu
ĠBri an
Ġmalmul tajn
we en
Ġplenum ita
ĠFer enc
Ġsova ÄĿaj
poten co
ĠJamaj ko
àº²àº §
ĠAT X
delij ke
T eks
a Äµ
ci antoj
ĠE fiko
da Äµon
tra ktado
ver e
Ġtro mpi
Ġkre os
Ġuz eblaj
ĠÅĿi pon
ĠkontraÅŃ bata
Ġcen so
Ġflu gis
Ġimper ia
ĠPu erto
Ġparola doj
Ġsalu tojn
Ġvita min
Fre ÅĿaj
Z O
æ ł
am bu
Ġ18 86
Ġfi asko
Ġmor fo
Ġci tita
Ġnor daj
Ġkur siva
ĠPer mes
ãĤ Ī
Ġvizi ton
Ġradi kala
Ġmalkov rita
Ġcentra lo
ĠMedi cina
igar di
Ġpreten das
a p
f lor
l eri
z ed
Ã °
Ġe kip
Ġin tui
Ġi rana
mi t
Ġek u
ven to
19 47
ĠÄīirkaÅŃ ita
Ġsa vo
ski e
pos ten
Ġdokumen ta
ĠKO VIM
Ġinsis tas
ĠPrezi dento
Ġkorid oro
n ÃŃ
Û ĩ
or t
Ġa min
Ġs aluton
Ġre voj
ĠE ras
Ġfa kulo
ĠVi aj
fa briko
ĠZ u
Ġjun ulojn
El sta
Ġvar man
dida toj
ĠHel poj
nes s
Ġkoncer ton
clo se
Ġavera ÄĿe
ĠNaski ÄĿtagoj
? !
Ġa ba
Ġ18 63
10 7
Ġve turo
Ġmis tera
Ġinterkonsen toj
Ġmagne ta
M ad
lo kaÅŃ
ĠE bur
ĠG Ã¶
ven da
Ġ10 6
qu ez
Ġva gon
Ġâ Ĺ
Ġbri lis
Ġsto kado
Ġlevi ÄĿas
Ġsalaj roj
ĠAÅŃto mata
Ġopti mum
Ġleci ono
ĠB aran
Ġel ten
ni c
19 78
Ġhom aron
gor ia
Ġoku po
ĠRa porto
Ġimp osto
Ġlar ÄĿaj
ĠÄīam pi
AÅŃ toro
TT T
hen g
Mem bre
Ġkondam nis
Ġenmig rintoj
Ġkabine to
Ġpro zo
Ġsen ka
Ġman ov
ĠAr row
Ġinfor milo
inter faco
ĠTh is
ĠLan doj
nom bro
Ġrepu tacion
ĠKuvaj to
T F
h un
n Ã©
Ġv oje
Ġel uzi
ĠN aj
Ġri par
kto s
11 6
Ġba zoj
Ð¾ Ñģ
Ġnu da
Ġriver on
Ġatribu ita
Ġkoti zon
ĠDemokra tio
ĠNation s
ä½ ĵ
D inastio
I ma
K vin
u th
å ĳ
on der
Ġb is
Ġi ran
Ġle vil
Ġmar ÅĿ
ĠÅľ tala
su po
Äľ ia
ĠSen t
ĠSen naci
Ġfinan cajn
Ġbri las
Ġpez as
ĠBur g
Ġkunme tita
Ġkoti zo
ĠOrigin ala
ĠRepubli c
Õ ¸
Ġp et
Ġl ine
Ġ| -
Ġ[[ :
Ne ces
daÅŃ r
Ġnaski ÄĿas
ĠMan dirola
ĠHel sin
teks ton
Ġned ezi
Ġvak c
O ka
ĠK anta
ran d
Ġar menoj
... "
ĠLu c
ĠÄĿoj is
pil lod
Ġgras o
ĠTek nologio
Ġkonsekven coj
Ġmalagra bla
ĠBoh emio
Ġen ir
le tero
Ġre fu
ĠN el
se ca
Ġsek reto
Ġ5 000
ĠBa ham
Ġplan ado
Ġkonsi lio
Ġvar bado
Ġhon esta
ĠTer mino
Ġkonkre te
Ġkavali ro
Ġspegu las
ĠÑı Ð·
Ġd ento
ĠL erni
Ġka du
igi tajn
19 36
ĠRo usse
Ġw a
Ġaten tu
âĢ¦ )
jn ado
Inter na
vig on
ĠÄīiuta gan
Ġlabora torio
daÅŃr ligo
9 18
K ru
S ol
g xi
p ento
to ler
ĠK ni
ĠK OM
Ġpro cento
kti ka
ĠVi zi
Ġnom umis
Ġsub spe
mis ma
Ġves pera
Ġdisvol vo
Bon ÅĿan
Ġafri kanoj
Ġmedic inaj
Ġdetermin as
Ï Į
Ġe in
ka dis
Ġmi ksa
ĠH ermann
ba o
Åľ ajnas
Ġfil inoj
Ġsa baton
Inter esaj
Ġtekno logioj
ĠEks tera
spa coj
Ġprizor gas
Ġhelpan toj
Ġpozitive co
ĠKapri korno
Ġaristo kra
c la
i me
¥ àº²àº§
Ñ Ħ
Ġal ineo
Ġti pon
ĠL igoj
tu lado
mo toro
Ġra don
Ġ18 79
ĠEl ÅĿu
Ġnu ligita
Ġins ulon
Ġfinan co
ĠCi fereca
Ġrenkonti ÄĿi
Gra matiko
Ġtransdon as
ĠWilliam s
Don aci
ĠFul mo
ĠRober ts
I ru
R U
p ris
ĠL ineo
ĠS ved
Ġkon venas
ĠH era
Ġc aro
ÄĿi mo
Ġkre doj
ĠFran caj
wi tz
Ġpra vigi
ĠVer antwoor
ĠMe zo
Ġaran ÄĿon
kol oro
Ġkolekti taj
ĠEÅŃ geno
ĠÄīapi troj
T uj
b elon
Ġb iero
ĠP siko
di verseco
ĠC ou
Ġ18 76
Ġmar kon
var oj
Ġeb enaÄµo
Ġ' *
ĠSek va
ĠBi bli
ĠLin k
Ġlis tigi
369 60
G la
à ł
ks ado
ĠÅĿ n
mon to
Ġsin joroj
Ġko doj
qu er
An gla
Ġskrib os
Ġkonsis ton
Ġklopo di
Ġmalvar mo
ĠBul teno
Ġsurfa con
Ġmatema tika
Ġhum oro
a z
on ado
Ġen tj
Ġt in
kon kurso
va dor
tor ado
fo lioj
ser voj
Ġiom a
Ġbra kapo
ĠBir ds
ĠOb ama
Ġkalkul is
Ã¼l ler
I u
ÄĿ ele
ed zino
ĠS UL
Ġkiam aniere
bi oj
lis t
Ġden tojn
su fi
lern ado
Ġmalproksi maj
ĠÄµurn aloj
deven aj
F A
o ku
Å ½
la ce
Ġe ch
Ġvi tra
Ġkun igitaj
ĠN y
dis on
Ġesti gas
Ġparo lajn
Ġkuti mis
ĠBo c
Ġprofun daj
Ġroman on
Ġtekni kojn
ĠaÅŃtorita ton
Ġadop tas
C zy
r Ã³
Ġ( [[
Ġi aj
Ġne bulo
ĠI ni
ke y
kis tino
Ġlabor ojn
ĠInter tempe
Ã¤ l
Ġmalal t
Ġeska pi
Ġvertika la
Ġreser ves
N ek
en ia
Ġne ÅŃro
Ġkun venon
pa tra
Ġdi veni
Ġek zilo
Ġpos edi
Ġ18 78
Ġnun e
10 5
Ġlingvo u
Ġfar uno
Ġvin tre
Si cili
Ġdun gita
Ġpripens as
h era
Ġen miksi
le lo
ĠK anto
ĠÅĿ uoj
Ġka Å¼
mon tri
ĠNi ÄĿero
Ġju ÄĿi
Ġkompren u
Ġdeta lo
Ġge filoj
AN T
Ġth ere
ĠAra gono
Ġkopi on
ĠBra tislavo
Ġkalen daron
ĠFil m
ĠRapi da
Ġhin du
Ġenkonduk as
Ġla tine
Ġe kti
Ġ2 20
Ġli fe
pa go
ĠJ una
Ġka pelo
19 67
Ġsek cion
Ð¾ ÑĤ
Ġter oj
Ġkam para
Ġru inoj
Ġkal cio
ĠAfri ca
Neder lando
Ġkvadra ta
la Äµojn
dis tri
bor g
Ġren de
Ġata kojn
Ali flanke
Ġesper i
Na vig
Ekz emploj
Ġgus ton
ĠfaÅĿ ismo
è© ŀ
å °
or gano
Ġt ord
Ġti r
Ġvi ve
Ġinter lingvistiko
ĠMi c
Ġkons tela
od y
kom pon
ĠÅľ tatoj
ĠInter reta
Ġnu boj
ÃŃ o
and ra
Ġimp reso
Ġdivi dis
Ġtekni kan
ĠaliÄĿi lo
Ġnere gis
ĠEre vano
Sicili anu
L ar
v ul
Äī aro
ĠâĢ ķ
Ġnom braj
ÅŃro paj
Ġkontribu u
kos te
ĠBu tano
Ġth an
Ġnaj baro
Ġallo gas
antaÅŃ a
Ġkonkre taj
ĠDok umen
Ġekfunkci is
ĠGuj ano
V olon
in ismo
ĠM A
ĠP ing
ha vaj
ĠlaÅŃ vorte
Ġhel ena
Ġrea ki
Ġner va
ĠÄīas ado
hispan e
R em
Ġs par
al ing
ĠA ting
ĠP riskribo
Ġpro v
ĠT as
Ġel fos
ĠD uo
tor es
Ġali ÄĿintoj
Ġdu cent
Ġplej e
eni e
Ġfon tan
Vi deo
bon e
pen di
Ġliber ala
pas ter
Ġrapi d
ĠLu doj
Ġuti lis
Ġbal da
Ġdor mas
Ġbo a
Ġricevi taj
ĠKonsi lantaro
Ġron da
Ġho w
Ġliver is
Ġtan ko
usz paster
O kaze
f ujo
f ederacio
Î ³
ĠLa tina
Ġdis par
ĠDe taloj
Ġneces on
Ġgvi dan
Ġdev ige
Ġskrib ajn
ĠÃ ¤
ÄĿen oj
ĠBrazi l
Tra ck
Sek ve
Ġgrama tikon
Ġnekon ataj
Ġinves toj
ĠArgen tina
ĠAnstataÅŃ e
ĠRobin son
ĠMÃ¼n ster
Ġwie cej
Czy taj
S v
i ron
p isto
t Ã³
Ġre ga
ĠK K
ter ni
Ġmal vas
me ze
Ġdu bojn
pl ing
ĠSe a
Ġekstre m
Ġimpos toj
Ġkuiri laro
F est
O kcidenta
Ġde parte
tis taj
Ġtra legis
Ġma pon
con d
Ġ18 73
Ġ10 2
Mal kov
à¤ ¸
Ġtur koj
ĠRi late
Ġpara dizo
Ġoficiala jn
ordina re
Ġa vino
ci aloj
Ġre dukto
co l
fo bio
ĠKa ÅĿi
gru pon
ĠHispan ujo
Ġrenkonti ÄĿon
Ġtrin kas
Ġvesper man
Ġsor Äī
Ġmodi fo
Ġmaksimum an
li gia
Ġmal or
Ġl undo
ĠF I
Ġinter kultura
Ġha lo
Ġtra legi
ĠIn formo
Ġ18 61
Ġvor tetoj
ĠÄīef urbon
Ġokaz igo
Ġdivers a
Ġpas inte
Ġsan ita
Ġpreci zan
Ġab ru
gh y
ĠMul t
Kan ado
Ġfro sti
ĠAN EB
Tem as
Ġreferenc as
ĠGeorg es
ĠStran ge
Ġstabile con
ĠOC LC
ĠToba go
tan t
Ġtu ton
Ġ18 49
Ġ18 59
Ġ18 65
Ġtie a
Ġokaz anta
Ð» Ð¸
Ġmalsam ojn
ĠViki vortaro
Ġklopo dojn
Ġmalka ÅĿas
ĠDok toro
==== ====
Ġpreven ti
Ġepisko poj
Men uo
ĠRA DE
a prilo
c um
Ġde pri
ti laj
Ġf um
per forto
don aj
va dis
Ġver te
Ġfari ÄĿu
Ġkan tono
Ġkan alon
Ġsan gan
Ġkole go
Ġprovi zo
Ġbre m
Ġapu daj
ĠmalÅĿ al
ĠBy elongo
Ġpin ton
Ġful mo
Ġfut balo
Ð°Ð» ÑĮ
Ġenkor p
Y orÃ¹bÃ¡
or amo
li ter
Ġv undo
Ġmal ne
ĠN AS
ce to
ĠG ua
ĠH aj
Ġ[ ?]
Ġfi broj
Ġro ma
ĠNi elsen
Ġide alo
Ġofi c
Ġfaci laj
ĠeÅŃro pan
Ġ26 50
bile jo
Ġag ento
ĠantaÅŃvi di
Publi kigita
G S
S panish
Ġen ÅĿ
ar kivo
di mir
19 21
ĠMa k
Ġsam sek
Ġsan ktuloj
Ġeldon as
Ġfaci leco
ale co
Ġkonc ed
Ġdisvol vigo
ĠÄīees ton
ĠreÄĿi mon
ĠKris tnasko
ĠÄĿar denoj
Ġetn oj
g haveno
Ġf los
Äī ina
Ġre teni
ĠE mil
Ġh aj
Ġb uso
ĠA A
Ġ18 84
Ġele menta
ĠNa turo
Ġspi ra
Ġcivi laj
Ġaspek ti
ĠTh or
Ali ke
Ġkro ata
nor ma
ĠÏ Ģ
kompu tilo
Ġ ).
Ġk ante
li ojn
ro ugh
Ġf ajn
om bro
ig inta
za i
Ġver s
Ġta tu
Ġ18 67
ĠMa ure
be ligas
pen se
mas o
Pro dukto
Ġflu on
Ġsoci etoj
pla to
Ġvek iÄĿis
Ġdefi oj
Ġgrandio za
ĠVegeta rismo
Ġgratu las
ĠCher pillod
Ñ į
ĠÄī en
Ġre produktado
de j
ĠF it
Ġta m
21 3
Ġvir tuale
Ġdire ktita
Ġkonservi taj
Ġmiks ita
in tajn
Ġpa vi
for t
mon ia
Ġku ri
ens is
lis ton
Ġeb ri
Ġmalpli mul
27 00
Ġstri kta
ĠserÄī ante
Ġneo logis
Ġpros per
cra mer
Adminis tra
Ġdimen sioj
Ġargen tina
ta ran
te ch
Ġb ras
Ġfi ksa
cen tojn
Ġpopo laj
Ġspeci fajn
Ã¨ ne
ĠNeder landa
Ġstrate gion
ĠaÅŃton oma
Ġkonvers acioj
ĠSri lanko
ĠâĹ ı
ĠB A
Ġel ÅĿi
19 53
Ġkons cion
ali ty
ani ma
ĠBa zi
Ġdan ci
Ð½ Ñĭ
Ġmalfaci lan
ĠÃ Ħ
ĠÄīees tantoj
Ġcxi am
ĠLin den
Ġalvo kon
Ġkonek ti
ĠFlori do
ĠCommuni ty
lap Ã¼k
L IN
z Ã¡
re si
ĠL ins
ĠS L
Ġkon fron
ĠF eni
ĠC os
ĠIn dekso
Ġsek vos
Ġ18 40
Ġsci vo
ĠAr m
ĠUnivers alaj
tag em
ĠPerson e
Ġslo gano
s pek
t v
u rigi
Ø ¯
le a
ĠE instein
ĠL um
ĠK lu
Ġpre m
Ġsen mor
Ġtra d
Ġpar ta
ke do
19 28
tin di
ĠBa terio
Ġvar bi
Ġkomple kso
cas so
Ġunue ca
Ġagri kultur
ĠThomas Pusch
ĠPaci fika
k ball
ĠK na
de tru
po zio
gi ona
pa troj
kan aj
lis ma
Ġnor mojn
Ġkur as
ĠÄĿus teco
Ġmis tero
ĠhaÅŃ ta
Ġvesper manÄĿo
Ġretiri ÄĿis
Ġmam uloj
Ġretad reso
ĠRein hard
ĠLibra ry
Ping back
in fek
Ġkun tekstoj
ki l
gi e
ĠF am
ĠF esto
il en
ni z
19 72
den ce
Ġ18 69
ĠLe ipzig
Ġbo beno
Ġzor gu
Ġinvi to
Ja panio
Pi erre
ĠÄĿisda tigoj
Ġbr una
Share Alike
Ġkompro mi
ĠK Ã¶
Ġsen fine
res pek
se ptembro
ĠRe prezen
Ġro taria
Ġvin tra
Ġkri pta
ĠAli vorte
Ġalt nivela
Ġsimbo la
Ġinterpre tado
Ġeltro vi
Ġtrag edio
K I
ar ajn
al menaÅŃ
Ġb rilo
ĠaÅŃ diÄĿis
ver koj
ĠAn to
ĠSe vilo
ĠBa zelo
Ġkole ster
Ġdia beto
Ġrevizi anto
Ġprele gis
str umentoj
ĠAra ba
Ġenme tis
Ġeksp lua
ĠEuro pa
ĠAndre w
cos cramer
Ġk esto
ĠM ova
de ka
kon dukis
ĠG aran
ĠÄīirkaÅŃ as
kam poj
Ġru li
Ġkura ÄĿas
ĠKor ano
Ġkomputi laj
Ur boj
Ġkro ma
Ġalterna tivaj
merka to
Ġeksta ris
ĠWolf gang
Jos Ã©
O ffice
r Ã¡
v d
ĠL F
ig antoj
da la
Ġpli iÄĿis
10 4
ts u
Ġ9 3
ula do
Ġkam ion
ĠSin jorino
ĠHu ang
Ġflug ha
Ġinspi rita
Ġsubpre mado
ĠCho pin
A v
W i
s istemoj
Ġre le
Ġh inda
ek i
ys ÅĤaw
ĠÄĪar to
Ġkana da
Ġkomfor te
Ġromi aj
ĠUzbek io
çĶ ¨
ledon io
is ha
ÄĿ io
es traro
Ġre kru
Ġan tis
Ġmem bron
pan e
ze jo
Ġfi kcio
Ġsin cera
Ġurbo domo
ir s
ĠSte in
ĠUkra inujo
Ġsimbo lajn
Ġlandli moj
Ġnekuti ma
Ġpafmor tigis
Î Ķ
Ġs kato
em as
ĠO ver
Ã³ s
Ġkorek tis
Da vide
Ġdistribu o
? ,
h aÅŃ
p ur
â Ĥ
li gos
Ġmal seka
ĠC ir
âĢĿ -
zen ia
Ġvol umeno
ĠAÅŃ gus
Ġbi ciklo
Ġvid vino
Ġadminis tri
Ġpriskri boj
Ġdona cu
Ġvas taj
Ġlong tempe
Ġkolor ojn
stu doj
ĠZam bio
Ġemble mo
R iko
b ujo
m d
m ometro
in ess
ci ÄĿis
am eri
ĠA ran
ul inon
ĠC ama
Ġun uj
Ġak us
ĠKa vali
ĠMo ore
Å¡ ka
Ġfir st
Ġinvi ti
Ġstari ÄĿis
ham mad
Ġfavor aj
Ġplas ta
Ġdelegi to
Ġfek un
ĠBenjam in
S ar
h in
Ġen ta
Ġti mon
ĠS es
ĠA pos
ĠH O
Ġsur strate
pre zo
Ġneni e
Ġpe cojn
mar coscramer
ĠloÄĿ loko
Ġbu tiko
Ġmenci u
Ġrimar kos
Ġstre Äīon
ĠRen Ã©
áŀ Ł
ĠOka zis
Ġsensen ca
M us
M eta
h os
m ore
Ġla tini
Ġti paj
ĠE fikoj
ĠL T
ĠEs paÃ±
ĠG NU
ba re
19 66
enc is
Ġpu poj
ĠAl ter
ĠNi lo
Ġhistor y
Ġsol vita
Ġves tita
Ġprefer ata
Mo delo
Ġmekani ka
Ġkunpor ti
CU LT
z anoj
Ġal tern
ĠA feroj
ĠP ul
Ġpre sa
Ġpre dika
tri go
Ġtiu rilate
Ġ18 72
ĠMar ino
Ġrila tis
ĠPo zi
ĠÐ ĺ
à¤ Ĥ
Ġkres kos
Ġmerka ta
rigar don
Ġkarakteri zaÄµoj
Ġlini ojn
Ġhazar da
Ġkonklu dis
Ġkonfes i
Ġkonfes as
Ġofen si
Ġkonserva tiva
Ġinva dis
Histor ia
ĠPoz nano
Vita minoj
Track back
E blas
t Ã¨
v k
¸ ı
Ġp df
Ġre vis
ek rano
ĠB ad
Ġsen inter
ĠO ks
ĠO pera
19 22
Ġkons ilon
ĠantaÅŃ ulo
ĠAn tologio
Ġmor tigo
ãģ ¤
Ġna z
kur bo
Pa tri
Ġkos tis
Ġprovin ca
ĠSur inamo
Ġatribu as
Ġinfek toj
ĠComi c
ĠVoja ÄĿu
E tiked
Ġe tajn
al t
ĠP eople
tu a
tu gal
Ġ20 30
tor do
ĠEn e
ĠRe gularo
Re cenzoj
ĠMin eraloj
ĠVo Äīoj
ĠLas tan
ĠDek laro
ĠKaÅŃ ka
Ġgol fo
Ġgor ÄĿo
B log
ä ¼
Ġv os
ĠA bi
ĠR O
Ġsu ker
pon to
Ġlan Äīo
ĠKa toli
Ġokaz us
sti la
Ġtradi ciajn
Ġher boj
ĠKe e
Ä´ anejro
Ġmalkres ko
Ġfilme tojn
a ga
f rekven
po dkas
ern er
ze f
Ġtran Äīa
Ġregis trado
An g
Ġden seco
bur y
ĠCo hen
zar t
Ġsurfa ca
Ġbas tono
German ujo
Ġsalaj ron
Ġside jon
Ġkatalo go
Ġbeb oj
e tis
j en
Ù ĥ
un sch
Ġre mi
ĠS kan
Ġkon te
Ġan tologio
ĠRe ferenc
Ġkomuni kilo
Ġeli ro
Ġkru daj
rila taj
Ro bert
Ġsalu tis
Ġfiks aj
Komun umoj
Ġsindika toj
Ġekvili bri
ĠXa vier
2 30
E ÅŃ
i di
Ġne el
âĢĿ ?
19 38
Ġfi eras
ÄĿa Äµo
ling von
Ġkan cer
Ġfil ma
Ġmov eblaj
Ġapli kata
Ġefi kan
ĠJoh ansson
Ġdia lo
Ġkonsen ton
Per son
Ġsangopre mo
b f
te ur
tan ton
ĠG an
Ġpl or
Ġ18 68
Ġmar aj
Ġaldon itaj
16 7
Ġener gia
Ġfini ÄĿos
Ġjapan an
ĠKons umi
stron g
áŀ Ĺ
ĠKana da
Ġhandika puloj
ĠIntern acio
r ero
Ġa us
Ġs ino
ĠA G
Ġne as
ru z
eb lis
Ġda ton
ĠÄĪ ado
Ġtran o
ling o
18 0
hi en
Ġdek du
ĠTra de
Ġhispan e
val or
ĠHer zberg
Ġtransfor miÄĿis
ĠNobel premi
artiko lo
F la
i ÄĿ
n l
Ġn ul
ĠM esa
ĠI U
fi c
ba t
19 61
Ġ18 75
Ġ18 74
Ġser vu
Ġtrans skri
wi ce
ĠBa ha
Ġuni kaj
stitu cia
ĠTur ismo
Ġgrande con
Ġminis troj
ĠNami bio
B ara
F al
Ġ zon
el j
ĠU zu
Ġpl umo
ĠAn der
Ġro loj
Ġsa kra
Ġkar bona
bio grafio
Ġscienc an
poli tikaj
Ġstatis tika
ĠUson aj
Ġvikipedi isto
ÂłÂłÂłÂłÂłÂłÂłÂł ÂłÂł
e uro
Ġal veni
Ġre zon
Ġfi zio
Ġaper u
13 0
ĠSu bite
Ġmov iÄĿis
Ġâ ľ
Ġsper tuloj
Ġbil ds
Ġpriskri bitaj
ĠUr ba
aso cio
landan o
Ġremem oris
kura cisto
Ġov er
kli ft
ĠDok umentoj
ĠÑ į
Ġhorizon tala
Ġmaga zino
Ġbibliote kojn
ĠIma gu
é ĸ
Ġd inas
mi c
Ġ3 04
19 62
Ġ18 03
bi leo
Ġba re
Ġme titaj
Ġru ÄĿ
Ġfer mo
tle jo
Ã± o
Ġordon ojn
Ġdistan ca
Ja c
Ġortodo ksa
ĠEtiked igita
O li
O fte
c over
e lan
de le
Ġfa belo
En tute
ĠLi tera
Ġman e
Ġkontra u
Ġ10 3
Ġmen doj
Ġevi tis
Ġkomenci ta
Ġdisku tado
ĠEkz emplo
ĠdaÅŃri pov
Ġripo zo
ĠKel kfoje
fig uro
gaze to
A kvo
B ordo
H om
T ea
k ebla
ta lon
ĠS ten
ĠS han
ĠC IA
tri an
Ġdis kre
Ġling v
se f
ĠKom panio
th ing
Ġad mon
ĠBo ur
blo ko
Ġklu b
Ġedu ki
Ġrekomen dis
Ġspecia li
ĠEle kta
Ġaku ra
Ġorien tiÄĿo
Ġantioksi dantoj
Ġmaldekst ren
ĠinaÅŃgu ro
Ġade ptoj
maÅĿ inoj
ĠFukuÅĿi ma
A f
U M
k ena
da vide
ĠI mp
19 12
Ġsub tera
ĠW ang
ĠLi m
ami de
Ġnor man
Ġenha voj
Ġprote k
Ġtransi ras
Ġskla veco
Ġpritra ktas
Ġpasi va
ĠFal k
ĠCul ture
Ġeksi dis
ĠTaÄĿi kio
* ,
t res
as tori
Äī enko
Ġan eks
ĠD ante
man e
ba u
Ġnom brojn
Ġle do
ĠkontraÅŃ aj
Ġmo dulo
An stataÅŃ
ĠDi ana
ĠDo wn
Ġkar na
Ġforma don
Mon do
Eks ter
ĠAnstataÅŃ aj
Ġkavali roj
Ġlign aj
davide astori
t ulino
ar isch
le ana
il ono
gra ma
enc y
Ġsci ojn
th em
Ġ10 79
Pro pon
Äīi u
Al teco
Ġsufi Äīis
ĠDa tum
pun ktoj
ĠFo x
Ġzor goj
Bil dliteraturo
lum aj
Ġromp ita
Ġepizo doj
ĠIndus trio
ĠJar libro
ĠlaÅŃle ÄĿe
Ġpatr ujo
ĠMÃ¼n chen
ĠSendu be
Ġorn ami
I l
S ala
è ¦
Ġen ten
ko wski
ĠâĢ ³
ĠH ern
ĠlaÅŃ vice
Ġsek uran
Ġ18 64
ĠPro vin
Ġmov oj
bir do
B ez
Ġ }}
ÄĿ ejoj
ĠL ITE
Ġmon tetoj
ĠNe ÅŃ
alis maj
Ven onta
Ġresponde culoj
ĠBur un
Ġkonci z
Ġekha vi
ĠAleksand r
ĠdisÄīi ploj
ĠTeritor ioj
2 10
e ti
m onata
Ġa pela
ĠA xel
tis tino
ca t
ĠMa ia
Ġkre adon
Ġmili tan
Ġkul ture
Ġmo toron
Ġami k
ĠNo tu
Ġrekomen do
ĠArmen a
Sub skribo
less andro
ĠEri treo
ĠErn st
5 02
v ro
Ġvi raj
ĠZ ara
Ġaldon iÄĿas
ĠX in
Ġco okie
Ġsign aloj
Ġripe tas
ĠWe i
ĠnaskiÄĿ tago
tros hopee
Ġpentra rto
ĠVini cius
ĠGand hi
Ġa fli
ĠE in
za don
ĠW all
Ġbon on
Ġvo los
mar kin
Ġkomenc anto
hel pas
flu gis
Ġrifu zo
fre ÅĿ
ĠAnd alu
Ġbre ms
Ġenkondu kon
Ġkomfor ton
Is la
U nio
e cajn
ta tion
Ġs ka
as i
Ġes tado
ci u
al ys
ĠA C
ing hien
lan g
ĠV anua
Ġman ÄĿoj
Ġ12 8
Ġcen traj
Ġcen time
Ka ledonio
Ġreda kt
Ġafi ÅĿi
Ġforlas ita
Ġmina cis
Ġbra kojn
Ġinterkonsen tis
ĠTele gramo
Ġfas ado
Ġprofesi ulo
ãģ£ ãģŁ
H E
M is
d h
Ġk ami
Ġal er
Ġfor igos
ĠAn dy
ĠanstataÅŃ as
Ġinflu oj
Ġlim igoj
vig aj
temp ajn
ĠRen esanco
Ele ktu
Ġklasi fiko
mova don
Ġmultn om
ĠNan cy
ĠJÃ¡n os
. âĢľ
A c
al do
ĠE ni
ĠE vange
ter y
da tita
lan co
ĠO k
me tita
ĠdaÅŃ ran
Ġspeci men
Ġprefer us
ÑĮ ÑģÐº
Ġdetru itaj
bil doj
Ġakuza tivo
ĠGener al
ĠCali fornia
Ġnobe laro
Alex ander
c ing
ĠA pud
ĠF LI
Ġpli iÄĿas
tra duko
ĠO c
ĠO mano
roj o
Ġligi ÄĿas
Ġflu e
Ġbata lado
Ġprofi toj
ĠSte ven
Ġpara li
Ġscienc ajn
Ġmalfor taj
Ġproponi taj
Ġhote loj
Ġferi oj
kongres oj
ĠHaÅŃ taj
Ġa st
le ksi
ia do
ĠC ro
ren ce
Ġfor kuris
ata ko
Ġsig nalo
rio zaÄµoj
Ġrespon dos
ĠUni verso
sek ven
ĠUnivers alan
Ġkonsider u
Ġhon ore
Ġkorek ta
Ġokupa ta
GH T
ĠRousse au
ĠMaure lli
er Äīi
ÄĿ ento
Ġv aro
le i
vi ron
di roj
ks ismo
ĠF ig
me jo
Ġse g
gu in
Ð¸ Ð¸
ĠCh ia
Ti e
Ġstre Äīa
Ġdipl om
blan ka
ĠPrin co
Pi emon
komer ca
orizon to
Ġinteligen taj
ĠmalÅĿ ar
ĠIndus tria
Ġagen toj
Ġkorup to
Ġgrun don
Red dit
b ena
w ing
el y
ĠE co
Ġra cie
ĠÅĿan coj
der esperanto
Ġorgani zan
ĠMo toro
Ġkris tnas
Ġsekre te
ĠKara ba
cle deresperanto
Ġrestor acioj
Ġminimum an
Naj baraj
a par
ï ¸ı
ti ge
te stroj
per fek
zi e
ÄĿi oj
ĠW ars
kor espon
ĠHel ena
Ġfla goj
Ġdom ina
Ġtru di
Ġprele gon
Ġreligi an
je v
ĠCas tro
ĠFar u
Ġli ke
Ġpre parita
ÄĿis oro
Ġra ci
ĠÄīiuj ara
no wiki
Ġpas igas
id mann
Ġmalpli iÄĿis
Pa ÅĿo
Ġdif inon
Ġfu ÄĿi
ĠTe am
liber a
Ġfrem dan
Ġpripens u
Ġkolon elo
mals ano
ĠMAL ANDA
ĠBeli zo
Ġkolester olon
ĠR G
Ġbon vo
Ġman koj
ÄĿa Äµoj
Ġregis tro
Ġeldon itan
ÅĤ os
Pre si
Ġinfan eco
Ġtrov ebla
ĠTiam aniere
Ġkopi raj
meto doj
Kur so
Ġbom ba
Lim burg
ĠSteph en
ĠKolon jo
ĠBaham oj
) "
M ini
Ġk amen
Ġn ame
ra ts
Ġi di
Ġg ala
pre mo
Ġkla ras
ĠLiber io
Ġgla cia
ĠKus eno
Membre coj
? .
M edia
W a
i ÄĿoj
Ġd ome
le zia
Ġne ebla
ĠÄĿ ena
ĠB estoj
ĠC A
ĠC is
ĠC ross
ĠO d
Ġsur paper
Ġab om
ĠaÅŃto vojo
ĠTra fiko
ĠPi et
Ġscen oj
ĠÅĿul das
Ġpercep to
ÅĻ ÃŃ
ĠÐ½ Ðµ
Ġeksplu atado
ĠBit coin
ĠTrini dado
Ġla t
ĠL inda
ge lo
19 03
mp la
ĠlaÅŃ ta
Ġuz an
Ġele kte
kom an
ĠÄĪi ka
Ġorgani z
Ð¾ Ñħ
Ð½ ÑĭÐ¹
ĠÄīefe piskopo
Ġaki ro
ĠvoÄī ojn
Ġhe gem
tek niko
Ġduo blan
Ġkunme titaj
Bri tio
p rojektoj
ÅĿ asa
Ġmal ver
ĠG ras
Ġek kompren
Ġek dispon
Ġkons cie
Ġfi kcia
Li cenco
14 0
Ġplan lingvo
Ġaga di
Ġvolon tula
Pre ÄĿejo
ĠFon seca
Ġapo gas
Per sonaj
Ġobser vado
Ġproksime co
Ġenme tu
Ekz emplo
ĠOce anio
eu we
ĠMil ler
Ġalire blaj
Ġpartik loj
neni am
g ona
x x
å ¿
ti t
ÄĿ anto
Ġal so
po lis
zi anoj
ĠC C
Ġali ris
kis tojn
10 3
nu traÄµojn
ĠdaÅŃ rig
ĠEÅŃro paj
Ġprogra mado
Ġpen son
Ġkomenc aj
Ġkvar ono
inter facon
ĠGo ethe
ĠBir mo
ĠBr uno
Ġblu aj
Ġensalu tinta
c ana
f fen
l r
o ke
z sef
È Ļ
li gante
ri es
Ġal logi
Ġre ti
Ġo dor
ĠD oro
Ġ17 0
lus o
ĠViki datu
Ġordon on
Ġakompan ata
ĠTutmon daj
Gra va
ener gio
Ġneevi teble
B y
D M
E ro
g ur
as peca
tis mon
Ġmi elo
ĠB l
ĠaÅŃ spi
ĠG li
Ġ" \
ve ta
Ġur ÄĿe
Ġrice vo
Ġter uro
Ġlim igo
ĠGo tt
ĠÄ´ ur
ĠÄ´ urn
Ġparola taj
ĠEven tualaj
Ġmirak lo
Skri bu
P RO
Ġh et
Ġpre parado
Ġtra iris
Ġpar tion
19 37
Ġse tlejo
bi as
ĠPa puo
Ġlern ejojn
iga don
Ġreda ktoj
inter pre
AT I
Ġordon oj
Ġkunme taÄµo
ÑģÑĤ Ð²
Ġarbi tra
k ujo
Ġ _{
Ġla i
Ġ( âĢĺ
Ġi kon
ĠâĢ ĭ
kon si
ĠC Ã©
Ġka z
Ġri dis
Ġu itgever
for man
19 57
bu tio
Ġlan Äīas
Ġgen eri
Ġdev igata
ĠSer vice
Kun labor
Ri ce
Jun e
Ġpon toj
Ġfol k
Ġsenlabor eco
ĠFlan kaj
es teco
me ga
Ġling ve
ble s
Ġro sti
12 5
Ġfabri kaj
ĠBon aj
Ġima gis
Tu te
Ġdiligen te
\ '
Ġp eni
Ġf ia
Ġal kro
ĠH ote
ten u
Ġmem bras
Ġplen das
ĠKa p
ĠMon taro
Ġorgani zanto
Ġno tojn
Ġkres kigi
ĠGra vas
Ġrea gas
Ġbru on
ĠEr fur
Ġpartn ere
ĠKla ku
ĠDar k
ĠFred eri
ĠEngel s
K in
R SS
b lua
Ċ ĠĠĠ
re v
ra m
om or
ki un
Ġek dor
pren ita
Ġpost res
Ġsia tempa
Ġlabor ado
ts ek
ĠLe ib
Ġw i
ĠÅĿta tojn
ĠkaÅŃ zitaj
Ġprofes ioj
ĠKo pirajto
Ġkompa kt
Ġblan k
ĠMor ris
ĠBlan ke
Ġmalkon stru
Ġbul teno
Ġemin enta
Sco o
Ġsudori enta
Ġekdispon igis
A va
Ł á±
Ġin versa
Ġpro tagon
di lon
di fino
Ġmi toj
pa tio
ce a
ĠEs pereble
fer aj
ku rado
Ġc un
Ġsur vi
En tajpu
ĠAl don
ĠUnu iÄĿo
Ġgen roj
Ġdisvas tigita
Ġfes tiv
ĠBon n
Ġnorma lan
Ġstran gan
ĠCam p
Ġsor Äīis
Ru th
á± Łá±
ĠRezer vitaj
tÃ¨ is
Limburg s
d roj
Ġ ãĢĮ
Ġne ma
uj i
ĠT rus
ch s
Ġma tenon
Ġr ul
Ġter enoj
Kon tribuoj
su p
Äľ uste
ure co
Ġstre Äīo
ãĥ »
Ġapro bon
Ġzo o
renkon tiÄĿoj
Ġkonson antoj
Ø³ ÙĨÚĮÙĬ
ĠYe ar
ĠEmpi re
Z Z
k ros
o bjek
Ġa kademio
Äī ante
ĠP sy
Ġi kso
man s
lej on
Ġpu po
Ġko ordina
ĠLe vilkarto
Ġregis taraj
Ġperson aro
Ġrulse ÄĿa
AT A
AL O
Ġrezis ti
Piemon tÃ¨is
J er
R uman
p ed
å Ĭ
ç ¾
ta vo
Ġe very
Ġs ome
li gan
Ġvi dindaÄµoj
Ġj ida
ĠC xu
za tion
Ġle ono
sa ko
Ġto mb
Ġbe ko
Ġmov ebla
ĠBo ulton
Ġmedi teran
ĠÅĿar go
Ġsal tis
Ġdistan coj
ĠKal ining
Ġmaga zeno
Ġaltnive laj
Ġinterrom pi
Ġinfras truk
ilvan io
Ġnene ces
j om
ta t
le teron
Ġan ato
kon omo
Ġma gnezio
ĠRe ply
Ġfon daÄµo
mar on
ER O
Pre zento
Ġkondu kos
ĠLas i
ĠÅĿul tro
Am eri
Rulse ÄĿa
ĠsenÄī esa
Ġrefle ktas
Ġglas on
Ġkunfon dinto
ï¬ ģ
b ante
Õ «
Ġp uran
Ġs loven
ko to
Ġte l
tri on
Ġfor tik
isto ire
19 25
enc as
Ġ17 00
Ġaten co
ĠÐ Ŀ
ĠloÄĿ ejon
Kom ita
Ġkres k
ĠmalantaÅŃ en
ev na
ĠÄµe tas
Ġrikol to
ĠJerem ie
e i
en de
li er
li goj
Ġre publi
ter min
ĠN acion
ĠEsperan te
si de
19 48
11 8
In sta
Ġrespon du
Ġfunkci uloj
ĠÃ ħ
Ġampleks e
ĠOs mo
H u
b lu
Ġen zi
va don
Ġ18 58
Ġesti ÄĿo
par ko
Ġenkon dukita
Ġekonomi kisto
Ġkonsci is
ĠLabor o
Ġced is
Ġminorita toj
ĠRal ph
ĠReferenc kadro
2 20
M C
f eli
al b
ĠV ul
ge ti
19 65
ĠLi ve
Ġgra fika
Ġsin de
ne c
Ġcer tajn
Ġkol ora
ĠLu ther
Ġhej tado
Ġpru voj
ĠUkra ina
ĠPoli cy
ĠÄµe ti
Ġmetro o
ĠpreÄĿ ejon
Ġmallar ÄĿaj
ĠYo ung
C ha
z ur
er os
lo se
ĠT ren
Ġmi ras
ĠD R
ce an
Ð¸ ÑĢ
Ġrekomen dojn
ĠMala vio
nor nen
ĠaÅŃton om
ĠNico las
delegi to
omjeli to
Äľisda tigita
d aroj
er is
Ġa Äµo
ar k
lan tika
ĠG ros
Ġfor tigas
Ġor elo
pro kras
ĠAl manako
Ġren esan
Ġsufer oj
Ġekzamen on
Ġsemajn fino
kle a
Ġkonci ze
ĠSuda friko
Ġmalebli gas
ĠEspl oro
Francis ko
ĠVerantwoor delijke
U nes
om ente
ĠM I
Ġan ÄĿ
Ġper doj
Ġkom pil
Ġsig lojn
Vi kipedion
ĠMon dial
ĠDe partemento
Ġindi koj
Ġelek tojn
Ġsem o
Ġret listo
ĠGra y
Ġideo logia
ĠAntaÅŃ a
Ġkatoli kismo
Ġsekreta ri
Ġteo logio
Ġsil enta
Ġflor ojn
Abon u
Ġkomi kso
Ġkatalo gas
ĠGam bio
Ġfrun to
Ġn ud
ĠL ove
ĠK P
Ġj uran
ks ajn
ga rio
kla vo
Äīi lo
ĠPe zo
ĠGran t
LaÅŃ taksa
Ġinvi ton
ĠVen ko
Ġkonfli ktojn
Ġakroni mojn
O fi
R Ã©
h ungara
j os
le mo
ĠF os
ĠC at
ĠU s
ĠU z
Ġmon ta
ba ti
ĠW andel
ĠTi mo
Ġtre zoro
ĠPro pon
Ġnor den
Ġaten tis
Ġsignif aj
ĠSte ve
Ġarb ojn
Sen paga
Ġtranspor tado
simi la
ĠHam burgo
K ro
f l
Å Ł
æ Ń
te blan
Ġg reno
ek vi
Ġsen kulp
ba tis
ĠNe u
bon eco
Ġeb eno
ĠÅĿta testro
An na
Pro toko
ÅĿu ro
ĠÄĿus taj
ĠMo le
Ġ' \'
ĠSci enc
Ġfu turo
sci enc
Fo toj
Ġpritra kti
Ġkonsekven ce
Komun um
ĠFir st
ĠKovÃ¡ ts
c am
ĠA ckr
ĠÅĿ nuro
bor n
ha us
ĠKon fu
ts er
ling en
Ġdeman du
din as
Ġevolu i
Ġprofes oroj
Ġprovi zor
ĠÅĿajn i
Ġebli gos
Ġprele gojn
Ġkvali toj
Ed mund
tagme ze
Dem okra
Ġanek do
Ġcivil uloj
Ġenta beligas
A ckr
b v
Ġ igante
Ġel pa
ĠN aci
ĠF ami
za ki
Ġma kuloj
Ġsek vantaj
Ġ18 12
ĠKon cerne
Ð° Ð¼
tre veno
ĠÄĪe Ä¥a
Sek so
ĠPla t
Ha ber
Ġsto ki
ĠBir d
Ġcxiuj n
Ġmakler istoj
Lou is
Ġpartikula re
Navig acio
Ġkonciz igojn
B B
E ni
R una
s us
u kas
z zo
Ð Ľ
li toj
Ġre tradukoj
ĠS M
um ba
Ġra bato
Ġ18 83
Ġven en
Ġuz anta
fo to
ĠRo ÄĿer
Ġmalpli multo
Ġcivi taneco
ĠGo i
Ġfes ton
EL O
ĠEle c
ĠBan ana
Ġgeed zoj
dosi eroj
Ġinformi ÄĿi
ci gita
Ġkun ulo
ma toj
ĠEsperan t
gra ph
Ġkomun um
Ġpoli glo
ĠÅľ elo
ĠÅĿta laj
16 9
ĠBa ghy
ĠDi ru
ĠDi rek
Ġkos ton
ĠTiuj n
Ġintervju oj
ĠMez oriento
Regis tri
Ġadjek tivoj
Ġinsis tis
_ (
é ĩ
Ġf eni
Ġ( âĢŀ
Ġpro pozicio
Ġpri du
ki zo
ĠÅĿ elo
Ġek regis
ĠAn arch
ĠAtribu te
ĠQ ing
Ser io
omb ia
Ġeten do
Ġpremi ojn
Ġaci doj
ĠinÄĿeni eroj
Ġmanuskri pto
Ġaktu ali
Ġfervor e
K anoj
li co
Ġes tris
al y
ĠK ebek
ĠA pen
di ÄĿon
va Äµon
Ġri das
19 10
19 27
gu ro
Ġce terajn
ĠMal pli
ang laj
Ġkol era
Ġnu ligo
Ar gen
Ġaga dis
ĠBan anoj
Ġmig rantoj
Ġrenov igo
Ġdisko teko
Ġsocial demokra
Ġkad ron
ĠarÄ¥ ite
ĠDatum bazo
F oje
Ġkun venas
ĠD ami
ĠF le
Ġsek undo
Ġle ÄĿaro
Ġ18 66
Ġ18 57
ĠMa tt
Ġno w
Ġkontro lado
rigi taj
ĠAs troshopee
Ġstatu ton
Ġfig uron
Ġkonsil isto
Ġneevi tebla
ĠPV C
t ja
Ġm oni
Ġen landaj
ci za
io l
ĠL isa
Ġsu peran
ĠU zante
ven daj
ke ta
Ġtu boj
Ġrus iaj
Ġrea gi
ĠFo lia
Ġvari kaj
ĠBur kino
Ġmalpermes itaj
ĠKe y
Ġora toro
celi ero
Ġmalkres kis
kum u
Jor ko
G ar
f acila
i us
oj Redakti
an ti
ĠE tikedo
Ġpri ra
ĠD res
Ġpa tra
Ġpar on
bli gi
ĠMar cel
Ġpoli ca
Ġter uran
Ġkoncern an
Ġdra ma
Ġsekre taj
ĠÅĿata taj
ND L
ĠÐ¾ Ð±
lokaÅŃ sto
en erale
Ġo kto
Ġver as
19 59
Ġfi di
be toj
12 3
Ġter mo
Ġkonstru adon
Ġplan tojn
Ġkap dol
xi co
ĠRi ce
Ġkonsider inde
ĠÄĪe Ä¥
ĠRulseÄĿoj Persona
ĠRulseÄĿoj Manaj
ĠRulseÄĿoj Ruliloj
ĠRulseÄĿoj Kusenaj
ĠEd mond
Ġuniversita taj
ters AkcesoraÄµoj
proble mo
tito loj
ĠSekureco Potencaj
ĠSekureco Litaj
ĠPartoj RulseÄĿaj
Ġbote lo
Äīiuj Banejo
ĠReloj Kanoj
ĠPromenantoj Scoo
ĠHelpoj Karma
ĠCama cho
ĠFLI GHT
ĠRelojKanoj ÄĪiutagaj
ĠPromenantojScoo tersAkcesoraÄµoj
4 15
O ra
R igardu
S I
do lo
ĠN GO
ĠH ig
Ġ18 77
ĠTi om
be ka
hi m
ĠCen tr
Ġprovi zis
Ġaparten anta
Ġaran ÄĿita
Ġorigin an
Ġkonvin kos
Ġrimarkin de
lov skij
Ġalfabe ton
ĠRay mond
rze j
podkas to
G IF
u c
Ġre paci
ke joj
19 58
Ġvo us
ĠDe talo
Ġju dismo
ĠdaÅŃ rigo
tran d
ĠloÄĿ antaj
Ġsa ÄĿe
Ġpreci z
Ġsitu aciojn
Ġproksi man
Ã¶ l
ĠPi casso
Ġkna bon
For umo
Ġsep dek
ĠWa ter
ĠWar inghien
ĠPM ID
ĠVirg ulino
ĠCoun cil
Ġk now
an tino
Ġa me
ra y
Ġen glu
Ġli teron
ĠT rajnoj
Ġmal kura
kon u
tro pi
ĠO per
taÅŃ ga
tur ismo
Ġparo lon
Ġkla varo
Ġpoten ci
ĠGo od
igni fa
Spe coj
Ġinterkonsen tita
Ġfamili aj
PoÅĿ tele
Ġlud ojn
Ġmastr umado
Ġsele ktado
. Â»
M ona
w ord
Ġd igno
Ġs el
am ar
ĠL eksi
man da
Ġver uko
st y
ĠVi la
19 05
Ġven dado
ĠkontraÅŃ ulo
Ġsan ga
kov Ã¡
Ġkontro l
Ġenskri bi
Ġ/> <
Ġalidirekti lo
ĠClar k
g ens
Ġ eri
Ġk raj
ĠP aÅŃ
us h
gi oj
ĠÅĿ v
ma t
Ġpa k
Ġte zo
mi e
Ġ18 14
Ġak raj
ine to
ĠkaÅŃ Äīu
Ġserio zaj
ĠRu dolf
Ġinsti go
kapab loj
ĠalÅĿu ti
Ġargumen tis
Kol ombio
Ġmalfa vor
ĠEkva tora
profit cela
p f
w el
Äī ino
am erika
ĠM Ã¡
ĠI rana
du la
Ġpre tigis
Ġbon kor
pro gram
ĠÅľ ajne
An droid
Ġret butiko
Ġaga das
Ġkial ojn
ĠUN O
cx a
Ġcifer ojn
Ġscen aro
prin co
Ġvaria Äµoj
ĠKad ar
Ġmort pa
Ġalkoho lo
Ġstru ktu
Ġkonfor mas
ĠCris is
H am
L es
tu lita
co unt
de t
po lon
Ġfor bru
ber na
Ki rilo
Ġcen tri
Ġnu ligis
ovi ce
Ġprizor go
ĠSpi der
Ġorien ten
Ġsemina rion
Ġprokla mita
ĠPubli ka
Ren kon
T el
Â ª
am bro
ĠE poko
ĠI de
ĠG adget
ni tz
Ġpost ulon
Ġ17 95
Ġorgani zon
Ø§ ÙĨ
ĠKan t
Ġtrakta don
Ġzodia ko
Ġsie ÄĿo
ĠKus enoj
T ia
z us
z ora
19 11
Ġku d
Ġser ba
ĠkontraÅŃ uloj
ĠLe vi
Ä¥ e
ck y
Ġnor m
tran si
-- -
Ġhej moj
Ġkomuni kas
Ġmalsam an
ĠMo zart
ĠOri ent
ĠSvis io
Ġmenso go
Kre is
ĠFra mbo
ĠEvolu igo
Ġhipote zo
ĠKonta ktu
Ġkolestero lo
< !--
te can
ĠF en
Ġven kas
Ġkre du
ĠAr tis
pl ino
Ġangla lingvaj
ĠFre e
Ġdisvol vado
à¥ ģ
Ġdor son
Fi lip
Ġmilit kap
Ġsuk ced
Ġankora ux
Ġformula ron
Konstan ta
ĠMcK ee
Ġs ar
ri Äī
ĠP is
pe c
Ġc lass
ve turado
ĠAÅŃ ton
Ġpoten cojn
Ġtraduk istoj
Ġtutmon diÄĿo
Ġdisvas tiÄĿas
Ġstatis tikoj
ĠGer ald
Lin kedIn
Mod erna
cumen t
D ue
Ġa v
Ġt y
ur man
ĠA do
ĠT ab
Ġkun igis
ĠC anada
ĠH iro
pe ton
Ġtiu cele
19 71
kor ek
ĠEk zer
Ġapli kita
áĥ Ľ
ĠNa zia
Ġprovi zantoj
Ġbru ligis
Ġkru ele
br Ã¼
Ġanon coj
Mon tri
Ġmalpe zigi
ĠPrin ceton
Ġnordo kcidenta
łáĥ ĺ
ĠPublish ers
ĠAlum inia
ĠRadi emuloj
dofi lio
Ġeklo ÄĿis
ĠJaco b
g las
o leo
re prezen
Ġre vela
Ġfor igoj
Ġpo emon
Ġar ka
Ġver dan
Ġeks onis
Ġ18 31
fa rejo
Ġven igis
Ġsci us
tp neÅŃ
Ġaper on
ho f
à¤ ķ
Ġmuzi kan
Ġeldon itaj
ele kto
Ġdemokra ta
cx o
Ġeko logio
Brazi la
p ter
} {
an galo
Ġa ri
re gu
am pi
ĠE ra
ĠP il
ĠF ero
Ġka zojn
11 3
Ġso cialaj
ine a
eri oj
ĠLe tero
Ġkul mino
Pro vi
Ġtur oj
ĠFi re
kol oni
Ġpriva tan
Ġkaf maÅĿino
Ġgar disto
ĠWe il
ĠAb d
ĠTom aso
Ġkronvirus a
ĠBag dado
D ol
j ur
s ame
ĠA pliko
Ġpli faci
ĠEsperanto La
Ġ18 54
Äīe to
kis ma
Ġenha vanta
Ġkonstru a
Ġmalfer miÄĿas
Ġvari antoj
Ġekonomi ko
Ġbrazi lanoj
Ġato moj
Ġprovle gis
Ġpedago go
ĠMona Ä¥ejo
Kontro lu
ç§ ģ
å ±
Ġd os
om sky
Ġre ku
ĠI K
pa to
Ġdi as
ĠH U
Ġta r
Ġfon tindi
Ġmor tiga
13 5
Ġbu tik
pla co
Ġinsta lis
ĠHar per
Ġkonstitu cia
Ġfleks ebla
à§ Ģ
Åľa tu
Kad re
F u
å į
Ġa gantoj
ĠA bu
Ġi ron
ĠN UN
Ġke lo
ĠI ran
Ġdis don
ĠW hat
fa ce
Ġmar oj
Ä¥ on
tera pio
ele ktita
Ġmez uras
Ġprin cino
Ġsenpa gaj
à¦ ®
Ġvidi ÄĿas
Ġedu ko
Ġdipl omon
Ġmina coj
esperan ta
Ġtenden cas
bili ty
Ġkonvers acion
lÃ¡ vio
ANTO OR
TEK ANTOOR
GIF TEKANTOOR
i kso
× ķ
on s
Ġa ziaj
Ġpre pozicio
Ġfor miÄĿas
dan tan
ber ry
Ġma gio
Ġw ar
Ka p
Ġprezi dantoj
pos i
Ġofer to
Ġmova da
Ġmina ca
Ġtaks on
Ġliver o
ĠBra h
Ġemo cia
Ġoport une
ĠkontraÅŃsta ri
Ġset lejoj
Den ove
ĠGab riel
Ġperman e
ĠFerdin and
Ġheg emonio
B U
in sti
Ġi Äīa
ĠB RAS
ĠI za
ĠD in
ĠÅĿ vi
ĠantaÅŃ parolo
Reda kta
ĠKon cilio
eri co
ara do
Ġ7 50
Ġtrans a
bla Äµo
Ġkol eron
Ġkura ÄĿe
Ġves taÄµojn
Ġpozi ci
Ver daj
Ġran gon
ĠreÄĿi moj
Tur kish
ĠKontro la
Ġfori ros
ĠMiÄ¥a il
7 50
in stitu
Ġ18 20
Ġ18 62
ali ghoj
Ġ10 9
Ġpe trolo
ĠLu tero
Kom panio
Ġfilo logo
daÅŃ ra
len daj
ĠSer voj
Ġmemor igis
kons cie
ĠPas porta
ĠFab riko
Ġsimpa ti
åĽ ½
overn ment
A V
m ilon
ta u
Ġe joj
Ġs var
li us
re zis
Ġki m
ov sky
Ġ- ,
eb en
Ġar da
19 32
Ġgra vito
Ġtrans preni
13 9
dem aj
Ġakcep tos
Ġkonsider inda
Ġkvan tojn
Ġhi pho
Ñĩ Ð¸Ð¹
ĠSoci alisma
Ġkomb inas
Ġekipa Äµon
Ġgri po
ĠVor toj
Ġdistri kta
Ġkvi eta
Ġblin da
Î¿ ÏĤ
ĠBrun ejo
Ġmedita do
A zio
ti do
um ante
Ġli bero
de x
zi ÄĿis
ĠV aj
ĠVi roj
19 31
tin de
ĠPa ri
Ġofi co
ĠJu SKA
Ġval vo
Ġsimi leco
Ġplibon e
cer te
vel ing
Ġreligi ajn
Ġadap tiÄĿi
tiv uloj
Ġnatur ajn
ĠRevolu tion
Raj toj
918 300
; ",
Ġti ris
Ġli cen
19 63
sta cioj
lin oj
ãģ Ī
ĠÐ ĵ
Ġpla tpneÅŃ
Ġgvi da
ĠVer uko
ĠDa to
Ġbri laj
ĠES TAS
Ġsudo kcidenta
Ġdest ino
Ġsinsek ve
Komer ca
Ġâľ ī
. ):
n eder
is mojn
ĠM U
Ġtra fa
ĠW u
Ġ18 09
Ġakti van
Ġkri pto
bri lo
Ġinflu aj
ĠambaÅŃ flanke
ĠKo do
à¦ ¯
br uloj
EL I
Ġdisvolvi ÄĿas
Ġhun don
ĠdanÄĿ eron
ĠneÅŃtra leco
Ġex peri
Ġalti ris
ĠÄµa z
Ġdekli vo
libre ton
ĠpseÅŃ doni
Nas konomo
ĠBlank igaj
Ġekip ita
n elonge
to ld
ÅŃ o
ĠB lin
ĠI T
lu dado
Ġdi kaj
Ġba ga
Ġkan tona
Ġplan i
Kon si
ĠRus s
Ġdekla ri
Ġdekla ron
ĠBen edi
Ġtekston Malnovaj
Ġintern ajn
Ġkompli kaj
Ġdin ami
Ġsoj lo
ÅĿtej n
Ġtransgen raj
Ġesplora don
ĠJud ujo
T ar
la doj
ta va
Ġh unga
ki en
ĠV Ã¡
ĠH ea
11 7
Re te
Ġorgani zitan
Ġkompren ata
Ġskri be
Ġsitu is
dus trio
Ġgas oj
uma tene
Ġrenkonti ÄĿojn
Ġsove taj
Sci enco
áĥĲáĥ ļáĥ
£áĥ łáĥĺ
Ê» i
ĠOra tora
ĠIsa bel
roc lavo
Ġsimil is
ĠTade usz
Etiked ita
G lo
T or
l uloj
Ġ cha
Ġre du
Ġle ft
Ġ18 44
Ġam erika
Ġren versi
à¦ ¼
Ġmalmul ta
Ġprele gi
Ġdefini tion
Ġalproksi miÄĿis
Ġsko loj
Ġregn on
ĠGab ono
Ġgaj e
T on
Ġ ..
Ġa va
Ġen pa
Ġpa to
Ġpos si
19 00
Ġ18 52
ĠMa til
bri ÄĿo
Ġmalf aro
Ġkal um
Ġson ojn
pil kon
Ġvun dita
konstru ado
Ġmun tado
ĠGrun da
áĥĲáĥļáĥ £áĥłáĥĺ
v elon
Ġvi dinda
Ġda ux
Ġmem oroj
Ġso i
Ġsta dio
Ġesperan tajn
ĠKa to
Re ganta
ĠPre ÄĿejo
Ġtuj e
ĠBi bliote
Ġprizor gis
ĠBio grafiaj
Ġsko ta
Ġinterkompren iÄĿo
ÐĿ Ð¾Ñħ
ĠAF GIFTEKANTOOR
ĠpasaÄĿ eroj
ÑĩÐ¸Ð¹ Ð½
ÐĿÐ¾Ñħ ÑĩÐ¸Ð¹Ð½
E du
g ino
Ð Ĵ
Ĵ áĥĲáĥļáĥ£áĥłáĥĺ
Ġp ed
li gu
ri vero
Ġre preni
ĠR Pi
Äµ eto
kon duk
Ġka ÅĿe
Ġek zo
Ġsek un
Ġak cento
pro ces
Ġfon dintoj
Ġele f
th umb
Ġad or
rom os
Ġfunkci igi
ea u
Ã§ Ã£o
ĠÄĪe fa
Ġlibere coj
Ġpol ojn
Ġkompon istoj
ĠPla tono
ĠTre zoro
Ġpromes o
Ġtranslo k
áĥĲáĥłáĥ ĴáĥĲáĥļáĥ£áĥłáĥĺ
Ġaven turoj
Ġnordori ento
Ġsubstre kas
ĠÃ¿ i
ĠAstro logio
áĥĽ áĥĲáĥłáĥĴáĥĲáĥļáĥ£áĥłáĥĺ
b esto
ra da
Ġb aroj
ĠP r
ĠN ight
ĠH ua
âĢĿ ;
ĠÄĿis nuna
Ġrila ti
Ġru bo
ĠkaÅŃ zos
ĠGran deco
ĠÅĿanÄĿi ÄĿo
No tu
Ġsove tiaj
ĠCin dy
Ġá ¼
chou kball
à¦¼ à¦¾
á ¿
Ġe las
ter minoj
mi erz
ĠÄľ ui
Ġkri tik
An ÄĿele
mal ino
Ġbi zanca
Ġpla toj
xi e
Ġprote inoj
ĠOr todo
IN O
Ġdemokra tion
ĠÄīes os
ĠBe ck
Ġkonvin kita
Ġkonfu zo
Te xt
Ġpaper on
uda d
Ġgim nas
ĠDun can
Ġwo uld
Unes ko
J ul
ĠS ir
pa ros
Ġek estas
van tes
19 34
19 56
Ġkole gio
Ġreda kcia
Ġvoja ÄĿantoj
47 3
Ġmalal tigi
Ġtaj pi
Ġagri kulturaj
Ġbabi lado
Ġkomision oj
kompu tiko
Bir doj
ĠKn ight
Fundamen ta
Ġhegem oni
k emio
o fte
ci lia
ĠK rono
ĠA vi
ĠB v
ĠI an
pi ed
Ġ18 51
ĠÅĿi ja
ĠBa k
Ġsufi kson
gn oj
Ġkuti man
Ġru ÄĿe
ĠRulse ÄĿon
Ġradi kal
lar to
Ġtekni kajn
ĠUr boj
ation s
Ġsom eraj
Ġreven on
ĠAÅŃs tria
nom ata
Ġkonsul tita
Ġjur ajn
ĠMarga ret
z isto
ka tegorioj
Ġre unu
ĠL v
ĠM et
ven inte
ĠO ld
pl ene
ĠÄľi butio
Ġvin on
aran ismo
Ġfabri kantoj
Ð¾Ð² Ð°
K las
m embro
s ha
an ino
ka laj
Ġvi data
Ġfor igon
ven ant
Ġtu ber
Ġkre dantoj
ĠBa den
urnal isto
ĠWi ese
Ġrecen zojn
instru isto
Ġnutra Äµojn
ĠAleksand rio
Ġmetal ro
ÅĿtej no
Kuti me
ĠÄ´urn alista
B ran
a ktuala
j anuaro
Ġk vo
li ps
Äī io
ĠMa rek
bi on
ere um
Ġprojek tado
Al banian
Ġgvi dita
ly n
ĠSch en
Ġpostu lata
Ġmalal te
dire ktita
Ġkatastro foj
kh ol
Ġmalhe laj
Ġzorg ojn
Ġmiz era
Ġd ur
Ġal paro
ĠE ast
ĠK I
ĠS as
Ġkon ferencoj
vi k
Ġu t
Ġpo ÅĿo
fer ojn
Ġar gi
Ġpar ence
ha o
Ġtrans formo
Ġpen oj
Ã¼ h
tolo go
ĠSci ences
Ġgaze tara
Ġentrepren is
ĠÅĿar ÄĿon
ãĥ ¼
Ġinspi ro
Ġplifor tigas
ĠInternaci aj
Ġhorizon to
Ġofice joj
Ġabstra kta
ĠÑıÐ· ÑĭÐº
V ere
] ).
ri to
Ġf umo
ci ÄĿas
Ġvi vu
ĠP Ã¡
Ġpor tebla
ĠI ra
tra to
Ġtra iras
Ġkons tantaj
Ġ18 56
ĠPo poloj
Ġkole ktoj
ĠTiu tempe
it ÄĹ
ES P
ÄĿen e
Ġanali zoj
pov on
Ġskriba Äµoj
Ġstar tis
Ge fratoj
Ġdikta toro
Ġinfla mon
Ġekvival ento
ĠMezo pota
Å ļ
in fana
Ġf legi
Äī ero
ĠS EN
Ġmi eno
Ġkom ando
ãģ ĳ
Ä¥ to
18 5
Ġ7 500
ĠBa za
Ġmalsam as
Ġare ojn
ĠDem an
ĠHin dujo
Ġmeta laj
Ġmanifes tacio
Ġerar is
Gran d
Ġfeb ro
ĠOlimpi koj
ĠBoc vano
b lin
Ġde vigi
Ġ1 200
ĠL et
ĠS A
ĠN eb
bo ard
Ġmon ds
van oj
Ġ18 10
Ġak cioj
be ton
Ġfun goj
tribu o
edi oj
Ġprezen ton
su re
Ġfer vora
Ġdif ina
Ġer up
Ġdisvol vis
Ġofer tis
Ġeston to
Ġdekla ra
foj an
Ri late
ãĥ ³
hom aj
Ġmelo dio
ĠTy t
ĠRod ri
ĠInfor milo
z eble
ci ty
el lo
Ġre pres
Ġpro von
Ġmi ro
zi lando
19 23
pu ÅĿi
th ers
ne ces
Ġmala mas
fu ÄĿintoj
Ġmunici pa
Ġsimbol on
ĠÄĿeneralaj n
ĠÄµa zo
Õ ¿
Ġkon ferencon
Ġne ver
vi c
ĠG un
Ġek re
Åľ tata
Pro fitoj
ĠanstataÅŃ i
Ġmur ojn
ĠKata logo
SS R
Ġgo tika
Ġates to
Ġpresti ÄĿa
Ġsk emo
ĠÄīius emajne
ĠSalom onoj
Ġfenomen on
T ion
f s
f Ã©
Ġa ganto
ĠP y
Ġne bu
Ġar mita
Ġ18 33
ĠZ or
Ã¡ ro
Ġpubli kajn
fon taro
ES PER
Ġkomenci ÄĿos
ĠSte pan
44 44
Ġtrov eblaj
ĠMez e
Ġelspe zi
ĠUNES CO
Ġmasa kro
K ab
or es
Ġf amo
Äī eloj
ĠA riel
tu t
Ġpro to
ni j
bo la
si ve
for mi
19 29
Åľ tato
Ġ18 46
Ġkor oj
Ġmalpli igas
Ġkam pa
Ġkura c
ĠGu ar
Ðł ÑĥÑģ
Ġsil ves
Ġekzer cado
Ġkonsekven cojn
Ġrefor mojn
Ġekva cio
ĠTian hui
ĠPoÅĿtele fono
Gru po
ĠEras mus
Ġtord mom
i daj
j orie
m oro
v l
Ġe lito
ĠG ir
si tu
Ġ6 39
Ġno beloj
Ġprote ino
ÅĤ u
ĠLo ka
Ġgre goria
ĠLan tern
Ġvenon t
TA K
Ġredukti ta
Ġpardon u
Ġplas to
ĠMis io
Ġkona tajn
Ġgeome trio
ĠVanua tuo
C y
j aj
s ens
en geti
li ono
ri ka
Ġkun iÄĿas
ĠR ab
Ġpa ce
Ġpre ÄĿoj
ĠIn troduction
Ġlabor ante
Ġba p
Ġno tas
tigi lo
bri a
su be
Ġkura ÄĿa
ĠHa vi
Ġinten coj
Ġmalb oni
Ġkriti ki
Ġfundamen ton
Ġmarbor doj
Ġperfor ta
ĠOrig ino
Ġtelefon on
ĠHit lero
Ġfoli ojn
ĠKomita tanoj
ĠIF EF
ĠSez onoj
A tom
B EK
v ori
ĠP rojekto
Ġpor dojn
Ġel pe
Ġsur vey
Ġsub en
Ġ18 53
ĠanstataÅŃ igo
Ġkompa to
Ã¨ res
lip so
ä¸ Ģ
ĠVo lo
Ġapro bi
Am baÅŃ
Ġsekvan tan
Ġportre to
tole meo
% ),
G va
H id
I am
O ne
e ÅŃ
f leks
on ia
ĠC ab
Ġor kestro
Ġse e
Ġro koj
Ġpermes ante
Kom ple
pozi cion
Ġvirin aj
Ġspiri taj
Ġaku zo
ĠFil mo
Ġdispu toj
Ġsubven cio
ĠMeto do
ĠOks for
a o
f ebruaro
p ras
la men
is che
in fan
re taj
ur t
Ġre tor
ĠS araj
ĠM Ã¼ller
ek sa
ĠH im
man ci
Ġdu boj
ĠlaÅŃ t
Ġorgani zojn
Ġmen se
ĠFi ÅĿoj
Ġanon cita
Ġarme aj
Ġtag manÄĿo
ĠSp r
Ġkoncentri ÄĿas
Ġfilozofi on
renkon ti
ĠCho ice
Ġamike con
graphi c
7 60
Ġde m
Ġn ad
ĠE ki
Ġin ti
tu mb
ĠH ou
mi de
pi tero
Ġma tura
Ġ18 04
ĠFa koj
Ġmallon gajn
ĠPu ÅĿkin
tek nologio
Ġlaboris tojn
ĠÅĿo foro
Ġfias kis
Ġekspan sio
ĠChristoph er
ĠAlter nu
ukas z
f ol
m pado
ĠLa ura
ĠD ana
Ġfor umoj
Ġse ÄĿojn
cen tri
gar aj
Mal nova
Ġmalpli iÄĿas
Ġsim pozio
ĠGu tenberg
gre ke
Ġfervoj oj
Ca therine
ĠRam zes
å¹ ´
ĠT emo
Ġse ptem
Ġ18 37
Ġgra don
par ti
ĠRo land
ĠSek elj
Ġpru denta
ĠaÅŃskul tanto
Ġanali zado
Ġdemokra tiaj
Ġmalsan uloj
Ġdig esta
Ġhospita loj
Ġdevi zo
Ġofice jon
ĠTyt gat
B ela
C B
é ģ
ta belo
Ġ2 30
tu mon
ĠT era
po lu
me tu
Ġres umas
11 2
ĠMar kolo
Ġkomen tari
ĠKa tegorioj
Ġhal ti
Ġkonsta to
So cia
ĠAndre as
Ġfan tas
ĠHi er
Ġagor do
ĠriÄī uloj
Ġmalsanu lejo
A kcep
li ck
ĠP U
Ġi lon
ru lo
ki to
ĠG R
ĠlaÅŃ li
ĠTi beto
th mÃ¡
tur ajn
tribu tion
ĠPro duk
Ġter uraj
Ġfra tinoj
cion es
bre dado
Ġspeci ojn
gh ts
kre i
ĠGre ka
Ġkonsci i
Ġinterpre ti
Ġregion ojn
Ġhistori ajn
ĠFra kcioj
Ġdissen do
Publi ka
ĠÑĤ Ñĭ
Ġmole kuloj
ĠPhilip pe
Ġfli r
Bata lo
A te
¢ å®
Ġ Ñĩ
Ġes encon
Ġre di
ĠS ong
co lor
ĠC el
Ġfor e
Ġfa rado
ĠAr ka
Ġ24 0
Ġdispon igi
vanta ÄĿo
Äľ em
Sam tempe
Ġimper ioj
Ġnaci lingvaj
Ġmond mapo
lern antoj
LE D
Ġaku zi
Ġesperantis tino
ĠIN TER
Lin ukso
ĠLeksi kono
b uloj
d ero
s uloj
Ġen ciklop
ĠA ge
Ġkon oj
co ck
lan den
Ġpli iÄĿo
ĠO re
st wo
pro pono
Ġven doj
cia lo
Ġ17 50
Ġdivers maniere
Ġw or
Ġmulte gaj
Le on
Ġmez uroj
Ġpoten can
Su kces
AL A
Ġcom ple
ĠaÅŃtor aj
ision oj
Ġoma ÄĿe
Ġster eo
ĠKolum bo
H ans
Ġes tanta
Ġre d
Ġin to
Ġi bn
Ġkon on
ĠC D
Ġmem ora
ĠW er
gu ez
Ġlabor os
Ġlern antojn
Ġaten dante
Ġkol ono
Ġkuti mojn
ĠRi kardo
Ġori ent
Ġbri lan
Ġreali gas
Ġvun diÄĿis
ĠStatu to
ĠAcadem y
ĠMicro soft
g eblaj
n ski
Ġpa le
fo kus
Ġmuzi kvi
ĠArki tekturo
ĠtaÅŃ gajn
ĠHo w
ĠGe isha
Ġmur m
Ġspek tis
Ġstan d
Ġparale la
Ġperseku tado
Ġtera pio
Ġmekani ko
Ġske p
vorta reto
ĠNem ere
ĠBRAS IL
. <
B ern
S tri
n ig
p las
ĠS et
ĠS unda
Ġne eble
Ġan ÄĿelo
Ġmi t
Ġper dos
20 8
Ġnov uloj
Ġsub fos
Ġlo gxas
Ġ17 92
Ġcer tigis
klu boj
Ġlon gas
Ġve zi
ĠSch ne
Ġstre bo
Ġkandida ti
ĠÄīa pe
Ġstatu oj
ĠVal le
ĠinterÅĿan ÄĿoj
ev skij
Ġkompar as
Ġkruc milito
Ġsudori ento
ĠOrigin alaj
Ġmarks ismo
ĠJÃ³ zsef
ÖĤ Õ
W est
ta men
Ġes encan
ĠS mart
Ġsek uraj
Ġpost mor
Ġkontra kton
ĠAr Ä¥ivo
ĠSu p
Ġjen on
Ġpropra Äµoj
ĠPi ed
Ġdiman Äīon
Ġcivitan ojn
ĠKomita tano
Ġsankte jo
ĠÅĿos eo
ĠaÄī et
ĠKirgi zio
A ktu
F OR
g ha
Ġs teri
ci doj
ĠL ord
Ġmal ler
ki ÄĿos
Ġsed i
Ġfi era
Ġsam opini
Ġkor por
vin ski
ok te
Ġpas o
Ġna vigado
Ġsignif us
Ġprofes ion
ĠanstataÅŃ igita
Ġplibon igon
Da tum
Ġpul voro
Ġmalaper os
wor th
Ġpioni roj
ĠinaÅŃ g
ĠBran den
Ġmirin dan
libre toj
ĠPea ce
ĠStras burgo
U zu
W o
l und
Ġre cep
Ġne mov
zi ano
ĠI stan
Ġfa denoj
st raj
Ġ18 55
ĠRe gion
Ð¸ Ð¼
Ġcer tigu
Ð¾ Ð³
ĠUni verse
Ġamas aj
Ġradi kon
ĠKar to
ĠBer veling
Ġaga in
Ġaktive con
fli x
Ġrevi zio
ĠKing dom
Ġsla vaj
D P
g ras
r t
t na
æ ķ
le c
do wn
ĠK uro
ĠA las
um pilo
de zajno
si aj
Ġman telo
Es plor
Ġplen ajn
Ġdan c
gres s
ĠThe o
Ġrezul tigis
ĠViki mediaj
Ġfre ÅĿ
Ġem er
Ġmalmulte kostaj
ĠChar ters
Ġbur ÄĿaro
Ku ÅĿ
Ġperfor ton
eman n
ãģĵ ãģ¨
Ġbotan i
Ġmaloport una
I mp
b ov
e coj
o th
Ġ æĹ¥æľ¬èªŀ
Ġf lo
ĠI vano
ĠVi ktoro
Ġfi kci
Äīe lo
ĠMal bor
Ġplan kon
gh as
Ġteritor ia
ĠbaldaÅŃ a
Ġch u
Ġsp uroj
Ġkonfes is
Ġklarig os
Ġjunula ran
ĠEvolu o
Ġagen tejo
Ġproced uro
Ġkl eri
Ġlegen doj
Ġdesegni taj
ĠBaran dov
C an
i ti
la rojn
Ġe en
ci ton
po to
ĠJ ano
Ġfon duso
ĠÄĿis fun
Ġba rata
Ġindi anoj
Ġsan ktan
Ġmas klo
ĠSch mi
ĠÅĿanÄĿi ÄĿi
38 7
Ġviv teni
ĠEle ktraj
Ġisla man
Ġknab inon
ĠCol um
Ġpil ko
Ġlatin an
ĠTurk menio
Ġcirkvi to
Gaze taraj
ĠSva zilando
thmÃ¡ ri
I mper
o ktobro
Ġp intoj
ĠL esoto
ko lado
ĠM ig
Ġb eda
ĠA P
os aÅŃ
Ġne ed
ĠB EK
Ġpo et
Ġmon tro
Ġc u
Ġor bi
Ġ3 60
igi te
19 54
Ġbon venas
Ki ki
fri do
Dis vas
BN E
Ma uro
Ġadminis tras
à¦ ¿
ĠGra vaj
Ġplibon igis
ĠHe ctor
esperan tistoj
ĠJapan ujo
fil moj
Pl uraj
Ġimpor taÄµoj
Origin ala
Ġkapitalis ma
ĠA IS
ĠC lassi
Ġsen pre
Ġc as
ve do
ĠTi bor
Ġro zo
gen era
Ġproduk tantoj
Ġmalf on
Ġmenci indas
Ġpol uso
Ra porto
kula don
Ġservis toj
Ġhelp us
Ġkomision anoj
Ġintegri ÄĿo
ĠJona than
K atal
T aÅŃ
Î ¸
ĠE pi
19 52
... ).
pas is
Ġkonsi li
Ã¼ tsch
Ġgas tigas
vel t
89 366
Ġapro bas
Ġgeo grafiaj
Ġstri ktaj
Ġdama ÄĿi
Sta rantaj
Ġhezi tas
Ġmikro fono
Ġrol vorte
Publi k
Ġprotestan toj
thon y
h ler
Ġp rz
an an
Ġs ina
kti va
Ġpli igis
ĠH oma
aÅŃ toro
Ġtra gi
gra foj
ĠkontraÅŃ infla
Ġ17 99
Ġkul to
Ġter oris
Ġvar mon
Ġpozi tivajn
Ġbru lo
omb rajn
×Ļ ×Ļ×
Ġfeder aciaj
Ġkonsum antoj
Tele fona
Ġmalka ÅĿi
elsen do
Mez e
ĠGregor io
B or
Ġal glu
aÅŃ don
Ġfa kta
dan kon
ĠÂ ¸
Ġ18 45
Ġlu ktas
Ġlu data
ĠanstataÅŃ igis
Ġves ti
bas o
Ġson ÄĿoj
Ġkos tumo
Ġstruk turojn
ÄĿan tajn
Ġcon tin
ĠAu to
ï¼ Ł
Ġord igita
Äģ ori
Ġsubpre mo
Ġkomision on
Ġrive lita
Ġarbi tre
ĠLeib niz
Ñ ĳ
Ġ è
or ia
Ġa era
ĠL E
per oj
ĠP R
de blas
Ġkun iÄĿis
ga Äµoj
Ġc omo
Ġele ktado
Ġro lulo
Ġekzis tus
Ġprezen tata
Ġpens maniero
Ġmis i
Ġmur on
Ġuzanto paÄĿon
Trans portaj
Ġtrakta toj
sci ence
Ġnega tive
ĠDar win
Ġmilitis taro
Ġcilin dro
ĠFerdin ando
Komuni kado
Ġlaborpos tenoj
ĠNacion al
tumb lr
K en
re i
ĠC ov
Ġmon ata
Ġmon taroj
Ġc em
19 09
Ġra ti
Ġkre u
ĠLe wis
Ġbone gajn
12 8
Ġkonstru aÄµon
Ġkomer c
Ġ< /
Ġmas ak
Ko le
RI O
Ġalpor tos
ĠÅĿablon ojn
ĠAndre j
Ġdistribu ado
ĠMani festo
ĠParto prenu
Ġtalen ton
ĠImperi estro
Babel Lando
ĠÄĪika go
b run
i vil
Ã Ħ
Ġ ),
en ojn
ĠK ry
ter anoj
ing oj
ĠF lÃ¡vio
ĠG em
Ġsen tu
me toj
ĠantaÅŃ mendoj
cen ton
ĠKa pi
ĠFran cion
ĠJa wa
sek uro
gru pojn
eks ter
ĠÄīees ta
Ġaku zis
ĠÄĪiu tagan
ĠÎ ¼
Ġrekla mo
Ġturni ÄĿis
Ġhipo kri
ĠantaÅŃvi dis
Ġhungar aj
Mer kredo
ĠGej ÅĿo
Ð°Ñħ Ð°
Malkov ru
ĠArm strong
G ill
M L
an stataÅŃ
li tiko
te mon
Ġt onoj
ĠS ystem
ĠB res
Ġali kaze
ble con
19 35
Ġ18 13
fa t
Ġfon tas
Ġven distoj
Ġur ÄĿa
Ġvo lu
Ġfun de
ĠRo ose
sen dito
Kon sider
Por tuga
Ġvizi tu
Ġdek reto
Ġuti ligis
Ġforges ita
Ġth em
Ġfak terminoj
Ġizo lita
ĠengaÄĿi ÄĿo
Aten tu
Ġbun tan
ĠPay Pal
Ġfontindi kon
! ),
$ )
D omo
Å º
â ²
Ċ ĠĠĠĠĠĠĠĠ
ti vi
Ġf res
Ġper diÄĿis
ĠD AS
ĠÅĿ ose
ĠG dan
lin s
kor pa
Ġneni ujn
âĢĻ ),
Ma kedonio
kos to
ĠBer trand
Ġarb ar
Ġremem oroj
Ġperspek tivoj
Ġfara taj
Ġfiksi taj
Ġmalsi me
ivil Ã¤
C hu
E vangelio
b om
c l
d Ã¼
j lo
s hopee
w ia
é Ģ
Ĩ į
Ġs feroj
re e
Ġ20 24
ĠR osa
ĠC ala
ĠC lin
Ġka zon
Ġha vaÄµo
ern aj
Ġlan guages
Ġkontribu antoj
ĠTh un
Ġrekon o
Par donu
Ġkonsul tiÄĿo
Ġalb umon
ĠMus ic
ĠAna to
Ġambi cia
Ġadvo katoj
ĠZodia co
Astro shopee
Ġkemi isto
ĠMauri ce
3 50
D ato
T ok
er en
to la
te tojn
le le
Ġh isto
ÅĿ ton
ĠD ru
Ġfor pelis
eb lon
Ð¾ Ð¹
Ġmov as
Ġuzi ÄĿas
Ġtur ismaj
logi ojn
bra l
Ġunue con
Ġorigin on
Ġmale galeco
Ġspiri toj
ĠTer mometro
ĠPrin ci
Ġnordo kcidento
Ġesperant lingvaj
Ġrepu tacio
horlo ÄĿo
ĠBarandov skÃ¡
R edu
k vaj
Ġv ina
do u
Ġal propri
Ġre ver
Ġinter sek
Ġpos tan
Ġsub frazo
Ġpl oris
ĠâĢĵ ,
Ġ4 50
be ck
hi la
kte jo
Ġop cio
Ġvir tualaj
Ġmil digi
Ġkonstitu cion
Ġkonvers aci
Ch ris
Ġpros pero
Ġdatre venon
Ġprocen ton
A pliko
a h
ĠA U
Ġpro gresi
Ġor elojn
19 13
Ġ18 06
pro tekto
gas o
Ġ17 90
Vi ber
ĠPar ty
hel pi
Ġdivi diÄĿas
Ġmalbon ajn
ĠAng l
Ġras oj
Ġmarbor daj
Ġinven to
Ġreduk tis
Ġplenkres kulo
Ġposeda taj
ĠJoze f
I lo
j in
p edi
in ton
or ojn
Ġf rus
Ġre st
Ġvi ran
ĠT ols
tor ioj
Ġver ajn
Ġ18 22
ĠRe port
Ġur ban
Ġtri foje
ĠKa fos
var on
Ġregis tra
hel pa
spe ci
Ġmond kon
Ġ000 1
ĠSuper administranto
ĠBir doj
Ġprovle gadon
Ġkad roj
ĠWat ch
ĠNobelpremi ita
d na
la da
Ġs tur
Ġal ve
ur y
Ġkon igi
de ojn
Ġfi ere
pro gramoj
Ġ7 800
Ġsuper eco
Ðµ Ð¹
ĠÐ Ķ
Ġab undo
ire jo
ĠLiber eco
Ġrifu zi
ĠhaÅŃ taj
ĠMem briÄĿi
Ġgeed zeco
Ġservis to
Ġalidirekti lon
ĠGes chichte
Ġrespe gu
gaz ine
H omo
c ko
Ï ī
Ġs ha
re zer
per do
di tajn
gi ÄĿo
ĠC xi
ĠH romos
ĠÄ į
Ġri do
Ġfor tran
za ra
Ġ18 21
ĠRe jn
ĠKon gruo
ĠÅĿan cojn
Ġpoli canoj
Ġteks t
ore giono
Ġkunlabor adon
Ġbu tono
Ġpru von
ĠPoli tical
ĠdediÄī itaj
ĠÅĿul troj
Ð¡ Ð°ÑħÐ°
Ġdro go
ĠKel kajn
ĠEliza beto
ĠÑĤÑĭ Ð»Ð°
9 75
E TO
F ir
p son
} \
Ġde i
in dekso
Ġe mon
ri Äīa
Ġti toli
ĠE ro
Ġin dek
Ġkun ligi
ĠJ uro
ĠVi da
Ġlo kita
Ġ18 47
ĠÅľ tub
12 6
maj stro
Ġtrovi ÄĿi
ĠThe ory
vide blaj
cx as
ĠMas ter
ĠAp k
Mor tis
Ġmalka ÅĿe
Ġanarki istoj
Ġefektiv igo
CitaÄµoj Redakti
b eth
Ö °
Ġg va
ita le
Ġkun uloj
ĠR eb
Ġel Äµe
Ġpa razi
Ġpre zojn
Ġpov intus
ĠSe ÄĿo
Ġme tante
Ġpen dis
Ġgen toj
ĠVer duloj
ĠOr lando
aran ga
ĠÅ ½
Ġuson anglaj
Ġaku zoj
Ġmalami kojn
Ġprogres as
Ġkompan ion
Ġsudo kcidento
Da vid
premi on
Ġpris tu
Ġmanuskri ptoj
ĠProble moj
ĠKafos emoj
A pli
K ov
S AT
Â ³
or gan
ÅĿ los
ĠB log
Ġka ÅĿitaj
ĠDe ath
ĠDe velopment
ĠDi di
rea k
Ġkar no
Ġkonsis tigis
Ġtele fona
ĠPla ta
Ġkonfir mo
unu oj
Ġsubven cioj
Ġprovle ginto
Ġobsta kloj
alys is
Ġsurpaper ajn
S Y
S il
is me
Ġne videbla
Ġpri disku
zi te
Ġfor prenis
Ġta li
fa las
pl eno
Ġtri tiko
Ġtri deko
Ġliber igas
Ġju do
Ġtradu ka
kciden taj
ĠPol ski
ĠSch r
ĠBi zanca
ĠJe hu
Ġnaci eco
ĠNew ton
ya hoo
Ġbra kon
ĠFer voj
Ġsalu tnomo
Ġemo cio
Ġpentris toj
Ġkolor aj
Is ra
dok umen
Ġbild vortareto
Fin n
Bul letin
Mesa ÄĿoj
A ni
ĠE DE
ĠK oro
tis maj
Ġmal pro
Ġmal luma
ĠB ET
ce toj
fi ziko
Ġta bel
Ġ18 16
ĠRe la
Ġ4 20
enc ajn
Ġso lo
ĠAr ta
Ġaldon iÄĿis
ĠPor tugal
Ġkonstru aÄµojn
Ġnu bo
ds tedt
Ġprote ktis
Ġer gon
ĠDis ney
Ġdisvas tiÄĿon
Ġokupi taj
Ja pana
plen an
ĠMedi cino
Ġspor taj
ĠProksi ma
ĠMaÅŃri tanio
Ġutilo s
969 533
ĠDanu bo
ĠKni ivilÃ¤
? ).
on bul
Ġes tuloj
Ġal teri
Ġh y
Ġin er
vi ko
Ġkun i
Ġeks entis
ĠÅĿi pojn
sa Äµoj
Ġkul pa
Ġkan ceron
]] )
ĠGra bowski
Ġarb aron
Ġdirek tas
ĠSpe cialaj
ĠProfes oro
ĠZb ig
ĠSign aloj
ĠJi ang
Propon u
D in
o kcidenta
ta ct
Ġla men
es trino
ton bv
ĠO ffice
Ġbon kora
Ġ18 25
Ġju re
Ġofi cis
Ġgvi dos
Ġsem an
Pa peran
Ġrea gon
ĠIta liano
Ġpru den
88 88
liber eco
arki vita
Ġgar dis
Ġsalu ti
sh oven
Ġenmig rado
ĠKAS ATI
4 25
B ro
O C
S telo
m igra
é «
Ġes tinta
ig en
ul us
di rektoro
Ġek as
kom itato
ĠPa pa
Ð¾ ÑģÑĤ
Ġneces os
Ġz ur
Ġvide ojn
Ġau f
Ġplat formon
Ġpardon on
Ġkonsekven co
Ġaltkva litajn
Ġposeda Äµoj
Ġfanta zio
Pla tt
ĠinaÅŃgu rita
ĠHromos lav
H U
f loro
z ing
Ġ uloj
Ġal ojo
ĠR ss
ma kler
Ġte gaÄµo
Ġpre ÄĿi
Ġri va
ch y
kri zo
anoj o
ĠPa riza
Ġlern oma
Ġpe toj
fri isk
ĠUn categorized
Ġdefen dantoj
Ġentrepren isto
ation al
Ġalvo koj
ĠBil dstrioj
viga da
Ġretpa ÄĿoj
Ġalin omi
Ġrive las
ĠKaraba Ä¥o
ĠRoose velt
Z A
Ġf ebru
es tado
Äµ i
Ġali rita
for umo
Ġtra ktita
Ġ18 39
na ÅĦ
ĠKom pare
Ġfar bo
Ġdeman dos
ĠAli e
ele y
Ġkvar on
Pli bon
Dum e
Ġmaj a
dire kta
Ġgener as
Ġarki te
ĠVin cent
Ġflug kompanio
Ġretiri ÄĿo
Ġmekan ismo
AlÅĿu ti
Ġhomam aso
raÅŃli ka
c ca
p om
p Ã¦
u ta
Ġm ost
tis tojn
ĠF Ã©
ĠIn tel
ĠLe g
'' )
Ġeldon aÄµoj
}} {{
ĠViki medio
Ġaran ÄĿojn
Ġtru oj
cer to
ĠCar ter
Ġordon as
ĠÄµurnal ismo
Ġkr onika
Ġsuver ene
AK E
ĠSza thmÃ¡ri
ĠðŁĺ ī
ka toli
Ġne vo
Ġper dojn
ĠI den
ĠÄīe Ä¥oslova
pi e
Ġta berna
ba don
ĠW unsch
Ġtre z
Ġvor tordo
ĠPa trino
In form
Ġlu ksa
ĠÐ £
teri an
stra va
ĠUn der
ĠTh om
Ġkonsen ti
ĠMala lta
Ġatribu is
ĠMer kuro
Ã¶r gy
ĠLen ing
Ġbabi laj
ĠpoÅĿtele fonoj
ãģ¾ ãģĦ
Ġmezepo kaj
Varsov ia
Ġvidinda Äµojn
J una
p uraj
Ġen loÄĿantoj
do t
Ġek rigardis
Ġmon doj
bi laj
ĠLe gen
Mi chael
ĠJe gor
ĠPli ajn
Ġmalo f
Ġhazar do
Ġares tis
volon tulo
Ġfranc lingva
ĠFara ono
dÃ¼ Ã¼tsch
s um
Ġe lok
ĠL aj
Ġh inde
ĠP K
ĠP ok
Ġtra videbla
Ġ[ /
19 26
ĠAn ta
In te
ĠloÄĿ anto
Ġangla lingvanoj
ĠOr tega
Ġpers is
ĠÄµus a
Ġvali daj
Ġord igi
Ġtrakta taj
Ġmarbor da
Ġtransdon ita
ĠKel ler
Mu zaiko
ĠaÅŃtomo bilo
ãģª ãģĦ
Ġdatum ba
Ġkl era
Ġlikva Äµo
Ġduling va
ĠFrankfur to
Platt dÃ¼Ã¼tsch
9 00
D aÅŃri
V alo
f inoj
é Ļ
Ġk B
ĠA re
ĠV ita
st ran
19 06
sta tus
Ġvo kas
Ġci ti
Ġcer ami
Ġkri zoj
sen do
ĠSer Äīi
Ġfinan cojn
Ġses ioj
ĠIta lion
Ġfla mo
Ġhi p
Ġfiks is
Ġmodi fita
ĠfiÅĿkap tado
Andre as
kompan ioj
mpos ton
ĠMulto blaÄµo
p pen
ar meo
ka t
ĠP ru
ver to
vis ta
ge a
Ġ18 32
Ġ18 43
Ġlabor antoj
wi k
Ma le
tek ni
ĠOn da
Ver kado
Ġsom er
ĠTri bunalo
Ġagra blan
Ġornam ita
konta kton
ĠLasta tempe
ta ble
ĠM ing
Ġkon forma
po ld
Ġel kres
pe a
Ġver kinto
ke lo
19 07
Ġven ditaj
Ġam fi
Ġw ere
Inter reta
Ġprofun dajn
Ġkondu tas
Ġeksci os
grafi an
Ġokul fra
Ġleg indaj
Ġsubjek ton
minu ta
ĠRobo to
Ġlecion ojn
Rol shoven
Å½ ema
N et
T ria
a kvo
Ġa fek
ĠK is
ĠA via
ĠD ostoj
Ġni tro
Ġra bo
Ġ18 08
Ġ18 26
tem ajn
Vi roj
ĠÅĿan ÄĿu
ling veco
Ġw hat
Ġpens ante
val do
Ġorigin aj
ĠAd ven
Ven u
Ġrevolu cion
ĠaÅŃtomo biloj
Pra kti
Nord friisk
Ġhereda Äµon
ĠSalom ono
AnÄĿele so
H an
ÅĿ tata
Ġri belon
me on
pu t
enc ojn
Ġso leco
Ki r
kar tojn
ĠVen uso
Ġtrin kaÄµoj
ĠaÅŃtor ino
Ġsubskri b
Ġtaks ado
ĠAmi keco
ĠPrin cipe
Ġoperaci umo
Ġeka peris
[...]
