{
  "version": "1.0",
  "truncation": null,
  "padding": null,
  "added_tokens": [
    {
      "id": 0,
      "content": "<|endoftext|>",
      "single_word": false,
      "lstrip": false,
      "rstrip": false,
      "normalized": true,
      "special": true
    }
  ],
  "normalizer": null,
  "pre_tokenizer": {
    "type": "ByteLevel",
    "add_prefix_space": false,
    "trim_offsets": true,
    "use_regex": true
  },
  "post_processor": {
    "type": "ByteLevel",
    "add_prefix_space": true,
    "trim_offsets": false,
    "use_regex": true
  },
  "decoder": {
    "type": "ByteLevel",
    "add_prefix_space": true,
    "trim_offsets": true,
    "use_regex": true
  },
  "model": {
    "type": "BPE",
    "dropout": null,
    "unk_token": null,
    "continuing_subword_prefix": "",
    "end_of_word_suffix": "",
    "fuse_unk": false,
    "byte_fallback": false,
    "ignore_merges": false,
    "vocab": {
      "<|endoftext|>": 0,
      "!": 1,
      "\"": 2,
      "#": 3,
      "$": 4,
      "%": 5,
      "&": 6,
      "'": 7,
      "(": 8,
      ")": 9,
      "*": 10,
      "+": 11,
      ",": 12,
      "-": 13,
      ".": 14,
      "/": 15,
      "0": 16,
      "1": 17,
      "2": 18,
      "3": 19,
      "4": 20,
      "5": 21,
      "6": 22,
      "7": 23,
      "8": 24,
      "9": 25,
      ":": 26,
      ";": 27,
      "<": 28,
      "=": 29,
      ">": 30,
      "?": 31,
      "@": 32,
      "A": 33,
      "B": 34,
      "C": 35,
      "D": 36,
      "E": 37,
      "F": 38,
      "G": 39,
      "H": 40,
      "I": 41,
      "J": 42,
      "K": 43,
      "L": 44,
      "M": 45,
      "N": 46,
      "O": 47,
      "P": 48,
      "Q": 49,
      "R": 50,
      "S": 51,
      "T": 52,
      "U": 53,
      "V": 54,
      "W": 55,
      "X": 56,
      "Y": 57,
      "Z": 58,
      "[": 59,
      "\\": 60,
      "]": 61,
      "^": 62,
      "_": 63,
      "`": 64,
      "a": 65,
      "b": 66,
      "c": 67,
      "d": 68,
      "e": 69,
      "f": 70,
      "g": 71,
      "h": 72,
      "i": 73,
      "j": 74,
      "k": 75,
      "l": 76,
      "m": 77,
      "n": 78,
      "o": 79,
      "p": 80,
      "q": 81,
      "r": 82,
      "s": 83,
      "t": 84,
      "u": 85,
      "v": 86,
      "w": 87,
      "x": 88,
      "y": 89,
      "z": 90,
      "{": 91,
      "|": 92,
      "}": 93,
      "~": 94,
      "¡": 95,
      "¢": 96,
      "£": 97,
      "¤": 98,
      "¥": 99,
      "¦": 100,
      "§": 101,
      "¨": 102,
      "©": 103,
      "ª": 104,
      "«": 105,
      "¬": 106,
      "®": 107,
      "¯": 108,
      "°": 109,
      "±": 110,
      "²": 111,
      "³": 112,
      "´": 113,
      "µ": 114,
      "¶": 115,
      "·": 116,
      "¸": 117,
      "¹": 118,
      "º": 119,
      "»": 120,
      "¼": 121,
      "½": 122,
      "¾": 123,
      "¿": 124,
      "À": 125,
      "Á": 126,
      "Â": 127,
      "Ã": 128,
      "Ä": 129,
      "Å": 130,
      "Æ": 131,
      "Ç": 132,
      "È": 133,
      "É": 134,
      "Ê": 135,
      "Ë": 136,
      "Ì": 137,
      "Í": 138,
      "Î": 139,
      "Ï": 140,
      "Ð": 141,
      "Ñ": 142,
      "Ò": 143,
      "Ó": 144,
      "Ô": 145,
      "Õ": 146,
      "Ö": 147,
      "×": 148,
      "Ø": 149,
      "Ù": 150,
      "Ú": 151,
      "Û": 152,
      "Ü": 153,
      "Ý": 154,
      "Þ": 155,
      "ß": 156,
      "à": 157,
      "á": 158,
      "â": 159,
      "ã": 160,
      "ä": 161,
      "å": 162,
      "æ": 163,
      "ç": 164,
      "è": 165,
      "é": 166,
      "ê": 167,
      "ë": 168,
      "ì": 169,
      "í": 170,
      "î": 171,
      "ï": 172,
      "ð": 173,
      "ñ": 174,
      "ò": 175,
      "ó": 176,
      "ô": 177,
      "õ": 178,
      "ö": 179,
      "÷": 180,
      "ø": 181,
      "ù": 182,
      "ú": 183,
      "û": 184,
      "ü": 185,
      "ý": 186,
      "þ": 187,
      "ÿ": 188,
      "Ā": 189,
      "ā": 190,
      "Ă": 191,
      "ă": 192,
      "Ą": 193,
      "ą": 194,
      "Ć": 195,
      "ć": 196,
      "Ĉ": 197,
      "ĉ": 198,
      "Ċ": 199,
      "ċ": 200,
      "Č": 201,
      "č": 202,
      "Ď": 203,
      "ď": 204,
      "Đ": 205,
      "đ": 206,
      "Ē": 207,
      "ē": 208,
      "Ĕ": 209,
      "ĕ": 210,
      "Ė": 211,
      "ė": 212,
      "Ę": 213,
      "ę": 214,
      "Ě": 215,
      "ě": 216,
      "Ĝ": 217,
      "ĝ": 218,
      "Ğ": 219,
      "ğ": 220,
      "Ġ": 221,
      "ġ": 222,
      "Ģ": 223,
      "ģ": 224,
      "Ĥ": 225,
      "ĥ": 226,
      "Ħ": 227,
      "ħ": 228,
      "Ĩ": 229,
      "ĩ": 230,
      "Ī": 231,
      "ī": 232,
      "Ĭ": 233,
      "ĭ": 234,
      "Į": 235,
      "į": 236,
      "İ": 237,
      "ı": 238,
      "Ĳ": 239,
      "ĳ": 240,
      "Ĵ": 241,
      "ĵ": 242,
      "Ķ": 243,
      "ķ": 244,
      "ĸ": 245,
      "Ĺ": 246,
      "ĺ": 247,
      "Ļ": 248,
      "ļ": 249,
      "Ľ": 250,
      "ľ": 251,
      "Ŀ": 252,
      "ŀ": 253,
      "Ł": 254,
      "ł": 255,
      "Ń": 256,
      "la": 257,
      "Ġk": 258,
      "on": 259,
      "ta": 260,
      "oj": 261,
      "Ġla": 262,
      "en": 263,
      "Ġd": 264,
      "Ġp": 265,
      "an": 266,
      "er": 267,
      "aj": 268,
      "is": 269,
      "Ġde": 270,
      "in": 271,
      "Ġe": 272,
      "or": 273,
      "Ġa": 274,
      "Ġs": 275,
      "ti": 276,
      "li": 277,
      "Ġm": 278,
      "to": 279,
      "re": 280,
      "ro": 281,
      "as": 282,
      "ri": 283,
      "Ġn": 284,
      "ÄĿ": 285,
      "Ġkaj": 286,
      "te": 287,
      "ra": 288,
      "un": 289,
      "Ġes": 290,
      "ÅŃ": 291,
      "Ġv": 292,
      "Ġen": 293,
      "Ġf": 294,
      "ar": 295,
      "Äī": 296,
      "le": 297,
      "om": 298,
      "ci": 299,
      "lo": 300,
      "tas": 301,
      "al": 302,
      "Ġki": 303,
      "do": 304,
      "toj": 305,
      "Ġal": 306,
      "Ġt": 307,
      "âĢ": 308,
      "am": 309,
      "io": 310,
      "ka": 311,
      "el": 312,
      "ĠÄī": 313,
      "Ġ1": 314,
      "es": 315,
      "ur": 316,
      "Ġti": 317,
      "Ġre": 318,
      "Ġ(": 319,
      "Ġestas": 320,
      "ĠE": 321,
      "ĠL": 322,
      "ko": 323,
      "Ġ2": 324,
      "ed": 325,
      "Ġh": 326,
      "ig": 327,
      "ĠK": 328,
      "ĠS": 329,
      "Ġin": 330,
      "ter": 331,
      "taj": 332,
      "ov": 333,
      "Ġvi": 334,
      "ÅĿ": 335,
      "ĠM": 336,
      "Ġb": 337,
      "ojn": 338,
      "per": 339,
      "ĠA": 340,
      "tis": 341,
      "ul": 342,
      "ĠP": 343,
      "Ġi": 344,
      "Ġkon": 345,
      "os": 346,
      "Ġne": 347,
      "Ġpor": 348,
      "tu": 349,
      "Ġj": 350,
      "da": 351,
      "ia": 352,
      "Ġg": 353,
      "Ġo": 354,
      "vi": 355,
      "Ġpro": 356,
      "um": 357,
      "di": 358,
      "Ġli": 359,
      "ek": 360,
      "uj": 361,
      "Ġan": 362,
      "ran": 363,
      "em": 364,
      "ĠT": 365,
      "us": 366,
      "Ġ20": 367,
      "ajn": 368,
      "ĠÄĿ": 369,
      "Ġmi": 370,
      "Ġpri": 371,
      "ĠâĢ": 372,
      "Ġmal": 373,
      "ton": 374,
      "co": 375,
      "ĠÄīi": 376,
      "de": 377,
      "ĠB": 378,
      "ita": 379,
      "Ġkun": 380,
      "Ġl": 381,
      "vo": 382,
      "po": 383,
      "ĠR": 384,
      "ing": 385,
      "ks": 386,
      "ĠLa": 387,
      "mo": 388,
      "ru": 389,
      "Ġel": 390,
      "lan": 391,
      "zi": 392,
      "Äµ": 393,
      "ĠN": 394,
      "ki": 395,
      "Ġke": 396,
      "Ġper": 397,
      "ĠI": 398,
      "ĠD": 399,
      "peran": 400,
      "Ġkom": 401,
      "gi": 402,
      "tan": 403,
      "ĠÅĿ": 404,
      "ĠF": 405,
      "kon": 406,
      "kti": 407,
      "Ġsu": 408,
      "ĠV": 409,
      "du": 410,
      "don": 411,
      "Ġestis": 412,
      "ĠaÅŃ": 413,
      "va": 414,
      "lu": 415,
      "pa": 416,
      "ma": 417,
      "Ġpli": 418,
      "ce": 419,
      "ĠC": 420,
      "ĠEs": 421,
      "tra": 422,
      "00": 423,
      "ga": 424,
      "Ġpa": 425,
      "Ġsi": 426,
      "vas": 427,
      "ĠG": 428,
      "Ġdi": 429,
      "Ġte": 430,
      "Ġun": 431,
      "Ġkiel": 432,
      "ĠU": 433,
      "fi": 434,
      "Ġinter": 435,
      "ĠH": 436,
      "La": 437,
      "ĠJ": 438,
      "kaÅŃ": 439,
      "ol": 440,
      "Ġpre": 441,
      "Ġ-": 442,
      "Ġpov": 443,
      "pe": 444,
      "ĠÄ": 445,
      "ÄĿo": 446,
      "ten": 447,
      "il": 448,
      "Ġ19": 449,
      "tri": 450,
      "Ġkiu": 451,
      "aci": 452,
      "tor": 453,
      "go": 454,
      "Ġka": 455,
      "man": 456,
      "Ġri": 457,
      "las": 458,
      "ren": 459,
      "ĠEsperan": 460,
      "oni": 461,
      "mi": 462,
      "Ġek": 463,
      "Ġfor": 464,
      "Ġunu": 465,
      "ch": 466,
      "zo": 467,
      "Ġni": 468,
      "aÅŃ": 469,
      "ver": 470,
      "Ġali": 471,
      "ino": 472,
      "Ġ\"": 473,
      "ni": 474,
      "ris": 475,
      "bo": 476,
      "Ġu": 477,
      "Ġ201": 478,
      "tro": 479,
      "pon": 480,
      "Ġsen": 481,
      "Ġha": 482,
      "Ġfa": 483,
      "eb": 484,
      "ala": 485,
      "Ġpo": 486,
      "Ġtiu": 487,
      "ĠÄīe": 488,
      "ono": 489,
      "jo": 490,
      "ven": 491,
      "..": 492,
      "fer": 493,
      "dis": 494,
      "ÄĿis": 495,
      "Ġar": 496,
      "ĠO": 497,
      "za": 498,
      "si": 499,
      "pi": 500,
      "bro": 501,
      "ku": 502,
      "Ġkiuj": 503,
      "so": 504,
      "Ġmon": 505,
      "âĢĿ": 506,
      "me": 507,
      "loj": 508,
      "doj": 509,
      "Ġili": 510,
      "Ġc": 511,
      "men": 512,
      "Ġpos": 513,
      "Ġpovas": 514,
      "taÅŃ": 515,
      "tojn": 516,
      "Ġsed": 517,
      "roj": 518,
      "for": 519,
      "lej": 520,
      "Ġver": 521,
      "Ġdis": 522,
      "ve": 523,
      "ado": 524,
      "aro": 525,
      "ĠankaÅŃ": 526,
      "ĠÄĿi": 527,
      "cio": 528,
      "Ġor": 529,
      "ĠEsperanto": 530,
      "Ġda": 531,
      "Ġling": 532,
      "st": 533,
      "20": 534,
      "gan": 535,
      "Ġdu": 536,
      "Ġsur": 537,
      "Ġtra": 538,
      "ca": 539,
      "Ġ3": 540,
      "Ġpar": 541,
      "kto": 542,
      "Ġoni": 543,
      "van": 544,
      "Ġplej": 545,
      "ĠÄĪ": 546,
      "vis": 547,
      "ero": 548,
      "ona": 549,
      "ina": 550,
      "ke": 551,
      "bor": 552,
      ").": 553,
      "kaj": 554,
      "tiko": 555,
      "ĠVi": 556,
      "ge": 557,
      "ras": 558,
      "dan": 559,
      "igi": 560,
      "Ġta": 561,
      "laj": 562,
      "Ġ[": 563,
      "ento": 564,
      "ba": 565,
      "Ġnom": 566,
      "ĠâĢľ": 567,
      "koj": 568,
      "isto": 569,
      "ber": 570,
      "ble": 571,
      "pren": 572,
      "19": 573,
      "Ġmul": 574,
      "ÄĿas": 575,
      "gis": 576,
      "res": 577,
      "Ġnov": 578,
      "moj": 579,
      "ron": 580,
      "Ġhom": 581,
      "Ġsub": 582,
      "gra": 583,
      "Ġtu": 584,
      "Ġjar": 585,
      "),": 586,
      "Ġse": 587,
      "ha": 588,
      "Ġra": 589,
      "lon": 590,
      "ern": 591,
      "eda": 592,
      "ĠMi": 593,
      "Ġtio": 594,
      "Äµo": 595,
      "Ġnur": 596,
      "sta": 597,
      "ez": 598,
      "mp": 599,
      "Ġmem": 600,
      "Ġma": 601,
      "Ġdum": 602,
      "ÄĿoj": 603,
      "mon": 604,
      "ĠEn": 605,
      "Ġap": 606,
      "bli": 607,
      "ÄĿi": 608,
      "zis": 609,
      "he": 610,
      "ĠIn": 611,
      "Ġlo": 612,
      "se": 613,
      "ata": 614,
      "Äµoj": 615,
      "ĠÂ": 616,
      "ĠW": 617,
      "Ġres": 618,
      "Ġje": 619,
      "ĠlaÅŃ": 620,
      "Ġsek": 621,
      "den": 622,
      "uloj": 623,
      "con": 624,
      "das": 625,
      "Ġ|": 626,
      "Ġbon": 627,
      "gu": 628,
      "Ġhavas": 629,
      "pan": 630,
      "Ġtro": 631,
      "Ġof": 632,
      "Ġeks": 633,
      "En": 634,
      "vers": 635,
      "ĠLi": 636,
      "Åľ": 637,
      "Ġle": 638,
      "Ġgran": 639,
      "duk": 640,
      "ze": 641,
      "voj": 642,
      "raj": 643,
      "Ġkons": 644,
      "ĠantaÅŃ": 645,
      "kri": 646,
      "et": 647,
      "Ġman": 648,
      "Ġpl": 649,
      "pu": 650,
      "Ġ18": 651,
      "na": 652,
      "Ġ200": 653,
      "daj": 654,
      "ĠÄīiuj": 655,
      "por": 656,
      "Ġoka": 657,
      "eni": 658,
      "lio": 659,
      "tem": 660,
      "Ġak": 661,
      "ĠTi": 662,
      "Ġgra": 663,
      "ĠâĢĵ": 664,
      "Ġesti": 665,
      "ces": 666,
      "fa": 667,
      "ĠRe": 668,
      "Reda": 669,
      "Ġtre": 670,
      "rin": 671,
      "Ġnun": 672,
      "ini": 673,
      "Redakti": 674,
      "ĠMa": 675,
      "tajn": 676,
      "Ġpost": 677,
      "bu": 678,
      "Ġfi": 679,
      "Ġlan": 680,
      "pro": 681,
      "stru": 682,
      "Ġ4": 683,
      "Ġku": 684,
      "Ġfon": 685,
      "11": 686,
      "ej": 687,
      "...": 688,
      "ĠKon": 689,
      "Ġol": 690,
      "enc": 691,
      "kci": 692,
      "oro": 693,
      "Ġtiuj": 694,
      "gas": 695,
      "Ġsam": 696,
      "ano": 697,
      "ĠAn": 698,
      "Ġkiam": 699,
      "ĠâĢ¢": 700,
      "âĨ": 701,
      "Ġso": 702,
      "ine": 703,
      "bi": 704,
      "Ġven": 705,
      "ĠÄĿis": 706,
      "istor": 707,
      "Ġkontra": 708,
      "ĠÄĿin": 709,
      "Ġkre": 710,
      "22": 711,
      "ÄĪ": 712,
      "Ġtem": 713,
      "Ġuz": 714,
      "Ġdo": 715,
      "Äīe": 716,
      "Ġsia": 717,
      "Ġaliaj": 718,
      "ĠÄľ": 719,
      "Ġ5": 720,
      "dakti": 721,
      "Ġser": 722,
      "kis": 723,
      "Ġele": 724,
      "no": 725,
      "pre": 726,
      "Ġsci": 727,
      "ĠÅĿi": 728,
      "ple": 729,
      "ĠKom": 730,
      "od": 731,
      "Ġur": 732,
      "Ġlabor": 733,
      "Ġsin": 734,
      "kan": 735,
      "Ġvo": 736,
      "Ġartiko": 737,
      "lin": 738,
      "ĠkontraÅŃ": 739,
      "Ġfari": 740,
      "Ð°": 741,
      "ĠÄīar": 742,
      "min": 743,
      "amen": 744,
      "Ġvor": 745,
      "eri": 746,
      "th": 747,
      "Ġsta": 748,
      "Ġjam": 749,
      "tur": 750,
      "son": 751,
      "ÄĿon": 752,
      "tp": 753,
      "cia": 754,
      "Ġ0": 755,
      "be": 756,
      "erman": 757,
      "goj": 758,
      "ksi": 759,
      "âĨĳ": 760,
      "era": 761,
      "ĠKi": 762,
      "antoj": 763,
      "kta": 764,
      "Ġtran": 765,
      "turo": 766,
      "10": 767,
      "Ġparto": 768,
      "Ġlingvo": 769,
      "Ã©": 770,
      "tos": 771,
      "Ġba": 772,
      "ante": 773,
      "ĠAr": 774,
      "tin": 775,
      "tre": 776,
      "ens": 777,
      "Ġro": 778,
      "lando": 779,
      "fo": 780,
      "gor": 781,
      "Ġ17": 782,
      "Ġekz": 783,
      "pl": 784,
      "vaj": 785,
      "Ġjaroj": 786,
      "ati": 787,
      "Ġmor": 788,
      "Ġpu": 789,
      "kor": 790,
      "Ġfun": 791,
      "cen": 792,
      "pri": 793,
      "Ġko": 794,
      "zen": 795,
      "Ġkel": 796,
      "kom": 797,
      "Ġtri": 798,
      "ulo": 799,
      "anta": 800,
      "Ġmin": 801,
      "Ġ16": 802,
      "ali": 803,
      "Ġmili": 804,
      "ÅŃro": 805,
      "gio": 806,
      "par": 807,
      "ĠNe": 808,
      "tita": 809,
      "ĠSe": 810,
      "ts": 811,
      "acia": 812,
      "coj": 813,
      "igo": 814,
      "Ġme": 815,
      "21": 816,
      "Ġesperan": 817,
      "Ġspe": 818,
      "ĠZ": 819,
      "Ġam": 820,
      "ara": 821,
      "lis": 822,
      "anoj": 823,
      "Ġkomun": 824,
      "ova": 825,
      "Ġci": 826,
      "âĢĵ": 827,
      "volu": 828,
      "Ġhel": 829,
      "anto": 830,
      "Ġmar": 831,
      "Ġkor": 832,
      "Ã¡": 833,
      "ejo": 834,
      "ad": 835,
      "Ġsig": 836,
      "ÄĿa": 837,
      "Vi": 838,
      "Ġfar": 839,
      "gani": 840,
      "bon": 841,
      "Ġhomoj": 842,
      "ne": 843,
      "ĠAl": 844,
      "ĠÅĿan": 845,
      "ĠâĢĶ": 846,
      "Ġr": 847,
      "Ġ:": 848,
      "Ġneni": 849,
      "umo": 850,
      "Es": 851,
      "ĠNi": 852,
      "Ġinfor": 853,
      "Ġ9": 854,
      "edio": 855,
      "Ġmals": 856,
      "Ġsian": 857,
      "ãģ": 858,
      "Ġ6": 859,
      "Ġ/": 860,
      "EA": 861,
      "Ġinf": 862,
      "Ġtiel": 863,
      "mes": 864,
      "ĠLe": 865,
      "vin": 866,
      "Ġparo": 867,
      "Ġunua": 868,
      "Ä¥": 869,
      "ĠeÄī": 870,
      "Ġaper": 871,
      "cep": 872,
      "Ġvia": 873,
      "ĠÄīef": 874,
      "istoj": 875,
      "pli": 876,
      "tribu": 877,
      "kas": 878,
      "ĠPa": 879,
      "igis": 880,
      "ĠPro": 881,
      "tion": 882,
      "ismo": 883,
      "Ġ10": 884,
      "ĠMar": 885,
      "ling": 886,
      "Ġtie": 887,
      "ting": 888,
      "tio": 889,
      "Mi": 890,
      "kuto": 891,
      "Ġpoli": 892,
      "18": 893,
      "Ġdevas": 894,
      "tr": 895,
      "Ġkomen": 896,
      "pen": 897,
      "ĠÅľ": 898,
      "Ñģ": 899,
      "In": 900,
      "von": 901,
      "Ġmultaj": 902,
      "Ġeble": 903,
      "Ðº": 904,
      "oje": 905,
      "Ġplu": 906,
      "tegor": 907,
      "Ġ7": 908,
      "ĠÄĪi": 909,
      "Ġplen": 910,
      "embro": 911,
      "eo": 912,
      "ion": 913,
      "Ġjun": 914,
      "pek": 915,
      "gen": 916,
      "ck": 917,
      "ĠÄľi": 918,
      "ho": 919,
      "Ġhistor": 920,
      "02": 921,
      "kul": 922,
      "dek": 923,
      "ĠKa": 924,
      "Ġthe": 925,
      "var": 926,
      "gon": 927,
      "Ġnia": 928,
      "Re": 929,
      "Ġmia": 930,
      "ĠInter": 931,
      "taro": 932,
      "Ġkiun": 933,
      "ĠKaj": 934,
      "Ġokaz": 935,
      "ĠMon": 936,
      "ok": 937,
      "ud": 938,
      "ser": 939,
      "Ġtrans": 940,
      "ĠÄīiu": 941,
      "omo": 942,
      "Ġnova": 943,
      "poj": 944,
      "der": 945,
      "Ġmu": 946,
      "Ġ15": 947,
      "ĠÂ»": 948,
      "iste": 949,
      "Ġfonton": 950,
      "nu": 951,
      "Ġ8": 952,
      "ami": 953,
      "Ġmondo": 954,
      "Ġliber": 955,
      "Ġdivers": 956,
      "hi": 957,
      "ana": 958,
      "ĠUEA": 959,
      "boj": 960,
      "sti": 961,
      "ula": 962,
      "Ġtiun": 963,
      "diÄī": 964,
      "rio": 965,
      "igas": 966,
      "toro": 967,
      "Ġekzis": 968,
      "gar": 969,
      "ĠSed": 970,
      "ĠDe": 971,
      "Ġpas": 972,
      "Ġmala": 973,
      "sa": 974,
      "eco": 975,
      "Ġrila": 976,
      "ulse": 977,
      "tado": 978,
      "igita": 979,
      "ĠRo": 980,
      "ĠÂ«": 981,
      "Ġestu": 982,
      "Ġkie": 983,
      "Ġna": 984,
      "Ki": 985,
      "Ð¸": 986,
      "Ġteks": 987,
      "Ġbone": 988,
      "12": 989,
      "Ġlu": 990,
      "alu": 991,
      "Ġcer": 992,
      "rkaÅŃ": 993,
      "ab": 994,
      "Ġiom": 995,
      "Ġkul": 996,
      "Ġtute": 997,
      "Ġ199": 998,
      "ĠFran": 999,
      "Ġju": 1000,
      "Ġgranda": 1001,
      ".[": 1002,
      "Ġeb": 1003,
      "Ġkio": 1004,
      "sono": 1005,
      "Ġkla": 1006,
      "vu": 1007,
      "Ġlia": 1008,
      "broj": 1009,
      "//": 1010,
      "Ġorgani": 1011,
      "kla": 1012,
      "ÑĢ": 1013,
      "Ġw": 1014,
      "Ġaldon": 1015,
      "âĢĶ": 1016,
      "kip": 1017,
      "fes": 1018,
      "kte": 1019,
      "Ġligi": 1020,
      "Ġfin": 1021,
      "Ġpubli": 1022,
      "ĠPo": 1023,
      "minis": 1024,
      "Ġtion": 1025,
      "Ġja": 1026,
      "Ġad": 1027,
      "zon": 1028,
      "ttp": 1029,
      "Ġto": 1030,
      "tar": 1031,
      "://": 1032,
      "labor": 1033,
      "Ġrespon": 1034,
      "lojn": 1035,
      "EJ": 1036,
      "Ġdeman": 1037,
      "klu": 1038,
      "Ġlern": 1039,
      "tera": 1040,
      "Ġdiris": 1041,
      "Ġredakti": 1042,
      "tempe": 1043,
      "maj": 1044,
      "tik": 1045,
      "ĠÅĿta": 1046,
      "Ġposte": 1047,
      "ĠÄīu": 1048,
      "Ġlon": 1049,
      "teco": 1050,
      "Ð¾": 1051,
      "Ġankor": 1052,
      "Ġtrovi": 1053,
      "Ġpe": 1054,
      "Ġsigni": 1055,
      "rita": 1056,
      "tejo": 1057,
      "Ġkan": 1058,
      "Ġestos": 1059,
      "Ġmulte": 1060,
      "Ġuza": 1061,
      "kado": 1062,
      "200": 1063,
      "15": 1064,
      "''": 1065,
      "Ġilin": 1066,
      "ori": 1067,
      "Ġce": 1068,
      "Ġurbo": 1069,
      "Ġvin": 1070,
      "edi": 1071,
      "Ġren": 1072,
      "Ġartikolo": 1073,
      "Ġrice": 1074,
      "Ġekzem": 1075,
      "zoj": 1076,
      "gita": 1077,
      "Ġter": 1078,
      "nacia": 1079,
      "Ġkompren": 1080,
      "ĠÄīirkaÅŃ": 1081,
      "ost": 1082,
      "Ġsuper": 1083,
      "Li": 1084,
      "Ġlin": 1085,
      "\".": 1086,
      "âĢĻ": 1087,
      "Ġtempo": 1088,
      "Ġalia": 1089,
      "Ġindi": 1090,
      "Ġbez": 1091,
      "Ġnor": 1092,
      "gran": 1093,
      "Ġskri": 1094,
      "kces": 1095,
      "reso": 1096,
      "bla": 1097,
      "Ġakti": 1098,
      "ĠPor": 1099,
      "âĢľ": 1100,
      "org": 1101,
      "17": 1102,
      "Ġkelkaj": 1103,
      "Ġapar": 1104,
      "Ġafer": 1105,
      "una": 1106,
      "ĠdaÅŃ": 1107,
      "ĠankoraÅŃ": 1108,
      "Ġ2022": 1109,
      "Ġregis": 1110,
      "Ġprezen": 1111,
      "16": 1112,
      "qu": 1113,
      "eno": 1114,
      "mar": 1115,
      "mojn": 1116,
      "Ġno": 1117,
      "redakti": 1118,
      "Ġtamen": 1119,
      "Ġjaro": 1120,
      "Ġmen": 1121,
      "dojn": 1122,
      "Ġfra": 1123,
      "ama": 1124,
      "ora": 1125,
      "gado": 1126,
      "ena": 1127,
      "tran": 1128,
      "Ġvolas": 1129,
      "Ġofte": 1130,
      "ir": 1131,
      "foje": 1132,
      "Ġenha": 1133,
      "Ġvian": 1134,
      "Ġfil": 1135,
      "tigi": 1136,
      "tura": 1137,
      "Ġinteres": 1138,
      "rom": 1139,
      "fri": 1140,
      "Ġkri": 1141,
      "\",": 1142,
      "Dis": 1143,
      "ĠUni": 1144,
      "rojek": 1145,
      "cioj": 1146,
      "EJO": 1147,
      "mas": 1148,
      "Ġbe": 1149,
      "kam": 1150,
      "ĠEÅŃro": 1151,
      "ani": 1152,
      "Ġproduk": 1153,
      "Ġpartopren": 1154,
      "peranto": 1155,
      "Ġprop": 1156,
      "sen": 1157,
      "eloj": 1158,
      "eblas": 1159,
      "Ġmo": 1160,
      "Ġvoj": 1161,
      "Ġang": 1162,
      "14": 1163,
      "Mal": 1164,
      "ujo": 1165,
      "Ġide": 1166,
      "000": 1167,
      "Äµojn": 1168,
      "Ġaten": 1169,
      "Ġprogra": 1170,
      "ciala": 1171,
      "wi": 1172,
      "ĠBa": 1173,
      "Le": 1174,
      "ut": 1175,
      "]]": 1176,
      "Ġrez": 1177,
      "Ðµ": 1178,
      "ere": 1179,
      "elo": 1180,
      "Ġ12": 1181,
      "onoj": 1182,
      "Ġkonstru": 1183,
      "gus": 1184,
      "Ġlingvoj": 1185,
      "anu": 1186,
      "Ġraj": 1187,
      "tika": 1188,
      "ĠÐ": 1189,
      "Ġelek": 1190,
      "kur": 1191,
      "Ġcen": 1192,
      "itato": 1193,
      "Ġfunkci": 1194,
      "inio": 1195,
      "Ġkva": 1196,
      "onas": 1197,
      "Ġekster": 1198,
      "Ġ13": 1199,
      "mis": 1200,
      "ĠÄīiam": 1201,
      "edia": 1202,
      "ebla": 1203,
      "pas": 1204,
      "âĢĿ,": 1205,
      "ord": 1206,
      "fek": 1207,
      "tistoj": 1208,
      "ĠÄĿen": 1209,
      "ww": 1210,
      "ioj": 1211,
      "Ġplur": 1212,
      "ĠMal": 1213,
      "04": 1214,
      "Ġand": 1215,
      "ÄĪi": 1216,
      "aloj": 1217,
      "Ġplan": 1218,
      "itaj": 1219,
      "bri": 1220,
      "ĠloÄĿ": 1221,
      "Ġkonsi": 1222,
      "13": 1223,
      "Ġsa": 1224,
      "ang": 1225,
      "Ġtiam": 1226,
      "Ġdiversaj": 1227,
      "vor": 1228,
      "danto": 1229,
      "Ġpropon": 1230,
      "enco": 1231,
      "eder": 1232,
      "eli": 1233,
      "ĠCh": 1234,
      "Ġorig": 1235,
      "Kon": 1236,
      "inta": 1237,
      "Ka": 1238,
      "Ġtuta": 1239,
      "tru": 1240,
      "Ġdan": 1241,
      "Ġ14": 1242,
      "zio": 1243,
      "ĠÄµ": 1244,
      "Ġvol": 1245,
      "Ġas": 1246,
      "ĠSu": 1247,
      "uni": 1248,
      "ĠAli": 1249,
      "Ġiu": 1250,
      "à¤": 1251,
      "Ġmalf": 1252,
      "Ġpens": 1253,
      "Ġgru": 1254,
      "ĠEl": 1255,
      "acio": 1256,
      "Ġpra": 1257,
      "Ti": 1258,
      "ĠJo": 1259,
      "Ġhavis": 1260,
      "ĠEk": 1261,
      "eto": 1262,
      "Ġvivo": 1263,
      "âĢ¦": 1264,
      "eroj": 1265,
      "Ġsiaj": 1266,
      "id": 1267,
      "Ġinstru": 1268,
      "Ġsignif": 1269,
      "Ġsan": 1270,
      "Ġajn": 1271,
      "Ġfran": 1272,
      "Ġsiste": 1273,
      "ove": 1274,
      "An": 1275,
      "Ġ=": 1276,
      "ĠAÅŃ": 1277,
      "Ġgerman": 1278,
      "Ġofi": 1279,
      "Ġregi": 1280,
      "Pro": 1281,
      "Ġstu": 1282,
      "ÅĿu": 1283,
      "50": 1284,
      "Ġsimp": 1285,
      "Ġpen": 1286,
      "Ġmuzi": 1287,
      "Äīo": 1288,
      "amo": 1289,
      "dem": 1290,
      "ux": 1291,
      "Ġsukces": 1292,
      "Ġeldon": 1293,
      "ĠJa": 1294,
      "mul": 1295,
      "Ġkomenc": 1296,
      "Ġprojek": 1297,
      "Ġmov": 1298,
      "Ġpermes": 1299,
      "ĠÄĪu": 1300,
      "Ġami": 1301,
      "espon": 1302,
      "Ġperson": 1303,
      "ski": 1304,
      "Diskuto": 1305,
      "ĠPar": 1306,
      "Ġpreci": 1307,
      "ler": 1308,
      "cento": 1309,
      "kojn": 1310,
      "30": 1311,
      "Ġekzistas": 1312,
      "TC": 1313,
      "ĠSi": 1314,
      "Ġkol": 1315,
      "Äīi": 1316,
      "Ġop": 1317,
      "stan": 1318,
      "Ġdeta": 1319,
      "umero": 1320,
      "kra": 1321,
      "Ġden": 1322,
      "Ġlandoj": 1323,
      "caj": 1324,
      "Ġdiras": 1325,
      "greso": 1326,
      "Ġnu": 1327,
      "ja": 1328,
      "umen": 1329,
      "Ġkiujn": 1330,
      "vos": 1331,
      "Ġneces": 1332,
      "Ġdeci": 1333,
      "ty": 1334,
      "Al": 1335,
      "gres": 1336,
      "Ġmalpli": 1337,
      "Ġbona": 1338,
      "Ġva": 1339,
      "vankam": 1340,
      "Äīa": 1341,
      "rus": 1342,
      "ispan": 1343,
      "ges": 1344,
      "Ġproble": 1345,
      "mal": 1346,
      "Ġating": 1347,
      "uro": 1348,
      "Åľati": 1349,
      "Ġfaci": 1350,
      "ĠSan": 1351,
      "gaj": 1352,
      "Ġsufi": 1353,
      "Ġsitu": 1354,
      "Ġsubten": 1355,
      "Ġon": 1356,
      "Ġkur": 1357,
      "aski": 1358,
      "din": 1359,
      "ĠIS": 1360,
      "oroj": 1361,
      "com": 1362,
      "Ġpi": 1363,
      "ligi": 1364,
      "logio": 1365,
      "tegorio": 1366,
      "Ġpres": 1367,
      "dita": 1368,
      "ÅĿi": 1369,
      "eble": 1370,
      "Ġrapi": 1371,
      "Ġ198": 1372,
      "Ġ[[": 1373,
      "Ġlando": 1374,
      "Ġâ": 1375,
      "ĠpaÄĿo": 1376,
      "BN": 1377,
      "Ma": 1378,
      "tino": 1379,
      "Ġtradu": 1380,
      "ĠThe": 1381,
      "gn": 1382,
      "Ġsol": 1383,
      "sek": 1384,
      "ea": 1385,
      "Ã³": 1386,
      "omi": 1387,
      "ajo": 1388,
      "Ġokazis": 1389,
      "Äµon": 1390,
      "Ġrakon": 1391,
      "El": 1392,
      "ER": 1393,
      "Ġkam": 1394,
      "dus": 1395,
      "cis": 1396,
      "ĠPre": 1397,
      "Ġapli": 1398,
      "teri": 1399,
      "ĠIli": 1400,
      "nov": 1401,
      "Â«": 1402,
      "mento": 1403,
      "Ġkuti": 1404,
      "ou": 1405,
      "Ġob": 1406,
      "Ð½": 1407,
      "Ġ2020": 1408,
      "ĠUnu": 1409,
      "iero": 1410,
      "Se": 1411,
      "Ġkion": 1412,
      "kajn": 1413,
      "Ġkap": 1414,
      "ÃŃ": 1415,
      "Por": 1416,
      "Ġproksi": 1417,
      "âĢĿ.": 1418,
      "Ġ?": 1419,
      "su": 1420,
      "Ġuzi": 1421,
      "Ġfo": 1422,
      "tive": 1423,
      "Â»": 1424,
      "fio": 1425,
      "Ġ24": 1426,
      "ale": 1427,
      "ĠTEJO": 1428,
      "ard": 1429,
      "ĠDi": 1430,
      "ay": 1431,
      "Ġ2021": 1432,
      "Ġjarcento": 1433,
      "Ġekde": 1434,
      "ktoj": 1435,
      "ĠLu": 1436,
      "ele": 1437,
      "tero": 1438,
      "ros": 1439,
      "Ġ2017": 1440,
      "kipedio": 1441,
      "log": 1442,
      "Ġprezi": 1443,
      "Ġrenkon": 1444,
      "ph": 1445,
      "zas": 1446,
      "ÅĿo": 1447,
      "ĠY": 1448,
      "Esperanto": 1449,
      "Ġteksto": 1450,
      "ÑĤ": 1451,
      "Ġsiajn": 1452,
      "im": 1453,
      "tisto": 1454,
      "Ġkole": 1455,
      "iloj": 1456,
      "Ġuzas": 1457,
      "lito": 1458,
      "ktobro": 1459,
      "esto": 1460,
      "ebru": 1461,
      "Ġinklu": 1462,
      "ĠGerman": 1463,
      "Ġvar": 1464,
      "Ġz": 1465,
      "ĠPer": 1466,
      "ÑģÐº": 1467,
      "Ġpovus": 1468,
      "Ġnomo": 1469,
      "tes": 1470,
      "ĠTio": 1471,
      "Ġ30": 1472,
      "Ġespri": 1473,
      "uo": 1474,
      "lia": 1475,
      "Ġuni": 1476,
      "Ġkontribu": 1477,
      "Ġdispon": 1478,
      "and": 1479,
      "Kom": 1480,
      "Ġpopo": 1481,
      "enta": 1482,
      "paro": 1483,
      "ĠJu": 1484,
      "rek": 1485,
      "troj": 1486,
      "sk": 1487,
      "--": 1488,
      "Ġeven": 1489,
      "Ġbi": 1490,
      "unga": 1491,
      "Ġus": 1492,
      "Ġru": 1493,
      "Ġmalgran": 1494,
      "Ġmod": 1495,
      "Ġekzemple": 1496,
      "Ġretejo": 1497,
      "Ġrigar": 1498,
      "Ġgen": 1499,
      "rak": 1500,
      "78": 1501,
      "ĠâĢŀ": 1502,
      "ĠISBN": 1503,
      "ria": 1504,
      "can": 1505,
      "Ġtur": 1506,
      "mum": 1507,
      "ite": 1508,
      "Ġ11": 1509,
      "Ar": 1510,
      "stataÅŃ": 1511,
      "ajne": 1512,
      "ptem": 1513,
      "Ġpla": 1514,
      "Ni": 1515,
      "ore": 1516,
      "Ġmona": 1517,
      "Ġkomer": 1518,
      "vanta": 1519,
      "Respon": 1520,
      "Ġangla": 1521,
      "Ġgvi": 1522,
      "Ġsem": 1523,
      "lajn": 1524,
      "dio": 1525,
      "Ġkvar": 1526,
      "Ġktp": 1527,
      "ĠRulse": 1528,
      "Ġestus": 1529,
      "Ã¼": 1530,
      "mper": 1531,
      "veno": 1532,
      "ĠÄĿia": 1533,
      "kciden": 1534,
      "pab": 1535,
      "Ġsper": 1536,
      "Ġfare": 1537,
      "Ġakcep": 1538,
      "ĠkaÅŃ": 1539,
      "ĠDu": 1540,
      "jek": 1541,
      "ĠNov": 1542,
      "ĠFa": 1543,
      "23": 1544,
      "Ġ.": 1545,
      "vizi": 1546,
      "Ġefi": 1547,
      "kita": 1548,
      "tilo": 1549,
      "Ġflu": 1550,
      "ds": 1551,
      "Ġfaris": 1552,
      "Ġ2019": 1553,
      "ĠUsono": 1554,
      "tras": 1555,
      "Ġscias": 1556,
      "Ġkies": 1557,
      "ilo": 1558,
      "alaj": 1559,
      "logi": 1560,
      "Ġfami": 1561,
      "ĠRus": 1562,
      "áĥ": 1563,
      "zita": 1564,
      "iga": 1565,
      "cion": 1566,
      "leks": 1567,
      "ĠSa": 1568,
      "gusto": 1569,
      "vol": 1570,
      "Ġhomo": 1571,
      "Ġrezul": 1572,
      "odia": 1573,
      "vigi": 1574,
      "ĠVer": 1575,
      "ĠÄĿus": 1576,
      "ĠTamen": 1577,
      "tante": 1578,
      "ĠTa": 1579,
      "Ġval": 1580,
      "rilo": 1581,
      "ĠTiu": 1582,
      "}}": 1583,
      "rojn": 1584,
      "ebruaro": 1585,
      "cembro": 1586,
      "25": 1587,
      "Ġab": 1588,
      "elon": 1589,
      "anuaro": 1590,
      "xi": 1591,
      "Ġsimi": 1592,
      "Ġkres": 1593,
      "mu": 1594,
      "99": 1595,
      "titaj": 1596,
      "Ġmez": 1597,
      "Ð»": 1598,
      "kov": 1599,
      "talo": 1600,
      "05": 1601,
      "ÄĿin": 1602,
      "fon": 1603,
      "Ġ2018": 1604,
      "33": 1605,
      "Ġ{": 1606,
      "Ġlasta": 1607,
      "Ġbata": 1608,
      "fun": 1609,
      "Ġkura": 1610,
      "Ġdezi": 1611,
      "Ġve": 1612,
      "les": 1613,
      "Ġdon": 1614,
      "tiva": 1615,
      "ttps": 1616,
      "ĠBo": 1617,
      "Ġniaj": 1618,
      "Ġkonc": 1619,
      "vita": 1620,
      "Ġfru": 1621,
      "Ġkunlabor": 1622,
      "hel": 1623,
      "rea": 1624,
      "Ġevolu": 1625,
      "ĠJun": 1626,
      "bur": 1627,
      "fu": 1628,
      "lita": 1629,
      "ĠDo": 1630,
      "ÄĿojn": 1631,
      "Ġins": 1632,
      "Ġsoci": 1633,
      "Ġprote": 1634,
      "Ġkune": 1635,
      "ĠpreskaÅŃ": 1636,
      "Ġekon": 1637,
      "inoj": 1638,
      "03": 1639,
      "razi": 1640,
      "Ġdev": 1641,
      "ĠkondiÄī": 1642,
      "Ġsame": 1643,
      "ĠĠ": 1644,
      "stitu": 1645,
      "Ġ22": 1646,
      "Ġamas": 1647,
      "Ġfilo": 1648,
      "Ġge": 1649,
      "Ġnek": 1650,
      "UTC": 1651,
      "ptembro": 1652,
      "Ġdua": 1653,
      "Pa": 1654,
      "ĠSo": 1655,
      "eron": 1656,
      "09": 1657,
      "Ġbil": 1658,
      "Ġaperis": 1659,
      "Ġ...": 1660,
      "Ġskrib": 1661,
      "ĠVikipedio": 1662,
      "edoj": 1663,
      "Ġtuj": 1664,
      "Ġ25": 1665,
      "ela": 1666,
      "ĠUnivers": 1667,
      "24": 1668,
      "Ġoku": 1669,
      "Ġpovis": 1670,
      "Ġneniam": 1671,
      "ĠDum": 1672,
      "tolo": 1673,
      "ferenc": 1674,
      "ĠOr": 1675,
      "60": 1676,
      "Äľ": 1677,
      "tus": 1678,
      "ĠRa": 1679,
      "ÄĿos": 1680,
      "ĠOni": 1681,
      "oma": 1682,
      "ure": 1683,
      "pis": 1684,
      "Ġviaj": 1685,
      "TO": 1686,
      "Ġis": 1687,
      "Ġlas": 1688,
      "Ġhistorio": 1689,
      "Ġpoten": 1690,
      "28": 1691,
      "Ġreda": 1692,
      "ĠEÅŃropo": 1693,
      "ĠAm": 1694,
      "01": 1695,
      "ĠaÅŃto": 1696,
      "publi": 1697,
      "aroj": 1698,
      "riskri": 1699,
      "Ġ2012": 1700,
      "Ġ21": 1701,
      "iÄĿas": 1702,
      "fe": 1703,
      "Ġ194": 1704,
      "it": 1705,
      "Ġ2011": 1706,
      "baÅŃ": 1707,
      "Ġprofes": 1708,
      "ĠPost": 1709,
      "Ġespl": 1710,
      "klo": 1711,
      "Ġprofi": 1712,
      "Ġvortoj": 1713,
      "ĠÅĿa": 1714,
      "Ġhej": 1715,
      "Ġlibro": 1716,
      "Ġprin": 1717,
      "Ġimp": 1718,
      "ĠHa": 1719,
      "Ġevi": 1720,
      "Ġgrava": 1721,
      "Ġbezonas": 1722,
      "ĠaÄīe": 1723,
      "Ġvere": 1724,
      "Ġ*": 1725,
      "ote": 1726,
      "199": 1727,
      "Ġtradi": 1728,
      "Ġfer": 1729,
      "kio": 1730,
      "ĠanstataÅŃ": 1731,
      "rig": 1732,
      "ãĤ": 1733,
      "amenho": 1734,
      "Ġnin": 1735,
      "ĠÄīiujn": 1736,
      "stra": 1737,
      "ĠRi": 1738,
      "ĠPri": 1739,
      "pera": 1740,
      "ĠVidu": 1741,
      "aran": 1742,
      "Ġed": 1743,
      "Ġkonser": 1744,
      "08": 1745,
      "zaj": 1746,
      "Ġ197": 1747,
      "Ġafi": 1748,
      "acioj": 1749,
      "Ġkomple": 1750,
      "aze": 1751,
      "06": 1752,
      "Ġves": 1753,
      "Ġbu": 1754,
      "Ġvizi": 1755,
      "Ġinformoj": 1756,
      "ura": 1757,
      "ĠpaÄĿoj": 1758,
      "Ġmalfaci": 1759,
      "Ġalian": 1760,
      "sio": 1761,
      "para": 1762,
      "ĠUn": 1763,
      "Ġjen": 1764,
      "igitaj": 1765,
      "Ġiuj": 1766,
      "07": 1767,
      "Ġligiloj": 1768,
      "Ġret": 1769,
      "ekz": 1770,
      "Ġtia": 1771,
      "alis": 1772,
      "27": 1773,
      "Ġartikoloj": 1774,
      "ÄĪu": 1775,
      "trio": 1776,
      "ĠSen": 1777,
      "rome": 1778,
      "ese": 1779,
      "Ġflan": 1780,
      "naci": 1781,
      "Ġkonsider": 1782,
      "Ne": 1783,
      "dap": 1784,
      "gru": 1785,
      "odiaÅŃ": 1786,
      "ĠpaÄĿon": 1787,
      "Ġkomuni": 1788,
      "Ġmalfer": 1789,
      "ĠKiel": 1790,
      "grafio": 1791,
      "vidu": 1792,
      "De": 1793,
      "uno": 1794,
      "ĠÅĿanÄĿoj": 1795,
      "AN": 1796,
      "Ġinkluzi": 1797,
      "ktu": 1798,
      "Ġnumero": 1799,
      "Ġmis": 1800,
      "Ġdek": 1801,
      "].": 1802,
      "alo": 1803,
      "Ġeblas": 1804,
      "Ġsama": 1805,
      "Ġrus": 1806,
      "tn": 1807,
      "Ġsistemo": 1808,
      "prezen": 1809,
      "lado": 1810,
      "plo": 1811,
      "Ġtemas": 1812,
      "kso": 1813,
      "Ġuti": 1814,
      "esa": 1815,
      "ĠJoh": 1816,
      "Ġalta": 1817,
      "Ġmalsam": 1818,
      "Ã§": 1819,
      "estro": 1820,
      "igu": 1821,
      "26": 1822,
      "Ġpren": 1823,
      "ry": 1824,
      "ĠNa": 1825,
      "Ġties": 1826,
      "Ġkonta": 1827,
      "bra": 1828,
      "wa": 1829,
      "antaj": 1830,
      "istorio": 1831,
      "ĠPol": 1832,
      "Ġopini": 1833,
      "iÄĿis": 1834,
      "lus": 1835,
      "Ġkontro": 1836,
      "Ġspi": 1837,
      "Ġtek": 1838,
      "Pri": 1839,
      "Su": 1840,
      "poÅĿ": 1841,
      "reta": 1842,
      "ence": 1843,
      "Ġcivi": 1844,
      "ÄĿaj": 1845,
      "Ġtut": 1846,
      "emo": 1847,
      "peris": 1848,
      "dado": 1849,
      "Ġvorto": 1850,
      "Ġlaboro": 1851,
      "ian": 1852,
      "ves": 1853,
      "Ġpublik": 1854,
      "ĠFre": 1855,
      "Ġ2013": 1856,
      "ĠEstas": 1857,
      "Ġkal": 1858,
      "kisto": 1859,
      "Ġradi": 1860,
      "ajno": 1861,
      "Ġvide": 1862,
      "Ã¶": 1863,
      "Ġdif": 1864,
      "socio": 1865,
      "cojn": 1866,
      "Ġ23": 1867,
      "ju": 1868,
      "tala": 1869,
      "Ġten": 1870,
      "ĠMo": 1871,
      "salu": 1872,
      "Ġmilito": 1873,
      "ĠArki": 1874,
      "Ġ'": 1875,
      "und": 1876,
      "ted": 1877,
      "lish": 1878,
      "fen": 1879,
      "Ġkar": 1880,
      "Ġinternacia": 1881,
      "Ø±": 1882,
      "Ġdok": 1883,
      "Ġat": 1884,
      "ĠÄīefe": 1885,
      "Ġakvo": 1886,
      "ĠCen": 1887,
      "ĠInternacia": 1888,
      "kin": 1889,
      "Â°": 1890,
      "ES": 1891,
      "Ġuzata": 1892,
      "bas": 1893,
      "Ġtraduk": 1894,
      "dre": 1895,
      "paj": 1896,
      "daÅŃ": 1897,
      "ejoj": 1898,
      "Ġnaski": 1899,
      "bre": 1900,
      "ĠPe": 1901,
      "Ġnovembro": 1902,
      "Kiel": 1903,
      "Ġare": 1904,
      "Ġvir": 1905,
      "undo": 1906,
      "Ġ<": 1907,
      "ĠKun": 1908,
      "Ġsignifas": 1909,
      "ÄĿu": 1910,
      "Ġer": 1911,
      "amenhof": 1912,
      "skri": 1913,
      "Ġfranca": 1914,
      "tano": 1915,
      "Ġkvankam": 1916,
      "Ġ27": 1917,
      "kcio": 1918,
      "Ġvid": 1919,
      "29": 1920,
      "Ġgermana": 1921,
      "Ġkapab": 1922,
      "pero": 1923,
      "Ġrulse": 1924,
      "Ġprovi": 1925,
      "len": 1926,
      "Ø§": 1927,
      "deco": 1928,
      "Ġpluraj": 1929,
      "enca": 1930,
      "Ġadminis": 1931,
      "Ġ2015": 1932,
      "Ġtiom": 1933,
      "Po": 1934,
      "los": 1935,
      "Ñĥ": 1936,
      "Ġaperas": 1937,
      "Ġkonsis": 1938,
      "ĠX": 1939,
      "Ba": 1940,
      "ĠKar": 1941,
      "tej": 1942,
      "Ġdatu": 1943,
      "tono": 1944,
      "dos": 1945,
      "Ġdia": 1946,
      "ĠÃ": 1947,
      "ly": 1948,
      "teraj": 1949,
      "tris": 1950,
      "rigi": 1951,
      "isi": 1952,
      "ĠÄĪe": 1953,
      "66": 1954,
      "umi": 1955,
      "ĠtroviÄĿas": 1956,
      "Ġklas": 1957,
      "cas": 1958,
      "Ġnome": 1959,
      "Ġson": 1960,
      "parte": 1961,
      "Ġrevizi": 1962,
      "urbo": 1963,
      "vojn": 1964,
      "ĠkondiÄīoj": 1965,
      "Å¡": 1966,
      "ĠSer": 1967,
      "Ġsenpa": 1968,
      "ulojn": 1969,
      "Ġ2010": 1970,
      "kvi": 1971,
      "Ġy": 1972,
      "Ġprecipe": 1973,
      "leco": 1974,
      "Ġpoliti": 1975,
      "bron": 1976,
      "ĠKongreso": 1977,
      "Ġgrandaj": 1978,
      "Ġdenove": 1979,
      "Ġspeci": 1980,
      "depen": 1981,
      "kar": 1982,
      "ress": 1983,
      "kuloj": 1984,
      "Ġ2016": 1985,
      "tiÄĿo": 1986,
      "pra": 1987,
      "ÅĿan": 1988,
      "ÑģÐºÐ¸": 1989,
      "Ġtiujn": 1990,
      "Ġmembroj": 1991,
      "kos": 1992,
      "Ġdisvol": 1993,
      "one": 1994,
      "ĠÅĿajn": 1995,
      "teno": 1996,
      "Ġstra": 1997,
      "itan": 1998,
      "Ġmenci": 1999,
      "dento": 2000,
      "Äīas": 2001,
      "'s": 2002,
      "Ġilia": 2003,
      "dajn": 2004,
      "ataj": 2005,
      "Ġinflu": 2006,
      "est": 2007,
      "ĠKiam": 2008,
      "ĠBer": 2009,
      "erale": 2010,
      "Ġvoja": 2011,
      "Ġprakti": 2012,
      "Ġloko": 2013,
      "Ġtele": 2014,
      "ĠDa": 2015,
      "Ġmas": 2016,
      "ie": 2017,
      "tigas": 2018,
      "tern": 2019,
      "Ġfaras": 2020,
      "ĠambaÅŃ": 2021,
      "pos": 2022,
      "toroj": 2023,
      "Ġkomencis": 2024,
      "Ġ+": 2025,
      "omoj": 2026,
      "Ġ2014": 2027,
      "tina": 2028,
      "vio": 2029,
      "ĠTra": 2030,
      "Ġnovan": 2031,
      "ĠViki": 2032,
      "Ġtago": 2033,
      "Ġregu": 2034,
      "erna": 2035,
      "che": 2036,
      "Ġafero": 2037,
      "Respondi": 2038,
      "ĠKo": 2039,
      "zan": 2040,
      "Ġmian": 2041,
      "oron": 2042,
      "pozi": 2043,
      "36": 2044,
      "ĠÄĪinio": 2045,
      "Ġsim": 2046,
      "erala": 2047,
      "Pli": 2048,
      "Ġinten": 2049,
      "ĠsufiÄīe": 2050,
      "ÅĿa": 2051,
      "novaj": 2052,
      "ua": 2053,
      "Ġnovaj": 2054,
      "blo": 2055,
      "bio": 2056,
      "kt": 2057,
      "Ġelekti": 2058,
      "ĠeÅŃro": 2059,
      "Ġaki": 2060,
      "rigo": 2061,
      "Ġori": 2062,
      "eblaj": 2063,
      "Ġby": 2064,
      "Ġpersono": 2065,
      "Ġgrupo": 2066,
      "ĠMu": 2067,
      "lingva": 2068,
      "Ġgrandan": 2069,
      "ĠRulseÄĿoj": 2070,
      "Ġ2008": 2071,
      "Ġkos": 2072,
      "Ġfacile": 2073,
      "Ġperio": 2074,
      "ĠiÄĿis": 2075,
      "ĠRes": 2076,
      "gh": 2077,
      "à¦": 2078,
      "Ġprefer": 2079,
      "ĠAfri": 2080,
      "panio": 2081,
      "Ġmallon": 2082,
      "Ġokazas": 2083,
      "Ġklu": 2084,
      "Ġesperantistoj": 2085,
      "Ġformo": 2086,
      "vuo": 2087,
      "tigo": 2088,
      "teraturo": 2089,
      "flan": 2090,
      "flu": 2091,
      "kton": 2092,
      "Ġrapor": 2093,
      "Ġfinan": 2094,
      "Ġkvin": 2095,
      "Ġricevis": 2096,
      "Ã¤": 2097,
      "Ġtemo": 2098,
      "Ġpatro": 2099,
      "55": 2100,
      "pun": 2101,
      "ĠtaÅŃ": 2102,
      "Ġaga": 2103,
      "Ġdetaloj": 2104,
      "eritor": 2105,
      "saluti": 2106,
      "Ġkomenci": 2107,
      "jara": 2108,
      "ĠGra": 2109,
      "jn": 2110,
      "Ġpriskri": 2111,
      "Ġeni": 2112,
      "lar": 2113,
      "ĠSek": 2114,
      "tigis": 2115,
      "landa": 2116,
      "Ġkrei": 2117,
      "Ġaspek": 2118,
      "ers": 2119,
      "Ĥ¬": 2120,
      "Ġmontri": 2121,
      "ĠSch": 2122,
      "ĠNor": 2123,
      "Ġregiono": 2124,
      "Ġorigina": 2125,
      "ign": 2126,
      "Fran": 2127,
      "alon": 2128,
      "Ġlingvon": 2129,
      "ĠFi": 2130,
      "ĠBri": 2131,
      "poko": 2132,
      "Ġversio": 2133,
      "Ġreprezen": 2134,
      "Ġaliajn": 2135,
      "ĠLaÅŃ": 2136,
      "Ġkli": 2137,
      "Ġunivers": 2138,
      "ĠÄīio": 2139,
      "Ġkrom": 2140,
      "aÄµo": 2141,
      "Âł": 2142,
      "Ġvenis": 2143,
      "Ð²": 2144,
      "Ġhelpi": 2145,
      "Ġkarak": 2146,
      "2011": 2147,
      "ome": 2148,
      "Ġnian": 2149,
      "Ġ196": 2150,
      "ON": 2151,
      "Ġ26": 2152,
      "Ġmom": 2153,
      "47": 2154,
      "mita": 2155,
      "erka": 2156,
      "ĠFor": 2157,
      "Ġkonata": 2158,
      "Ð°Ñ": 2159,
      "tal": 2160,
      "Ġprezidanto": 2161,
      "Ġgas": 2162,
      "Ġion": 2163,
      "ĠvoÄī": 2164,
      "80": 2165,
      "tiÄĿis": 2166,
      "www": 2167,
      "Ġ,": 2168,
      "urn": 2169,
      "lor": 2170,
      "venis": 2171,
      "gos": 2172,
      "rado": 2173,
      "tema": 2174,
      "Ġkelkajn": 2175,
      "meo": 2176,
      "Ġdona": 2177,
      "ĠFrancio": 2178,
      "Ġdisku": 2179,
      "Ġvidi": 2180,
      "ĠEsperanton": 2181,
      "Inter": 2182,
      "ĠBi": 2183,
      "Sam": 2184,
      "ĠCo": 2185,
      "Ġmultajn": 2186,
      "ĠKan": 2187,
      "kondiÄī": 2188,
      "emple": 2189,
      "Ġrapide": 2190,
      "ema": 2191,
      "ĠTo": 2192,
      "ĠDio": 2193,
      "ĠDan": 2194,
      "dekso": 2195,
      "Ġiam": 2196,
      "2022": 2197,
      "Ġrimar": 2198,
      ".âĢĿ": 2199,
      "pula": 2200,
      "tanta": 2201,
      "Ġvirin": 2202,
      "Ġpropra": 2203,
      "logo": 2204,
      "Ġimper": 2205,
      "trino": 2206,
      "ys": 2207,
      "lono": 2208,
      "Ġunue": 2209,
      "Ġuzo": 2210,
      "ĠZamenhof": 2211,
      "ĠhodiaÅŃ": 2212,
      "Ġideo": 2213,
      "Ġliaj": 2214,
      "Ġneniu": 2215,
      "ÅĿaj": 2216,
      "run": 2217,
      "Ġ29": 2218,
      "ĠJe": 2219,
      "gojn": 2220,
      "skul": 2221,
      "ÅĿoj": 2222,
      "ĠGran": 2223,
      "Ġdiri": 2224,
      "):": 2225,
      "Ġkutime": 2226,
      "ÄĪe": 2227,
      "trilo": 2228,
      "Ġriver": 2229,
      "Ġdecembro": 2230,
      "Ġpun": 2231,
      "39": 2232,
      "back": 2233,
      "ĠSci": 2234,
      "ĠKomun": 2235,
      "Ġprogramo": 2236,
      "Ġplibon": 2237,
      "dukti": 2238,
      "Ġpozi": 2239,
      "ĠDis": 2240,
      "vado": 2241,
      "Ġ28": 2242,
      "Kaj": 2243,
      "Ġ&": 2244,
      "ĠGermanio": 2245,
      "tanoj": 2246,
      "Ġhistorion": 2247,
      "zaÅŃ": 2248,
      "glish": 2249,
      "chi": 2250,
      "fra": 2251,
      "Ġmalmul": 2252,
      "que": 2253,
      "dono": 2254,
      "ungara": 2255,
      "Ġene": 2256,
      "ĠPi": 2257,
      "inter": 2258,
      "Ġmovado": 2259,
      "ferencoj": 2260,
      "ĠÄīefa": 2261,
      "Ġeli": 2262,
      "tujo": 2263,
      "ĠfariÄĿis": 2264,
      "reto": 2265,
      "diskuto": 2266,
      "Ġhavi": 2267,
      "tegorioj": 2268,
      "Ġkris": 2269,
      "Ġreg": 2270,
      "Ġ100": 2271,
      "ãĢ": 2272,
      "dida": 2273,
      "Ġteritor": 2274,
      "ĠHo": 2275,
      "ĠIs": 2276,
      "spe": 2277,
      "ĠÅľi": 2278,
      "menaÅŃ": 2279,
      "AT": 2280,
      "Ġlim": 2281,
      "Ġbal": 2282,
      "Ġfre": 2283,
      "Ġedu": 2284,
      "toko": 2285,
      "ĠâĤ¬": 2286,
      "uma": 2287,
      "ĠMan": 2288,
      "ĠGo": 2289,
      "ÄĿe": 2290,
      "adminis": 2291,
      "Ġsimple": 2292,
      "soj": 2293,
      "Ġinfanoj": 2294,
      "vide": 2295,
      "Si": 2296,
      "tle": 2297,
      "Ġmontras": 2298,
      ".\"": 2299,
      "EN": 2300,
      "Ġfino": 2301,
      ".,": 2302,
      "ĠreÄĿo": 2303,
      "blaj": 2304,
      "Ġofer": 2305,
      "Ġindus": 2306,
      "34": 2307,
      "Ġaparten": 2308,
      "Ġmedi": 2309,
      "__": 2310,
      "Ġpostu": 2311,
      "Ġnaci": 2312,
      "tista": 2313,
      "Ġjulio": 2314,
      "Ġmil": 2315,
      "Ko": 2316,
      "ĠKu": 2317,
      "Ġoktobro": 2318,
      "ĠSte": 2319,
      "triÄĿi": 2320,
      "rajn": 2321,
      "Ġkultur": 2322,
      "Ġfoj": 2323,
      "ista": 2324,
      "Ġtas": 2325,
      "kva": 2326,
      "Ġmembro": 2327,
      "tm": 2328,
      "asa": 2329,
      "dro": 2330,
      "Ġtutmon": 2331,
      "uman": 2332,
      "Ġtagoj": 2333,
      "35": 2334,
      "inte": 2335,
      "ĠCi": 2336,
      "Ġ195": 2337,
      "rano": 2338,
      "Ġjanuaro": 2339,
      "ban": 2340,
      "isma": 2341,
      "Ġeston": 2342,
      "Ġefek": 2343,
      "mume": 2344,
      "Ġ2009": 2345,
      "ent": 2346,
      "Ġhispan": 2347,
      "Ġdisvas": 2348,
      "ĠÅĿanÄĿi": 2349,
      "Ġokciden": 2350,
      "Ġmalal": 2351,
      "Ġagado": 2352,
      "ĠNo": 2353,
      "Dum": 2354,
      "velo": 2355,
      "Ġenhavas": 2356,
      "dor": 2357,
      "kadem": 2358,
      "kre": 2359,
      "Ġrea": 2360,
      "Ġ2007": 2361,
      "ÂłÂł": 2362,
      "kun": 2363,
      "ferenco": 2364,
      "Ġrekom": 2365,
      "aron": 2366,
      "ĠÄĿu": 2367,
      "gri": 2368,
      "ĠFo": 2369,
      "à¥": 2370,
      "38": 2371,
      "Ġekonom": 2372,
      "Ġvidis": 2373,
      "Ġiliaj": 2374,
      "48": 2375,
      "nova": 2376,
      "31": 2377,
      "Ġmemor": 2378,
      "Ġestra": 2379,
      "val": 2380,
      "Ġbri": 2381,
      "libro": 2382,
      "tic": 2383,
      "#]": 2384,
      "ĠMe": 2385,
      "Ġinte": 2386,
      "ins": 2387,
      "Ġcerte": 2388,
      "Ġregistaro": 2389,
      "AS": 2390,
      "Ġvas": 2391,
      "Ensaluti": 2392,
      "Ġklo": 2393,
      "Ġsendepen": 2394,
      "ctor": 2395,
      "Ġaran": 2396,
      "ĠHel": 2397,
      "Ġebli": 2398,
      "ĠVir": 2399,
      "Ġban": 2400,
      "antaro": 2401,
      "ĠkvazaÅŃ": 2402,
      "Ġega": 2403,
      "ĠRegis": 2404,
      "Ġler": 2405,
      "tron": 2406,
      "ish": 2407,
      "Ġdekla": 2408,
      "ĠVento": 2409,
      "Ġses": 2410,
      "Ġkov": 2411,
      "into": 2412,
      "Ġdevis": 2413,
      "toli": 2414,
      "laro": 2415,
      "ĠSta": 2416,
      "land": 2417,
      "Ġmani": 2418,
      "ĠKomuna": 2419,
      "ĠPli": 2420,
      "teria": 2421,
      "Ġprojekto": 2422,
      "ĠIta": 2423,
      "Ġkomunumo": 2424,
      "araj": 2425,
      "Ġgaze": 2426,
      "Ġfen": 2427,
      "tantoj": 2428,
      "tigita": 2429,
      "truk": 2430,
      "Ġbru": 2431,
      "ÅĤ": 2432,
      "Ġmarto": 2433,
      "Ġorganiza": 2434,
      "Ġaferoj": 2435,
      "Ġjunio": 2436,
      "Ġata": 2437,
      "Ġkru": 2438,
      "ĠGe": 2439,
      "puti": 2440,
      "diÄīe": 2441,
      "Ġdes": 2442,
      "Ġstre": 2443,
      "Ġher": 2444,
      "Ġprezentas": 2445,
      "ĠAs": 2446,
      "40": 2447,
      "Ġdisponeblas": 2448,
      "entoj": 2449,
      "37": 2450,
      "publiko": 2451,
      "Ġpere": 2452,
      "foj": 2453,
      "onato": 2454,
      "venas": 2455,
      "ĠJes": 2456,
      "kivo": 2457,
      "ame": 2458,
      "Ġinternaci": 2459,
      "Ġmur": 2460,
      "kistoj": 2461,
      "Ġaprilo": 2462,
      "ÅĿajne": 2463,
      "Ġviajn": 2464,
      "Ġlibere": 2465,
      "Ø±Ø": 2466,
      "Ġkna": 2467,
      "risto": 2468,
      "Ġcelo": 2469,
      "Ġvolon": 2470,
      "ked": 2471,
      "ĠEÅŃropa": 2472,
      "Ġmajo": 2473,
      "umoj": 2474,
      "ĠMontri": 2475,
      "med": 2476,
      "Ġpara": 2477,
      "Ġesplor": 2478,
      "vig": 2479,
      "cha": 2480,
      "Ek": 2481,
      "Ġkonkur": 2482,
      "ĠBu": 2483,
      "ÄĿen": 2484,
      "Ġtemoj": 2485,
      "mor": 2486,
      "Ġpermesilo": 2487,
      "Ġaplik": 2488,
      "ablono": 2489,
      "mentoj": 2490,
      "ĠBar": 2491,
      "Ã¡n": 2492,
      "Ġdor": 2493,
      "Ġnombro": 2494,
      "Ġorigin": 2495,
      "ĠÅĿtato": 2496,
      "44": 2497,
      "telo": 2498,
      "GO": 2499,
      "Ġpan": 2500,
      "ĠAtribu": 2501,
      "kondiÄīojn": 2502,
      "Tiu": 2503,
      "iko": 2504,
      "Ġklopo": 2505,
      "Ġbo": 2506,
      "acila": 2507,
      "'''": 2508,
      "ĠLo": 2509,
      "Indekso": 2510,
      "ksteraj": 2511,
      "ĠAlirita": 2512,
      "Ġrespek": 2513,
      "Ġsocio": 2514,
      "Ġ{{": 2515,
      "Ġ978": 2516,
      "bert": 2517,
      "https": 2518,
      "Ġmalsu": 2519,
      "RO": 2520,
      "Ð°ÑĢ": 2521,
      "Ġprofun": 2522,
      "Ġkompa": 2523,
      "Ġfu": 2524,
      "Ġesperanto": 2525,
      "ĠaÅŃgusto": 2526,
      "Ġapud": 2527,
      "ĠGu": 2528,
      "Ġseptembro": 2529,
      "Ġindividu": 2530,
      "ĠCom": 2531,
      "Ġpersonoj": 2532,
      "ĠHispan": 2533,
      "Ġfine": 2534,
      "zer": 2535,
      "vajn": 2536,
      "taÄµoj": 2537,
      "zor": 2538,
      "iaj": 2539,
      "iÄĿo": 2540,
      "ĠÄĿenerale": 2541,
      "ĠÄĿuste": 2542,
      "daptita": 2543,
      "âĢ²": 2544,
      "Ġfes": 2545,
      "ĠalmenaÅŃ": 2546,
      "aÄµoj": 2547,
      "dam": 2548,
      "ture": 2549,
      "tt": 2550,
      "ĠAnkaÅŃ": 2551,
      "ĠWay": 2552,
      "Ġserio": 2553,
      "media": 2554,
      "Ð¹": 2555,
      "Ġkulturo": 2556,
      "Ġtrovis": 2557,
      "Ġmorto": 2558,
      "Ġtitolo": 2559,
      "ĠantaÅŃe": 2560,
      "ĠÄīiuta": 2561,
      "Ġhttp": 2562,
      "bliote": 2563,
      "][": 2564,
      "inde": 2565,
      "ĠRu": 2566,
      "ars": 2567,
      "mado": 2568,
      "Ġfakte": 2569,
      "Ġobjek": 2570,
      "mino": 2571,
      "Ġmalj": 2572,
      "Ã±": 2573,
      "Ġ[#]": 2574,
      "Medio": 2575,
      "Ġroman": 2576,
      "Ġpru": 2577,
      "Ġlonga": 2578,
      "ĠâĢĺ": 2579,
      "Ġnuna": 2580,
      "Ġaldonaj": 2581,
      "tia": 2582,
      "tuala": 2583,
      "ell": 2584,
      "ps": 2585,
      "eriko": 2586,
      "Ġkm": 2587,
      ".)": 2588,
      "ĠTh": 2589,
      "Ġlar": 2590,
      "Ġrilate": 2591,
      "ire": 2592,
      "troli": 2593,
      "siko": 2594,
      "ĠMach": 2595,
      "mov": 2596,
      "ĠBrazi": 2597,
      "ved": 2598,
      "Ġhon": 2599,
      "logia": 2600,
      "Ġpovos": 2601,
      "administrilo": 2602,
      "zanto": 2603,
      "Ġbonvolu": 2604,
      "Ġfabri": 2605,
      "áĢ": 2606,
      "Legi": 2607,
      "Ġamikoj": 2608,
      "IS": 2609,
      "Ġ2006": 2610,
      "==": 2611,
      "Ġ$": 2612,
      "Ġmalgranda": 2613,
      "taroj": 2614,
      "ulon": 2615,
      "Ġdivi": 2616,
      "Iloj": 2617,
      "Ġlisto": 2618,
      "Ġvila": 2619,
      "Ġmiaj": 2620,
      "Ġtemp": 2621,
      "Ġrevizioj": 2622,
      "ĠKrea": 2623,
      "ĠLing": 2624,
      "Ġfla": 2625,
      "baj": 2626,
      "Ġio": 2627,
      "lova": 2628,
      "kol": 2629,
      "pla": 2630,
      "198": 2631,
      "ularo": 2632,
      "Ġokazos": 2633,
      "ĠFin": 2634,
      "Ġbonaj": 2635,
      "ĠÅĿia": 2636,
      "kondiÄīe": 2637,
      "Ġlibera": 2638,
      "Ġpopula": 2639,
      "ulara": 2640,
      "gia": 2641,
      "Ġem": 2642,
      "ĠKomunaÄµo": 2643,
      "45": 2644,
      "Ġgravas": 2645,
      "ente": 2646,
      "Ġmuziko": 2647,
      "Ġiden": 2648,
      "ĠSankta": 2649,
      "dia": 2650,
      "ĠNea": 2651,
      "osiero": 2652,
      "umentoj": 2653,
      "at": 2654,
      "we": 2655,
      "Ġdatumoj": 2656,
      "iki": 2657,
      "ĠPos": 2658,
      "aluton": 2659,
      "Mar": 2660,
      "ene": 2661,
      "Ġenkon": 2662,
      "dantoj": 2663,
      "ĠPollando": 2664,
      "ĠAtribuite": 2665,
      "Ġkandida": 2666,
      "ĠuzkondiÄīojn": 2667,
      "ĠPu": 2668,
      "trepren": 2669,
      "32": 2670,
      "versi": 2671,
      "fine": 2672,
      "Ġproduktoj": 2673,
      "igra": 2674,
      "SamkondiÄīe": 2675,
      "tivo": 2676,
      "ĠdaÅŃre": 2677,
      "Ġkorpo": 2678,
      "Ġaplikeblas": 2679,
      "Ġlegi": 2680,
      "turi": 2681,
      "Malnovaj": 2682,
      "Ġkvan": 2683,
      "ĠCon": 2684,
      "Ġdevus": 2685,
      "Ġkial": 2686,
      "tere": 2687,
      "Kla": 2688,
      "dante": 2689,
      "pita": 2690,
      "Ġvidas": 2691,
      "Unu": 2692,
      "uso": 2693,
      "Ġhomojn": 2694,
      "Ġsamtempe": 2695,
      "Ġparolas": 2696,
      "ĠNun": 2697,
      "tter": 2698,
      "ĠUN": 2699,
      "Ġdom": 2700,
      "Ġfir": 2701,
      "gx": 2702,
      "ld": 2703,
      "Ġgravaj": 2704,
      "ĠEkz": 2705,
      "Ġfamilio": 2706,
      "Ġaktive": 2707,
      "Post": 2708,
      "ĠÅĿin": 2709,
      "Ġmono": 2710,
      "Lo": 2711,
      "ktado": 2712,
      "Ġtru": 2713,
      "adon": 2714,
      "ĠLon": 2715,
      "Ġverko": 2716,
      "Ġpron": 2717,
      "Ġdepen": 2718,
      "Â·": 2719,
      "Ġscienc": 2720,
      "ĠQ": 2721,
      "Ġseks": 2722,
      "Nova": 2723,
      "teks": 2724,
      "ĠNeadaptita": 2725,
      "Ġener": 2726,
      "Ġtial": 2727,
      "Ġedz": 2728,
      "flanke": 2729,
      "Ġrekomen": 2730,
      "fli": 2731,
      "porto": 2732,
      "ĠTial": 2733,
      "Kun": 2734,
      "kitaj": 2735,
      "Ġperiodo": 2736,
      "Ġprovin": 2737,
      "Ġspecia": 2738,
      "ĠMachine": 2739,
      "Ñĭ": 2740,
      "ĠNew": 2741,
      "ĠÄīam": 2742,
      "ĠJen": 2743,
      "Ġhav": 2744,
      "Ġrekon": 2745,
      "gno": 2746,
      "ĠHe": 2747,
      "Ġmaniero": 2748,
      "Ġhi": 2749,
      "Retroli": 2750,
      "Retroligoj": 2751,
      "Ġkiom": 2752,
      "ĠFreÅĿaj": 2753,
      "Ġdomo": 2754,
      "Ġmerka": 2755,
      "à´": 2756,
      "cer": 2757,
      "ando": 2758,
      "ct": 2759,
      "ĠÅĿanÄĿojMedio": 2760,
      "administriloIndekso": 2761,
      "ĠreviziojRetroligoj": 2762,
      "Ġtekni": 2763,
      "ĠRegistriÄĿi": 2764,
      "ditaj": 2765,
      "Tra": 2766,
      "Ġmale": 2767,
      "Ġspa": 2768,
      "Vidi": 2769,
      "ĠRegistriÄĿiEnsaluti": 2770,
      "Ġduon": 2771,
      "Ġtutan": 2772,
      "net": 2773,
      "taÄµo": 2774,
      "umon": 2775,
      "havo": 2776,
      "Ling": 2777,
      "Ġrenkonti": 2778,
      "Ġmova": 2779,
      "Ð·": 2780,
      "Ġbonan": 2781,
      "Ġlonge": 2782,
      "Ġtiaj": 2783,
      "Ġusona": 2784,
      "ĠaÅŃskul": 2785,
      "via": 2786,
      "proksi": 2787,
      "igon": 2788,
      "ĠRusio": 2789,
      "tary": 2790,
      "Ġsupro": 2791,
      "Ġhe": 2792,
      "Vidu": 2793,
      "teroj": 2794,
      "ÄĿintaj": 2795,
      "tsch": 2796,
      "Ġprinci": 2797,
      "Ġfeli": 2798,
      "trikto": 2799,
      "rans": 2800,
      "Ġoficiala": 2801,
      "Ri": 2802,
      "Ġrestas": 2803,
      "ĠPrezo": 2804,
      "ĠTur": 2805,
      "inon": 2806,
      "prilo": 2807,
      "Äį": 2808,
      "ĠaÅŃtoma": 2809,
      "49": 2810,
      "Ġminu": 2811,
      "Ġmeto": 2812,
      "Ġmond": 2813,
      "ĠSin": 2814,
      "loven": 2815,
      "faj": 2816,
      "lino": 2817,
      "Ð³": 2818,
      "Ġklari": 2819,
      "leo": 2820,
      "ÑĮ": 2821,
      "pojn": 2822,
      "ment": 2823,
      "Ġpensas": 2824,
      "Ali": 2825,
      "Ġzor": 2826,
      "isiono": 2827,
      "Ġcx": 2828,
      "Ġentu": 2829,
      "Ġunuaj": 2830,
      "Ġfoje": 2831,
      "Ġlingva": 2832,
      "ĠLegu": 2833,
      "intaj": 2834,
      "ĠWayback": 2835,
      "use": 2836,
      "Artiko": 2837,
      "ĠTem": 2838,
      "âĢ¢": 2839,
      "Ġlian": 2840,
      "Ġnovajn": 2841,
      "vigite": 2842,
      "Ġpol": 2843,
      "dra": 2844,
      "ĠUr": 2845,
      "77": 2846,
      "Ġfilozo": 2847,
      "antojn": 2848,
      "ciaj": 2849,
      "bis": 2850,
      "ĠEsperanta": 2851,
      "Ġviza": 2852,
      "ker": 2853,
      "Ġreli": 2854,
      "ĠRom": 2855,
      "sion": 2856,
      "tarkivo": 2857,
      "Ġvari": 2858,
      "Ġsola": 2859,
      "mer": 2860,
      "Ġmortis": 2861,
      "Ġprele": 2862,
      "Ġdefen": 2863,
      "tata": 2864,
      "brojn": 2865,
      "AÅŃ": 2866,
      "Ġvirinoj": 2867,
      "ĠpaÄĿonMalnovaj": 2868,
      "Ġverkoj": 2869,
      "Ġsufer": 2870,
      "ĠBon": 2871,
      "Ġreali": 2872,
      "ĠArkivigite": 2873,
      "book": 2874,
      "Ġurboj": 2875,
      "zar": 2876,
      "Ġvera": 2877,
      "Ġgre": 2878,
      "Ġpolitiko": 2879,
      "46": 2880,
      "milito": 2881,
      "Ġspeciala": 2882,
      "uri": 2883,
      "ĠKor": 2884,
      "ĠÄīion": 2885,
      "kipedia": 2886,
      "tek": 2887,
      "Ġesper": 2888,
      "Ġkoncern": 2889,
      "Ġfunkcias": 2890,
      "Ġretarkivo": 2891,
      "Ser": 2892,
      "ĠUniversitato": 2893,
      "unio": 2894,
      "Pre": 2895,
      "Ġinterv": 2896,
      "Ġdonas": 2897,
      "Ġpers": 2898,
      "AR": 2899,
      "58": 2900,
      "mpi": 2901,
      "bel": 2902,
      "Ġmalkov": 2903,
      "ĠÄĪar": 2904,
      "tempa": 2905,
      "70": 2906,
      "56": 2907,
      "bal": 2908,
      "zojn": 2909,
      "Ġco": 2910,
      "Ġentrepren": 2911,
      "kro": 2912,
      "vel": 2913,
      "Ġdemo": 2914,
      "Ġ000": 2915,
      "ĠFon": 2916,
      "br": 2917,
      "Ġcir": 2918,
      "Ġmesa": 2919,
      "temp": 2920,
      "Ġkafo": 2921,
      "Ġalt": 2922,
      "Ġstruk": 2923,
      "dukto": 2924,
      "Ġ50": 2925,
      "Mul": 2926,
      "ĠÄĪiuj": 2927,
      "terna": 2928,
      "Ġ--": 2929,
      "Nor": 2930,
      "Ġblan": 2931,
      "Ġeldono": 2932,
      "Ġnomon": 2933,
      "],": 2934,
      "mem": 2935,
      "legu": 2936,
      "ĠÅ": 2937,
      "diÄĿis": 2938,
      "Kio": 2939,
      "Ġhungara": 2940,
      "Ġsti": 2941,
      "osi": 2942,
      "str": 2943,
      "Bil": 2944,
      "ĪĴ": 2945,
      "Ġnecesas": 2946,
      "kaze": 2947,
      "ĠWil": 2948,
      "Ġsupo": 2949,
      "Ġunuan": 2950,
      "Ġforlas": 2951,
      "Ġviv": 2952,
      "âĨĴ": 2953,
      "gle": 2954,
      "Ġrekte": 2955,
      "Ġposed": 2956,
      "Ġmalbon": 2957,
      "Ġaser": 2958,
      "Ġ2005": 2959,
      "IN": 2960,
      "Ġhttps": 2961,
      "Ġdetru": 2962,
      "Ġdecidis": 2963,
      "rizo": 2964,
      "ans": 2965,
      "Ġmilionoj": 2966,
      "Ġdol": 2967,
      "igoj": 2968,
      "igh": 2969,
      "Ġjarojn": 2970,
      "Ġkontribuoj": 2971,
      "esperanto": 2972,
      "ĠTe": 2973,
      "Ġfebruaro": 2974,
      "Ġmalhel": 2975,
      "ĠLiber": 2976,
      "Ġdemandoj": 2977,
      "pens": 2978,
      "zono": 2979,
      "ĠMajo": 2980,
      "ger": 2981,
      "LaÅŃ": 2982,
      "joro": 2983,
      "ĠSur": 2984,
      "Ġinkluzive": 2985,
      "Ġmateri": 2986,
      "Ġproce": 2987,
      "59": 2988,
      "Ġet": 2989,
      "ĠGre": 2990,
      "Ġforma": 2991,
      "ĠEsperantujo": 2992,
      "keto": 2993,
      "Sed": 2994,
      "Ġsign": 2995,
      "gnos": 2996,
      "vantaÄĿoj": 2997,
      "graÅŃ": 2998,
      "Ġuzataj": 2999,
      "Ġfini": 3000,
      "Ġnorma": 3001,
      "kvo": 3002,
      "forma": 3003,
      "Ġinformojn": 3004,
      "Ġrifu": 3005,
      "ĠbaldaÅŃ": 3006,
      "Ġkongres": 3007,
      "Ġrestis": 3008,
      "Ġpola": 3009,
      "ktas": 3010,
      "tanto": 3011,
      "Ġinvi": 3012,
      "90": 3013,
      "tman": 3014,
      "Ð´": 3015,
      "ÅĿis": 3016,
      "Enhavo": 3017,
      "Ġanali": 3018,
      "ĠAfriko": 3019,
      "lioj": 3020,
      "Ġanon": 3021,
      "Äīis": 3022,
      "inas": 3023,
      "ÅľatiÅľati": 3024,
      "Ġpartoj": 3025,
      "ĠÅĿajnas": 3026,
      "Ġdonis": 3027,
      "Ã¨": 3028,
      "kons": 3029,
      "Par": 3030,
      "ÅŃtra": 3031,
      "lip": 3032,
      "Ġpolitika": 3033,
      "ĠMarto": 3034,
      "Ġ31": 3035,
      "trado": 3036,
      "Ġrajtoj": 3037,
      "Ġproblemo": 3038,
      "deno": 3039,
      "Ġ%": 3040,
      "Dan": 3041,
      "stre": 3042,
      "Ġfunt": 3043,
      "are": 3044,
      "Ġnomata": 3045,
      "ĠÄµus": 3046,
      "AL": 3047,
      "ĠÄĿoj": 3048,
      "Ġkonas": 3049,
      "Ġcom": 3050,
      "Ġsukcesis": 3051,
      "ĠKrome": 3052,
      "Ġparti": 3053,
      "Ġamp": 3054,
      "ĠBrazilo": 3055,
      "px": 3056,
      "âĢİ": 3057,
      "ciklo": 3058,
      "ĠOri": 3059,
      "joj": 3060,
      "edaÅŃ": 3061,
      "ĠMos": 3062,
      "tara": 3063,
      "Ġpopolo": 3064,
      "ary": 3065,
      "Ġspek": 3066,
      "Ġapo": 3067,
      "ÅĿita": 3068,
      "ĠRespubliko": 3069,
      "ĠretpoÅĿ": 3070,
      "Ġhelpas": 3071,
      "ng": 3072,
      "ska": 3073,
      "zia": 3074,
      "tecon": 3075,
      "Ġsenpage": 3076,
      "ÄĿinta": 3077,
      "Ġregistri": 3078,
      "Ġepoko": 3079,
      "cisto": 3080,
      "Ġdire": 3081,
      "Ġeviden": 3082,
      "ĠaÅŃtoro": 3083,
      "Ġmomento": 3084,
      "ft": 3085,
      "41": 3086,
      "Ġjapan": 3087,
      "Ġfarita": 3088,
      "turaj": 3089,
      "jor": 3090,
      "Ġlastaj": 3091,
      "ĠÄĿiaj": 3092,
      "ĠAd": 3093,
      "kres": 3094,
      "jon": 3095,
      "Ġmaj": 3096,
      "paÄĿo": 3097,
      "ĠEtern": 3098,
      "ĠMul": 3099,
      "No": 3100,
      "port": 3101,
      "Ġarb": 3102,
      "gante": 3103,
      "ksa": 3104,
      "ĠBel": 3105,
      "far": 3106,
      "Ġparoli": 3107,
      "Ġenhavo": 3108,
      "Ġdoni": 3109,
      "Ġkontin": 3110,
      "ĠTiel": 3111,
      "ĠNu": 3112,
      "Ġdipl": 3113,
      "Ġ;": 3114,
      "cie": 3115,
      "Ġkompon": 3116,
      "urnal": 3117,
      "EL": 3118,
      "Ġretej": 3119,
      "fan": 3120,
      "75": 3121,
      "Ġsocia": 3122,
      "inda": 3123,
      "Ġartikolon": 3124,
      "Ġgla": 3125,
      "Ven": 3126,
      "lern": 3127,
      "tiÄĿas": 3128,
      "inaj": 3129,
      "88": 3130,
      "Ġtraduko": 3131,
      "vid": 3132,
      "Ġgrave": 3133,
      "Ġantik": 3134,
      "lezio": 3135,
      "ĠJam": 3136,
      "dika": 3137,
      "formo": 3138,
      "ĠUK": 3139,
      "Ġredak": 3140,
      "dukis": 3141,
      "Ġvenas": 3142,
      "ĠVen": 3143,
      "eks": 3144,
      "vil": 3145,
      "Ġpriva": 3146,
      "Ġkondu": 3147,
      "Ġaparte": 3148,
      "ÄĿan": 3149,
      "ĠOktobro": 3150,
      "ĠKomunejo": 3151,
      "Ġklare": 3152,
      "ĠÄīefurbo": 3153,
      "terio": 3154,
      "Ġforges": 3155,
      "IV": 3156,
      "liber": 3157,
      "istemo": 3158,
      "ĠOn": 3159,
      "Ġkomenco": 3160,
      "Ġhoma": 3161,
      "estoj": 3162,
      "cejo": 3163,
      "fte": 3164,
      "ĠUkra": 3165,
      "ley": 3166,
      "Saluton": 3167,
      "ilon": 3168,
      "cal": 3169,
      "Ġinfan": 3170,
      "Ġth": 3171,
      "Ġbezon": 3172,
      "Ġreta": 3173,
      "igos": 3174,
      "Ġelsta": 3175,
      "Kategorio": 3176,
      "ĠEle": 3177,
      "Ġtria": 3178,
      "ligo": 3179,
      "ĠTiuj": 3180,
      "Ġvojo": 3181,
      "Ġlerni": 3182,
      "cebook": 3183,
      "Ġtien": 3184,
      "iro": 3185,
      "Ġuzis": 3186,
      ");": 3187,
      "43": 3188,
      "ose": 3189,
      "Fa": 3190,
      "76": 3191,
      "ĠJan": 3192,
      "ĠÄīees": 3193,
      "51": 3194,
      "86": 3195,
      "Ġlingvaj": 3196,
      "rila": 3197,
      "ĠverÅĿajne": 3198,
      "Ġkonsen": 3199,
      "ordina": 3200,
      "Ġiun": 3201,
      "Ġkomprenas": 3202,
      "Ġkoncep": 3203,
      "ĠHen": 3204,
      "Ġfizi": 3205,
      "Ġ||": 3206,
      "int": 3207,
      "ÄĿer": 3208,
      "ÄĿus": 3209,
      "Ġima": 3210,
      "ĠâĨĴ": 3211,
      "Ġdemokra": 3212,
      "Ġhor": 3213,
      "Ġdeziras": 3214,
      "Ġplenum": 3215,
      "Ġservo": 3216,
      "Ġdiversajn": 3217,
      "ĠLan": 3218,
      "onika": 3219,
      "permes": 3220,
      "gip": 3221,
      "Ġcon": 3222,
      "Ġtempon": 3223,
      "Kiam": 3224,
      "Per": 3225,
      "fir": 3226,
      "ew": 3227,
      "Ġanka": 3228,
      "tikaj": 3229,
      "doni": 3230,
      "Ġekvi": 3231,
      "cy": 3232,
      "aso": 3233,
      "Ver": 3234,
      "Klarigo": 3235,
      "gy": 3236,
      "Ġvivon": 3237,
      "ctory": 3238,
      "Ġsituacio": 3239,
      "tria": 3240,
      "ĠAra": 3241,
      "AntaÅŃ": 3242,
      "php": 3243,
      "zy": 3244,
      "umento": 3245,
      "listo": 3246,
      "Ġliteraturo": 3247,
      "Ġlokoj": 3248,
      "ĠFebruaro": 3249,
      "cs": 3250,
      "Ġmult": 3251,
      "42": 3252,
      "pio": 3253,
      "Ġmalb": 3254,
      "ĠAntaÅŃ": 3255,
      "Di": 3256,
      "Ġjuna": 3257,
      "laÅŃ": 3258,
      "keco": 3259,
      "Sek": 3260,
      "Ġrajtas": 3261,
      "Ġblo": 3262,
      "Ġmalo": 3263,
      "Ġdisvolvi": 3264,
      "ĠParizo": 3265,
      "Ġcelas": 3266,
      "Historio": 3267,
      "plan": 3268,
      "Ð¿": 3269,
      "Ġcxi": 3270,
      "tali": 3271,
      "Ġekzamen": 3272,
      "Ġrilatoj": 3273,
      "ElÅĿu": 3274,
      "Ġresponde": 3275,
      "Ġesta": 3276,
      "Ãł": 3277,
      "ĠÄĿenerala": 3278,
      "utsch": 3279,
      "Ã¢": 3280,
      "Ġple": 3281,
      "Ġrevolu": 3282,
      "The": 3283,
      "omb": 3284,
      "ĠImper": 3285,
      "Ġatingi": 3286,
      "ĠPla": 3287,
      "kompren": 3288,
      "Ġris": 3289,
      "beto": 3290,
      "Äľi": 3291,
      "Ġagnos": 3292,
      "ĠEternulo": 3293,
      "ĠÄīes": 3294,
      "ĠCa": 3295,
      "Ġisla": 3296,
      "ĠPoli": 3297,
      "feren": 3298,
      "ĠCar": 3299,
      "Ġdisting": 3300,
      "Ġaso": 3301,
      "ete": 3302,
      "ĠBen": 3303,
      "Ġverkisto": 3304,
      "ff": 3305,
      "traj": 3306,
      "ezio": 3307,
      "ction": 3308,
      "Ġrespondis": 3309,
      "Ġgajn": 3310,
      "ĠOrgani": 3311,
      "tana": 3312,
      "×Ļ": 3313,
      "gajn": 3314,
      "ĠÄīa": 3315,
      "ĠAprilo": 3316,
      "ĠNova": 3317,
      "ĠSam": 3318,
      "ation": 3319,
      "Ġini": 3320,
      "Ġmalvar": 3321,
      "Ġstatu": 3322,
      "ĠUnio": 3323,
      "gre": 3324,
      "Ġhispana": 3325,
      "79": 3326,
      "fia": 3327,
      "ĠhaÅŃ": 3328,
      "Ġnen": 3329,
      "Ġiris": 3330,
      "terialo": 3331,
      "ĠUnui": 3332,
      "utmon": 3333,
      "Ġekonomi": 3334,
      "Ġapartenas": 3335,
      "Ġvolis": 3336,
      "cx": 3337,
      "tokolo": 3338,
      "Ġkonsistas": 3339,
      "Ha": 3340,
      "à®": 3341,
      "Ġeten": 3342,
      "ĠLern": 3343,
      "2021": 3344,
      "ais": 3345,
      "ĠHispanio": 3346,
      "Ġsom": 3347,
      "tulo": 3348,
      "Ġx": 3349,
      "Ġreligi": 3350,
      "data": 3351,
      "Ġtrin": 3352,
      "ĠEsperantista": 3353,
      "LE": 3354,
      "For": 3355,
      "tuga": 3356,
      "kademio": 3357,
      "Ġuson": 3358,
      "Ġuzado": 3359,
      "ÄĿejo": 3360,
      "ill": 3361,
      "Ġdiskon": 3362,
      "ĠMin": 3363,
      "formoj": 3364,
      "Ġuzanto": 3365,
      "dato": 3366,
      "lamento": 3367,
      "ĠaÅŃtor": 3368,
      "duko": 3369,
      "54": 3370,
      "ĠNeder": 3371,
      "ĠDem": 3372,
      "Ä¥a": 3373,
      "89": 3374,
      "Ġnepre": 3375,
      "berg": 3376,
      "Legu": 3377,
      "ĠPress": 3378,
      "Ġampleks": 3379,
      "Ġdel": 3380,
      "Ġfak": 3381,
      "ĠLin": 3382,
      "Ġpropono": 3383,
      "Ġsep": 3384,
      "Ġani": 3385,
      "ya": 3386,
      "ĠSud": 3387,
      "ÅĿas": 3388,
      "Äīu": 3389,
      "Ġara": 3390,
      "ika": 3391,
      "ĠRotary": 3392,
      "http": 3393,
      "ĠPoste": 3394,
      "ä¸": 3395,
      "ĠKategorio": 3396,
      "Ġ40": 3397,
      "Ġligilo": 3398,
      "atal": 3399,
      "53": 3400,
      "Äīaj": 3401,
      "hu": 3402,
      "elkaj": 3403,
      "Ġrusa": 3404,
      "ĠIJ": 3405,
      "Ġpublika": 3406,
      "Ġmalsamaj": 3407,
      "Ġbela": 3408,
      "ĠItalio": 3409,
      "Ġdirek": 3410,
      "ĠloÄĿantoj": 3411,
      "Ġnas": 3412,
      "op": 3413,
      "dri": 3414,
      "Ġricevi": 3415,
      "Ġinstitu": 3416,
      "ĠUniversi": 3417,
      "Ġinsta": 3418,
      "Ġstrate": 3419,
      "Estas": 3420,
      "index": 3421,
      "Bon": 3422,
      "69": 3423,
      "Ġrevuo": 3424,
      "komuni": 3425,
      "Ġlis": 3426,
      "teko": 3427,
      "ingo": 3428,
      "ĠMala": 3429,
      "Ġkreis": 3430,
      "Ġ2004": 3431,
      "Ġtrov": 3432,
      "ĠâĢ¦": 3433,
      "Ġbio": 3434,
      "ĠJohn": 3435,
      "Ġrivero": 3436,
      "Ro": 3437,
      "Ġspiri": 3438,
      "Ġobser": 3439,
      "Ġnuntempe": 3440,
      "ĠpoÅĿ": 3441,
      "gantoj": 3442,
      "Ta": 3443,
      "esta": 3444,
      "Ġpartoprenis": 3445,
      "Ġcentro": 3446,
      "dejo": 3447,
      "econ": 3448,
      "Ã³n": 3449,
      "lantaÅŃ": 3450,
      "Ġkapita": 3451,
      "âĢ¦]": 3452,
      "blas": 3453,
      "ĠÄīefaj": 3454,
      "Ġfaj": 3455,
      "ĠMas": 3456,
      "Î»": 3457,
      "ĠBe": 3458,
      "legi": 3459,
      "Ġege": 3460,
      "Ðĳ": 3461,
      "belo": 3462,
      "zeo": 3463,
      "Ġkonfli": 3464,
      "Ġtero": 3465,
      "orto": 3466,
      "rich": 3467,
      "Ġaku": 3468,
      "Ġpartopreni": 3469,
      "ĠAu": 3470,
      "Ġeki": 3471,
      "ĠÅĿar": 3472,
      "Na": 3473,
      "Ġdemandis": 3474,
      "Ġplena": 3475,
      "peri": 3476,
      "Ġsemajn": 3477,
      "han": 3478,
      "Ġpotenco": 3479,
      "ÛĮ": 3480,
      "Ġhoroj": 3481,
      "Ġlaboron": 3482,
      "ÅĿino": 3483,
      "mig": 3484,
      "Ġtito": 3485,
      "fero": 3486,
      "Ġdese": 3487,
      "tz": 3488,
      "verse": 3489,
      "Ñĩ": 3490,
      "uroj": 3491,
      "Ġia": 3492,
      "alie": 3493,
      "nam": 3494,
      "Ġ2000": 3495,
      "Ġ[âĢ¦]": 3496,
      "RI": 3497,
      "emoj": 3498,
      "Ġkas": 3499,
      "ĠÅĿtatoj": 3500,
      "Ġalpor": 3501,
      "Ġelekto": 3502,
      "ĠAleks": 3503,
      "Ġsendi": 3504,
      "Ġsekure": 3505,
      "victory": 3506,
      "Ġbir": 3507,
      "Ġgrupoj": 3508,
      "Ġordon": 3509,
      "Ġskribis": 3510,
      "ĠStu": 3511,
      "Ġnacia": 3512,
      "tele": 3513,
      "Ġoper": 3514,
      "Ãº": 3515,
      "dire": 3516,
      "Ġperfek": 3517,
      "ejon": 3518,
      "Ġrakontas": 3519,
      "72": 3520,
      "Ġpatrino": 3521,
      "turoj": 3522,
      "Ġpropran": 3523,
      "Ġfrem": 3524,
      "Ġstari": 3525,
      "Ġalvo": 3526,
      "Ġeventoj": 3527,
      "Ġopinias": 3528,
      "Ġresta": 3529,
      "Ġrela": 3530,
      "Ġrolon": 3531,
      "Afri": 3532,
      "pg": 3533,
      "vano": 3534,
      "Ġteamo": 3535,
      "Ġatingis": 3536,
      "Ġeksci": 3537,
      "bojn": 3538,
      "ĠTiam": 3539,
      "pov": 3540,
      "User": 3541,
      "cistoj": 3542,
      "Ġtrovas": 3543,
      "form": 3544,
      "rinde": 3545,
      "Ġmalnova": 3546,
      "ÄĿanta": 3547,
      "blio": 3548,
      "centoj": 3549,
      "multo": 3550,
      "lini": 3551,
      "ced": 3552,
      "Ġkredas": 3553,
      "cu": 3554,
      "fre": 3555,
      "Ġfal": 3556,
      "je": 3557,
      "tel": 3558,
      "ĠHer": 3559,
      "Ġverkis": 3560,
      "intoj": 3561,
      "fono": 3562,
      "wikipedia": 3563,
      "Ġfilmo": 3564,
      "daÄµo": 3565,
      "Ġ189": 3566,
      "Ġtrejn": 3567,
      "Ġligilojn": 3568,
      "èª": 3569,
      "Ġnenion": 3570,
      "ume": 3571,
      "mapo": 3572,
      "punkto": 3573,
      "Ġlibroj": 3574,
      "Ġdemando": 3575,
      "rigar": 3576,
      "Ġtagon": 3577,
      "Ġhar": 3578,
      "ĠantaÅŃa": 3579,
      "Ġapara": 3580,
      "Ġjus": 3581,
      "Ġkonten": 3582,
      "57": 3583,
      "ĠĠĠĠ": 3584,
      "52": 3585,
      "Ġedukado": 3586,
      "ERGO": 3587,
      "ĠKol": 3588,
      "ompan": 3589,
      "ĠdaÅŃri": 3590,
      "ĠSvis": 3591,
      "Ġdeks": 3592,
      "rapi": 3593,
      "ham": 3594,
      "ork": 3595,
      "Ġkompreni": 3596,
      "ĠVo": 3597,
      "zaiko": 3598,
      "tadon": 3599,
      "ĠCentra": 3600,
      "Mon": 3601,
      "ï»": 3602,
      "Ð¼": 3603,
      "ĠEx": 3604,
      "ĠAÅŃgusto": 3605,
      "Ġmeze": 3606,
      "ĠeÅŃ": 3607,
      "ĠBul": 3608,
      "Ġokuloj": 3609,
      "delo": 3610,
      "Ġceloj": 3611,
      "TE": 3612,
      "Ġmonatoj": 3613,
      "Ġvirino": 3614,
      "Ġoriginalo": 3615,
      "pari": 3616,
      "Ġsimpla": 3617,
      "Ġinteresa": 3618,
      "ï»¿": 3619,
      "tional": 3620,
      "ulino": 3621,
      "ciklop": 3622,
      "ĠBal": 3623,
      "adio": 3624,
      "Ġkolekti": 3625,
      "Ġpez": 3626,
      "monato": 3627,
      "Ġproblemoj": 3628,
      "Ġproksimume": 3629,
      "title": 3630,
      "Ġprofile": 3631,
      "Ġgu": 3632,
      "tike": 3633,
      "ĠloÄĿantaro": 3634,
      "Ã¼r": 3635,
      "ĠÄīina": 3636,
      "fiko": 3637,
      "ĠKonsi": 3638,
      "ganto": 3639,
      "Ġhal": 3640,
      "try": 3641,
      "Ġarmeo": 3642,
      "Ġstran": 3643,
      "lantoj": 3644,
      "ĠBur": 3645,
      "Ġgener": 3646,
      "mani": 3647,
      "mio": 3648,
      "Ġtraj": 3649,
      "Ġareo": 3650,
      "Ġvortojn": 3651,
      "tari": 3652,
      "Ġforta": 3653,
      "ãĥ": 3654,
      "ĠÄľen": 3655,
      "zu": 3656,
      "ĠNur": 3657,
      "ĠGa": 3658,
      "Ġsituas": 3659,
      "kulo": 3660,
      "ĠPra": 3661,
      "ĠÄĪiu": 3662,
      "turon": 3663,
      "cel": 3664,
      "ĠUTC": 3665,
      "Ġproksime": 3666,
      "Ġforte": 3667,
      "riel": 3668,
      "orld": 3669,
      "lian": 3670,
      "ĠAng": 3671,
      "yn": 3672,
      "Ġakompan": 3673,
      "Ġcel": 3674,
      "ĠJulio": 3675,
      "stro": 3676,
      "Ġvali": 3677,
      "ĠPlej": 3678,
      "ĠLia": 3679,
      "ĠafiÅĿo": 3680,
      "èªŀ": 3681,
      "ĠBritio": 3682,
      "rante": 3683,
      "ĠIndon": 3684,
      "lekto": 3685,
      "Ġkoro": 3686,
      "Ġfrue": 3687,
      "ĠJunulara": 3688,
      "ÅĦ": 3689,
      "ĠVil": 3690,
      "bar": 3691,
      "duktoj": 3692,
      "Ġvenon": 3693,
      "ĠEkzemple": 3694,
      "Ġreven": 3695,
      "ĠHar": 3696,
      "hr": 3697,
      "igni": 3698,
      "ĠmanÄĿa": 3699,
      "emon": 3700,
      "ĠGi": 3701,
      "Â²": 3702,
      "oldi": 3703,
      "ĠÂ·": 3704,
      "[[": 3705,
      "ĠKomitato": 3706,
      "ĠNovembro": 3707,
      "Las": 3708,
      "Ġaldoni": 3709,
      "Ġran": 3710,
      "ĠKul": 3711,
      "ĠnaskiÄĿis": 3712,
      "daro": 3713,
      "litaj": 3714,
      "zidanto": 3715,
      "ĠUniversity": 3716,
      "long": 3717,
      "Ġbatalo": 3718,
      "Äīoj": 3719,
      "Ġarki": 3720,
      "Ġintervju": 3721,
      "KU": 3722,
      "ĠPas": 3723,
      "Liked": 3724,
      "Ġlaboris": 3725,
      "ÙĬ": 3726,
      "ĠUniversala": 3727,
      "ÅľatiLiked": 3728,
      "jpg": 3729,
      "Ġkurso": 3730,
      "tempo": 3731,
      "Ġevento": 3732,
      "arsov": 3733,
      "Ġfavor": 3734,
      "ElÅĿutita": 3735,
      "?âĢĿ": 3736,
      "Ġmini": 3737,
      "Artikolo": 3738,
      "uraj": 3739,
      "Ġcentra": 3740,
      "grafi": 3741,
      "Ġnivelo": 3742,
      "Ġau": 3743,
      "Ġparton": 3744,
      "Oni": 3745,
      "ĠHistor": 3746,
      "Eksteraj": 3747,
      "Ġproponas": 3748,
      "Ġmoderna": 3749,
      "ue": 3750,
      "Ġbor": 3751,
      "Ġpopoloj": 3752,
      "ĠCor": 3753,
      "Ġrezulto": 3754,
      "Pe": 3755,
      "âĪĴ": 3756,
      "ligas": 3757,
      "Ġkonsid": 3758,
      "ĠNacioj": 3759,
      "----": 3760,
      "forto": 3761,
      "Ġ20111": 3762,
      "Ġgrande": 3763,
      "Ã¥": 3764,
      "Ġgepa": 3765,
      "Ġedzino": 3766,
      "ĠKio": 3767,
      "Pol": 3768,
      "Ġbele": 3769,
      "ktis": 3770,
      "ĠTri": 3771,
      "ung": 3772,
      "Ġkonvin": 3773,
      "ÄĿado": 3774,
      "ato": 3775,
      "ner": 3776,
      "hat": 3777,
      "zajn": 3778,
      "mail": 3779,
      "ĠBan": 3780,
      "Ġarg": 3781,
      "tivaj": 3782,
      "Ġfinfine": 3783,
      "TA": 3784,
      "witter": 3785,
      "gramo": 3786,
      "Ġkanto": 3787,
      "Ġpostulas": 3788,
      "Ġpp": 3789,
      "Ġeta": 3790,
      "voja": 3791,
      "Ġdra": 3792,
      "Ġpaco": 3793,
      "ĠSoci": 3794,
      "ĠTago": 3795,
      "ĠJapanio": 3796,
      "paÃ±": 3797,
      "teron": 3798,
      "pil": 3799,
      "Ġteritorio": 3800,
      "Ġapro": 3801,
      "Ġvivas": 3802,
      "Bildo": 3803,
      "Ġminis": 3804,
      "Ġnaj": 3805,
      "ÅĿta": 3806,
      "Ġminutoj": 3807,
      "nis": 3808,
      "ms": 3809,
      "Ġmalami": 3810,
      "ĠKvankam": 3811,
      "Ġskribi": 3812,
      "ĠReda": 3813,
      "Ġprojektoj": 3814,
      "Ġsubskri": 3815,
      "Ġim": 3816,
      "ĠmalantaÅŃ": 3817,
      "ĠJanuaro": 3818,
      "Ġgravan": 3819,
      "ĠEr": 3820,
      "ĠVa": 3821,
      "Ġakiri": 3822,
      "Ġprezo": 3823,
      "Ġflanko": 3824,
      "Ġsimbo": 3825,
      "74": 3826,
      "ther": 3827,
      "oldid": 3828,
      "Bi": 3829,
      "Kategorioj": 3830,
      "ĠWi": 3831,
      "ĠRen": 3832,
      "Mo": 3833,
      "ligen": 3834,
      "burgo": 3835,
      "erojn": 3836,
      "Sen": 3837,
      "bin": 3838,
      "DE": 3839,
      "âĢ³": 3840,
      "Ġinicia": 3841,
      "ungario": 3842,
      "dilo": 3843,
      "Ġprovinco": 3844,
      "Ġricevas": 3845,
      "ĠKongres": 3846,
      "medoj": 3847,
      "acion": 3848,
      "Ġkaf": 3849,
      "Ġkomuna": 3850,
      "64": 3851,
      "miÄĿis": 3852,
      "Ġbalo": 3853,
      "ĠEU": 3854,
      "ĠÅĿatas": 3855,
      "Ġkategorio": 3856,
      "Ġokul": 3857,
      "ĠVol": 3858,
      "enoj": 3859,
      "Ġmaldek": 3860,
      "nes": 3861,
      "vera": 3862,
      "ĠEnglish": 3863,
      "kiel": 3864,
      "ĠAkademio": 3865,
      "Ġmina": 3866,
      "ĠEble": 3867,
      "vante": 3868,
      "Ġsal": 3869,
      "ĠaÄīeti": 3870,
      "ciojn": 3871,
      "ĠNord": 3872,
      "Ãª": 3873,
      "blan": 3874,
      "Ġ2003": 3875,
      "Or": 3876,
      "Ġprogres": 3877,
      "stancoj": 3878,
      "angle": 3879,
      "Ġkongreso": 3880,
      "Ġtrankvi": 3881,
      "English": 3882,
      "ĠGranda": 3883,
      "Fi": 3884,
      "ï¼": 3885,
      "toso": 3886,
      "up": 3887,
      "okra": 3888,
      "ĠHin": 3889,
      "68": 3890,
      "poli": 3891,
      "Ġdistan": 3892,
      "cajn": 3893,
      "ĠdediÄī": 3894,
      "Ġmalfacile": 3895,
      "gulo": 3896,
      "Ġ)": 3897,
      "Ġord": 3898,
      "Ġradio": 3899,
      "mata": 3900,
      "Ġpartio": 3901,
      "ovi": 3902,
      "Ġkatoli": 3903,
      "Ġvan": 3904,
      "Ġniajn": 3905,
      "tugu": 3906,
      "ÙĦ": 3907,
      "ĠLegi": 3908,
      "mos": 3909,
      "Ġjes": 3910,
      "Ġfakto": 3911,
      "oris": 3912,
      "Ġfama": 3913,
      "ĠGeor": 3914,
      "ĠSeptembro": 3915,
      "Ġmalpermes": 3916,
      "tantaj": 3917,
      "ĠVikimedia": 3918,
      "lua": 3919,
      "jare": 3920,
      "Wiki": 3921,
      "ĢÕ": 3922,
      "Ġ2002": 3923,
      "mb": 3924,
      "ĠEd": 3925,
      "Ġsendu": 3926,
      "Ġch": 3927,
      "lida": 3928,
      "Ġtian": 3929,
      "ĠSh": 3930,
      "eca": 3931,
      "Ġtempera": 3932,
      "ĠTer": 3933,
      "takto": 3934,
      "ĠHistorio": 3935,
      "Ġtransi": 3936,
      "Ġmalri": 3937,
      "Ġ''": 3938,
      "Ġmalfacila": 3939,
      "ĠKe": 3940,
      "chen": 3941,
      "Ã§ais": 3942,
      "Ġripe": 3943,
      "Ġprogram": 3944,
      "Ġ!": 3945,
      "titu": 3946,
      "Ġaktiva": 3947,
      "Ġfam": 3948,
      "67": 3949,
      "ĠMia": 3950,
      "Ġviro": 3951,
      "AÄīe": 3952,
      "by": 3953,
      "+]": 3954,
      "ciklopedio": 3955,
      "ĠMem": 3956,
      "Ġteor": 3957,
      "Ġkomence": 3958,
      "ME": 3959,
      "Ġaktiv": 3960,
      "ĠloÄĿas": 3961,
      "VI": 3962,
      "uea": 3963,
      "edo": 3964,
      "Ġron": 3965,
      "Ġ[+]": 3966,
      "esperan": 3967,
      "Ġnaturo": 3968,
      "Ġimperi": 3969,
      "{{": 3970,
      "Ø§Ø±Ø": 3971,
      "Ġsuges": 3972,
      "Ġlitera": 3973,
      "reo": 3974,
      "Ġhelpo": 3975,
      "Ġplibonigi": 3976,
      "fis": 3977,
      "Ġanta": 3978,
      "kcidento": 3979,
      "tuloj": 3980,
      "Ġgrama": 3981,
      "87": 3982,
      "Ġinterna": 3983,
      "Ġiri": 3984,
      "zado": 3985,
      "tebla": 3986,
      "Ġnes": 3987,
      "gro": 3988,
      "mitaj": 3989,
      "Ġplene": 3990,
      "ĠDosiero": 3991,
      "Ġmalgrandaj": 3992,
      "Ġlokon": 3993,
      "kcidenta": 3994,
      "kal": 3995,
      "damen": 3996,
      "ĠâĢĿ": 3997,
      "kurso": 3998,
      "Asocio": 3999,
      "Ġkoncer": 4000,
      "OR": 4001,
      "kiloj": 4002,
      "Ġstato": 4003,
      "ĠÂ°": 4004,
      "ĠriÄīa": 4005,
      "Ġkonservi": 4006,
      "Ci": 4007,
      "ret": 4008,
      "Jen": 4009,
      "mm": 4010,
      "Ġkomputi": 4011,
      "lingvaj": 4012,
      "ĠDecembro": 4013,
      "Ġafri": 4014,
      "ĠEkde": 4015,
      "Ġhelpis": 4016,
      "Ġpensis": 4017,
      "landaj": 4018,
      "usa": 4019,
      "ĠImperio": 4020,
      "ĠUnuiÄĿintaj": 4021,
      "Jo": 4022,
      "Ġnekon": 4023,
      "ĠCe": 4024,
      "TT": 4025,
      "Ġago": 4026,
      "Ġho": 4027,
      "iri": 4028,
      "igante": 4029,
      "Ġparolis": 4030,
      "majn": 4031,
      "ĠÄīiun": 4032,
      "ĠVal": 4033,
      "Ġbra": 4034,
      "65": 4035,
      "etoj": 4036,
      "Ġokupi": 4037,
      "emi": 4038,
      "ĠVirtuala": 4039,
      "vido": 4040,
      "Ġesperantis": 4041,
      "ÙĪ": 4042,
      "Ġoficia": 4043,
      "Ġmalpe": 4044,
      "Ġloka": 4045,
      "arki": 4046,
      "Ġtekno": 4047,
      "Ġitala": 4048,
      "Ġ500": 4049,
      "ĠVarsov": 4050,
      "Ġkompreneble": 4051,
      "Ġtaks": 4052,
      "omati": 4053,
      "Ġvalor": 4054,
      "Ġprodukti": 4055,
      "Ġkomentoj": 4056,
      "Ġklubo": 4057,
      "Ġdun": 4058,
      "Ġgaran": 4059,
      "ĠÅĿajne": 4060,
      "burg": 4061,
      "Ġforigi": 4062,
      "unda": 4063,
      "Esperan": 4064,
      "Ġviroj": 4065,
      "ĠÅľablono": 4066,
      "Ġprodukto": 4067,
      "ÅĿutu": 4068,
      "tta": 4069,
      "ligita": 4070,
      "Ġforto": 4071,
      "Ġiomete": 4072,
      "ny": 4073,
      "Ġepi": 4074,
      "ganta": 4075,
      "cem": 4076,
      "Ġevoluo": 4077,
      "85": 4078,
      "Lu": 4079,
      "Ġmontris": 4080,
      "ĠUzanto": 4081,
      "ak": 4082,
      "ĠMek": 4083,
      "Ġsignifo": 4084,
      "Ġkorek": 4085,
      "Ġmodern": 4086,
      "Ur": 4087,
      "AÄīetu": 4088,
      "ĠMor": 4089,
      "ĠÄ´": 4090,
      "eso": 4091,
      "Ġscii": 4092,
      "Ġkonsta": 4093,
      "ĠPola": 4094,
      "!âĢĿ": 4095,
      "Ġkonsci": 4096,
      "Ġekonomia": 4097,
      "ĠEsperantistoj": 4098,
      "Ġamo": 4099,
      "Ġsentas": 4100,
      "fini": 4101,
      "lands": 4102,
      "zistas": 4103,
      "UN": 4104,
      "kuli": 4105,
      "Ġliver": 4106,
      "ĠOfi": 4107,
      "Ġkonfir": 4108,
      "cado": 4109,
      "Ġarto": 4110,
      "ĠNacia": 4111,
      "Ġmalfru": 4112,
      "Ġado": 4113,
      "debla": 4114,
      "zitaj": 4115,
      "Ġtermin": 4116,
      "à¸": 4117,
      "grupo": 4118,
      "longe": 4119,
      "Co": 4120,
      "htm": 4121,
      "ovet": 4122,
      "dli": 4123,
      "ĠMedia": 4124,
      "ĠBos": 4125,
      "Ġinformo": 4126,
      "Ġformoj": 4127,
      "esti": 4128,
      "Ġplurajn": 4129,
      "Ġnum": 4130,
      "Ġvun": 4131,
      "Ġnatura": 4132,
      "ĠCer": 4133,
      "Ġregionoj": 4134,
      "ĠJunio": 4135,
      "row": 4136,
      "ÐºÐ°": 4137,
      "Ġsekva": 4138,
      "Äīon": 4139,
      "Â».": 4140,
      "ĠTre": 4141,
      "Ġvidu": 4142,
      "MO": 4143,
      "Ġcifer": 4144,
      "traro": 4145,
      "au": 4146,
      "eÅ¡": 4147,
      "Ġmalfor": 4148,
      "pozicio": 4149,
      "ĠEgip": 4150,
      "kle": 4151,
      "kap": 4152,
      "Ġsekreta": 4153,
      "dy": 4154,
      "umado": 4155,
      "bita": 4156,
      "Ġokcidenta": 4157,
      "LI": 4158,
      "Ġvesper": 4159,
      "vole": 4160,
      "Ġelsen": 4161,
      "Ä¥o": 4162,
      "inita": 4163,
      "eta": 4164,
      "digi": 4165,
      "ĠEks": 4166,
      "miÄĿas": 4167,
      "æľ": 4168,
      "Ġ(\"": 4169,
      "movado": 4170,
      "ĠIJK": 4171,
      "Ġleg": 4172,
      "Ġlaboras": 4173,
      "Ġestraro": 4174,
      "Ġ#": 4175,
      "traÅŃ": 4176,
      "Jun": 4177,
      "kaÄµoj": 4178,
      "100": 4179,
      "Ġkro": 4180,
      "ĠTutmon": 4181,
      "Ġpromes": 4182,
      "all": 4183,
      "ster": 4184,
      "kalo": 4185,
      "ĠKial": 4186,
      "Ġkopi": 4187,
      "Ġorgan": 4188,
      "uron": 4189,
      "omon": 4190,
      "ĠAzio": 4191,
      "diÄĿas": 4192,
      "Ġinteralie": 4193,
      "Ġeviti": 4194,
      "Ġdistrikto": 4195,
      "Ġinsti": 4196,
      "LA": 4197,
      "spa": 4198,
      "Ġtroveblas": 4199,
      "Ġsekve": 4200,
      "tiÄĿi": 4201,
      "Ġfina": 4202,
      "Ġmankas": 4203,
      "ilojn": 4204,
      "Ġhoro": 4205,
      "venon": 4206,
      "Ġorganizo": 4207,
      "Ġsociaj": 4208,
      "ploj": 4209,
      "paÃ±ol": 4210,
      "Ġredaktita": 4211,
      "ĠSal": 4212,
      "×Ļ×": 4213,
      "rian": 4214,
      "ĠÎ": 4215,
      "Ġkriti": 4216,
      "ĠFinn": 4217,
      "hasa": 4218,
      "medaj": 4219,
      "roni": 4220,
      "milo": 4221,
      "Ñı": 4222,
      "ĠNederlando": 4223,
      "Ġgeo": 4224,
      "ktaj": 4225,
      "Ġvorton": 4226,
      "Do": 4227,
      "ĠrulseÄĿo": 4228,
      "esko": 4229,
      "konto": 4230,
      "uzi": 4231,
      "Ġstri": 4232,
      "Ġnomoj": 4233,
      "tismo": 4234,
      "trimedaj": 4235,
      "Ġfonto": 4236,
      "andro": 4237,
      "Multrimedaj": 4238,
      "Ġunuo": 4239,
      "ky": 4240,
      "Ġben": 4241,
      "Ġsango": 4242,
      "Hel": 4243,
      "æĸ": 4244,
      "ablon": 4245,
      "Ġniv": 4246,
      "Ġparola": 4247,
      "Nov": 4248,
      "ÑĥÑģ": 4249,
      "Pos": 4250,
      "omas": 4251,
      "Ġsaman": 4252,
      "Ġsp": 4253,
      "Ġgar": 4254,
      "ĠFer": 4255,
      "ĠTaj": 4256,
      "So": 4257,
      "ĠLas": 4258,
      "Ġpartoprenantoj": 4259,
      "Ju": 4260,
      "uti": 4261,
      "Nun": 4262,
      "Ġduo": 4263,
      "2020": 4264,
      "bile": 4265,
      "Ġscen": 4266,
      "Ġprez": 4267,
      "Ġ2001": 4268,
      "Ġprizor": 4269,
      "Ġmet": 4270,
      "Äījo": 4271,
      "ĠSub": 4272,
      "Ġentute": 4273,
      "Ġbran": 4274,
      "ji": 4275,
      "har": 4276,
      "ong": 4277,
      "ĠInstitu": 4278,
      "ftaj": 4279,
      "kara": 4280,
      "Ġ1990": 4281,
      "lion": 4282,
      "Ġtea": 4283,
      "ĠPan": 4284,
      "____": 4285,
      "Sa": 4286,
      "Ġproduktado": 4287,
      "eniu": 4288,
      "73": 4289,
      "Ġkontakto": 4290,
      "Ġsurfa": 4291,
      "Ġsekso": 4292,
      "Ġelektis": 4293,
      "Ġder": 4294,
      "Ġdokumen": 4295,
      "Ġefektive": 4296,
      "ĠreÄĿi": 4297,
      "Ġsciis": 4298,
      "Ġkarakteri": 4299,
      "tiga": 4300,
      "Ġamiko": 4301,
      "ĠTu": 4302,
      "Ġtutmonda": 4303,
      "tikisto": 4304,
      "71": 4305,
      "Ġekzemplo": 4306,
      "à¥Ģ": 4307,
      "ĠÅĿanÄĿo": 4308,
      "iris": 4309,
      "ĠKons": 4310,
      "ĠAliaj": 4311,
      "à¨": 4312,
      "lubo": 4313,
      "karo": 4314,
      "Ġinterkon": 4315,
      "ĠBla": 4316,
      "Plej": 4317,
      "ktojn": 4318,
      "Ġlong": 4319,
      "blioteko": 4320,
      "Ġspaco": 4321,
      "Ġmonon": 4322,
      "Ġuzantoj": 4323,
      "Ġmaro": 4324,
      "63": 4325,
      "Nia": 4326,
      "Ġsto": 4327,
      "ĠIru": 4328,
      "ll": 4329,
      "Ġlasi": 4330,
      "Ġdiskuto": 4331,
      "RA": 4332,
      "edu": 4333,
      "ĠÄĿuu": 4334,
      "nive": 4335,
      "KO": 4336,
      "Ġkantoj": 4337,
      "ĠÄ¤": 4338,
      "Ġdosi": 4339,
      "ĠÅĿul": 4340,
      "Ġpunkto": 4341,
      "glo": 4342,
      "Ġmeti": 4343,
      "Ġkvali": 4344,
      "Ja": 4345,
      "Ġprotekti": 4346,
      "Ġmedic": 4347,
      "iÄĿi": 4348,
      "lom": 4349,
      "tataj": 4350,
      "ĠEdu": 4351,
      "wo": 4352,
      "ĠFacila": 4353,
      "ĠArmen": 4354,
      "cz": 4355,
      ",âĢĿ": 4356,
      "sona": 4357,
      "ĠAmi": 4358,
      "Ġpermesas": 4359,
      "Ġsolda": 4360,
      "95": 4361,
      "Ġinves": 4362,
      "Ġsun": 4363,
      "ĠSpe": 4364,
      "vice": 4365,
      "ÄĪiuj": 4366,
      "Deutsch": 4367,
      "ĠKomuni": 4368,
      "Ġlevi": 4369,
      "bil": 4370,
      "ĠinterÅĿan": 4371,
      "Ġtranspor": 4372,
      "Trans": 4373,
      "tuo": 4374,
      "ĠÄĿian": 4375,
      "Ġesperantisto": 4376,
      "zantoj": 4377,
      "Ġpremi": 4378,
      "inan": 4379,
      "parto": 4380,
      "taliano": 4381,
      "produk": 4382,
      "emaj": 4383,
      "Ġ02": 4384,
      "ĠMartin": 4385,
      "Ġideoj": 4386,
      "gne": 4387,
      "Ġkrome": 4388,
      "Ġos": 4389,
      "ÅĿto": 4390,
      "Ġtab": 4391,
      "ovo": 4392,
      "Ġescep": 4393,
      "Ġordo": 4394,
      "Ġbas": 4395,
      "Ġmalproksi": 4396,
      "ĠantaÅŃen": 4397,
      "Ġsalu": 4398,
      "Ġproblemojn": 4399,
      "vali": 4400,
      "uris": 4401,
      "ĠAperis": 4402,
      "Ġfirma": 4403,
      "gion": 4404,
      "Ġinterpre": 4405,
      "maro": 4406,
      "plen": 4407,
      "ligis": 4408,
      "Ġnenio": 4409,
      "2019": 4410,
      "Ġokaze": 4411,
      "Ġgrand": 4412,
      "ĠkomenciÄĿis": 4413,
      "Ġknab": 4414,
      "Ġmus": 4415,
      "Ġalterna": 4416,
      "ĠJean": 4417,
      "menta": 4418,
      "Aperis": 4419,
      "ĠnovaÄµoj": 4420,
      "ĠAsocio": 4421,
      "Ġhomaj": 4422,
      "ĠKomisiono": 4423,
      "Gra": 4424,
      "Ġlingvojn": 4425,
      "ald": 4426,
      "Ġcivili": 4427,
      "Ġekstre": 4428,
      "ĠArkivita": 4429,
      "Ġreto": 4430,
      "ÅĿon": 4431,
      "ĠPl": 4432,
      "Facila": 4433,
      "Ġkelk": 4434,
      "erno": 4435,
      "fron": 4436,
      "Ġvek": 4437,
      "pto": 4438,
      "kulturo": 4439,
      "DO": 4440,
      "ĠmalgraÅŃ": 4441,
      "Ġprilabor": 4442,
      "ĠnomiÄĿas": 4443,
      "ĠPaul": 4444,
      "ĠafiÅĿoj": 4445,
      "Ġ00": 4446,
      "ĠCam": 4447,
      "trin": 4448,
      "Ġprenis": 4449,
      "Ġfundamen": 4450,
      "Ġkvalito": 4451,
      "ĠvilaÄĿo": 4452,
      "Ġfig": 4453,
      "Ġste": 4454,
      "Ġsistemon": 4455,
      "Ġkvanto": 4456,
      "ĠRedakcio": 4457,
      "ĠserÄīas": 4458,
      "Ġhavos": 4459,
      "ben": 4460,
      "Ġkolekto": 4461,
      "san": 4462,
      "ordinatoj": 4463,
      "ĠRadio": 4464,
      "Ġplejparte": 4465,
      "ply": 4466,
      "Ġrimedoj": 4467,
      "Ġkunme": 4468,
      "Ġduono": 4469,
      "logiaj": 4470,
      "ĠHelpo": 4471,
      "osa": 4472,
      "Ġprecize": 4473,
      "dinda": 4474,
      "bara": 4475,
      "ĠTie": 4476,
      "Ġbildoj": 4477,
      "ĠBra": 4478,
      "kodo": 4479,
      "solu": 4480,
      "Ġparte": 4481,
      "Ġsimila": 4482,
      "ĠBona": 4483,
      "ĠUnesko": 4484,
      "onto": 4485,
      "Ġmeta": 4486,
      "omio": 4487,
      "ĠPartio": 4488,
      "Ġpetas": 4489,
      "ĠPetro": 4490,
      "ĠSAT": 4491,
      "Ġkoncen": 4492,
      "ÑģÐºÐ¸Ð¹": 4493,
      "Geo": 4494,
      "ĠHu": 4495,
      "Ðł": 4496,
      "Ġdama": 4497,
      "kapab": 4498,
      "Ġesperas": 4499,
      "gadon": 4500,
      "Ġjunuloj": 4501,
      "Ġkategorioj": 4502,
      "Ġuniversita": 4503,
      "Ġaro": 4504,
      "Ġkazo": 4505,
      "hen": 4506,
      "Ġneder": 4507,
      "gua": 4508,
      "ĠMonda": 4509,
      "Ġscienca": 4510,
      "84": 4511,
      "ĠLabor": 4512,
      "lante": 4513,
      "cian": 4514,
      "ĠNumero": 4515,
      "Ġpolitikaj": 4516,
      "Ġtekstoj": 4517,
      "Ġilian": 4518,
      "Ġekzistis": 4519,
      "kopo": 4520,
      "Ġnig": 4521,
      "Ġindustri": 4522,
      "ĠSlova": 4523,
      "ĠRulseÄĿo": 4524,
      "edaÅŃrinde": 4525,
      "ĠCol": 4526,
      "stron": 4527,
      "ardo": 4528,
      "Ġarme": 4529,
      "german": 4530,
      "oja": 4531,
      "ĠSovet": 4532,
      "Ra": 4533,
      "ĠMaro": 4534,
      "karto": 4535,
      "Ġenciklopedio": 4536,
      "ĠElÅĿutu": 4537,
      "Ġsubteni": 4538,
      "ĠDua": 4539,
      "Ġtaj": 4540,
      "Ġ60": 4541,
      "pola": 4542,
      "ĠMediaWiki": 4543,
      "ĠÄĿusta": 4544,
      "Ġkristan": 4545,
      "Ġinternaciaj": 4546,
      "Ġkompare": 4547,
      "Ġkapo": 4548,
      "Ġsemajno": 4549,
      "ĠaÅŃtomate": 4550,
      "our": 4551,
      "Ġlogi": 4552,
      "muma": 4553,
      "Ġdevenas": 4554,
      "ĠCas": 4555,
      "Ġadap": 4556,
      "Ġtes": 4557,
      "Ġrelative": 4558,
      "ĠWe": 4559,
      "ÅĿe": 4560,
      "ĠVin": 4561,
      "Ø§ÙĦ": 4562,
      "Neder": 4563,
      "Ġvon": 4564,
      "ĠKristo": 4565,
      "Ġpaci": 4566,
      "æĹ": 4567,
      "Ġlum": 4568,
      "Ġlibron": 4569,
      "pp": 4570,
      "Ġapen": 4571,
      "Î¹": 4572,
      "83": 4573,
      "Ġkomb": 4574,
      "ĠÑģ": 4575,
      "Ġtradicia": 4576,
      "Ġbrazi": 4577,
      "EK": 4578,
      "polo": 4579,
      "nio": 4580,
      "kaÄµo": 4581,
      "Ġinsulo": 4582,
      "61": 4583,
      "tions": 4584,
      "ĠâĢİ": 4585,
      "Ġiras": 4586,
      "Ġkunlaboro": 4587,
      "Italiano": 4588,
      "Ġkuke": 4589,
      "Ġrigardis": 4590,
      "Ġras": 4591,
      "ĠBara": 4592,
      "Ġenme": 4593,
      "Ġmaterialo": 4594,
      "Ġtransfor": 4595,
      "]].": 4596,
      "Ġmaljun": 4597,
      "62": 4598,
      "reco": 4599,
      "Ġprezentis": 4600,
      "tian": 4601,
      "Ġnok": 4602,
      "ĠGaze": 4603,
      "Ġaux": 4604,
      "igado": 4605,
      "ĠKam": 4606,
      "Ġaferojn": 4607,
      "Ġmenso": 4608,
      "Ġdependas": 4609,
      "NovaÄµoj": 4610,
      "ĠvoÄīdon": 4611,
      "Ġmalalta": 4612,
      "Ġhun": 4613,
      "Ġsuda": 4614,
      "Referencoj": 4615,
      "Ġkia": 4616,
      "Ġstuden": 4617,
      "Ġkara": 4618,
      "Man": 4619,
      "lano": 4620,
      "Î½": 4621,
      "uste": 4622,
      "Ġnomita": 4623,
      "ÐµÐ»": 4624,
      "Ġnomas": 4625,
      "Ġprocezo": 4626,
      "Ġkiaj": 4627,
      "</": 4628,
      "Ġgreka": 4629,
      "Ġgx": 4630,
      "Ad": 4631,
      "ÄĿante": 4632,
      "vojo": 4633,
      "Ġadministran": 4634,
      "zitan": 4635,
      "ÂłÂłÂłÂł": 4636,
      "Ġvig": 4637,
      "loko": 4638,
      "Ġtrakta": 4639,
      "Ġalvenis": 4640,
      "Ġ04": 4641,
      "baze": 4642,
      "tuale": 4643,
      "tigitaj": 4644,
      "Ġsupre": 4645,
      "Ġjaron": 4646,
      "ĠSuper": 4647,
      "Ġteo": 4648,
      "Ġekipa": 4649,
      "Ġavanta": 4650,
      "Ġinfano": 4651,
      "Ġinkluzivas": 4652,
      "ws": 4653,
      "ĠMedi": 4654,
      "Ġpoeto": 4655,
      "Ġ09": 4656,
      "ĠRaj": 4657,
      "Vendo": 4658,
      "ĠMaria": 4659,
      "Ġfaru": 4660,
      "ĠÄīiutage": 4661,
      "eme": 4662,
      "kula": 4663,
      "Ġmalbona": 4664,
      "Ġamaskomuni": 4665,
      "SD": 4666,
      "Spe": 4667,
      "Ġlastafoje": 4668,
      "Je": 4669,
      "Ġorienta": 4670,
      "Ġeksplo": 4671,
      "Ġvortaro": 4672,
      "Ġtekston": 4673,
      "Ġofertas": 4674,
      "time": 4675,
      "Ġemo": 4676,
      "Ġkonataj": 4677,
      "Ġgri": 4678,
      "essa": 4679,
      "Ġsinjoro": 4680,
      "æĸĩ": 4681,
      "Ġkonek": 4682,
      "Ġintern": 4683,
      "bol": 4684,
      "áŀ": 4685,
      "Ġdiskonigu": 4686,
      "domo": 4687,
      "loke": 4688,
      "ĠDek": 4689,
      "Ġkreita": 4690,
      "Ġprezenti": 4691,
      "Ġrecen": 4692,
      "ip": 4693,
      "Ġpied": 4694,
      "mato": 4695,
      "Ġfojon": 4696,
      "Ġkompu": 4697,
      "lanta": 4698,
      "Ġrevenis": 4699,
      "ĠMultaj": 4700,
      "ĠÄµurnal": 4701,
      "Ġkampo": 4702,
      "Ð±": 4703,
      "Ġtor": 4704,
      "Ġeksp": 4705,
      "emble": 4706,
      "diÄĿo": 4707,
      "ĠeÅŃropaj": 4708,
      "Ġnorda": 4709,
      "ĠapenaÅŃ": 4710,
      "prenis": 4711,
      "Äįina": 4712,
      "Ġreligio": 4713,
      "Ġmondon": 4714,
      "sula": 4715,
      "ĠServo": 4716,
      "Ð¾Ð½": 4717,
      "Ġqu": 4718,
      "Ġavia": 4719,
      "Bahasa": 4720,
      "ĠKre": 4721,
      "ĠÅĿton": 4722,
      "vikio": 4723,
      "Ġsekvas": 4724,
      "ĠaliÄĿi": 4725,
      "ĠBlan": 4726,
      "Ġbestoj": 4727,
      "Ġmarbor": 4728,
      "Ġkultura": 4729,
      "Jes": 4730,
      "lingvis": 4731,
      "ith": 4732,
      "ĠaÅŃdis": 4733,
      "ĠWa": 4734,
      "Ġner": 4735,
      "Ġlernejo": 4736,
      "Ã©s": 4737,
      "Ġmerkato": 4738,
      "Ġsor": 4739,
      "ĠAmeri": 4740,
      "Ġkompanio": 4741,
      "ÑĢÐ¿": 4742,
      "ä¸Ń": 4743,
      "traÄµoj": 4744,
      "ÄĿintoj": 4745,
      "LT": 4746,
      "ĠPIV": 4747,
      ".\",": 4748,
      "Ġnokto": 4749,
      "ĠdanÄĿ": 4750,
      "encoj": 4751,
      "Ġlabori": 4752,
      "Ġcerta": 4753,
      "bato": 4754,
      "ĠFrancis": 4755,
      "ĠJapan": 4756,
      "ritaj": 4757,
      "liam": 4758,
      "Ġmalmulte": 4759,
      "plena": 4760,
      "Ġspeco": 4761,
      "2005": 4762,
      "OM": 4763,
      "ĠIndones": 4764,
      "ito": 4765,
      "ide": 4766,
      "tad": 4767,
      "Ġaparta": 4768,
      "ĠKas": 4769,
      "Ġinstr": 4770,
      "Ġmanko": 4771,
      "Ġrilatas": 4772,
      "ĠJer": 4773,
      "fran": 4774,
      "gna": 4775,
      "rono": 4776,
      "Ġrezer": 4777,
      "bek": 4778,
      "vena": 4779,
      "ĠÂ»,": 4780,
      "Ġkomita": 4781,
      "Sub": 4782,
      "ĠBatman": 4783,
      "81": 4784,
      "Ġpartn": 4785,
      "Uni": 4786,
      "Ġhistoria": 4787,
      "jna": 4788,
      "uran": 4789,
      "bran": 4790,
      "Ġesprimo": 4791,
      "ĠSpi": 4792,
      "ĠEÄī": 4793,
      "Ġ1999": 4794,
      "Ġmek": 4795,
      "ineo": 4796,
      "ĠKelkaj": 4797,
      "Â»,": 4798,
      "Ġindustrio": 4799,
      "??": 4800,
      "ev": 4801,
      "tski": 4802,
      "Ġekonomio": 4803,
      "Ġplat": 4804,
      "ĠKos": 4805,
      "Ġlernis": 4806,
      "tene": 4807,
      "Ġmonato": 4808,
      "Ġasocio": 4809,
      "Ġkonfu": 4810,
      "ĠFri": 4811,
      "til": 4812,
      "Ġmallong": 4813,
      "lingvo": 4814,
      "Ġadministra": 4815,
      "Ġpetis": 4816,
      "Ġmiajn": 4817,
      "Ġlokaj": 4818,
      "ĠTor": 4819,
      "Ġrespondon": 4820,
      "Ġgazeto": 4821,
      "Ġyou": 4822,
      "ĠOrganizo": 4823,
      "Norsk": 4824,
      "æĹ¥": 4825,
      "gal": 4826,
      "datu": 4827,
      "ĠProduktoj": 4828,
      "ĠKanado": 4829,
      "Ġskla": 4830,
      "ÂŃ": 4831,
      "ĠÄµe": 4832,
      "Ġdevos": 4833,
      "vitaj": 4834,
      "Ġsubite": 4835,
      "traÄµo": 4836,
      "kata": 4837,
      "ĠBil": 4838,
      "damo": 4839,
      "Con": 4840,
      "Ġvojon": 4841,
      "Ġjapana": 4842,
      "Ġimpres": 4843,
      "zaÄµoj": 4844,
      "Äīan": 4845,
      "anian": 4846,
      "ĠInterna": 4847,
      "Ġkonsideras": 4848,
      "tivoj": 4849,
      "Ġfrom": 4850,
      "Ġbazo": 4851,
      "Ġspeciale": 4852,
      "fiÅĿita": 4853,
      "Ġsperto": 4854,
      "ĠreÄĿ": 4855,
      "ĠAÅŃs": 4856,
      "Ġtrejnado": 4857,
      "Ġ~": 4858,
      "Ġ@": 4859,
      "ĠKompu": 4860,
      "Ġvideo": 4861,
      "Ġspor": 4862,
      "Ġurbon": 4863,
      "ĠChar": 4864,
      "encaj": 4865,
      "Ġpreter": 4866,
      "tora": 4867,
      "lanto": 4868,
      "trita": 4869,
      "Ġlegis": 4870,
      "ĠNia": 4871,
      "Ġ35": 4872,
      "Ãªs": 4873,
      "ĠÅĿablon": 4874,
      "Ġreci": 4875,
      "kie": 4876,
      "dol": 4877,
      "ĠAnd": 4878,
      "Ġate": 4879,
      "98": 4880,
      "Ġkonduk": 4881,
      "Ġantikva": 4882,
      "Ġsurpri": 4883,
      "Ret": 4884,
      "Ġstilo": 4885,
      "Ġsenco": 4886,
      "her": 4887,
      "à²": 4888,
      "ĠVia": 4889,
      "Ġsove": 4890,
      "romp": 4891,
      "ĠIr": 4892,
      "nom": 4893,
      "Ġmatema": 4894,
      "Ġdetalaj": 4895,
      "mple": 4896,
      "ĠLibera": 4897,
      "landan": 4898,
      "Ġpersone": 4899,
      "Ġmedio": 4900,
      "ĠDE": 4901,
      "ktan": 4902,
      "Ġoriginala": 4903,
      "wer": 4904,
      "cho": 4905,
      "grafia": 4906,
      "tiked": 4907,
      "ogle": 4908,
      "Ġbildo": 4909,
      "ĠEksteraj": 4910,
      "Kre": 4911,
      "vatski": 4912,
      "Ġnigra": 4913,
      "ĠMc": 4914,
      "alvide": 4915,
      "ĠHor": 4916,
      "Ġvaloro": 4917,
      "ira": 4918,
      "94": 4919,
      "ĠSvislando": 4920,
      "ĠUnua": 4921,
      "Ġ1997": 4922,
      "Ġsv": 4923,
      "Ġmondmilito": 4924,
      "ĠvizaÄĿo": 4925,
      "cri": 4926,
      "Ġatendas": 4927,
      "ĠEstis": 4928,
      "Ġmaksi": 4929,
      "Ġmalsano": 4930,
      "Mem": 4931,
      "Ġpubliko": 4932,
      "Ġtranslo": 4933,
      "rako": 4934,
      "Ġvidalvide": 4935,
      "Ġkonsentas": 4936,
      "cipe": 4937,
      "Sloven": 4938,
      "Ġhomaro": 4939,
      "omen": 4940,
      "Ġkapablas": 4941,
      "Ð°Ñı": 4942,
      "ĠIsra": 4943,
      "pres": 4944,
      "ET": 4945,
      "II": 4946,
      "Ġcent": 4947,
      "tuguÃªs": 4948,
      "Ru": 4949,
      "aja": 4950,
      "Ġsano": 4951,
      "ford": 4952,
      "ĠJohano": 4953,
      "¡Õ": 4954,
      "82": 4955,
      "Ġkomerco": 4956,
      "ken": 4957,
      "Ä´": 4958,
      "tikedoj": 4959,
      "Ġebligas": 4960,
      "miloj": 4961,
      "ĠWal": 4962,
      "Ġfiks": 4963,
      "ĠVe": 4964,
      "fil": 4965,
      "Ġradikoj": 4966,
      "Ġeniris": 4967,
      "tago": 4968,
      "tela": 4969,
      "Ġvortaroj": 4970,
      "Ġprovis": 4971,
      "Ġpropraj": 4972,
      "html": 4973,
      "tinta": 4974,
      "laroj": 4975,
      "ĠBio": 4976,
      "ĠÄľis": 4977,
      "ĠVeronika": 4978,
      "ĠJesuo": 4979,
      "]],": 4980,
      "kadon": 4981,
      "Ġrilato": 4982,
      "Ġelektr": 4983,
      "Ġmalkon": 4984,
      "Ġsendis": 4985,
      "ĠKion": 4986,
      "Tamen": 4987,
      "Ġaci": 4988,
      "Ġbur": 4989,
      "Ġdudek": 4990,
      "!!": 4991,
      "udh": 4992,
      "Ġservoj": 4993,
      "Ġkunsi": 4994,
      "ismaj": 4995,
      "tenoj": 4996,
      "Ùģ": 4997,
      "Ġorien": 4998,
      "ĠIN": 4999,
      "Ġprovas": 5000,
      "Ä¥io": 5001,
      "Ġmalrapi": 5002,
      "ĠPrin": 5003,
      "valo": 5004,
      "ministro": 5005,
      "Ġstrukturo": 5006,
      "ĠindiÄĿen": 5007,
      "tiri": 5008,
      "ĠAma": 5009,
      "sh": 5010,
      "ĠserÄīi": 5011,
      "cent": 5012,
      "Ġsigno": 5013,
      "ĠSovetunio": 5014,
      "ĠEston": 5015,
      "Ð°ÑĤ": 5016,
      "bs": 5017,
      "Ġplimulto": 5018,
      "Ġaltaj": 5019,
      "gram": 5020,
      "giono": 5021,
      "Ġkomunikado": 5022,
      "Ġtenden": 5023,
      "Ġsus": 5024,
      "ÃŃn": 5025,
      "Ġfrazo": 5026,
      "ĠLito": 5027,
      "ÐºÑĢ": 5028,
      "Ġenergio": 5029,
      "ÑĥÑģÑģÐºÐ¸Ð¹": 5030,
      "ĠAle": 5031,
      "ĠvoÄīo": 5032,
      "Ġvidpunkto": 5033,
      "Ġmalliber": 5034,
      "Ġokazoj": 5035,
      "ĠserÄī": 5036,
      "Ġjardek": 5037,
      "ĠÄ¥": 5038,
      "ĠCan": 5039,
      "ÄĪiu": 5040,
      "ĠKonsilio": 5041,
      "ziko": 5042,
      "ĠOrienta": 5043,
      "Ø©": 5044,
      "Ã¢n": 5045,
      "Ġsupren": 5046,
      "teksto": 5047,
      "jan": 5048,
      "Ġveturi": 5049,
      "wiki": 5050,
      "Ø§ÙĦØ": 5051,
      "Ġmalsan": 5052,
      "Ġjarcentoj": 5053,
      "berto": 5054,
      "Ġestonteco": 5055,
      "kluzi": 5056,
      "ĠtaÅŃgas": 5057,
      "ĠÄīambro": 5058,
      "logy": 5059,
      "ĠSloven": 5060,
      "Ġregion": 5061,
      "Ġagadon": 5062,
      "igaj": 5063,
      "Ġinven": 5064,
      "ĠneÅŃtra": 5065,
      "Ġduan": 5066,
      "Kar": 5067,
      "ĠKata": 5068,
      "Ġmanifes": 5069,
      "Ġtom": 5070,
      "ĠKri": 5071,
      "alojn": 5072,
      "ficiala": 5073,
      "ÄĿeni": 5074,
      "ĠCentro": 5075,
      "vanto": 5076,
      "Ġalfa": 5077,
      "Ġkonsiderata": 5078,
      "ĠeÅŃropa": 5079,
      "Ġkonsul": 5080,
      "Ġscienco": 5081,
      "Ġprofesoro": 5082,
      "formaj": 5083,
      "Ġmetodo": 5084,
      "92": 5085,
      "Ġkontroli": 5086,
      "rez": 5087,
      "ĠIndi": 5088,
      "bulo": 5089,
      "Ġsubtenas": 5090,
      "Ġfaros": 5091,
      "kato": 5092,
      "tul": 5093,
      "Ġkompleta": 5094,
      "ĠleÄĿo": 5095,
      "danta": 5096,
      "ÅĦski": 5097,
      "ĠDavid": 5098,
      "rum": 5099,
      "granda": 5100,
      "Ġ1980": 5101,
      "Ġhistori": 5102,
      "Com": 5103,
      "Ġesprimi": 5104,
      "ĠrulseÄĿoj": 5105,
      "sistemo": 5106,
      "ĠelÅĿu": 5107,
      "ant": 5108,
      "Ġabsolu": 5109,
      "tualaj": 5110,
      "ĠaÄĿo": 5111,
      "Ġfontoj": 5112,
      "cus": 5113,
      "Dek": 5114,
      "ĠKrom": 5115,
      "unici": 5116,
      "AJ": 5117,
      "ĠLingvo": 5118,
      "kloj": 5119,
      "orita": 5120,
      "Ġregado": 5121,
      "ĠHon": 5122,
      "bru": 5123,
      "Ġkonstitu": 5124,
      "Ġmanoj": 5125,
      "ĠVan": 5126,
      "zias": 5127,
      "ĠUkrainio": 5128,
      "amon": 5129,
      "Ġelektro": 5130,
      "ĠVor": 5131,
      "tori": 5132,
      "Ġbonega": 5133,
      "æľ¬": 5134,
      "Ġ80": 5135,
      "ĠmaÅĿ": 5136,
      "Ġesperanta": 5137,
      "dar": 5138,
      "ĠKontakto": 5139,
      "Ġuzu": 5140,
      "Ġflug": 5141,
      "Ġrakonto": 5142,
      "Ġpreferas": 5143,
      "trojn": 5144,
      "Ġmallonga": 5145,
      "Ġservi": 5146,
      "Ġkomunumoj": 5147,
      "alismo": 5148,
      "ãģ®": 5149,
      "Ġjunaj": 5150,
      "ATO": 5151,
      "servo": 5152,
      "AM": 5153,
      "Ġlumo": 5154,
      "veco": 5155,
      "Ð¡": 5156,
      "ĠTrans": 5157,
      "ĠTemas": 5158,
      "Ġresti": 5159,
      "ters": 5160,
      "Ġplenumi": 5161,
      "poÅĿto": 5162,
      "Ġkategor": 5163,
      "Ġajna": 5164,
      "Ġtermino": 5165,
      "Ġfron": 5166,
      "tiv": 5167,
      "\")": 5168,
      "ĠEsperantis": 5169,
      "ebu": 5170,
      "à¦¾": 5171,
      "Ġrekla": 5172,
      "ä¸Ńæĸĩ": 5173,
      "Ġbre": 5174,
      "Ġstabi": 5175,
      "Ġrevi": 5176,
      "Ġfoto": 5177,
      "ĠnaÅŃ": 5178,
      "Ġrekomendas": 5179,
      "Ġaltan": 5180,
      "ĠAt": 5181,
      "Ġvet": 5182,
      "Ġmano": 5183,
      "wski": 5184,
      "ĠFra": 5185,
      "LoÄĿ": 5186,
      "Ġmonda": 5187,
      "gian": 5188,
      "ĠTero": 5189,
      "trie": 5190,
      "sioj": 5191,
      "Rom": 5192,
      "Aliaj": 5193,
      "kiu": 5194,
      "Ġkana": 5195,
      "riskribo": 5196,
      "Ġdio": 5197,
      "vorte": 5198,
      "ĠYork": 5199,
      "Ġromano": 5200,
      "juo": 5201,
      "Ġlatina": 5202,
      "Ġproces": 5203,
      "2017": 5204,
      "Ġkontakti": 5205,
      "ĠKomputeko": 5206,
      "dge": 5207,
      "á»": 5208,
      "Ġmodi": 5209,
      "Ġekstera": 5210,
      "Ġtrovos": 5211,
      "Ã£": 5212,
      "ĠBerlino": 5213,
      "Ġgeed": 5214,
      "ĠaÅŃtoroj": 5215,
      "Ġartikolojn": 5216,
      "Ġinterkonsen": 5217,
      "leto": 5218,
      "ĠMuzaiko": 5219,
      "Pi": 5220,
      "Ġremem": 5221,
      "ĠKur": 5222,
      "ĠGen": 5223,
      "ÄĿita": 5224,
      "FranÃ§ais": 5225,
      "Ñħ": 5226,
      "ÑģÑĮ": 5227,
      "Ġsignifon": 5228,
      "ĠÅĿatus": 5229,
      "tag": 5230,
      "ĠAÅŃstra": 5231,
      "sian": 5232,
      "ĠFacebook": 5233,
      "yu": 5234,
      "Ġmig": 5235,
      "Ġsil": 5236,
      "iss": 5237,
      "tumo": 5238,
      "ĠSv": 5239,
      "Ġok": 5240,
      "Ġformon": 5241,
      "Ġnordo": 5242,
      "Ġlito": 5243,
      "ĠÅĿtalo": 5244,
      "ĠChi": 5245,
      "Messa": 5246,
      "tenon": 5247,
      "ĠHom": 5248,
      "cher": 5249,
      "estas": 5250,
      "Ġgaranti": 5251,
      "áº": 5252,
      "Ġideon": 5253,
      "del": 5254,
      "96": 5255,
      "Ġmaterialoj": 5256,
      "Naski": 5257,
      "ĠHungario": 5258,
      "Ġvizitis": 5259,
      "Ġariel": 5260,
      "done": 5261,
      "onata": 5262,
      "ĠMond": 5263,
      "Ġspecioj": 5264,
      "Ġmodelo": 5265,
      "Ä¥i": 5266,
      "eja": 5267,
      "IO": 5268,
      "Ġelektita": 5269,
      "etnam": 5270,
      "Ġsole": 5271,
      "Ġama": 5272,
      "Ġlini": 5273,
      "ĠLondono": 5274,
      "taron": 5275,
      "Ġprezidento": 5276,
      "rÃ©": 5277,
      "zra": 5278,
      "ĠTele": 5279,
      "Ġproksima": 5280,
      "Ġimperio": 5281,
      "Ġsubstan": 5282,
      "Ġfondita": 5283,
      "losi": 5284,
      "ĠGri": 5285,
      "kulp": 5286,
      "gel": 5287,
      "tab": 5288,
      "enketo": 5289,
      "landoj": 5290,
      "ĠJos": 5291,
      "Ġoleo": 5292,
      "Du": 5293,
      "mili": 5294,
      "ĠES": 5295,
      "Ġperdis": 5296,
      "Ġinspi": 5297,
      "ĠMadri": 5298,
      "Ġaero": 5299,
      "ĠPlan": 5300,
      "ĠMez": 5301,
      "Ġbazi": 5302,
      "æĹ¥æľ¬": 5303,
      "preneble": 5304,
      "Ġsube": 5305,
      "Ġrimarkis": 5306,
      "Ġmetis": 5307,
      "aÅŃlo": 5308,
      "Ġallo": 5309,
      "diloj": 5310,
      "Ġtipo": 5311,
      "hn": 5312,
      "REJO": 5313,
      "ĠKore": 5314,
      "vino": 5315,
      "sci": 5316,
      "Ġrom": 5317,
      "DF": 5318,
      "Ġpensi": 5319,
      "93": 5320,
      "Ele": 5321,
      "EspaÃ±ol": 5322,
      "Bo": 5323,
      "Ġmiks": 5324,
      "rejo": 5325,
      "ĠDon": 5326,
      "teni": 5327,
      "Ġtag": 5328,
      "tato": 5329,
      "Ġtransdon": 5330,
      "ovado": 5331,
      "Ġagri": 5332,
      "Ġkompli": 5333,
      "Ġmovadaj": 5334,
      "Ġ{\\": 5335,
      "Ġlibereco": 5336,
      "Ġuniversitato": 5337,
      "Ġalie": 5338,
      "ĠfariÄĿas": 5339,
      "meto": 5340,
      "tikon": 5341,
      "tempaj": 5342,
      "As": 5343,
      "yle": 5344,
      "ĠIns": 5345,
      "ĠBir": 5346,
      "Ġretejon": 5347,
      "ĠStra": 5348,
      "ĠAf": 5349,
      "respon": 5350,
      "Ġkongru": 5351,
      "Ġpublikigis": 5352,
      "SS": 5353,
      "Ġkompan": 5354,
      "Ġakceptas": 5355,
      "Ġsudo": 5356,
      "ĠFakte": 5357,
      "Ġbaza": 5358,
      "ĠRajtoj": 5359,
      "dovi": 5360,
      "aniere": 5361,
      "ĠEuro": 5362,
      "unu": 5363,
      "Ġproponis": 5364,
      "ÙĨ": 5365,
      "Ġfeder": 5366,
      "Ġsurbaze": 5367,
      "Ġkomerca": 5368,
      "=\"": 5369,
      "Ġplilong": 5370,
      "Ġokazo": 5371,
      "Ġnot": 5372,
      "Ġteori": 5373,
      "Ġproponi": 5374,
      "Ġintervjuon": 5375,
      "cita": 5376,
      "97": 5377,
      "mana": 5378,
      "ĠEli": 5379,
      "post": 5380,
      "Ġkazoj": 5381,
      "Ġgrandajn": 5382,
      "Ġfacila": 5383,
      "Ġato": 5384,
      "Ġkomprenis": 5385,
      "Ġredukti": 5386,
      "ric": 5387,
      "demio": 5388,
      "Ġfrua": 5389,
      "Ġrevolucio": 5390,
      "pagan": 5391,
      "ĠAndre": 5392,
      "Ġkrizo": 5393,
      "Ġdefini": 5394,
      "...)": 5395,
      "longa": 5396,
      "Ġenhav": 5397,
      "ĠiÄĿas": 5398,
      "Ġpala": 5399,
      "Am": 5400,
      "Ġludas": 5401,
      "Sci": 5402,
      "Ġeko": 5403,
      "Ġtagojn": 5404,
      "Ġokupa": 5405,
      "×¨": 5406,
      "Ġmonto": 5407,
      "Ġelementoj": 5408,
      "Ġmalmultaj": 5409,
      "ĠEven": 5410,
      "Ġlinio": 5411,
      "ĠaÅŃtorita": 5412,
      "Ð¾Ð²": 5413,
      "Ġdesegn": 5414,
      "ĠÄľenerala": 5415,
      "mir": 5416,
      "Ġatribu": 5417,
      "Ġevidente": 5418,
      "ÄĻ": 5419,
      "gin": 5420,
      "Ġimpli": 5421,
      "Ġadop": 5422,
      "German": 5423,
      "ĠAmeriko": 5424,
      "inara": 5425,
      "Ð£": 5426,
      "Ġkialoj": 5427,
      "ĠLA": 5428,
      "Ġkreado": 5429,
      "Ġemas": 5430,
      "Ġliteroj": 5431,
      "Ġsentis": 5432,
      "Ġsilen": 5433,
      "Ġnatur": 5434,
      "Äµe": 5435,
      "centro": 5436,
      "Ġex": 5437,
      "ĠMoskvo": 5438,
      "àº": 5439,
      "Ġkonstrui": 5440,
      "æĹ¥æľ¬èªŀ": 5441,
      "Ġpsiko": 5442,
      "ĠEstraro": 5443,
      "igar": 5444,
      "Ġiujn": 5445,
      "Nu": 5446,
      "ralo": 5447,
      "ĠOli": 5448,
      "Ġkonk": 5449,
      "Ġplifor": 5450,
      "Ġund": 5451,
      "Ġfrato": 5452,
      "Ġhazar": 5453,
      "Kul": 5454,
      "kanto": 5455,
      "igan": 5456,
      "ĠBr": 5457,
      "ĠFeder": 5458,
      "Ø§Ø±Ø³": 5459,
      "embleo": 5460,
      "ĠTTT": 5461,
      "venska": 5462,
      "ĠFu": 5463,
      "Ġlandon": 5464,
      "noj": 5465,
      "kanta": 5466,
      "ĠKris": 5467,
      "ÙģØ§Ø±Ø³": 5468,
      "ĠKlubo": 5469,
      "Ġeksteraj": 5470,
      "ĠJohan": 5471,
      "Ġvic": 5472,
      "Ġhero": 5473,
      "ate": 5474,
      "Ġkampan": 5475,
      "íķ": 5476,
      "ĠPRO": 5477,
      "Ġsolvo": 5478,
      "Î¹Î": 5479,
      "Ġkadre": 5480,
      "Ġkreas": 5481,
      "Ġprovizas": 5482,
      "ĠProtokolo": 5483,
      "ĠCivi": 5484,
      "ĠGermana": 5485,
      "Kial": 5486,
      "Ġinstruado": 5487,
      "Ġmalsukces": 5488,
      "ÑĩÐ°": 5489,
      "Ġride": 5490,
      "Ã¼rk": 5491,
      "Ġeklezio": 5492,
      "Ġiel": 5493,
      "Ġlingvis": 5494,
      "vantaj": 5495,
      "Ġstaris": 5496,
      "sub": 5497,
      "teran": 5498,
      "ĠBas": 5499,
      "Ġdiplomati": 5500,
      "ĠCha": 5501,
      "Ġjardekoj": 5502,
      "Ġopinio": 5503,
      "Ġvita": 5504,
      "ĠPara": 5505,
      "Ġkonklu": 5506,
      "gata": 5507,
      "Ġform": 5508,
      "ÑĬ": 5509,
      "Å¾": 5510,
      "ismon": 5511,
      "ĠÄĿar": 5512,
      "havigi": 5513,
      "Ġpentris": 5514,
      "ĠWilliam": 5515,
      "Ġwww": 5516,
      "ĠIKU": 5517,
      "ĠrenkontiÄĿo": 5518,
      "Ġinstruis": 5519,
      "Ġneo": 5520,
      "Ġpagi": 5521,
      "mano": 5522,
      "ĠFranca": 5523,
      "Cen": 5524,
      "Ġenspe": 5525,
      "Ġsupra": 5526,
      "EU": 5527,
      "gano": 5528,
      "eld": 5529,
      "ÃŃa": 5530,
      "Ġgepatroj": 5531,
      "Ġrespondo": 5532,
      "Ġludis": 5533,
      "Ku": 5534,
      "ĹÐ½": 5535,
      "bili": 5536,
      "Ġkoncerna": 5537,
      "ĠMer": 5538,
      "ĠBulga": 5539,
      "ĠnaskiÄĿ": 5540,
      "Äĥ": 5541,
      "Ġdanke": 5542,
      "fla": 5543,
      "Ġkem": 5544,
      "Ġakcepti": 5545,
      "eralo": 5546,
      "sur": 5547,
      "arko": 5548,
      "Ġapu": 5549,
      "Ġ1998": 5550,
      "ĠOndo": 5551,
      "wn": 5552,
      "igojn": 5553,
      "Ġpliaj": 5554,
      "komer": 5555,
      "ÐºÑĢÐ°Ñ": 5556,
      "Ġ08": 5557,
      "kolo": 5558,
      "Ġvivi": 5559,
      "dona": 5560,
      "tula": 5561,
      "Ġuzante": 5562,
      "OS": 5563,
      "zaÄµo": 5564,
      "Ġpasin": 5565,
      "Ġposedas": 5566,
      "ðŁ": 5567,
      "Ġmalnov": 5568,
      "ĠBarato": 5569,
      "sem": 5570,
      "ÐºÑĢÐ°ÑĹÐ½": 5571,
      "Ġreguloj": 5572,
      "Th": 5573,
      "TEJO": 5574,
      "Ġfaritaj": 5575,
      "late": 5576,
      "ida": 5577,
      "Ġoport": 5578,
      "ĠkaÅŃzas": 5579,
      "Ġdecido": 5580,
      "ĠÄľia": 5581,
      "2008": 5582,
      "lecon": 5583,
      "à¤¾": 5584,
      "Ġbrita": 5585,
      "Ġptm": 5586,
      "ÐºÑĢÐ°ÑĹÐ½ÑģÑĮ": 5587,
      "2006": 5588,
      "igiloj": 5589,
      "vange": 5590,
      "ktita": 5591,
      "ĠWar": 5592,
      "des": 5593,
      "usen": 5594,
      "Ã§e": 5595,
      "Ġkapon": 5596,
      "tivalo": 5597,
      "tein": 5598,
      "cos": 5599,
      "Ġprelegoj": 5600,
      "ÐºÑĢÐ°ÑĹÐ½ÑģÑĮÐºÐ°": 5601,
      "ãĢĤ": 5602,
      "clo": 5603,
      "usta": 5604,
      "Ġinform": 5605,
      "Ġcertigi": 5606,
      "Dx": 5607,
      "Produk": 5608,
      "ĠAp": 5609,
      "Ġfunkcio": 5610,
      "baro": 5611,
      "Ġrezis": 5612,
      "doro": 5613,
      "Ġ1994": 5614,
      "¨ÙĬ": 5615,
      "ĠÅľan": 5616,
      "taloj": 5617,
      "uzo": 5618,
      "lataj": 5619,
      "Ġklasi": 5620,
      "ega": 5621,
      "Pu": 5622,
      "Mia": 5623,
      "detalo": 5624,
      "uel": 5625,
      "Junularo": 5626,
      "Ġproblemon": 5627,
      "ÐłÑĥÑģÑģÐºÐ¸Ð¹": 5628,
      "Ġul": 5629,
      "baroj": 5630,
      "lum": 5631,
      "ĠÄīie": 5632,
      "ĠKiu": 5633,
      "Ġkomencas": 5634,
      "atalÃł": 5635,
      "Via": 5636,
      "Ġligita": 5637,
      "lomet": 5638,
      "vejo": 5639,
      "sin": 5640,
      "tvi": 5641,
      "ĠAnton": 5642,
      "Ġ1970": 5643,
      "ÑģÐºÐ°Ñı": 5644,
      "kes": 5645,
      "Ġom": 5646,
      "Ġenkondu": 5647,
      "Tio": 5648,
      "Ġteorio": 5649,
      "trieved": 5650,
      "Ġdiverse": 5651,
      "Ġfesto": 5652,
      "Ġsenpaga": 5653,
      "ÖĢÕ": 5654,
      "ĠpreÄĿejo": 5655,
      "ĠÅĿablono": 5656,
      "Ġpronon": 5657,
      "porta": 5658,
      "ĠBras": 5659,
      "kiÄĿis": 5660,
      "pag": 5661,
      "Konta": 5662,
      "keo": 5663,
      "Ġstaras": 5664,
      "Ġplez": 5665,
      "ĠDankon": 5666,
      "Ġsistemoj": 5667,
      "konstru": 5668,
      "Ġkoloni": 5669,
      "xo": 5670,
      "kesto": 5671,
      "press": 5672,
      "Ġludo": 5673,
      "ãģĦ": 5674,
      "Messages": 5675,
      "ÄĿaro": 5676,
      "rinda": 5677,
      "teratura": 5678,
      "ED": 5679,
      "ĠWorld": 5680,
      "Ġsekvis": 5681,
      "pt": 5682,
      "Ġpopulara": 5683,
      "Ġtrajtoj": 5684,
      "kuti": 5685,
      "Ġideojn": 5686,
      "Ġera": 5687,
      "kura": 5688,
      "ĠMilito": 5689,
      "ĠantaÅŃaj": 5690,
      "Ġokazon": 5691,
      "Ġkra": 5692,
      "Ġagadoj": 5693,
      "San": 5694,
      "xt": 5695,
      "dinto": 5696,
      "Ġsubteno": 5697,
      "Ġpersona": 5698,
      "Ġprovizi": 5699,
      "tastro": 5700,
      "ĠAÅŃstrio": 5701,
      "iojn": 5702,
      "Ġinstruisto": 5703,
      "Polski": 5704,
      "Î·": 5705,
      "Afrika": 5706,
      "kola": 5707,
      "Ġsubjek": 5708,
      "ĠStan": 5709,
      "2016": 5710,
      "Ġkron": 5711,
      "ĠScienca": 5712,
      "',": 5713,
      "Koordinatoj": 5714,
      "Ġkelkfoje": 5715,
      "ebre": 5716,
      "ĠRomo": 5717,
      "¹Ø±Ø": 5718,
      "Ġizo": 5719,
      "play": 5720,
      "simi": 5721,
      "Ġakiris": 5722,
      "Ġakceptis": 5723,
      "Ġentuzias": 5724,
      "ĠmonaÄ¥": 5725,
      "Ġprefere": 5726,
      "Ġhumi": 5727,
      "àª": 5728,
      "kategorio": 5729,
      "Ġsukceso": 5730,
      "Ġeksperi": 5731,
      "Ġ70": 5732,
      "Ġalb": 5733,
      "Ġtemperaturo": 5734,
      "Eks": 5735,
      "Ġobjekto": 5736,
      "AvantaÄĿoj": 5737,
      "ĠPriva": 5738,
      "ĠVarsovio": 5739,
      "Ġindikas": 5740,
      "Ġklara": 5741,
      "Ġfan": 5742,
      "ĠLibro": 5743,
      "Ġdemandojn": 5744,
      "ameriko": 5745,
      "Kur": 5746,
      "Ġekzempl": 5747,
      "¹Ø±Ø¨ÙĬ": 5748,
      "âĸ": 5749,
      "ĠtaÅŃga": 5750,
      "ĠalÅĿu": 5751,
      "igno": 5752,
      "Ġvivis": 5753,
      "Ġokazi": 5754,
      "Ġlongaj": 5755,
      "Ġrapida": 5756,
      "Ġrobo": 5757,
      "×¢": 5758,
      "Ġ\\": 5759,
      "Ġneniun": 5760,
      "Ġdenas": 5761,
      "Ġsekvi": 5762,
      "Ġhejmo": 5763,
      "Ġ>": 5764,
      "ovas": 5765,
      "Ġspecialan": 5766,
      "ĠGar": 5767,
      "ĠJose": 5768,
      "dukita": 5769,
      "Äµa": 5770,
      "PortuguÃªs": 5771,
      "tigu": 5772,
      "ĠorganizaÄµo": 5773,
      "Ġsekcio": 5774,
      "fas": 5775,
      "2010": 5776,
      "Ġusonaj": 5777,
      "pÃ©": 5778,
      "Ġkondam": 5779,
      "Ġproba": 5780,
      "Da": 5781,
      "ĠKongo": 5782,
      "Ġlibrojn": 5783,
      "Ìģ": 5784,
      "ĠFilip": 5785,
      "ĠeÅŃroj": 5786,
      "ĠGeo": 5787,
      "kante": 5788,
      "Ġstatis": 5789,
      "Ġsalaj": 5790,
      "Ġsolvi": 5791,
      "Ġ'''": 5792,
      "Ġgras": 5793,
      "Ġdeter": 5794,
      "ĠKal": 5795,
      "Ġrigardi": 5796,
      "ĠBonvolu": 5797,
      "ĠHi": 5798,
      "Ġkulturoj": 5799,
      "dioj": 5800,
      "fred": 5801,
      "Nederlands": 5802,
      "Ġseksne": 5803,
      "untry": 5804,
      "osto": 5805,
      "Ġnaciaj": 5806,
      "Ġfilmoj": 5807,
      "Ġtasko": 5808,
      "Ho": 5809,
      "ktoro": 5810,
      "Ġkomitato": 5811,
      "Ġkilomet": 5812,
      "Ġemfa": 5813,
      "91": 5814,
      "prezidanto": 5815,
      "Ekz": 5816,
      "nor": 5817,
      "ĠQu": 5818,
      "Ġmed": 5819,
      "Ġtiajn": 5820,
      "Ġretejoj": 5821,
      "Ġportuga": 5822,
      "Ġkluboj": 5823,
      "ĠHistory": 5824,
      "ĠGazetara": 5825,
      "Ġtradukita": 5826,
      "Ġekle": 5827,
      "Ġsuno": 5828,
      "Ġtemon": 5829,
      "Ġblanka": 5830,
      "inger": 5831,
      "Ġinterre": 5832,
      "ĠkontraÅŃsta": 5833,
      "Ġbonajn": 5834,
      "edaÄµo": 5835,
      "....": 5836,
      "Ġdefi": 5837,
      "Ġstudo": 5838,
      "Ġdeklaris": 5839,
      "ĠChin": 5840,
      "ĠMeksiko": 5841,
      "ĠGol": 5842,
      "konsento": 5843,
      "Ġinfek": 5844,
      "Ġprogramoj": 5845,
      "dkas": 5846,
      "ÅĿojn": 5847,
      "Ġdiman": 5848,
      "inastio": 5849,
      "êµ": 5850,
      "Ġhelpon": 5851,
      "Ġkreskis": 5852,
      "Ed": 5853,
      "Äīam": 5854,
      "Ġfilino": 5855,
      "cht": 5856,
      "ulis": 5857,
      "ĠIzra": 5858,
      "Ġraporto": 5859,
      "dori": 5860,
      "nas": 5861,
      "ĠAb": 5862,
      "Ġcxe": 5863,
      "ĠMonato": 5864,
      "ĠFinnlando": 5865,
      "ĠÄīiutaga": 5866,
      "×ĳ": 5867,
      "201111": 5868,
      "Sur": 5869,
      "ĠTek": 5870,
      "Ġdistri": 5871,
      "ĠaÄīeto": 5872,
      "gz": 5873,
      "ĠavantaÄĿoj": 5874,
      "kcep": 5875,
      "ksoj": 5876,
      "Ġfortoj": 5877,
      "funkci": 5878,
      "bliografio": 5879,
      "fino": 5880,
      "Ġanti": 5881,
      "Ġsimilaj": 5882,
      "onojn": 5883,
      "ĠInternational": 5884,
      "Ã£o": 5885,
      "riko": 5886,
      "Ġspecoj": 5887,
      "Ġdato": 5888,
      "Ġbel": 5889,
      "vina": 5890,
      "art": 5891,
      "Ġrecipro": 5892,
      "Ġkonven": 5893,
      "ĠArtiko": 5894,
      "Ġfl": 5895,
      "ÄĮ": 5896,
      "Bas": 5897,
      "ĠKomuniko": 5898,
      "Ġfren": 5899,
      "Te": 5900,
      "menton": 5901,
      "Ġwith": 5902,
      "ĠIsraelo": 5903,
      "Ġelektra": 5904,
      "tigon": 5905,
      "Ġutila": 5906,
      "Ġaldonis": 5907,
      "elojn": 5908,
      "Ġstrato": 5909,
      "Ġvikti": 5910,
      "ĠFine": 5911,
      "ĠMen": 5912,
      "Ġsekre": 5913,
      "enketodetalo": 5914,
      "lara": 5915,
      "Ġ(=": 5916,
      "201110": 5917,
      "ĠaÅŃton": 5918,
      "Ġkonkurso": 5919,
      "Ġefiko": 5920,
      "tivan": 5921,
      "tti": 5922,
      "Ġtradukoj": 5923,
      "ĠPM": 5924,
      "Ġtravi": 5925,
      "Ġagra": 5926,
      "Ġvasta": 5927,
      "ision": 5928,
      "eÅ¡tina": 5929,
      "ink": 5930,
      "Ġpordo": 5931,
      "Ġkonsek": 5932,
      "zbek": 5933,
      "deko": 5934,
      "ÐºÐµ": 5935,
      "lau": 5936,
      "Ġbazita": 5937,
      "Äģ": 5938,
      "terioj": 5939,
      "Ġbar": 5940,
      "Ġrolo": 5941,
      "ĠFund": 5942,
      "Ġpovu": 5943,
      "Ġsemina": 5944,
      "Ġpreni": 5945,
      "ĠOficejo": 5946,
      "Ġnomis": 5947,
      "2003": 5948,
      "chael": 5949,
      "Ġpul": 5950,
      "Ġsoldatoj": 5951,
      "Tu": 5952,
      "ĠZa": 5953,
      "Ġklarigi": 5954,
      "Ġperfor": 5955,
      "ĠRetrieved": 5956,
      "Ġsendepende": 5957,
      "Ġkari": 5958,
      "Ġmeri": 5959,
      "ĠtroviÄĿis": 5960,
      "ĠEspero": 5961,
      "Ġthat": 5962,
      "Ġverki": 5963,
      "sor": 5964,
      "Ġmalsanoj": 5965,
      "Ġkunveno": 5966,
      "venoj": 5967,
      "ÐµÐ»Ð°ÑĢ": 5968,
      "Ġteni": 5969,
      "Ġkonsum": 5970,
      "ºÎ": 5971,
      "Ġservis": 5972,
      "Sta": 5973,
      "virus": 5974,
      "Ġlaboristoj": 5975,
      "ÙģØ§Ø±Ø³ÛĮ": 5976,
      "ward": 5977,
      "tum": 5978,
      "lingvan": 5979,
      "Ġvaste": 5980,
      "Svenska": 5981,
      "Ġoficiale": 5982,
      "eople": 5983,
      "Ø§ÙĦØ¹Ø±Ø¨ÙĬ": 5984,
      "rata": 5985,
      "pol": 5986,
      "Ġakvon": 5987,
      "ÐµÐ»Ð°ÑĢÑĥ": 5988,
      "Ġkonsideri": 5989,
      "Ġagor": 5990,
      "Ġrenov": 5991,
      "Ø§ÙĦØ¹Ø±Ø¨ÙĬØ©": 5992,
      "Ligo": 5993,
      "Ġelspe": 5994,
      "ĠRobert": 5995,
      "ĠArgen": 5996,
      "teo": 5997,
      "Dankon": 5998,
      "Ġregas": 5999,
      "saj": 6000,
      "estis": 6001,
      "ÐµÐ»Ð°ÑĢÑĥÑģÐºÐ°Ñı": 6002,
      "kia": 6003,
      "Ġpercep": 6004,
      "ĠPen": 6005,
      "lav": 6006,
      "Rulse": 6007,
      "ìĸ": 6008,
      "preni": 6009,
      "ĠGrek": 6010,
      "Ġmalnovaj": 6011,
      "ĠinteresiÄĿas": 6012,
      "ĠMod": 6013,
      "Ġnura": 6014,
      "Ġniveloj": 6015,
      "Ġasocioj": 6016,
      "Ġimperiestro": 6017,
      "Ġturni": 6018,
      "Ġpartopreno": 6019,
      "ĠFE": 6020,
      "Ġpublikigita": 6021,
      "Ġ1996": 6022,
      "sed": 6023,
      "Ġlernejoj": 6024,
      "Ð£ÐºÑĢÐ°ÑĹÐ½ÑģÑĮÐºÐ°": 6025,
      "Ùħ": 6026,
      "Ġchi": 6027,
      "ĠloÄĿis": 6028,
      "Ġricevos": 6029,
      "ranto": 6030,
      "Poli": 6031,
      "Ġkredi": 6032,
      "íķľ": 6033,
      "Ġinfluo": 6034,
      "fina": 6035,
      "bay": 6036,
      "ĠChinese": 6037,
      "ãĤĭ": 6038,
      "voje": 6039,
      "1996": 6040,
      "Ġprovo": 6041,
      "ìĸ´": 6042,
      "lest": 6043,
      "kcioj": 6044,
      "Ġkonstruita": 6045,
      "ight": 6046,
      "EF": 6047,
      "Ekde": 6048,
      "Kara": 6049,
      "car": 6050,
      "Ġreduk": 6051,
      "Ġsendube": 6052,
      "Ġekzer": 6053,
      "Ġviziti": 6054,
      "Ġmalaperis": 6055,
      "Ġkoncepto": 6056,
      "klaku": 6057,
      "êµŃ": 6058,
      "Ġ300": 6059,
      "Ġrajton": 6060,
      "spaco": 6061,
      "Kor": 6062,
      "ij": 6063,
      "IC": 6064,
      "Ġpublikaj": 6065,
      "Ġ1989": 6066,
      "ĠHenry": 6067,
      "andoj": 6068,
      "ÄĪefa": 6069,
      "ÅĤa": 6070,
      "arch": 6071,
      "Ġfajro": 6072,
      "Ġrekta": 6073,
      "Ġskriba": 6074,
      "à¤¨": 6075,
      "Ġerar": 6076,
      "ĠÅĿajnis": 6077,
      "ĠKara": 6078,
      "CatalÃł": 6079,
      "tig": 6080,
      "Ġzo": 6081,
      "ĠHun": 6082,
      "ĠTro": 6083,
      "Er": 6084,
      "kultura": 6085,
      "tikajn": 6086,
      "Ġludi": 6087,
      "Ġalte": 6088,
      "amoj": 6089,
      "ques": 6090,
      "ĠSil": 6091,
      "Ġregule": 6092,
      "KA": 6093,
      "disto": 6094,
      "Ġinvitas": 6095,
      "ĠÄĿisda": 6096,
      "tho": 6097,
      "Ã¡s": 6098,
      "ranta": 6099,
      "datumoj": 6100,
      "pin": 6101,
      "gitaj": 6102,
      "Ġ90": 6103,
      "ĠhaÅŃto": 6104,
      "Ġdiferenc": 6105,
      "Ġsankta": 6106,
      "Ġdest": 6107,
      "ĠÐ¿": 6108,
      "Ġned": 6109,
      "Ġsimile": 6110,
      "Ġparla": 6111,
      "Ġrigardas": 6112,
      "maniere": 6113,
      "Ġmemoras": 6114,
      "bado": 6115,
      "ĠOs": 6116,
      "ÑģÑĤ": 6117,
      "Ġnega": 6118,
      "Ġhum": 6119,
      "ĠEklezio": 6120,
      "Ġversion": 6121,
      "Ġstar": 6122,
      "ĠLerniloj": 6123,
      "ÅĻ": 6124,
      "Ġbul": 6125,
      "Ġprofesia": 6126,
      "Ġaspekto": 6127,
      "peza": 6128,
      "Ġklientoj": 6129,
      "Ġelekta": 6130,
      "Ġ45": 6131,
      "kson": 6132,
      "Ġkalen": 6133,
      "ĠFar": 6134,
      "Ġiliajn": 6135,
      "kano": 6136,
      "Ġprojekton": 6137,
      "AnkaÅŃ": 6138,
      "áĥĲ": 6139,
      "Ġargumen": 6140,
      "skij": 6141,
      "Mapo": 6142,
      "Ġrimed": 6143,
      "Ġrakontoj": 6144,
      "Ġgo": 6145,
      "ĠOrig": 6146,
      "ĠTutmonda": 6147,
      "Ġkomputilo": 6148,
      "cin": 6149,
      "Ġ32": 6150,
      "vans": 6151,
      "2004": 6152,
      "Ġpripens": 6153,
      "Gran": 6154,
      "Ġian": 6155,
      "pole": 6156,
      "Ġbonven": 6157,
      "Ġaraba": 6158,
      "Ġfenom": 6159,
      "ppe": 6160,
      "ander": 6161,
      "Tele": 6162,
      "kler": 6163,
      "Ġ1992": 6164,
      "íķľêµŃ": 6165,
      "Ġmun": 6166,
      "trankvi": 6167,
      "Ġpapo": 6168,
      "ĠMari": 6169,
      "ĠkaÅŃzis": 6170,
      "EM": 6171,
      "OJ": 6172,
      "Ġ1960": 6173,
      "blish": 6174,
      "nalo": 6175,
      "íķľêµŃìĸ´": 6176,
      "style": 6177,
      "Kion": 6178,
      "komun": 6179,
      "cial": 6180,
      "ĠVla": 6181,
      "Ġdistribu": 6182,
      "áĥĲáĥ": 6183,
      "Ġverkojn": 6184,
      "eblan": 6185,
      "kilo": 6186,
      "mil": 6187,
      "tologio": 6188,
      "dulo": 6189,
      "tona": 6190,
      "tent": 6191,
      "cero": 6192,
      "ĠKubo": 6193,
      "Ġkvara": 6194,
      "tikedo": 6195,
      "lismo": 6196,
      "Ġplenkres": 6197,
      "gyar": 6198,
      "Ġforumo": 6199,
      "ĠvojaÄĿo": 6200,
      "Ġebligi": 6201,
      "Ġ34": 6202,
      "ĠmesaÄĿon": 6203,
      "fos": 6204,
      "gla": 6205,
      "gula": 6206,
      "Ġmilit": 6207,
      "nomo": 6208,
      "nun": 6209,
      "Ã¹": 6210,
      "Ġskribas": 6211,
      "×Ļ×ª": 6212,
      "roati": 6213,
      "Ġsekvan": 6214,
      "Ġaferon": 6215,
      "Ð»Ð³": 6216,
      "Ġamu": 6217,
      "Ġ1995": 6218,
      "Ġukra": 6219,
      "Ġlernantoj": 6220,
      "Ġkresko": 6221,
      "EC": 6222,
      "Ġestabli": 6223,
      ",[": 6224,
      "mena": 6225,
      "hor": 6226,
      "ombo": 6227,
      "fika": 6228,
      "Ġfojo": 6229,
      "Ġkomenton": 6230,
      "Ġkuracisto": 6231,
      "Hej": 6232,
      "Ã¶r": 6233,
      "Ġretro": 6234,
      "kismo": 6235,
      "Ġ36": 6236,
      "Ġdiferen": 6237,
      "ĠRetoso": 6238,
      "2012": 6239,
      "Mor": 6240,
      "ĠFrank": 6241,
      "ĠHam": 6242,
      "libroj": 6243,
      "Ġatenton": 6244,
      "Ġklarigas": 6245,
      "ĠYou": 6246,
      "Ġuzita": 6247,
      "Ġtutmonde": 6248,
      "Ã¼rkÃ§e": 6249,
      "ĠNom": 6250,
      "geno": 6251,
      "Ġares": 6252,
      "Ġ250": 6253,
      "Ġmalsamoj": 6254,
      "Ġcivitanoj": 6255,
      "Ġgus": 6256,
      "omiaj": 6257,
      "kanoj": 6258,
      "Ġhelpos": 6259,
      "taraj": 6260,
      "Ġaktivas": 6261,
      "Notoj": 6262,
      "Õ¥": 6263,
      "oras": 6264,
      "Ġfem": 6265,
      "uld": 6266,
      "Ġkapa": 6267,
      "Ġalum": 6268,
      "Ġnecesa": 6269,
      "Jam": 6270,
      "chive": 6271,
      "Ġproprajn": 6272,
      "Ġski": 6273,
      "ĠinÄĿeni": 6274,
      "ĠSem": 6275,
      "rajno": 6276,
      "Ġtablo": 6277,
      "Ġvarme": 6278,
      "ãģ¦": 6279,
      "Ġ1991": 6280,
      "Ġopinion": 6281,
      "Kan": 6282,
      "âĢŀ": 6283,
      "ĠEÅŃ": 6284,
      "atan": 6285,
      "kipedi": 6286,
      "Ġkonto": 6287,
      "ĠRos": 6288,
      "Ã¼n": 6289,
      "tikan": 6290,
      "Reply": 6291,
      "alan": 6292,
      "Ġsubpre": 6293,
      "Ġfamili": 6294,
      "lub": 6295,
      "olingo": 6296,
      "paglia": 6297,
      "zino": 6298,
      "ic": 6299,
      "ttapaglia": 6300,
      "Ġvento": 6301,
      "line": 6302,
      "Ġmiliar": 6303,
      "ĠReÄĿ": 6304,
      "ÄĿantoj": 6305,
      "jorino": 6306,
      "sojn": 6307,
      "ĠOkcidenta": 6308,
      "Ġpartioj": 6309,
      "Ġdeli": 6310,
      "ĠÄīielo": 6311,
      "ĠfiniÄĿis": 6312,
      "ĠCetere": 6313,
      "Ġurb": 6314,
      "Ġkapti": 6315,
      "łáĥ": 6316,
      "ĠIrano": 6317,
      "Ġpeti": 6318,
      "poni": 6319,
      "Ġdiferenco": 6320,
      "ãĢģ": 6321,
      "Ġpriskribo": 6322,
      "istojn": 6323,
      "tintoj": 6324,
      "taria": 6325,
      "Ġalfron": 6326,
      "Prin": 6327,
      "orizon": 6328,
      "ĠNorda": 6329,
      "Ge": 6330,
      "Ġunun": 6331,
      "Ġdirektoro": 6332,
      "gren": 6333,
      "Ġkonci": 6334,
      "2018": 6335,
      "Ġsekureco": 6336,
      "ĠLitovio": 6337,
      "Ġkolon": 6338,
      "eg": 6339,
      "ÐĳÐµÐ»Ð°ÑĢÑĥÑģÐºÐ°Ñı": 6340,
      "kursoj": 6341,
      "Õ¶": 6342,
      "Ġkonfes": 6343,
      "ĠAÅŃstralio": 6344,
      "dom": 6345,
      "enton": 6346,
      "Ġfenestro": 6347,
      "Ġfalis": 6348,
      "Ġhezi": 6349,
      "ĠGlo": 6350,
      "Ġcelon": 6351,
      "Pers": 6352,
      "Ġhelp": 6353,
      "ÑĪ": 6354,
      "Ġsencon": 6355,
      "Ã¥l": 6356,
      "Ġmunici": 6357,
      "Ili": 6358,
      "terdamo": 6359,
      "tenas": 6360,
      "Ġrespondi": 6361,
      "mante": 6362,
      "ĠVieno": 6363,
      "Ġsimilas": 6364,
      "doviko": 6365,
      "eraj": 6366,
      "Ġfilozofio": 6367,
      "tte": 6368,
      "Ġforlasis": 6369,
      "torio": 6370,
      "2007": 6371,
      "Ġprezoj": 6372,
      "ÄĮeÅ¡tina": 6373,
      "Ġprepar": 6374,
      "Å¼": 6375,
      "ĠRevolu": 6376,
      "ik": 6377,
      "Ġmalfeli": 6378,
      "ĠAfrika": 6379,
      "Ġstudentoj": 6380,
      "ekzemple": 6381,
      "jar": 6382,
      "Ġref": 6383,
      "ĠsufiÄīas": 6384,
      "Ġapliki": 6385,
      "Facebook": 6386,
      "ist": 6387,
      "Ġofen": 6388,
      "ĠMac": 6389,
      "ĠJosÃ©": 6390,
      "2014": 6391,
      "Ġdonacoj": 6392,
      "ĠseksneÅŃtra": 6393,
      "Ġkonstruado": 6394,
      "mann": 6395,
      "Ġmanon": 6396,
      "ĠIndonesia": 6397,
      "vle": 6398,
      "Ġaver": 6399,
      "Ġtavo": 6400,
      "amilio": 6401,
      "Ġates": 6402,
      "ĠChris": 6403,
      "zante": 6404,
      "Ġprezento": 6405,
      "Februaro": 6406,
      "Ġepis": 6407,
      "Ġsx": 6408,
      "Ġoficejo": 6409,
      "etu": 6410,
      "igx": 6411,
      "ĠThomas": 6412,
      "Ġklasika": 6413,
      "vero": 6414,
      "Ġgermanaj": 6415,
      "ĠÅĿanÄĿis": 6416,
      "ĠDie": 6417,
      "ĠRich": 6418,
      "ĠdisvolviÄĿo": 6419,
      "organi": 6420,
      "Ġkampoj": 6421,
      "taÄµojn": 6422,
      "Ġilus": 6423,
      "dataj": 6424,
      "ĠGer": 6425,
      "Ġprofunde": 6426,
      "low": 6427,
      "yo": 6428,
      "deble": 6429,
      "Ġaldonu": 6430,
      "tuli": 6431,
      "Ġsubme": 6432,
      "ÄĿantaj": 6433,
      "Ġbirdoj": 6434,
      "Ġokulojn": 6435,
      "Ġfinanca": 6436,
      "Ġkoncernas": 6437,
      "Priskribo": 6438,
      "Ġov": 6439,
      "vinco": 6440,
      "ĠÅĿtata": 6441,
      "Ġsimbolo": 6442,
      "Ġagoj": 6443,
      "estroj": 6444,
      "Ġkondukis": 6445,
      "ĠParlamento": 6446,
      "ĠKarman": 6447,
      "Ġromp": 6448,
      "ĠÅĿto": 6449,
      "ĠWiki": 6450,
      "Ġkonserva": 6451,
      "ise": 6452,
      "Ġkomfor": 6453,
      "filo": 6454,
      "ĠÄīefministro": 6455,
      "Ġtradicio": 6456,
      "ĠÄīas": 6457,
      "AfiÅĿita": 6458,
      "ksaj": 6459,
      "Ġproponojn": 6460,
      "Ġmetro": 6461,
      "display": 6462,
      "fita": 6463,
      "Ġ1993": 6464,
      "Ġkolor": 6465,
      "nivela": 6466,
      "Ġkonati": 6467,
      "ĠMaj": 6468,
      "gov": 6469,
      "Bonvolu": 6470,
      "Ġtelefon": 6471,
      "Ġprepari": 6472,
      "Ġintele": 6473,
      "Viki": 6474,
      "Ġkonver": 6475,
      "ĠGal": 6476,
      "anton": 6477,
      "ĠSvedio": 6478,
      "áº¿": 6479,
      "ĠRevuo": 6480,
      "ĠMalfer": 6481,
      "Ġefika": 6482,
      "ĠRez": 6483,
      "tinoj": 6484,
      "Ġmalka": 6485,
      "Ġrevu": 6486,
      "Ġmeza": 6487,
      "Ġkonstante": 6488,
      "Ġgravajn": 6489,
      "ojo": 6490,
      "teto": 6491,
      "Ġjudoj": 6492,
      "ĠKie": 6493,
      "verso": 6494,
      "Ġflor": 6495,
      "Ġsituacion": 6496,
      "Kore": 6497,
      "dosi": 6498,
      "Ġpostaj": 6499,
      "áĢ¬": 6500,
      "mova": 6501,
      "regis": 6502,
      "Ġkonvers": 6503,
      "ĠSuda": 6504,
      "lie": 6505,
      "ĠÄīiujare": 6506,
      "Ġmalaper": 6507,
      "ÅĿitaj": 6508,
      "ezu": 6509,
      "deo": 6510,
      "ĠSom": 6511,
      "Ġlegantoj": 6512,
      "krimin": 6513,
      "Ġlerno": 6514,
      "oru": 6515,
      "ĠBru": 6516,
      "Ġpaper": 6517,
      "ĠÐ²": 6518,
      "df": 6519,
      "terojn": 6520,
      "Ġoperaci": 6521,
      "ĠAnglio": 6522,
      "mÃ¥l": 6523,
      "Ġdifini": 6524,
      "Ġinteligen": 6525,
      "IT": 6526,
      "liÄĿis": 6527,
      "ĠkonstruaÄµo": 6528,
      "Ġcirkon": 6529,
      "Ġkatastro": 6530,
      "sekcio": 6531,
      "Øª": 6532,
      "Ġreala": 6533,
      "Ġsana": 6534,
      "Ġbro": 6535,
      "ĠDiskuto": 6536,
      "Ġesplorado": 6537,
      "Ġigas": 6538,
      "kupo": 6539,
      "Ġpastro": 6540,
      "Ġknabo": 6541,
      "Ġkomisiono": 6542,
      "Ġsuk": 6543,
      "ĠOkt": 6544,
      "ÄĪar": 6545,
      "Ðľ": 6546,
      "antaÅŃ": 6547,
      "Liber": 6548,
      "ec": 6549,
      "Ġfondis": 6550,
      "ĠÅĿian": 6551,
      "ebleco": 6552,
      "Ġkutima": 6553,
      "Ġklaso": 6554,
      "Ð»Ð³Ð°ÑĢ": 6555,
      "Ġenga": 6556,
      "Ġsinsek": 6557,
      "Ġorganizi": 6558,
      "ĠUsona": 6559,
      "Ġsemajnoj": 6560,
      "à°": 6561,
      "ĠBela": 6562,
      "Ġkoti": 6563,
      "Ġfas": 6564,
      "Ġentreprenoj": 6565,
      "Ġdemokratio": 6566,
      "ĠaliÄĿis": 6567,
      "Ġefikon": 6568,
      "ĠrulseÄĿon": 6569,
      "Country": 6570,
      "pensi": 6571,
      "Ġspirito": 6572,
      "Ġprenas": 6573,
      "ĠPeter": 6574,
      "ĠDen": 6575,
      "Ġstrategio": 6576,
      "fano": 6577,
      "ĠMus": 6578,
      "Ġreen": 6579,
      "ĠBre": 6580,
      "Ġprogramon": 6581,
      "Ġciviliz": 6582,
      "displaystyle": 6583,
      "kejo": 6584,
      "Situo": 6585,
      "adis": 6586,
      "Ġkialo": 6587,
      "ĠFil": 6588,
      "Ġstudoj": 6589,
      "ĠÅĿiaj": 6590,
      "Ġ(...)": 6591,
      "Ġpropagan": 6592,
      "Ġvolonte": 6593,
      "ĠÄĪina": 6594,
      "denta": 6595,
      "ĠreÄĿimo": 6596,
      "aÄµojn": 6597,
      "ĠruÄĿa": 6598,
      "medo": 6599,
      "geta": 6600,
      "vajo": 6601,
      "zaro": 6602,
      "Ã½": 6603,
      "ĠBelgio": 6604,
      "Ġdifek": 6605,
      "ospita": 6606,
      "à±": 6607,
      "Ġorganizoj": 6608,
      "Ġmovi": 6609,
      "IL": 6610,
      "Ġfri": 6611,
      "Ġkampar": 6612,
      "gilo": 6613,
      "plej": 6614,
      "Ġadmi": 6615,
      "klas": 6616,
      "Ġskulp": 6617,
      "Ġmens": 6618,
      "ĠLen": 6619,
      "Ġkursoj": 6620,
      "Ġkapablo": 6621,
      "Ġasertas": 6622,
      "letoj": 6623,
      "ĠEkzistas": 6624,
      "Suomi": 6625,
      "Ġ1945": 6626,
      "Ġteknologio": 6627,
      "Kvankam": 6628,
      "info": 6629,
      "Ġkonker": 6630,
      "Ġlimo": 6631,
      "Ġnuntempa": 6632,
      "Ġrilatojn": 6633,
      "guage": 6634,
      "ĠTion": 6635,
      "ĠaranÄĿo": 6636,
      "daÄµoj": 6637,
      "Ġkunlabori": 6638,
      "ĠGrattapaglia": 6639,
      "Î¹ÎºÎ": 6640,
      "Ġvenos": 6641,
      "Ġmencias": 6642,
      "Ġmaltrankvi": 6643,
      "Ġfro": 6644,
      "Ġpretas": 6645,
      "Ġpardon": 6646,
      "nen": 6647,
      "hone": 6648,
      "Ber": 6649,
      "Ġkontribui": 6650,
      "ermo": 6651,
      "Äīer": 6652,
      "ln": 6653,
      "ae": 6654,
      "inis": 6655,
      "Ġjuro": 6656,
      "Ligiloj": 6657,
      "kus": 6658,
      "ril": 6659,
      "Ġestro": 6660,
      "komputi": 6661,
      "Ġhid": 6662,
      "ĠJor": 6663,
      "Ġrajtojn": 6664,
      "Ġdankon": 6665,
      "Ġreprezentas": 6666,
      "kru": 6667,
      "Ġsubtenon": 6668,
      "LU": 6669,
      "Ġgej": 6670,
      "ror": 6671,
      "ĠDom": 6672,
      "Ġaer": 6673,
      "ziaj": 6674,
      "Ġ07": 6675,
      "uskara": 6676,
      "Ġdemandon": 6677,
      "Ġkreskas": 6678,
      "Ġtempoj": 6679,
      "citaj": 6680,
      "Ġrenkontis": 6681,
      "ĠSekure": 6682,
      "Ġurba": 6683,
      "ĠDemokra": 6684,
      "distoj": 6685,
      "Ġbezonoj": 6686,
      "ĠAleksandro": 6687,
      "olon": 6688,
      "aÅŃto": 6689,
      "alisma": 6690,
      "Ġorganizantoj": 6691,
      "Ami": 6692,
      "Ġglu": 6693,
      "zioj": 6694,
      "Ġverkita": 6695,
      "ksidebla": 6696,
      "ido": 6697,
      "ĠIrlando": 6698,
      "IF": 6699,
      "Ġprokla": 6700,
      "ĠÄµurnalisto": 6701,
      "Ġdokumentoj": 6702,
      "ĠNeniu": 6703,
      "Ġ01": 6704,
      "Ġareoj": 6705,
      "nia": 6706,
      "EB": 6707,
      "Ġefike": 6708,
      "Ġsekretario": 6709,
      "Ġpolitikisto": 6710,
      "okmÃ¥l": 6711,
      "Ġhejme": 6712,
      "kategor": 6713,
      "turilo": 6714,
      "Ġkontinento": 6715,
      "ĠArmeo": 6716,
      "donejo": 6717,
      "Ġspecifa": 6718,
      "umaj": 6719,
      "ĠretpoÅĿton": 6720,
      "Ġcxiuj": 6721,
      "Univers": 6722,
      "Fo": 6723,
      "Ġformi": 6724,
      "Ġlernado": 6725,
      "Ġkvadra": 6726,
      "Ġredakto": 6727,
      "Ġanoncis": 6728,
      "á»ĩ": 6729,
      "eralaj": 6730,
      "logion": 6731,
      "ĠNation": 6732,
      "500": 6733,
      "Ġdro": 6734,
      "ĠMichael": 6735,
      "ses": 6736,
      "Ġsukcesa": 6737,
      "Ġvero": 6738,
      "Ġ06": 6739,
      "fona": 6740,
      "Ġsup": 6741,
      "eth": 6742,
      "Ġekzisto": 6743,
      "ĠMondmilito": 6744,
      "tifi": 6745,
      "Twitter": 6746,
      "cialaj": 6747,
      "Afriko": 6748,
      "TÃ¼rkÃ§e": 6749,
      "ĠTom": 6750,
      "Ġpolico": 6751,
      "vorto": 6752,
      "ĠPerson": 6753,
      "Respondo": 6754,
      "×ĳ×¨": 6755,
      "ĠÄīapi": 6756,
      "Ġtan": 6757,
      "Persona": 6758,
      "Ġpodkas": 6759,
      "Ġdolaroj": 6760,
      "Ġmer": 6761,
      "ĠOce": 6762,
      "antan": 6763,
      "Ġprivata": 6764,
      "ĠPaÅŃlo": 6765,
      "Ġkaraktero": 6766,
      "Î»Î»": 6767,
      "ĠBor": 6768,
      "ĠCO": 6769,
      "Ġdiru": 6770,
      "Ġkandidatoj": 6771,
      "ding": 6772,
      "gmento": 6773,
      "mod": 6774,
      "ĠIsla": 6775,
      "Alia": 6776,
      "Ġvort": 6777,
      "Ġsento": 6778,
      "Ġedzo": 6779,
      "Ġton": 6780,
      "Ġtraduki": 6781,
      "Oftaj": 6782,
      "SU": 6783,
      "ĠAk": 6784,
      "Ġpritra": 6785,
      "ĠGoogle": 6786,
      "ÑĬÐ»Ð³Ð°ÑĢ": 6787,
      "Ġsurfaco": 6788,
      "Î·Î½": 6789,
      "à·": 6790,
      "Ġthis": 6791,
      "lata": 6792,
      "inojn": 6793,
      "Ġfamilioj": 6794,
      "altu": 6795,
      "ĠKO": 6796,
      "ĠGil": 6797,
      "Ġmuro": 6798,
      "LEI": 6799,
      "gli": 6800,
      "Ġtrakti": 6801,
      "\"),": 6802,
      "Ġkonsekven": 6803,
      "Ġebla": 6804,
      "breto": 6805,
      "tolika": 6806,
      "Geografio": 6807,
      "Ġabon": 6808,
      "lect": 6809,
      "Ġ47": 6810,
      "Ġpensoj": 6811,
      "Ġepizo": 6812,
      "gem": 6813,
      "Ġvenkis": 6814,
      "sia": 6815,
      "manoj": 6816,
      "Åľta": 6817,
      "Ġdoi": 6818,
      "oraÄµoj": 6819,
      "bata": 6820,
      "Ġgrandeco": 6821,
      "Ġkatolika": 6822,
      "ĠbokmÃ¥l": 6823,
      "ĠDes": 6824,
      "ĠComi": 6825,
      "angla": 6826,
      "Ġprobable": 6827,
      "ige": 6828,
      "ĠDia": 6829,
      "Ġsoli": 6830,
      "ĠPortuga": 6831,
      "Ġmemsta": 6832,
      "Ġpozicio": 6833,
      "muloj": 6834,
      "ĠHan": 6835,
      "Ġsamaj": 6836,
      "inia": 6837,
      "Ġavera": 6838,
      "Ġstan": 6839,
      "Ġmanojn": 6840,
      "ĠKomer": 6841,
      "Ð°ÑĪ": 6842,
      "Ġorto": 6843,
      "Ġmalsamajn": 6844,
      "kli": 6845,
      "Ġnea": 6846,
      "Ġekkon": 6847,
      "ktuala": 6848,
      "Ġvenonta": 6849,
      "kras": 6850,
      "ÑĬÐ»Ð³Ð°ÑĢÑģÐºÐ¸": 6851,
      "Ġpura": 6852,
      "raÅŃ": 6853,
      "umis": 6854,
      "Ġpuri": 6855,
      "ĠSep": 6856,
      "ĠPaÄĿo": 6857,
      "áº¿ng": 6858,
      "Ġnombron": 6859,
      "Lingvoj": 6860,
      "á»ĩt": 6861,
      "ĠMy": 6862,
      "Ġkonflikto": 6863,
      "ĠTam": 6864,
      "Ġguber": 6865,
      "Ġkulturaj": 6866,
      "zonoj": 6867,
      "cci": 6868,
      "DA": 6869,
      "Ġjenaj": 6870,
      "ĠmalÅĿ": 6871,
      "ĠFonto": 6872,
      "uras": 6873,
      "Ġfako": 6874,
      "Ġora": 6875,
      "Ġangle": 6876,
      "Ġverda": 6877,
      "Ġcetere": 6878,
      "vora": 6879,
      "Ġparame": 6880,
      "urig": 6881,
      "ĠIuj": 6882,
      "Ġrezultoj": 6883,
      "Ġpersek": 6884,
      "ĠGro": 6885,
      "ĠMalay": 6886,
      "Ã«": 6887,
      "ĠMol": 6888,
      "Ġtradiciaj": 6889,
      "ujon": 6890,
      "Ġ05": 6891,
      "Î¹ÎºÎ¬": 6892,
      "entojn": 6893,
      "Ġdissen": 6894,
      "Ġtrapas": 6895,
      "gue": 6896,
      "ĠAna": 6897,
      "¡Õµ": 6898,
      "Î»Î»Î·Î½": 6899,
      "Ġobjektoj": 6900,
      "tagoj": 6901,
      "ĠMO": 6902,
      "ĠUnue": 6903,
      "Ġgajnis": 6904,
      "dt": 6905,
      "Ġliajn": 6906,
      "ĠBern": 6907,
      "veni": 6908,
      "Ġvenko": 6909,
      "Ġankaux": 6910,
      "Tre": 6911,
      "Ġiama": 6912,
      "ĠÅĿtu": 6913,
      "Ġministro": 6914,
      "ĠCerte": 6915,
      "Ġdecem": 6916,
      "ĠKen": 6917,
      "ĠAzer": 6918,
      "rekven": 6919,
      "Ġlanda": 6920,
      "Ġcele": 6921,
      "ÑģÐºÐ¾": 6922,
      "tl": 6923,
      "Ġformas": 6924,
      "Ġnombroj": 6925,
      "Ġkomentojn": 6926,
      "Ġprofunda": 6927,
      "ĠKonstan": 6928,
      "Ġcm": 6929,
      "Ġinternacian": 6930,
      "Ġjunulara": 6931,
      "Ġkomuniko": 6932,
      "Ġnukle": 6933,
      "Ġligno": 6934,
      "tonoj": 6935,
      "Me": 6936,
      "Ã¢nÄĥ": 6937,
      "Ġag": 6938,
      "ĠPhi": 6939,
      "ÐµÐ½": 6940,
      "TP": 6941,
      "lande": 6942,
      "Ð°Ð·": 6943,
      "hou": 6944,
      "Ġetiked": 6945,
      "ranoj": 6946,
      "Ġnaturaj": 6947,
      "ĠLatin": 6948,
      "kana": 6949,
      "Ġmembrojn": 6950,
      "respondi": 6951,
      "Ġprezentita": 6952,
      "AC": 6953,
      "ĠViá»ĩt": 6954,
      "Ġmalofte": 6955,
      "Ġarbo": 6956,
      "Ġmorti": 6957,
      "mley": 6958,
      "pta": 6959,
      "isa": 6960,
      "à¡": 6961,
      "ejojn": 6962,
      "eu": 6963,
      "ÉĻ": 6964,
      "Ġforigitaj": 6965,
      "asis": 6966,
      "ĠEdukado": 6967,
      "Ġdifino": 6968,
      "Ġkorespon": 6969,
      "Ġlago": 6970,
      "cto": 6971,
      "rp": 6972,
      "zajno": 6973,
      "Ġinstitucioj": 6974,
      "Ġliston": 6975,
      "ĠDC": 6976,
      "ĠBrita": 6977,
      "Ġsimpto": 6978,
      "Ġmalgrandan": 6979,
      "Ġaltkva": 6980,
      "Ġpil": 6981,
      "Ġordonis": 6982,
      "Î»Î»Î·Î½Î¹ÎºÎ¬": 6983,
      "Ġfing": 6984,
      "kcia": 6985,
      "ĠdaÅŃras": 6986,
      "Ġvespero": 6987,
      "ĠSekve": 6988,
      "Ġmaljuna": 6989,
      "ĠFern": 6990,
      "pezaj": 6991,
      "Ġlimigita": 6992,
      "tiloj": 6993,
      "Ġkredo": 6994,
      "Ġmapo": 6995,
      "Ġlongan": 6996,
      "Ġprincipo": 6997,
      "ÑĢÐ¿ÑģÐºÐ¸": 6998,
      "viÄī": 6999,
      "tonon": 7000,
      "Ġkomisi": 7001,
      "Ġgermanoj": 7002,
      "Ġmikro": 7003,
      "ille": 7004,
      "Ġvarma": 7005,
      "Fon": 7006,
      "ãģ«": 7007,
      "Loko": 7008,
      "Ġmetroj": 7009,
      "Ch": 7010,
      "ffi": 7011,
      "mala": 7012,
      "Ġpeople": 7013,
      "Ġkonkre": 7014,
      "ĠGrekio": 7015,
      "tine": 7016,
      "Ġprun": 7017,
      "Ġ33": 7018,
      "mund": 7019,
      "Ġparlamento": 7020,
      "Ġkantis": 7021,
      "ym": 7022,
      "dape": 7023,
      "Ġ39": 7024,
      "ĠdaÅŃrigi": 7025,
      "Ġgxi": 7026,
      "×¢×ĳ×¨": 7027,
      "ĠKla": 7028,
      "Ġit": 7029,
      "festo": 7030,
      "ÄĿerio": 7031,
      "×¢×ĳ×¨×Ļ×ª": 7032,
      "ķÎ»Î»Î·Î½Î¹ÎºÎ¬": 7033,
      "Äīeco": 7034,
      "radi": 7035,
      "forme": 7036,
      "ĠAsembleo": 7037,
      "Ġastron": 7038,
      "peten": 7039,
      "Ġkoloro": 7040,
      "Ġanarki": 7041,
      "Ġmilita": 7042,
      "vortoj": 7043,
      "Ġesprimas": 7044,
      "ĠMovado": 7045,
      "Ġdifinita": 7046,
      "lago": 7047,
      "diÄīoj": 7048,
      "Ġdirekto": 7049,
      "ĠBro": 7050,
      "**": 7051,
      "Ġpezo": 7052,
      "zos": 7053,
      "Ġdig": 7054,
      "Ġrealigi": 7055,
      "sch": 7056,
      "Ġstul": 7057,
      "une": 7058,
      "Ġadreso": 7059,
      "Ġsolida": 7060,
      "bliotekoj": 7061,
      "Ġnomi": 7062,
      "Ġredaktoro": 7063,
      "ĠKulturo": 7064,
      "Ġportugala": 7065,
      "tikoj": 7066,
      "Ġplas": 7067,
      "Ġblogo": 7068,
      "ĠankaÅŃRedakti": 7069,
      "Ġfinis": 7070,
      "ind": 7071,
      "ĠiÄĿi": 7072,
      "taneco": 7073,
      "Ġpartojn": 7074,
      "serva": 7075,
      "loro": 7076,
      "Ġfe": 7077,
      "Ġhote": 7078,
      "bejo": 7079,
      "Ð¸Ð½": 7080,
      "hon": 7081,
      "tiÄĿon": 7082,
      "hav": 7083,
      "linio": 7084,
      "Ġgvidantoj": 7085,
      "ĠrenkontiÄĿoj": 7086,
      "Ġrete": 7087,
      "mentojn": 7088,
      "Ð¢": 7089,
      "Ġrompi": 7090,
      "Äīita": 7091,
      "âĢĻ,": 7092,
      "ĠJus": 7093,
      "Ġformato": 7094,
      ".:": 7095,
      "ajnas": 7096,
      "Ġresumo": 7097,
      "Ġludoj": 7098,
      "ĠTwitter": 7099,
      "Ġmalhelpi": 7100,
      "Ġatingas": 7101,
      "ĠaÅŃskulti": 7102,
      "Ġsova": 7103,
      "Ġsupozas": 7104,
      "Õ¥ÖĢÕ": 7105,
      "Okupo": 7106,
      "Ġmuzikon": 7107,
      "Ġeliris": 7108,
      "sv": 7109,
      "Ġ400": 7110,
      "ĠLudoviko": 7111,
      "inga": 7112,
      "Ġ03": 7113,
      "Ġvaloroj": 7114,
      "Ġanalizo": 7115,
      "Ġprogrameroj": 7116,
      "Ġmotoro": 7117,
      "Ġadres": 7118,
      "Ġmiloj": 7119,
      "Ġofta": 7120,
      "Ġinforma": 7121,
      "Ġindividuoj": 7122,
      "PoÅĿ": 7123,
      "Ġegalas": 7124,
      "Fil": 7125,
      "trans": 7126,
      "ĠFoiro": 7127,
      "phi": 7128,
      "ĠJames": 7129,
      "Ġprincipoj": 7130,
      "ÅĽ": 7131,
      "migi": 7132,
      "1994": 7133,
      "EÅŃro": 7134,
      "Ġplenan": 7135,
      "pÃ©ranto": 7136,
      "UEA": 7137,
      "Ġaliro": 7138,
      "Magyar": 7139,
      "ĠbedaÅŃ": 7140,
      "ĠPovas": 7141,
      "Ġhejmen": 7142,
      "Ġneniel": 7143,
      "Ġaspektas": 7144,
      "ĠdaÅŃris": 7145,
      "Ġrefor": 7146,
      "Ġklarig": 7147,
      "kh": 7148,
      "Ġkadro": 7149,
      "Ġreligia": 7150,
      "ĠIl": 7151,
      "versaj": 7152,
      "Ġteritorioj": 7153,
      "Artikoloj": 7154,
      "Ġkvi": 7155,
      "Ġplatformo": 7156,
      "Ġportas": 7157,
      "gaÅŃ": 7158,
      "hare": 7159,
      "vilkarto": 7160,
      "Ð¾ÑĢ": 7161,
      "ãģ¯": 7162,
      "à¥į": 7163,
      "Ġdistanco": 7164,
      "ĠFab": 7165,
      "anco": 7166,
      "Ġfeb": 7167,
      "bus": 7168,
      "erio": 7169,
      "Euskara": 7170,
      "Ġproduktas": 7171,
      "IM": 7172,
      "Ġdomon": 7173,
      "pru": 7174,
      "sol": 7175,
      "div": 7176,
      "Ġpasis": 7177,
      "Ġpersonaj": 7178,
      "cino": 7179,
      "Ġnere": 7180,
      "ÄĿajn": 7181,
      "provi": 7182,
      "ligitaj": 7183,
      "Batman": 7184,
      "Ġekzemploj": 7185,
      "Ġnormala": 7186,
      "Ġperdi": 7187,
      "iz": 7188,
      "omia": 7189,
      "Ġkato": 7190,
      "Super": 7191,
      "varo": 7192,
      "teblaj": 7193,
      "skribo": 7194,
      "ĠSlovakio": 7195,
      "Ġforpas": 7196,
      "Mallonga": 7197,
      "Ġkoman": 7198,
      "Ġletero": 7199,
      "Ġfortan": 7200,
      "PER": 7201,
      "ãģĹ": 7202,
      "Ġkondukas": 7203,
      "ĠkonstruaÄµoj": 7204,
      "Ġtimo": 7205,
      "Ġstranga": 7206,
      "ĠAM": 7207,
      "ĠRed": 7208,
      "spi": 7209,
      "asko": 7210,
      "Ġpovo": 7211,
      "Ġkorpon": 7212,
      "ex": 7213,
      "ĠSame": 7214,
      "Ð¾Ð»": 7215,
      "Ġpreta": 7216,
      "Ġrakontis": 7217,
      "Ġmalkovris": 7218,
      "vineo": 7219,
      "ĠMara": 7220,
      "tekto": 7221,
      "Ġsomero": 7222,
      "ich": 7223,
      "Ġlegas": 7224,
      "Ġblin": 7225,
      "Ġarbaro": 7226,
      "instru": 7227,
      "ĠPres": 7228,
      "2015": 7229,
      "Ġeniri": 7230,
      "Ġvolo": 7231,
      "akti": 7232,
      "2013": 7233,
      "ĠNovjor": 7234,
      "Ġtradukis": 7235,
      "Ġripo": 7236,
      "Ġplantoj": 7237,
      "Ġinstrui": 7238,
      "Ġindiki": 7239,
      "Ġmuzika": 7240,
      "Ġsveda": 7241,
      "Ġetoso": 7242,
      "Ġaliron": 7243,
      "Ġverkistoj": 7244,
      "ĠExpress": 7245,
      "Ġkonservas": 7246,
      "Komun": 7247,
      "fto": 7248,
      "Ġlandli": 7249,
      "Ġestrarano": 7250,
      "Ġorganizado": 7251,
      "Ġnaskita": 7252,
      "Ġpligran": 7253,
      "Ġligitaj": 7254,
      "Ġdemandi": 7255,
      "Å³": 7256,
      "ĠLes": 7257,
      "Ġarkitek": 7258,
      "Ġnacioj": 7259,
      "Ġtelevi": 7260,
      "Ġkontrolo": 7261,
      "ĠmaÅĿino": 7262,
      "ĠÅĿipo": 7263,
      "Ġsendependa": 7264,
      "ļáĥ": 7265,
      ".;": 7266,
      "dig": 7267,
      "Ġinterreto": 7268,
      "Ġakadem": 7269,
      "ĠKel": 7270,
      "Ġdiskrimin": 7271,
      "Åľi": 7272,
      "ablo": 7273,
      "Ġlernas": 7274,
      "Ġanimo": 7275,
      "ÅĤaw": 7276,
      "ĠmanÄĿi": 7277,
      "Ġmetodoj": 7278,
      "todon": 7279,
      "pere": 7280,
      "pado": 7281,
      "jun": 7282,
      "Ġ37": 7283,
      "Ġaparato": 7284,
      "tiaj": 7285,
      "Ġrespektive": 7286,
      "Ġhavu": 7287,
      "Pl": 7288,
      "SO": 7289,
      "bloj": 7290,
      "gale": 7291,
      "ĠSw": 7292,
      "Ġdonita": 7293,
      "libron": 7294,
      "Ġbes": 7295,
      "Ð¸Ðº": 7296,
      "kapablo": 7297,
      "Ġkuketoj": 7298,
      "hy": 7299,
      "Ġmiliton": 7300,
      "ffer": 7301,
      "à©": 7302,
      "vir": 7303,
      "tacio": 7304,
      "Ġeldonita": 7305,
      "Ġpros": 7306,
      "Ġperfekta": 7307,
      "ĠIREJO": 7308,
      "dano": 7309,
      "Ġinfanojn": 7310,
      ".).": 7311,
      "gs": 7312,
      "heim": 7313,
      "ĠmesaÄĿo": 7314,
      "Ġhuman": 7315,
      "parolo": 7316,
      "¡ÕµÕ¥ÖĢÕ": 7317,
      "lÃ¡": 7318,
      "eman": 7319,
      "matiko": 7320,
      "Ġdispu": 7321,
      "Ġ48": 7322,
      "Ġspecio": 7323,
      "Ġintereso": 7324,
      "ĠDar": 7325,
      "Ġparolantoj": 7326,
      "sis": 7327,
      "bela": 7328,
      "ĠØ": 7329,
      "tefa": 7330,
      "Ġvul": 7331,
      "ĠTan": 7332,
      "ĠJES": 7333,
      "Äľis": 7334,
      "Ġhan": 7335,
      "dela": 7336,
      "tejoj": 7337,
      "Ġseksa": 7338,
      "áĥĲáĥłáĥ": 7339,
      "PO": 7340,
      "Ġdank": 7341,
      "2000": 7342,
      "Ġlasis": 7343,
      "Ġproponon": 7344,
      "tch": 7345,
      "Ġhipo": 7346,
      "ĠantaÅŃvi": 7347,
      "Ġsidejo": 7348,
      "prop": 7349,
      "ĠAnstataÅŃ": 7350,
      "Oficiala": 7351,
      "ĠHit": 7352,
      "ĠVikidatumoj": 7353,
      "Ġadministranto": 7354,
      "ĠÄīer": 7355,
      "ĠArgentino": 7356,
      "Ġsuspek": 7357,
      "Tur": 7358,
      "ĠVerda": 7359,
      "Ġperspek": 7360,
      "Ġaven": 7361,
      "Ġaliflanke": 7362,
      "Ġmalsupren": 7363,
      "Ġ(âĢľ": 7364,
      "Ġsubsekcio": 7365,
      "panoj": 7366,
      "ĠGeorge": 7367,
      "ĠKompreneble": 7368,
      "Ñĸ": 7369,
      "ĠkaÅŃzi": 7370,
      "erre": 7371,
      "Ġrilataj": 7372,
      "Ġkoncerne": 7373,
      "Ġplia": 7374,
      "pilo": 7375,
      "ÐµÑĢ": 7376,
      "plano": 7377,
      "ãĤĴ": 7378,
      "tÃ©": 7379,
      "ĠSha": 7380,
      "Ġservas": 7381,
      "tila": 7382,
      "ĠFrom": 7383,
      "yer": 7384,
      "Ġdankas": 7385,
      "ĠAlia": 7386,
      "usale": 7387,
      "Ġmalbone": 7388,
      "ĠMadrido": 7389,
      "ĠBea": 7390,
      "Ġwe": 7391,
      "Ġkomercaj": 7392,
      "Ġsumo": 7393,
      "prenu": 7394,
      "Ġintencas": 7395,
      "He": 7396,
      "eton": 7397,
      "Ġindas": 7398,
      "maniero": 7399,
      "phy": 7400,
      "SA": 7401,
      "naski": 7402,
      "kantoj": 7403,
      "Ġfirmao": 7404,
      "Jaro": 7405,
      "ĠPala": 7406,
      "ĠKonferenco": 7407,
      "Ġtrupoj": 7408,
      "pare": 7409,
      "gramoj": 7410,
      "Web": 7411,
      "Ġunuafoje": 7412,
      "Ġrajto": 7413,
      "Ġfok": 7414,
      "Ġmg": 7415,
      "Komenco": 7416,
      "Ġvizito": 7417,
      "moni": 7418,
      "Ġafa": 7419,
      "ANTO": 7420,
      "tedralo": 7421,
      "ĠÅĿlosi": 7422,
      "Ġekspor": 7423,
      "Ġgvidis": 7424,
      "ght": 7425,
      "Ġbrazila": 7426,
      "Ġkonis": 7427,
      "ĠSinjoro": 7428,
      "Ġparale": 7429,
      "ÐĳÑĬÐ»Ð³Ð°ÑĢÑģÐºÐ¸": 7430,
      "Ġmarbordo": 7431,
      "kel": 7432,
      "non": 7433,
      "Baskuli": 7434,
      "gk": 7435,
      "mini": 7436,
      "mond": 7437,
      "Ġ46": 7438,
      "Ġfle": 7439,
      "Ġpromen": 7440,
      "UR": 7441,
      "talaj": 7442,
      "Ġ1987": 7443,
      "Ġimpos": 7444,
      "Kunhavigi": 7445,
      "Ġpublikigo": 7446,
      "Ġmezo": 7447,
      "LC": 7448,
      "duloj": 7449,
      "Ġdemandas": 7450,
      "Akti": 7451,
      "Ġsubven": 7452,
      "Ġprinco": 7453,
      "ĠPolitiko": 7454,
      "Ġinformi": 7455,
      "ĠaÅŃtomata": 7456,
      "fr": 7457,
      "IA": 7458,
      "Ġderi": 7459,
      "neÅŃ": 7460,
      "ĠMuzeo": 7461,
      "Ġhier": 7462,
      "Ġalu": 7463,
      "rvatski": 7464,
      "Ġoli": 7465,
      "bour": 7466,
      "ÄĪef": 7467,
      "oso": 7468,
      "etuvi": 7469,
      "Ġlimoj": 7470,
      "Ġkonferenco": 7471,
      "ĠAN": 7472,
      "Ġvaloron": 7473,
      "Ġabun": 7474,
      "Ġkalku": 7475,
      "Ġperforto": 7476,
      "niko": 7477,
      "Ġanglan": 7478,
      "£áĥ": 7479,
      "Ġdezer": 7480,
      "Ġset": 7481,
      "rojekto": 7482,
      "bano": 7483,
      "ĠkaÅŃzo": 7484,
      "Ġperseku": 7485,
      "ĠVivo": 7486,
      "Ġgr": 7487,
      "ĠTon": 7488,
      "Ġrol": 7489,
      "Ġveturilo": 7490,
      "ĠTogo": 7491,
      "ĠVortaro": 7492,
      "ÑĨ": 7493,
      "Mu": 7494,
      "Ġvizitan": 7495,
      "inujo": 7496,
      "Ġglo": 7497,
      "Ġposta": 7498,
      "Ġfunkcioj": 7499,
      "hal": 7500,
      "Ġmalhelpas": 7501,
      "--------": 7502,
      "Ġlatin": 7503,
      "uk": 7504,
      "ĠleÄĿoj": 7505,
      "enon": 7506,
      "vojaÄĿo": 7507,
      "etuviÅ³": 7508,
      "Ġfortika": 7509,
      "Ġdiale": 7510,
      "Ġpolitikon": 7511,
      "Ġankau": 7512,
      "ĠMil": 7513,
      "Ġelemento": 7514,
      "Publi": 7515,
      "Ġregula": 7516,
      "Ġbezonis": 7517,
      "Ġsporto": 7518,
      "lig": 7519,
      "Ġmarkis": 7520,
      "Ġfruaj": 7521,
      "Ġkompreno": 7522,
      "Dansk": 7523,
      "Ġruman": 7524,
      "Ġkonstruis": 7525,
      "Ã³r": 7526,
      "Ġmalhe": 7527,
      "Ġ1950": 7528,
      "ĠsenÄī": 7529,
      "ĠÅĿanÄĿojn": 7530,
      "Ġspertoj": 7531,
      "ĠÂ©": 7532,
      "Ġbiblioteko": 7533,
      "Ġbildon": 7534,
      "ĠPlena": 7535,
      "ĠFe": 7536,
      "Ġvidpun": 7537,
      "Ġklopodoj": 7538,
      "Ġminimume": 7539,
      "Ġsubtenis": 7540,
      "helmo": 7541,
      "ĠInstituto": 7542,
      "iso": 7543,
      "Ġac": 7544,
      "Ġaktivuloj": 7545,
      "ĠPO": 7546,
      "Usono": 7547,
      "Ġ2023": 7548,
      "Ð¡ÑĢÐ¿ÑģÐºÐ¸": 7549,
      "ĠpreÄĿ": 7550,
      "peto": 7551,
      "Ġpapera": 7552,
      "RomÃ¢nÄĥ": 7553,
      "Pas": 7554,
      "Ġplano": 7555,
      "ĠâĪĴ": 7556,
      "zolu": 7557,
      "Ġinstruistoj": 7558,
      "Ġpriskribas": 7559,
      "ĠPubli": 7560,
      "Ġmodernaj": 7561,
      "Ġpentristo": 7562,
      "Ġkanta": 7563,
      "ĠILEI": 7564,
      "Ġpraktike": 7565,
      "jk": 7566,
      "Ġalproksi": 7567,
      "Kontaktu": 7568,
      "Ġvalu": 7569,
      "iganta": 7570,
      "hai": 7571,
      "kategoria": 7572,
      "ĠÄĿenera": 7573,
      "Ġpotencon": 7574,
      "fluo": 7575,
      "ĠII": 7576,
      "Areo": 7577,
      "ĠVoja": 7578,
      "ĠLigo": 7579,
      "kino": 7580,
      "Ġinteresaj": 7581,
      "Ġknabino": 7582,
      "ĠAmazon": 7583,
      "gendo": 7584,
      "Ġterminoj": 7585,
      "ĠReÄĿlando": 7586,
      "ye": 7587,
      "bia": 7588,
      "maÅĿino": 7589,
      "Ġnederlanda": 7590,
      "kigi": 7591,
      "Ġtera": 7592,
      "ĠSp": 7593,
      "Ġ[...": 7594,
      "Ġnacio": 7595,
      "umas": 7596,
      "pura": 7597,
      "lingve": 7598,
      "ĠfeliÄīo": 7599,
      "Ġrespondas": 7600,
      "ĠPROP": 7601,
      "Ġkr": 7602,
      "ãģŁ": 7603,
      "Afrikaans": 7604,
      "vier": 7605,
      "ĠGor": 7606,
      "Ġblu": 7607,
      "Ġ1988": 7608,
      "Ġversioj": 7609,
      "feroj": 7610,
      "minoj": 7611,
      "Ġsimbol": 7612,
      "ĠDuolingo": 7613,
      "ĠÄīeÄ¥a": 7614,
      "Ġmanieroj": 7615,
      "ĠUl": 7616,
      "rajto": 7617,
      "Ġaldonas": 7618,
      "tabelon": 7619,
      "Ġlastan": 7620,
      "Ġedi": 7621,
      "Ġbabi": 7622,
      "Fre": 7623,
      "ĠMastodon": 7624,
      "dente": 7625,
      "proble": 7626,
      "Ġmalfermi": 7627,
      "Ġbazaj": 7628,
      "Respondu": 7629,
      "Ġfervoj": 7630,
      "ãģ¨": 7631,
      "useppe": 7632,
      "')": 7633,
      "cii": 7634,
      "ĠFeli": 7635,
      "ĠligilojRedakti": 7636,
      "bun": 7637,
      "Ġkonstanta": 7638,
      "Centro": 7639,
      "ordo": 7640,
      "aÅŃri": 7641,
      "Ġdetale": 7642,
      "Sh": 7643,
      "åĲ": 7644,
      "vaÄµoj": 7645,
      "Ġpremo": 7646,
      "Ġekkri": 7647,
      "Ġjunula": 7648,
      "Ġprofesi": 7649,
      "Dua": 7650,
      "Ġkoron": 7651,
      "pus": 7652,
      "Ġkontras": 7653,
      "Ġproduktojn": 7654,
      "fur": 7655,
      "sky": 7656,
      "Ġoriente": 7657,
      "ĠOx": 7658,
      "Ġdata": 7659,
      "Ġradiko": 7660,
      "Ġsteloj": 7661,
      "Vo": 7662,
      "bir": 7663,
      "Ġsul": 7664,
      "ÎķÎ»Î»Î·Î½Î¹ÎºÎ¬": 7665,
      "tagme": 7666,
      "Ġetikedo": 7667,
      "toron": 7668,
      "Ġenhavon": 7669,
      "Ġgenro": 7670,
      "etz": 7671,
      "tito": 7672,
      "Ġpartoprenas": 7673,
      "Ġkvanton": 7674,
      "Ġgrandega": 7675,
      "eku": 7676,
      "2001": 7677,
      "Ġmemoro": 7678,
      "Tiáº¿ng": 7679,
      "Ġpej": 7680,
      "alego": 7681,
      "Ġree": 7682,
      "gust": 7683,
      "Ġpenso": 7684,
      "Ġhered": 7685,
      "Ġrestos": 7686,
      "Ġpoezio": 7687,
      "?\"": 7688,
      "ĠHol": 7689,
      "Ġdeziro": 7690,
      "tinda": 7691,
      "ĠReferencoj": 7692,
      "Ġkler": 7693,
      "tros": 7694,
      "Ġregno": 7695,
      "Orig": 7696,
      "Ġfleks": 7697,
      "Ġiloj": 7698,
      "Ġprotes": 7699,
      "Ġdioj": 7700,
      "ĠMonde": 7701,
      "vigado": 7702,
      "usz": 7703,
      "celi": 7704,
      "Ġmilitoj": 7705,
      "elonge": 7706,
      "Ġekonomiaj": 7707,
      "Numero": 7708,
      "digo": 7709,
      "Ġpasintaj": 7710,
      "Ġeld": 7711,
      "Ġinsuloj": 7712,
      "ĠkomenciÄĿas": 7713,
      "Å¬": 7714,
      "ĠKir": 7715,
      "Ġsignoj": 7716,
      "800": 7717,
      "Ġnekonata": 7718,
      "ls": 7719,
      "Ġdinastio": 7720,
      "Ġtal": 7721,
      "ĠPopola": 7722,
      "Ġsavi": 7723,
      "Ġrimarkin": 7724,
      "mus": 7725,
      "ĠEsperantistaj": 7726,
      "kono": 7727,
      "Ġekstere": 7728,
      "Ġenkonduko": 7729,
      "Ġdisko": 7730,
      "ĠAnna": 7731,
      "Ġgeneralo": 7732,
      "ĠðŁ": 7733,
      "Ġsidis": 7734,
      "hili": 7735,
      "ĠUrbo": 7736,
      "Ġmenciita": 7737,
      "ĠaÅŃg": 7738,
      "Ã¡r": 7739,
      "Ġyour": 7740,
      "Ġenhavtabelon": 7741,
      "ĠindiÄĿenaj": 7742,
      "terne": 7743,
      "Ġilo": 7744,
      "PA": 7745,
      "Ġtrafi": 7746,
      "Ġfotoj": 7747,
      "CO": 7748,
      "Ġdonos": 7749,
      "Äľen": 7750,
      "Ġkompeten": 7751,
      "ĠInc": 7752,
      "ĠIndus": 7753,
      "Eesti": 7754,
      "Ġfuntoj": 7755,
      "vigo": 7756,
      "Ġeltro": 7757,
      "dish": 7758,
      "Ġplanedo": 7759,
      "Ġaktuala": 7760,
      "Ġkompanioj": 7761,
      "Ġpeto": 7762,
      "Ġkonduto": 7763,
      "Ġdeba": 7764,
      "ĠOt": 7765,
      "ĠZo": 7766,
      "ĠKunar": 7767,
      "Ġplenumas": 7768,
      "Ġalvoko": 7769,
      "_{": 7770,
      "ĠAlex": 7771,
      "Her": 7772,
      "Ġpasinta": 7773,
      "aÄµon": 7774,
      "the": 7775,
      "ĠÅĿo": 7776,
      "Ġrimedojn": 7777,
      "Ġegale": 7778,
      "Ursula": 7779,
      "gni": 7780,
      "ĠPortugalio": 7781,
      "Mala": 7782,
      "âĢĻ.": 7783,
      "logie": 7784,
      "Ġpraktiko": 7785,
      "Regis": 7786,
      "Ġmodeloj": 7787,
      "ulu": 7788,
      "Ġalteco": 7789,
      "Ġreale": 7790,
      "ĠFranc": 7791,
      "laÄµo": 7792,
      "Ġatendis": 7793,
      "Ġelstara": 7794,
      "ĠVar": 7795,
      "Åľaltu": 7796,
      "Ġflugi": 7797,
      "ĠBanko": 7798,
      "petalo": 7799,
      "thi": 7800,
      "2009": 7801,
      "ÅĿtatoj": 7802,
      "ĠProfes": 7803,
      "Ġgvidanto": 7804,
      "Ġkomuniki": 7805,
      "Ġangulo": 7806,
      "eblajn": 7807,
      "Ġkomponisto": 7808,
      "retario": 7809,
      "PR": 7810,
      "ĠJul": 7811,
      "Ġ1920": 7812,
      "Ġmilionojn": 7813,
      "Ġatako": 7814,
      "Ren": 7815,
      "Ġakci": 7816,
      "ĠScience": 7817,
      "select": 7818,
      "Ġplus": 7819,
      "ĠKongresa": 7820,
      "way": 7821,
      "Ġkoloroj": 7822,
      "ĠelÅĿuti": 7823,
      "Tro": 7824,
      "Ġ==": 7825,
      "Kri": 7826,
      "Ġque": 7827,
      "Ġ1930": 7828,
      "panish": 7829,
      "plor": 7830,
      "Ġsperton": 7831,
      "bona": 7832,
      "ning": 7833,
      "blis": 7834,
      "Ġkredis": 7835,
      "Ġfavore": 7836,
      "Ġbrus": 7837,
      "Ġapero": 7838,
      "Ġverbo": 7839,
      "wahili": 7840,
      "Ġnorde": 7841,
      "malpli": 7842,
      "Ġzono": 7843,
      "stitucio": 7844,
      "Ġtitolon": 7845,
      "indi": 7846,
      "Ġepo": 7847,
      "ĠMun": 7848,
      "ĠÅĿte": 7849,
      "Simple": 7850,
      "Ġinterkonsento": 7851,
      "Parto": 7852,
      "amaj": 7853,
      "ĠAmbaÅŃ": 7854,
      "ĠTradukis": 7855,
      "Ġdomoj": 7856,
      "Ġinva": 7857,
      "Ġsekvaj": 7858,
      "Ġfamaj": 7859,
      "Ġdikta": 7860,
      "haveno": 7861,
      "ÅĿing": 7862,
      "ĠAus": 7863,
      "Ġribelo": 7864,
      "kantaj": 7865,
      "Ġfiloj": 7866,
      "Ġatendi": 7867,
      "mpli": 7868,
      "Äħ": 7869,
      "Ġscio": 7870,
      "Ġ49": 7871,
      "SerÄīu": 7872,
      "ĠNOM": 7873,
      "Ġpovi": 7874,
      "Ġstudis": 7875,
      "ĠPek": 7876,
      "Ġhomon": 7877,
      "rpski": 7878,
      "gvi": 7879,
      "Ġdeziris": 7880,
      "insulo": 7881,
      "Ġdiverseco": 7882,
      "versigi": 7883,
      "Ġtimas": 7884,
      "Ġgita": 7885,
      "paci": 7886,
      "Ã©e": 7887,
      "ĠRem": 7888,
      "Ġsupera": 7889,
      "LoÄĿantaro": 7890,
      "enato": 7891,
      "Ġuzon": 7892,
      "Ġadministrado": 7893,
      "ĠSimi": 7894,
      "ĠTel": 7895,
      "Ġbudh": 7896,
      "Ġligo": 7897,
      "ĠlaÅŃeble": 7898,
      "Ġparolado": 7899,
      "AF": 7900,
      "fal": 7901,
      "Ġsens": 7902,
      "trejo": 7903,
      "ĠCharles": 7904,
      "Ġdec": 7905,
      "Ġskribu": 7906,
      "Ġmekani": 7907,
      "Ġkvina": 7908,
      "bitaj": 7909,
      "ĠNovjorko": 7910,
      "onon": 7911,
      "ĠfiÅĿ": 7912,
      "Ġ44": 7913,
      "âĸº": 7914,
      "Ã®": 7915,
      "Ġvel": 7916,
      "Ġkatal": 7917,
      "Ġpolu": 7918,
      "ĠaÄīetis": 7919,
      "ĠTurkio": 7920,
      "VA": 7921,
      "balo": 7922,
      "Ġimpor": 7923,
      "Dez": 7924,
      "lumo": 7925,
      "Ġalilingva": 7926,
      "parky": 7927,
      "Ġveni": 7928,
      "ĠfariÄĿi": 7929,
      "Ġbelaj": 7930,
      "Titolo": 7931,
      "ĠRichard": 7932,
      "urojn": 7933,
      "Ġenergi": 7934,
      "Ġaperos": 7935,
      "urce": 7936,
      "zata": 7937,
      "ĠMondo": 7938,
      "lina": 7939,
      "ÕĢÕ": 7940,
      "tage": 7941,
      "Ã©ra": 7942,
      "Ġeventuale": 7943,
      "ticle": 7944,
      "ID": 7945,
      "ligio": 7946,
      "Literatura": 7947,
      "ombraj": 7948,
      "vaÄµo": 7949,
      "ĠKarlo": 7950,
      "ĠekipaÄµo": 7951,
      "asisprop": 7952,
      "Ġdisvastigi": 7953,
      "over": 7954,
      "mals": 7955,
      "grupoj": 7956,
      "ĠDemandoj": 7957,
      "ĠNeni": 7958,
      "ĠBrasil": 7959,
      "Az": 7960,
      "Ġsko": 7961,
      "¥Õ¶": 7962,
      "ĠNet": 7963,
      "Ġforton": 7964,
      "Ġie": 7965,
      "Ġfrukto": 7966,
      "Ġkoncentri": 7967,
      "canoj": 7968,
      "Ġvaroj": 7969,
      "Ġelektoj": 7970,
      "Ġsukcese": 7971,
      "Rilataj": 7972,
      "UL": 7973,
      "fanoj": 7974,
      "ĠBata": 7975,
      "donita": 7976,
      "ĠvizaÄĿon": 7977,
      "Ġdungi": 7978,
      "ĠBudape": 7979,
      "vismo": 7980,
      "Ġkunpor": 7981,
      "Ġeblon": 7982,
      "Pres": 7983,
      "ekon": 7984,
      "Ġekzamenoj": 7985,
      "nivelo": 7986,
      "Ġmalfermita": 7987,
      "Ġmulto": 7988,
      "Ġflankoj": 7989,
      "Ø§Ø": 7990,
      "Ġmalakcep": 7991,
      "koraÅŃ": 7992,
      "Ã¤n": 7993,
      "ash": 7994,
      "Ġpotenca": 7995,
      "Ġreligiaj": 7996,
      "¡ÕµÕ¥ÖĢÕ¥Õ¶": 7997,
      "Ú©": 7998,
      "ĠVj": 7999,
      "Profes": 8000,
      "Tri": 8001,
      "Ġnotoj": 8002,
      "Ġmalvarma": 8003,
      "bleco": 8004,
      "ĠRuÄĿa": 8005,
      "Ġintervjuo": 8006,
      "edago": 8007,
      "taga": 8008,
      "}}.": 8009,
      "Kelkaj": 8010,
      "Ġ38": 8011,
      "Ġentrepreno": 8012,
      "à¤¿": 8013,
      "Hejmo": 8014,
      "Ġdie": 8015,
      "ĠArmenio": 8016,
      "Ġmallar": 8017,
      "Ġkunsido": 8018,
      "Ġpropor": 8019,
      "ĠFolio": 8020,
      "ĠEgiptio": 8021,
      "ols": 8022,
      "oks": 8023,
      "Ġtun": 8024,
      "Ġliberaj": 8025,
      "Ġamaskomunikiloj": 8026,
      "lustuli": 8027,
      "perio": 8028,
      "Ġeksterlandaj": 8029,
      "geo": 8030,
      "Ġbr": 8031,
      "Ġ99": 8032,
      "ĠÄīesis": 8033,
      "Ale": 8034,
      "lustulimu": 8035,
      "Ġvirus": 8036,
      "Ġiru": 8037,
      "ĠaÅŃdi": 8038,
      "ĠFren": 8039,
      "Ġtridek": 8040,
      "Ġwas": 8041,
      "Ġca": 8042,
      "vinpetalo": 8043,
      "Hor": 8044,
      "oman": 8045,
      "ezia": 8046,
      "Ġapartenis": 8047,
      "Ġinterne": 8048,
      "Ġzorg": 8049,
      "ĠSko": 8050,
      "Ġindikita": 8051,
      "0000": 8052,
      "ĠKontraÅŃ": 8053,
      "Ġdekstra": 8054,
      "Ġsrpski": 8055,
      "ĠMalgraÅŃ": 8056,
      "Ġdepende": 8057,
      "mpo": 8058,
      "Ġalti": 8059,
      "Ġinteresoj": 8060,
      "Ġmuzik": 8061,
      "Ð»Ð°": 8062,
      "ĠorganizaÄµoj": 8063,
      "Ara": 8064,
      "Ġenke": 8065,
      "lingvoj": 8066,
      "Ġdokumento": 8067,
      "xoj": 8068,
      "timo": 8069,
      "Ġorigine": 8070,
      "mono": 8071,
      "oslova": 8072,
      "ĠÂ».": 8073,
      "rana": 8074,
      "Ġamaskomuniki": 8075,
      "Ġtoler": 8076,
      "Ġretaj": 8077,
      "fitoj": 8078,
      "denoj": 8079,
      "Ġceteraj": 8080,
      "Ġ43": 8081,
      "ĠGlobal": 8082,
      "ĠreÄĿis": 8083,
      "Ġgeedzi": 8084,
      "ĠPet": 8085,
      "ĠÅĿata": 8086,
      "Ġskribo": 8087,
      "Ġnumeron": 8088,
      "CN": 8089,
      "Ġmalkres": 8090,
      "Ġ75": 8091,
      "Ġfilozofo": 8092,
      "ĠKondiÄīoj": 8093,
      "Ġnature": 8094,
      "Ġfunkcii": 8095,
      "Ġmalrapide": 8096,
      "ĠÏ": 8097,
      "Ġplum": 8098,
      "Ġvapor": 8099,
      "ĠbuÅĿo": 8100,
      "ezi": 8101,
      "ĠSon": 8102,
      "Ġwill": 8103,
      "digis": 8104,
      "Ġ1986": 8105,
      "Ġmalven": 8106,
      "Ġkunord": 8107,
      "ganoj": 8108,
      "Ġforigo": 8109,
      "kala": 8110,
      "âĢľ.": 8111,
      "ĠSenkategoria": 8112,
      "igardu": 8113,
      "baraj": 8114,
      "Ġrezultojn": 8115,
      "Nom": 8116,
      "Ġebleco": 8117,
      "ĠJerusale": 8118,
      "iras": 8119,
      "Ġcan": 8120,
      "ments": 8121,
      "Ġkanton": 8122,
      "Ġspertis": 8123,
      "Ġklini": 8124,
      "alth": 8125,
      "ĠKatal": 8126,
      "Ġsvis": 8127,
      "Ġsenti": 8128,
      "encon": 8129,
      "enci": 8130,
      "Ġtiama": 8131,
      "rantaj": 8132,
      "Ġajnan": 8133,
      "ĠAten": 8134,
      "retoso": 8135,
      "cyclo": 8136,
      "ĠClub": 8137,
      "Ġnutra": 8138,
      "Ġefekti": 8139,
      "ĠBy": 8140,
      "Ġbatali": 8141,
      "mundo": 8142,
      "ÃŁ": 8143,
      "Ġstarigi": 8144,
      "Ġprotoko": 8145,
      "Ġsukcesas": 8146,
      "Ġvolontu": 8147,
      "Lastaj": 8148,
      "Ġpropri": 8149,
      "premi": 8150,
      "Ġklima": 8151,
      "ĠRoman": 8152,
      "Dosiero": 8153,
      "cra": 8154,
      "king": 8155,
      "Ù¾": 8156,
      "Ġskan": 8157,
      "ĠEkon": 8158,
      "Ġpostulis": 8159,
      "ĠMela": 8160,
      "ystem": 8161,
      "ĠfeliÄīa": 8162,
      "Äĩ": 8163,
      "Ġeraro": 8164,
      "tube": 8165,
      "ĠDok": 8166,
      "Ġpasi": 8167,
      "ÉĻr": 8168,
      "ĠOxford": 8169,
      "Ġretiri": 8170,
      "Ġmagne": 8171,
      "Esperanta": 8172,
      "site": 8173,
      "ĠFA": 8174,
      "ĠKonsul": 8175,
      "Ġdirante": 8176,
      "ĠbaziÄĿas": 8177,
      "Res": 8178,
      "Ġkomento": 8179,
      "ĠLondon": 8180,
      "Ġobe": 8181,
      "ĠÄĿui": 8182,
      "Ġserioze": 8183,
      "prin": 8184,
      "ĠAldone": 8185,
      "win": 8186,
      "Ðļ": 8187,
      "ĠMay": 8188,
      "è¯": 8189,
      "tivon": 8190,
      "Ġkaptis": 8191,
      "Ġmenciitaj": 8192,
      "ombio": 8193,
      "lanoj": 8194,
      "Ġvojoj": 8195,
      "Ġprojektojn": 8196,
      "Ġegaleco": 8197,
      "Ġimagi": 8198,
      "ankaÅŃ": 8199,
      "Ġpremio": 8200,
      "Ġhistoriaj": 8201,
      "Komitato": 8202,
      "Ġpatrolita": 8203,
      "\">": 8204,
      "iÄĿon": 8205,
      "ĠFried": 8206,
      "tetoj": 8207,
      "Ġreferen": 8208,
      "Ġetn": 8209,
      "Ġsude": 8210,
      "blajn": 8211,
      "cro": 8212,
      "pova": 8213,
      "Ġfortaj": 8214,
      "portoj": 8215,
      "mith": 8216,
      "pitaj": 8217,
      "Ġ[...]": 8218,
      "TM": 8219,
      "Ġagi": 8220,
      "ĠPaci": 8221,
      "ĠIa": 8222,
      "ĠkuÅĿas": 8223,
      "Ġsuferis": 8224,
      "Ġfenomeno": 8225,
      "emio": 8226,
      "ĠÅĿancon": 8227,
      "ĠTia": 8228,
      "Ġinformon": 8229,
      "Ġplurfoje": 8230,
      "Ġinstruas": 8231,
      "Ġinkludas": 8232,
      "ĠJar": 8233,
      "ĠÄĿojo": 8234,
      "td": 8235,
      "Ġrimedo": 8236,
      "ĠfraÅŃ": 8237,
      "Rus": 8238,
      "Ġpal": 8239,
      "Ġlud": 8240,
      "Ġpoemoj": 8241,
      "Ġ115": 8242,
      "Ġforiris": 8243,
      "ĠnovaÄµojn": 8244,
      "kole": 8245,
      "ĠelektaÄµon": 8246,
      "Hrvatski": 8247,
      "ĠBrus": 8248,
      "Ġalire": 8249,
      "Ġmatene": 8250,
      "ĠKafo": 8251,
      "Ġofici": 8252,
      "Ġpolitikan": 8253,
      "evi": 8254,
      "Ġproviz": 8255,
      "Ġspekta": 8256,
      "ĠParo": 8257,
      "Ġnomojn": 8258,
      "Ġfaktoroj": 8259,
      "Ġsenton": 8260,
      "ĠMarch": 8261,
      "lla": 8262,
      "sel": 8263,
      "manta": 8264,
      "Ġutilas": 8265,
      "Ġmalmo": 8266,
      "ĠkaÅĿ": 8267,
      "Ġrekonstru": 8268,
      "ĠNepa": 8269,
      "Ġtekniko": 8270,
      "Ġarboj": 8271,
      "Ġkristana": 8272,
      "triaj": 8273,
      "Tradi": 8274,
      "Ġsupoz": 8275,
      "Ġedzi": 8276,
      "Ġpandemio": 8277,
      "Ġvalidas": 8278,
      "ml": 8279,
      "ĠlaÅŃle": 8280,
      "rajtoj": 8281,
      "gantaj": 8282,
      "interest": 8283,
      "cle": 8284,
      "ĠLou": 8285,
      "Ġreprezentantoj": 8286,
      "ĠMalferma": 8287,
      "ili": 8288,
      "ile": 8289,
      "unua": 8290,
      "Ġbezono": 8291,
      "Ġpermesis": 8292,
      "ĠFron": 8293,
      "ĠPlatano": 8294,
      "medi": 8295,
      "ajna": 8296,
      "Ġjare": 8297,
      "Ġspecialaj": 8298,
      "Ġmalfrue": 8299,
      "ÕĢÕ¡ÕµÕ¥ÖĢÕ¥Õ¶": 8300,
      "ĠSco": 8301,
      "Ġgrupon": 8302,
      "historio": 8303,
      "ĠEsperantisto": 8304,
      "Ġ42": 8305,
      "ĠInternaci": 8306,
      "ĠdaÅŃra": 8307,
      "baycan": 8308,
      "tve": 8309,
      "trolo": 8310,
      "ĠSekureco": 8311,
      "ÉĻrbaycan": 8312,
      ",\"": 8313,
      "fel": 8314,
      "chel": 8315,
      "ĠMongo": 8316,
      "Ġoficialaj": 8317,
      "Ġpaf": 8318,
      "Ġcirkonstancoj": 8319,
      "ĠriÄī": 8320,
      "urnalo": 8321,
      "ĠCivito": 8322,
      "lori": 8323,
      "mara": 8324,
      "briko": 8325,
      "pel": 8326,
      "ĠInversigi": 8327,
      "ney": 8328,
      "Ġbordo": 8329,
      "LietuviÅ³": 8330,
      "rigardo": 8331,
      "Krome": 8332,
      "entis": 8333,
      "Ġfaka": 8334,
      "mons": 8335,
      "Ġhazarde": 8336,
      "ĠÐ½": 8337,
      "Ġdiskuti": 8338,
      "ĠMis": 8339,
      "Ġindustria": 8340,
      "Morto": 8341,
      "à¹": 8342,
      "Ġfilme": 8343,
      "Ġstarigis": 8344,
      "Ã´": 8345,
      "Ġpraktika": 8346,
      "Ġliteratura": 8347,
      "Ġekspli": 8348,
      "anon": 8349,
      "Ġmuzeo": 8350,
      "ĠBiblio": 8351,
      "ĠÅĿanÄĿiÄĿis": 8352,
      "Ġhungar": 8353,
      "Ġmalfermis": 8354,
      "Sin": 8355,
      "entaj": 8356,
      "ĠBlanka": 8357,
      "ices": 8358,
      "Ġregistaroj": 8359,
      "Ġ210": 8360,
      "Ġdatre": 8361,
      "Ġacido": 8362,
      "Eble": 8363,
      "Ġfunkciis": 8364,
      "ND": 8365,
      "wor": 8366,
      "poka": 8367,
      "ĠVI": 8368,
      "temaj": 8369,
      "Ġlimdato": 8370,
      "lantaj": 8371,
      "Ġdonaco": 8372,
      "landanoj": 8373,
      "ĠFred": 8374,
      "ĠlarÄĿa": 8375,
      "ĠVian": 8376,
      "Ġsever": 8377,
      "________": 8378,
      "sulo": 8379,
      "Î¿": 8380,
      "ĠÑ": 8381,
      "amento": 8382,
      "tute": 8383,
      "ĠEdi": 8384,
      "indaj": 8385,
      "tale": 8386,
      "ĠHodiaÅŃ": 8387,
      "Ġrespubliko": 8388,
      "Ġ150": 8389,
      "pilko": 8390,
      "Ġkompar": 8391,
      "ĠaÅŃtomo": 8392,
      "Ġpasinteco": 8393,
      "Produkta": 8394,
      "Ġkonfi": 8395,
      "ĠSto": 8396,
      "Ġhospita": 8397,
      "Ġokazinta": 8398,
      "Å¡Äįina": 8399,
      "Ġkunteksto": 8400,
      "ĠIrako": 8401,
      "Adminis": 8402,
      "ĠKiss": 8403,
      "bab": 8404,
      "cker": 8405,
      "Ġantaux": 8406,
      "dadon": 8407,
      "HistorioRedakti": 8408,
      "ĠOkcidento": 8409,
      "Ġles": 8410,
      "puro": 8411,
      "ĠKaza": 8412,
      "ĠBlack": 8413,
      "Ġsorto": 8414,
      "ÄĿinte": 8415,
      "ĠÄīeesto": 8416,
      "ĠSun": 8417,
      "metis": 8418,
      "Ġadjek": 8419,
      "Ġeroj": 8420,
      "Ġspon": 8421,
      "Ä¥oslova": 8422,
      "Share": 8423,
      "cina": 8424,
      "viga": 8425,
      "Ġharoj": 8426,
      "Ġkomplete": 8427,
      "Ġproponoj": 8428,
      "Ġtradukon": 8429,
      "MEG": 8430,
      "bridge": 8431,
      "Ġapartaj": 8432,
      "ĠAfgan": 8433,
      "ĠMelayu": 8434,
      "Ġbov": 8435,
      "ĠPal": 8436,
      "Ġjara": 8437,
      "ĠmalÄĿus": 8438,
      "wicz": 8439,
      "Ġcxar": 8440,
      "ĠÅĿer": 8441,
      "ĠpaÅĿo": 8442,
      "Ġununura": 8443,
      "Ġpon": 8444,
      "Ġmortigis": 8445,
      "Ġmastr": 8446,
      "bono": 8447,
      "NA": 8448,
      "ego": 8449,
      "day": 8450,
      "Ġintera": 8451,
      "Ġcertaj": 8452,
      "aranÄĿo": 8453,
      "undoj": 8454,
      "Ġfunkciojn": 8455,
      "Ġpris": 8456,
      "Ġaspektoj": 8457,
      "Ġfiguro": 8458,
      "TS": 8459,
      "Ġsono": 8460,
      "Ġzodia": 8461,
      "Ġfol": 8462,
      "Ġnomataj": 8463,
      "idf": 8464,
      "indo": 8465,
      "ĠOka": 8466,
      "SlovenÄįina": 8467,
      "ĠbedaÅŃrinde": 8468,
      "ĠaÅŃstra": 8469,
      "1999": 8470,
      "Ġkastelo": 8471,
      "glu": 8472,
      "Ġtrajn": 8473,
      "Ġinfla": 8474,
      "Ġelektas": 8475,
      "Ġfoli": 8476,
      "ĠKana": 8477,
      "ĠÄĪio": 8478,
      "righ": 8479,
      "partetoj": 8480,
      "Ġebligis": 8481,
      "okaze": 8482,
      "ĠEsperantaj": 8483,
      "Ġplue": 8484,
      "Ġplanas": 8485,
      "ismoj": 8486,
      "Ġorganizis": 8487,
      "Ġsuferas": 8488,
      "ĠTogolando": 8489,
      "ĠKru": 8490,
      "view": 8491,
      "monatotri": 8492,
      "Ġtradukado": 8493,
      "lavo": 8494,
      "tie": 8495,
      "Ġsinjorino": 8496,
      "ĠengaÄĿi": 8497,
      "ĠParko": 8498,
      "pia": 8499,
      "ĠarÄ¥i": 8500,
      "Ġpiedoj": 8501,
      "cenzoj": 8502,
      "eraloj": 8503,
      "Ġalven": 8504,
      "dion": 8505,
      "marko": 8506,
      "Ġdecidi": 8507,
      "ĠSove": 8508,
      "ĠPakis": 8509,
      "igitan": 8510,
      "Ġraporton": 8511,
      "Ca": 8512,
      "Ġartefa": 8513,
      "Ġalfabeto": 8514,
      "ktor": 8515,
      "Ġkonsento": 8516,
      "Ġvolus": 8517,
      "à¸Ĺ": 8518,
      "Ġpronomo": 8519,
      "ĠpoÅĿtele": 8520,
      "Galego": 8521,
      "Ġdin": 8522,
      "als": 8523,
      "Ġtekstojn": 8524,
      "Î±": 8525,
      "Ġverkon": 8526,
      "Ġmortigi": 8527,
      "Ġhorizon": 8528,
      "Ġfara": 8529,
      "kish": 8530,
      "Ġkore": 8531,
      "Lingvo": 8532,
      "à¸¢": 8533,
      "'.": 8534,
      "Hon": 8535,
      "Ġoce": 8536,
      "ĠloÄĿanta": 8537,
      "ĠMON": 8538,
      "Ġgeneracio": 8539,
      "Ġrumania": 8540,
      "hard": 8541,
      "Ã¸": 8542,
      "ĠZb": 8543,
      "ase": 8544,
      "Ġprof": 8545,
      "Internacia": 8546,
      "istaj": 8547,
      "zilo": 8548,
      "ĠNigra": 8549,
      "ĠseÄĿoj": 8550,
      "Ġ52": 8551,
      "Ġkontaktos": 8552,
      "duso": 8553,
      "ĠBudapeÅĿto": 8554,
      "Ġpin": 8555,
      "ĠÄīinaj": 8556,
      "Ġtage": 8557,
      "Ġkantojn": 8558,
      "cor": 8559,
      "Ġhas": 8560,
      "Ġanoj": 8561,
      "Ġverkado": 8562,
      "Ġbelan": 8563,
      ")[": 8564,
      "cki": 8565,
      "tiÄĿoj": 8566,
      "Ġrikol": 8567,
      "Ġklarigis": 8568,
      "Ġlinioj": 8569,
      "km": 8570,
      "tantan": 8571,
      "donu": 8572,
      "Ġhejm": 8573,
      "Ġdepon": 8574,
      "Ġmm": 8575,
      "Ġir": 8576,
      "nama": 8577,
      "lejo": 8578,
      "Ġ1939": 8579,
      "istemon": 8580,
      "let": 8581,
      "ĠSt": 8582,
      "Ġterura": 8583,
      "ĠSamuel": 8584,
      "Ġtransporto": 8585,
      "Ġarbaroj": 8586,
      "muzi": 8587,
      "à¹Ħ": 8588,
      "âĹ": 8589,
      "ĠManu": 8590,
      "Ġvendo": 8591,
      "logoj": 8592,
      "ĠLiaj": 8593,
      "Ġutili": 8594,
      "Ġflanka": 8595,
      "rion": 8596,
      "Ġjur": 8597,
      "ĠNata": 8598,
      "ety": 8599,
      "logian": 8600,
      "BC": 8601,
      "ekzamen": 8602,
      "ĠÄĪeÄ¥io": 8603,
      "à¸Ĺà¸¢": 8604,
      "Kiu": 8605,
      "Ġvaria": 8606,
      "à¹Ħà¸Ĺà¸¢": 8607,
      "vara": 8608,
      "Ġrestor": 8609,
      "ĠRuman": 8610,
      "Ġmetas": 8611,
      "Ġkurson": 8612,
      "Ġdifinas": 8613,
      "Ġkapablon": 8614,
      "Ġhavus": 8615,
      "ĠStrate": 8616,
      "Ġgrado": 8617,
      "Ġregulojn": 8618,
      "MA": 8619,
      "SK": 8620,
      "ĠPrezidanto": 8621,
      "Ġesplori": 8622,
      "ktuale": 8623,
      "Ġhandika": 8624,
      "ludo": 8625,
      "formkesto": 8626,
      "Ġgli": 8627,
      "zech": 8628,
      "Ã§o": 8629,
      "Ġfojojn": 8630,
      "Ġenergion": 8631,
      "pelo": 8632,
      "hara": 8633,
      "ĠloÄĿantojn": 8634,
      "Ġkonsidera": 8635,
      "Ġkonstruo": 8636,
      "muziko": 8637,
      "Ġelsendo": 8638,
      "Ġprokras": 8639,
      "pay": 8640,
      "idoj": 8641,
      "Ġ1948": 8642,
      "DEC": 8643,
      "histor": 8644,
      "Ġpoemo": 8645,
      "Ġmiliardoj": 8646,
      "Ġjan": 8647,
      "ĠVerÅĿajne": 8648,
      "Ġeblecon": 8649,
      "Ġantikvaj": 8650,
      "Ġkoni": 8651,
      "Ġpliajn": 8652,
      "ĠWord": 8653,
      "Ð°Ð½": 8654,
      "ĠkuraÄĿ": 8655,
      "Ġregistrita": 8656,
      "Ġbezona": 8657,
      "Ġvikipedio": 8658,
      "300": 8659,
      "ĠTiun": 8660,
      "ÇĶ": 8661,
      "Ġgramatiko": 8662,
      "ref": 8663,
      "Ġpioni": 8664,
      "Ġtelevido": 8665,
      "ĠRomia": 8666,
      "arto": 8667,
      "Ġkonton": 8668,
      "Lando": 8669,
      "Ġdelonge": 8670,
      "ĠGru": 8671,
      "ĠMili": 8672,
      "Ġpostuloj": 8673,
      "Ġokcidente": 8674,
      "Ġgazetoj": 8675,
      "ĠdaÅŃrigis": 8676,
      "Ġhorojn": 8677,
      "mesa": 8678,
      "Is": 8679,
      "ef": 8680,
      "ĠRam": 8681,
      "Ġorganizita": 8682,
      "Ġaparatoj": 8683,
      "Bu": 8684,
      "igata": 8685,
      "Ġtaskoj": 8686,
      "stilo": 8687,
      "ĠmanÄĿaÄµoj": 8688,
      "meti": 8689,
      "Ġuniversala": 8690,
      "Ġalportis": 8691,
      "cido": 8692,
      "ĠOb": 8693,
      "ĠNorve": 8694,
      "lens": 8695,
      "ĠBud": 8696,
      "Ġ1940": 8697,
      "Ġmalferma": 8698,
      "gvajo": 8699,
      "stu": 8700,
      "gonomiaj": 8701,
      "Ġekha": 8702,
      "Ġservon": 8703,
      "partemento": 8704,
      "digas": 8705,
      "Ġsing": 8706,
      "ujara": 8707,
      "Ġplian": 8708,
      "Ġlandaj": 8709,
      "Ġislama": 8710,
      "à²¨": 8711,
      "Ġrotari": 8712,
      "Ġesperant": 8713,
      "Ġamikeco": 8714,
      "Ġesprimis": 8715,
      "Ġmalpeza": 8716,
      "Ġkalendaro": 8717,
      "tego": 8718,
      "Ġplilongigi": 8719,
      "retpoÅĿto": 8720,
      "Ġartisto": 8721,
      "Ġbici": 8722,
      "ĠnaskiÄĿo": 8723,
      "Malfer": 8724,
      "Ġskribita": 8725,
      "Multaj": 8726,
      "Ġforlasi": 8727,
      "ĠKaro": 8728,
      "ĠVaÅĿing": 8729,
      "usoj": 8730,
      "Ġarmiloj": 8731,
      "Ġsimplaj": 8732,
      "Ġamaso": 8733,
      "ervo": 8734,
      "tics": 8735,
      "Ġebloj": 8736,
      "Ul": 8737,
      "ĠJournal": 8738,
      "ĠNomspaco": 8739,
      "Ġdezajno": 8740,
      "alisto": 8741,
      "olf": 8742,
      "Ġartistoj": 8743,
      "ĠNico": 8744,
      "parolis": 8745,
      "xu": 8746,
      "Ĺáĥ": 8747,
      "Ġpopola": 8748,
      "Ġkalkuli": 8749,
      "Ġpinto": 8750,
      "produktado": 8751,
      "ĠAmerican": 8752,
      "ļáĥĺ": 8753,
      "Ġkver": 8754,
      "Ġinfluas": 8755,
      "Ġfizika": 8756,
      "ĠComics": 8757,
      "ĠPDF": 8758,
      "PaÄĿoj": 8759,
      "Bibliografio": 8760,
      "Ġwhi": 8761,
      "Ê»": 8762,
      "Ġellabor": 8763,
      "ĠUNES": 8764,
      "ĠÄĿojas": 8765,
      "Ġmirak": 8766,
      "droid": 8767,
      "Ġkona": 8768,
      "grafo": 8769,
      "Ġfrancaj": 8770,
      "Ġmiskompren": 8771,
      "Ġkoncerto": 8772,
      "seco": 8773,
      "Ġokcidentaj": 8774,
      "ĠKissinger": 8775,
      "Ġpanelo": 8776,
      "Ġcelojn": 8777,
      "Julio": 8778,
      "oraj": 8779,
      "ĠRevolucio": 8780,
      "Ġaktoro": 8781,
      "ĠPaco": 8782,
      "Ġnecese": 8783,
      "Ġ1984": 8784,
      "ĠNobel": 8785,
      "á±": 8786,
      "ee": 8787,
      "Ãģ": 8788,
      "ĠRobin": 8789,
      "Oktobro": 8790,
      "áĬ": 8791,
      "miÄĿo": 8792,
      "faco": 8793,
      "Ġdefendo": 8794,
      "Pra": 8795,
      "Tlustulimu": 8796,
      "rto": 8797,
      "ĠÑĤ": 8798,
      "Ġ120": 8799,
      "divi": 8800,
      "Ekzistas": 8801,
      "Ġvio": 8802,
      "ĠEncyclo": 8803,
      "Ġlegado": 8804,
      "Ġfestoj": 8805,
      "¥áĥĲáĥłáĥ": 8806,
      "Ġrilaton": 8807,
      "¥áĥĲáĥłáĥĹáĥ": 8808,
      "Ġhelpan": 8809,
      "demokra": 8810,
      "ĠNapole": 8811,
      "ĠAlta": 8812,
      "kunsi": 8813,
      "Ġche": 8814,
      "ĠÄĿermo": 8815,
      "Ġblua": 8816,
      "lasta": 8817,
      "áĪ": 8818,
      "Ġstaci": 8819,
      "ĠEventa": 8820,
      "IR": 8821,
      "Ø¬": 8822,
      "âĢĺ": 8823,
      "elsen": 8824,
      "Ġperdo": 8825,
      "lulo": 8826,
      "Ġsituo": 8827,
      "hej": 8828,
      "Ġkovras": 8829,
      "Ġkombina": 8830,
      "Ġdosiero": 8831,
      "Ġ---": 8832,
      "Ġapartan": 8833,
      "ĠNuntempe": 8834,
      "Ġvespere": 8835,
      "Ġpolaj": 8836,
      "Ġdisvolvita": 8837,
      "ceptoj": 8838,
      "ĠÃģ": 8839,
      "ĠreÄĿino": 8840,
      "Ġkampanjo": 8841,
      "ĠÄīeloj": 8842,
      "kontoj": 8843,
      "Ġpatrin": 8844,
      "ĠSankt": 8845,
      "Ġkontrolon": 8846,
      "Ġromia": 8847,
      "/.": 8848,
      "Ġposeda": 8849,
      "Levilkarto": 8850,
      "áĥ¥áĥĲáĥłáĥĹáĥ": 8851,
      "ĠBus": 8852,
      "ĠHej": 8853,
      "pitula": 8854,
      "Ġlukto": 8855,
      "Ġdetalojn": 8856,
      "Ġ1000": 8857,
      "Ġkomunan": 8858,
      "rit": 8859,
      "ĠBerlin": 8860,
      "Ġmiz": 8861,
      "2002": 8862,
      "lov": 8863,
      "Ġinfana": 8864,
      "9999": 8865,
      "Ġvidebla": 8866,
      "ĠvoÄīoj": 8867,
      "Ġseminario": 8868,
      "Ġmonatojn": 8869,
      "ĠBarcel": 8870,
      "Ġnormale": 8871,
      "antajn": 8872,
      "bazo": 8873,
      "ĠSirio": 8874,
      "ĠDipl": 8875,
      "Ġmencii": 8876,
      "To": 8877,
      "kaÄµon": 8878,
      "ĠEvolu": 8879,
      "ĠDra": 8880,
      "erika": 8881,
      "Ġkvartalo": 8882,
      "ARY": 8883,
      "xon": 8884,
      "ÄĿeto": 8885,
      "Ġpunktoj": 8886,
      "Ġampleksa": 8887,
      "vangelio": 8888,
      "Ġfidin": 8889,
      "Ġmenciis": 8890,
      "rey": 8891,
      "Ġfrekven": 8892,
      "Ġtemojn": 8893,
      "ciante": 8894,
      "ĠkaÅĿi": 8895,
      "Ġmara": 8896,
      "Ġkodo": 8897,
      "Fine": 8898,
      "Ġalveno": 8899,
      "Ġdimen": 8900,
      "Ġmultn": 8901,
      "Ġmalebli": 8902,
      "ĠRenkonto": 8903,
      "Ġfos": 8904,
      "ĠKantono": 8905,
      "Ġsuver": 8906,
      "ĠWel": 8907,
      "Ġprotekto": 8908,
      "Atribu": 8909,
      "ĠAÅŃto": 8910,
      "ĠNovaÄµoj": 8911,
      "Nomo": 8912,
      "Ð°ÐºÐµ": 8913,
      "ac": 8914,
      "Ġbesto": 8915,
      "Ġordin": 8916,
      "Ġpublike": 8917,
      "Ġstrategi": 8918,
      "ĠKing": 8919,
      "vantoj": 8920,
      "Ġjunulo": 8921,
      "ebuano": 8922,
      "Ġjuda": 8923,
      "Neniu": 8924,
      "Ġunika": 8925,
      "Ġregulo": 8926,
      "Ð´Ð¾Ð½": 8927,
      "rompita": 8928,
      "Ġind": 8929,
      "Ġokupis": 8930,
      "Den": 8931,
      "culo": 8932,
      "amikoj": 8933,
      "Ġmalproksime": 8934,
      "ĠOfte": 8935,
      "Peter": 8936,
      "Ġordinara": 8937,
      "Ġ1985": 8938,
      "å®": 8939,
      "ĠBertilo": 8940,
      "ãĢĮ": 8941,
      "foro": 8942,
      "falo": 8943,
      "ĠMani": 8944,
      "Don": 8945,
      "Ġfinancaj": 8946,
      "1000": 8947,
      "retoj": 8948,
      "ess": 8949,
      "Ġvalo": 8950,
      "LO": 8951,
      "ĠFrancisko": 8952,
      "Ġtrian": 8953,
      "AzÉĻrbaycan": 8954,
      "à½": 8955,
      "ksem": 8956,
      "Ġoro": 8957,
      "Ġfrazoj": 8958,
      "Ġgraveco": 8959,
      "komputilaj": 8960,
      "Ġsindika": 8961,
      "Ġlastatempe": 8962,
      "ĠSpa": 8963,
      "Ġpreten": 8964,
      "ĠTim": 8965,
      "kluzive": 8966,
      "Krom": 8967,
      "ĠJoze": 8968,
      "ĠJako": 8969,
      "Ġprezidan": 8970,
      "Ġesprimoj": 8971,
      "Ð°ÐºÐµÐ´Ð¾Ð½": 8972,
      "sp": 8973,
      "ĠLibroj": 8974,
      "Ġscipov": 8975,
      "hl": 8976,
      "Ġrevizion": 8977,
      "Ġelektitaj": 8978,
      "ast": 8979,
      "ĠJaro": 8980,
      "aciaj": 8981,
      "Ã³w": 8982,
      "Ġakceptita": 8983,
      "sto": 8984,
      "katolo": 8985,
      "Ġole": 8986,
      "ĠCre": 8987,
      "ĠUS": 8988,
      "ĠKatalin": 8989,
      "tvieÅ¡": 8990,
      "Ġese": 8991,
      "ĠGali": 8992,
      "tvieÅ¡u": 8993,
      "à¤¹": 8994,
      "Ġfondinto": 8995,
      "Ġsinteno": 8996,
      "ãĢį": 8997,
      "NaskiÄĿo": 8998,
      "Ġiros": 8999,
      "Ġveran": 9000,
      "Ġvizitas": 9001,
      "Teo": 9002,
      "Ġ=\"": 9003,
      "Ġvitamino": 9004,
      "Ġpacon": 9005,
      "Ġful": 9006,
      "Ġvideblas": 9007,
      "Ð°ÐºÐµÐ´Ð¾Ð½ÑģÐºÐ¸": 9008,
      "uoj": 9009,
      "Ġvidos": 9010,
      "cele": 9011,
      "manÄĿo": 9012,
      "Ġpejza": 9013,
      "dua": 9014,
      "ĠÄĿeneralaj": 9015,
      "ĠheredaÄµo": 9016,
      "ĠErich": 9017,
      "hala": 9018,
      "gali": 9019,
      "Ġdiskutoj": 9020,
      "ĠEurope": 9021,
      "ĠinaÅŃ": 9022,
      "====": 9023,
      "laÄµoj": 9024,
      "ĠbranÄīo": 9025,
      "ĠSocieto": 9026,
      "à¶": 9027,
      "ĠAni": 9028,
      "Ġï»¿": 9029,
      "fektive": 9030,
      "Ġmalaltaj": 9031,
      "Cer": 9032,
      "Ġign": 9033,
      "Ġpresti": 9034,
      "Ġ65": 9035,
      "\").": 9036,
      "Ġoriento": 9037,
      "Ġkanalo": 9038,
      "uz": 9039,
      "ĠPalest": 9040,
      "tigoj": 9041,
      "Ġkir": 9042,
      "Ġprikomputilaj": 9043,
      "Ġradikojn": 9044,
      "ĠAtlan": 9045,
      "Ġenre": 9046,
      "Ġkristanoj": 9047,
      "Ġkomitatanoj": 9048,
      "fin": 9049,
      "Ġero": 9050,
      "ĠÅĿlos": 9051,
      "rektoro": 9052,
      "Ġriveroj": 9053,
      "Tem": 9054,
      "Ġigis": 9055,
      "Ġuzadon": 9056,
      "nur": 9057,
      "ĠmanÄĿo": 9058,
      "ĠNeces": 9059,
      "à¤¦": 9060,
      "Ġkonscio": 9061,
      "bian": 9062,
      "Ġ1979": 9063,
      "ĠSol": 9064,
      "Ġrifuzis": 9065,
      "Gi": 9066,
      "ĠHum": 9067,
      "Ġambi": 9068,
      "hol": 9069,
      "eblo": 9070,
      "ville": 9071,
      "Ġtabeloj": 9072,
      "Tutmon": 9073,
      "ĠInterreto": 9074,
      "Ġfratoj": 9075,
      "Ġforgesis": 9076,
      "Koreio": 9077,
      "ĠFal": 9078,
      "Ġguberni": 9079,
      "Ġ800": 9080,
      "ĠRoterdamo": 9081,
      "Ġplanto": 9082,
      "lernejo": 9083,
      "imbab": 9084,
      "Ġmaterialon": 9085,
      "reno": 9086,
      "ÐµÐº": 9087,
      "Ġmovadon": 9088,
      "cere": 9089,
      "orsk": 9090,
      "Ġsk": 9091,
      "Ġkonsistigas": 9092,
      "psko": 9093,
      "Ġjusteco": 9094,
      "kataj": 9095,
      "Ġligas": 9096,
      "ĠOra": 9097,
      "âĢľ,": 9098,
      "Ġkristanismo": 9099,
      "banoj": 9100,
      "ÅĿar": 9101,
      "ĠUson": 9102,
      "Ġ55": 9103,
      "à±ģ": 9104,
      "ktitaj": 9105,
      "Ġtraduku": 9106,
      "Ġregn": 9107,
      "ĠHunga": 9108,
      "ST": 9109,
      "cation": 9110,
      "Ġankora": 9111,
      "Ġkuketojn": 9112,
      "DR": 9113,
      "rz": 9114,
      "enti": 9115,
      "Ġdeven": 9116,
      "Ġservojn": 9117,
      "Ġadvo": 9118,
      "gxo": 9119,
      "Ġnivelon": 9120,
      "Ġvico": 9121,
      "umita": 9122,
      "sko": 9123,
      "konduko": 9124,
      "ĠĠĠĠĠĠĠĠ": 9125,
      "Ġnokte": 9126,
      "£áĥļáĥĺ": 9127,
      "estra": 9128,
      "seks": 9129,
      "Ġreveni": 9130,
      "Helpu": 9131,
      "ÐµÑĤ": 9132,
      "Ġsciencistoj": 9133,
      "Ġdoloro": 9134,
      "ĠVladi": 9135,
      "landon": 9136,
      "Unua": 9137,
      "ĠSign": 9138,
      "Ġportre": 9139,
      "Ġbak": 9140,
      "Ð²Ð°ÑĤ": 9141,
      "áĥ¥áĥĲáĥłáĥĹáĥ£áĥļáĥĺ": 9142,
      "ksio": 9143,
      "à¦¬": 9144,
      "Ġestonta": 9145,
      "unt": 9146,
      "ãģĭ": 9147,
      "code": 9148,
      "ĠParto": 9149,
      "Ġasertis": 9150,
      "rie": 9151,
      "Ġkien": 9152,
      "socia": 9153,
      "ĠmanÄĿas": 9154,
      "Ġvendi": 9155,
      "grafiaj": 9156,
      "âĺ": 9157,
      "iston": 9158,
      "Ġsime": 9159,
      "ĠMinis": 9160,
      "Ġfakuloj": 9161,
      "Ġindividuaj": 9162,
      "!\"": 9163,
      "à¯": 9164,
      "ebas": 9165,
      "Ġlabora": 9166,
      "Ġkamara": 9167,
      "Ġflanke": 9168,
      "ĠÄīia": 9169,
      "ĠVel": 9170,
      "ĠlaÅŃlonge": 9171,
      "Ġprezentitaj": 9172,
      "Ġpruvi": 9173,
      "ebrea": 9174,
      "ĠPlen": 9175,
      "ĠTar": 9176,
      "kolora": 9177,
      "ynorsk": 9178,
      "Ġkomision": 9179,
      "Ġrisko": 9180,
      "tkodo": 9181,
      "Ġakor": 9182,
      "Ġpatr": 9183,
      "Ġcertas": 9184,
      "Ġklimato": 9185,
      "Ġ1968": 9186,
      "gono": 9187,
      "ĠRio": 9188,
      "ĠVarsovia": 9189,
      "Ä±": 9190,
      "Ġprovu": 9191,
      "áĢĻ": 9192,
      "ĠGreek": 9193,
      "ĠTajvano": 9194,
      "Ġdosieroj": 9195,
      "à¤®": 9196,
      "jaro": 9197,
      "ĠWen": 9198,
      "inian": 9199,
      "orio": 9200,
      "Ġportis": 9201,
      "poten": 9202,
      "ĠMark": 9203,
      "hom": 9204,
      "SlovenÅ¡Äįina": 9205,
      "Ġultra": 9206,
      "Ġsuba": 9207,
      "Ġorganizas": 9208,
      "enaÄµo": 9209,
      "Unue": 9210,
      "ÒĽ": 9211,
      "äº": 9212,
      "ĠParti": 9213,
      "ĠÅĽ": 9214,
      "tice": 9215,
      "ĠPlu": 9216,
      "Ġstudi": 9217,
      "Ġamon": 9218,
      "Ð°Ð·Ð°": 9219,
      "ĠKD": 9220,
      "à¤°": 9221,
      "Dezajn": 9222,
      "!)": 9223,
      "get": 9224,
      "bic": 9225,
      "Ġargumentoj": 9226,
      "Ġkali": 9227,
      "Listo": 9228,
      "Ġcerbo": 9229,
      "Ġvetero": 9230,
      "Ġpozicion": 9231,
      "ĠDeutsch": 9232,
      "Ġmaldekstra": 9233,
      "Ġvenontaj": 9234,
      "beloj": 9235,
      "Ġespero": 9236,
      "Kol": 9237,
      "anojn": 9238,
      "Ġagen": 9239,
      "tish": 9240,
      "Ġpek": 9241,
      "Ġsh": 9242,
      "ĠBone": 9243,
      "Ġpoem": 9244,
      "Ġeraroj": 9245,
      "Ġabsolute": 9246,
      "ÄĽ": 9247,
      "Bos": 9248,
      "à¤²": 9249,
      "ĠPakistano": 9250,
      "Ġpsi": 9251,
      "ÄĿisto": 9252,
      "Ġdisde": 9253,
      "Ġaspekton": 9254,
      "Ter": 9255,
      "Ãĵ": 9256,
      "laboro": 9257,
      "Ġproksimaj": 9258,
      "Ġdefendi": 9259,
      "dliteraturo": 9260,
      "ĠAliflanke": 9261,
      "Ġteatro": 9262,
      "lava": 9263,
      "orus": 9264,
      "ĠZe": 9265,
      "ĠDistrikto": 9266,
      "Ġpago": 9267,
      "kuro": 9268,
      "Atributo": 9269,
      "my": 9270,
      "lag": 9271,
      "Ġmovadoj": 9272,
      "ĠDanio": 9273,
      "ĠHindi": 9274,
      "Printisto": 9275,
      "Dezajnisto": 9276,
      "Ùĩ": 9277,
      "pril": 9278,
      "Ġelektroni": 9279,
      "ĠÃ©": 9280,
      "Ġatakis": 9281,
      "temo": 9282,
      "Ġjena": 9283,
      "Ġkontribuis": 9284,
      "mplifi": 9285,
      "Ġkeurig": 9286,
      "ĠFrance": 9287,
      "Ġokupas": 9288,
      "Ġkvaliton": 9289,
      "ujn": 9290,
      "Ġekza": 9291,
      "Ġaktivi": 9292,
      "ĠLernu": 9293,
      "urs": 9294,
      "ĠSkri": 9295,
      "Ġokt": 9296,
      "Ġprovle": 9297,
      "Ġside": 9298,
      "Ġrespubli": 9299,
      "gasy": 9300,
      "paroli": 9301,
      "wiÄĻ": 9302,
      "ĠIzrael": 9303,
      ".-": 9304,
      "Ġreferencoj": 9305,
      "Ġfermita": 9306,
      "Ġopiniis": 9307,
      "naskiÄĿis": 9308,
      "Ġenmig": 9309,
      "Ġfaciligi": 9310,
      "Ġpereis": 9311,
      "Go": 9312,
      "prote": 9313,
      "3333": 9314,
      "ĠVoices": 9315,
      "uskri": 9316,
      "ĠmanÄĿ": 9317,
      "Ġaktivado": 9318,
      "Ġtaskon": 9319,
      "Ð°Ð·Ð°ÒĽ": 9320,
      "uda": 9321,
      "Òļ": 9322,
      "Ġpeza": 9323,
      "Ġteror": 9324,
      "Ġfolioj": 9325,
      "Ġlitero": 9326,
      "dego": 9327,
      "ĠPartoj": 9328,
      "mbo": 9329,
      "ĠBiblioteko": 9330,
      "Ġgrundo": 9331,
      "ĠÄīefo": 9332,
      "ĠKali": 9333,
      "logioj": 9334,
      "Ġtradicie": 9335,
      "Ġsekson": 9336,
      "Ġdatumojn": 9337,
      "ĠHispana": 9338,
      "Ġkonsiderataj": 9339,
      "Zamenhof": 9340,
      "Ġornam": 9341,
      "Ġmuroj": 9342,
      "Estis": 9343,
      "Ġreprezentanto": 9344,
      "ĠPublish": 9345,
      "teca": 9346,
      "Ġsekura": 9347,
      "Ġprodukta": 9348,
      "ĠanstataÅŃe": 9349,
      "ĠFrench": 9350,
      "Ġvenki": 9351,
      "ãģ¾": 9352,
      "Ġinterese": 9353,
      "Ġorigino": 9354,
      "pdf": 9355,
      "tors": 9356,
      "Ġprotestan": 9357,
      "ember": 9358,
      "Ġfloroj": 9359,
      "sy": 9360,
      "eston": 9361,
      "Ġviki": 9362,
      "Ġtraktas": 9363,
      "Ġoftaj": 9364,
      "ÒļÐ°Ð·Ð°ÒĽ": 9365,
      "Ġklopodas": 9366,
      "Ġforgesu": 9367,
      "Ġhorlo": 9368,
      "Ġsugestas": 9369,
      "ĠavantaÄĿojn": 9370,
      "Sr": 9371,
      "sal": 9372,
      "Ġvikipedi": 9373,
      "Ġkui": 9374,
      "ĠÄµurn": 9375,
      "à¤ª": 9376,
      "ĠJac": 9377,
      "Ġfanta": 9378,
      "Ġeksa": 9379,
      "tica": 9380,
      "ĠaÅŃt": 9381,
      "ĠWo": 9382,
      "Dona": 9383,
      "cias": 9384,
      "Ġaperi": 9385,
      "Ġfamilia": 9386,
      "-,": 9387,
      "ĠBedaÅŃrinde": 9388,
      "ĠIlus": 9389,
      "care": 9390,
      "Hispan": 9391,
      "Ġperfi": 9392,
      "ĠMontre": 9393,
      "ÑħÑĢ": 9394,
      "Ġentry": 9395,
      "Ġalko": 9396,
      "Ġrealo": 9397,
      "Ġturnis": 9398,
      "Ġsubjekto": 9399,
      "Ġinsek": 9400,
      "ĠUnited": 9401,
      "Bur": 9402,
      "ĠMel": 9403,
      "Maku": 9404,
      "Ġescepte": 9405,
      "Ġparko": 9406,
      "ÄĪina": 9407,
      "Ġastro": 9408,
      "Ġkruc": 9409,
      "listoj": 9410,
      "Ġsciencaj": 9411,
      "ĠPekino": 9412,
      "Ġkonsideris": 9413,
      "wai": 9414,
      "zanio": 9415,
      "Jean": 9416,
      "valoj": 9417,
      "ĠIvan": 9418,
      "Ġeblaj": 9419,
      "hrvatski": 9420,
      "viro": 9421,
      "ĠmorgaÅŃ": 9422,
      "ãģª": 9423,
      "Ġtesto": 9424,
      "Ġteron": 9425,
      "celan": 9426,
      "Ġinterreta": 9427,
      "Ġpravas": 9428,
      "Ġoma": 9429,
      "Ġfut": 9430,
      "ĠÄīeestis": 9431,
      "ĠPrus": 9432,
      "ĠestiÄĿis": 9433,
      "France": 9434,
      "Francio": 9435,
      "Ġplezuro": 9436,
      "Dok": 9437,
      "Ġekkriis": 9438,
      "¯ÙĪ": 9439,
      "Ġsendas": 9440,
      "Ġlinks": 9441,
      "Ġdiplomatique": 9442,
      "Ergonomiaj": 9443,
      "Ġetaj": 9444,
      "ĠGas": 9445,
      "zarda": 9446,
      "This": 9447,
      "Ste": 9448,
      "fana": 9449,
      "Ġrezolu": 9450,
      "Ġkunven": 9451,
      "OT": 9452,
      "diro": 9453,
      "Ġunuajn": 9454,
      "tha": 9455,
      "SerÄīi": 9456,
      "Ġbote": 9457,
      "Ġporti": 9458,
      "ders": 9459,
      "Ġeldonis": 9460,
      "Ġ1983": 9461,
      "MODx": 9462,
      "ĠMODx": 9463,
      "Ġfero": 9464,
      "ĠmanÄĿaÄµo": 9465,
      "ĠÄĿardeno": 9466,
      "ĠIP": 9467,
      "ĠRon": 9468,
      "well": 9469,
      "ĠScienco": 9470,
      "Ġekscii": 9471,
      "Aktuala": 9472,
[...]
