{
  "version": "1.0",
  "truncation": null,
  "padding": null,
  "added_tokens": [
    {
      "id": 0,
      "content": "<|endoftext|>",
      "single_word": false,
      "lstrip": false,
      "rstrip": false,
      "normalized": true,
      "special": true
    }
  ],
  "normalizer": null,
  "pre_tokenizer": {
    "type": "ByteLevel",
    "add_prefix_space": false,
    "trim_offsets": true,
    "use_regex": true
  },
  "post_processor": {
    "type": "ByteLevel",
    "add_prefix_space": true,
    "trim_offsets": false,
    "use_regex": true
  },
  "decoder": {
    "type": "ByteLevel",
    "add_prefix_space": true,
    "trim_offsets": true,
    "use_regex": true
  },
  "model": {
    "type": "BPE",
    "dropout": null,
    "unk_token": null,
    "continuing_subword_prefix": "",
    "end_of_word_suffix": "",
    "fuse_unk": false,
    "byte_fallback": false,
    "ignore_merges": false,
    "vocab": {
      "<|endoftext|>": 0,
      "!": 1,
      "\"": 2,
      "#": 3,
      "$": 4,
      "%": 5,
      "&": 6,
      "'": 7,
      "(": 8,
      ")": 9,
      "*": 10,
      "+": 11,
      ",": 12,
      "-": 13,
      ".": 14,
      "/": 15,
      "0": 16,
      "1": 17,
      "2": 18,
      "3": 19,
      "4": 20,
      "5": 21,
      "6": 22,
      "7": 23,
      "8": 24,
      "9": 25,
      ":": 26,
      ";": 27,
      "<": 28,
      "=": 29,
      ">": 30,
      "?": 31,
      "@": 32,
      "A": 33,
      "B": 34,
      "C": 35,
      "D": 36,
      "E": 37,
      "F": 38,
      "G": 39,
      "H": 40,
      "I": 41,
      "J": 42,
      "K": 43,
      "L": 44,
      "M": 45,
      "N": 46,
      "O": 47,
      "P": 48,
      "Q": 49,
      "R": 50,
      "S": 51,
      "T": 52,
      "U": 53,
      "V": 54,
      "W": 55,
      "X": 56,
      "Y": 57,
      "Z": 58,
      "[": 59,
      "\\": 60,
      "]": 61,
      "^": 62,
      "_": 63,
      "`": 64,
      "a": 65,
      "b": 66,
      "c": 67,
      "d": 68,
      "e": 69,
      "f": 70,
      "g": 71,
      "h": 72,
      "i": 73,
      "j": 74,
      "k": 75,
      "l": 76,
      "m": 77,
      "n": 78,
      "o": 79,
      "p": 80,
      "q": 81,
      "r": 82,
      "s": 83,
      "t": 84,
      "u": 85,
      "v": 86,
      "w": 87,
      "x": 88,
      "y": 89,
      "z": 90,
      "{": 91,
      "|": 92,
      "}": 93,
      "~": 94,
      "¡": 95,
      "¢": 96,
      "£": 97,
      "¤": 98,
      "¥": 99,
      "¦": 100,
      "§": 101,
      "¨": 102,
      "©": 103,
      "ª": 104,
      "«": 105,
      "¬": 106,
      "®": 107,
      "¯": 108,
      "°": 109,
      "±": 110,
      "²": 111,
      "³": 112,
      "´": 113,
      "µ": 114,
      "¶": 115,
      "·": 116,
      "¸": 117,
      "¹": 118,
      "º": 119,
      "»": 120,
      "¼": 121,
      "½": 122,
      "¾": 123,
      "¿": 124,
      "À": 125,
      "Á": 126,
      "Â": 127,
      "Ã": 128,
      "Ä": 129,
      "Å": 130,
      "Æ": 131,
      "Ç": 132,
      "È": 133,
      "É": 134,
      "Ê": 135,
      "Ë": 136,
      "Ì": 137,
      "Í": 138,
      "Î": 139,
      "Ï": 140,
      "Ð": 141,
      "Ñ": 142,
      "Ò": 143,
      "Ó": 144,
      "Ô": 145,
      "Õ": 146,
      "Ö": 147,
      "×": 148,
      "Ø": 149,
      "Ù": 150,
      "Ú": 151,
      "Û": 152,
      "Ü": 153,
      "Ý": 154,
      "Þ": 155,
      "ß": 156,
      "à": 157,
      "á": 158,
      "â": 159,
      "ã": 160,
      "ä": 161,
      "å": 162,
      "æ": 163,
      "ç": 164,
      "è": 165,
      "é": 166,
      "ê": 167,
      "ë": 168,
      "ì": 169,
      "í": 170,
      "î": 171,
      "ï": 172,
      "ð": 173,
      "ñ": 174,
      "ò": 175,
      "ó": 176,
      "ô": 177,
      "õ": 178,
      "ö": 179,
      "÷": 180,
      "ø": 181,
      "ù": 182,
      "ú": 183,
      "û": 184,
      "ü": 185,
      "ý": 186,
      "þ": 187,
      "ÿ": 188,
      "Ā": 189,
      "ā": 190,
      "Ă": 191,
      "ă": 192,
      "Ą": 193,
      "ą": 194,
      "Ć": 195,
      "ć": 196,
      "Ĉ": 197,
      "ĉ": 198,
      "Ċ": 199,
      "ċ": 200,
      "Č": 201,
      "č": 202,
      "Ď": 203,
      "ď": 204,
      "Đ": 205,
      "đ": 206,
      "Ē": 207,
      "ē": 208,
      "Ĕ": 209,
      "ĕ": 210,
      "Ė": 211,
      "ė": 212,
      "Ę": 213,
      "ę": 214,
      "Ě": 215,
      "ě": 216,
      "Ĝ": 217,
      "ĝ": 218,
      "Ğ": 219,
      "ğ": 220,
      "Ġ": 221,
      "ġ": 222,
      "Ģ": 223,
      "ģ": 224,
      "Ĥ": 225,
      "ĥ": 226,
      "Ħ": 227,
      "ħ": 228,
      "Ĩ": 229,
      "ĩ": 230,
      "Ī": 231,
      "ī": 232,
      "Ĭ": 233,
      "ĭ": 234,
      "Į": 235,
      "į": 236,
      "İ": 237,
      "ı": 238,
      "Ĳ": 239,
      "ĳ": 240,
      "Ĵ": 241,
      "ĵ": 242,
      "Ķ": 243,
      "ķ": 244,
      "ĸ": 245,
      "Ĺ": 246,
      "ĺ": 247,
      "Ļ": 248,
      "ļ": 249,
      "Ľ": 250,
      "ľ": 251,
      "Ŀ": 252,
      "ŀ": 253,
      "Ł": 254,
      "ł": 255,
      "Ń": 256,
      "la": 257,
      "\":": 258,
      "on": 259,
      "en": 260,
      "Ġk": 261,
      "ro": 262,
      "ta": 263,
      "Ġla": 264,
      "Ġd": 265,
      "Ġp": 266,
      "an": 267,
      "el": 268,
      ",\"": 269,
      "oj": 270,
      "ti": 271,
      "er": 272,
      "aj": 273,
      "\":\"": 274,
      "\",\"": 275,
      "Ġde": 276,
      "ri": 277,
      "li": 278,
      "es": 279,
      "{\"": 280,
      "ar": 281,
      "Ġs": 282,
      "to": 283,
      "pro": 284,
      "lab": 285,
      "ul": 286,
      "Ġa": 287,
      "prob": 288,
      "label": 289,
      "eo": 290,
      "in": 291,
      "is": 292,
      "Ġm": 293,
      "or": 294,
      "99": 295,
      "},": 296,
      "as": 297,
      "te": 298,
      "re": 299,
      "Ġn": 300,
      "ÄĿ": 301,
      "nul": 302,
      "Ġkaj": 303,
      "null": 304,
      "},{\"": 305,
      "un": 306,
      "Ġes": 307,
      "ÅŃ": 308,
      "Ġv": 309,
      "Ġen": 310,
      "ra": 311,
      "00": 312,
      "Ġf": 313,
      "id": 314,
      "om": 315,
      "Äī": 316,
      "al": 317,
      "ci": 318,
      "ek": 319,
      "tas": 320,
      "Ġki": 321,
      "lo": 322,
      ".\\": 323,
      "do": 324,
      "ur": 325,
      "toj": 326,
      "war": 327,
      "ed": 328,
      "Ġt": 329,
      "am": 330,
      "Ġal": 331,
      "âĢ": 332,
      "warc": 333,
      "le": 334,
      "ĠÄī": 335,
      "ten": 336,
      "Ġ1": 337,
      "ka": 338,
      "Ġti": 339,
      "Ġ(": 340,
      "20": 341,
      "io": 342,
      "Ġestas": 343,
      "ig": 344,
      "da": 345,
      "Ġli": 346,
      "ĠE": 347,
      "ĠL": 348,
      "ko": 349,
      "Ġh": 350,
      "ĠK": 351,
      "ĠS": 352,
      ",{\"": 353,
      "Ġin": 354,
      "ov": 355,
      "taj": 356,
      "ÅĿ": 357,
      "ter": 358,
      "ĠM": 359,
      "Ġb": 360,
      "Ġre": 361,
      "con": 362,
      "tis": 363,
      "ĠA": 364,
      "per": 365,
      "ia": 366,
      "ĠP": 367,
      "Ġkon": 368,
      "os": 369,
      "tu": 370,
      "fi": 371,
      "Ġpor": 372,
      "Ġo": 373,
      "ers": 374,
      "Ġj": 375,
      "ojn": 376,
      "Ġpro": 377,
      "Ġne": 378,
      "Ġi": 379,
      "em": 380,
      "Ġg": 381,
      "999": 382,
      "um": 383,
      "Ġvi": 384,
      "po": 385,
      "uj": 386,
      "ca": 387,
      "Ġan": 388,
      "pe": 389,
      "us": 390,
      "ĠT": 391,
      "Ġpri": 392,
      "ran": 393,
      "lan": 394,
      "roj": 395,
      "ita": 396,
      "ajn": 397,
      "Ġel": 398,
      "Ġe": 399,
      "Ġmal": 400,
      "ĠÄĿ": 401,
      "Ġmi": 402,
      "ua": 403,
      "\\\"": 404,
      "ĠâĢ": 405,
      "co": 406,
      "tent": 407,
      "go": 408,
      "ton": 409,
      "content": 410,
      "ĠÄīi": 411,
      "ĠB": 412,
      "ik": 413,
      "vo": 414,
      "Ġkun": 415,
      "98": 416,
      "ce": 417,
      "22": 418,
      "sh": 419,
      "ĠR": 420,
      "iden": 421,
      "ĠLa": 422,
      "vi": 423,
      "di": 424,
      "11": 425,
      "mo": 426,
      "ge": 427,
      "Ġek": 428,
      "Äµ": 429,
      "ĠN": 430,
      "Ġ20": 431,
      "ad": 432,
      "Ġke": 433,
      "ty": 434,
      "peran": 435,
      "ĠI": 436,
      "gi": 437,
      "ĠD": 438,
      "de": 439,
      "12": 440,
      "lu": 441,
      "Ġkom": 442,
      "Ġ2": 443,
      "ĠÅĿ": 444,
      "res": 445,
      "ĠF": 446,
      "identi": 447,
      "97": 448,
      "Ġsu": 449,
      "nL": 450,
      "ĠV": 451,
      "ng": 452,
      "Ġestis": 453,
      "identifi": 454,
      "ru": 455,
      "ĠaÅŃ": 456,
      "\":{\"": 457,
      "tan": 458,
      "ak": 459,
      "zi": 460,
      "Ġpli": 461,
      "av": 462,
      "84": 463,
      "ma": 464,
      "Ġper": 465,
      "ris": 466,
      "tion": 467,
      "ĠC": 468,
      "13": 469,
      "ĠEs": 470,
      "pa": 471,
      "me": 472,
      "kon": 473,
      "96": 474,
      "tra": 475,
      "Ġdi": 476,
      "ĠG": 477,
      "85": 478,
      "95": 479,
      "he": 480,
      "il": 481,
      "tri": 482,
      "0000": 483,
      "Ġun": 484,
      "don": 485,
      "bo": 486,
      "10": 487,
      "Ġkiel": 488,
      "ĠU": 489,
      "94": 490,
      "15": 491,
      "87": 492,
      "va": 493,
      "Ġpa": 494,
      "Ġinter": 495,
      "ĠH": 496,
      "86": 497,
      "ĠJ": 498,
      "aÅŃ": 499,
      "kaÅŃ": 500,
      "14": 501,
      "Ġ-": 502,
      "urn": 503,
      "Ġpov": 504,
      "ĠÄ": 505,
      "ÄĿo": 506,
      "Ġsi": 507,
      "16": 508,
      "ki": 509,
      "17": 510,
      "Ġkiu": 511,
      "83": 512,
      "ol": 513,
      "aci": 514,
      "93": 515,
      "tem": 516,
      "du": 517,
      "80": 518,
      "man": 519,
      "Ġri": 520,
      "uz": 521,
      "vers": 522,
      "eb": 523,
      "nK": 524,
      "las": 525,
      "\":[": 526,
      "Ġar": 527,
      "ren": 528,
      "27": 529,
      "ĠEsperan": 530,
      "25": 531,
      "Ġili": 532,
      "nE": 533,
      "ga": 534,
      "uu": 535,
      "ks": 536,
      "jo": 537,
      "oni": 538,
      "Ġali": 539,
      "ono": 540,
      "cation": 541,
      "tl": 542,
      "Ġni": 543,
      "nP": 544,
      "ni": 545,
      "type": 546,
      "Ġ\\\"": 547,
      "\":\"<": 548,
      "04": 549,
      "identification": 550,
      "uuid": 551,
      "},\"": 552,
      "tro": 553,
      "ala": 554,
      "Ġpre": 555,
      "Ġsen": 556,
      "sen": 557,
      "ch": 558,
      "tlsh": 559,
      "Ġpo": 560,
      "ing": 561,
      "tin": 562,
      "zo": 563,
      "23": 564,
      "Ġtiu": 565,
      "ĠÄīe": 566,
      "len": 567,
      "pon": 568,
      "kti": 569,
      "nLa": 570,
      "isto": 571,
      "th": 572,
      "26": 573,
      "Ġfor": 574,
      "06": 575,
      "24": 576,
      ">\",\"": 577,
      "ÄĿis": 578,
      "ĠO": 579,
      "bro": 580,
      "ven": 581,
      "ion": 582,
      "Ġkiuj": 583,
      "nA": 584,
      "Ġmon": 585,
      "âĢĿ": 586,
      "Ġc": 587,
      ")\\": 588,
      "tp": 589,
      "07": 590,
      "mi": 591,
      "nS": 592,
      "44": 593,
      "tar": 594,
      "ord": 595,
      "Ġka": 596,
      "05": 597,
      "tojn": 598,
      "Ġpos": 599,
      "Ġpovas": 600,
      "taÅŃ": 601,
      "ado": 602,
      "loj": 603,
      "Ġhav": 604,
      "Ġsed": 605,
      "03": 606,
      "ero": 607,
      "19": 608,
      "Ġdis": 609,
      "Ġkons": 610,
      "lej": 611,
      "no": 612,
      "for": 613,
      "cio": 614,
      "gori": 615,
      "ab": 616,
      "47": 617,
      "org": 618,
      "ku": 619,
      "ari": 620,
      "men": 621,
      "Ġpar": 622,
      "ck": 623,
      "ĠankaÅŃ": 624,
      "lon": 625,
      "Ġunu": 626,
      "tegori": 627,
      "nM": 628,
      "pi": 629,
      "ĠÄĿi": 630,
      "43": 631,
      "46": 632,
      "ĠEsperanto": 633,
      "so": 634,
      "ata": 635,
      "Ġling": 636,
      "56": 637,
      "..": 638,
      "Ġja": 639,
      "Ġda": 640,
      "18": 641,
      "53": 642,
      "ht": 643,
      "Ġsur": 644,
      "997": 645,
      "Ġtra": 646,
      "Ġ3": 647,
      "iki": 648,
      "//": 649,
      "://": 650,
      "senten": 651,
      "Ġplej": 652,
      "Ġoni": 653,
      "ĠÄĪ": 654,
      "vas": 655,
      "02": 656,
      "uri": 657,
      "Ġuz": 658,
      "ve": 659,
      "doj": 660,
      "tr": 661,
      "ub": 662,
      "tiko": 663,
      "ona": 664,
      "nR": 665,
      "kto": 666,
      "lis": 667,
      "57": 668,
      "van": 669,
      "fer": 670,
      "aÄµ": 671,
      "ces": 672,
      "laj": 673,
      "Ġver": 674,
      "Ġ[": 675,
      "Ġta": 676,
      "head": 677,
      "ne": 678,
      "blo": 679,
      "igi": 680,
      "Ġnom": 681,
      "ĠâĢľ": 682,
      "ez": 683,
      "dis": 684,
      "gis": 685,
      "pren": 686,
      "Ġtu": 687,
      "Ġmul": 688,
      "est": 689,
      "ÄĿas": 690,
      "Ġsub": 691,
      "pla": 692,
      "arm": 693,
      "33": 694,
      "Ġnov": 695,
      "Ġhom": 696,
      "Ġr": 697,
      "gra": 698,
      "Ġte": 699,
      "}}": 700,
      "http": 701,
      "Ġdu": 702,
      "par": 703,
      "\"]": 704,
      "\":[\"": 705,
      "\"],\"": 706,
      "),": 707,
      "ani": 708,
      "66": 709,
      "Ġres": 710,
      "dig": 711,
      "ber": 712,
      "Ġra": 713,
      "Ġtio": 714,
      "Ġnur": 715,
      "55": 716,
      "2022": 717,
      "21": 718,
      "ino": 719,
      "]\\": 720,
      "alo": 721,
      "ento": 722,
      "Ġmem": 723,
      "pp": 724,
      "kaj": 725,
      "Ġdum": 726,
      "ÄĿoj": 727,
      "37": 728,
      "88": 729,
      "Ġse": 730,
      "ĠMi": 731,
      "Ġlo": 732,
      "ba": 733,
      "si": 734,
      "ble": 735,
      "Ġekz": 736,
      "rec": 737,
      "ÄĿi": 738,
      "epo": 739,
      "ĠIn": 740,
      "uti": 741,
      "ĠÂ": 742,
      "Ġsek": 743,
      "ĠW": 744,
      "nT": 745,
      "nN": 746,
      "lio": 747,
      "Ġje": 748,
      "na": 749,
      "ke": 750,
      "ĠlaÅŃ": 751,
      "45": 752,
      "data": 753,
      "xt": 754,
      "meta": 755,
      "ara": 756,
      "bu": 757,
      "elo": 758,
      "36": 759,
      "77": 760,
      "Ġtem": 761,
      "Ġ|": 762,
      "gua": 763,
      "anto": 764,
      "ref": 765,
      "996": 766,
      "moj": 767,
      "ning": 768,
      "Ġbon": 769,
      "ano": 770,
      "Ġhavas": 771,
      ":\\": 772,
      "Ġtro": 773,
      "get": 774,
      "Ġof": 775,
      "ĠEn": 776,
      "lity": 777,
      "qua": 778,
      "text": 779,
      "guage": 780,
      "ful": 781,
      "date": 782,
      "sha": 783,
      "duk": 784,
      "identified": 785,
      "categori": 786,
      "version": 787,
      "harm": 788,
      "leng": 789,
      "target": 790,
      "nD": 791,
      "vis": 792,
      "]}}": 793,
      "plain": 794,
      "language": 795,
      "fo": 796,
      "quality": 797,
      "08": 798,
      "nings": 799,
      "Ġ200": 800,
      "block": 801,
      "length": 802,
      "categories": 803,
      "record": 804,
      "conversion": 805,
      "metadata": 806,
      "digest": 807,
      "warnings": 808,
      "headers": 809,
      "sentence": 810,
      "identifications": 811,
      "harmful": 812,
      "\"},\"": 813,
      "refers": 814,
      "se": 815,
      "mon": 816,
      "Åľ": 817,
      "pan": 818,
      "Ġgran": 819,
      "kaz": 820,
      "Ġeks": 821,
      "28": 822,
      "voj": 823,
      "vid": 824,
      "amen": 825,
      "ĠantaÅŃ": 826,
      "ras": 827,
      "ĠLi": 828,
      "kri": 829,
      "EA": 830,
      "\":[{\"": 831,
      "09": 832,
      "uloj": 833,
      "edak": 834,
      "por": 835,
      "01": 836,
      ").": 837,
      "Ġle": 838,
      "9999": 839,
      "ĠÄīiuj": 840,
      "sta": 841,
      "ron": 842,
      "Ġl": 843,
      "ante": 844,
      "Ġak": 845,
      "rig": 846,
      "pli": 847,
      "tru": 848,
      "Ġgra": 849,
      "ĠâĢĵ": 850,
      "Ġesti": 851,
      "anta": 852,
      "ulo": 853,
      "antoj": 854,
      "Ġam": 855,
      "}]}}": 856,
      "Ġvid": 857,
      "Ġtre": 858,
      "35": 859,
      "76": 860,
      "rio": 861,
      "https": 862,
      "Ġnun": 863,
      "ĠTi": 864,
      "ĠRe": 865,
      "Ġol": 866,
      "Ġma": 867,
      "fe": 868,
      "nV": 869,
      "edakti": 870,
      "29": 871,
      "koj": 872,
      "tajn": 873,
      "rojn": 874,
      "Ġpost": 875,
      "ele": 876,
      "89": 877,
      "ple": 878,
      "nB": 879,
      "enc": 880,
      "Ġokaz": 881,
      "Ġfon": 882,
      "ĠKon": 883,
      "34": 884,
      "nÄ": 885,
      "Ġtiuj": 886,
      "Ġven": 887,
      "Ġdo": 888,
      "gu": 889,
      "Ġlan": 890,
      "fa": 891,
      "pri": 892,
      "Ġvo": 893,
      "Ġsam": 894,
      "od": 895,
      "Ġkiam": 896,
      "ĠâĢ¢": 897,
      "âĨ": 898,
      "ina": 899,
      "Ġso": 900,
      "ale": 901,
      "ĠÄĿis": 902,
      "eni": 903,
      "Ġkontra": 904,
      "ĠÄĿin": 905,
      "ped": 906,
      "das": 907,
      "Äīe": 908,
      "54": 909,
      "ir": 910,
      "Ġsia": 911,
      "et": 912,
      "Ġaliaj": 913,
      "ĠÄľ": 914,
      "Ġins": 915,
      "daj": 916,
      "dakti": 917,
      "az": 918,
      "anoj": 919,
      "ali": 920,
      "Ġser": 921,
      "Ġkre": 922,
      "ej": 923,
      "wiki": 924,
      "nF": 925,
      "Ġsci": 926,
      "im": 927,
      "Ġprez": 928,
      "Ġsin": 929,
      "pre": 930,
      "ĠKom": 931,
      "Ġfari": 932,
      "ekti": 933,
      "tre": 934,
      "ubli": 935,
      "gas": 936,
      "Ġartiko": 937,
      "ĠkontraÅŃ": 938,
      "ĠÅĿi": 939,
      "Ð°": 940,
      "ĠAn": 941,
      "Ġur": 942,
      "998": 943,
      "ern": 944,
      "pu": 945,
      "ĠÄīar": 946,
      "ea": 947,
      "Ġvor": 948,
      "min": 949,
      "9996": 950,
      "CC": 951,
      "Ġjam": 952,
      "42": 953,
      "90": 954,
      "tos": 955,
      "erman": 956,
      "ÄĿon": 957,
      "âĨĳ": 958,
      "ens": 959,
      "Ġtri": 960,
      "nEn": 961,
      "turo": 962,
      "at": 963,
      "Ġtran": 964,
      "ati": 965,
      "Ġparto": 966,
      "Ġlingvo": 967,
      "Ġmin": 968,
      "eri": 969,
      "Ġ19": 970,
      "Ã©": 971,
      "pl": 972,
      "ĠAr": 973,
      "00005": 974,
      "75": 975,
      "aro": 976,
      "ww": 977,
      "lando": 978,
      "goj": 979,
      "Ġro": 980,
      "cia": 981,
      "ĠAl": 982,
      "Ġfin": 983,
      "Ġman": 984,
      "Ġjaroj": 985,
      "65": 986,
      "Äµo": 987,
      "nI": 988,
      "Ġ5": 989,
      "be": 990,
      "kis": 991,
      "Ġsta": 992,
      "bi": 993,
      "Ġfun": 994,
      "Redakti": 995,
      "ver": 996,
      "Ġ4": 997,
      "cen": 998,
      "Ġkel": 999,
      "82": 1000,
      "eco": 1001,
      "vaj": 1002,
      "BC": 1003,
      "Äµoj": 1004,
      "92": 1005,
      "74": 1006,
      "ÅŃro": 1007,
      "Ġmili": 1008,
      "za": 1009,
      "umo": 1010,
      "acia": 1011,
      "91": 1012,
      "Ġpers": 1013,
      "kor": 1014,
      "Ġmor": 1015,
      "Ġko": 1016,
      "nÄĪ": 1017,
      "Ġhel": 1018,
      "73": 1019,
      "ĠKi": 1020,
      "Ġfi": 1021,
      "Ġesperan": 1022,
      "Ġspe": 1023,
      "ĠZ": 1024,
      "rin": 1025,
      "kom": 1026,
      "DC": 1027,
      "Ġkomun": 1028,
      "gres": 1029,
      "eto": 1030,
      "ling": 1031,
      "63": 1032,
      "Ġci": 1033,
      "coj": 1034,
      "âĢĵ": 1035,
      "ekto": 1036,
      "ejo": 1037,
      "vin": 1038,
      "Ã¡": 1039,
      "ĠSe": 1040,
      "Ġsig": 1041,
      "Ġfo": 1042,
      "Ġmals": 1043,
      "eks": 1044,
      "Ġfar": 1045,
      "tado": 1046,
      "Ġhomoj": 1047,
      "and": 1048,
      "eno": 1049,
      "volu": 1050,
      "ĠÅĿan": 1051,
      "ĠâĢĶ": 1052,
      "ĠVi": 1053,
      "Ġmar": 1054,
      "ts": 1055,
      "ener": 1056,
      "Ġinfor": 1057,
      "Ġku": 1058,
      "Ġinf": 1059,
      "Ġsian": 1060,
      "ãģ": 1061,
      "log": 1062,
      "pen": 1063,
      "FC": 1064,
      "Ġtiel": 1065,
      "30": 1066,
      "mes": 1067,
      "Ġkor": 1068,
      "bon": 1069,
      "Ġ/": 1070,
      "igo": 1071,
      "Ġparo": 1072,
      "67": 1073,
      "aÄµo": 1074,
      "Ġunua": 1075,
      "ĠeÄī": 1076,
      "Ä¥": 1077,
      "cep": 1078,
      "?\\": 1079,
      "Ġvia": 1080,
      "AD": 1081,
      "ide": 1082,
      "uzi": 1083,
      "Ġju": 1084,
      "Ġ:": 1085,
      "ĠNi": 1086,
      "nH": 1087,
      "ĠMa": 1088,
      "ĠPro": 1089,
      "48": 1090,
      "tio": 1091,
      "kuto": 1092,
      "Ġpoli": 1093,
      "poj": 1094,
      "ĠMar": 1095,
      "ho": 1096,
      "32": 1097,
      "dan": 1098,
      "BA": 1099,
      ".\",\"": 1100,
      "Ġkomen": 1101,
      "Ġdevas": 1102,
      "Ġeb": 1103,
      "uo": 1104,
      "ĠÅľ": 1105,
      "Ñģ": 1106,
      "Ġ16": 1107,
      "Ġmultaj": 1108,
      "onoj": 1109,
      "Ġeble": 1110,
      "Ðº": 1111,
      "Ġplen": 1112,
      "ĠLe": 1113,
      "foj": 1114,
      "embro": 1115,
      "ard": 1116,
      "81": 1117,
      "ec": 1118,
      "Ġdivers": 1119,
      "Ġhisto": 1120,
      "Ġtie": 1121,
      "tribu": 1122,
      "Ġorg": 1123,
      "995": 1124,
      "ok": 1125,
      "Ġplu": 1126,
      "ĠÄľi": 1127,
      "Ġ17": 1128,
      "tik": 1129,
      "9997": 1130,
      "lin": 1131,
      "ha": 1132,
      "omo": 1133,
      "it": 1134,
      "Ġneni": 1135,
      "ser": 1136,
      "rita": 1137,
      "aÄµoj": 1138,
      "...": 1139,
      "taro": 1140,
      "tita": 1141,
      "Ġaper": 1142,
      "ine": 1143,
      "Ġnia": 1144,
      "200": 1145,
      "Ġthe": 1146,
      "ula": 1147,
      "igis": 1148,
      "Ġdec": 1149,
      "ĠInter": 1150,
      "Ġmia": 1151,
      "Ġkiun": 1152,
      "ĠKaj": 1153,
      "ĠMon": 1154,
      "40": 1155,
      "nC": 1156,
      "ĠÄĪi": 1157,
      "von": 1158,
      "bor": 1159,
      "raj": 1160,
      "eli": 1161,
      "La": 1162,
      "Ġto": 1163,
      "Ġtrans": 1164,
      "ĠNe": 1165,
      "ort": 1166,
      "Ġ6": 1167,
      "ĠÂ»": 1168,
      "eng": 1169,
      "tiny": 1170,
      "Ġfonton": 1171,
      "kul": 1172,
      "Ġ18": 1173,
      "ĠÄīiu": 1174,
      "BD": 1175,
      "Ġpl": 1176,
      "Ġmondo": 1177,
      "ns": 1178,
      "nJ": 1179,
      "tus": 1180,
      "Ġliber": 1181,
      "Ġsim": 1182,
      "ana": 1183,
      "peranto": 1184,
      "kci": 1185,
      "51": 1186,
      "hav": 1187,
      "com": 1188,
      "ĠUEA": 1189,
      "Ġlu": 1190,
      "ÄĿa": 1191,
      "ĠUn": 1192,
      "Ġtiun": 1193,
      "kas": 1194,
      "diÄī": 1195,
      "59": 1196,
      "ĠSed": 1197,
      "Ġekzis": 1198,
      "Ġapar": 1199,
      "Ġfa": 1200,
      "ini": 1201,
      "Ġpas": 1202,
      "41": 1203,
      "ulse": 1204,
      "uaro": 1205,
      "EE": 1206,
      "Ġme": 1207,
      "!\\": 1208,
      "Ġrila": 1209,
      "med": 1210,
      "nG": 1211,
      "ĠÂ«": 1212,
      "tejo": 1213,
      "Ġteks": 1214,
      "Ġmala": 1215,
      "AC": 1216,
      "Ġkie": 1217,
      "EJ": 1218,
      "ĠRo": 1219,
      "rom": 1220,
      "Ð¸": 1221,
      "Ġprop": 1222,
      "49": 1223,
      "ph": 1224,
      "Ġbone": 1225,
      "istoj": 1226,
      "Ġcer": 1227,
      "ĠPo": 1228,
      "ze": 1229,
      "Ġiom": 1230,
      "50": 1231,
      "Ġjar": 1232,
      "Ġag": 1233,
      "ismo": 1234,
      "ĠFran": 1235,
      "Ġgranda": 1236,
      "Ġtute": 1237,
      "kta": 1238,
      ".[": 1239,
      "Ġpubli": 1240,
      "Ġkul": 1241,
      "Ġor": 1242,
      "nO": 1243,
      "Ġkio": 1244,
      "broj": 1245,
      "adon": 1246,
      "ciala": 1247,
      "nov": 1248,
      "Ġkla": 1249,
      "ag": 1250,
      "Ġlia": 1251,
      "Ġkol": 1252,
      "klu": 1253,
      "ÑĢ": 1254,
      "Ġaldon": 1255,
      "âĢĶ": 1256,
      "Ġligi": 1257,
      "fes": 1258,
      "Ġad": 1259,
      "ĠaÅŃto": 1260,
      "era": 1261,
      "eloj": 1262,
      "minis": 1263,
      "Ġorgani": 1264,
      "Ġjun": 1265,
      "Ġtion": 1266,
      "58": 1267,
      ").\\": 1268,
      "short": 1269,
      "sentences": 1270,
      "var": 1271,
      "Ġrespon": 1272,
      "Ġim": 1273,
      "krib": 1274,
      "Ġdeman": 1275,
      "ami": 1276,
      "Ġmov": 1277,
      "emple": 1278,
      "ED": 1279,
      "38": 1280,
      "kado": 1281,
      "kla": 1282,
      "Ġdiris": 1283,
      "ang": 1284,
      "ost": 1285,
      "tempe": 1286,
      "Ġredakti": 1287,
      "teco": 1288,
      "Ġ7": 1289,
      "ĠÅĿta": 1290,
      "igas": 1291,
      "Ġrez": 1292,
      "ĠÄīu": 1293,
      "Ġposte": 1294,
      "igita": 1295,
      "Ġlon": 1296,
      "Ð¾": 1297,
      "Ġankor": 1298,
      "52": 1299,
      "Ġfak": 1300,
      "Ġsigni": 1301,
      "Ġlabo": 1302,
      "Ġestos": 1303,
      "Ġmulte": 1304,
      "Ġelek": 1305,
      "''": 1306,
      "Ġilin": 1307,
      "entoj": 1308,
      "Ġurbo": 1309,
      "Ġvin": 1310,
      "ĠÄīir": 1311,
      "Ġren": 1312,
      "FA": 1313,
      "Ġartikolo": 1314,
      "nacia": 1315,
      "Ġrice": 1316,
      "Ġlin": 1317,
      "Ġkompren": 1318,
      "ĠÄīirkaÅŃ": 1319,
      "64": 1320,
      "Ġ10": 1321,
      "Ġtempo": 1322,
      "Ġ15": 1323,
      "âĢĻ": 1324,
      "BE": 1325,
      "Ġed": 1326,
      "teri": 1327,
      "ato": 1328,
      "Ġalia": 1329,
      "Ġsuper": 1330,
      "Ġbez": 1331,
      "enta": 1332,
      "Ġtrovi": 1333,
      "FD": 1334,
      "39": 1335,
      "lojn": 1336,
      "gran": 1337,
      "kces": 1338,
      "Ġang": 1339,
      "tran": 1340,
      "Ġakti": 1341,
      "âĢľ": 1342,
      "gan": 1343,
      "72": 1344,
      "Ġkelkaj": 1345,
      "nU": 1346,
      "ĠdaÅŃ": 1347,
      "ĠankoraÅŃ": 1348,
      "nMi": 1349,
      "Ġ2022": 1350,
      "Ġregis": 1351,
      "gon": 1352,
      "ĠEl": 1353,
      "ĠCh": 1354,
      "cioj": 1355,
      "redakti": 1356,
      "ie": 1357,
      "ĠPor": 1358,
      "Ġtamen": 1359,
      "itaj": 1360,
      "oro": 1361,
      "Ġjaro": 1362,
      "Ġfra": 1363,
      "FE": 1364,
      "gado": 1365,
      "31": 1366,
      "uraj": 1367,
      "ĠÄīef": 1368,
      "Ġw": 1369,
      "plo": 1370,
      "eblas": 1371,
      "pas": 1372,
      "tes": 1373,
      "Ġvolas": 1374,
      "mojn": 1375,
      "Ġofte": 1376,
      "tera": 1377,
      "pedia": 1378,
      "fri": 1379,
      "ud": 1380,
      "ebla": 1381,
      "foje": 1382,
      "tura": 1383,
      "uro": 1384,
      "Ġnek": 1385,
      "ĠPa": 1386,
      "Ġno": 1387,
      "000": 1388,
      "Ġkri": 1389,
      "Ġvian": 1390,
      "Ġinteres": 1391,
      "EJO": 1392,
      "Ġvoj": 1393,
      "ry": 1394,
      "nEs": 1395,
      "ĠEÅŃro": 1396,
      "Ġas": 1397,
      "tigi": 1398,
      "Ġnova": 1399,
      "ut": 1400,
      "EC": 1401,
      "ĠUni": 1402,
      "Ġpartopren": 1403,
      "ĠViki": 1404,
      "vita": 1405,
      "enco": 1406,
      "boj": 1407,
      "Ġproduk": 1408,
      "kam": 1409,
      "qu": 1410,
      "ujo": 1411,
      "AA": 1412,
      "Ġtiam": 1413,
      "Ġmen": 1414,
      "iloj": 1415,
      "Ġprogra": 1416,
      "ff": 1417,
      "Ġter": 1418,
      "Ðµ": 1419,
      "...\\": 1420,
      "Ġprezen": 1421,
      "nÅľ": 1422,
      "Ġnor": 1423,
      "ac": 1424,
      "iste": 1425,
      "Ġlingvoj": 1426,
      "Ġraj": 1427,
      "ĠÐ": 1428,
      "Ġkar": 1429,
      "iskuto": 1430,
      "gita": 1431,
      "ĠKa": 1432,
      "gar": 1433,
      "Ġlabor": 1434,
      "onas": 1435,
      "ic": 1436,
      "ĠÄīiam": 1437,
      "gus": 1438,
      "ilo": 1439,
      "tika": 1440,
      "tistoj": 1441,
      "www": 1442,
      "inio": 1443,
      "71": 1444,
      "eder": 1445,
      "BF": 1446,
      "âĢĿ,": 1447,
      "bla": 1448,
      "Ġand": 1449,
      "Ġpres": 1450,
      "Ġfunkci": 1451,
      "ĠMal": 1452,
      "ĠloÄĿ": 1453,
      "00006": 1454,
      "TC": 1455,
      "ĠDe": 1456,
      "Ġmalf": 1457,
      "aloj": 1458,
      "ciden": 1459,
      "ere": 1460,
      "Ġplan": 1461,
      "mar": 1462,
      "dek": 1463,
      "Ġdiversaj": 1464,
      "nKi": 1465,
      "zoj": 1466,
      "maj": 1467,
      "Ġorig": 1468,
      "ex": 1469,
      "pedio": 1470,
      "Ġpens": 1471,
      "Ġtuta": 1472,
      "idu": 1473,
      "Ġpe": 1474,
      "ay": 1475,
      "Ġdan": 1476,
      "ĠKomun": 1477,
      "DA": 1478,
      "ting": 1479,
      "ĠÄµ": 1480,
      "mas": 1481,
      "wikipedia": 1482,
      "zio": 1483,
      "Ġcen": 1484,
      "Ġ0": 1485,
      "ĠAli": 1486,
      "ĠNov": 1487,
      "Ġiu": 1488,
      "ux": 1489,
      "à¤": 1490,
      "acio": 1491,
      "Ġgru": 1492,
      "nÐ": 1493,
      "mis": 1494,
      "Ġpra": 1495,
      "994": 1496,
      "ikoj": 1497,
      "ĠJo": 1498,
      "ĠEk": 1499,
      "Ġhavis": 1500,
      "993": 1501,
      "Ġaten": 1502,
      "tegorio": 1503,
      "gen": 1504,
      "Ġvivo": 1505,
      "ÄĿin": 1506,
      "âĢ¦": 1507,
      "liste": 1508,
      "Ġsiaj": 1509,
      "Ġekster": 1510,
      "ef": 1511,
      "ĠUs": 1512,
      "amo": 1513,
      "emo": 1514,
      "\\\",": 1515,
      "Ġfran": 1516,
      "Ġajn": 1517,
      "itato": 1518,
      "Ġok": 1519,
      "Ġ=": 1520,
      "pek": 1521,
      "Ġproj": 1522,
      "ĠAÅŃ": 1523,
      "tino": 1524,
      "Ġgerman": 1525,
      "Ġofi": 1526,
      "Ġregi": 1527,
      "Ġstu": 1528,
      "ido": 1529,
      "kur": 1530,
      "ros": 1531,
      "ama": 1532,
      "Äīo": 1533,
      "Ġkan": 1534,
      "]]": 1535,
      "CD": 1536,
      "ela": 1537,
      "net": 1538,
      "zon": 1539,
      "Ġsukces": 1540,
      "Ġeldon": 1541,
      "Ġpen": 1542,
      "Ġkomenc": 1543,
      "Ġpermes": 1544,
      "Ġmod": 1545,
      "ĠUnivers": 1546,
      "espon": 1547,
      "ler": 1548,
      "ataj": 1549,
      "ĠÄĪu": 1550,
      "ove": 1551,
      "umero": 1552,
      "Ġler": 1553,
      "Ġna": 1554,
      "\\\".": 1555,
      "cento": 1556,
      "ajo": 1557,
      "oter": 1558,
      "Ġpreci": 1559,
      "62": 1560,
      "SB": 1561,
      "mul": 1562,
      "nLe": 1563,
      "Ġekzistas": 1564,
      "are": 1565,
      "kan": 1566,
      "hi": 1567,
      "ksi": 1568,
      "Ġind": 1569,
      "Ġop": 1570,
      "ura": 1571,
      "greso": 1572,
      "Ġdeta": 1573,
      "61": 1574,
      "tero": 1575,
      "Ġlandoj": 1576,
      "Ġdiras": 1577,
      "esto": 1578,
      "68": 1579,
      "78": 1580,
      "ida": 1581,
      "Ġkiujn": 1582,
      "rus": 1583,
      "ĠPar": 1584,
      "Ġon": 1585,
      "tab": 1586,
      "eble": 1587,
      "Ġneces": 1588,
      "Ġhistori": 1589,
      "titu": 1590,
      "70": 1591,
      "ski": 1592,
      "Ġmalpli": 1593,
      "Ġbona": 1594,
      "60": 1595,
      "vankam": 1596,
      "footer": 1597,
      "ib": 1598,
      "BB": 1599,
      "Ġreg": 1600,
      "kra": 1601,
      "ispan": 1602,
      "Ġmo": 1603,
      "header": 1604,
      "elon": 1605,
      "Ġproble": 1606,
      "ja": 1607,
      "Ġob": 1608,
      "Ġsan": 1609,
      "Ġfaci": 1610,
      "Ġdev": 1611,
      "Ġsufi": 1612,
      "Ġsitu": 1613,
      "Ġsubten": 1614,
      "dojn": 1615,
      "aski": 1616,
      "onom": 1617,
      "EF": 1618,
      "Ġ8": 1619,
      "ora": 1620,
      "Ġrap": 1621,
      "Ġfil": 1622,
      "ore": 1623,
      "Ġ198": 1624,
      "Ġden": 1625,
      "Ġ[[": 1626,
      "Ġlando": 1627,
      "Ġsignif": 1628,
      "Ġâ": 1629,
      "logio": 1630,
      "ĠpaÄĿo": 1631,
      "istemo": 1632,
      "Ã³": 1633,
      "Ġsol": 1634,
      "mal": 1635,
      "Ġokazis": 1636,
      "CA": 1637,
      "Ġrakon": 1638,
      "Ġkam": 1639,
      "Ġ2011": 1640,
      "gaj": 1641,
      "ite": 1642,
      "Ġapli": 1643,
      "ĠIli": 1644,
      "Ġkap": 1645,
      "Ġkuti": 1646,
      "Â«": 1647,
      "rigi": 1648,
      "sk": 1649,
      "ÅĿi": 1650,
      "Ġ2020": 1651,
      "Ġz": 1652,
      "Ð½": 1653,
      "Ġekzemple": 1654,
      "nEl": 1655,
      "Ġkion": 1656,
      "Ġ12": 1657,
      "ÃŃ": 1658,
      "sa": 1659,
      "trua": 1660,
      "Ġvers": 1661,
      "Ġkur": 1662,
      "Ġ13": 1663,
      "79": 1664,
      "nÄĪi": 1665,
      "Ġenhav": 1666,
      "Ġkva": 1667,
      "ER": 1668,
      "DD": 1669,
      "Ġuzi": 1670,
      "fio": 1671,
      "Â»": 1672,
      "prez": 1673,
      "ĠTEJO": 1674,
      "Ġlas": 1675,
      "Ġjarcento": 1676,
      "cer": 1677,
      "Ġ2021": 1678,
      "cis": 1679,
      "Ġekde": 1680,
      "iÄĿis": 1681,
      "SBN": 1682,
      "tur": 1683,
      "ĠSan": 1684,
      "EB": 1685,
      "end": 1686,
      "Ġorganiz": 1687,
      "Ġ2017": 1688,
      "ĠThe": 1689,
      "son": 1690,
      "ĠÄĿener": 1691,
      "Ġrenkon": 1692,
      "Ġmez": 1693,
      "Ġteksto": 1694,
      "ĠY": 1695,
      "ÅĿo": 1696,
      "caj": 1697,
      "tisto": 1698,
      "ÑĤ": 1699,
      "69": 1700,
      "Ġsiajn": 1701,
      "ktobro": 1702,
      "257": 1703,
      "Ġ9": 1704,
      "land": 1705,
      "Ġ14": 1706,
      "Ġuzas": 1707,
      "gio": 1708,
      "ume": 1709,
      "FF": 1710,
      "pix": 1711,
      "Ġ11": 1712,
      "nKon": 1713,
      "pos": 1714,
      "Ġinklu": 1715,
      "Ġnu": 1716,
      "ĠGerman": 1717,
      "ĠAm": 1718,
      "nTi": 1719,
      "Ġinstru": 1720,
      "lito": 1721,
      "ĠPre": 1722,
      "ÑģÐº": 1723,
      "Ġnomo": 1724,
      "Ġpovus": 1725,
      "fero": 1726,
      "examen": 1727,
      "ĠTio": 1728,
      "Ġespri": 1729,
      "ou": 1730,
      "Ġkonsid": 1731,
      "tras": 1732,
      "nRe": 1733,
      "paro": 1734,
      "antaro": 1735,
      "Diskuto": 1736,
      "--": 1737,
      "ure": 1738,
      "Ġpopo": 1739,
      "nIn": 1740,
      "iÄĿas": 1741,
      "Ġpropon": 1742,
      "Ġeven": 1743,
      "af": 1744,
      "inde": 1745,
      "9998": 1746,
      "vol": 1747,
      "ori": 1748,
      "Ġindi": 1749,
      "Ġus": 1750,
      "Ġba": 1751,
      "Ġmalgran": 1752,
      "les": 1753,
      "vor": 1754,
      "lia": 1755,
      "lino": 1756,
      "AE": 1757,
      "Ġretejo": 1758,
      "Ġlern": 1759,
      "nRedakti": 1760,
      "iko": 1761,
      "ĠâĢŀ": 1762,
      "alu": 1763,
      "ĠISBN": 1764,
      "Ġmed": 1765,
      "ges": 1766,
      "ptem": 1767,
      "pis": 1768,
      "Äīa": 1769,
      "Ġru": 1770,
      "stataÅŃ": 1771,
      "risto": 1772,
      "Ġdispon": 1773,
      "Ġpla": 1774,
      "ajne": 1775,
      "nKa": 1776,
      "Ġvol": 1777,
      "ung": 1778,
      "Ġkomer": 1779,
      "itan": 1780,
      "Ġfoj": 1781,
      "Ġangla": 1782,
      "fr": 1783,
      "Ġgvid": 1784,
      "lajn": 1785,
      "Ġktp": 1786,
      "ĠRulse": 1787,
      "Ġestus": 1788,
      "Ã¼": 1789,
      "Ġtradu": 1790,
      "ĠÄĿia": 1791,
      "cion": 1792,
      "ĠJa": 1793,
      "nRespon": 1794,
      "Ġem": 1795,
      "Ġsper": 1796,
      "CB": 1797,
      "Ġakcep": 1798,
      "etro": 1799,
      "ĠJu": 1800,
      "aÄĿ": 1801,
      "ĠkaÅŃ": 1802,
      "TO": 1803,
      "Ġfami": 1804,
      "ĠÂ»\\": 1805,
      "FB": 1806,
      "tel": 1807,
      "ĠBo": 1808,
      "Ġskrib": 1809,
      "Ġmani": 1810,
      "vizi": 1811,
      "one": 1812,
      "dem": 1813,
      "nPro": 1814,
      "Ġefi": 1815,
      "Ġkontribu": 1816,
      "alaj": 1817,
      "prilo": 1818,
      "Ġsem": 1819,
      "Ġ?": 1820,
      "Ġfaris": 1821,
      "und": 1822,
      "ian": 1823,
      "php": 1824,
      "ĠDo": 1825,
      "ĠUsono": 1826,
      "Ġ2019": 1827,
      "ebr": 1828,
      "Ġscias": 1829,
      ">\"},\"": 1830,
      "Ġkies": 1831,
      "Ġdecid": 1832,
      "ĠRus": 1833,
      "paj": 1834,
      "áĥ": 1835,
      "Ġve": 1836,
      "ĠLu": 1837,
      "gusto": 1838,
      "ĠSu": 1839,
      "Ġsimi": 1840,
      "DE": 1841,
      "tante": 1842,
      "Ġab": 1843,
      "Ġce": 1844,
      "Ġrezul": 1845,
      "Ġhomo": 1846,
      "odia": 1847,
      "Ġ22": 1848,
      "Ġfare": 1849,
      "talo": 1850,
      "una": 1851,
      "Ġha": 1852,
      "ĠÄĿus": 1853,
      "Äīi": 1854,
      "ĠTamen": 1855,
      "nAl": 1856,
      "Ġ30": 1857,
      "184": 1858,
      "uzik": 1859,
      "978": 1860,
      "ebruaro": 1861,
      "anuaro": 1862,
      "dio": 1863,
      "Ġflu": 1864,
      "vu": 1865,
      "Ġkvar": 1866,
      "kov": 1867,
      "Ġkres": 1868,
      "CE": 1869,
      "Ġspeci": 1870,
      "In": 1871,
      "ĠTiu": 1872,
      "Ð»": 1873,
      "idanto": 1874,
      "hel": 1875,
      "Es": 1876,
      "9984": 1877,
      "Ġdon": 1878,
      "bb": 1879,
      "tolo": 1880,
      "kojn": 1881,
      "Ġ2018": 1882,
      "kajn": 1883,
      "Ġ{": 1884,
      "Ġlasta": 1885,
      "Ġbata": 1886,
      "Ġkura": 1887,
      "Ġht": 1888,
      "ustri": 1889,
      "Ġdezi": 1890,
      "esti": 1891,
      "AB": 1892,
      "Ġuni": 1893,
      "Ġniaj": 1894,
      "vanta": 1895,
      "Ġkunlab": 1896,
      "tle": 1897,
      "ĠUnu": 1898,
      "AF": 1899,
      "encoj": 1900,
      "joj": 1901,
      "Ġhttp": 1902,
      "âĢĿ\\": 1903,
      "ins": 1904,
      "Ġkonstru": 1905,
      "mento": 1906,
      "ĠpreskaÅŃ": 1907,
      "Ġkune": 1908,
      "Ġtraduk": 1909,
      "ĠSo": 1910,
      "razi": 1911,
      "Ġdua": 1912,
      "media": 1913,
      "Ġrigar": 1914,
      "Ġekonom": 1915,
      "inta": 1916,
      "publi": 1917,
      "ĠkondiÄī": 1918,
      "DF": 1919,
      "Äµojn": 1920,
      "ptembro": 1921,
      "can": 1922,
      "Ġsame": 1923,
      "9986": 1924,
      "ĠĠ": 1925,
      "fon": 1926,
      "Ġamas": 1927,
      "ĠVer": 1928,
      "nPor": 1929,
      "Ġjen": 1930,
      "ved": 1931,
      "ekz": 1932,
      "nAr": 1933,
      "Ġfilo": 1934,
      "Ġorigin": 1935,
      "9995": 1936,
      "Ġaperis": 1937,
      "Ġpi": 1938,
      "Ġdif": 1939,
      "ĠVikipedio": 1940,
      "Ġid": 1941,
      "Ġbil": 1942,
      "ligi": 1943,
      "Ġbaz": 1944,
      "Ġtuj": 1945,
      "eron": 1946,
      "ĠOr": 1947,
      "Ġpovis": 1948,
      "Ġneniam": 1949,
      "Ġestu": 1950,
      "Ġevolu": 1951,
      "Ġkapa": 1952,
      "lita": 1953,
      "Ġprofi": 1954,
      "troj": 1955,
      "AN": 1956,
      "nAn": 1957,
      "UTC": 1958,
      "antaj": 1959,
      "logi": 1960,
      "Ġviaj": 1961,
      "Ġis": 1962,
      "ĠaÄīe": 1963,
      "DB": 1964,
      "ĠJun": 1965,
      "df": 1966,
      "Ġlis": 1967,
      "ÄĿos": 1968,
      "ĠOni": 1969,
      "ju": 1970,
      "Ġhistorio": 1971,
      "ew": 1972,
      "pero": 1973,
      "Ġpoten": 1974,
      "Ġreda": 1975,
      "ĠEÅŃropo": 1976,
      "iaj": 1977,
      "Ġ2012": 1978,
      "Ġ21": 1979,
      "aran": 1980,
      "havo": 1981,
      "9983": 1982,
      "Ġ194": 1983,
      "tek": 1984,
      "ĠPost": 1985,
      "Ġ196": 1986,
      "baÅŃ": 1987,
      "Ġprofes": 1988,
      "473": 1989,
      "Ġlibro": 1990,
      "Ġvortoj": 1991,
      "nKom": 1992,
      "klo": 1993,
      "Ġfer": 1994,
      "Ġhej": 1995,
      "Ġho": 1996,
      "ĠSi": 1997,
      "Ġprin": 1998,
      "xi": 1999,
      "bur": 2000,
      "ĠDi": 2001,
      "amenho": 2002,
      "9996257": 2003,
      "Ġgrava": 2004,
      "Ġbezonas": 2005,
      "Ġvere": 2006,
      "Ġ*": 2007,
      "987": 2008,
      "Ġtradi": 2009,
      "ĠanstataÅŃ": 2010,
      "9987": 2011,
      "ÄĿojn": 2012,
      "Ġret": 2013,
      "esperanto": 2014,
      "fun": 2015,
      "ãĤ": 2016,
      "Ġ193": 2017,
      "Ġnin": 2018,
      "ĠDum": 2019,
      "ĠÄīiujn": 2020,
      "Ġuti": 2021,
      "Ġ24": 2022,
      "ĠVidu": 2023,
      "ĠPri": 2024,
      "9985": 2025,
      "Ġkonser": 2026,
      "804": 2027,
      "Ġoku": 2028,
      "cc": 2029,
      "9994": 2030,
      "Ġ197": 2031,
      "Ġsubs": 2032,
      "ektoj": 2033,
      "ĠSen": 2034,
      "00004": 2035,
      "ES": 2036,
      "Ġafi": 2037,
      "ese": 2038,
      "Ġide": 2039,
      "tilo": 2040,
      "pres": 2041,
      "Ġvizi": 2042,
      "idi": 2043,
      "naci": 2044,
      "uno": 2045,
      "Ġinformoj": 2046,
      "ĠpaÄĿoj": 2047,
      "ria": 2048,
      ",\\": 2049,
      "Ġmalfaci": 2050,
      "ÄĪ": 2051,
      "Ġalian": 2052,
      "107": 2053,
      "Ġiuj": 2054,
      "titaj": 2055,
      "nMal": 2056,
      "Ġligiloj": 2057,
      "194": 2058,
      "ĠKar": 2059,
      "nSe": 2060,
      "zis": 2061,
      "acioj": 2062,
      "bd": 2063,
      ".\\\"": 2064,
      "Ġartikoloj": 2065,
      "Ġ25": 2066,
      "dap": 2067,
      "rome": 2068,
      "index": 2069,
      "grafio": 2070,
      "odiaÅŃ": 2071,
      "ĠpaÄĿon": 2072,
      "ae": 2073,
      "nÅľati": 2074,
      "Ġmalfer": 2075,
      "ĠKiel": 2076,
      "rigo": 2077,
      "zas": 2078,
      "ĠÅĿanÄĿoj": 2079,
      "012": 2080,
      "Ġinkluzi": 2081,
      "Ġdek": 2082,
      "tor": 2083,
      "Ġnumero": 2084,
      "tron": 2085,
      "estro": 2086,
      "kita": 2087,
      "ys": 2088,
      "Ġeblas": 2089,
      "Ġtia": 2090,
      "veno": 2091,
      "Ġrus": 2092,
      "Ġsistemo": 2093,
      "193": 2094,
      "Ġtemas": 2095,
      "Ġmalsam": 2096,
      "ĠJoh": 2097,
      "oron": 2098,
      "iblio": 2099,
      "990": 2100,
      "abri": 2101,
      "osi": 2102,
      "Ã§": 2103,
      "bf": 2104,
      "Ġpren": 2105,
      "istorio": 2106,
      "lado": 2107,
      "Ġties": 2108,
      "Ġkonta": 2109,
      "Ġge": 2110,
      "Ġflan": 2111,
      "Ġmona": 2112,
      "Ġ.": 2113,
      "Ġsama": 2114,
      "Ġalta": 2115,
      "jn": 2116,
      "kons": 2117,
      "198": 2118,
      "Ġkontro": 2119,
      "Ġtek": 2120,
      "Ġrel": 2121,
      "dita": 2122,
      "ence": 2123,
      "Ġafe": 2124,
      "poÅĿ": 2125,
      "eta": 2126,
      "845": 2127,
      "Ġtut": 2128,
      "inoj": 2129,
      "eg": 2130,
      "peris": 2131,
      "isi": 2132,
      "reta": 2133,
      "Ġvorto": 2134,
      "puti": 2135,
      "noj": 2136,
      "ĠFre": 2137,
      "99942": 2138,
      "Ġlaboro": 2139,
      "Ġpublik": 2140,
      "ajno": 2141,
      "socio": 2142,
      "Ġves": 2143,
      "CF": 2144,
      "ee": 2145,
      "Ġ2013": 2146,
      "into": 2147,
      "Ġat": 2148,
      "ĠEstas": 2149,
      "ĠPer": 2150,
      "ĠBer": 2151,
      "iga": 2152,
      "bc": 2153,
      "rek": 2154,
      "Ã¶": 2155,
      "arto": 2156,
      "Ġ195": 2157,
      "Ġmilito": 2158,
      "Ġ'": 2159,
      "ON": 2160,
      "rea": 2161,
      "ted": 2162,
      "Ġinternacia": 2163,
      "Ø±": 2164,
      "Ġakvo": 2165,
      "ĠÄīefe": 2166,
      "ĠArki": 2167,
      "Ġfru": 2168,
      "igu": 2169,
      "ĠKun": 2170,
      "ĠInternacia": 2171,
      "rino": 2172,
      "urbo": 2173,
      "Â°": 2174,
      "Ġuzata": 2175,
      "nom": 2176,
      "undo": 2177,
      "amenhof": 2178,
      "enca": 2179,
      "peri": 2180,
      "toro": 2181,
      "Ġnaski": 2182,
      "vos": 2183,
      "Ġnovembro": 2184,
      "9993": 2185,
      "Ġkal": 2186,
      "ĠCen": 2187,
      "bre": 2188,
      "ikaj": 2189,
      "kum": 2190,
      "Ġ<": 2191,
      "uea": 2192,
      "daÅŃ": 2193,
      "Ġsignifas": 2194,
      "Ġkonsider": 2195,
      "Ġkonf": 2196,
      ";\\": 2197,
      "Ġfranca": 2198,
      "Ġsoci": 2199,
      "136": 2200,
      "Ġkvankam": 2201,
      "ind": 2202,
      "Äµon": 2203,
      "Ġtiom": 2204,
      "Ġgermana": 2205,
      "Ġrulse": 2206,
      "ena": 2207,
      "99986": 2208,
      "Ø§": 2209,
      "Ġpluraj": 2210,
      "Ġ2015": 2211,
      "âĢĿ.": 2212,
      "Ġadminis": 2213,
      "igitaj": 2214,
      "195": 2215,
      "\\\\": 2216,
      "Ñĥ": 2217,
      "Ġaperas": 2218,
      "tono": 2219,
      "Ġbu": 2220,
      "ĠX": 2221,
      "teraj": 2222,
      "Ġdatu": 2223,
      "Ġnen": 2224,
      "tina": 2225,
      "up": 2226,
      "ĠÃ": 2227,
      "uziko": 2228,
      "Ġkonsis": 2229,
      "bron": 2230,
      "Ġpris": 2231,
      "9994285": 2232,
      "ksim": 2233,
      "Ġdes": 2234,
      "ĠtroviÄĿas": 2235,
      "Ġkli": 2236,
      "ml": 2237,
      "Ġklas": 2238,
      "Ġnome": 2239,
      "novaj": 2240,
      "dd": 2241,
      "ĠMo": 2242,
      "istem": 2243,
      "kol": 2244,
      "Ġprovi": 2245,
      "Ġrevizi": 2246,
      "ulojn": 2247,
      "ĠSer": 2248,
      "tigas": 2249,
      "Ġspi": 2250,
      "ĠkondiÄīoj": 2251,
      "Å¡": 2252,
      "teno": 2253,
      "Ġ2010": 2254,
      "Ġsenpa": 2255,
      "tic": 2256,
      "aluti": 2257,
      "uma": 2258,
      "2011": 2259,
      "Ġprecipe": 2260,
      "Ġy": 2261,
      "old": 2262,
      "ĠKongreso": 2263,
      "vado": 2264,
      "kos": 2265,
      "ĠIs": 2266,
      "Ġgrandaj": 2267,
      "Ġdenove": 2268,
      "Ġunivers": 2269,
      "depen": 2270,
      "ÅĿan": 2271,
      "prezen": 2272,
      "Ġ2016": 2273,
      "Ġteo": 2274,
      "ÑģÐºÐ¸": 2275,
      "Ġtiujn": 2276,
      "Ġmembroj": 2277,
      "Ġdisvol": 2278,
      "ent": 2279,
      "ĠÅĿajn": 2280,
      "Mal": 2281,
      "Ġkrom": 2282,
      "Ġdef": 2283,
      "Ġmis": 2284,
      "Ġmenci": 2285,
      "Ġstra": 2286,
      "ÄĿu": 2287,
      "ĠÅĿa": 2288,
      "Äīas": 2289,
      "'s": 2290,
      "Ġedu": 2291,
      "tala": 2292,
      "Ġrenkonti": 2293,
      "Ġilia": 2294,
      "esa": 2295,
      "onato": 2296,
      "ly": 2297,
      "ĠKiam": 2298,
      "lingva": 2299,
      "ĠTra": 2300,
      "tano": 2301,
      "listo": 2302,
      "uni": 2303,
      "196": 2304,
      "nLi": 2305,
      "Ġprakti": 2306,
      "pera": 2307,
      "Ġloko": 2308,
      "bra": 2309,
      "Ġmas": 2310,
      "vojn": 2311,
      "Ġfaras": 2312,
      "fekti": 2313,
      "ĠambaÅŃ": 2314,
      "ktoro": 2315,
      "Ġfacile": 2316,
      "Ġapu": 2317,
      "Ġkomencis": 2318,
      "Ġ+": 2319,
      "Ġ2014": 2320,
      "ago": 2321,
      "Ġbi": 2322,
      "Ġnovan": 2323,
      "ĠMan": 2324,
      "992": 2325,
      "pozi": 2326,
      "Ġtago": 2327,
      "AT": 2328,
      "Ġating": 2329,
      "lish": 2330,
      "aa": 2331,
      "Ġafero": 2332,
      "Ġ23": 2333,
      "eblaj": 2334,
      "nRespondi": 2335,
      "Ġmian": 2336,
      "887": 2337,
      "ĠPol": 2338,
      "/\",\"": 2339,
      "ĠÄĪinio": 2340,
      "pun": 2341,
      "Ġinten": 2342,
      "telo": 2343,
      "erito": 2344,
      "ĠsufiÄīe": 2345,
      "Ġori": 2346,
      "ÄĿaj": 2347,
      "986": 2348,
      "truk": 2349,
      "Ġtele": 2350,
      "Ġnovaj": 2351,
      "ĠeÅŃro": 2352,
      "Ġelekti": 2353,
      "ĠNa": 2354,
      "Ġaki": 2355,
      "tigo": 2356,
      "ktoj": 2357,
      "tigis": 2358,
      "Ġpr": 2359,
      "ary": 2360,
      "friko": 2361,
      "vuo": 2362,
      "nu": 2363,
      "panio": 2364,
      "GO": 2365,
      "ĠRi": 2366,
      "Ġvar": 2367,
      "Ġpersono": 2368,
      "Ġby": 2369,
      "Ġgrupo": 2370,
      "tanta": 2371,
      "ĠRulseÄĿoj": 2372,
      "Ġbe": 2373,
      "alon": 2374,
      "inda": 2375,
      "Ġkos": 2376,
      "kribo": 2377,
      "Ġperio": 2378,
      "Ġ2008": 2379,
      "Ġinflu": 2380,
      "ĠiÄĿis": 2381,
      "à¦": 2382,
      "adis": 2383,
      "teraturo": 2384,
      "ah": 2385,
      "Ġmallon": 2386,
      "Ġokazas": 2387,
      "mov": 2388,
      "Ġklu": 2389,
      "ire": 2390,
      "Ġgrandan": 2391,
      "Ġformo": 2392,
      "Ġesperantistoj": 2393,
      "bio": 2394,
      "ÅĿu": 2395,
      "pita": 2396,
      "Ġkvin": 2397,
      "Ġ27": 2398,
      "Ġdom": 2399,
      "Ġrapor": 2400,
      "jon": 2401,
      "Ġfinan": 2402,
      "ĠKo": 2403,
      "cojn": 2404,
      "Ġricevis": 2405,
      "ema": 2406,
      "ili": 2407,
      "ĠCom": 2408,
      "Ã¤": 2409,
      "Ġtemo": 2410,
      "Ġpatro": 2411,
      "landa": 2412,
      "lus": 2413,
      "ĠtaÅŃ": 2414,
      "gru": 2415,
      "ĠaÅŃs": 2416,
      "Ġdetaloj": 2417,
      "878": 2418,
      "Ġokciden": 2419,
      "ĠRes": 2420,
      "Ġmontri": 2421,
      "nPri": 2422,
      "jara": 2423,
      "Ġkomenci": 2424,
      "lar": 2425,
      "ĠDan": 2426,
      "ĠGra": 2427,
      "RO": 2428,
      "kolo": 2429,
      "cas": 2430,
      "aron": 2431,
      "Ġkrei": 2432,
      "ves": 2433,
      "427": 2434,
      "Ĥ¬": 2435,
      "nVi": 2436,
      "Ġmuzik": 2437,
      "00003": 2438,
      "uman": 2439,
      "Ġmateri": 2440,
      "Ġregiono": 2441,
      "ĠSch": 2442,
      "vio": 2443,
      "Ġlingvon": 2444,
      "nPli": 2445,
      "985": 2446,
      "ĠBri": 2447,
      "pt": 2448,
      "Ġversio": 2449,
      "turi": 2450,
      "AS": 2451,
      "839": 2452,
      "tuala": 2453,
      "venis": 2454,
      "wa": 2455,
      "cf": 2456,
      "Ġaliajn": 2457,
      "ĠLaÅŃ": 2458,
      "ĠCo": 2459,
      "ĠKan": 2460,
      "ĠÄīio": 2461,
      "801": 2462,
      "EN": 2463,
      "Âł": 2464,
      "Ġkomple": 2465,
      "Ġer": 2466,
      "Ġvenis": 2467,
      "Ġrek": 2468,
      "Ġkarak": 2469,
      "bri": 2470,
      "teko": 2471,
      "Ġhelpi": 2472,
      "flan": 2473,
      "inter": 2474,
      "nKiel": 2475,
      "vili": 2476,
      "Ġson": 2477,
      "ente": 2478,
      "eroj": 2479,
      "vigi": 2480,
      "fra": 2481,
      "Ð²": 2482,
      "Ġnian": 2483,
      "lono": 2484,
      "title": 2485,
      "ĠTh": 2486,
      "Ġmom": 2487,
      "erka": 2488,
      "tive": 2489,
      "oras": 2490,
      "ĠHo": 2491,
      "298": 2492,
      "vidu": 2493,
      "teks": 2494,
      "Ġopini": 2495,
      "ĠvoÄī": 2496,
      "Ġkonata": 2497,
      "igra": 2498,
      "Ð°Ñ": 2499,
      "br": 2500,
      "Ġion": 2501,
      "Ġprezidanto": 2502,
      "Ġgas": 2503,
      "oma": 2504,
      "ĠNor": 2505,
      "nNi": 2506,
      "En": 2507,
      "ÅĿuti": 2508,
      "Ġdisku": 2509,
      "uk": 2510,
      "nW": 2511,
      "Ġkelkajn": 2512,
      "tikaj": 2513,
      "Ġproksi": 2514,
      "ĠFrancio": 2515,
      "ĠEsperanton": 2516,
      "dekso": 2517,
      "trino": 2518,
      "Ġmultajn": 2519,
      "Ġniv": 2520,
      "ĠÄĪe": 2521,
      "Ġsid": 2522,
      "ĠTo": 2523,
      "nÄĪu": 2524,
      "che": 2525,
      "Ġplur": 2526,
      "Ġbo": 2527,
      "kondiÄī": 2528,
      "ĠDio": 2529,
      "Ġrapide": 2530,
      "Ġiam": 2531,
      "Ġrimar": 2532,
      "Ġkru": 2533,
      "pula": 2534,
      "977": 2535,
      "ĠSek": 2536,
      "Ġpropra": 2537,
      "dado": 2538,
      "Ġideo": 2539,
      "ĠMed": 2540,
      "cd": 2541,
      "que": 2542,
      "ĠhodiaÅŃ": 2543,
      "back": 2544,
      "Ġuzo": 2545,
      "Ġ,": 2546,
      "inte": 2547,
      "mu": 2548,
      "Ġliaj": 2549,
      "ĠZamenhof": 2550,
      "ld": 2551,
      "Ġneniu": 2552,
      "ÅĿaj": 2553,
      "adoj": 2554,
      "ĠRa": 2555,
      "Ġsimple": 2556,
      "uso": 2557,
      "Ġprodu": 2558,
      "Ġpun": 2559,
      "Ġprefer": 2560,
      "enoj": 2561,
      "ÅĿoj": 2562,
      "edoj": 2563,
      "ĠGran": 2564,
      "mita": 2565,
      "Ġkutime": 2566,
      "trilo": 2567,
      "tujo": 2568,
      "ĠAs": 2569,
      "ĠFo": 2570,
      "Ġ...": 2571,
      "ova": 2572,
      "chi": 2573,
      "Ġplenum": 2574,
      "Ġdona": 2575,
      "Ġdecembro": 2576,
      "Ġvari": 2577,
      "tantoj": 2578,
      "ĠSci": 2579,
      "Ġkoncer": 2580,
      "blaj": 2581,
      "Ġprogramo": 2582,
      "Ġplibon": 2583,
      "Ġdiri": 2584,
      "gn": 2585,
      "ike": 2586,
      "Ġvirin": 2587,
      "Ġpozi": 2588,
      "los": 2589,
      "aÄµojn": 2590,
      "Ġ&": 2591,
      "ĠGermanio": 2592,
      "adminis": 2593,
      "ungara": 2594,
      "Ġhistorion": 2595,
      "ĠSta": 2596,
      "nen": 2597,
      "Ġdifer": 2598,
      "Ġmalmul": 2599,
      "Ġlim": 2600,
      "ska": 2601,
      "zaÅŃ": 2602,
      "Ġposed": 2603,
      "Ġmovado": 2604,
      "edio": 2605,
      "065": 2606,
      "perio": 2607,
      "kun": 2608,
      "Ġene": 2609,
      "ĠfariÄĿis": 2610,
      "flu": 2611,
      "tegorioj": 2612,
      "diskuto": 2613,
      "ligas": 2614,
      "Ġhavi": 2615,
      "ima": 2616,
      "nglish": 2617,
      "Ġterito": 2618,
      "ãĢ": 2619,
      "ĠGo": 2620,
      "ristan": 2621,
      "Ġbal": 2622,
      "menaÅŃ": 2623,
      "ene": 2624,
      "Ġfre": 2625,
      "ĠâĤ¬": 2626,
      "__": 2627,
      "510": 2628,
      "ĠIta": 2629,
      "nulo": 2630,
      "Ġunue": 2631,
      "Ġinfanoj": 2632,
      "Ġlerne": 2633,
      "araj": 2634,
      "Ġbri": 2635,
      "Ġmontras": 2636,
      "Ġreprezen": 2637,
      "Ġfino": 2638,
      "Ġpostu": 2639,
      "ĠreÄĿo": 2640,
      "RI": 2641,
      "ame": 2642,
      "ikso": 2643,
      ".,": 2644,
      "Ġeni": 2645,
      "Ġaparten": 2646,
      "ĠIns": 2647,
      "Ġklo": 2648,
      "tiva": 2649,
      "parte": 2650,
      "Esperanto": 2651,
      "ĠÄīefa": 2652,
      "kciden": 2653,
      "Ġjulio": 2654,
      "Ġoktobro": 2655,
      "gistri": 2656,
      "tris": 2657,
      "ĠKons": 2658,
      "Ġnaci": 2659,
      "zaj": 2660,
      "984": 2661,
      "Ġmajo": 2662,
      "Ġmembro": 2663,
      "dono": 2664,
      "pra": 2665,
      "Ġtas": 2666,
      "Ġtutmon": 2667,
      "Ġsocia": 2668,
      "ĠNo": 2669,
      "Ġtagoj": 2670,
      "kso": 2671,
      "ando": 2672,
      "Ġth": 2673,
      "Ġjanuaro": 2674,
      "tista": 2675,
      "kadem": 2676,
      "Ġeston": 2677,
      "endo": 2678,
      "ell": 2679,
      "spe": 2680,
      "tingi": 2681,
      "reto": 2682,
      "ĠFor": 2683,
      "nÄľ": 2684,
      "soj": 2685,
      "99997": 2686,
      "Ġdisvas": 2687,
      "ĠÅĿanÄĿi": 2688,
      "Ġ2009": 2689,
      "Ġ100": 2690,
      "Ġmalal": 2691,
      "976": 2692,
      "Ġagado": 2693,
      "kribi": 2694,
      "856": 2695,
      "914": 2696,
      "Ġenhavas": 2697,
      "onaj": 2698,
      "Ġleg": 2699,
      "ÂłÂł": 2700,
      "Ġrekom": 2701,
      "Ġgaz": 2702,
      "sek": 2703,
      "Ġindustri": 2704,
      "à¥": 2705,
      "Ġ2007": 2706,
      "Ġvidis": 2707,
      "ĠÅľi": 2708,
      "Ġiliaj": 2709,
      "Mi": 2710,
      "Ġhispan": 2711,
      "Ġsa": 2712,
      "Ġkapab": 2713,
      "ĠJe": 2714,
      "Ġvidi": 2715,
      "Ġcerte": 2716,
      "876": 2717,
      "Ġvas": 2718,
      "Ġregistaro": 2719,
      "Ġkonstrua": 2720,
      "ĠHel": 2721,
      "Ġsendepen": 2722,
      "ejoj": 2723,
      "meo": 2724,
      "nPa": 2725,
      "ekta": 2726,
      "ĠkvazaÅŃ": 2727,
      "Ġkov": 2728,
      "ĠVento": 2729,
      "Ġdekla": 2730,
      "ablono": 2731,
      "ĠAnd": 2732,
      "Ġses": 2733,
      "Ġmil": 2734,
      "pekti": 2735,
      "Ġdevis": 2736,
      "nEsperanto": 2737,
      "ĠGeo": 2738,
      "ÅĿa": 2739,
      "iÄĿo": 2740,
      "ĠPli": 2741,
      "tema": 2742,
      "Ġprojekto": 2743,
      "Ġet": 2744,
      "Ġkomunumo": 2745,
      "\\\"\\": 2746,
      "eter": 2747,
      "ĠBar": 2748,
      "ps": 2749,
      "den": 2750,
      "ÅĤ": 2751,
      "Ġmarto": 2752,
      "laro": 2753,
      "Ġaferoj": 2754,
      "zan": 2755,
      "157": 2756,
      "Ġjunio": 2757,
      "Ġata": 2758,
      "gani": 2759,
      "publiko": 2760,
      "ress": 2761,
      "diÄīe": 2762,
      "Ġaplik": 2763,
      "ĠBa": 2764,
      "kre": 2765,
      "Ġekzem": 2766,
      "cb": 2767,
      "asa": 2768,
      "venas": 2769,
      "Ġofer": 2770,
      "Ġprezentas": 2771,
      "plen": 2772,
      "Ġdisponeblas": 2773,
      "tigita": 2774,
      "kivo": 2775,
      "Ġ26": 2776,
      "Ġmond": 2777,
      "mor": 2778,
      "nDe": 2779,
      "ĠJes": 2780,
      "Ġinternaci": 2781,
      "Ġaprilo": 2782,
      "ĠCi": 2783,
      "ÅĿajne": 2784,
      "Ġaran": 2785,
      "Ġher": 2786,
      "zer": 2787,
      "vero": 2788,
      "Ġval": 2789,
      "Ġviajn": 2790,
      "Ø±Ø": 2791,
      "Ġcelo": 2792,
      "traro": 2793,
      "806": 2794,
      "Ġvolon": 2795,
      "ĠEÅŃropa": 2796,
      "ĠMontri": 2797,
      "stra": 2798,
      "nPo": 2799,
      "Ġproksim": 2800,
      "ture": 2801,
      "cto": 2802,
      "libro": 2803,
      "Ġvalo": 2804,
      "Ġkand": 2805,
      "Ġlaboris": 2806,
      "Ġtemoj": 2807,
      "umoj": 2808,
      "Ġpermesilo": 2809,
      "kisto": 2810,
      "Ġfen": 2811,
      "fd": 2812,
      "Ġrete": 2813,
      "Ġsocio": 2814,
      "Ġnombro": 2815,
      "html": 2816,
      "acila": 2817,
      "traj": 2818,
      "ĠÅĿtato": 2819,
      "taÄµoj": 2820,
      "Ġpere": 2821,
      "tary": 2822,
      "kondiÄīojn": 2823,
      "Ġdor": 2824,
      "Ġrad": 2825,
      "ioj": 2826,
      "Ġklopo": 2827,
      "peciala": 2828,
      "'''": 2829,
      "ĠAlirita": 2830,
      "ksteraj": 2831,
      "omoj": 2832,
      "Ġ{{": 2833,
      "Ġlibera": 2834,
      "ĠAtribu": 2835,
      "Ġprote": 2836,
      "deco": 2837,
      "Ð°ÑĢ": 2838,
      "Ġstre": 2839,
      "973": 2840,
      "ĠaÅŃgusto": 2841,
      "Ġefekti": 2842,
      "Ġmalnov": 2843,
      "Ġkv": 2844,
      "Ġepo": 2845,
      "gistriÄĿi": 2846,
      "LI": 2847,
      "Ġseptembro": 2848,
      "Ġapud": 2849,
      "Ġpersonoj": 2850,
      "Ġkonkur": 2851,
      "ĠLo": 2852,
      "ĠMari": 2853,
      "estoj": 2854,
      "Ġobj": 2855,
      "Ġesperanto": 2856,
      "gos": 2857,
      "Ġfine": 2858,
      "ĠÄĿenerale": 2859,
      "ĠSa": 2860,
      "Ġmak": 2861,
      "Ġ28": 2862,
      "mino": 2863,
      "rajn": 2864,
      "mado": 2865,
      "ĠÄĿuste": 2866,
      "ĠHa": 2867,
      "daptita": 2868,
      "Ġord": 2869,
      "âĢ²": 2870,
      "kva": 2871,
      "ĠDu": 2872,
      "ĠalmenaÅŃ": 2873,
      "onto": 2874,
      "ĠHispan": 2875,
      "ĠAnkaÅŃ": 2876,
      "rigis": 2877,
      "Ġkulturo": 2878,
      "ĠWay": 2879,
      "su": 2880,
      "Ġmorto": 2881,
      "Ġserio": 2882,
      "Ð¹": 2883,
      "Ġtrovis": 2884,
      "Ġtitolo": 2885,
      "ĠantaÅŃe": 2886,
      "uza": 2887,
      "ĠÄīiuta": 2888,
      "][": 2889,
      "Sam": 2890,
      "etoj": 2891,
      "eriko": 2892,
      "Ġpru": 2893,
      "zanto": 2894,
      "Ġ[#": 2895,
      "Ġban": 2896,
      "836": 2897,
      "Ã±": 2898,
      "Ġroman": 2899,
      "Ġ[#]\\": 2900,
      "014": 2901,
      "ferencoj": 2902,
      "iÄĿin": 2903,
      "Ġfakte": 2904,
      "Ġdokum": 2905,
      "ĠâĢĺ": 2906,
      "ularo": 2907,
      "vajn": 2908,
      "Ġaldonaj": 2909,
      "):": 2910,
      "Ġlonga": 2911,
      "Ġnuna": 2912,
      "antojn": 2913,
      "ĠMach": 2914,
      "aluton": 2915,
      "Ġkm": 2916,
      "Ġrilate": 2917,
      "pleks": 2918,
      "rans": 2919,
      "ĠBrazi": 2920,
      "ulara": 2921,
      "Ġ29": 2922,
      "administrilo": 2923,
      "ĠAd": 2924,
      "Ġpovos": 2925,
      "Ġbru": 2926,
      "100": 2927,
      "CCC": 2928,
      "áĢ": 2929,
      "Ġfabri": 2930,
      "Ġbonvolu": 2931,
      "logo": 2932,
      "Ġamikoj": 2933,
      "Ġlibere": 2934,
      "ĠIm": 2935,
      "==": 2936,
      "988": 2937,
      "ĠSte": 2938,
      "ign": 2939,
      "Ġ$": 2940,
      "kt": 2941,
      "rigas": 2942,
      "ĠVir": 2943,
      "Ġmalgranda": 2944,
      "dajn": 2945,
      "Ġev": 2946,
      "trum": 2947,
      "Ġlar": 2948,
      "Ġ2006": 2949,
      "Ġfla": 2950,
      "000057": 2951,
      "Ġvila": 2952,
      "Ġmiaj": 2953,
      "966": 2954,
      "IV": 2955,
      "Ġlisto": 2956,
      "Ġrevizioj": 2957,
      "logia": 2958,
      "ika": 2959,
      "nLegi": 2960,
      "0000598": 2961,
      "Ġio": 2962,
      "gojn": 2963,
      "ĠKrea": 2964,
      "Ġokazos": 2965,
      "Ġbonaj": 2966,
      "ĠÅĿia": 2967,
      "kondiÄīe": 2968,
      "Ġsistem": 2969,
      "ment": 2970,
      "siko": 2971,
      "ligoj": 2972,
      "ĠFin": 2973,
      "jp": 2974,
      "Ġpopula": 2975,
      "tal": 2976,
      "ĠKomunaÄµo": 2977,
      "trio": 2978,
      "Ġgravas": 2979,
      "975": 2980,
      "Ġmuziko": 2981,
      "Ġvoja": 2982,
      "8412": 2983,
      "ĠLing": 2984,
      "lov": 2985,
      "944": 2986,
      "osiero": 2987,
      "ĠSankta": 2988,
      "Ġedz": 2989,
      "144": 2990,
      "we": 2991,
      "99996": 2992,
      "Ġkonsen": 2993,
      "ars": 2994,
      "Ġ978": 2995,
      "porto": 2996,
      "Ġdatumoj": 2997,
      "ĠNea": 2998,
      "komun": 2999,
      "974": 3000,
      "Ġtero": 3001,
      "ĠPollando": 3002,
      "ĠAtribuite": 3003,
      "ĠuzkondiÄīojn": 3004,
      "idoj": 3005,
      "din": 3006,
      "nos": 3007,
      "nab": 3008,
      "ĠNun": 3009,
      "Ġproduktoj": 3010,
      "SamkondiÄīe": 3011,
      "ĠdaÅŃre": 3012,
      "Ġkorpo": 3013,
      "db": 3014,
      "fb": 3015,
      "Ġaplikeblas": 3016,
      "tiÄĿo": 3017,
      "Ġlegi": 3018,
      "Ġesplo": 3019,
      "monato": 3020,
      "983": 3021,
      "ĠPi": 3022,
      "trepren": 3023,
      "220": 3024,
      "Ġkvan": 3025,
      "ĠCon": 3026,
      "Ġdivid": 3027,
      "Ġdevus": 3028,
      "ĠPos": 3029,
      "Ġinterv": 3030,
      "AR": 3031,
      "Ġkial": 3032,
      "ĠEkz": 3033,
      "Ġdistri": 3034,
      "deks": 3035,
      "Ġdire": 3036,
      "ĠUN": 3037,
      "unga": 3038,
      "erna": 3039,
      "aso": 3040,
      "Ġseks": 3041,
      "Ġvidas": 3042,
      "Ġhomojn": 3043,
      "Ġsamtempe": 3044,
      "Ġparolas": 3045,
      "nDum": 3046,
      "atur": 3047,
      "Ġfir": 3048,
      "dc": 3049,
      "Ġgravaj": 3050,
      "Ġfamilio": 3051,
      "ĠmanÄĿ": 3052,
      "Ġaktive": 3053,
      "nInter": 3054,
      "Ġmono": 3055,
      "ĠÅĿin": 3056,
      "pojn": 3057,
      "ĠLon": 3058,
      "Ġpron": 3059,
      "Ġdepen": 3060,
      "Â·": 3061,
      "Ġverko": 3062,
      "kantaro": 3063,
      "ĠQ": 3064,
      "Ġener": 3065,
      "dika": 3066,
      "805": 3067,
      "ĠNeadaptita": 3068,
      "ĠRom": 3069,
      "ulon": 3070,
      "Ġprofun": 3071,
      "ista": 3072,
      "vel": 3073,
      "Ġtial": 3074,
      "ĠTial": 3075,
      "Ġgener": 3076,
      "ish": 3077,
      "ban": 3078,
      "ds": 3079,
      "Ġmult": 3080,
      "Ġperiodo": 3081,
      "ardo": 3082,
      "Ġprovin": 3083,
      "Ġelem": 3084,
      "ĠMachine": 3085,
      "Ñĭ": 3086,
      "BCD": 3087,
      "ĠÄīam": 3088,
      "Indekso": 3089,
      "turoj": 3090,
      "teg": 3091,
      "Ġrom": 3092,
      "Retro": 3093,
      "Ġduon": 3094,
      "tiÄĿis": 3095,
      "Ġtru": 3096,
      "Ġkiom": 3097,
      "Ġmaniero": 3098,
      "paco": 3099,
      "ĠNew": 3100,
      "Ens": 3101,
      "fine": 3102,
      "Ġenkon": 3103,
      "ĠFreÅĿaj": 3104,
      "Ġdomo": 3105,
      "Medio": 3106,
      "ciaj": 3107,
      "Iloj": 3108,
      "Ġmerka": 3109,
      "ug": 3110,
      "Malnovaj": 3111,
      "à´": 3112,
      "tsch": 3113,
      "flanke": 3114,
      "nTiu": 3115,
      "ĠÅĿanÄĿojMedio": 3116,
      "administriloIndekso": 3117,
      "ĠreviziojRetro": 3118,
      "ĠreviziojRetroligoj": 3119,
      "ĠJen": 3120,
      "ĠRegistriÄĿi": 3121,
      "Ensaluti": 3122,
      "Ġsupro": 3123,
      "ĠRegistriÄĿiEnsaluti": 3124,
      "ordo": 3125,
      "Ġtutan": 3126,
      "fc": 3127,
      "oldid": 3128,
      "nVidi": 3129,
      "nEk": 3130,
      "taroj": 3131,
      "Ġbonan": 3132,
      "Ġlonge": 3133,
      "Ġtiaj": 3134,
      "Ġusona": 3135,
      "Ð·": 3136,
      "view": 3137,
      "ĠaÅŃskul": 3138,
      "ĠRusio": 3139,
      "Ġcx": 3140,
      "800": 3141,
      "Ġfeli": 3142,
      "deta": 3143,
      "plom": 3144,
      "vil": 3145,
      "Ġoficiala": 3146,
      "Ġrestas": 3147,
      "ĠPrezo": 3148,
      "243": 3149,
      "plan": 3150,
      "tt": 3151,
      "IN": 3152,
      "803": 3153,
      "Ġstruk": 3154,
      "ĠaÅŃtoma": 3155,
      "ĠJan": 3156,
      "dos": 3157,
      "ĠGre": 3158,
      "pto": 3159,
      "ner": 3160,
      "isma": 3161,
      "Ġmeto": 3162,
      "use": 3163,
      "Ġverkis": 3164,
      "Ġminu": 3165,
      "Ġprinci": 3166,
      "fab": 3167,
      "nKla": 3168,
      "ĠUr": 3169,
      "Ġaspek": 3170,
      "zh": 3171,
      "isiono": 3172,
      "EFC": 3173,
      "umon": 3174,
      "cie": 3175,
      "114": 3176,
      "ÑĮ": 3177,
      "val": 3178,
      "Ġpensas": 3179,
      "Äį": 3180,
      "milito": 3181,
      "Ð³": 3182,
      "161": 3183,
      "8087": 3184,
      "9956": 3185,
      "Ġentu": 3186,
      "866": 3187,
      "ĠDis": 3188,
      "kvi": 3189,
      "Ġunuaj": 3190,
      "Ĵ\\": 3191,
      "Ġfoje": 3192,
      "loven": 3193,
      "].": 3194,
      "ĠDec": 3195,
      "Ġlingva": 3196,
      "Ġten": 3197,
      "ĠLegu": 3198,
      "135": 3199,
      "esta": 3200,
      "ĠWayback": 3201,
      "ĠTem": 3202,
      "ais": 3203,
      "bas": 3204,
      "âĢ¢": 3205,
      "book": 3206,
      "intaj": 3207,
      "Ġgre": 3208,
      "Ġlian": 3209,
      "Ġnovajn": 3210,
      "ils": 3211,
      "989": 3212,
      "Ġfilozo": 3213,
      "tia": 3214,
      "iro": 3215,
      "ĠEsperanta": 3216,
      "Ġbezon": 3217,
      "cx": 3218,
      "teroj": 3219,
      "Ġviza": 3220,
      "955": 3221,
      "vigite": 3222,
      "Ġkad": 3223,
      "Ġkomputi": 3224,
      "tarkivo": 3225,
      "ĠSin": 3226,
      "tanto": 3227,
      "Ġsola": 3228,
      "gno": 3229,
      "ĠBu": 3230,
      "Ġmortis": 3231,
      "Ġprele": 3232,
      "unio": 3233,
      "822": 3234,
      "jpg": 3235,
      "Ġvirinoj": 3236,
      "1211": 3237,
      "ĠpaÄĿonMalnovaj": 3238,
      "Ġverkoj": 3239,
      "Ġpol": 3240,
      "brojn": 3241,
      "ĠArkivigite": 3242,
      "Ġurboj": 3243,
      "967": 3244,
      "lismo": 3245,
      "Ġreali": 3246,
      "Ġcir": 3247,
      "Ġpolitiko": 3248,
      "ĠÄĿoj": 3249,
      "Ġredak": 3250,
      "Ġspeciala": 3251,
      "igon": 3252,
      "der": 3253,
      "nuloj": 3254,
      "tional": 3255,
      "ĠÄīion": 3256,
      "945": 3257,
      "aÄµon": 3258,
      "kar": 3259,
      "103": 3260,
      "Ġvera": 3261,
      "Ġfunkcias": 3262,
      "Ġretarkivo": 3263,
      "JK": 3264,
      "Ġindik": 3265,
      "ms": 3266,
      "ĠUniversitato": 3267,
      "Ġkristan": 3268,
      "tempa": 3269,
      "Ġdonas": 3270,
      "nle": 3271,
      "Ġviv": 3272,
      "Ġregistri": 3273,
      "trado": 3274,
      "Ġmalsu": 3275,
      "Ġmalkov": 3276,
      "terna": 3277,
      "2713": 3278,
      "bert": 3279,
      "pens": 3280,
      "991": 3281,
      "AL": 3282,
      "Ġco": 3283,
      "Ġhi": 3284,
      "tikolo": 3285,
      "982": 3286,
      "ekton": 3287,
      "3736": 3288,
      "7704": 3289,
      "Ġentrepren": 3290,
      "Ġturn": 3291,
      "Ġdemo": 3292,
      "Ġevi": 3293,
      "3500": 3294,
      "Ġcel": 3295,
      "Ġkafo": 3296,
      "bin": 3297,
      "loro": 3298,
      "ans": 3299,
      "+\\": 3300,
      "ĠÄĪiuj": 3301,
      "Ġ--": 3302,
      "Ġblan": 3303,
      "9832": 3304,
      "mato": 3305,
      "Ġeldono": 3306,
      "Ġ50": 3307,
      "Ġnomon": 3308,
      "ĠSh": 3309,
      "3765": 3310,
      "ilon": 3311,
      "ĠserÄī": 3312,
      "ĠÅ": 3313,
      "kaze": 3314,
      "sim": 3315,
      "nNe": 3316,
      "ue": 3317,
      "Ġekzamen": 3318,
      "cha": 3319,
      "hr": 3320,
      "Ġsti": 3321,
      "Ġhungara": 3322,
      "Ġfik": 3323,
      "Ġnecesas": 3324,
      "EK": 3325,
      "Ġsupo": 3326,
      "Ġunuan": 3327,
      "Ġregu": 3328,
      "Ġforlas": 3329,
      "ĠWil": 3330,
      "2501": 3331,
      "117": 3332,
      "Ġmalhel": 3333,
      "Ġmalbon": 3334,
      "ace": 3335,
      "Re": 3336,
      "Ġaser": 3337,
      "nPost": 3338,
      "Ġfakto": 3339,
      "frika": 3340,
      "Ġrekte": 3341,
      "Ġhttps": 3342,
      "Ġare": 3343,
      "0419": 3344,
      "Ġdecidis": 3345,
      "1290": 3346,
      "cs": 3347,
      "Ġmilionoj": 3348,
      "ĠMajo": 3349,
      "ĠPari": 3350,
      "konsen": 3351,
      "Ġjarojn": 3352,
      "Ġkontribuoj": 3353,
      "toli": 3354,
      "Ã¡n": 3355,
      "Ġfebruaro": 3356,
      "Ġcom": 3357,
      "Ġdemandoj": 3358,
      "run": 3359,
      "joro": 3360,
      "134": 3361,
      "ess": 3362,
      "valo": 3363,
      "Ġ2005": 3364,
      "Ġrif": 3365,
      "ĠLiber": 3366,
      "Ġinkluzive": 3367,
      "2021": 3368,
      "Ġproce": 3369,
      "Ġsimbo": 3370,
      "rano": 3371,
      "bel": 3372,
      "nam": 3373,
      "ĠEsperantujo": 3374,
      "image": 3375,
      "906": 3376,
      "ĠBon": 3377,
      "],": 3378,
      "Ġkongres": 3379,
      "Ġperson": 3380,
      "liber": 3381,
      "graÅŃ": 3382,
      "Ġgen": 3383,
      "ĠEter": 3384,
      "826": 3385,
      "KU": 3386,
      "Ġmur": 3387,
      "847": 3388,
      "Ġuzataj": 3389,
      "aba": 3390,
      "02136": 3391,
      "003": 3392,
      "Ġinformojn": 3393,
      "34845": 3394,
      "18451": 3395,
      "ildo": 3396,
      "841271": 3397,
      "13841271": 3398,
      "273736": 3399,
      "0127704": 3400,
      "4270419": 3401,
      "8087804": 3402,
      "2713065": 3403,
      "012770456": 3404,
      "ĠbaldaÅŃ": 3405,
      "ferenco": 3406,
      "Ġrestis": 3407,
      "Ġpez": 3408,
      "miko": 3409,
      "ĠBel": 3410,
      "nv": 3411,
      "EL": 3412,
      "Ġpola": 3413,
      "taÄµo": 3414,
      "ÅĿis": 3415,
      "ker": 3416,
      "Ġanali": 3417,
      "ĠAfriko": 3418,
      "Ġeli": 3419,
      "Ð´": 3420,
      "files": 3421,
      "Åľati": 3422,
      "Ġanon": 3423,
      "106": 3424,
      "sv": 3425,
      "9832801": 3426,
      "nÅľatiÅľati": 3427,
      "Ġpartoj": 3428,
      "ĠÅĿajnas": 3429,
      "Ġdonis": 3430,
      "vantaÄĿoj": 3431,
      "Ã¨": 3432,
      "ete": 3433,
      "of": 3434,
      "ÅŃtra": 3435,
      ".âĢĿ\\": 3436,
      "9988": 3437,
      "ĠMarto": 3438,
      "Ġpolitika": 3439,
      "kitaj": 3440,
      "113": 3441,
      "ui": 3442,
      "mer": 3443,
      "Ġrajtoj": 3444,
      "Ġproblemo": 3445,
      "bal": 3446,
      "Ġforigi": 3447,
      "zita": 3448,
      "Ġ31": 3449,
      "Ġrelig": 3450,
      "Ġ%": 3451,
      "Ġfunt": 3452,
      "Ġnomata": 3453,
      "far": 3454,
      "Ġinvi": 3455,
      "ĠÄµus": 3456,
      "tike": 3457,
      "Ġscienc": 3458,
      "956": 3459,
      "pari": 3460,
      "px": 3461,
      "Ġkonas": 3462,
      "Ġsukcesis": 3463,
      "ĠÄĪar": 3464,
      "nFran": 3465,
      "ĠKrome": 3466,
      "ciklo": 3467,
      "Ġ*\\": 3468,
      "fin": 3469,
      "9980": 3470,
      "ĠâĤ¬\\": 3471,
      "163": 3472,
      "ĠBrazilo": 3473,
      "IS": 3474,
      "âĢİ": 3475,
      "nEnhavo": 3476,
      "Ġ000": 3477,
      "edaÅŃ": 3478,
      "ĠMos": 3479,
      "ÄĿe": 3480,
      "Ġkondu": 3481,
      "Ġapo": 3482,
      "Ġpan": 3483,
      "Ġpopolo": 3484,
      "Ġrimed": 3485,
      "ĠaÅŃtoro": 3486,
      "ĠKor": 3487,
      "ÅĿita": 3488,
      "Ġu": 3489,
      "ĠRespubliko": 3490,
      "ĠretpoÅĿ": 3491,
      "nKun": 3492,
      "Ġhelpas": 3493,
      "9966": 3494,
      "Ġsenpage": 3495,
      "cisto": 3496,
      "ĠMul": 3497,
      "Ġepoko": 3498,
      "nLo": 3499,
      "nlegu": 3500,
      "dam": 3501,
      "185": 3502,
      "Ġmomento": 3503,
      "âĢĿ.\\": 3504,
      "dor": 3505,
      "ikan": 3506,
      "874": 3507,
      "Ġfarita": 3508,
      "954": 3509,
      "ikio": 3510,
      "Ġlastaj": 3511,
      "Ġtrejn": 3512,
      "ĠÄĿiaj": 3513,
      "ĠOri": 3514,
      "Ġdia": 3515,
      "details": 3516,
      "paÄĿo": 3517,
      "99999": 3518,
      "ĠâĨ": 3519,
      "Ġenhavo": 3520,
      "Ġkontin": 3521,
      "Ġfu": 3522,
      "Ġdoni": 3523,
      "Ġoka": 3524,
      "ĠTiel": 3525,
      "Ġfamili": 3526,
      "Ġparoli": 3527,
      "gx": 3528,
      "125": 3529,
      "kres": 3530,
      "lezio": 3531,
      "Ġmu": 3532,
      "ĠUK": 3533,
      "nLing": 3534,
      "nl": 3535,
      "Ġantik": 3536,
      "ĠJam": 3537,
      "tata": 3538,
      "Ġartikolon": 3539,
      "ĠRu": 3540,
      "formo": 3541,
      "ĠÄµurn": 3542,
      "Ġaparte": 3543,
      "ced": 3544,
      "Ġtraduko": 3545,
      "UR": 3546,
      "ditaj": 3547,
      "ct": 3548,
      "ÅĿt": 3549,
      "Ġgrave": 3550,
      "Ġgla": 3551,
      "Ġmalj": 3552,
      "OR": 3553,
      "Ġvenas": 3554,
      "mani": 3555,
      "ĠOn": 3556,
      "kton": 3557,
      "Ġpriva": 3558,
      "lua": 3559,
      "terio": 3560,
      "ĠOktobro": 3561,
      "ĠKomunejo": 3562,
      "ĠSur": 3563,
      "ĠÄīefurbo": 3564,
      "Ġklare": 3565,
      "Ġjapan": 3566,
      "au": 3567,
      "480": 3568,
      "Ġtrov": 3569,
      "lor": 3570,
      "Ġinfan": 3571,
      "Ġforges": 3572,
      "Ġpu": 3573,
      "bab": 3574,
      "Ġsom": 3575,
      "cejo": 3576,
      "lovak": 3577,
      "Ġhe": 3578,
      "Ġkomenco": 3579,
      "rila": 3580,
      "Ġkompon": 3581,
      "Ġhoma": 3582,
      "ĠUkra": 3583,
      "via": 3584,
      "tecon": 3585,
      "gale": 3586,
      "OM": 3587,
      "Ġperf": 3588,
      "Ġatingi": 3589,
      "Ġknab": 3590,
      "ĠTiuj": 3591,
      "Ġvojo": 3592,
      "Ġlerni": 3593,
      "ill": 3594,
      "ĠSam": 3595,
      "ila": 3596,
      "Ġtien": 3597,
      "Ġtab": 3598,
      "ĠHe": 3599,
      "ĠFak": 3600,
      "Ġuzis": 3601,
      "Ġdetru": 3602,
      "007": 3603,
      "Ġdifin": 3604,
      "Ġreta": 3605,
      "berg": 3606,
      "keto": 3607,
      "plor": 3608,
      "TT": 3609,
      "203": 3610,
      "123": 3611,
      "911": 3612,
      "EI": 3613,
      "Ġmalb": 3614,
      "Ġlingvaj": 3615,
      "ĠPoli": 3616,
      "Ġtria": 3617,
      "ĠverÅĿajne": 3618,
      "tokolo": 3619,
      "Ġiun": 3620,
      "Ġsil": 3621,
      "835": 3622,
      "baj": 3623,
      "ĠPe": 3624,
      "255": 3625,
      "946": 3626,
      "Ġkomprenas": 3627,
      "Ġkoncep": 3628,
      "Ġ||": 3629,
      "840": 3630,
      "pio": 3631,
      "Ġima": 3632,
      "ĠAng": 3633,
      "99928": 3634,
      "Ġalt": 3635,
      "permes": 3636,
      "463": 3637,
      "Ġdemokra": 3638,
      "onta": 3639,
      "126": 3640,
      "onika": 3641,
      "Ġdeziras": 3642,
      "Ġservo": 3643,
      "fir": 3644,
      "Ġdiversajn": 3645,
      "faj": 3646,
      "nKio": 3647,
      "uzaiko": 3648,
      "kvo": 3649,
      "rado": 3650,
      "8527": 3651,
      "dukis": 3652,
      "Ġva": 3653,
      "Ġtempon": 3654,
      "903": 3655,
      "Ġanka": 3656,
      "ÄĿus": 3657,
      "cy": 3658,
      "99976": 3659,
      "256": 3660,
      "Ġvivon": 3661,
      "Ġparti": 3662,
      "Ġsituacio": 3663,
      "fan": 3664,
      "nKlarigo": 3665,
      "ardek": 3666,
      "nes": 3667,
      "doni": 3668,
      "ley": 3669,
      "reso": 3670,
      "186": 3671,
      "Ġesper": 3672,
      "kin": 3673,
      "Ġliteraturo": 3674,
      "Ġlokoj": 3675,
      "ĠSud": 3676,
      "form": 3677,
      "9185": 3678,
      "ĠFebruaro": 3679,
      "Al": 3680,
      "ĠAntaÅŃ": 3681,
      "utsch": 3682,
      "Ġrajtas": 3683,
      "Ġcelas": 3684,
      "ĠParizo": 3685,
      "ĠAra": 3686,
      "ktu": 3687,
      "forma": 3688,
      "Ġrilatoj": 3689,
      "ĠPla": 3690,
      "Ġdisvolvi": 3691,
      "Ãł": 3692,
      "Ġresponde": 3693,
      "port": 3694,
      "965": 3695,
      "ĠÄĿenerala": 3696,
      "atman": 3697,
      "ĠKol": 3698,
      "Ã¢": 3699,
      "Ġdel": 3700,
      "Ġhon": 3701,
      "ĠTur": 3702,
      "int": 3703,
      "Ġcon": 3704,
      "Ġrevolu": 3705,
      "nVidu": 3706,
      "nSer": 3707,
      "Ġris": 3708,
      "wit": 3709,
      "ĠÄīes": 3710,
      "Ġagnos": 3711,
      "TA": 3712,
      "ĠEternulo": 3713,
      "proksi": 3714,
      "ĠLan": 3715,
      "ĠGeor": 3716,
      "Ġisla": 3717,
      "ĠJos": 3718,
      "formoj": 3719,
      "875": 3720,
      "Ġaso": 3721,
      "Ki": 3722,
      "Pro": 3723,
      "206": 3724,
      "Ġjuna": 3725,
      "Ġverkisto": 3726,
      "Ð¿": 3727,
      "nLaÅŃ": 3728,
      "963": 3729,
      "wi": 3730,
      "Ġrespondis": 3731,
      "Ġgajn": 3732,
      "nNor": 3733,
      "Ġrekomen": 3734,
      "926": 3735,
      "bar": 3736,
      "×Ļ": 3737,
      "Ġbela": 3738,
      "156": 3739,
      "ĠAprilo": 3740,
      "nSaluton": 3741,
      "ĠOrgani": 3742,
      "UN": 3743,
      "\\\".\\": 3744,
      "kademio": 3745,
      "ĠUnio": 3746,
      "Speciala": 3747,
      "Ġhispana": 3748,
      "ĠMas": 3749,
      "utmon": 3750,
      "ev": 3751,
      "rua": 3752,
      "ĠhaÅŃ": 3753,
      "Ġeki": 3754,
      "Ġbele": 3755,
      "Ġiris": 3756,
      "Ġvir": 3757,
      "igos": 3758,
      "bile": 3759,
      "Ġ;": 3760,
      "ĠHen": 3761,
      "Ġcxi": 3762,
      "Ġsufer": 3763,
      "Ġtrin": 3764,
      "99980": 3765,
      "ligo": 3766,
      "Ġvolis": 3767,
      "115": 3768,
      "Ġapartenas": 3769,
      "Ġini": 3770,
      "844": 3771,
      "Ġkonsistas": 3772,
      "936": 3773,
      "à®": 3774,
      "Ġeten": 3775,
      "295": 3776,
      "ikon": 3777,
      "214": 3778,
      "Ġx": 3779,
      "Ġpolitik": 3780,
      "rap": 3781,
      "ĠHispanio": 3782,
      "905": 3783,
      "nSu": 3784,
      "ĠUnuiÄĿin": 3785,
      "ĠMin": 3786,
      "Ġuzanto": 3787,
      "Ġuzado": 3788,
      "ctory": 3789,
      "zy": 3790,
      "ÄĿan": 3791,
      "824": 3792,
      "ilojn": 3793,
      "ĠEsperantista": 3794,
      "ĠDem": 3795,
      "lamento": 3796,
      "dato": 3797,
      "ĠGu": 3798,
      "Ġdiskon": 3799,
      "pov": 3800,
      "kio": 3801,
      "ĠPress": 3802,
      "ĠNeder": 3803,
      "kcio": 3804,
      "ger": 3805,
      "nekz": 3806,
      "Ġ40": 3807,
      "âĪ": 3808,
      "Ġpropono": 3809,
      "econ": 3810,
      "Ġmaj": 3811,
      "elkaj": 3812,
      "Ġnepre": 3813,
      "ĠRen": 3814,
      "truado": 3815,
      "Ġindividu": 3816,
      "ity": 3817,
      "ÅĿas": 3818,
      "ĠRotary": 3819,
      "877": 3820,
      "813": 3821,
      "esperan": 3822,
      "cel": 3823,
      "nMa": 3824,
      "ÄĿer": 3825,
      "atal": 3826,
      "917": 3827,
      "99903": 3828,
      "ä¸": 3829,
      "uzo": 3830,
      "duko": 3831,
      "ĠKategorio": 3832,
      "Ġligilo": 3833,
      "Ġstud": 3834,
      "ĠPoste": 3835,
      "IL": 3836,
      "ya": 3837,
      "emb": 3838,
      "Ġrusa": 3839,
      "ÅĿutita": 3840,
      "op": 3841,
      "Ġpublika": 3842,
      "Ġmalsamaj": 3843,
      "197": 3844,
      "924": 3845,
      "ĠCar": 3846,
      "igoj": 3847,
      "ĠItalio": 3848,
      "Ġrig": 3849,
      "Ġnas": 3850,
      "ĠloÄĿantoj": 3851,
      "Ġfori": 3852,
      "rich": 3853,
      "Äīaj": 3854,
      "diÄĿis": 3855,
      "ĠMe": 3856,
      "957": 3857,
      "Ġinstitu": 3858,
      "gajn": 3859,
      "Ġinsta": 3860,
      "Ġrevuo": 3861,
      "nAli": 3862,
      "Ġsal": 3863,
      "853": 3864,
      "alie": 3865,
      "116": 3866,
      "Ġmesa": 3867,
      "nAÅŃ": 3868,
      "Ġkreis": 3869,
      "Ġ2004": 3870,
      "146": 3871,
      "Ġbio": 3872,
      "934": 3873,
      "ĠâĢ¦": 3874,
      "536": 3875,
      "183": 3876,
      "entojn": 3877,
      "Ġrivero": 3878,
      "SO": 3879,
      "ĠNu": 3880,
      "Ġsk": 3881,
      "acebook": 3882,
      "Ġobser": 3883,
      "Ġcentro": 3884,
      "Ġspiri": 3885,
      "st": 3886,
      "Ġnuntempe": 3887,
      "enda": 3888,
      "Ġpartoprenis": 3889,
      "igado": 3890,
      "punkto": 3891,
      "nDan": 3892,
      "Ġkapita": 3893,
      "lantaÅŃ": 3894,
      "ĠMala": 3895,
      "Ġspek": 3896,
      "807": 3897,
      "Ġricevi": 3898,
      "ĠÄīefaj": 3899,
      "Ġfaj": 3900,
      "943": 3901,
      "âĢ¦\\": 3902,
      "Î»": 3903,
      "ther": 3904,
      "Ġkompar": 3905,
      "enaj": 3906,
      "Ġkonfli": 3907,
      "Ġsep": 3908,
      "Ġege": 3909,
      "465": 3910,
      "ĠVen": 3911,
      "ĠHar": 3912,
      "Ġpartopreni": 3913,
      "85279185": 3914,
      "ork": 3915,
      "ĠÅĿar": 3916,
      "nSed": 3917,
      "Ġstar": 3918,
      "orto": 3919,
      "try": 3920,
      "Ġ[âĢ¦": 3921,
      "9957": 3922,
      "923": 3923,
      "Ġrekon": 3924,
      "ĠBen": 3925,
      "Ġdemandis": 3926,
      "Ġofici": 3927,
      "Ġpriskrib": 3928,
      "].\\": 3929,
      "Ġpotenco": 3930,
      "emon": 3931,
      "ÛĮ": 3932,
      "Ġtito": 3933,
      "Ġhoroj": 3934,
      "166": 3935,
      "Ġia": 3936,
      "non": 3937,
      "ÅĿino": 3938,
      "Ġsemajn": 3939,
      "naj": 3940,
      "Ġlaboron": 3941,
      "orld": 3942,
      "Ã³n": 3943,
      "927": 3944,
      "tuga": 3945,
      "Ñĩ": 3946,
      "emoj": 3947,
      "nKaj": 3948,
      "Ġfid": 3949,
      "tato": 3950,
      "854": 3951,
      "Ġdese": 3952,
      "205": 3953,
      "fia": 3954,
      "99986887": 3955,
      "SD": 3956,
      "Ġkas": 3957,
      "ĠVo": 3958,
      "ĠÅĿtatoj": 3959,
      "846": 3960,
      "Ġalpor": 3961,
      "victory": 3962,
      "Ġbir": 3963,
      "Ġgrupoj": 3964,
      "OV": 3965,
      "ÄĿejo": 3966,
      "tiÄĿas": 3967,
      "Ġordon": 3968,
      "Ġskribis": 3969,
      "AM": 3970,
      "ĠStu": 3971,
      "zor": 3972,
      "zono": 3973,
      "964": 3974,
      "laÅŃ": 3975,
      "Ġdiplom": 3976,
      "Ġnacia": 3977,
      "Ãº": 3978,
      "Li": 3979,
      "Ġcivita": 3980,
      "500": 3981,
      "Ġrakontas": 3982,
      "Ġfav": 3983,
      "Ġpatrino": 3984,
      "Ġoper": 3985,
      "Ġgeo": 3986,
      "gum": 3987,
      "Ġpropran": 3988,
      "873": 3989,
      "Ka": 3990,
      "Ġfrem": 3991,
      "Ġsendi": 3992,
      "904": 3993,
      "Ġalvo": 3994,
      "153": 3995,
      "Ġeventoj": 3996,
      "Ġopinias": 3997,
      "Ġ2000": 3998,
      "Ġintel": 3999,
      "Ġrela": 4000,
      "rinde": 4001,
      "ĠTiam": 4002,
      "223": 4003,
      "534": 4004,
      "Ġrolon": 4005,
      "947": 4006,
      "Ġteamo": 4007,
      "Ġatingis": 4008,
      "Ġzorg": 4009,
      "Ġeksci": 4010,
      "vide": 4011,
      "023": 4012,
      "Ġac": 4013,
      "Ġbra": 4014,
      "167": 4015,
      "454": 4016,
      "cistoj": 4017,
      "centoj": 4018,
      "gip": 4019,
      "Ġtrovas": 4020,
      "fre": 4021,
      "ĠBur": 4022,
      "564": 4023,
      "multo": 4024,
      "864": 4025,
      "207": 4026,
      "ĠHer": 4027,
      "eso": 4028,
      "Ġkredas": 4029,
      "857": 4030,
      "Ġfal": 4031,
      "204": 4032,
      "Ġfilmo": 4033,
      "ĠSub": 4034,
      "ft": 4035,
      "9992821": 4036,
      "Ġligilojn": 4037,
      "èª": 4038,
      "mapo": 4039,
      "Ġnenion": 4040,
      "Ġplena": 4041,
      "Ġst": 4042,
      "tag": 4043,
      "iÄĿi": 4044,
      "Ġlibroj": 4045,
      "SU": 4046,
      "Ġdemando": 4047,
      "Ġmalnova": 4048,
      "fono": 4049,
      "Ġtagon": 4050,
      "Ä¥a": 4051,
      "Ġjus": 4052,
      "ĠPers": 4053,
      "adio": 4054,
      "Ġedukado": 4055,
      "ĠLin": 4056,
      "Ġdeks": 4057,
      "867": 4058,
      "ĠVik": 4059,
      "Ġhal": 4060,
      "ĠBul": 4061,
      "enton": 4062,
      "ĠKu": 4063,
      "ĠSvis": 4064,
      "ĠĠĠĠ": 4065,
      "taron": 4066,
      "nLegu": 4067,
      "076": 4068,
      "eca": 4069,
      "edi": 4070,
      "estis": 4071,
      "tancoj": 4072,
      "ristoj": 4073,
      "EM": 4074,
      "827": 4075,
      "Äľ": 4076,
      "vikio": 4077,
      "ĠCentra": 4078,
      "ï»": 4079,
      "1923": 4080,
      "ĠAÅŃgusto": 4081,
      "ejon": 4082,
      "Ġkompreni": 4083,
      "han": 4084,
      "Äīis": 4085,
      "pekto": 4086,
      "Ġrapid": 4087,
      "105": 4088,
      "ĠHisto": 4089,
      "165": 4090,
      "ĠantaÅŃa": 4091,
      "177": 4092,
      "tari": 4093,
      "005": 4094,
      "ĠeÅŃ": 4095,
      "turaj": 4096,
      "Ġokuloj": 4097,
      "Ġceloj": 4098,
      "An": 4099,
      "Ġvirino": 4100,
      "Ġmonatoj": 4101,
      "OJ": 4102,
      "Ġoriginalo": 4103,
      "Ġrea": 4104,
      "emio": 4105,
      "252": 4106,
      "Ġsimpla": 4107,
      "ï»¿": 4108,
      "II": 4109,
      "Ġaktiv": 4110,
      "ligis": 4111,
      "intoj": 4112,
      "Ġega": 4113,
      "Ġprogres": 4114,
      "Ġkolekti": 4115,
      "ĠBal": 4116,
      "zojn": 4117,
      "Ġproblemoj": 4118,
      "Ġproksimume": 4119,
      "9976": 4120,
      "Ġeviden": 4121,
      "fiko": 4122,
      "389": 4123,
      "Ġprofile": 4124,
      "ĠTri": 4125,
      "our": 4126,
      "Ġkonten": 4127,
      "ule": 4128,
      "ĠloÄĿantaro": 4129,
      "ĠÄīina": 4130,
      "ĠDav": 4131,
      "tig": 4132,
      "dia": 4133,
      "Ð¼": 4134,
      "Ġarmeo": 4135,
      "99994": 4136,
      "zia": 4137,
      "SS": 4138,
      "cal": 4139,
      "lantoj": 4140,
      "Ġareo": 4141,
      "Ġveturi": 4142,
      "liano": 4143,
      "Ġstran": 4144,
      "ny": 4145,
      "175": 4146,
      "Ġtraj": 4147,
      "Ġvortojn": 4148,
      "cern": 4149,
      "ãĥ": 4150,
      "Ġforta": 4151,
      "ĠPra": 4152,
      "ĠEx": 4153,
      "Kon": 4154,
      "AJ": 4155,
      "eksand": 4156,
      "ĠNord": 4157,
      "227": 4158,
      "Ġsituas": 4159,
      "ID": 4160,
      "tuale": 4161,
      "nAntaÅŃ": 4162,
      "Ġakom": 4163,
      "ĠUTC": 4164,
      "duktoj": 4165,
      "Ġproksime": 4166,
      "ile": 4167,
      "OD": 4168,
      "ĠÄĪiu": 4169,
      "ĠNur": 4170,
      "9944": 4171,
      "tantaj": 4172,
      "rante": 4173,
      "tanoj": 4174,
      "tom": 4175,
      "Ġvali": 4176,
      "rismo": 4177,
      "ĠJulio": 4178,
      "ĠPlej": 4179,
      "ĠLia": 4180,
      "ĠafiÅĿo": 4181,
      "èªŀ": 4182,
      "iked": 4183,
      "Ã¼r": 4184,
      "ĠBritio": 4185,
      "taraj": 4186,
      "ĠIndon": 4187,
      "Ġkoro": 4188,
      "Ġkanto": 4189,
      "lingvo": 4190,
      "9974": 4191,
      "ezio": 4192,
      "rioj": 4193,
      "ÄĿanta": 4194,
      "tempo": 4195,
      "Ġforte": 4196,
      "nÐĳ": 4197,
      "uzeo": 4198,
      "ĠJunulara": 4199,
      "ĠEkzemple": 4200,
      "ÅĦ": 4201,
      "enon": 4202,
      "ET": 4203,
      "Ġfrue": 4204,
      "Ġreven": 4205,
      "894": 4206,
      "933": 4207,
      "kro": 4208,
      "Ġblo": 4209,
      "174": 4210,
      "895": 4211,
      "ĠVil": 4212,
      "ario": 4213,
      "ky": 4214,
      "long": 4215,
      "Â²": 4216,
      "gramo": 4217,
      "ĠÂ·": 4218,
      "[[": 4219,
      "ĠKomitato": 4220,
      "2020": 4221,
      "adaj": 4222,
      "ĠNovembro": 4223,
      "253": 4224,
      "213": 4225,
      "Ġran": 4226,
      "ĠPas": 4227,
      "ĠnaskiÄĿis": 4228,
      "ĠKul": 4229,
      "9747": 4230,
      "Ġnorma": 4231,
      "Ġinterkonsen": 4232,
      "grafi": 4233,
      "Ġkurso": 4234,
      "ĠUniversity": 4235,
      "enti": 4236,
      "og": 4237,
      "Ġaldoni": 4238,
      "Ġbatalo": 4239,
      "ĠOkciden": 4240,
      "nKiam": 4241,
      "ome": 4242,
      "lian": 4243,
      "Ġens": 4244,
      "2019": 4245,
      "Liked": 4246,
      "164": 4247,
      "arsov": 4248,
      "ÙĬ": 4249,
      "ciojn": 4250,
      "ĠUniversala": 4251,
      "176": 4252,
      "nÅľatiLiked": 4253,
      "ĠAu": 4254,
      "Ġevento": 4255,
      "poli": 4256,
      "igni": 4257,
      "127": 4258,
      "013": 4259,
      "Ġdra": 4260,
      "ret": 4261,
      "ĠBan": 4262,
      "226": 4263,
      ");": 4264,
      "tulo": 4265,
      "155": 4266,
      "Ġcentra": 4267,
      "kompren": 4268,
      "Ġmalfacile": 4269,
      "mata": 4270,
      "Ġnivelo": 4271,
      "OS": 4272,
      "leo": 4273,
      "forto": 4274,
      "Ġparton": 4275,
      "104": 4276,
      "dukti": 4277,
      "Ġproponas": 4278,
      "937": 4279,
      "Ġrezulto": 4280,
      "Ġpopoloj": 4281,
      "Ġmoderna": 4282,
      "ureco": 4283,
      "Ġform": 4284,
      "kapa": 4285,
      "833": 4286,
      "ĠTe": 4287,
      "----": 4288,
      "Äīoj": 4289,
      "ĠNacioj": 4290,
      "kiel": 4291,
      "Ġgepa": 4292,
      "Ġimperi": 4293,
      "nas": 4294,
      "Ã¥": 4295,
      "Ġedzino": 4296,
      "IT": 4297,
      "Ġstrate": 4298,
      "Ġgrande": 4299,
      "tebla": 4300,
      "ĠKio": 4301,
      "nZ": 4302,
      "nÙ": 4303,
      "Ġkonvin": 4304,
      "tikon": 4305,
      "Ġhoro": 4306,
      "nUnu": 4307,
      "968": 4308,
      "witter": 4309,
      "Ġfinfine": 4310,
      "Ġreligi": 4311,
      "Ġpaco": 4312,
      ">\\": 4313,
      "Ġpostulas": 4314,
      "145": 4315,
      "ĠTago": 4316,
      "ĠJapanio": 4317,
      "907": 4318,
      "Ġpp": 4319,
      "paÃ±": 4320,
      "ĠEr": 4321,
      "Ġarki": 4322,
      "Ġprezo": 4323,
      "Ġteritorio": 4324,
      "Ġeta": 4325,
      "Ġvivas": 4326,
      "Ġau": 4327,
      "Ġnaj": 4328,
      "Ġminis": 4329,
      "Ġminutoj": 4330,
      "tuloj": 4331,
      "ĠKvankam": 4332,
      "865": 4333,
      "dire": 4334,
      "855": 4335,
      "Ġprojektoj": 4336,
      "Ġskribi": 4337,
      "ĠmalantaÅŃ": 4338,
      "tuo": 4339,
      "ĠJanuaro": 4340,
      "Ġgravan": 4341,
      "reo": 4342,
      "Ġflanko": 4343,
      "Ġkoncern": 4344,
      "mio": 4345,
      "Ġakiri": 4346,
      "teron": 4347,
      "estas": 4348,
      "burgo": 4349,
      "Ġelekto": 4350,
      "rim": 4351,
      "ungario": 4352,
      "837": 4353,
      "Ġargum": 4354,
      "tivo": 4355,
      "053": 4356,
      "nArtikolo": 4357,
      "154": 4358,
      "Ġtaks": 4359,
      "tz": 4360,
      "Ġch": 4361,
      "âĢ³": 4362,
      "Ġgrand": 4363,
      "Ġprovinco": 4364,
      "Ġricevas": 4365,
      "lingvaj": 4366,
      "inaj": 4367,
      "863": 4368,
      "143": 4369,
      "Ġokul": 4370,
      "ĠKongres": 4371,
      "ovaÄµoj": 4372,
      "etroj": 4373,
      "Ġintervju": 4374,
      "acion": 4375,
      "ĠTer": 4376,
      "Ġbalo": 4377,
      "ĠÅĿatas": 4378,
      "Ġkategorio": 4379,
      "miÄĿis": 4380,
      "Ġviki": 4381,
      "nBildo": 4382,
      "mentoj": 4383,
      "ploj": 4384,
      "ĠEnglish": 4385,
      "Ġhum": 4386,
      "inon": 4387,
      "tions": 4388,
      "882": 4389,
      "ĠÄľener": 4390,
      "Ġvan": 4391,
      "ĠAkademio": 4392,
      "935": 4393,
      "mos": 4394,
      "ĠEble": 4395,
      "ĠEd": 4396,
      "338": 4397,
      "ĠaÄīeti": 4398,
      "Ġmaldeks": 4399,
      "Ġ...\\": 4400,
      "Ãª": 4401,
      "Ġkomuna": 4402,
      "ĠRedak": 4403,
      "Ġ2003": 4404,
      "angle": 4405,
      "9989": 4406,
      "ĠCor": 4407,
      "467": 4408,
      "hy": 4409,
      "Ġaprob": 4410,
      "baro": 4411,
      "ĠÄīa": 4412,
      "Ġradio": 4413,
      "ÅĿutu": 4414,
      "Ġkongreso": 4415,
      "tanco": 4416,
      "072": 4417,
      "nKategorioj": 4418,
      "102": 4419,
      "esko": 4420,
      "ĠBiblio": 4421,
      "99985": 4422,
      "ĠGranda": 4423,
      "ï¼": 4424,
      "006": 4425,
      "okra": 4426,
      "Äīu": 4427,
      "ĠdediÄī": 4428,
      "labor": 4429,
      "Ġado": 4430,
      "Ġpartio": 4431,
      "Ne": 4432,
      "Ġkatoli": 4433,
      "Ġniajn": 4434,
      "tugu": 4435,
      "99956": 4436,
      "056": 4437,
      "tadon": 4438,
      "azar": 4439,
      "ĠLegi": 4440,
      "EG": 4441,
      "tionary": 4442,
      "Ġtelevid": 4443,
      "ÙĦ": 4444,
      "kurso": 4445,
      "wik": 4446,
      "ĠSeptembro": 4447,
      "Ġmalpermes": 4448,
      "tta": 4449,
      "ĠVikimedia": 4450,
      "Mul": 4451,
      "ĠLern": 4452,
      "emaj": 4453,
      "ĢÕ": 4454,
      "Ġ2002": 4455,
      "ald": 4456,
      "004": 4457,
      "Ġtian": 4458,
      "Ġsendu": 4459,
      "884": 4460,
      "ham": 4461,
      "toso": 4462,
      "953": 4463,
      "Ġfama": 4464,
      "99987": 4465,
      "234": 4466,
      "ĠMad": 4467,
      "ws": 4468,
      "Ġesplor": 4469,
      "jare": 4470,
      "nElÅĿutita": 4471,
      "225": 4472,
      "ĠHistorio": 4473,
      "Ġtransi": 4474,
      "Ġjes": 4475,
      "Ġ''": 4476,
      "Ġmalri": 4477,
      "Ġmalfacila": 4478,
      "Ġamo": 4479,
      "124": 4480,
      "Ã§ais": 4481,
      "Ġripe": 4482,
      "Ġsp": 4483,
      "OL": 4484,
      "hu": 4485,
      "arko": 4486,
      "arki": 4487,
      "Ġviro": 4488,
      "SP": 4489,
      "ĠMia": 4490,
      "ĠJohn": 4491,
      "ciklopedio": 4492,
      "Se": 4493,
      "Ġinteresa": 4494,
      "Äīetu": 4495,
      "913": 4496,
      "all": 4497,
      "usa": 4498,
      "ĠloÄĿas": 4499,
      "Ġ[+": 4500,
      "Ġkomence": 4501,
      "Ġnaturo": 4502,
      "nÄĪe": 4503,
      "Ġron": 4504,
      "ÅĿto": 4505,
      "uel": 4506,
      "{{": 4507,
      "Ġprotek": 4508,
      "Ø§Ø±Ø": 4509,
      "Ġhelpo": 4510,
      "ales": 4511,
      "tikoloj": 4512,
      "Ġplibonigi": 4513,
      "Ġanta": 4514,
      "ong": 4515,
      "477": 4516,
      "Ġgrama": 4517,
      "Ġaver": 4518,
      "ĠVol": 4519,
      "nKategorio": 4520,
      "burg": 4521,
      "Ġmina": 4522,
      "nBon": 4523,
      "tismo": 4524,
      "834": 4525,
      "mitaj": 4526,
      "Ġbiblio": 4527,
      "ĠDosiero": 4528,
      "Ġplene": 4529,
      "Ġmalgrandaj": 4530,
      "Ġlokon": 4531,
      "nan": 4532,
      "teratura": 4533,
      "nHistorio": 4534,
      "ĠâĢĿ": 4535,
      "rido": 4536,
      "Ġprodukto": 4537,
      "blas": 4538,
      "224": 4539,
      "Ġstato": 4540,
      "rian": 4541,
      "ĠÂ°": 4542,
      "ovo": 4543,
      "Asocio": 4544,
      "takto": 4545,
      "Ġple": 4546,
      "173": 4547,
      "Ko": 4548,
      "Ġago": 4549,
      "ĠMor": 4550,
      "landaj": 4551,
      "uron": 4552,
      "9977": 4553,
      "ĠDecembro": 4554,
      "ĠEkde": 4555,
      "Ġhelpis": 4556,
      "by": 4557,
      "202": 4558,
      "802": 4559,
      "oraj": 4560,
      "ĠCa": 4561,
      "Ġpensis": 4562,
      "ĠKonsi": 4563,
      "Ġkonservi": 4564,
      "blan": 4565,
      "ĠImperio": 4566,
      "daÄµo": 4567,
      "ĠUnuiÄĿintaj": 4568,
      "ST": 4569,
      "nomo": 4570,
      "Ġampleks": 4571,
      "ablon": 4572,
      "dro": 4573,
      "art": 4574,
      "lig": 4575,
      "Ġreto": 4576,
      "ĠFon": 4577,
      "trar": 4578,
      "Ġparolis": 4579,
      "Ġrem": 4580,
      "439": 4581,
      "99982": 4582,
      "ĠÄīiun": 4583,
      "ikojn": 4584,
      "Wiki": 4585,
      "nSek": 4586,
      "265": 4587,
      "baroj": 4588,
      "voja": 4589,
      "278": 4590,
      "Ġokupi": 4591,
      "png": 4592,
      "ĠVirtuala": 4593,
      "lim": 4594,
      "ĠTu": 4595,
      "kuli": 4596,
      "Ġklarig": 4597,
      "Ġmalpe": 4598,
      "Mo": 4599,
      "ÙĪ": 4600,
      "Ġtekno": 4601,
      "dre": 4602,
      "Ġitala": 4603,
      "9967": 4604,
      "Ġnordo": 4605,
      "ordina": 4606,
      "ĠVarsov": 4607,
      "Ġorigina": 4608,
      "823": 4609,
      "843": 4610,
      "Ġkompreneble": 4611,
      "nor": 4612,
      "Ġjardek": 4613,
      "IM": 4614,
      "Ġklubo": 4615,
      "Ġprodukti": 4616,
      "Ġkomentoj": 4617,
      "nEstas": 4618,
      "925": 4619,
      "Ġgaran": 4620,
      "Ġinterna": 4621,
      "ĠÅĿajne": 4622,
      "Ġloka": 4623,
      "nde": 4624,
      "cado": 4625,
      "137": 4626,
      "nLas": 4627,
      "=&": 4628,
      "Ġviroj": 4629,
      "ĠÅľablono": 4630,
      "nà": 4631,
      "Ġkandid": 4632,
      "Ġiomete": 4633,
      ")\",\"": 4634,
      "Ġhered": 4635,
      "nTra": 4636,
      "ip": 4637,
      "246": 4638,
      "Ġakompan": 4639,
      "gne": 4640,
      "535": 4641,
      "lands": 4642,
      "row": 4643,
      "nVer": 4644,
      "Ġevoluo": 4645,
      "UL": 4646,
      "811": 4647,
      "9990": 4648,
      "ĠUzanto": 4649,
      "Ġsignifo": 4650,
      "nEnglish": 4651,
      "niko": 4652,
      "Ġmontris": 4653,
      "umi": 4654,
      "ektojn": 4655,
      "Ġkonsci": 4656,
      "ĠEks": 4657,
      "334": 4658,
      "vole": 4659,
      "âĪĴ\\": 4660,
      "ĠCer": 4661,
      "nAÄīetu": 4662,
      "ĠÄ´": 4663,
      "Ġates": 4664,
      "9947": 4665,
      "ĠBos": 4666,
      "ĠreÄĿ": 4667,
      "ekcio": 4668,
      "Ġfam": 4669,
      "Ġekonomia": 4670,
      "ĠEsperantistoj": 4671,
      "Ni": 4672,
      "Ġnes": 4673,
      "Ġsentas": 4674,
      "nla": 4675,
      "ĠPola": 4676,
      "Ġminim": 4677,
      "Ġ500": 4678,
      "ÄĿinta": 4679,
      "Ġkonsi": 4680,
      "Ġarto": 4681,
      "886": 4682,
      "sub": 4683,
      "Ġsuges": 4684,
      "ĠOfi": 4685,
      "igante": 4686,
      "Ġkonfir": 4687,
      "365": 4688,
      "iri": 4689,
      "edu": 4690,
      "ĠNacia": 4691,
      "Ġsoli": 4692,
      "Ġnok": 4693,
      "Ġ[+]\\": 4694,
      "267": 4695,
      "movado": 4696,
      "ovet": 4697,
      "Ġinformo": 4698,
      "ĠGaz": 4699,
      "ĠMedia": 4700,
      "Ġformoj": 4701,
      "à¸": 4702,
      "Ġtur": 4703,
      "Ġplurajn": 4704,
      "OT": 4705,
      "unda": 4706,
      "Ġregionoj": 4707,
      "ĠJunio": 4708,
      "pozicio": 4709,
      "ÐºÐ°": 4710,
      "mm": 4711,
      "ĠAÅŃs": 4712,
      "Ġnatura": 4713,
      "ĠBe": 4714,
      "Ġesperantis": 4715,
      "Ġvidu": 4716,
      "ksid": 4717,
      "Ġscii": 4718,
      "eÅ¡": 4719,
      "99977": 4720,
      "Ġimpres": 4721,
      "883": 4722,
      "Ġduo": 4723,
      "fari": 4724,
      "onon": 4725,
      "Ġstri": 4726,
      "254": 4727,
      "Ġaktiva": 4728,
      "Ġsekreta": 4729,
      "Ġokcidenta": 4730,
      "ĠTre": 4731,
      "980": 4732,
      "Ġtekn": 4733,
      "dli": 4734,
      "Ġmalfor": 4735,
      "ĠDa": 4736,
      "Ġdol": 4737,
      "466": 4738,
      "Ġsudo": 4739,
      "Ġelsen": 4740,
      "ito": 4741,
      "nOni": 4742,
      "111": 4743,
      "tere": 4744,
      "ĠFer": 4745,
      "loroj": 4746,
      "Ä¥o": 4747,
      "inas": 4748,
      "Ġforto": 4749,
      "Ġsekva": 4750,
      "915": 4751,
      "æľ": 4752,
      "ĠÄµurna": 4753,
      "miÄĿas": 4754,
      "Ġ(\\\"": 4755,
      "ĠIJK": 4756,
      "916": 4757,
      "ĠSal": 4758,
      "063": 4759,
      "Ġestraro": 4760,
      "Ġlaboras": 4761,
      "Ġ#": 4762,
      "133": 4763,
      "traÅŃ": 4764,
      "99984": 4765,
      "paÃ±ol": 4766,
      "ĠTutmon": 4767,
      "574": 4768,
      "Ġpromes": 4769,
      "Ġfonto": 4770,
      ".)": 4771,
      "milo": 4772,
      "ĠKial": 4773,
      "pr": 4774,
      "ĠAzio": 4775,
      "edo": 4776,
      "trimed": 4777,
      "Ġinteralie": 4778,
      "Ġdistrikto": 4779,
      "Ġeviti": 4780,
      "fis": 4781,
      "Ġtroveblas": 4782,
      "974784": 4783,
      "815": 4784,
      "90974784": 4785,
      "Ġsekve": 4786,
      "Ġpreziden": 4787,
      "Ġmankas": 4788,
      "Kaj": 4789,
      "Ġorganizo": 4790,
      "Ġsociaj": 4791,
      "Ġestab": 4792,
      "Ġredaktita": 4793,
      "×Ļ×": 4794,
      "je": 4795,
      "247": 4796,
      "cri": 4797,
      "ĠÎ": 4798,
      "045": 4799,
      "abi": 4800,
      "Ġmalsan": 4801,
      "PH": 4802,
      "Ġbazi": 4803,
      "Ñı": 4804,
      "ĠNederlando": 4805,
      "tm": 4806,
      "Ġvorton": 4807,
      "ĠrulseÄĿo": 4808,
      "Ġsango": 4809,
      "Ġradi": 4810,
      "Ġkvali": 4811,
      "Ġnomoj": 4812,
      "trimedaj": 4813,
      "Ġsto": 4814,
      "277": 4815,
      "Multrimedaj": 4816,
      ".\\\"\\": 4817,
      "æĸ": 4818,
      "leco": 4819,
      "Ġiri": 4820,
      "Ġsaman": 4821,
      "tikis": 4822,
      "99983": 4823,
      "bojn": 4824,
      "alan": 4825,
      "nDiskuto": 4826,
      "Ġparola": 4827,
      "ÑĥÑģ": 4828,
      "karo": 4829,
      "ĠLas": 4830,
      "ĠTaj": 4831,
      "uber": 4832,
      "Ġpartoprenantoj": 4833,
      "Ġ[âĢ¦]\\": 4834,
      "Ġ02": 4835,
      "tora": 4836,
      "Ġscen": 4837,
      "parto": 4838,
      "Ġ2001": 4839,
      "922": 4840,
      "KO": 4841,
      "Ar": 4842,
      "Äījo": 4843,
      "Äīon": 4844,
      "Ġentute": 4845,
      "Ġtermin": 4846,
      "ant": 4847,
      "Ġbran": 4848,
      "Ġlong": 4849,
      "ĠInstitu": 4850,
      "kaÄµoj": 4851,
      "Ġ1990": 4852,
      "eniu": 4853,
      "cialan": 4854,
      "Ġkontakto": 4855,
      "Ġsekso": 4856,
      "ĠSim": 4857,
      "____": 4858,
      "Ġtend": 4859,
      "ĠFi": 4860,
      "Ġproduktado": 4861,
      "Ġrespekti": 4862,
      "Vi": 4863,
      "474": 4864,
      "Ġinicia": 4865,
      "Ġelektis": 4866,
      "omas": 4867,
      "ÅĿon": 4868,
      "Ġefektive": 4869,
      "893": 4870,
      "Ġsciis": 4871,
      "Ġkarakteri": 4872,
      "kap": 4873,
      "Ġamiko": 4874,
      "Ġner": 4875,
      "097": 4876,
      "2017": 4877,
      "112": 4878,
      "Ġtutmonda": 4879,
      "Ġmedic": 4880,
      "ĠMem": 4881,
      "Ġekzemplo": 4882,
      "lubo": 4883,
      "à¥Ģ": 4884,
      "ĠFinn": 4885,
      "ĠÅĿanÄĿo": 4886,
      "ĠAliaj": 4887,
      "encon": 4888,
      "Ġvarm": 4889,
      "ĠAleksand": 4890,
      "885": 4891,
      "turon": 4892,
      "565": 4893,
      "IO": 4894,
      "147": 4895,
      "Ġera": 4896,
      "penaÅŃ": 4897,
      "produk": 4898,
      "ĠBla": 4899,
      "Ġspaco": 4900,
      "encaj": 4901,
      "Ġrefer": 4902,
      "Ġmonon": 4903,
      "Ġsurfa": 4904,
      "Ġuzantoj": 4905,
      "info": 4906,
      "vice": 4907,
      "Ġmeti": 4908,
      "Ġmaro": 4909,
      "pil": 4910,
      "ĠIru": 4911,
      "lom": 4912,
      "ĠMartin": 4913,
      "Ġlasi": 4914,
      "Ġdiskuto": 4915,
      "ĠÄĿuu": 4916,
      "Ġsun": 4917,
      "Ġkantoj": 4918,
      "ĠÄ¤": 4919,
      "ĠÅĿul": 4920,
      "cian": 4921,
      "wo": 4922,
      "rez": 4923,
      "Ġpunkto": 4924,
      "Ġprotekti": 4925,
      "187": 4926,
      "san": 4927,
      "Ġtea": 4928,
      "eton": 4929,
      "513": 4930,
      "nSi": 4931,
      "anton": 4932,
      "Ġtrak": 4933,
      "omi": 4934,
      "ĠGi": 4935,
      "wer": 4936,
      "Ġdirek": 4937,
      "002": 4938,
      "nNo": 4939,
      "ĠEdu": 4940,
      "38913": 4941,
      "ram": 4942,
      "ĠFacila": 4943,
      "gion": 4944,
      "ĠArmen": 4945,
      "ll": 4946,
      "nIta": 4947,
      "ĠindiÄĿ": 4948,
      "Ġdun": 4949,
      "ji": 4950,
      "Ġpermesas": 4951,
      "9992": 4952,
      "Ġmodern": 4953,
      "vojo": 4954,
      "Ġforig": 4955,
      "ply": 4956,
      "porta": 4957,
      "listoj": 4958,
      "vela": 4959,
      "Fran": 4960,
      "Ġskri": 4961,
      "Ġunuo": 4962,
      "Ġbar": 4963,
      "ĠÄĿian": 4964,
      "Ġesperantisto": 4965,
      "mail": 4966,
      "ĠinterÅĿan": 4967,
      "stro": 4968,
      "Ġder": 4969,
      "912": 4970,
      "7215": 4971,
      "Kategorio": 4972,
      "476": 4973,
      "maro": 4974,
      "pola": 4975,
      "Ġideoj": 4976,
      "ith": 4977,
      "gh": 4978,
      "enci": 4979,
      "entaj": 4980,
      "nCi": 4981,
      "Ġordo": 4982,
      "ĠFili": 4983,
      "Ġlevi": 4984,
      "Ġbas": 4985,
      "Ġmiks": 4986,
      "416": 4987,
      "Ġescep": 4988,
      "ÅĿta": 4989,
      "ĠVal": 4990,
      "Ġfund": 4991,
      "Ġ04": 4992,
      "101": 4993,
      "Ġproblemojn": 4994,
      "Ġmus": 4995,
      "ĠAperis": 4996,
      "Ġmeta": 4997,
      "ĠantaÅŃen": 4998,
      "Ġkonsta": 4999,
      "Ġkunlabor": 5000,
      "Ġfirma": 5001,
      "kodo": 5002,
      "bek": 5003,
      "Ġinterpre": 5004,
      ",âĢĿ": 5005,
      "ĠKe": 5006,
      "ĠBra": 5007,
      "Ġkrome": 5008,
      "litaj": 5009,
      "Ġgx": 5010,
      "Ġnenio": 5011,
      "Ġkomp": 5012,
      "tyle": 5013,
      "ĠkomenciÄĿis": 5014,
      "001": 5015,
      "446": 5016,
      "ĠJean": 5017,
      "riel": 5018,
      "toroj": 5019,
      "Ġkelk": 5020,
      "ĠnovaÄµoj": 5021,
      "ĠAsocio": 5022,
      "Ġhomaj": 5023,
      "ĠKomisiono": 5024,
      "033": 5025,
      "2005": 5026,
      "Ġcivili": 5027,
      "Ġkunlaboro": 5028,
      "Ġlingvojn": 5029,
      "ĠCam": 5030,
      "vano": 5031,
      "ahasa": 5032,
      "Ġordin": 5033,
      "emi": 5034,
      "Ġekstre": 5035,
      "Ġsigno": 5036,
      "266": 5037,
      "ĠArkivita": 5038,
      "Ġokaze": 5039,
      "Ġalterna": 5040,
      "lini": 5041,
      "ĠOf": 5042,
      "nGeo": 5043,
      "lante": 5044,
      "ĠmalgraÅŃ": 5045,
      "Ġpied": 5046,
      "Ġnig": 5047,
      "ĠnomiÄĿas": 5048,
      "venon": 5049,
      "Ġos": 5050,
      "kulturo": 5051,
      "ĠafiÅĿoj": 5052,
      "zistas": 5053,
      "Ġprenis": 5054,
      "ordinatoj": 5055,
      "emin": 5056,
      "Ġfundamen": 5057,
      "Ġkvalito": 5058,
      "ĠvilaÄĿo": 5059,
      "ben": 5060,
      "ĠVin": 5061,
      "Ġsistemon": 5062,
      "Ġkvanto": 5063,
      "nAperis": 5064,
      "ĠPan": 5065,
      "ĠRedakcio": 5066,
      "ĠserÄīas": 5067,
      "lioj": 5068,
      "Ġhavos": 5069,
      "Ġegale": 5070,
      "cid": 5071,
      "ĠRadio": 5072,
      "Ġvesper": 5073,
      "solu": 5074,
      "Ġplejparte": 5075,
      "alojn": 5076,
      "Ġrimedoj": 5077,
      "333": 5078,
      "Ġduono": 5079,
      "ĠHelpo": 5080,
      "ĠHin": 5081,
      "Ġbildoj": 5082,
      "nDi": 5083,
      "The": 5084,
      "Ġparte": 5085,
      "Ġsimila": 5086,
      "eme": 5087,
      "292": 5088,
      "ĠUnesko": 5089,
      "Ġdub": 5090,
      "nMar": 5091,
      "tum": 5092,
      "Ġmalvar": 5093,
      "276": 5094,
      "nÄľi": 5095,
      "073": 5096,
      "ĠPartio": 5097,
      "Ġpetas": 5098,
      "ĠPetro": 5099,
      "ĠSAT": 5100,
      "Ġkoncen": 5101,
      "ÑģÐºÐ¸Ð¹": 5102,
      "433": 5103,
      "TP": 5104,
      "Ġesperas": 5105,
      "263": 5106,
      "896": 5107,
      "Ġjunuloj": 5108,
      "Ġkazo": 5109,
      "Ġkategorioj": 5110,
      "Ġuniversita": 5111,
      "lern": 5112,
      "Ġscienca": 5113,
      "ĠMek": 5114,
      "ĠNumero": 5115,
      "tiked": 5116,
      "tela": 5117,
      "Ġneder": 5118,
      "Ġdudek": 5119,
      "ĠaÅŃtorita": 5120,
      "Ġlum": 5121,
      "ĠDua": 5122,
      "Ġpolitikaj": 5123,
      "825": 5124,
      "ĠNova": 5125,
      "kle": 5126,
      "Ġtekstoj": 5127,
      "IP": 5128,
      "Ġilian": 5129,
      "ĠCas": 5130,
      "nKons": 5131,
      "Ġvun": 5132,
      "464": 5133,
      "Ġpart": 5134,
      "Ġekzistis": 5135,
      "Ġstatu": 5136,
      "Ġdefen": 5137,
      "fos": 5138,
      "Ġdama": 5139,
      "235": 5140,
      "konstru": 5141,
      "velo": 5142,
      "ĠRulseÄĿo": 5143,
      "Ġarme": 5144,
      "edaÅŃrinde": 5145,
      "9977215": 5146,
      "ĠMonda": 5147,
      "ĠMaro": 5148,
      "gebla": 5149,
      "Ġenciklopedio": 5150,
      "ĠSovet": 5151,
      "ĠElÅĿutu": 5152,
      "Ġkapo": 5153,
      "Ġtaj": 5154,
      "ikeco": 5155,
      "Ġsubteni": 5156,
      "566": 5157,
      "ĠMediaWiki": 5158,
      "122": 5159,
      "ĠÄĿusta": 5160,
      "576": 5161,
      "Ġinform": 5162,
      "Ġinternaciaj": 5163,
      "Ġsemajno": 5164,
      "ĠaÅŃtomate": 5165,
      "Ġ60": 5166,
      "Ġvideo": 5167,
      "ĠBona": 5168,
      "Ġdevenas": 5169,
      "Ġadap": 5170,
      "Ġrelative": 5171,
      "Ø§ÙĦ": 5172,
      "ĠKristo": 5173,
      "Ġfaro": 5174,
      "Ġvon": 5175,
      "Ġpaci": 5176,
      "æĹ": 5177,
      "elojn": 5178,
      "Ġlibron": 5179,
      "ĠÄĿen": 5180,
      "zado": 5181,
      "nPlej": 5182,
      "tivaj": 5183,
      "Î¹": 5184,
      "uzis": 5185,
      "tian": 5186,
      "ĠTie": 5187,
      "ĠÑģ": 5188,
      "eoj": 5189,
      "Ġbrazi": 5190,
      "Ġkolekto": 5191,
      "Ġinsulo": 5192,
      "Ġtransfor": 5193,
      "Ġaro": 5194,
      "Ġlabori": 5195,
      "igaj": 5196,
      "ĠâĢİ": 5197,
      "Ġiras": 5198,
      "Ġtradicia": 5199,
      "polo": 5200,
      "Ġkuke": 5201,
      "Ġrigardis": 5202,
      "264": 5203,
      "seks": 5204,
      "Di": 5205,
      "436": 5206,
      "press": 5207,
      "Ġmaterialo": 5208,
      "537": 5209,
      "ordoj": 5210,
      "Ġprezentis": 5211,
      "236": 5212,
      "jan": 5213,
      "555": 5214,
      "Ġtrankvi": 5215,
      "245": 5216,
      "feron": 5217,
      "763": 5218,
      "Ġaferojn": 5219,
      "Ġmenso": 5220,
      "Por": 5221,
      "omb": 5222,
      "Ġdependas": 5223,
      "Ġeksplo": 5224,
      "ĠvoÄīdon": 5225,
      "Ġprotes": 5226,
      "273": 5227,
      "Ġmalalta": 5228,
      "554": 5229,
      "Ġaux": 5230,
      "ĠKam": 5231,
      "Ġsuda": 5232,
      "ĠPaul": 5233,
      "LU": 5234,
      "Ġprezenti": 5235,
      "Ġzor": 5236,
      "533": 5237,
      "Î½": 5238,
      "Ġkia": 5239,
      "Ġnomita": 5240,
      "ÐµÐ»": 5241,
      "Ġprocezo": 5242,
      "Ġtom": 5243,
      "Ġnomas": 5244,
      "Ġkiaj": 5245,
      "</": 5246,
      "Ġgreka": 5247,
      "Ġkopi": 5248,
      "Ġtor": 5249,
      "nEksteraj": 5250,
      "244": 5251,
      "Ġtempera": 5252,
      "274": 5253,
      "Ġsekvan": 5254,
      "Ġadministran": 5255,
      "Ġnatur": 5256,
      "Ġmalof": 5257,
      "ÂłÂłÂłÂł": 5258,
      "Ġvig": 5259,
      "99995": 5260,
      "Ġalvenis": 5261,
      "Ġtrakta": 5262,
      "Po": 5263,
      "Ġjaron": 5264,
      "ĠSuper": 5265,
      "lingvis": 5266,
      "uste": 5267,
      "ade": 5268,
      "bata": 5269,
      "99966": 5270,
      "Ġavanta": 5271,
      "862": 5272,
      "Ġinfano": 5273,
      "Ġinkluzivas": 5274,
      "Ġsupre": 5275,
      "Ġpoeto": 5276,
      "Ġmalmulte": 5277,
      "EU": 5278,
      "Ġekipa": 5279,
      "nSen": 5280,
      "ĠRaj": 5281,
      "tinta": 5282,
      "Ġfaru": 5283,
      "ĠÄīiutage": 5284,
      "lek": 5285,
      "9990393": 5286,
      "loko": 5287,
      "Ġmemo": 5288,
      "lano": 5289,
      "ĠEgip": 5290,
      "nDeutsch": 5291,
      "354": 5292,
      "99993": 5293,
      "nVendo": 5294,
      "karto": 5295,
      "233": 5296,
      "Ġmalbona": 5297,
      "ĠPu": 5298,
      "Ġlastafoje": 5299,
      "Facila": 5300,
      "Ġorienta": 5301,
      "Ġvortaro": 5302,
      "Ġtekston": 5303,
      "nis": 5304,
      "Ġofertas": 5305,
      "201": 5306,
      "067": 5307,
      "Ġkonsum": 5308,
      ".)\\": 5309,
      "Ġemo": 5310,
      "Ġkonataj": 5311,
      "Ġsinjoro": 5312,
      "æĸĩ": 5313,
      "Ġamaskomun": 5314,
      "áŀ": 5315,
      "fil": 5316,
      "Ġtranspor": 5317,
      "Ġdiskonigu": 5318,
      "baze": 5319,
      "87014": 5320,
      "Ġkreita": 5321,
      "Ã©s": 5322,
      "ikiloj": 5323,
      "nPer": 5324,
      "Ġenme": 5325,
      "Ġsolda": 5326,
      "pisko": 5327,
      "ticle": 5328,
      "Ġfojon": 5329,
      "Ġrecen": 5330,
      "ĠMaria": 5331,
      "ĠWe": 5332,
      "Ġrevenis": 5333,
      "tigitaj": 5334,
      "ikado": 5335,
      "ĠMultaj": 5336,
      "ĠBi": 5337,
      "Ġtag": 5338,
      "222": 5339,
      "logiaj": 5340,
      "gata": 5341,
      "Ġani": 5342,
      "Ġneo": 5343,
      "Ġkampo": 5344,
      "ĠTa": 5345,
      "Ġidenti": 5346,
      "99915": 5347,
      "445": 5348,
      "ĠeÅŃropaj": 5349,
      "047": 5350,
      "IC": 5351,
      "ĠapenaÅŃ": 5352,
      "puteko": 5353,
      "Äįina": 5354,
      "Ġreligio": 5355,
      "ovi": 5356,
      "Ġnorda": 5357,
      "Ġmondon": 5358,
      "pedi": 5359,
      "nà¤": 5360,
      "ĠÅĿablon": 5361,
      "ĠServo": 5362,
      "Ġben": 5363,
      "447": 5364,
      "Ð¾Ð½": 5365,
      "91487014": 5366,
      "9907": 5367,
      "Ġavia": 5368,
      "ĠÅĿton": 5369,
      "435": 5370,
      "ligita": 5371,
      "Ġsekvas": 5372,
      "arato": 5373,
      "gitaj": 5374,
      "ĠaliÄĿi": 5375,
      "nUr": 5376,
      "Ġbestoj": 5377,
      "ĠBlan": 5378,
      "TM": 5379,
      "ĠDek": 5380,
      "9973": 5381,
      "prenis": 5382,
      "RA": 5383,
      "tago": 5384,
      "liam": 5385,
      "Ġ09": 5386,
      "Ġsor": 5387,
      "237": 5388,
      "cajn": 5389,
      "ĠaÅŃdis": 5390,
      "567": 5391,
      "Ġmerkato": 5392,
      "fran": 5393,
      "Ġlernejo": 5394,
      "traÄµoj": 5395,
      "152": 5396,
      "Ġkultura": 5397,
      "Ġprograme": 5398,
      ".\\\",": 5399,
      "Ġkompanio": 5400,
      "ÑĢÐ¿": 5401,
      "ä¸Ń": 5402,
      "Ġnokto": 5403,
      "glo": 5404,
      "809": 5405,
      "ĠPIV": 5406,
      "Ġiden": 5407,
      "Ð±": 5408,
      "Ġnekon": 5409,
      "Ġcerta": 5410,
      "ĠKos": 5411,
      "ĠdanÄĿ": 5412,
      "ĠriÄīa": 5413,
      "208": 5414,
      "ĠFrancis": 5415,
      "ĠSlovak": 5416,
      "ĠKas": 5417,
      "Ġspeco": 5418,
      "KA": 5419,
      "zu": 5420,
      "ĠIndones": 5421,
      "437": 5422,
      "285": 5423,
      "dante": 5424,
      "Ġaparta": 5425,
      "ĠKre": 5426,
      "ĠVan": 5427,
      "feroj": 5428,
      "Ġelsta": 5429,
      "Ġrilatas": 5430,
      "Ġmanko": 5431,
      "anian": 5432,
      "043": 5433,
      "ERGO": 5434,
      "Ġrezer": 5435,
      "kaÄµo": 5436,
      "Ġkole": 5437,
      "Ġesprimo": 5438,
      "Ġkomita": 5439,
      "ĠBatman": 5440,
      "urio": 5441,
      "Ġflug": 5442,
      "nÄĪiuj": 5443,
      "unu": 5444,
      "ĠÂ»,": 5445,
      "ĠEÄī": 5446,
      "lanta": 5447,
      "817": 5448,
      "ĠKelkaj": 5449,
      "Ġindustrio": 5450,
      "eku": 5451,
      "nDo": 5452,
      "Kom": 5453,
      "vitaj": 5454,
      "Ġekonomio": 5455,
      "nItaliano": 5456,
      "Ġkuns": 5457,
      "ĠIz": 5458,
      "Ġlernis": 5459,
      "Ġcent": 5460,
      "Â»,": 5461,
      "damo": 5462,
      "Ġmonato": 5463,
      "Jun": 5464,
      "Ġasocio": 5465,
      "nSub": 5466,
      "PS": 5467,
      "ÄĿintoj": 5468,
      "ĠJapan": 5469,
      "sula": 5470,
      "nPos": 5471,
      "nPol": 5472,
      "Ġplat": 5473,
      "łÑĥÑģ": 5474,
      "ider": 5475,
      "Ġpetis": 5476,
      "Ġgazeto": 5477,
      "Ġmiajn": 5478,
      "Ġlokaj": 5479,
      "Ġrespondon": 5480,
      "Ġadministra": 5481,
      "Ġkonduk": 5482,
      "tski": 5483,
      "Ġfoto": 5484,
      "elonge": 5485,
      "Ġyou": 5486,
      "ĠSved": 5487,
      "Ġspeciale": 5488,
      "Ġmallong": 5489,
      "ĠOrganizo": 5490,
      "æĹ¥": 5491,
      "diÄĿas": 5492,
      "cho": 5493,
      "ĠProduktoj": 5494,
      "ĠKanado": 5495,
      "Ġskla": 5496,
      "Ġ1999": 5497,
      "atoj": 5498,
      "nFor": 5499,
      "post": 5500,
      "ÂŃ": 5501,
      "Ġdesegn": 5502,
      "wiktionary": 5503,
      "uran": 5504,
      "Ġdevos": 5505,
      "ight": 5506,
      "Ġhistoria": 5507,
      "traÄµo": 5508,
      "Ġsubite": 5509,
      "Ġmens": 5510,
      "rako": 5511,
      "tiri": 5512,
      "Ġ.\\": 5513,
      "igh": 5514,
      "Ġsign": 5515,
      "preni": 5516,
      "ĠAk": 5517,
      "Ġvojon": 5518,
      "german": 5519,
      "Ġjapana": 5520,
      "443": 5521,
      "lanto": 5522,
      "nRo": 5523,
      "Ġkonsideras": 5524,
      "Ġsperto": 5525,
      "Ġfrom": 5526,
      "ĠInterna": 5527,
      "Ġbazo": 5528,
      "fiÅĿita": 5529,
      "ĠLibera": 5530,
      "Ġpreter": 5531,
      "nJen": 5532,
      "Ġtrejnado": 5533,
      "Ġ~": 5534,
      "ogle": 5535,
      "Ġ@": 5536,
      "Ġurbon": 5537,
      "plena": 5538,
      "Ġkonven": 5539,
      "ĠNia": 5540,
      "konto": 5541,
      "tad": 5542,
      "Ġlegis": 5543,
      "Ġkron": 5544,
      "Ġkonsul": 5545,
      "Äīan": 5546,
      "Ãªs": 5547,
      "ktojn": 5548,
      "EP": 5549,
      "2016": 5550,
      "475": 5551,
      "Ġmaten": 5552,
      "dik": 5553,
      "labo": 5554,
      "Ġsurpri": 5555,
      "Ġbonven": 5556,
      "434": 5557,
      "Ġantikva": 5558,
      "108": 5559,
      "Ġstilo": 5560,
      "Ġsenco": 5561,
      "NT": 5562,
      "900": 5563,
      "Ġsove": 5564,
      "842": 5565,
      "Ġkandida": 5566,
      "ĠPlen": 5567,
      "tumoj": 5568,
      "Ġ1997": 5569,
      "chen": 5570,
      "Ġmatema": 5571,
      "Ġpuri": 5572,
      "Ġdetalaj": 5573,
      "grafia": 5574,
      "fron": 5575,
      "ĠreÄĿi": 5576,
      "ĠCol": 5577,
      "ĠPrez": 5578,
      "inion": 5579,
      "Ġreci": 5580,
      "Ġmedio": 5581,
      "2006": 5582,
      "ĠKri": 5583,
      "ĠCan": 5584,
      "Ġelektro": 5585,
      "ĠVia": 5586,
      "Ġoriginala": 5587,
      "pag": 5588,
      "036": 5589,
      "Ġ80": 5590,
      "ava": 5591,
      "nPar": 5592,
      "arch": 5593,
      "Ġbildo": 5594,
      "Ġvaloro": 5595,
      "ĠEksteraj": 5596,
      "sko": 5597,
      "0000594": 5598,
      "ĠPM": 5599,
      "ĠFri": 5600,
      "vatski": 5601,
      "Ġnigra": 5602,
      "ĠUnua": 5603,
      "alvide": 5604,
      "igx": 5605,
      "rilo": 5606,
      "9965": 5607,
      "kuloj": 5608,
      "zajn": 5609,
      "ĠMc": 5610,
      "283": 5611,
      "osa": 5612,
      "ĠSvislando": 5613,
      "gy": 5614,
      "ĠMod": 5615,
      "ĠTrans": 5616,
      "Ġmondmilito": 5617,
      "ĠvizaÄĿo": 5618,
      "ĠÄµe": 5619,
      "Ġatendas": 5620,
      "ĠEstis": 5621,
      "rum": 5622,
      "rono": 5623,
      "jekto": 5624,
      "Ġmalsano": 5625,
      "044": 5626,
      "cent": 5627,
      "Ġpubliko": 5628,
      "Ġtranslo": 5629,
      "ÄĿante": 5630,
      "majn": 5631,
      "Ġvidalvide": 5632,
      "Ġkonsentas": 5633,
      "9975": 5634,
      "ĠPubli": 5635,
      "Ġhomaro": 5636,
      "vorte": 5637,
      "ĠIsra": 5638,
      "Ð°Ñı": 5639,
      "Ġkapablas": 5640,
      "gia": 5641,
      "tuguÃªs": 5642,
      "Ġsano": 5643,
      "tikedoj": 5644,
      "à¨": 5645,
      "Ġels": 5646,
      "UM": 5647,
      "Ġom": 5648,
      "diÄĿo": 5649,
      "ĠWal": 5650,
      "ĠJohano": 5651,
      "¡Õ": 5652,
      "046": 5653,
      "Ġkomerco": 5654,
      "uba": 5655,
      "Ġebligas": 5656,
      "giono": 5657,
      "eda": 5658,
      "kata": 5659,
      "ĠKrom": 5660,
      "ĠEU": 5661,
      "ĠChar": 5662,
      "igno": 5663,
      "Ġspa": 5664,
      "amon": 5665,
      "Ġradikoj": 5666,
      "Ġeniris": 5667,
      "Ġ00": 5668,
      "Ġvortaroj": 5669,
      "etere": 5670,
      "ficiala": 5671,
      "Ġprovis": 5672,
      "Ġpropraj": 5673,
      "ĠJesuo": 5674,
      "ĠAt": 5675,
      "ĠBio": 5676,
      "015": 5677,
      "ĠÄľis": 5678,
      "aturaj": 5679,
      "ĠVeronika": 5680,
      "Ġhor": 5681,
      "fu": 5682,
      "Ġrilato": 5683,
      "nKo": 5684,
      "026": 5685,
      "sistemo": 5686,
      "ĠKion": 5687,
      "udh": 5688,
      "9999338": 5689,
      "Ġfiz": 5690,
      "Ġsendis": 5691,
      "ministro": 5692,
      "ÄĪi": 5693,
      "461": 5694,
      "Ġservoj": 5695,
      "Ġbur": 5696,
      "ĠTero": 5697,
      "Ġinstrum": 5698,
      "ĠDavid": 5699,
      "lamen": 5700,
      "Ä¥io": 5701,
      "nio": 5702,
      "Ġmalrap": 5703,
      "Ġprovas": 5704,
      "]],": 5705,
      "teksto": 5706,
      "ĠPrin": 5707,
      "Ġstrukturo": 5708,
      "gian": 5709,
      "nNorsk": 5710,
      "ĠSovetunio": 5711,
      "ĠEston": 5712,
      "Ð°ÑĤ": 5713,
      "Ġplimulto": 5714,
      "ĠJer": 5715,
      "Ġpersone": 5716,
      "Ġaltaj": 5717,
      "Ġenergio": 5718,
      "Ġkomunikado": 5719,
      "eston": 5720,
      "Ġsus": 5721,
      "piri": 5722,
      "Ġfrazo": 5723,
      "nOr": 5724,
      "2018": 5725,
      "simi": 5726,
      "ÐºÑĢ": 5727,
      "017": 5728,
      "ford": 5729,
      "dar": 5730,
      "ĠvoÄīo": 5731,
      "Ġvidpunkto": 5732,
      "tenoj": 5733,
      "Ġmalliber": 5734,
      "eza": 5735,
      "PR": 5736,
      "Ġokazoj": 5737,
      "tumo": 5738,
      "ction": 5739,
      "889": 5740,
      "cu": 5741,
      "ĠÄ¥": 5742,
      "loke": 5743,
      "berto": 5744,
      "816": 5745,
      "ĠKonsilio": 5746,
      "ĠOrienta": 5747,
      "Ø©": 5748,
      "laroj": 5749,
      "Ġmaksim": 5750,
      "IF": 5751,
      "Ġvek": 5752,
      "bru": 5753,
      "nBahasa": 5754,
      "gram": 5755,
      "??": 5756,
      "trikto": 5757,
      "kluzi": 5758,
      "mig": 5759,
      "Ø§ÙĦØ": 5760,
      "Ġjarcentoj": 5761,
      "ĠVoj": 5762,
      "hili": 5763,
      "981": 5764,
      "Ġestonteco": 5765,
      "109": 5766,
      "ĠÄīambro": 5767,
      "lub": 5768,
      "275": 5769,
      "Ġ177": 5770,
      "ĠtaÅŃgas": 5771,
      "lav": 5772,
      "lisma": 5773,
      ".âĢĿ": 5774,
      "558": 5775,
      "ĠSloven": 5776,
      "Ġagadon": 5777,
      "Ġinven": 5778,
      "ĠneÅŃtra": 5779,
      "Ġduan": 5780,
      "gal": 5781,
      "formaj": 5782,
      "ĠLito": 5783,
      "logy": 5784,
      "9998211": 5785,
      "ĠCentro": 5786,
      "pol": 5787,
      "972": 5788,
      "Ġmanifes": 5789,
      "Ġkonsiderata": 5790,
      "zorg": 5791,
      "Ġmalfru": 5792,
      "ĠeÅŃropa": 5793,
      "kus": 5794,
      "ÄĿeni": 5795,
      "Ġscienco": 5796,
      "tualaj": 5797,
      "ages": 5798,
      "Ġprofesoro": 5799,
      "ĠWiki": 5800,
      "Ġmetodo": 5801,
      "Ġkontroli": 5802,
      "antan": 5803,
      "dilo": 5804,
      "sion": 5805,
      "nJo": 5806,
      "nRet": 5807,
      "muzik": 5808,
      "ĠâĨĴ": 5809,
      "Ġsubtenas": 5810,
      "kal": 5811,
      "ĠleÄĿo": 5812,
      "Ġfaros": 5813,
      "Ġkompleta": 5814,
      "Ġpersona": 5815,
      "servo": 5816,
      "ÅĦski": 5817,
      "kura": 5818,
      "vang": 5819,
      "Ġbre": 5820,
      "ĠIr": 5821,
      "Ġuzu": 5822,
      "188": 5823,
      "Ġ1980": 5824,
      "Ġprezid": 5825,
      "rinda": 5826,
      "563": 5827,
      "Ġesprimi": 5828,
      "ĠrulseÄĿoj": 5829,
      "nNun": 5830,
      "onojn": 5831,
      "077": 5832,
      "ppe": 5833,
      "Ġestrar": 5834,
      "035": 5835,
      "Ġabsolu": 5836,
      "ĠaÄĿo": 5837,
      "unici": 5838,
      "ĠLingvo": 5839,
      "Ġfontoj": 5840,
      "etara": 5841,
      "Ġregado": 5842,
      "AP": 5843,
      "Ġmanoj": 5844,
      "granda": 5845,
      "har": 5846,
      "QL": 5847,
      "9946": 5848,
      "usk": 5849,
      "rigar": 5850,
      "Ġkonstitu": 5851,
      "Ġliter": 5852,
      "nNia": 5853,
      "beto": 5854,
      "ĠUkrainio": 5855,
      "cipe": 5856,
      "Ġaero": 5857,
      "zias": 5858,
      "ĠmaÅĿ": 5859,
      "sur": 5860,
      "kiu": 5861,
      "Ġbonega": 5862,
      "æľ¬": 5863,
      "960": 5864,
      "Ġesperanta": 5865,
      "ĠKontakto": 5866,
      "ember": 5867,
      "Ġrakonto": 5868,
      "Ġpreferas": 5869,
      "Ġinves": 5870,
      "konom": 5871,
      "ĠEsperantis": 5872,
      "Ġkomunumoj": 5873,
      "kulp": 5874,
      "Ġmallonga": 5875,
      "Ġfenom": 5876,
      "Ġpara": 5877,
      "ãģ®": 5878,
      "Ġjunaj": 5879,
      "IK": 5880,
      "juo": 5881,
      "Ġmek": 5882,
      "Ġlumo": 5883,
      "Ġservi": 5884,
      "VK": 5885,
      "bun": 5886,
      "ÄĪu": 5887,
      "rion": 5888,
      "ĠTemas": 5889,
      "poÅĿto": 5890,
      "IR": 5891,
      "lum": 5892,
      "Ġresti": 5893,
      "Ġtermino": 5894,
      "ĠYork": 5895,
      "Ġfron": 5896,
      "ND": 5897,
      "atan": 5898,
      "Ġ35": 5899,
      "Ġkategori": 5900,
      "nMon": 5901,
      "à¦¾": 5902,
      "Ġrekla": 5903,
      "ä¸Ńæĸĩ": 5904,
      "ĠDon": 5905,
      "ĠKata": 5906,
      "Ġmano": 5907,
      "Tra": 5908,
      "taÄµon": 5909,
      "ĠnaÅŃ": 5910,
      "Ġrekomendas": 5911,
      "tikoj": 5912,
      "Ġund": 5913,
      "Ġaltan": 5914,
      "Ġajna": 5915,
      "814": 5916,
      "riskribo": 5917,
      "Ġmonda": 5918,
      "Ġsved": 5919,
      "Ġhun": 5920,
      "216": 5921,
      "Ġdio": 5922,
      "cher": 5923,
      "444": 5924,
      "elig": 5925,
      "bil": 5926,
      "Ġkontakti": 5927,
      "Ġgaranti": 5928,
      "ebu": 5929,
      "ĠAle": 5930,
      "rie": 5931,
      "ĠKur": 5932,
      "Ġproces": 5933,
      "ĠHom": 5934,
      "9906": 5935,
      "Ġmalam": 5936,
      "ĠKomputeko": 5937,
      "Ġromano": 5938,
      "á»": 5939,
      "gre": 5940,
      "860": 5941,
      "teria": 5942,
      "Ġarm": 5943,
      "Ġmodi": 5944,
      "Ġtrovos": 5945,
      "Ã£": 5946,
      "Ġmalproksi": 5947,
      "ĠBerlino": 5948,
      "edon": 5949,
      "nJu": 5950,
      "Ġgeed": 5951,
      "Ġ!": 5952,
      "ĠaÅŃtoroj": 5953,
      "Ġartikolojn": 5954,
      "Ġprecize": 5955,
      "ate": 5956,
      "Ġkro": 5957,
      "ĠMuzaiko": 5958,
      "wski": 5959,
      "termin": 5960,
      "gro": 5961,
      "ATO": 5962,
      "terdamo": 5963,
      "99974": 5964,
      "etnam": 5965,
      "Ñħ": 5966,
      "Ġlatina": 5967,
      "preneble": 5968,
      "Ġkompare": 5969,
      "ÑģÑĮ": 5970,
      "Ġsignifon": 5971,
      "ĠÅĿatus": 5972,
      "ĠAÅŃstra": 5973,
      "ĠFacebook": 5974,
      "Ġoleo": 5975,
      "Ġpensi": 5976,
      "Ġlito": 5977,
      "ĠMond": 5978,
      "ĠAf": 5979,
      "Ġformon": 5980,
      "landoj": 5981,
      "ĠÅĿtalo": 5982,
      "ĠHi": 5983,
      "Ġplenumi": 5984,
      "851": 5985,
      "irkaÅŃ": 5986,
      "TS": 5987,
      "nHel": 5988,
      "áº": 5989,
      "Ġideon": 5990,
      "ÄĿado": 5991,
      "vante": 5992,
      "Ġmaterialoj": 5993,
      "nun": 5994,
      "ĠHungario": 5995,
      "2008": 5996,
      "Ġvizitis": 5997,
      "trie": 5998,
      "bara": 5999,
      "Ġariel": 6000,
      "respon": 6001,
      "Ġspecioj": 6002,
      "nÐłÑĥÑģ": 6003,
      "Ġmodelo": 6004,
      "eld": 6005,
      "Ġalfab": 6006,
      "ĠMov": 6007,
      "teo": 6008,
      "tenton": 6009,
      "531": 6010,
      "Ġelektita": 6011,
      "636": 6012,
      "ĠBil": 6013,
      "ĠLondono": 6014,
      "057": 6015,
      "nDis": 6016,
      "losi": 6017,
      "Ġprezidento": 6018,
      "ĠÄĿu": 6019,
      "LA": 6020,
      "897": 6021,
      "done": 6022,
      "Ġhero": 6023,
      "ĠMak": 6024,
      "yu": 6025,
      "Ġlini": 6026,
      "Ġproksima": 6027,
      "Ġkoncerna": 6028,
      "meto": 6029,
      "Ġimperio": 6030,
      "atio": 6031,
      "Ġfondita": 6032,
      "xo": 6033,
      "lingo": 6034,
      "EAD": 6035,
      "kulo": 6036,
      "217": 6037,
      "Ġsubskrib": 6038,
      "grupo": 6039,
      "epoko": 6040,
      "Ġperdis": 6041,
      "amoj": 6042,
      "her": 6043,
      "ĠPlan": 6044,
      "eu": 6045,
      "Ġrimarkis": 6046,
      "ĠAmeri": 6047,
      "æĹ¥æľ¬": 6048,
      "jekti": 6049,
      "Ġsube": 6050,
      "Ġmetis": 6051,
      "tara": 6052,
      "Ġsole": 6053,
      "Ġkav": 6054,
      "Ġtipo": 6055,
      "estroj": 6056,
      "digi": 6057,
      "Ġqu": 6058,
      "aÅŃlo": 6059,
      "Ġkandidati": 6060,
      "ĠVa": 6061,
      "tempaj": 6062,
      "vito": 6063,
      "Ġepi": 6064,
      "848": 6065,
      "543": 6066,
      "REJO": 6067,
      "tern": 6068,
      "Ġkara": 6069,
      "cus": 6070,
      "Ġtransdon": 6071,
      "ĠKore": 6072,
      "veco": 6073,
      "Ġkompli": 6074,
      "Ġmovadaj": 6075,
      "tler": 6076,
      "Ġ{\\\\": 6077,
      "IA": 6078,
      "Ġlibereco": 6079,
      "Ġagri": 6080,
      "Ġuniversitato": 6081,
      "ĠfariÄĿas": 6082,
      "ĠEli": 6083,
      "Ġpublikigis": 6084,
      "centro": 6085,
      "ÅĿe": 6086,
      "Ġefike": 6087,
      "Ġalie": 6088,
      "2014": 6089,
      "Ġretejon": 6090,
      "ĠBir": 6091,
      "XX": 6092,
      "line": 6093,
      "ÄĿita": 6094,
      "ĠEm": 6095,
      "ĠStra": 6096,
      "nGra": 6097,
      "ĠEuro": 6098,
      "nabo": 6099,
      "Ġakceptas": 6100,
      "ĠHon": 6101,
      "ĠFakte": 6102,
      "ĠRajtoj": 6103,
      "aniere": 6104,
      "Ġgar": 6105,
      "User": 6106,
      "Ġproponis": 6107,
      "Ġkomerca": 6108,
      "dom": 6109,
      "zitaj": 6110,
      "Ġsurbaze": 6111,
      "Ġplilong": 6112,
      "Ġfiks": 6113,
      "Ġfrua": 6114,
      "Ġokazo": 6115,
      "Ġpremi": 6116,
      "nLoÄĿ": 6117,
      "Ġsono": 6118,
      "ĠIndi": 6119,
      "Ġproponi": 6120,
      "ksa": 6121,
      "Ġintervjuon": 6122,
      "ĠRos": 6123,
      "Ġfeder": 6124,
      "ĠGa": 6125,
      "Ġnot": 6126,
      "Ġkazoj": 6127,
      "Ġgrandajn": 6128,
      "Ġfacila": 6129,
      "ÙĨ": 6130,
      "peci": 6131,
      "Ġkomprenis": 6132,
      "cz": 6133,
      "Ġredukti": 6134,
      "Ġrevolucio": 6135,
      "ĠBr": 6136,
      "Ġredakto": 6137,
      "Ġkrizo": 6138,
      "192": 6139,
      "Ġmonto": 6140,
      "Ġca": 6141,
      "9953": 6142,
      "EV": 6143,
      "nia": 6144,
      "665": 6145,
      "gilo": 6146,
      "Ġkolek": 6147,
      "Ġdik": 6148,
      "ĠiÄĿas": 6149,
      "ĠVor": 6150,
      "mod": 6151,
      "=\\\"": 6152,
      "ralo": 6153,
      "Ġludas": 6154,
      "852": 6155,
      "150": 6156,
      "Ġtagojn": 6157,
      ").\",\"": 6158,
      "ĠEven": 6159,
      "Ġinv": 6160,
      "×¨": 6161,
      "Ġmalmultaj": 6162,
      "Ġelementoj": 6163,
      "lara": 6164,
      "teni": 6165,
      "Ġlinio": 6166,
      "Ð¾Ð²": 6167,
      "ĠÄľenerala": 6168,
      "9933": 6169,
      "066": 6170,
      "575": 6171,
      "Ġevidente": 6172,
      "ĠMer": 6173,
      "Ġimpli": 6174,
      "mir": 6175,
      "ĠAmeriko": 6176,
      "tria": 6177,
      "Ġdefini": 6178,
      "mano": 6179,
      "ÄĻ": 6180,
      "Ġkialoj": 6181,
      "Ġkreado": 6182,
      "ision": 6183,
      "Ġliteroj": 6184,
      "Ġemas": 6185,
      "Ġsentis": 6186,
      "embleo": 6187,
      "sci": 6188,
      "gri": 6189,
      "til": 6190,
      "ĠMoskvo": 6191,
      "UD": 6192,
      "roni": 6193,
      "æĹ¥æľ¬èªŀ": 6194,
      "rasil": 6195,
      "ĠEstraro": 6196,
      "Ġekstera": 6197,
      "Ġkonk": 6198,
      "Â».": 6199,
      "Ġape": 6200,
      "aria": 6201,
      "Ġiujn": 6202,
      "Ġlatin": 6203,
      "Ġlud": 6204,
      "Ġkonstrui": 6205,
      "varm": 6206,
      "074": 6207,
      "666": 6208,
      "Ġplifor": 6209,
      "}\\": 6210,
      "venska": 6211,
      "Ø§Ø±Ø³": 6212,
      "ĠTTT": 6213,
      "075": 6214,
      "2012": 6215,
      "Ġlandon": 6216,
      "868": 6217,
      "plek": 6218,
      "Ġfrato": 6219,
      "Ġadop": 6220,
      "2004": 6221,
      "ĠJohan": 6222,
      "2208": 6223,
      "ģØ§Ø±Ø³": 6224,
      "ĠKlubo": 6225,
      "nJe": 6226,
      "Ġeksteraj": 6227,
      "Ġrekta": 6228,
      "Ġrespek": 6229,
      "kesto": 6230,
      "elek": 6231,
      "ĠFeder": 6232,
      "mond": 6233,
      "Ġsolvo": 6234,
      "íķ": 6235,
      "ĠPRO": 6236,
      "Î¹Î": 6237,
      "Ã¼rk": 6238,
      "Ġpala": 6239,
      "ĠWorld": 6240,
      "99973": 6241,
      "nSloven": 6242,
      "Ġkreas": 6243,
      "Ġprovizas": 6244,
      "ĠProtokolo": 6245,
      "ĠGermana": 6246,
      "Ġvita": 6247,
      "Ġanti": 6248,
      "emia": 6249,
      "Ġkadre": 6250,
      "Ġmalsukces": 6251,
      "ÑĩÐ°": 6252,
      "Ġeklezio": 6253,
      "Ġinstruado": 6254,
      "ÃŃn": 6255,
      "Ġiel": 6256,
      "Ġeko": 6257,
      "Ġkombin": 6258,
      "nFranÃ§ais": 6259,
      "Ġstaris": 6260,
      "Ġsav": 6261,
      "ĠBas": 6262,
      "2003": 6263,
      "ĠnaskiÄĿ": 6264,
      "ĠWi": 6265,
      "tula": 6266,
      "rp": 6267,
      "ÅĿtele": 6268,
      "igojn": 6269,
      "Ġjardekoj": 6270,
      "Ġopinio": 6271,
      "Ġkonklu": 6272,
      "Ġuson": 6273,
      "jor": 6274,
      "ÑĬ": 6275,
      "prin": 6276,
      "Å¾": 6277,
      "Ġ1998": 6278,
      "ĠWilliam": 6279,
      "PO": 6280,
      "teran": 6281,
      "054": 6282,
      "sch": 6283,
      "aw": 6284,
      "Ġwww": 6285,
      "Ġkampan": 6286,
      "havigi": 6287,
      "ĠIKU": 6288,
      "Ġdanke": 6289,
      "PM": 6290,
      "Ġinstruis": 6291,
      "ĠrenkontiÄĿo": 6292,
      "9821923": 6293,
      "ĠFranca": 6294,
      "Ġakcepti": 6295,
      "Ġenspe": 6296,
      "ĠVe": 6297,
      "toko": 6298,
      "Ġrespondo": 6299,
      "Ä¥i": 6300,
      "Ġgepatroj": 6301,
      "ĹÐ½": 6302,
      "Ġ08": 6303,
      "SA": 6304,
      "Ġproviz": 6305,
      "rigin": 6306,
      "Ġsupra": 6307,
      "ĠOndo": 6308,
      "ĠÄĿard": 6309,
      "nNeder": 6310,
      "Ġpliaj": 6311,
      "9913": 6312,
      "373": 6313,
      "376": 6314,
      "ÐºÑĢÐ°Ñ": 6315,
      "kanta": 6316,
      "iss": 6317,
      "Ġ187": 6318,
      "tein": 6319,
      "vanto": 6320,
      "nAm": 6321,
      "Ġuzante": 6322,
      "Ġposedas": 6323,
      "ðŁ": 6324,
      "ĠBarato": 6325,
      "gaz": 6326,
      "ÐºÑĢÐ°ÑĹÐ½": 6327,
      "Ġvivi": 6328,
      "Ġride": 6329,
      "Ġreguloj": 6330,
      "Ġkritik": 6331,
      "Ġbrita": 6332,
      "Ġforma": 6333,
      "Ġfaritaj": 6334,
      "Ġnorm": 6335,
      "034": 6336,
      "079": 6337,
      "ĠkaÅŃzas": 6338,
      "Ġoport": 6339,
      "nTamen": 6340,
      "nReferencoj": 6341,
      "ĠÄľia": 6342,
      "Ġdecido": 6343,
      "2007": 6344,
      "à¤¾": 6345,
      "Ġ45": 6346,
      "Ġlog": 6347,
      "nCo": 6348,
      "Ġptm": 6349,
      "Ġizo": 6350,
      "ĠvojaÄĿ": 6351,
      "ÐºÑĢÐ°ÑĹÐ½ÑģÑĮ": 6352,
      "ĠStan": 6353,
      "ĠDE": 6354,
      "Ġdial": 6355,
      "9685": 6356,
      "kategorio": 6357,
      "1996": 6358,
      "GV": 6359,
      "Ġbel": 6360,
      "longa": 6361,
      "ĠAma": 6362,
      "CH": 6363,
      "Ġkapon": 6364,
      "638": 6365,
      "Ġprelegoj": 6366,
      "labori": 6367,
      "ÐºÑĢÐ°ÑĹÐ½ÑģÑĮÐºÐ°": 6368,
      "clo": 6369,
      "ãĢĤ": 6370,
      "Ã§e": 6371,
      "Ġcertigi": 6372,
      "Ġpasin": 6373,
      "kloj": 6374,
      "Ġul": 6375,
      "Ġkilom": 6376,
      "129": 6377,
      "à²": 6378,
      "ĠFra": 6379,
      "nEspaÃ±ol": 6380,
      "hat": 6381,
      "vejo": 6382,
      "pado": 6383,
      "Ġfunkcio": 6384,
      "daro": 6385,
      "Ġ1994": 6386,
      "293": 6387,
      "viko": 6388,
      "577": 6389,
      "!âĢĿ": 6390,
      "¨ÙĬ": 6391,
      "ĠÅľan": 6392,
      "Ġludi": 6393,
      "usta": 6394,
      "nAliaj": 6395,
      "etrojn": 6396,
      "ODx": 6397,
      "Ġludo": 6398,
      "cos": 6399,
      "Ġliver": 6400,
      "nika": 6401,
      "Ġproblemon": 6402,
      "nViki": 6403,
      "essages": 6404,
      "9954": 6405,
      "ablo": 6406,
      "Ġkomencas": 6407,
      "xoj": 6408,
      "Ġligita": 6409,
      "Ġhelp": 6410,
      "ĠKiu": 6411,
      "8222208": 6412,
      "ĠAnton": 6413,
      "oran": 6414,
      "Ġex": 6415,
      "ÑģÐºÐ°Ñı": 6416,
      "Ġ1970": 6417,
      "wn": 6418,
      "pÃ©": 6419,
      "ĠÄīie": 6420,
      "8383": 6421,
      "Ġteorio": 6422,
      "Junularo": 6423,
      "trieved": 6424,
      "Ġfesto": 6425,
      "GH": 6426,
      "Ġsenpaga": 6427,
      "ÖĢÕ": 6428,
      "ĠpreÄĿejo": 6429,
      "ĠÅĿablono": 6430,
      "Ġpronon": 6431,
      "Ti": 6432,
      "lt": 6433,
      "Ġnum": 6434,
      "Ġludis": 6435,
      "Ġdirekto": 6436,
      "970": 6437,
      "detalo": 6438,
      "774": 6439,
      "KK": 6440,
      "Ġstaras": 6441,
      "]]\\": 6442,
      "ĠDankon": 6443,
      "Ġsistemoj": 6444,
      "zitan": 6445,
      "Ġvenon": 6446,
      "igiloj": 6447,
      "ĠHav": 6448,
      "Ġsimile": 6449,
      "ãģĦ": 6450,
      "ÅĿojn": 6451,
      "Ġkoloni": 6452,
      "199": 6453,
      "lion": 6454,
      "nDek": 6455,
      "rata": 6456,
      "nNaski": 6457,
      "ĠâĨĴ\\": 6458,
      "à¥Ģ\\": 6459,
      "Ġrib": 6460,
      "Ġsekvis": 6461,
      "£ÐºÑĢÐ°ÑĹÐ½ÑģÑĮÐºÐ°": 6462,
      "Ġalb": 6463,
      "532": 6464,
      "nMessages": 6465,
      "ĠMilito": 6466,
      "Ġpopulara": 6467,
      "Ġtrajtoj": 6468,
      "uta": 6469,
      "Ġideojn": 6470,
      "Ġenkondu": 6471,
      "tastro": 6472,
      "lingvan": 6473,
      "nPers": 6474,
      "242": 6475,
      "atalÃł": 6476,
      "ĠantaÅŃaj": 6477,
      "fici": 6478,
      "8627": 6479,
      "Ġagadoj": 6480,
      "Ġspor": 6481,
      "Ġnord": 6482,
      "ameriko": 6483,
      "ismaj": 6484,
      "182": 6485,
      "Ġsubteno": 6486,
      "Ġprovizi": 6487,
      "ĠAÅŃstrio": 6488,
      "Ġinstruisto": 6489,
      "mem": 6490,
      "Î·": 6491,
      "ĠScienca": 6492,
      "808": 6493,
      "nenketo": 6494,
      "Ġkelkfoje": 6495,
      "ĠRomo": 6496,
      "84095": 6497,
      "fas": 6498,
      "¹Ø±Ø": 6499,
      "Ġcifer": 6500,
      "Ġ70": 6501,
      "00008": 6502,
      "Ġakiris": 6503,
      "ÄĿaro": 6504,
      "ĠmonaÄ¥": 6505,
      "ters": 6506,
      "Ġakceptis": 6507,
      "Ġentuzias": 6508,
      "ĠLibro": 6509,
      "Ġprefere": 6510,
      "dkas": 6511,
      "notoj": 6512,
      "055": 6513,
      "rete": 6514,
      "Ġsukceso": 6515,
      "Ġeksperi": 6516,
      "2010": 6517,
      "Ġgri": 6518,
      "dioj": 6519,
      "ĠriÄī": 6520,
      "Ġobjekto": 6521,
      "Ġtemperaturo": 6522,
      "Nova": 6523,
      "468": 6524,
      "99684095": 6525,
      "ĠVarsovio": 6526,
      "179": 6527,
      "Ġindikas": 6528,
      "Ġklara": 6529,
      "172": 6530,
      "Ġdemandojn": 6531,
      "adojn": 6532,
      "Ġmemor": 6533,
      "¹Ø±Ø¨ÙĬ": 6534,
      "âĸ": 6535,
      "metis": 6536,
      "548": 6537,
      "ĠtaÅŃga": 6538,
      "Ġokazi": 6539,
      "Ġvivis": 6540,
      "Ġlongaj": 6541,
      "Ġhejmo": 6542,
      "Ġrobo": 6543,
      "komputi": 6544,
      "kanto": 6545,
      "×¢": 6546,
      "Ġ\\\\": 6547,
      "Ġneniun": 6548,
      "Ġdenas": 6549,
      "NA": 6550,
      "UK": 6551,
      "nivers": 6552,
      "Ġatribu": 6553,
      "ink": 6554,
      "Ġspecialan": 6555,
      "Ġrapida": 6556,
      "908": 6557,
      "GB": 6558,
      "àº": 6559,
      "Ġkampar": 6560,
      "indaj": 6561,
      "leg": 6562,
      "Ġakuz": 6563,
      "ĠorganizaÄµo": 6564,
      "dy": 6565,
      "Ġsekcio": 6566,
      "Ġusonaj": 6567,
      "braj": 6568,
      "Ġkondam": 6569,
      "Ġmale": 6570,
      "ĠIl": 6571,
      "ĠKaz": 6572,
      "histo": 6573,
      "ĠKongo": 6574,
      "erno": 6575,
      "Ġlibrojn": 6576,
      "Ìģ": 6577,
      "ĠeÅŃroj": 6578,
      "Ġstatis": 6579,
      "Ġsalaj": 6580,
      "nOf": 6581,
      "Ġ'''": 6582,
      "Ġrigardi": 6583,
      "Ġgras": 6584,
      "Ġnekom": 6585,
      "uzika": 6586,
      "Ġfig": 6587,
      "Ġkulturoj": 6588,
      "ĠBonvolu": 6589,
      "Ġfizi": 6590,
      "ĠâĪ": 6591,
      "Ġtasko": 6592,
      "Ġ176": 6593,
      "Ġseksne": 6594,
      "untry": 6595,
      "Ġsekvi": 6596,
      "ĠChin": 6597,
      "Ġsolvi": 6598,
      "Ġnaciaj": 6599,
      "3286": 6600,
      "Ġfilmoj": 6601,
      "ot": 6602,
      "Ġkomitato": 6603,
      "dol": 6604,
      "Ġemfa": 6605,
      "CO": 6606,
      "Ġned": 6607,
      "910": 6608,
      "085": 6609,
      "413": 6610,
      "ismon": 6611,
      "Ġtiajn": 6612,
      "Ġretejoj": 6613,
      "Ġkluboj": 6614,
      "ĠHistory": 6615,
      "ekte": 6616,
      "Ġdisting": 6617,
      "ĠGazetara": 6618,
      "Ġtradukita": 6619,
      "ĠBulga": 6620,
      "Le": 6621,
      "fred": 6622,
      "Ġblanka": 6623,
      "Ġbonajn": 6624,
      "898": 6625,
      "Ġsalu": 6626,
      "inastio": 6627,
      "Ġtemon": 6628,
      "tvi": 6629,
      "nAvantaÄĿoj": 6630,
      "Ġvic": 6631,
      "Ġstudo": 6632,
      "tigu": 6633,
      "Ġdeklaris": 6634,
      "jar": 6635,
      "ĠMeksiko": 6636,
      "WV": 6637,
      "Ġdeba": 6638,
      "Ġbul": 6639,
      "ÃŃa": 6640,
      "9936": 6641,
      "Ġprogramoj": 6642,
      "Äīam": 6643,
      "dec": 6644,
      "Ġdiman": 6645,
      "eman": 6646,
      "êµ": 6647,
      "Ġperfor": 6648,
      "Ġhelpon": 6649,
      "Ġkreskis": 6650,
      "Ġprobab": 6651,
      "dukta": 6652,
      "EZ": 6653,
      "ĠLA": 6654,
      "Ġsupren": 6655,
      "Ġfilino": 6656,
      "nova": 6657,
      "MT": 6658,
      "ken": 6659,
      "ĠIzra": 6660,
      "Pa": 6661,
      "Ġ75": 6662,
      "Ġraporto": 6663,
      "757": 6664,
      "201111": 6665,
      "NS": 6666,
      "LO": 6667,
      "Ġsemin": 6668,
      "rÃ©": 6669,
      "ĠMonato": 6670,
      "ĠInternational": 6671,
      "tugala": 6672,
      "ĠFinnlando": 6673,
      "prezidanto": 6674,
      "Äµe": 6675,
      "ĠPriva": 6676,
      "Ġoficiale": 6677,
      "leks": 6678,
      "ĠÄīiutaga": 6679,
      "×ĳ": 6680,
      "rupo": 6681,
      "longe": 6682,
      "nKonta": 6683,
      "ĠaÄīeto": 6684,
      "ĠavantaÄĿoj": 6685,
      "UP": 6686,
      "Ġfortoj": 6687,
      "Ġsimilaj": 6688,
      "Ġresta": 6689,
      "Ġpul": 6690,
      "Ġdato": 6691,
      "Ã£o": 6692,
      "9926": 6693,
      "ĠOs": 6694,
      "adas": 6695,
      "Ġspecoj": 6696,
      "037": 6697,
      "nÐłÑĥÑģÑģÐºÐ¸Ð¹": 6698,
      "nKre": 6699,
      "nÎ": 6700,
      "nPre": 6701,
      "trans": 6702,
      "Ġrecipro": 6703,
      "cht": 6704,
      "Ġfond": 6705,
      "nY": 6706,
      "nAk": 6707,
      "nRi": 6708,
      "ranta": 6709,
      "ĠKomuniko": 6710,
      "maniere": 6711,
      "Ġfren": 6712,
      "ĠÄīas": 6713,
      "Ġ>": 6714,
      "Ġsuno": 6715,
      "ovas": 6716,
      "064": 6717,
      "Ġkultur": 6718,
      "Ġwith": 6719,
      "Ġstrato": 6720,
      "Ġplez": 6721,
      "120": 6722,
      "Ġmeze": 6723,
      "ĠIsraelo": 6724,
      "sti": 6725,
      "uli": 6726,
      "virus": 6727,
      "9792": 6728,
      "Ġelektra": 6729,
      "Ġekle": 6730,
      "Ġutila": 6731,
      "Ġaldonis": 6732,
      "ĠFu": 6733,
      "riko": 6734,
      "vido": 6735,
      "inf": 6736,
      "667": 6737,
      "Ġbaza": 6738,
      "Ġvikti": 6739,
      "ĠHam": 6740,
      "201110": 6741,
      "ĠFilip": 6742,
      "nenketodetalo": 6743,
      "Ġ(=": 6744,
      "chael": 6745,
      "turis": 6746,
      "ĠaÅŃton": 6747,
      "Ġkonkurso": 6748,
      "Ġefiko": 6749,
      "ĠFine": 6750,
      "tho": 6751,
      "Ġverki": 6752,
      "ym": 6753,
      "tiga": 6754,
      "zbek": 6755,
      "mana": 6756,
      "Ġtradukoj": 6757,
      "tenon": 6758,
      "ikajn": 6759,
      "Ġrenov": 6760,
      "car": 6761,
      "eÅ¡tina": 6762,
      "AK": 6763,
      "Ġkongru": 6764,
      "Ġkonsek": 6765,
      "Ġvasta": 6766,
      "ĠFund": 6767,
      "ÐºÐµ": 6768,
      "fen": 6769,
      "4461": 6770,
      "ij": 6771,
      "Ġpordo": 6772,
      "kula": 6773,
      "Ġindivid": 6774,
      "Ġbazita": 6775,
      "bili": 6776,
      "efa": 6777,
      "Ġrolo": 6778,
      "Ġpovu": 6779,
      "Ġsinjo": 6780,
      "ĠOficejo": 6781,
      "?âĢĿ\\": 6782,
      "Ġnomis": 6783,
      "bs": 6784,
      "9955": 6785,
      "Ġfina": 6786,
      "Ġpreni": 6787,
      "Ġsoldatoj": 6788,
      "Ġfajro": 6789,
      "Ġklarigi": 6790,
      "211": 6791,
      "Ġretro": 6792,
      "ĠRetrieved": 6793,
      "sio": 6794,
      "tigon": 6795,
      "9914": 6796,
      "ĠtroviÄĿis": 6797,
      "gz": 6798,
      "Ġkunven": 6799,
      "ĠEspero": 6800,
      "regis": 6801,
      "eblan": 6802,
      "9964": 6803,
      "Ġafri": 6804,
      "Ġthat": 6805,
      "akte": 6806,
      "849": 6807,
      "573": 6808,
      "Ġekvili": 6809,
      "ktaj": 6810,
      "vino": 6811,
      "Ġmalsanoj": 6812,
      "Ġkunveno": 6813,
      "ÐµÐ»Ð°ÑĢ": 6814,
      "]].": 6815,
      "ranto": 6816,
      "ºÎ": 6817,
      "ritaj": 6818,
      "Ġlaboristoj": 6819,
      "ģØ§Ø±Ø³ÛĮ": 6820,
      "Ġteni": 6821,
      "888": 6822,
      "DR": 6823,
      "Ġ1996": 6824,
      "filo": 6825,
      "ĠTele": 6826,
      "nAd": 6827,
      "nBiblio": 6828,
      "Ġvaste": 6829,
      "Ø§ÙĦØ¹Ø±Ø¨ÙĬ": 6830,
      "Ġzo": 6831,
      "Ġsak": 6832,
      "mili": 6833,
      "Ġakvon": 6834,
      "ÐµÐ»Ð°ÑĢÑĥ": 6835,
      "Ġkonsideri": 6836,
      "2015": 6837,
      "sono": 6838,
      "Ø§ÙĦØ¹Ø±Ø¨ÙĬØ©": 6839,
      "Ġelspe": 6840,
      "rist": 6841,
      "pagan": 6842,
      "Ġov": 6843,
      "Ġregas": 6844,
      "Ġsendepende": 6845,
      "ÐµÐ»Ð°ÑĢÑĥÑģÐºÐ°Ñı": 6846,
      "Ġpercep": 6847,
      "cita": 6848,
      "335": 6849,
      "Ġmilit": 6850,
      "terioj": 6851,
      "ìĸ": 6852,
      "Ġpatri": 6853,
      "ĠGrek": 6854,
      "nPolski": 6855,
      "Ġmalnovaj": 6856,
      "ĠinteresiÄĿas": 6857,
      "Ġnura": 6858,
      "Ġniveloj": 6859,
      "ark": 6860,
      "Ġasocioj": 6861,
      "Ġimperiestro": 6862,
      "Ġpartopreno": 6863,
      "Ġpublikigita": 6864,
      "GR": 6865,
      "ĠdaÅŃri": 6866,
      "Ġlernejoj": 6867,
      "ĠArgen": 6868,
      "Ġpagi": 6869,
      "ĠloÄĿis": 6870,
      "Ġricevos": 6871,
      "Ġsang": 6872,
      "teto": 6873,
      "Ġreak": 6874,
      "nRom": 6875,
      "íķľ": 6876,
      "Ġgu": 6877,
      "Ġinfluo": 6878,
      "0000484": 6879,
      "Ġrifu": 6880,
      "ĠChinese": 6881,
      "dukto": 6882,
      "ãĤĭ": 6883,
      "Ġprovo": 6884,
      "ìĸ´": 6885,
      "ZZ": 6886,
      "Ġkonstruita": 6887,
      "Ġtravi": 6888,
      "Ġkari": 6889,
      "Äģ": 6890,
      "Ġfesti": 6891,
      "850": 6892,
      "mp": 6893,
      "Ġsendube": 6894,
      "Ġekzer": 6895,
      "Ġviziti": 6896,
      "Ġkoncepto": 6897,
      "Ġmalaperis": 6898,
      "Ġ90": 6899,
      "voje": 6900,
      "Ã¡s": 6901,
      "klaku": 6902,
      "',": 6903,
      "Ġ47": 6904,
      "Ġpsiko": 6905,
      "êµŃ": 6906,
      "his": 6907,
      "Ġrajton": 6908,
      "Ġrezis": 6909,
      "ĠMez": 6910,
      "ĠNom": 6911,
      "Ġkredi": 6912,
      "Ġpublikaj": 6913,
      "tori": 6914,
      "ĠHenry": 6915,
      "538": 6916,
      "9997072": 6917,
      "Ġ1989": 6918,
      "MP": 6919,
      "aja": 6920,
      "chive": 6921,
      "ĠTek": 6922,
      "lau": 6923,
      "ĠÅĿajnis": 6924,
      "Ġtrakti": 6925,
      "NF": 6926,
      "US": 6927,
      "Ġmarbor": 6928,
      "nPortuguÃªs": 6929,
      "Ġkompa": 6930,
      "abe": 6931,
      "peza": 6932,
      "138": 6933,
      "set": 6934,
      "0000596": 6935,
      "Ġhazar": 6936,
      "ĠhaÅŃto": 6937,
      "Ġinvitas": 6938,
      "prop": 6939,
      "omon": 6940,
      "low": 6941,
      "962": 6942,
      "Ġref": 6943,
      "ĠLudo": 6944,
      "ĠSil": 6945,
      "akis": 6946,
      "ĠTro": 6947,
      "ĠFa": 6948,
      "Ġversion": 6949,
      "Ġrimark": 6950,
      "hn": 6951,
      "kultura": 6952,
      "ĠSoci": 6953,
      "aku": 6954,
      "ĠÐ¿": 6955,
      "Ġsankta": 6956,
      "Ġpripens": 6957,
      "Ġ32": 6958,
      "Ġsever": 6959,
      "Ġrigardas": 6960,
      "Ġmemoras": 6961,
      "time": 6962,
      "ervo": 6963,
      "249": 6964,
      "fino": 6965,
      "ÑģÑĤ": 6966,
      "99833286": 6967,
      "nNederlands": 6968,
      "ĠEklezio": 6969,
      "libroj": 6970,
      "Ġagra": 6971,
      "Ġreduk": 6972,
      "ĠHu": 6973,
      "Mobile": 6974,
      "tintoj": 6975,
      "Ġregule": 6976,
      "ĠLerniloj": 6977,
      "spaco": 6978,
      "777": 6979,
      "Ġdos": 6980,
      "skij": 6981,
      "ÅĻ": 6982,
      "umaj": 6983,
      "Ġaspekto": 6984,
      "Ġprofesia": 6985,
      "Ġklientoj": 6986,
      "uld": 6987,
      "inan": 6988,
      "Ġiliajn": 6989,
      "Ġprojekton": 6990,
      "eople": 6991,
      "áĥĲ": 6992,
      "812": 6993,
      "pion": 6994,
      "ĮeÅ¡tina": 6995,
      "ep": 6996,
      "052": 6997,
      "kato": 6998,
      "vans": 6999,
      "ombo": 7000,
      "Ġrakontoj": 7001,
      "ĠRobert": 7002,
      "ĠTutmonda": 7003,
      "869": 7004,
      "nRila": 7005,
      "ĠÄĿisda": 7006,
      "Ġkomputilo": 7007,
      "AG": 7008,
      "Ġian": 7009,
      "Ġchi": 7010,
      "àª": 7011,
      "Ġaraba": 7012,
      "Ġmun": 7013,
      "bus": 7014,
      "agy": 7015,
      "9922": 7016,
      "Ġ1992": 7017,
      "442": 7018,
      "093": 7019,
      "SUG": 7020,
      "íķľêµŃ": 7021,
      "ques": 7022,
      "Ġplus": 7023,
      "dad": 7024,
      "Ġpapo": 7025,
      "kadon": 7026,
      "Ġebligi": 7027,
      "663": 7028,
      "tikedo": 7029,
      "nSim": 7030,
      "pitaj": 7031,
      "Ġfan": 7032,
      "turn": 7033,
      "ĠkaÅŃzis": 7034,
      "162": 7035,
      "igan": 7036,
      "Ġ1960": 7037,
      "displa": 7038,
      "íķľêµŃìĸ´": 7039,
      "QQ": 7040,
      "119": 7041,
      "ĠVla": 7042,
      "blog": 7043,
      "336": 7044,
      "ĠPeter": 7045,
      "áĥĲáĥ": 7046,
      "Ġverkojn": 7047,
      "pole": 7048,
      "Ġorgan": 7049,
      "Ġkapablo": 7050,
      "ril": 7051,
      "Ġindiki": 7052,
      "Ġintelig": 7053,
      "ĠElek": 7054,
      "Ġ1995": 7055,
      "Ġnega": 7056,
      "IB": 7057,
      "250": 7058,
      "ĠKubo": 7059,
      "Ġimpos": 7060,
      "umado": 7061,
      "kola": 7062,
      "aÅŃto": 7063,
      "ric": 7064,
      "nejo": 7065,
      "Ġplenkres": 7066,
      "Ġkresko": 7067,
      "Ã¶r": 7068,
      "kli": 7069,
      "Ġforumo": 7070,
      "Ġ300": 7071,
      "ĠvojaÄĿo": 7072,
      "\\\")": 7073,
      "Ġalte": 7074,
      "ĠmesaÄĿon": 7075,
      "ĠReÄĿ": 7076,
      "fika": 7077,
      "kursoj": 7078,
      "279": 7079,
      "cero": 7080,
      "Ã¹": 7081,
      "tekoj": 7082,
      "VP": 7083,
      "Ġvento": 7084,
      "ĠGlo": 7085,
      "Ġskribas": 7086,
      "×Ļ×ª": 7087,
      "Ġaferon": 7088,
      "tien": 7089,
      "Ð»Ð³": 7090,
      "Ġlernantoj": 7091,
      "Ġukra": 7092,
      "entis": 7093,
      ",[": 7094,
      "WS": 7095,
      "Ġfojo": 7096,
      "Ġkomenton": 7097,
      "Ġkuracisto": 7098,
      "VD": 7099,
      "Ġ34": 7100,
      "377": 7101,
      "212": 7102,
      "Ġkvara": 7103,
      "mann": 7104,
      "Ġ36": 7105,
      "ĠRetoso": 7106,
      "Ġkonto": 7107,
      "403": 7108,
      "els": 7109,
      "aleco": 7110,
      "ĠFrank": 7111,
      "rienta": 7112,
      "Ġklarigas": 7113,
      "Ġatenton": 7114,
      "Ġfas": 7115,
      "Ġgus": 7116,
      "Ġuzita": 7117,
      "Ġtutmonde": 7118,
      "Ã¼rkÃ§e": 7119,
      "9453": 7120,
      "Ġmalsamoj": 7121,
      "Ġcivitanoj": 7122,
      "XO": 7123,
      "Ġmig": 7124,
      "vinco": 7125,
      "legi": 7126,
      "ĠYou": 7127,
      "encas": 7128,
      "ebleco": 7129,
      "MA": 7130,
      "igar": 7131,
      "provi": 7132,
      "Ġhelpos": 7133,
      "tologio": 7134,
      "Ġaktivas": 7135,
      "Õ¥": 7136,
      "ĠHun": 7137,
      "!!": 7138,
      "jojn": 7139,
      "rajno": 7140,
      "Ġ)": 7141,
      "Ġtablo": 7142,
      "ĠserÄīi": 7143,
      "IG": 7144,
      "nä¸Ńæĸĩ": 7145,
      "eko": 7146,
      "Ġopinion": 7147,
      "Ġfeb": 7148,
      "Ġproprajn": 7149,
      "Ġalum": 7150,
      "nSvenska": 7151,
      "nNov": 7152,
      "tataj": 7153,
      "dona": 7154,
      "Ġkapti": 7155,
      "ĠMat": 7156,
      "Ġatin": 7157,
      "ĠinÄĿeni": 7158,
      "ĠDie": 7159,
      "nSh": 7160,
      "Ġ1991": 7161,
      "ãģ¦": 7162,
      "862706": 7163,
      "âĢŀ": 7164,
      "99953": 7165,
      "viÄī": 7166,
      "nMapo": 7167,
      "Kio": 7168,
      "81862706": 7169,
      "ĠEÅŃ": 7170,
      "Ġkomuniki": 7171,
      "paglia": 7172,
      "Ma": 7173,
      "ĠSocia": 7174,
      "ttapaglia": 7175,
      "9915": 7176,
      "TR": 7177,
      "Ġ(...": 7178,
      "Ġ250": 7179,
      "cn": 7180,
      "sed": 7181,
      "temo": 7182,
      "Ġras": 7183,
      "meti": 7184,
      "831": 7185,
      "271": 7186,
      "Ġunun": 7187,
      "nÐ£ÐºÑĢÐ°ÑĹÐ½ÑģÑĮÐºÐ°": 7188,
      "215": 7189,
      "tona": 7190,
      "ĠIzrael": 7191,
      "ĠTor": 7192,
      "ĠVikida": 7193,
      "8764461": 7194,
      "Ġpartioj": 7195,
      "ĠOkcidenta": 7196,
      "181": 7197,
      "nEsperan": 7198,
      "Ġapliki": 7199,
      "Ġfenestro": 7200,
      "ĠCetere": 7201,
      "ĠfiniÄĿis": 7202,
      "tristo": 7203,
      "łáĥ": 7204,
      "ĠIrano": 7205,
      "Ġpeti": 7206,
      "bran": 7207,
      "kie": 7208,
      "Ġdiferenco": 7209,
      "ãĢģ": 7210,
      "ĠDuo": 7211,
      "Ġpriskribo": 7212,
      "Ġ05": 7213,
      "Ġelektr": 7214,
      "Ġalfron": 7215,
      "ĠÄīielo": 7216,
      "99946": 7217,
      "Ġrevi": 7218,
      "dukita": 7219,
      "ics": 7220,
      "Ġdirektoro": 7221,
      "Ġsekureco": 7222,
      "ĠNorda": 7223,
      "tronom": 7224,
      "Ġgej": 7225,
      "Ġkonci": 7226,
      "ĠFar": 7227,
      "ĠLitovio": 7228,
      "Ġsx": 7229,
      "tenas": 7230,
      "Ġurb": 7231,
      "Ġski": 7232,
      "tinoj": 7233,
      "ĠMac": 7234,
      "JF": 7235,
      "Õ¶": 7236,
      "rina": 7237,
      "Ġkonfes": 7238,
      "ĠAÅŃstralio": 7239,
      "Ġfalis": 7240,
      "Ġhezi": 7241,
      "tikan": 7242,
      "tana": 7243,
      "Ġcelon": 7244,
      "Ġgo": 7245,
      "ÑĪ": 7246,
      "Ġsencon": 7247,
      "Ã¥l": 7248,
      "pid": 7249,
      "ieroj": 7250,
      "8383157": 7251,
      "MO": 7252,
      "Ġmunici": 7253,
      "232": 7254,
      "ĠInf": 7255,
      "amilio": 7256,
      "011": 7257,
      "300": 7258,
      "Ġita": 7259,
      "Ġrespondi": 7260,
      "Ġ06": 7261,
      "Ġsubpre": 7262,
      "ĠVieno": 7263,
      "erio": 7264,
      "Ġsimilas": 7265,
      "matiko": 7266,
      "Ġfilozofio": 7267,
      "nEkz": 7268,
      "Ġforlasis": 7269,
      "Ġprezoj": 7270,
      "Ġpros": 7271,
      "Ġvivan": 7272,
      "372": 7273,
      "Ġnecesa": 7274,
      "hen": 7275,
      "Å¼": 7276,
      "ĠRevolu": 7277,
      "342": 7278,
      "tuli": 7279,
      "Ġmalfeli": 7280,
      "pel": 7281,
      "Ġriver": 7282,
      "Ġstudentoj": 7283,
      "99976295": 7284,
      "Ġinspi": 7285,
      "dosi": 7286,
      "nCatalÃł": 7287,
      "ĠsufiÄīas": 7288,
      "nhttp": 7289,
      "Ġallo": 7290,
      "ĠAfrika": 7291,
      "poni": 7292,
      "funkci": 7293,
      "97929996": 7294,
      "448": 7295,
      "ĠJosÃ©": 7296,
      "707": 7297,
      "sl": 7298,
      "Ġdonacoj": 7299,
      "ĠseksneÅŃtra": 7300,
      "nÐ¡": 7301,
      "Ġkonstruado": 7302,
      "plej": 7303,
      "quo": 7304,
      "Ġmanon": 7305,
      "ĠIndonesia": 7306,
      "vigo": 7307,
      "ejmo": 7308,
      "Ġtavo": 7309,
      "ekzemple": 7310,
      "Ġdetermin": 7311,
      "Ġtraduki": 7312,
      "Ġprezento": 7313,
      "krimin": 7314,
      "lago": 7315,
      "Ġlerno": 7316,
      "838": 7317,
      "9917": 7318,
      "Ġoficejo": 7319,
      "Ġeblo": 7320,
      "2013": 7321,
      "ĠThomas": 7322,
      "UT": 7323,
      "yn": 7324,
      "Ġstabi": 7325,
      "Ġklasika": 7326,
      "9963": 7327,
      "trojn": 7328,
      "andoj": 7329,
      "830": 7330,
      "panoj": 7331,
      "Ġgermanaj": 7332,
      "142": 7333,
      "ĠÅĿanÄĿis": 7334,
      "121": 7335,
      "00007": 7336,
      "Ġprofunde": 7337,
      "ĠdisvolviÄĿo": 7338,
      "Ġkampoj": 7339,
      "Ġcxe": 7340,
      "idon": 7341,
      "832": 7342,
      "Ġmetro": 7343,
      "Ġaldonu": 7344,
      "El": 7345,
      "LC": 7346,
      "reco": 7347,
      "UO": 7348,
      "ĠRez": 7349,
      "431": 7350,
      "Ġ07": 7351,
      "Ġarkitek": 7352,
      "Ġbirdoj": 7353,
      "Ġokulojn": 7354,
      "Ġfinanca": 7355,
      "nLT": 7356,
      "ĠRich": 7357,
      "Ġkoncernas": 7358,
      "nÃ": 7359,
      "ĠKarman": 7360,
      "geta": 7361,
      "taria": 7362,
      "Ġkompleks": 7363,
      "Ġagoj": 7364,
      "ĠParlamento": 7365,
      "Ġsimbolo": 7366,
      "Ġkondukis": 7367,
      "ĠÅĿto": 7368,
      "ĠÅĿtata": 7369,
      "Ġkomfor": 7370,
      "PP": 7371,
      "ĠÄīefministro": 7372,
      "Ġtradicio": 7373,
      "879": 7374,
      "rista": 7375,
      "Ġproponojn": 7376,
      "141": 7377,
      "Ġprepari": 7378,
      "Ġ1993": 7379,
      "urig": 7380,
      "Ġkonati": 7381,
      "nAfiÅĿita": 7382,
      "Ġvarme": 7383,
      "tiloj": 7384,
      "graph": 7385,
      "028": 7386,
      "016": 7387,
      "Ġdiplomati": 7388,
      "ĠGer": 7389,
      "Ġkonver": 7390,
      "ĠSvedio": 7391,
      "áº¿": 7392,
      "gov": 7393,
      "ĠRevuo": 7394,
      "ĠMalfer": 7395,
      "Ġefika": 7396,
      "ĠMaj": 7397,
      "Ġmonum": 7398,
      "mena": 7399,
      "Ġmer": 7400,
      "Ġkonvers": 7401,
      "JS": 7402,
      "ĠDom": 7403,
      "Ġkonstante": 7404,
      "ĠSom": 7405,
      "Ġgravajn": 7406,
      "nKar": 7407,
      "Ġjudoj": 7408,
      "km": 7409,
      "920": 7410,
      "linoj": 7411,
      "nEkde": 7412,
      "Ġsituacion": 7413,
      "Ġoperaci": 7414,
      "Ġakto": 7415,
      "ĠGar": 7416,
      "Ġpostaj": 7417,
      "áĢ¬": 7418,
      "99933": 7419,
      "une": 7420,
      "dustri": 7421,
      "kte": 7422,
      "ĠkontraÅŃsta": 7423,
      "orizon": 7424,
      "ÅĿitaj": 7425,
      "ĠÄīiujare": 7426,
      "vig": 7427,
      "Ġ?\\": 7428,
      "ĠSuda": 7429,
      "Ġlegantoj": 7430,
      "yo": 7431,
      "861": 7432,
      "pensi": 7433,
      "ĠÐ²": 7434,
      "anioj": 7435,
      "nCon": 7436,
      "Ġkvad": 7437,
      "ĠAnglio": 7438,
      "022": 7439,
      "WK": 7440,
      "tim": 7441,
      "ĠPres": 7442,
      "ĠTom": 7443,
      "881": 7444,
      "Ġepisko": 7445,
      "289": 7446,
      "Ġknabo": 7447,
      "262": 7448,
      "ĠkonstruaÄµo": 7449,
      "monatotri": 7450,
      "Ġkatastro": 7451,
      "Ġdifini": 7452,
      "Øª": 7453,
      "Ġreala": 7454,
      "Cen": 7455,
      "mika": 7456,
      "Ġpastro": 7457,
      "ich": 7458,
      "ĠDiskuto": 7459,
      "Ġesplorado": 7460,
      "nh": 7461,
      "kupo": 7462,
      "Ġigas": 7463,
      "Ġrevu": 7464,
      "Ġkomisiono": 7465,
      "ĠOkt": 7466,
      "sian": 7467,
      "nVia": 7468,
      "nre": 7469,
      "9943": 7470,
      "donu": 7471,
      "Ġprojek": 7472,
      "menta": 7473,
      "Ġkutima": 7474,
      "endaro": 7475,
      "282": 7476,
      "Ġsana": 7477,
      "Ġil": 7478,
      "539": 7479,
      "Ġfondis": 7480,
      "Ġbab": 7481,
      "rigita": 7482,
      "ĠÅĿian": 7483,
      "Ġklaso": 7484,
      "Ð»Ð³Ð°ÑĢ": 7485,
      "nFacebook": 7486,
      "EO": 7487,
      "ĠGal": 7488,
      "Ġsinsek": 7489,
      "Ġkolon": 7490,
      "Ġorganizi": 7491,
      "ĠPh": 7492,
      "ĠUsona": 7493,
      "Ġsemajnoj": 7494,
      "tivoj": 7495,
      "NC": 7496,
      "ĠBela": 7497,
      "Ġciviliz": 7498,
      "/\\": 7499,
      "Trans": 7500,
      "medo": 7501,
      "Ġentreprenoj": 7502,
      "Ġdemokratio": 7503,
      "displays": 7504,
      "Ġenga": 7505,
      "Ġefikon": 7506,
      "ĠrulseÄĿon": 7507,
      "Ġspirito": 7508,
      "pin": 7509,
      "472": 7510,
      "Ġprizorg": 7511,
      "Ġkunlabori": 7512,
      "Ġprenas": 7513,
      "ĠBru": 7514,
      "ĠHan": 7515,
      "ira": 7516,
      "952": 7517,
      "ĠaliÄĿis": 7518,
      "/?": 7519,
      "RGO": 7520,
      "858": 7521,
      "Ġstrategio": 7522,
      "Ġkoncentri": 7523,
      "UB": 7524,
      "Ġprogramon": 7525,
      "displaystyle": 7526,
      "teblaj": 7527,
      "441": 7528,
      "nMul": 7529,
      "DCF": 7530,
      "189": 7531,
      "375": 7532,
      "ektita": 7533,
      "Ġkoti": 7534,
      "IZ": 7535,
      "Ġkialo": 7536,
      "664": 7537,
      "Ġstudoj": 7538,
      "Ġprepar": 7539,
      "ĠÅĿiaj": 7540,
      "Ġrol": 7541,
      "Ġreen": 7542,
      "459": 7543,
      "Ġfri": 7544,
      "Ġmaltran": 7545,
      "941": 7546,
      "nUser": 7547,
      "ada": 7548,
      "ebsi": 7549,
      "Ġvolonte": 7550,
      "ksidebla": 7551,
      "717": 7552,
      "nEd": 7553,
      "partem": 7554,
      "ĠantaÅŃvid": 7555,
      "nÄĪef": 7556,
      "Ġsubstan": 7557,
      "næĹ¥æľ¬èªŀ": 7558,
      "ĠGe": 7559,
      "WH": 7560,
      "dejo": 7561,
      "128": 7562,
      "ĠIL": 7563,
      "ĠÄĪina": 7564,
      "ĠreÄĿimo": 7565,
      "nCountry": 7566,
      "?âĢĿ": 7567,
      "149": 7568,
      "mante": 7569,
      "ospita": 7570,
      "Ġbro": 7571,
      "9685439": 7572,
      "ĠBelgio": 7573,
      "ĠBre": 7574,
      "Ġ01": 7575,
      "110": 7576,
      "Inter": 7577,
      "à±": 7578,
      "Ġorganizoj": 7579,
      "NO": 7580,
      "Ġparlamen": 7581,
      "Ġturis": 7582,
      "nDankon": 7583,
      "99913": 7584,
      "Ġkursoj": 7585,
      "422": 7586,
      "IY": 7587,
      "sin": 7588,
      "Ġadmi": 7589,
      "IH": 7590,
      "Ġasertas": 7591,
      "Ġmalkon": 7592,
      "ĠEkzistas": 7593,
      "oks": 7594,
      "948": 7595,
      "Ġteknologio": 7596,
      "klas": 7597,
      "Ġmes": 7598,
      "ĠTion": 7599,
      "452": 7600,
      "Ġ1945": 7601,
      "upra": 7602,
      "taÄµojn": 7603,
      "Ġlimo": 7604,
      "Ġnuntempa": 7605,
      "Ġrilatojn": 7606,
      "ĠruÄĿa": 7607,
      "erojn": 7608,
      "Ġ03": 7609,
      "ĠaranÄĿo": 7610,
      "nÐĳÐµÐ»Ð°ÑĢÑĥÑģÐºÐ°Ñı": 7611,
      "nÙģØ§Ø±Ø³ÛĮ": 7612,
      "Ġskulp": 7613,
      "ĠTeo": 7614,
      "ĠGrattapaglia": 7615,
      "Î¹ÎºÎ": 7616,
      "let": 7617,
      "kategori": 7618,
      "Ġvenos": 7619,
      "Ġmencias": 7620,
      "Ġmovi": 7621,
      "Ġhid": 7622,
      "Ġpretas": 7623,
      "Ġ46": 7624,
      "Ġjuro": 7625,
      "mÃ¥l": 7626,
      "ob": 7627,
      "nFebruaro": 7628,
      "Ġfini": 7629,
      "9927": 7630,
      "Ġkontribui": 7631,
      "Ġmagne": 7632,
      "des": 7633,
      "UJ": 7634,
      "talogo": 7635,
      "890": 7636,
      "Ġsimp": 7637,
      "mund": 7638,
      "saluti": 7639,
      "trak": 7640,
      "Ġestro": 7641,
      "ĠmalÅĿ": 7642,
      "Äīer": 7643,
      "Ġrajtojn": 7644,
      "764": 7645,
      "000059": 7646,
      "Ġdankon": 7647,
      "nEr": 7648,
      "Ġreprezentas": 7649,
      "Ġsubtenon": 7650,
      "nÄĮeÅ¡tina": 7651,
      "268": 7652,
      "Ġservis": 7653,
      "gin": 7654,
      "Ġmeri": 7655,
      "Ġkonker": 7656,
      "vorto": 7657,
      "ĠTam": 7658,
      "nAnkaÅŃ": 7659,
      "uskara": 7660,
      "Ġtempoj": 7661,
      "Ġdemandon": 7662,
      "Ġkreskas": 7663,
      "deble": 7664,
      "374": 7665,
      "Ġrenkontis": 7666,
      "ĠWar": 7667,
      "ĠDemokra": 7668,
      "raÅŃ": 7669,
      "angla": 7670,
      "Ġbezonoj": 7671,
      "859": 7672,
      "367": 7673,
      "ĠAleksandro": 7674,
      "Ġdro": 7675,
      "ist": 7676,
      "elegi": 7677,
      "Ġorganizantoj": 7678,
      "Ġfab": 7679,
      "841": 7680,
      "479": 7681,
      "ĠIrlando": 7682,
      "dge": 7683,
      "nAs": 7684,
      "ikisto": 7685,
      "Ġekzisto": 7686,
      "bado": 7687,
      "Ġprokla": 7688,
      "238": 7689,
      "ziaj": 7690,
      "nhttps": 7691,
      "ermo": 7692,
      "Ġbok": 7693,
      "nSci": 7694,
      "ĠÄµurnalisto": 7695,
      "ebre": 7696,
      "Ġdokumentoj": 7697,
      "tiÄĿi": 7698,
      "pere": 7699,
      "364": 7700,
      "776": 7701,
      "donejo": 7702,
      "ĠNeniu": 7703,
      "Ġareoj": 7704,
      "Ġkaf": 7705,
      "Ġadres": 7706,
      "Ġsekretario": 7707,
      "Ġhejme": 7708,
      "Ġpolitikisto": 7709,
      "oso": 7710,
      "zioj": 7711,
      "Ġsens": 7712,
      "Ġvero": 7713,
      "uras": 7714,
      "ĠKie": 7715,
      "Ġkontinento": 7716,
      "039": 7717,
      "ĠArmeo": 7718,
      "Ġaer": 7719,
      "lata": 7720,
      "ĠretpoÅĿton": 7721,
      "Ġcxiuj": 7722,
      "bg": 7723,
      "nMem": 7724,
      "095": 7725,
      "Ġlernado": 7726,
      "UC": 7727,
      "Ġurba": 7728,
      "Ġanoncis": 7729,
      "á»ĩ": 7730,
      "nJes": 7731,
      "Ġsupoz": 7732,
      "ĠMichael": 7733,
      "NK": 7734,
      "dus": 7735,
      "Ġmuro": 7736,
      "ĠQu": 7737,
      "Ġsukcesa": 7738,
      "Ġglo": 7739,
      "Ġrive": 7740,
      "251": 7741,
      "ĠMondmilito": 7742,
      "bay": 7743,
      "942": 7744,
      "gk": 7745,
      "Ġharm": 7746,
      "159": 7747,
      "Ġetiked": 7748,
      "Ġprov": 7749,
      "nØ§ÙĦØ¹Ø±Ø¨ÙĬØ©": 7750,
      "als": 7751,
      "ose": 7752,
      "Ġpolico": 7753,
      "×ĳ×¨": 7754,
      "ĠÄīapi": 7755,
      "Ġtelefon": 7756,
      "Ġpodkas": 7757,
      "Ġdolaroj": 7758,
      "Ġdank": 7759,
      "TV": 7760,
      "dra": 7761,
      "akon": 7762,
      "Ġaf": 7763,
      "ĠOce": 7764,
      "inger": 7765,
      "Ġkaraktero": 7766,
      "Î»Î»": 7767,
      "Diff": 7768,
      "Ġdiru": 7769,
      "Ġkandidatoj": 7770,
      "DL": 7771,
      "the": 7772,
      "Ġprivata": 7773,
      "131": 7774,
      "ĠIsla": 7775,
      "892": 7776,
      "Ġedzo": 7777,
      "ĠMus": 7778,
      "ĠLatin": 7779,
      "ĠGil": 7780,
      "Ġsento": 7781,
      "Ġabon": 7782,
      "ĠGoogle": 7783,
      "ÑĬÐ»Ð³Ð°ÑĢ": 7784,
      "Ġmeza": 7785,
      "Ġsurfaco": 7786,
      "Î·Î½": 7787,
      "Ġthis": 7788,
      "Ġfamilioj": 7789,
      "118": 7790,
      "MobileDiff": 7791,
      "Ġ)\\": 7792,
      "altu": 7793,
      "keo": 7794,
      "ÄĿantaj": 7795,
      "ĠPaÅŃlo": 7796,
      "nBas": 7797,
      "ÄĿintaj": 7798,
      "Ġkonsekven": 7799,
      "nTwitter": 7800,
      "Ġebla": 7801,
      "Ġgaze": 7802,
      "EY": 7803,
      "Ġmalka": 7804,
      "Ġvenkis": 7805,
      "Ġpensoj": 7806,
      "Ġepizo": 7807,
      "tipo": 7808,
      "Ġgrandeco": 7809,
      "Ġdoi": 7810,
      "Ġkatolika": 7811,
      "nel": 7812,
      "ĠbokmÃ¥l": 7813,
      "ln": 7814,
      "Ġlang": 7815,
      "diloj": 7816,
      "ĠDes": 7817,
      "nå": 7818,
      "Ġ43": 7819,
      "\\\"),": 7820,
      "bloj": 7821,
      "Ġorto": 7822,
      "vangel": 7823,
      "Ġpozicio": 7824,
      "Ġsamaj": 7825,
      "kras": 7826,
      "Ġpura": 7827,
      "Ġsuk": 7828,
      "99799": 7829,
      "ĠKomer": 7830,
      "Ġmanojn": 7831,
      "breto": 7832,
      "Ð°ÑĪ": 7833,
      "vila": 7834,
      "Reply": 7835,
      "PL": 7836,
      "jna": 7837,
      "ise": 7838,
      "Ġvort": 7839,
      "Ġ201111": 7840,
      "ĠChris": 7841,
      "Ġmalsamajn": 7842,
      "303": 7843,
      "SF": 7844,
      "vortoj": 7845,
      "503": 7846,
      "Ġalven": 7847,
      "ĠSto": 7848,
      "Ġverda": 7849,
      "Ġsekre": 7850,
      "sia": 7851,
      "terojn": 7852,
      "Ġvenonta": 7853,
      "tagoj": 7854,
      "amaj": 7855,
      "ÑĬÐ»Ð³Ð°ÑĢÑģÐºÐ¸": 7856,
      "_%": 7857,
      "9706": 7858,
      "manoj": 7859,
      "239": 7860,
      "337": 7861,
      "Ġkomuniko": 7862,
      "tikistoj": 7863,
      "....": 7864,
      "ĠPaÄĿo": 7865,
      "Ġprofunda": 7866,
      "Ġkonflikto": 7867,
      "áº¿ng": 7868,
      "Ġnombron": 7869,
      "á»ĩt": 7870,
      "fona": 7871,
      "99957": 7872,
      "0000597": 7873,
      "Ġcirkons": 7874,
      "Ġkulturaj": 7875,
      "gonom": 7876,
      "Ġtrafi": 7877,
      "So": 7878,
      "TH": 7879,
      "Ġinteg": 7880,
      "ĠAb": 7881,
      "083": 7882,
      "TL": 7883,
      "WM": 7884,
      "Ġjenaj": 7885,
      "ĠFonto": 7886,
      "99955": 7887,
      "132": 7888,
      "Ġfako": 7889,
      "Ġcetere": 7890,
      "363": 7891,
      "ĠGro": 7892,
      "1676": 7893,
      "Ġanim": 7894,
      "2009": 7895,
      "ĠIuj": 7896,
      "ĠCha": 7897,
      "Ġrezultoj": 7898,
      "ĠJul": 7899,
      "ĠMalay": 7900,
      "493": 7901,
      "Ġtridek": 7902,
      "nOftaj": 7903,
      "ward": 7904,
      "ujon": 7905,
      "ĠFil": 7906,
      "kiÄĿis": 7907,
      "Ġtradiciaj": 7908,
      "festo": 7909,
      "Ã«": 7910,
      "Ġarbo": 7911,
      "pta": 7912,
      "9607": 7913,
      "Ġdissen": 7914,
      "Î¹ÎºÎ¬": 7915,
      "402": 7916,
      "Ġangle": 7917,
      "XY": 7918,
      "Ġtrapas": 7919,
      "¡Õµ": 7920,
      "Î»Î»Î·Î½": 7921,
      "lande": 7922,
      "Ġligno": 7923,
      "ĠTel": 7924,
      "Ġobjektoj": 7925,
      "nÄĥ": 7926,
      "nPriskribo": 7927,
      "Ġdistan": 7928,
      "sor": 7929,
      "Ġvak": 7930,
      "Ġekkon": 7931,
      "Ġgajnis": 7932,
      "902": 7933,
      "OC": 7934,
      "Ġvenko": 7935,
      "Ġliajn": 7936,
      "221": 7937,
      "Ġankaux": 7938,
      "Ġiama": 7939,
      "Ġministro": 7940,
      "ĠAzer": 7941,
      "ĠCerte": 7942,
      "ĠÅĿtu": 7943,
      "ÑģÐºÐ¾": 7944,
      "151": 7945,
      "Ġformas": 7946,
      "Ġcm": 7947,
      "Ġnombroj": 7948,
      "Ġkomentojn": 7949,
      "Ġmikro": 7950,
      "Ġkonserva": 7951,
      "Ġinternacian": 7952,
      "RG": 7953,
      "istojn": 7954,
      "Ġjunulara": 7955,
      "muziknotoj": 7956,
      "Ã¢nÄĥ": 7957,
      "forme": 7958,
      "ÐµÐ½": 7959,
      "Ð°Ð·": 7960,
      "Ġnaturaj": 7961,
      "ĠSep": 7962,
      "Ġlingvis": 7963,
      "Ġdig": 7964,
      "materi": 7965,
      "AV": 7966,
      "Ġmembrojn": 7967,
      "respondi": 7968,
      "}}\\": 7969,
      "Ġtrom": 7970,
      "Ġpaf": 7971,
      "Ġlanda": 7972,
      "Ġprezentita": 7973,
      "ĠUnue": 7974,
      "insulo": 7975,
      "hal": 7976,
      "asis": 7977,
      "ĠÄīees": 7978,
      "ĠViá»ĩt": 7979,
      "1994": 7980,
      "sojn": 7981,
      "ĠFeb": 7982,
      "248": 7983,
      "ecaj": 7984,
      "Ġnukle": 7985,
      "Ġmalofte": 7986,
      "RK": 7987,
      "zajno": 7988,
      "Ġtan": 7989,
      "542": 7990,
      "458": 7991,
      "ÉĻ": 7992,
      "forumo": 7993,
      "Ġforigitaj": 7994,
      "ĠEdukado": 7995,
      "danto": 7996,
      "765": 7997,
      "Ġdifino": 7998,
      "Am": 7999,
      "ĠMy": 8000,
      "ĠBern": 8001,
      "Ġkorespon": 8002,
      "Ġkra": 8003,
      "Ġlago": 8004,
      "unde": 8005,
      "Ġtim": 8006,
      "níķľêµŃìĸ´": 8007,
      "lina": 8008,
      "tekto": 8009,
      "Ġliston": 8010,
      "Ġinstitucioj": 8011,
      "rimley": 8012,
      "pezaj": 8013,
      "ĠBrita": 8014,
      "Ġsimpto": 8015,
      "Ġaltkva": 8016,
      "pers": 8017,
      "nNav": 8018,
      "Ġordonis": 8019,
      "Î»Î»Î·Î½Î¹ÎºÎ¬": 8020,
      "article": 8021,
      "ksoj": 8022,
      "nTele": 8023,
      "nKial": 8024,
      "Ġfing": 8025,
      "ige": 8026,
      "ĠdaÅŃras": 8027,
      "Ġvespero": 8028,
      "Ã½": 8029,
      "169": 8030,
      "Ġ33": 8031,
      "borg": 8032,
      "rdin": 8033,
      "ultura": 8034,
      "Ġkredo": 8035,
      "ĠSekve": 8036,
      "478": 8037,
      "Ġlimigita": 8038,
      "Ġmapo": 8039,
      "WF": 8040,
      "087": 8041,
      "261": 8042,
      "Ġprincipo": 8043,
      "ÑĢÐ¿ÑģÐºÐ¸": 8044,
      "dape": 8045,
      "Ġlongan": 8046,
      "Ġgermanoj": 8047,
      "ĠDen": 8048,
      "page": 8049,
      "nTEJO": 8050,
      "Ġmalgrandan": 8051,
      "9905": 8052,
      "ãģ«": 8053,
      "Ġmetroj": 8054,
      "158": 8055,
      "209": 8056,
      "ĠLen": 8057,
      "Ġglu": 8058,
      "Ġmaljuna": 8059,
      "Ġkoloro": 8060,
      "Ġkonkre": 8061,
      "liaj": 8062,
      "doro": 8063,
      "ĠKro": 8064,
      "Ġprizor": 8065,
      "ĠGrekio": 8066,
      "ĠKal": 8067,
      "Ġparlamento": 8068,
      "ĠSw": 8069,
      "Ġkantis": 8070,
      "Ġdialo": 8071,
      "Ġminer": 8072,
      "Ġkolo": 8073,
      "ĠdaÅŃrigi": 8074,
      "Ġprun": 8075,
      "Ġit": 8076,
      "451": 8077,
      "×¢×ĳ×¨": 8078,
      "nSuomi": 8079,
      "ĠKla": 8080,
      "rekven": 8081,
      "×¢×ĳ×¨×Ļ×ª": 8082,
      "ķÎ»Î»Î·Î½Î¹ÎºÎ¬": 8083,
      "Äīeco": 8084,
      "anio": 8085,
      "ĠBro": 8086,
      "ĠAsembleo": 8087,
      "QH": 8088,
      "nEks": 8089,
      "Ġmilita": 8090,
      "Ġesprimas": 8091,
      "diÄīoj": 8092,
      "Ġadreso": 8093,
      "ĠDC": 8094,
      "Ġdifinita": 8095,
      "ĠMovado": 8096,
      "PC": 8097,
      "Ġ:\\": 8098,
      "ols": 8099,
      "nÄĪiu": 8100,
      "**": 8101,
      "ĠKato": 8102,
      "Ġanarki": 8103,
      "Ġtalen": 8104,
      "Ġpezo": 8105,
      "Ġstul": 8106,
      "9453278": 8107,
      "Ġrealigi": 8108,
      "kvili": 8109,
      "nÅ": 8110,
      "Ġportugala": 8111,
      "Ġredaktoro": 8112,
      "ĠKulturo": 8113,
      "emajn": 8114,
      "XH": 8115,
      "Ġplas": 8116,
      "Ġblogo": 8117,
      "ĠankaÅŃRedakti": 8118,
      "Ġfinis": 8119,
      "UV": 8120,
      "Ġkomisi": 8121,
      "269": 8122,
      "Ġpartojn": 8123,
      "ĠiÄĿi": 8124,
      "elect": 8125,
      "nÅľta": 8126,
      "ÄĿerio": 8127,
      "erre": 8128,
      "ĠFern": 8129,
      "vali": 8130,
      "Ð¸Ð½": 8131,
      "anco": 8132,
      "lika": 8133,
      "lingve": 8134,
      "Ġgvidantoj": 8135,
      "ĠrenkontiÄĿoj": 8136,
      "Ġama": 8137,
      "ĠKen": 8138,
      "aki": 8139,
      "Ġverkita": 8140,
      "9991558": 8141,
      "ĠJus": 8142,
      "WZ": 8143,
      "tacio": 8144,
      "anu": 8145,
      "8607": 8146,
      "042": 8147,
      "471": 8148,
      "Nov": 8149,
      "Äīita": 8150,
      "Ġpil": 8151,
      "Ġdeli": 8152,
      "ajnas": 8153,
      "Ġformato": 8154,
      "Ġresumo": 8155,
      "agyar": 8156,
      "zen": 8157,
      "tivan": 8158,
      "Ġludoj": 8159,
      "Ġvarma": 8160,
      "ĠTwitter": 8161,
      "Ġnav": 8162,
      "Ġatingas": 8163,
      "ĠaÅŃskulti": 8164,
      "Ġsupozas": 8165,
      "Õ¥ÖĢÕ": 8166,
      "serva": 8167,
      "Ġmuzikon": 8168,
      "Ġeliris": 8169,
      "ĠLudoviko": 8170,
      "profi": 8171,
      "Ġmotoro": 8172,
      "nBonvolu": 8173,
      "Ġbr": 8174,
      "569": 8175,
      "okum": 8176,
      "Ġvaloroj": 8177,
      "Ġanalizo": 8178,
      "Ġprogrameroj": 8179,
      "nOkupo": 8180,
      "139": 8181,
      "Ġmiloj": 8182,
      "Ġofta": 8183,
      "Ġindividuoj": 8184,
      "WJ": 8185,
      "Ġegalas": 8186,
      "Ġprobable": 8187,
      "Ġ44": 8188,
      "2000": 8189,
      "Esperan": 8190,
      "ĠFoiro": 8191,
      "mons": 8192,
      "ĠJames": 8193,
      "Ä´": 8194,
      "à¡": 8195,
      "Ġhar": 8196,
      "versaj": 8197,
      "Ġprincipoj": 8198,
      "lingvoj": 8199,
      "QY": 8200,
      "Ġplenan": 8201,
      "Ġmuzika": 8202,
      "PG": 8203,
      "Ġdefi": 8204,
      "Ġpromen": 8205,
      "Ġaliro": 8206,
      "288": 8207,
      "ĠbedaÅŃ": 8208,
      "div": 8209,
      "bis": 8210,
      "009": 8211,
      "ĠPovas": 8212,
      "nAlia": 8213,
      "Ġhejmen": 8214,
      "nSur": 8215,
      "Ġmemoro": 8216,
      "n×¢×ĳ×¨×Ļ×ª": 8217,
      "Ġbov": 8218,
      "Ġneniel": 8219,
      "Ġaspektas": 8220,
      "pÃ©ranto": 8221,
      "KC": 8222,
      "nKvankam": 8223,
      "DO": 8224,
      "ĠdaÅŃris": 8225,
      "Pri": 8226,
      "digo": 8227,
      "089": 8228,
      "Ġkadro": 8229,
      "Ġdiskrimin": 8230,
      "Ġnomi": 8231,
      "Ġreligia": 8232,
      "99988": 8233,
      "Ġteritorioj": 8234,
      "ĠExpress": 8235,
      "domo": 8236,
      "WY": 8237,
      "nTÃ¼rkÃ§e": 8238,
      "Ġplatformo": 8239,
      "ĠMu": 8240,
      "maniero": 8241,
      "XZ": 8242,
      "Ġportas": 8243,
      "vilkarto": 8244,
      "XL": 8245,
      "Ð¾ÑĢ": 8246,
      "nPrin": 8247,
      "Ġdistanco": 8248,
      "ãģ¯": 8249,
      "à¥į": 8250,
      "unaj": 8251,
      "prenu": 8252,
      "552": 8253,
      "Ġproduktas": 8254,
      "Ġdomon": 8255,
      "ls": 8256,
      "Ġpersonaj": 8257,
      "Ġpasis": 8258,
      "971": 8259,
      "Lu": 8260,
      "148": 8261,
      "vineo": 8262,
      "Ġmedi": 8263,
      "Ġekzemploj": 8264,
      "Ġnormala": 8265,
      "nPres": 8266,
      "Ġpand": 8267,
      "idaj": 8268,
      "my": 8269,
      "Ġkato": 8270,
      "timo": 8271,
      "nLoko": 8272,
      "027": 8273,
      "ĠKel": 8274,
      "ĠPen": 8275,
      "ĠSlovakio": 8276,
      "Ġmezo": 8277,
      "Ġprogram": 8278,
      "653": 8279,
      "Ġforpas": 8280,
      "pilo": 8281,
      "Ġletero": 8282,
      "kano": 8283,
      "Ġtimo": 8284,
      "Ġfortan": 8285,
      "ÅŃropa": 8286,
      "ãģĹ": 8287,
      "Ġkondukas": 8288,
      "9923": 8289,
      "Ġornam": 8290,
      "ĠkonstruaÄµoj": 8291,
      "Ġkler": 8292,
      "Ġstranga": 8293,
      "pru": 8294,
      "UY": 8295,
      "inia": 8296,
      "tonoj": 8297,
      "Ġkorpon": 8298,
      "086": 8299,
      "024": 8300,
      "819": 8301,
      "Ð¾Ð»": 8302,
      "Ġsomero": 8303,
      "Ġdata": 8304,
      "Ġpovo": 8305,
      "Ġpreta": 8306,
      "Ġrememo": 8307,
      "9893": 8308,
      "Ġrakontis": 8309,
      "kejo": 8310,
      "âĢĻ,": 8311,
      "Ġmalhelpi": 8312,
      "Kiel": 8313,
      "aÄĿe": 8314,
      "UZ": 8315,
      "Ġlegas": 8316,
      "Ġmalkovris": 8317,
      "irejo": 8318,
      "Ġarbaro": 8319,
      "tiv": 8320,
      "Ġtradukis": 8321,
      "24343": 8322,
      "NG": 8323,
      "Ġblin": 8324,
      "168": 8325,
      "Ġdistingi": 8326,
      "Ġvolo": 8327,
      "Ġton": 8328,
      "259": 8329,
      "Ġripo": 8330,
      "Ġarab": 8331,
      "Ġplantoj": 8332,
      "tugalio": 8333,
      "ĠSame": 8334,
      "nRespondo": 8335,
      "parolo": 8336,
      "Ġsveda": 8337,
      "Ġetoso": 8338,
      "Ġpeople": 8339,
      "99975": 8340,
      "Ġaliron": 8341,
      "nRulse": 8342,
      "plano": 8343,
      "Ġverkistoj": 8344,
      "ror": 8345,
      "citaj": 8346,
      "Ġpropagan": 8347,
      "Ġorganizado": 8348,
      "Ġkonservas": 8349,
      "nSituo": 8350,
      "anaj": 8351,
      "linio": 8352,
      "nJa": 8353,
      "Ġmalak": 8354,
      "Ġestrarano": 8355,
      "todon": 8356,
      "trib": 8357,
      "ĠTag": 8358,
      "NovaÄµoj": 8359,
      "anojn": 8360,
      "Ġpligran": 8361,
      "organi": 8362,
      "Ġligitaj": 8363,
      "Ġdemandi": 8364,
      "ĠNovjor": 8365,
      "Ġnacioj": 8366,
      "Å³": 8367,
      "parky": 8368,
      "Ġkontrolo": 8369,
      "ÅĤaw": 8370,
      "ĠmaÅĿino": 8371,
      "ĠÅĿipo": 8372,
      "ļáĥ": 8373,
      "Ġsendependa": 8374,
      "tinda": 8375,
      "Ġperfekta": 8376,
      "zaÄµoj": 8377,
      "uado": 8378,
      "Ġinterreto": 8379,
      "Ġprofesi": 8380,
      "usal": 8381,
      "932": 8382,
      "nSo": 8383,
      "Ġakadem": 8384,
      "ĠRed": 8385,
      "Ġlernas": 8386,
      "Ġanimo": 8387,
      "rigu": 8388,
      "ĠmanÄĿi": 8389,
      "tegia": 8390,
      "Ġmetodoj": 8391,
      "Ġhuman": 8392,
      "ĠPara": 8393,
      "gula": 8394,
      "Ġaparato": 8395,
      "Ġrespektive": 8396,
      "isa": 8397,
      "9684": 8398,
      "Ġhavu": 8399,
      "9134": 8400,
      "oper": 8401,
      "eraj": 8402,
      "alth": 8403,
      "Ġaven": 8404,
      "Ġdonita": 8405,
      "SH": 8406,
      "UG": 8407,
      "tter": 8408,
      "ulino": 8409,
      "Ġblog": 8410,
      "Ð¸Ðº": 8411,
      "Ġkuketoj": 8412,
      "Ġmiliton": 8413,
      "à©": 8414,
      "Ġmalbone": 8415,
      "tiaj": 8416,
      "ĠpreÄĿ": 8417,
      "Ġeldonita": 8418,
      "nMallonga": 8419,
      "jk": 8420,
      "ĠIREJO": 8421,
      "Ġinfanojn": 8422,
      "ĠmesaÄĿo": 8423,
      "plua": 8424,
      "CCA": 8425,
      "Ġspecio": 8426,
      "nLingvoj": 8427,
      "¡ÕµÕ¥ÖĢÕ": 8428,
      "Ġped": 8429,
      "Ġlandli": 8430,
      "lÃ¡": 8431,
      "ĠMil": 8432,
      "Ġnaz": 8433,
      "Ġintereso": 8434,
      "Ġnaskita": 8435,
      "sr": 8436,
      "Ġparolantoj": 8437,
      "9925": 8438,
      "kante": 8439,
      "ĠØ": 8440,
      "9945": 8441,
      "Ġinterrom": 8442,
      "ĠJES": 8443,
      "Ġvul": 8444,
      "1477": 8445,
      "TY": 8446,
      "amento": 8447,
      "9735": 8448,
      "nNu": 8449,
      "naski": 8450,
      "logion": 8451,
      "Ġhipo": 8452,
      "áĥĲáĥłáĥ": 8453,
      "NH": 8454,
      "1884": 8455,
      "quote": 8456,
      "cin": 8457,
      "406": 8458,
      "porti": 8459,
      "Ġlasis": 8460,
      "Ġspecifa": 8461,
      "neÅŃ": 8462,
      "094": 8463,
      "Ins": 8464,
      "Ġproponon": 8465,
      "ĠKali": 8466,
      "ĠAnstataÅŃ": 8467,
      "Ġsidejo": 8468,
      "Ġeniri": 8469,
      "Ġadministranto": 8470,
      "ĠVikidatumoj": 8471,
      "SK": 8472,
      "008": 8473,
      "551": 8474,
      "291": 8475,
      "Äľi": 8476,
      "NI": 8477,
      "anon": 8478,
      "ĠÄīer": 8479,
      "ĠArgentino": 8480,
      "RY": 8481,
      "German": 8482,
      "etz": 8483,
      "fano": 8484,
      "distoj": 8485,
      "Ġwe": 8486,
      "celi": 8487,
      "958": 8488,
      "2001": 8489,
      ".;": 8490,
      "872": 8491,
      "Ġaliflanke": 8492,
      "092": 8493,
      "NY": 8494,
      "Ġ(âĢľ": 8495,
      "Ġperspekti": 8496,
      "ast": 8497,
      "omen": 8498,
      "Ġsubsekcio": 8499,
      "tedralo": 8500,
      "tekstoj": 8501,
      "ĠKompreneble": 8502,
      "Ġkoncerne": 8503,
      "Ñĸ": 8504,
      "228": 8505,
      "ĠkaÅŃzi": 8506,
      "EH": 8507,
      "Ġrilataj": 8508,
      "ĠVerda": 8509,
      "ÐµÑĢ": 8510,
      "ãĤĴ": 8511,
      "Ġservas": 8512,
      "gna": 8513,
      "ĠFrom": 8514,
      "ement": 8515,
      "Ġdankas": 8516,
      "DM": 8517,
      "Ġ39": 8518,
      "ĠMadrido": 8519,
      "WQ": 8520,
      "Ġkomercaj": 8521,
      "Ġsumo": 8522,
      "ĠÅĿlosi": 8523,
      "gramoj": 8524,
      "Ġintencas": 8525,
      "Ġindas": 8526,
      "Ġkalku": 8527,
      "178": 8528,
      "99895": 8529,
      "ĠGeorge": 8530,
      "XF": 8531,
      "Ġfirmao": 8532,
      "Ġvet": 8533,
      "tonon": 8534,
      "Ġrajto": 8535,
      "ĠKonferenco": 8536,
      "Ġtrupoj": 8537,
      "eon": 8538,
      "Ġrigard": 8539,
      "geno": 8540,
      "Ġmg": 8541,
      "unk": 8542,
      "Ġunuafoje": 8543,
      "029": 8544,
      "Ġsekure": 8545,
      "Ġ65": 8546,
      "Ġvizito": 8547,
      "Ġbrazila": 8548,
      "DY": 8549,
      "Ġkonis": 8550,
      "432": 8551,
      "Ġinstrui": 8552,
      "ĠSinjoro": 8553,
      "nb": 8554,
      "ĠInvers": 8555,
      "Ġseksa": 8556,
      "ĠAlia": 8557,
      "Ġmarbordo": 8558,
      "Ġ37": 8559,
      "nBaskuli": 8560,
      "aten": 8561,
      "423": 8562,
      "Ġlogi": 8563,
      "Ġhan": 8564,
      "ĠPala": 8565,
      "Ġ1987": 8566,
      "99947": 8567,
      "Ġpublikigo": 8568,
      "Ġpraktike": 8569,
      "ĠGor": 8570,
      "Ġdemandas": 8571,
      "elsen": 8572,
      "Ġsubven": 8573,
      "Ġgvidis": 8574,
      "Ġprinco": 8575,
      "Ġokupa": 8576,
      "nKunhavigi": 8577,
      "Ġpal": 8578,
      "ĠSt": 8579,
      "nArtikoloj": 8580,
      "Ġafab": 8581,
      "9937": 8582,
      "peto": 8583,
      "Ġinformi": 8584,
      "ĠaÅŃtomata": 8585,
      "ĠPolitiko": 8586,
      "Ġhier": 8587,
      "bejo": 8588,
      "golando": 8589,
      "Ġderi": 8590,
      "linon": 8591,
      "tuvi": 8592,
      "9386": 8593,
      "Ġdispu": 8594,
      "nIns": 8595,
      "Ġ400": 8596,
      "ĠMuzeo": 8597,
      "Afriko": 8598,
      "mik": 8599,
      "Ġsez": 8600,
      "hom": 8601,
      "rvatski": 8602,
      "ĠAg": 8603,
      "ĠPal": 8604,
      "Ġlimoj": 8605,
      "Ġset": 8606,
      "Ġmalaper": 8607,
      "Ġtun": 8608,
      "Ġkonferenco": 8609,
      "Ġvaloron": 8610,
      "pay": 8611,
      "nNotoj": 8612,
      "820": 8613,
      "baraj": 8614,
      "Ġkoron": 8615,
      "rajto": 8616,
      "Ġdomin": 8617,
      "Ġperforto": 8618,
      "Ġanglan": 8619,
      "£áĥ": 8620,
      "Ġdeven": 8621,
      "Ġdezer": 8622,
      "ĠfiÅĿ": 8623,
      "ĠkaÅŃzo": 8624,
      "Ġorien": 8625,
      "kalo": 8626,
      "portoj": 8627,
      "petalo": 8628,
      "Ġregula": 8629,
      "hor": 8630,
      "pajn": 8631,
      "yer": 8632,
      "ĠVivo": 8633,
      "helmo": 8634,
      "Ġfali": 8635,
      "170": 8636,
      "komer": 8637,
      "Ġveturilo": 8638,
      "UH": 8639,
      "071": 8640,
      "ĠVortaro": 8641,
      "ÑĨ": 8642,
      "oraÄµoj": 8643,
      "462": 8644,
      "Ġvizitan": 8645,
      "191": 8646,
      "nFil": 8647,
      "nKomenco": 8648,
      "VC": 8649,
      "ĠkaÅĿ": 8650,
      "Ġfunkcioj": 8651,
      "Ġmalvarm": 8652,
      "visto": 8653,
      "438": 8654,
      "Ġmalhelpas": 8655,
      "--------": 8656,
      "kson": 8657,
      "ĠleÄĿoj": 8658,
      "kcioj": 8659,
      "ĠTon": 8660,
      "469": 8661,
      "vojaÄĿo": 8662,
      "tuviÅ³": 8663,
      "inujo": 8664,
      "ild": 8665,
      "Ġfortika": 8666,
      "Ġpolitikon": 8667,
      "Ġgr": 8668,
      "Ġmira": 8669,
      "alego": 8670,
      "Ġmarkis": 8671,
      "Ġelemento": 8672,
      "Ġankau": 8673,
      "WB": 8674,
      "Ġsporto": 8675,
      "Ġbezonis": 8676,
      ".:": 8677,
      "ĠMongo": 8678,
      "Ġfruaj": 8679,
      "961": 8680,
      "ĠsenÄī": 8681,
      "Ġkompreno": 8682,
      "usoj": 8683,
      "umis": 8684,
      "Ġruman": 8685,
      "Ã³r": 8686,
      "Ġkonstruis": 8687,
      "Ġkvi": 8688,
      "ĠBea": 8689,
      "ĠÅĿanÄĿojn": 8690,
      "sky": 8691,
      "Ġspertoj": 8692,
      "Ġ1950": 8693,
      "ĠÂ©": 8694,
      "Ġbildon": 8695,
      "Ġbiblioteko": 8696,
      "proble": 8697,
      "wikiquote": 8698,
      "Ġrefor": 8699,
      "ĠVid": 8700,
      "zolu": 8701,
      "Ġvidpun": 8702,
      "Ġklopodoj": 8703,
      "Ġgenro": 8704,
      "Ġsubtenis": 8705,
      "Ġminimume": 8706,
      "ĠInstituto": 8707,
      "emajno": 8708,
      "Ġaktivuloj": 8709,
      "ĠPlena": 8710,
      "laboro": 8711,
      "ĠFe": 8712,
      "Ġbak": 8713,
      "usz": 8714,
      "Ġ55": 8715,
      "ÄĿantoj": 8716,
      "ĠNOM": 8717,
      "Ġ2023": 8718,
      "orgaÅŃ": 8719,
      "99924": 8720,
      "Ġplano": 8721,
      "Ġpentristo": 8722,
      "kategoria": 8723,
      "700": 8724,
      "peten": 8725,
      "Ġdetale": 8726,
      "Ġinstruistoj": 8727,
      "Ġpriskribas": 8728,
      "Ġmodernaj": 8729,
      "ĠILEI": 8730,
      "WL": 8731,
      "Ġpotencon": 8732,
      "uberni": 8733,
      "Kore": 8734,
      "debla": 8735,
      "akto": 8736,
      "Ġdirekti": 8737,
      "ĠLigo": 8738,
      "ezu": 8739,
      "vier": 8740,
      "nka": 8741,
      "nMo": 8742,
      "362": 8743,
      "bona": 8744,
      "over": 8745,
      "Ġinteresaj": 8746,
      "Ġknabino": 8747,
      "Ġarte": 8748,
      "nEuskara": 8749,
      "Ġenhavtab": 8750,
      "muziko": 8751,
      "Ġterminoj": 8752,
      "ĠReÄĿlando": 8753,
      "QZ": 8754,
      "pura": 8755,
      "maÅĿino": 8756,
      "Ġposta": 8757,
      "igrado": 8758,
      "nTio": 8759,
      "frikaans": 8760,
      "Ġnederlanda": 8761,
      "IJ": 8762,
      "XM": 8763,
      "nOficiala": 8764,
      "Ġnacio": 8765,
      "Ġ[...": 8766,
      "ster": 8767,
      "9855": 8768,
      "949": 8769,
      "Ġ48": 8770,
      "nPoli": 8771,
      "miÄĿo": 8772,
      "encojn": 8773,
      "ĠfeliÄīo": 8774,
      "RC": 8775,
      "ash": 8776,
      "Ġrespondas": 8777,
      "ristnas": 8778,
      "spa": 8779,
      "ãģŁ": 8780,
      "gust": 8781,
      "ĠâĪĴ": 8782,
      "Ġ1988": 8783,
      "nKontaktu": 8784,
      "nMagyar": 8785,
      "eniam": 8786,
      "Ġversioj": 8787,
      "ĠDuolingo": 8788,
      "Ġpenso": 8789,
      "Ġmanieroj": 8790,
      "Ġdisvasti": 8791,
      "useppe": 8792,
      "99943": 8793,
      "ĠÄīeÄ¥a": 8794,
      "Ġblu": 8795,
      "Ġaldonas": 8796,
      "ĠelÅĿuti": 8797,
      "Ġdosi": 8798,
      "Ġpeto": 8799,
      "229": 8800,
      "Ġpapera": 8801,
      "Ġfervoj": 8802,
      "272": 8803,
      "773": 8804,
      "Ġlastan": 8805,
      "ĠMastodon": 8806,
      "ĠUl": 8807,
      "ĠPROP": 8808,
      "ĠOx": 8809,
      "Ġgxi": 8810,
      "Ġbazaj": 8811,
      "ãģ¨": 8812,
      "RL": 8813,
      "gmento": 8814,
      "Ġsul": 8815,
      "ĠAmazon": 8816,
      "ĠMonde": 8817,
      "nAreo": 8818,
      "ĠligilojRedakti": 8819,
      "antajn": 8820,
      "Ġkonstanta": 8821,
      "nRespondu": 8822,
      "ĠInc": 8823,
      "bir": 8824,
      "Ġtes": 8825,
      "767": 8826,
      "liÄĿis": 8827,
      "iganta": 8828,
      "Ġekvid": 8829,
      "Ġekkri": 8830,
      "Ġpremo": 8831,
      "nKomun": 8832,
      "XV": 8833,
      "Ġjunula": 8834,
      "Ġkontras": 8835,
      "Ġproduktojn": 8836,
      "Ġoriente": 8837,
      "nn": 8838,
      "Ġperdi": 8839,
      "fluo": 8840,
      "Ġsteloj": 8841,
      "tagme": 8842,
      "Ġradiko": 8843,
      "nGeografio": 8844,
      "Mon": 8845,
      "urnal": 8846,
      "662": 8847,
      "WG": 8848,
      "alajn": 8849,
      "Viki": 8850,
      "ego": 8851,
      "Ġetikedo": 8852,
      "561": 8853,
      "Ġpartoprenas": 8854,
      "Ġkvanton": 8855,
      "Ġgrandega": 8856,
      "Ġkanta": 8857,
      "Ġenhavon": 8858,
      "tte": 8859,
      "ĠTan": 8860,
      "à°": 8861,
      "Ġpej": 8862,
      "9134856": 8863,
      "iris": 8864,
      "fur": 8865,
      "99944": 8866,
      "Ġpoezio": 8867,
      "nMor": 8868,
      "Ġrestos": 8869,
      "Ġlegen": 8870,
      "Ġdeziro": 8871,
      "NZ": 8872,
      "95193": 8873,
      "Ġsko": 8874,
      "Ġmemsta": 8875,
      "vinpetalo": 8876,
      "062": 8877,
      "ĠReferencoj": 8878,
      "Ã©e": 8879,
      "331": 8880,
      "Ġregno": 8881,
      "PY": 8882,
      "XJ": 8883,
      "riento": 8884,
      "Ġiloj": 8885,
      "heim": 8886,
      "nAkti": 8887,
      "505": 8888,
      "ĠKir": 8889,
      "ĠMik": 8890,
      "Ġdioj": 8891,
      "eblajn": 8892,
      "Ġeld": 8893,
      "130": 8894,
      "Ġpardon": 8895,
      "Ġmilitoj": 8896,
      "Ġekonomiaj": 8897,
      "iva": 8898,
      "Ġmol": 8899,
      "Ġpasintaj": 8900,
      "QJ": 8901,
      "Ġinsuloj": 8902,
      "ĠkomenciÄĿas": 8903,
      "725": 8904,
      "tito": 8905,
      "Ġsignoj": 8906,
      "8570": 8907,
      "Ġnekonata": 8908,
      "Ġdinastio": 8909,
      "ĠWa": 8910,
      "ANTO": 8911,
      "Ġree": 8912,
      "ĠPopola": 8913,
      "ĠUrbo": 8914,
      "UF": 8915,
      "ĠEng": 8916,
      "ĠEsperantistaj": 8917,
      "ĠAna": 8918,
      "ĠOt": 8919,
      "Ġdisko": 8920,
      "Ġenkonduko": 8921,
      "99989": 8922,
      "Ġgeneralo": 8923,
      "ĠJose": 8924,
      "ĠðŁ": 8925,
      "Ġsidis": 8926,
      "Ġmenciita": 8927,
      "hard": 8928,
      "nKion": 8929,
      "nSta": 8930,
      "ses": 8931,
      "Ġyour": 8932,
      "Ġenhavtabelon": 8933,
      "zaÄµo": 8934,
      "Ġfes": 8935,
      "6626": 8936,
      "Ã¡r": 8937,
      "ĠindiÄĿenaj": 8938,
      "Ġilo": 8939,
      "Ġfotoj": 8940,
      "Ġekstere": 8941,
      "ldo": 8942,
      "Ġdonos": 8943,
      "riaj": 8944,
      "Ġplanedo": 8945,
      "Ġmalju": 8946,
      "Ġfuntoj": 8947,
      "Ġeltro": 8948,
      "86071676": 8949,
      "Ġaktuala": 8950,
      "Ġsavi": 8951,
      "94424343": 8952,
      "Ġkompanioj": 8953,
      "riÄĿis": 8954,
      "Ġkonduto": 8955,
      "ĠAlex": 8956,
      "Ġfleks": 8957,
      "ĠLes": 8958,
      "nMia": 8959,
      "ĠKunar": 8960,
      "Ġplenumas": 8961,
      "Ġalvoko": 8962,
      "489": 8963,
      "_{": 8964,
      "959": 8965,
      "MF": 8966,
      "dish": 8967,
      "Ġpasinta": 8968,
      "retario": 8969,
      "Ġrimedojn": 8970,
      "241": 8971,
      "titucio": 8972,
      "Ġpraktiko": 8973,
      "880": 8974,
      "Ġverbo": 8975,
      "nJaro": 8976,
      "ĠPortugalio": 8977,
      "De": 8978,
      "hol": 8979,
      "à¤¨": 8980,
      "vad": 8981,
      "Ġinvers": 8982,
      "ebar": 8983,
      "Ġmodeloj": 8984,
      "eja": 8985,
      "400": 8986,
      "Ġalteco": 8987,
      "panish": 8988,
      "Ġatendis": 8989,
      "Ġelstara": 8990,
      "ĠHor": 8991,
      "nÅľaltu": 8992,
      "Ġflugi": 8993,
      "wahili": 8994,
      "ĠBanko": 8995,
      "ÅĿtatoj": 8996,
      "varo": 8997,
      "eligio": 8998,
      "ĠProfes": 8999,
      "Ġgvidanto": 9000,
      "ÄĪefa": 9001,
      "Ġangulo": 9002,
      "Ġkomponisto": 9003,
      "ĠFranc": 9004,
      "malpli": 9005,
      "ekzamen": 9006,
      "balo": 9007,
      "Ġ1920": 9008,
      "Ġmilionojn": 9009,
      "Ġatako": 9010,
      "Ġmekan": 9011,
      "Ġsiste": 9012,
      "cii": 9013,
      "ĠPek": 9014,
      "atalo": 9015,
      "082": 9016,
      "99511": 9017,
      "ĠScience": 9018,
      "ĠKongresa": 9019,
      "SY": 9020,
      "Ġkoloroj": 9021,
      "Ġsh": 9022,
      "Ġapero": 9023,
      "Ġfavore": 9024,
      "TF": 9025,
      "Ġque": 9026,
      "sho": 9027,
      "rigardo": 9028,
      "Ġ==": 9029,
      "Ġsperton": 9030,
      "Ġ1930": 9031,
      "ĠMondo": 9032,
      "gvid": 9033,
      "Ġkredis": 9034,
      "kantoj": 9035,
      "Ġkreo": 9036,
      "Ġbrus": 9037,
      "Ro": 9038,
      "ĠVj": 9039,
      "Ġzono": 9040,
      "Ġtitolon": 9041,
      "95193416": 9042,
      "ratoj": 9043,
      "hai": 9044,
      "1846": 9045,
      "ĠAmbaÅŃ": 9046,
      "ĠTradukis": 9047,
      "Ġsekvaj": 9048,
      "Ġdomoj": 9049,
      "Ġfamaj": 9050,
      "Ġribelo": 9051,
      "lumo": 9052,
      "ÅĿing": 9053,
      "Ġfiloj": 9054,
      "mom": 9055,
      "ĠSp": 9056,
      "tv": 9057,
      "way": 9058,
      "Ġscio": 9059,
      "9935": 9060,
      "ystem": 9061,
      "ugh": 9062,
      "810": 9063,
      "ĠFlo": 9064,
      "Ġstudis": 9065,
      "kanoj": 9066,
      "tube": 9067,
      "Ġhomon": 9068,
      "rpski": 9069,
      "aÄĿa": 9070,
      "Ġgraved": 9071,
      "Ġdiverseco": 9072,
      "Ġnorde": 9073,
      "Ġdeziris": 9074,
      "nÄĪar": 9075,
      "nNumero": 9076,
      "Ġvolontu": 9077,
      "Ġpovi": 9078,
      "NL": 9079,
      "eka": 9080,
      "Ġtimas": 9081,
      "Ġgita": 9082,
      "870": 9083,
      "zeco": 9084,
      "Ġhono": 9085,
      "775": 9086,
      "Ġadministrado": 9087,
      "ĠAndre": 9088,
      "Ġligo": 9089,
      "ĠOb": 9090,
      "050": 9091,
      "ĠSimi": 9092,
      "QV": 9093,
      "Ġbudh": 9094,
      "ĠlaÅŃeble": 9095,
      "gue": 9096,
      "Ġparolado": 9097,
      "select": 9098,
      "ĠAM": 9099,
      "Ġperseku": 9100,
      "ye": 9101,
      "nLu": 9102,
      "haveno": 9103,
      "Ġskribu": 9104,
      "ĠCharles": 9105,
      "ĠNovjorko": 9106,
      "umb": 9107,
      "âĸº": 9108,
      "rana": 9109,
      "ĠaÄīetis": 9110,
      "ĠTurkio": 9111,
      "nÐĳÑĬÐ»Ð³Ð°ÑĢÑģÐºÐ¸": 9112,
      "laÄµo": 9113,
      "Ġkatal": 9114,
      "mion": 9115,
      "Ġalilingva": 9116,
      "tine": 9117,
      "NJ": 9118,
      "roid": 9119,
      "ĠfariÄĿi": 9120,
      "Ġfrukto": 9121,
      "Ġbelaj": 9122,
      "ĠRichard": 9123,
      "Ġfremd": 9124,
      "Ġaperos": 9125,
      "99799114": 9126,
      "Äħ": 9127,
      "Ġmemori": 9128,
      "trejo": 9129,
      "ÕĢÕ": 9130,
      "Ã®": 9131,
      "geblaj": 9132,
      "nUn": 9133,
      "Ġeventuale": 9134,
      "nSerÄīu": 9135,
      "99936": 9136,
      "nivelo": 9137,
      "Ġkvina": 9138,
      "ĠekipaÄµo": 9139,
      "asisprop": 9140,
      "Ġdisvastigi": 9141,
      "pia": 9142,
      "zion": 9143,
      "Ġuzon": 9144,
      "ĠDemandoj": 9145,
      "ĠBrasil": 9146,
      "elli": 9147,
      "ĠMÃ¼": 9148,
      "Ġmalfermi": 9149,
      "XK": 9150,
      "nÐľ": 9151,
      "Ġobs": 9152,
      "Koordinatoj": 9153,
      "MH": 9154,
      "ĠaÅŃg": 9155,
      "tren": 9156,
      "¥Õ¶": 9157,
      "Ġforton": 9158,
      "rad": 9159,
      "Ġie": 9160,
      "Ġsupera": 9161,
      "donita": 9162,
      "9484": 9163,
      "281": 9164,
      "Ġvaroj": 9165,
      "457": 9166,
      "muloj": 9167,
      "socia": 9168,
      "nJam": 9169,
      "Ġelektoj": 9170,
      "Ġatendi": 9171,
      "Ġvel": 9172,
      "ĠKarlo": 9173,
      "ĠvizaÄĿon": 9174,
      "Ġdungi": 9175,
      "ices": 9176,
      "à·": 9177,
      "ĠBudape": 9178,
      "9934": 9179,
      "Ġmorti": 9180,
      "Ġeblon": 9181,
      "bano": 9182,
      "mus": 9183,
      "Ġekzamenoj": 9184,
      "BL": 9185,
      "Mar": 9186,
      "Ġmalfermita": 9187,
      "ĠAnna": 9188,
      "nSimple": 9189,
      "ega": 9190,
      "win": 9191,
      "Ġ42": 9192,
      "ulu": 9193,
      "tele": 9194,
      "Ġpotenca": 9195,
      "Ġmulto": 9196,
      "Ġflankoj": 9197,
      "Ø§Ø": 9198,
      "oje": 9199,
      "969": 9200,
      "ĠGener": 9201,
      "Ġimper": 9202,
      "Ġmalakcep": 9203,
      "GL": 9204,
      "Ġpaper": 9205,
      "ĠBab": 9206,
      "Ġreligiaj": 9207,
      "¡ÕµÕ¥ÖĢÕ¥Õ¶": 9208,
      "Ú©": 9209,
      "Ġmuz": 9210,
      "rey": 9211,
      "day": 9212,
      "katalogo": 9213,
      "koraÅŃ": 9214,
      "ĠSko": 9215,
      "Ġnotoj": 9216,
      "AZ": 9217,
      "rz": 9218,
      "Ġintervjuo": 9219,
      "Ġ\\\"\\": 9220,
      "ĠtranÄī": 9221,
      "15744": 9222,
      "Ġvag": 9223,
      "562": 9224,
      "kapablo": 9225,
      "nBatman": 9226,
      "Ġentrepreno": 9227,
      "ÅĽ": 9228,
      "à¤¿": 9229,
      "ĠArmenio": 9230,
      "Ġmallar": 9231,
      "Ġkonfuz": 9232,
      "Ġinterkonsento": 9233,
      "Ġkunsido": 9234,
      "lustuli": 9235,
      "Centro": 9236,
      "rantaj": 9237,
      "Ġdistribu": 9238,
      "ĠFolio": 9239,
      "Ġdokumento": 9240,
      "ĠRoman": 9241,
      "ĠEgiptio": 9242,
      "SL": 9243,
      "Ġpropor": 9244,
      "ĠFla": 9245,
      "560": 9246,
      "Ġliberaj": 9247,
      "Ġmalvarma": 9248,
      "Ġamaskomunikiloj": 9249,
      "antaÅŃ": 9250,
      "rajtoj": 9251,
      "ombio": 9252,
      "daÄµoj": 9253,
      "Ġbes": 9254,
      "Ġeksterlandaj": 9255,
      "mals": 9256,
      "lustulimu": 9257,
      "9220": 9258,
      "Ġsukcese": 9259,
      "Ġbatali": 9260,
      "979": 9261,
      "Ġsup": 9262,
      "deno": 9263,
      "kana": 9264,
      "ĠÄīesis": 9265,
      "Ġiru": 9266,
      "Ġvirus": 9267,
      "XP": 9268,
      "ĠFren": 9269,
      "ave": 9270,
      "ille": 9271,
      "Ġinterne": 9272,
      "Ġhejm": 9273,
      "Ġstan": 9274,
      "Ġmald": 9275,
      "thi": 9276,
      "seco": 9277,
      "891": 9278,
      "Ġwas": 9279,
      "Ġapartenis": 9280,
      "ĠRuÄĿa": 9281,
      "np": 9282,
      "Ġskribo": 9283,
      "ĠII": 9284,
      "231": 9285,
      "Ġekstero": 9286,
      "Ġkomb": 9287,
      "ĠKontraÅŃ": 9288,
      "99967": 9289,
      "Ġdekstra": 9290,
      "Ġsrpski": 9291,
      "ĠSz": 9292,
      "ĠMalgraÅŃ": 9293,
      "canoj": 9294,
      "tinte": 9295,
      "Ġdepende": 9296,
      "nDansk": 9297,
      "313": 9298,
      "Ġinteresoj": 9299,
      "ĠorganizaÄµoj": 9300,
      "nÐ¡ÑĢÐ¿ÑģÐºÐ¸": 9301,
      "mundo": 9302,
      "enojn": 9303,
      "ÄĿajn": 9304,
      "Ġenke": 9305,
      "Ð»Ð°": 9306,
      "99815744": 9307,
      "iÄĿon": 9308,
      "nRomÃ¢nÄĥ": 9309,
      "nd": 9310,
      "Ġvalu": 9311,
      "Ġretaj": 9312,
      "mala": 9313,
      "bour": 9314,
      "ĠAÅŃto": 9315,
      "Ġceteraj": 9316,
      "425": 9317,
      "cyclo": 9318,
      "99927": 9319,
      "ĠKonsul": 9320,
      "Ġgeedzi": 9321,
      "ĠÅĿata": 9322,
      "nFi": 9323,
      "ory": 9324,
      "Ġalu": 9325,
      "ĠreÄĿis": 9326,
      "Ġveni": 9327,
      "98782": 9328,
      "Ġnumeron": 9329,
      "ĠGlobal": 9330,
      "8570989": 9331,
      "Ġmalkres": 9332,
      "retoso": 9333,
      "Ġfilozofo": 9334,
      "farita": 9335,
      "ĠClub": 9336,
      "ĠHum": 9337,
      "ĠKondiÄīoj": 9338,
      "Ġorigine": 9339,
      "nPersona": 9340,
      "ĠOxford": 9341,
      "TE": 9342,
      "9877": 9343,
      "ĠbuÅĿo": 9344,
      "ĠJerusal": 9345,
      "Com": 9346,
      "ĠÏ": 9347,
      "Ġkunord": 9348,
      "Ġwill": 9349,
      "Ġmalrapide": 9350,
      "ĠDaÅŃ": 9351,
      "ĠaÅŃdi": 9352,
      "Ġ175": 9353,
      "Ġmalven": 9354,
      "Ġ1986": 9355,
      "proj": 9356,
      "ĠarÄĿ": 9357,
      "nTre": 9358,
      "Ġforigo": 9359,
      "ĠSenkategoria": 9360,
      "ĠFeli": 9361,
      "Ġfunkcii": 9362,
      "Ġrezultojn": 9363,
      "Ġtera": 9364,
      "Ġebleco": 9365,
      "RZ": 9366,
      "Ġspertis": 9367,
      "OK": 9368,
      "559": 9369,
      "Ġsvis": 9370,
      "chel": 9371,
      "Ġkanton": 9372,
      "Ġmalsupren": 9373,
      "pus": 9374,
      "legis": 9375,
      "449": 9376,
      "Ġajnan": 9377,
      "kantaj": 9378,
      "igardu": 9379,
      "bari": 9380,
      "ffe": 9381,
      "ĠMay": 9382,
      "ĠKatal": 9383,
      "Ġalti": 9384,
      "025": 9385,
      "nKara": 9386,
      "Ġtiama": 9387,
      "ÃŁ": 9388,
      "ĠAten": 9389,
      "9875": 9390,
      "mith": 9391,
      "nThe": 9392,
      "Ġstarigi": 9393,
      "Ġnutra": 9394,
      "RH": 9395,
      "Ġsukcesas": 9396,
      "nTitolo": 9397,
      "ĠÙ": 9398,
      "Ġpostulis": 9399,
      "ĠMela": 9400,
      "nal": 9401,
      "nDu": 9402,
      "Ġeraro": 9403,
      "ÉĻr": 9404,
      "ĠBaz": 9405,
      "iojn": 9406,
      "Ġkalkuli": 9407,
      "QK": 9408,
      "Äĩ": 9409,
      "9911": 9410,
      "Ġnere": 9411,
      "Ġdirante": 9412,
      "ander": 9413,
      "ĠbaziÄĿas": 9414,
      "gulo": 9415,
      "teloj": 9416,
      "lavo": 9417,
      "Ġkomento": 9418,
      "ĠLondon": 9419,
      "Ġimagi": 9420,
      "GY": 9421,
      "ĠÄĿui": 9422,
      "ĠAldone": 9423,
      "skul": 9424,
      "8639": 9425,
      "è¯": 9426,
      "Ġprotoko": 9427,
      "nRilataj": 9428,
      "XC": 9429,
      "Ä¥os": 9430,
      "Ġkaptis": 9431,
      "Ġmenciitaj": 9432,
      "096": 9433,
      "Ġvojoj": 9434,
      "Ġprojektojn": 9435,
      "Ġegaleco": 9436,
      "523": 9437,
      "GJ": 9438,
      "Ġpremio": 9439,
      "Ġhistoriaj": 9440,
      "Ġpatrolita": 9441,
      "bono": 9442,
      "havi": 9443,
      "ĠfeliÄīa": 9444,
      "Ġfad": 9445,
      "TK": 9446,
      "nret": 9447,
      "wp": 9448,
      "ĠPl": 9449,
      "kcidenta": 9450,
      "ĠRam": 9451,
      "ĠCro": 9452,
      "Ġfortaj": 9453,
      "cker": 9454,
      "nTrans": 9455,
      "Ġelektron": 9456,
      "tics": 9457,
      "ĠEkonom": 9458,
      "ĠBy": 9459,
      "QM": 9460,
      "RP": 9461,
      "SM": 9462,
      "nDez": 9463,
      "eÅŃ": 9464,
      "Ġofen": 9465,
      "logie": 9466,
      "pova": 9467,
      "ĠPaci": 9468,
      "tantan": 9469,
      "Ġrimedo": 9470,
      "ĠkuÅĿas": 9471,
      "Ġnature": 9472,
      "Ġsuferis": 9473,
      "Ġfenomeno": 9474,
      "ĠÅĿancon": 9475,
      "nHejmo": 9476,
      "QF": 9477,
      "99937": 9478,
      "Ġdie": 9479,
      "Ġinformon": 9480,
      "Ġtoler": 9481,
      "Ġinkludas": 9482,
      "Ġinstruas": 9483,
      "Ġplurfoje": 9484,
      "Ġagi": 9485,
      "1117": 9486,
      "Ġsude": 9487,
      "ĠfraÅŃ": 9488,
      "ĠÄĿojo": 9489,
      "sol": 9490,
      "Ġpoemoj": 9491,
      "td": 9492,
      "ĠnovaÄµojn": 9493,
      "Ġforiris": 9494,
      "Ġretiri": 9495,
      "fitoj": 9496,
      "Ġalire": 9497,
      "nÎķÎ»Î»Î·Î½Î¹ÎºÎ¬": 9498,
      "rele": 9499,
      "ĠelektaÄµon": 9500,
      "aranÄĿo": 9501,
      "Ġfos": 9502,
      "ĠBrus": 9503,
      "ĠKafo": 9504,
      "ligitaj": 9505,
      "Ġpolitikan": 9506,
      "Ġmatene": 9507,
      "GF": 9508,
      "ĠParo": 9509,
      "Äµa": 9510,
      "Ġcan": 9511,
      "Ġnomojn": 9512,
      "Ġfaktoroj": 9513,
      "urs": 9514,
      "ĠTia": 9515,
      "Ġsenton": 9516,
      "330": 9517,
      "98782945": 9518,
      "Ġutilas": 9519,
      "Ġ54": 9520,
      "ĠPO": 9521,
      "mez": 9522,
      "nPe": 9523,
      "nUrsula": 9524,
      "502": 9525,
      "048": 9526,
      "nTiáº¿ng": 9527,
      "ĠFried": 9528,
      "gni": 9529,
      "gante": 9530,
      "Ġarboj": 9531,
      "Ġtekniko": 9532,
      "Ġkristana": 9533,
      "TZ": 9534,
      "ĠKru": 9535,
      "Ġbordo": 9536,
      "ĠPÃ©": 9537,
      "dimen": 9538,
      "669": 9539,
      "plifi": 9540,
      "nIli": 9541,
      "Ġfilme": 9542,
      "historio": 9543,
      "Ġ99": 9544,
      "Ġedzi": 9545,
      "99561477": 9546,
      "Ġvalidas": 9547,
      "Ġpandemio": 9548,
      "nFo": 9549,
      "interest": 9550,
      "tetoj": 9551,
      "ĠlaÅŃle": 9552,
      "ĠInternaci": 9553,
      "938": 9554,
      "icz": 9555,
      "Ġreprezentantoj": 9556,
      "GM": 9557,
      "ĠSco": 9558,
      "ĠMarch": 9559,
      "ĠChi": 9560,
      "Ġpriskribi": 9561,
      "Ġbezono": 9562,
      "Ġpermesis": 9563,
      "ardoj": 9564,
      "ĠFron": 9565,
      "ĠPlatano": 9566,
      "RM": 9567,
      "Ġprepa": 9568,
      "ĠdaÅŃra": 9569,
      "trukturo": 9570,
      "Ġspecialaj": 9571,
      "Ġmalfrue": 9572,
      "ĠMalferma": 9573,
      "ÕĢÕ¡ÕµÕ¥ÖĢÕ¥Õ¶": 9574,
      "zÉĻr": 9575,
      "usio": 9576,
      "Ġgrupon": 9577,
      "ĠEsperantisto": 9578,
      "Ġsenti": 9579,
      "baycan": 9580,
      "kel": 9581,
      "ĠSekureco": 9582,
      "Ġspekta": 9583,
      "180": 9584,
      "nERGO": 9585,
      "Ġoficialaj": 9586,
      "direkti": 9587,
      "ĠDia": 9588,
      "kuro": 9589,
      "Ġcirkonstancoj": 9590,
      "zÉĻrbaycan": 9591,
      "ĠCivito": 9592,
      "ĠÄĪef": 9593,
      "ĠMol": 9594,
      "Ġplum": 9595,
      "ĠInversigi": 9596,
      "undoj": 9597,
      "Ġpropri": 9598,
      "Ġmuzeo": 9599,
      "ietuviÅ³": 9600,
      "Ġhazarde": 9601,
      "even": 9602,
      "umas": 9603,
      "Ġfaka": 9604,
      "ĠÐ½": 9605,
      "Ġdiskuti": 9606,
[...]
